▁dream
▁най
▁ident
made
route
▁auch
▁Penn
ard
burn
Pars
▁CAN
clip
▁plate
▁jou
<0x74>
<0x1F>
▁salary
独
▁album
▁bunk
▁insert
▁accepted
▁Fame
▁extraord
▁graph
庄
▁imagination
币
Ч
▁Harvard
éré
Signature
chat
TextBox
ří
}}\
astic
▁electrical
,
▁chemistry
▁Dennis
}({\
▁realm
▁saving
▁Secretary
▁vr
▁described
▁stor
▁incl
▁sé
Chain
▁má
▁LIMITED
Load
▁Global
▁adventures
ently
▁often
▁scope
館
随
▁..
Conv
립
sf
unt
ICAL
ix
▁frances
▁ethnic
產
Agent
Í
org
inode
▁Russell
ifying
gfx
js
▁elő
}}(\
島
xl
▁tolerance
▁без
▁hip
innings
kh
eurs
▁Cette
unnel
=%
▁university
Rele
ret
returns
HS
▁Carter
▁painful
CHANNEL
▁жи
Listen
▁Евро
wt
▁Company
▁strictly
▁charity
▁Trust
▁named
cular
▁cares
deserialize
▁gotta
angle
▁word
▁Priv
Short
▁Norm
halt
ads
anas
ACCESS
▁arrange
bro
▁NY
▁clin
Response
▁crashed
▁regarded
payload
opf
getInt
?
чен
̣
▁divis
CONST
▁Jug
have
Inter
ej
▁er
▁vida
hren
▁réalis
recogn
▁papers
त
▁inspection
▁Los
letter
▁beskrevs
▁Scott
●
CAL
▁Bernard
▁Finale
izon
▁stepped
▁Nich
▁Н
▁Daily
仓
阻
▁Own
inus
ɕ
；
select
Init
▁loudly
î
▁exceptions
▁upstairs
▁agosto
▁forgotten
V
gon
▁Final
▁afin
▁withd
check
convert
▁Haz
=_
duration
eral
LABEL
▁seus
▁Mult
▁AMD
Path
om
▁ende
▁honom
ξ
odio
ersion
max
IFI
▁thesis
付
▁organisations
▁Error
▁grass
▁jul
コ
ダ
简
▁passed
eur
adv
▁або
▁impression
É
ded
bottom
}}_
▁swung
脚
進
▁Gill
▁septiembre
▁Cultural
▁maar
▁stripped
▁Palace
▁ство
вала
fore
<0xC3>
▁bankrupt
tyard
▁warm
▁sugar
▁containers
▁writer
compiler
▁для
’,
▁aver
backup
aml
▁popularity
▁комп
mixer
▁Cec
eturn
▁eff
amment
▁vul
▁Gemeinde
herent
ześ
ounter
dst
adr
▁topics
▁exhausted
ễ
Topic
apore
▁ell
lett
Long
▁borrow
RESET
▁amen
▁Do
Io
циональ
▁external
▁Amaz
▁коман
CONFIG
▁hö
裝
▁gel
Lat
▁cultures
DAY
Cloud
▁Verify
账
▁IX
-----
▁Access
▁станови
▁lob
▁autre
宣
▁Cy
▁Hoff
ำ
bd
▁sheer
tuple
œur
boost
▁rust
▁headers
池
élé
▁inde
$^{-
rico
cock
▁полити
aren
մ
auses
toBe
▁После
Sum
éal
icios
Assignment
▁starts
LIST
vens
Die
▁Need
▁ak
▁mac
▁mainly
Proof
▁hid
▁pressing
ycle
three
?!
▁Parker
taient
铁
ieme
▁physician
▁numbers
▁thigh
esar
endar
бря
ج
▁Peters
▁wir
券
▁stopped
▁deserved
чество
▁conclusion
▁Built
▁"${
▁ep
Lo
scar
▁Nach
рь
oba
кой
π
̈
Retry
ime
▁eth
BB
amp
▁égal
▁trusted
Future
▁Maz
▁Seine
▁hers
织
轩
itage
Friend
abe
▁AA
ide
student
▁flying
▁_(
STM
冰
ℓ
▁Andrew
CTX
Open
oga
및
windows
队
ructions
izar
▁artist
Co
viously
▁valley
<0x80>
borough
▁pip
STAT
▁aims
▁Cel
▁bc
▁diverse
闲
▁shorter
▁obligations
▁worry
be
Cannot
▁Data
▁threatening
Kernel
▁Vien
▁level
achers
▁Didn
▁pierws
▁realistic
fail
▁asked
▁calculations
essed
ią
dzie
]*
张
rière
▁village
▁Die
▁Face
白
THOD
苏
▁compared
▁et
TIME
▁ARISING
žen
gold
peed
beit
len
▁Revolution
▁Jake
rin
▁preference
返
JS
▁Equipment
▁XI
acc
▁familia
▁brains
Miss
as
▁gmin
▁talents
▁dataset
六
prise
Repository
▁planets
limits
▁teachers
Link
though
'])
▁segu
Profile
free
▁Constant
萨
istr
▁ed
▁om
▁os
▁packed
anel
▁até
<0xC6>
)>
▁mt
▁indirect
▁identity
Try
▁chocolate
ctrine
▁DATA
▁Hugo
曾
▁congreg
▁losses
▁°
iterator
▁battery
town
▁niet
▁frustration
}
Hi
LM
INIT
▁Hell
居
=(
ців
情
▁workers
▁ét
even
grpc
шли
quot
iously
abul
wick
mel
▁western
pgf
Enum
א
È
▁sul
▁hel
bp
▁kur
▁blade
...)
")]
юще
NC
▁pa
Asset
hora
ø
UTC
▁strongly
▁Ki
▁Z
ested
▁п
rhs
˜
⋆
▁greed
▁sod
cknow
ִ
▁pc
kes
Opt
▁kun
▁zunächst
LENGTH
▁Sout
Dto
dir
IME
▁mole
▁теле
uent
▁no
▁went
orf
тет
▁immense
▁ingredients
▁extraordinary
ote
▁members
▁test
▁Vin
proc
plugin
▁abundance
▁biggest
▁månaden
ceil
iding
then
▁disable
peated
▁Otto
▁pkt
дов
▁Additional
▁coaches
même
▁anche
▁jag
▁mobil
}=\
▁increasing
▁Stein
come
▁pie
▁dollars
ograp
нима
este
▁poder
crate
Rule
▁citt
恢
harm
▁актив
▁Cole
▁commander
▁applies
akes
▁third
▁recorded
Live
▁predict
▁carrying
▁shr
▁visibility
ede
▁Jah
▁faced
▁outcome
▁gray
▁stretch
Mesh
ía
▁dose
▁Pict
▁accidents
ancer
ิ
ỏ
▁Main
▁Peak
▁contra
▁Output
pipeline
▁git
▁Vir
▁steht
▁sein
ibrary
licenses
final
rief
འ
ゴ
▁imm
▁Caribbean
зо
▁Has
▁aston
▁Pu
▁Rules
▁Sull
CPU
FW
"+
atti
rss
受
uar
▁shooting
limp
éta
John
ín
members
plant
▁città
fragment
arto
♭
▁forget
▁ruin
▁Yam
DB
▁repe
іль
▁Finally
▁penalty
▁Yang
▁distribute
Cursor
▁département
Copyright
▁Ot
▁acceptance
▁Delta
▁sí
fr
.";
▁trailing
trim
Buttons
ự
Que
ý
where
▁intens
闭
▁kwargs
▁iPad
▁north
▁loop
dynamic
ʋ
▁cui
omena
▁js
<0xE6>
隔
']
light
став
▁fate
spi
dx
cheduler
▁bereits
▁получи
▁hasn
▁dick
<0x02>
▁але
▁Kn
cleanup
FO
▁Qual
▁analyst
ване
Platform
▁socks
▁display
▁Gets
UTE
▁Jour
画
let
<0x6D>
▁Dod
"):
esto
▁suited
▁everywhere
DL
▁disclaimer
미
(
▁neck
aver
▁"+
▁homes
▁Mr
▁Plant
▁gather
习
放
▁съ
attro
▁la
▁Haven
▁membre
тив
ghai
▁judges
rera
▁*/,
▁vendor
▁sitting
🏽
ingu
▁dens
ît
▁having
ppen
▁"\
MAG
▁supply
thon
▁cyber
anger
▁gab
rios
▁rever
▁","
▁kom
He
}}
▁Lou
ár
ню
▁Songs
▁Fill
tests
▁remarkable
举
▁спе
▁concentration
▁illustr
▁giving
则
▁програ
「
▁À
DD
▁comic
▁God
▁para
é
▁Prize
anie
▁updates
▁intellectual
▁Papers
ascade
拼
hold
▁bounds
necess
▁mesh
▁error
aru
さ
▁Dopo
▁Pars
sal
ісля
bool
▁Bank
lex
▁desper
marks
▁Harris
▁vir
▁schedule
rif
▁"[
▁barn
last
prison
ITS
phony
EEE
tpl
比
▁исто
▁Boy
▁love
TABLE
Address
▁affili
▁Method
▁brushed
bell
▁Royal
field
▁laundry
値
▁Inst
Follow
▁enabled
আ
▁Keith
uda
▁styles
Pattern
▁consisting
ju
AAAAAAAA
charg
▁comm
▁climate
▁fi
gas
ль
▁direction
mgr
▁harmful
▁theme
▁wid
glass
▁keywords
ʲ
청
ArrayList
▁Tem
▁gradu
getAttribute
▁toe
▁Valley
blk
kk
記
ist
▁black
严
eking
▁confirm
键
Le
▁tick
HTML
status
roid
▁seriously
▁comparing
insky
NUM
▁scattered
Occ
EQ
D
业
চ
MAIN
also
="+
然
did
because
▁kid
▁peaceful
▁habitantes
▁line
▁printf
rid
.
ph
<0x93>
▁elabor

></
▁Jenn
▁Plus
▁Punk
▁dance
Sort
▁Mär
ions
་
norm
▁M
▁Green
գ
▁yy
eneath
pgfqpoint
▁три
▁Dun
▁Usually
▁Net
▁rushed
▁perceived
香
▁does
▁treatment
▁Situ
anga
多
▁recycl
ɴ
ject
▁popul
seven
▁measure
▁Mini
ween
만
subset
▁trim
▁authentic
▁supporters
▁distinction
▁Yes
scroll
覧
вен
▁rack
earing
rdev
荐
▁initialization
vb
▁Ireland
interval
urch
▁offset
riet
itis
stein
▁время
▁retreat
▁formation
(['
nier
▁wen
ashed
tab
▁mondiale
text
▁do
hh
▁stock
動
▁Carolina
▁Ec
DEC
att
▁Korean
▁Jam
ule
▁streak
▁hig
▁grounds
▁cargo
станов
▁Once
ou
▁Si
▁emerging
▁Би
]);
▁wise
uba
▁гу
▁dies
anson
▁swear
당
ces
pb
▁computed
Inputs
eben
로
활
▁окон
▁Mé
Ա
sing
и
染
peonato
▁reset
▁something
調
▁Jacob
▁thou
▁happened
ٓ
vi
anqu
ines
NOWN
▁takes
▁only
še
▁fe
▁questions
κ
andra
<0x6F>
년
▁assert
ws
赖
▁synthetic
enden
▁critics
Appearance
negative
▶
ordon
mma
▁interface
▁ordinary
ic
▁John
▁stroke
▁tri
▁fork
调
▁ther
易
▁Temple
ische
."""
▁park
pathy
▁since
asting
▁phase
乘
▁s
orio
毕
cfg
aupt
igible
三
ừ
▁conserv
▁conver
Î
▁ov
▁Netflix
roe
▁случа
그
Group
Ζ
Overflow
▁silver
Bounds
▁pieces
▁OK
Attachment
Manifest
▁int
▁Hur
Ÿ
Support
双
▁Kenya
▁greatest
Task
<0x8B>
▁societies
seconds
▁Peg
▁change
▁hoping
Branch
Mapper
▁DS
▁trust
le
▁nu
正
dependent
▁Lamb
ь
нд
▁suspicion
▁Location
acket
▁deals
▁swap
▁nit
▁denomin
ем
ebru
>
▁Thompson
▁careers
ward
▁Pull
Surface
▁UINT
ained
ACTIVE
ONT
▁Austral
ils
";
ARCH
▁German
▁configuration
your
UBLE
ape
%;
양
▁contact
▁chronic
▁fixture
▁"./
▁each
▁Ivan
pop
pattern
strcmp
[:
▁hind
amas
dbc
▁ancestors
▁cruise
inder
函
sound
▁Square
充
Reset
▁bullet
페
▁Lee
<0xC0>
割
摩
ks
cite
ashion
▁loves
.(
volution
▁Orchestra
general
▁recognition
▁ок
xit

▁laug
▁Bernie
due
▁fru
▁GPIO
irm
ron
eton
▁då
▁agenda
ieval
Updated
Console
▁Bot
▁hyper
▁chat
seq
▁similar
▁Test
▁constraints
olk
章
▁--
HC
normal
rol
▁cri
▁appoint
▁Montreal
▁fixing
생
▁year
▁Sy
丰
▁cet
者
▁option
<0x0A>
loat
句
ringe
ors
▁Rang
ENABLE
▁spouse
▁Rhe
гом
VIS
▁using
NA
▁mo
ultane
▁Tre
stdout
▁Hay
Leave
▁icon
▁diciembre
aired
顺
<0xBC>
▁community
▁rc
▁Jung
▁Pays
▁signed
습
▁flaw
ŏ
͡
▁фон
andom
▁commer
ക
ros
▁tested
▁Singles
▁recovery
▁destruct
reader
ipart
▁stag
▁shy
▁dialogue
Mac
▁Aust
channel
▁Jud
usage
▁bem
ilen
▁steps
Sensor
▁heritage
agon
息
tid
Key
card
▁locate
▁dal
MM
mq
Vol
义
▁:
Mod
▁addressed
icer
▁never
▁tossed
acional
ahoo
serie
ują
look
шки
▁Fuck
▁belt
dess
▁estud
rest
▁Construction
****************
▁secondary
▁limit
ún
mates
▁cord
▁operations
ны
😊
Initialize
்
▁link
TR
▁bod
流
oby
▁ghost
▁poly
▁cure
记
ifference
स
▁Wed
▁Neither
▁quest
scr
▁Valid
▁rely
▁Pri
▁magn
disabled
▁Ukraine
▁Deutsch
▁saison
▁Dark
▁Lux
µ
▁death
words
▁Partial
Install
場
▁pleasant
▁patience
infl
▁них
ς
▁gross
nett
口
▁recognised
▁installation
fab
Execute
They
ield
city
▁curios
▁consciousness
▁select
▁Mu
▁également
riority
▁ou
▁council
았
annotations
Ô
MAC
▁hostile
ym
áz
redit
)).
Dis
▁ré
ved
▁advance
▁села
▁Steven
▁fort
selves
<0xE3>
▁améric
abs
▁painter
▁deployment
男
ана
ologists
ología
지
▁across
relation
द
▁absor
oline
▁acquis
^{-
▁Lew
▁aspir
▁color
▁Marco
tl
▁wireless
：
ops
▁вы
inos
▁wings
▁transferred
MAGES
unächst
阵
EM
ře
▁frustrated
形
Ш
▁absolute
▁Advent
мы
▁record
▁asc
iat
▁wip
нан
▁Matrix
쓰
bourg
emperaturen
▁fortune
▁grim
dao
▁knee
Called
▁configure
▁feed
rightarrow
▁deliber
Char
times
▁another
▁ville
lez
Methods
▁electro
struct
▁luck
க
▁cops
▁gehör
▁\;
▁intervals
Process
NEXT
▁Middle
▁hook
cccc
:{
▁Bour
uration
ository
▁ши
atisf
icy
iale
▁snake
rp
Mart
▁cock
▁attorney
▁Golf
itate
世
worthy
▁proved
cheduled
▁affiliates
üt
vent
▁feedback
UA
City
▁draws
ody
<0xA0>
дж
▁vs
pages
▁Poland
▁banda
bey
PH
▁coal
散
Point
вича
loc
▁Philipp
▁celebrated
▁dress
▁pursue
Մ
'):
aste
annotation
Switch
...'
▁SSL
▁trees
作
slice
Ł
▁boom
ទ
▁constants
▁Em
▁finished
▁Lu
▁punto
▁Wel
王
▁realiz
▁Eddie
ън
▁{"
▁ри
ahoma
omon
▁magaz
signature
▁linear
yll
Helper
▁eyes
▁ihre
ût
");
色
GF
ⴰ
▁Pad
▁vain
▁Cin
▁Release
▁Ohio
typeof
▁survive
aggi
.")
heet
▁Men
Ah
‡
ifications
agment
▁needing
Effect
風
▁ports
▁Second
▁Append
▁period
hend
ements
恋
▁food
riving
esz
▁instance
▁fresh
按
▁readily
▁nag
▁preferences
操
▁appreciated
▁properties
Ï
▁nä
警
▁receiving
Som
Autom
▁completely
▁Denver
Math
ി
proto
▁Andr
▁largest

▁hotels
кту
▁mild
▁zich
▁uz
▁…
fc
▁Loren
▁Coff
る
▁accompanying
DELETE
వ
▁cage
ivil
utdown
▁fears
ifest
';
zm
▁absurd
ᴏ
▁kat
▁contracts
ய
atted
級
removeClass
Received
▁reason
▁sac
▁adults
▁Arc
▁falling
แ
health
aken
recv
銀
▁grown
ѐ
▁sour
☉
dings
<0xD3>
MC
▁Copa
anno
▁(!
GD
▁inter
▁spirits
차
▁burst
▁over
›
ände
Bean
！
艺
올
hyper
▁wrote
▁Sen
▁positions
▁Tools
Introduction
▁Finland
iety
▁álbum
▁encryption
Comput
вид
▁Division

▁empire
▁Those
▁complain
▁corners
▁Law
▁offensive
▁{\
▁Feature
Spring
젝
gnu
▁oper
▁acknowledged
▁bless
\+\_\
▁noticed
▁Lloyd
▁cous
cnt
ひ
▁pictures
▁serves
▁syn
▁afford
enti
R
▁États
ector
Christ
▁treasure
▁optical
▁propag
direction
▁{}
▁Niger
ʃ
ched
▁après
▁healing
▁qualify
▁déf
▁paused
》
ٱ
皮
▁":
poon
▁Ту
stan
hole
▁Survey
▁crash
вший
PS
▁bland
▁дру
▁PORT
iff
▁où
▁Gl
▁pre
타
▁incent
ango
▁exciting
ye
мер
▁art
▁gele
▁engage
rig
▁worm
Ī
▁volumes
iele
▁Gas
ky
ifica
▁Barry
▁Mov
价
▁Heavy
▁miracle
▁Henry
😆
▁structure
ním
▁Sex
☆
Af
▁PL
dw
ership
ceive
season
Tab
boldsymbol
▁compression
▁annually
ervices
ческий
▁layer
▁suppose
▁evidence
▁Francia
loe
▁Ana
Paul
▁ihrer
▁kör
eros
▁Bau
▁UP
▁were
▁hole
▁safely
▁Scient
▁concern
go
oyal
Rank
ycz
▁результа
▁professionals
MP
ata
▁Musik
▁Prince
SION
сси
些
ExecutionContext
▁bytes
▁Bow
▁home
Les
StackTrace
▁Brothers
▁`${
议
<0xF1>
()[
abort
▁powder
▁ind
▁stood
epsilon
this
▁Should
▁cursor
▁près
actory
Compiler
▁membr
func
▁Alice
Users
▁lun
▁Nin
▁neigh
Encode
사
▁societ
Mill
Tasks
теля
lesh
▁duties
▁responsible
CP
▁taking
ible
mes
▁Prof
▁smoke
▁encourage
▁United
available
▁[]
Scale
就
▁orange
▁Hob
▁rede
finite
😁
onomy
▁websites
▁redistribute
However
▁restrictions
>";
▁abandoned
▁Pub
▁define
▁sle
▁soll
▁connecting
his
▁зем
▁dej
落
▁opportun
ouses
endent
Uri
▁situations
▁al
ases
▁Store
▁puls
声
kar
publish
endet
Default
build
▁deze
дера
aved
tv
▁aug
Tags
yar
▁dove
该
ened
‘
▁setting
redu
riteria
▁piss
directory
▁Gary
▁Companies
staff
▁Dream
工
ң
▁Click
ueto
▁Maine
▁affect
▁owned
▁Ash
▁purposes
▁lied
find
onds
▁Lar
听
▁decides
IDENT
▁fick
▁recognized
权
mmc
▁managers
cb
ustom
▁Loc
plan
▁arrival
<!--
▁nearby
▁focused
▁aboard
▁pool
save
▁Deep
abstract
▁Conservative
▁lawsuit
连
▁Бе
ал
▁també
deleted
▁bears
avor
plus
ensing
质
vp
▁noviembre
▁introdu
iqu
python
ід
▁fever
▁),
▁airport
▁worship
global
ancers
▁figures
athon
remote
▁packets
▁gew
▁danger
▁involvement
▁daughter
spec
voir
unting
▁scholars
▁Por
rov
OPTION
▁Syn
▁DEF
▁Haus
▁latter
lagen
lig
ном
▁guarantee
Aug
not
▁connection
ois
▁населення
▁basically
▁Vice
▁ids
▁Miller
▁propriet
▁jaw
▁transmission
细
ir
information
▁shots
▁ge
▁anos
▁между
unlikely
▁Person
eper
▁capture
▁ál
▁rid
▁entries
▁Clara
▁Aires
另
ipp
WI
져
Serial
▁establish
repeat
排
▁advised
ClassName
▁units
)-
▁profound
ಠ
▁более
관
▁send
+"
▁performed
▁Protocol
▁incidents
adapter
▁stumbled
▁purch
▁accepting
▁(†
gy
mathfrak
ANCE
ü
ಾ
▁val
▁single
▁Beck
aster
▁Colomb
▁answered
camp
ube
▁heart
cache
Colors
uuid
▁secolo
▁modern
tri
▁alleged
▁Listen
мента
▁automated
서
der
观
▁violence
▁contemporary
uso
▁Sweet
▁following
arter
Page
ARRAY
▁reserve
安
▁Temp
▁missed
geq
區
▁Анд
▁nos
'"
osed
admin
▁despair
▁restart
▁Roland
▁Token
▁earthqu
▁panic
▁nei
asc
▁apr
hline
bidden
▁spare
막
▁compet
▁Ac
▁element
▁ад
▁cooked
▁drew
▁bro
▁Swedish
▁Liv
▁emission
isterschaft
}{\
▁acid
▁Runtime
actual
▁bought
▁explo
<0xD6>
▁handled
😢
ehicle
ден
▁stand
▁tod
▁Ham
PUT
orno
LT
浪
▁distinctive
subsubsection
Shared
▁größ
type
Window
float
таль
ল
itational
苗
amente
▁Mey
▁rand
▁Alban
Other
▁той
▁grasp
▁handles
▁sad
ку
Detail
}|
ało
产
▁Name
unge
rou
▁stru
▁О
▁voll
AF
▁stores
områ
ounge
snapshot
▁Meter
<0xB9>
★
пло
▁fixed
outine
ją
guid
ilar
fp
catch
istically
▁indu
▁Ira
▁Case
ნ
感
irl
▁encoded
▁msm
▁bar
arians
▁Salv
발
BM
etzt
▁guarante
▁columns
▁Ronald
▁touchdown
spector
velop
▁try
▁instr
▁gear
끝
▁Emma
▁datetime
▁walking
ے
ér
ing
忽
▁había
▁Ost
eter
IN
▁@
ifndef
▁klass
Capture
▁heroes
▁lets
ations
enne
▁crucial
▁пол
▁Cam
ims
▁ek
▁caus
▁extend
▁erste
▁choose
▁Carol
▁Performance
▁Cost
▁stake
▁or
dire
▁Гу
take
▁Theorem
}\\
▁Institute
egen
\]
getOperand
▁PURPOSE
ே
▁жур
▁parser
▁Tony
under
▁AR
рой
pkt
Clear
paper
ensor
design
▁Conne
Plugin
▁murm
▁schol
clipse
▁dual
▁franc
▁haut
升
uras
▁suscept
ichte
▁Winter
▁fluctuations
▁text
pliers
▁onclick
명
▁alc
▁breaking
rag
Scal
memcpy
▁configured
overy
▁Comput
>&
▁adjust
▁genuinely
▁Tab
▁chapters
▁girl
hens
Att
※
▁accordance
Pin
description
orious
四
oor
▁rad
<0xA3>
ording
▁же
Bin
ENS
repo
▁rolled
▁Original
▁Inside
ถ
▁nj
器
holds
MESSAGE
^{(
▁insult
▁cover
respect
且
灰
Exp
builder
▁Raymond
許
](
▁intense
lessness
itol
▁Speed
治
▁reasonably
▁NAS
était
▁overseas
re
▁wrapped
▁mundo
getCurrent
UK
"]
▁candidate
defined
▁///
▁Indones
igue
▁Device
▁poc
▁Frances
FC
GE
▁speaker
▁will
▁Fro
▁Illinois
▁interactive
Analy
▁DE
▁thermal
▁Ukr
▁plat
▁sull
▁hi
oard
unts
unused
checkbox
half
통
▁currency
▁enthusi
▁constitu
theless
Language
▁моло
▁Jur
orp
▁Clean
osing
▁kam
▁ignorant
count
[-
кта
▁regia
▁même
▁Frankfurt
ED
▁Professor
▁mejor
urable
▁distant
ax
Normal
▁nouveau
()}
▁ih
TE
▁Verein
▁scar
▁toilet
strap
intage
▁perpet
岗
ɾ
▁NOTE
widehat
▁pur
samples
slider
▁Value
▁origins
},
▁equal
하
▁but
▁Pl
▁IV
▁heading
▁соста
▁ву
Combo
▁barrier
jed
YN
<0xA1>
▁blocking
▁suspected
▁published
лта
愛
телей
validation
preter
▁inserted
▁socket
▁both
▁regional
▁ph
▁appreciation
gc
until
resource
spr
aye
isl
▁administer
ை
oning
울
ames
ὴ
▁vision
iveness
В
___
Read
lla
▁Party
style
▁VI
▁quote
▁Double
▁elite
▁arch
рое
▁message
▁Ur
inition
▁animals
帧
roit
open
▁emissions
]",
ским
ulus
ъ
encil
▁trad
Compute
▁Innov
supported
▁whose
▁gef
▁determine
]=
caps
Roll
linked
Ц
▁Anth
emplates
🚀
▁Sé
BIT
▁vehicle
▁figured
IMPORT
▁Electric
▁courtesy
UV
▁Fa
▁Ang
▁rude
keley
▁cuando
▁angel
getC
▁complet
Condition
Abstract
BAD
▁▁▁
▁kn
tto
Columns
▁Vent
▁phil
▁Reed
實
Gl
▁,
dec
UAL
▁exemple
мене
▁friends
▁associ
▁referring
▁namely
▁Ver
prim
ָ
Three
<0xCD>
innen
▁haven
▁surviving
▁imposed
Drag
▁pand
▁divided
▁found
▁Vi
LIN
rated
▁dar
ature
▁Grande
ـ
▁standard
LECT
Fac
▁child
ertain
▁rush
orig
嘉
▁accus
()->
iday
Active
Dlg
▁milk
▁traders
well
UNKNOWN
▁Ped
宝
nez
avel
▁Fire
ө
She
▁Tar
▁TV
▁assumption
Б
▁é
▁company
▁highest
▁clouds
▁miner
▁revealed
▁Bund
▁little
▁really
▁cigarette
▁May
];
send
ird
▁foreign
▁"../
ür
HD
裡
URL
▁manufact
Sprite
▁influ
▁Leb
▁produce
▁loving
actic
▁Nut
appendChild
▁Camp
▁governed
▁PAGE
▁ram
<0xAA>
olia
▁abril
▁investing
esk
)}
▁widely
▁pregn
plane
▁Gol
▁offense
▁Cl
▁thickness
▁ast
umi
▁smaller
▁remark
psi
ita
ão
▁switching
▁node
▁kill
▁army
._
▁accused
▁Regiment
ühr
▁curse
▁AT
こ
▁times
▁Images
▁concluded
▁chosen
....
ong
▁reprodu
▁Jerry
▁Cav
Х
method
▁sampling
fg
▁Schools
▁Kos
▁lying
▁rang
州
ле
▁после
fel
cers
▁nv
Decimal
PB
uset
▁Germans
▁Verm
▁Mexican
kfree
hel
▁depicted
▁series
/$
cule
▁individuals
NotNull
▁Nr
▁Imperial
▁chain
ви
oids
ма
annon
▁XXX
▁capacity
К
ер
fan
▁sevent
▁Turn
▁lifetime
台
▁Austin
rieve
▁Krist
toLowerCase
▁reply
ῦ
GUID
edy
▁hunt
RGB
ј
Sm
iter
▁oil
itating
▁Until
▁builds
尝
▁melod
èmes
▁ceiling
▁ask
ネ
▁fright
▁(!(
▁iter
▁&=&
igung
▁deliberately
legt
▁durante
组
▁";
▁uit
▁straight
Scroll
iant
▁Similar
Stmt
vma
╗
▁hover
▁области
yst
▁meeting
»
市
string
▁Ele
▁divers
correct
▁likely
▁wanna
simple
▁gates
dead
▁quit
osa
▁Reg
▁jobs
▁intro
▁patches
▁vess
▁ring
Stat
PRE
ниш
▁credentials
‹
▁Roose
识
ships
▁Sorry
▁Blake
setup
ven
▁террито
смо
▁pra
iance
▁Hop
▁sw
▁agencies
합
ww
▁Journal
দ
▁Impro
▁vest
▁Enum
崎
▁nineteenth
▁dag
▁!
issues
바
tring
▁Keep
▁fals
▁voc
ierz
serv
ospel
administr
✨
▁multip
▁fed
priority
▁crisis
▁fram
実
▁Dez
Dynamic
▁дома
▁implicit

个
▁functional
▁sob
Call
唐
▁Kel
▁diagnosed
▁badly
물
▁Chris
▁Å
Millis
▁morph
▁recipes
▁integr
▁liberty
▁million
▁mist
cmp
▁Line
▁Element
▁memory
▁lista
apeut
▁Things
▁witness
је
телем
follow
igg
aires
▁Cross
性
com
Draw
oka
▁basis
准
них
ania
ющие
▁juillet
▁Sar
plied
▁adding
чение
▁responded
▁pursuit
원
▁immediate
▁faculty
iman
ational
epper
▁anterior
Construct
ippi
▁don
INS
▁chip
iga
тельно
тон
t
▁energy
▁Crow
ouver
Track
apse
▁preg
ine
▁extrem
▁admission
asta
Modal
Visibility
lass
**************
iane
▁mer
SET
blem
CACHE
拒
inas
테
▁furniture
QL
▁flight
▁fragment
Alt
▁Http
▁deck
▁Pun
<0x89>
▁represents
▁bottle
▁artikel
reset
▁RT
пра
Tax
▁launch
▁electronic
яви
annel
仁
▁Despite
▁td
holders
▁Di
Os
ctx
inners
▁actress
▁Lead
▁any
Blue
END
iques
▁frightened
納
▁fos
▁STE
▁Bew
▁Still
REF
onel
ガ
▁ми
▁mixing
▁Е
坐
ʟ
▁slice
務
REAM
ки
▁mostly
▁Window
ishes
▁fils
era
CF
asm
▁significant
▁Inf
▁sear
▁declare
▁Ра
▁lights
Ex
elen
umper
▁inject
▁Rs
▁jump
sig
▁Sim
▁gambling
야
▁Č
ყ
▁coron
▁welcomed
え
▁ger
▁pd
▁comfortable
▁FIT
▁financ
grp
▁nonsense
Btn
ệ
▁pan
▁muttered
gly
}^{(
ISD
ierto
▁thro
eso
▁too
<0x27>
yd
ensed
▁od
▁Far
strong
▁Rub
▁Tag
ING
▁confusion
▁ramp
évrier
mut
lij
▁ware
得
night
abel
▁horizon
▁governments
irmed
▁Mind
▁bef
pgfscope
ollar
geometry
ardo
Operations
▁somebody
▁wieder
pending
ully
▁yeah
▁differences
folio
▁unpre
▁Even
New
▁ARE
▁crossed
▁weird
▁causing
▁focuses
цион
界
▁indices
Modules
▁claims
ellan
кло
▁Ach
ტ
newcommand
▁cut
▁lighting
▁Maybe
tail
ystem
▁generally
isse
бы
ittel
Buf
▁shrugged
whe
▁famille
▁Amy
rab
▁kindness
allow
▁march
▁Alber
hello
▁construct
▁conscious
Throw
elihood
insert
▁Marc
Unit
信
▁Song
sun
oca
ĩ
ents
▁flux
▁Miche
▁пер
(`
▁particul
ocial
▁Install
Print
COMM
lineto
square
')
▁compliment
iop
执
itions
VF
▁others
▁gravity
▁contrast
▁countless
onso
▁pci
nat
▁marijuana
▁Ukrain
▁*/
matched
几
Sig
ul
▁calcul
▁mile
▁stats
▁farther
▁Ви
▁bomb
▁convince
▁які
Ge
aft
PCM
osity
▁friendship
кі
hill
▁instruction
▁Lis

▁Iran
▁Best
hci
auté
▁screw
(__
ány
ichael
▁institutional
屏
▁retired
News
別
処
reak
▁imag
▁Carl
iembre
▁је
oven
▁Lay
▁Logger
Spell
▁guid
oting
By
NOT
azione
▁FE
▁serialized
▁secrets
Message
Hello
}-
▁infant
Json
▁PT
arettes
lege
▁V
onna
Pers
uals
Cut
▁mientras
翻
▁ac
▁development
metric
level
▁prv
し
anted
apos
är
Data
MASK
None
▁Ju
Quant
▁lic
應
▁Het
▁Sel
console
ulle
DE
▁Lady
▁flip
▁yet
stell
!_
▁inherited
▁ü
▁dep
▁drei
射
ug
Man
▁implies
▁Reich
▁ranks
bie
▁neighbour
texttt
▁integrity
SING
▁о
▁charging
▁accommodation
引
kem
KERNEL
▁received
▁tastes
▁Dire
occup
언
én
▁años
▁slipped
erd
ニ
罗
丹
ymbol
▁Che
▁slip
../../
->
nom
<0xA5>
▁Mun
▁mutual
▁Deb
▁act
plicit
olog
Oct
▁nr
WM
▁andra
ça
▁rund
Remove
UT
cted
्
unda
▁FR
üll
SEQU
▁retained
Mass
”)
▁lust
rent
▁sizes
ulum
ADD
▁cpu
andid
oso
Zero
слав
▁foo
ua
▁friend
决
дан
utat
öl
inson
▁política
arz
Es
▁Industrial
▁hungry
▁junio
▁Below
arium
AT
▁map
tenant
▁pom
▁hall
ército
▁spl
VERSION
}&
▁motiv
}</
▁Next
▁absent
▁jusqu
handed
▁crít
▁Jim
ɑ
▁mid
зно
▁package
wd
▁evaluate
▁celebration
▁juli
ras
(?:
▁pepper
igent
HANDLE
''
DateTime
▁deren
Variables
▁Optional
త
Template
▁Groß
블
Container
▁From
iba
▁caught
cluster
aterial
вано
$:
▁fails
▁rating
GP
▁kills
ків
▁Leo
Option
….
ican
▁dwell
Arguments
ace
ycl
Linq
ampton
▁Government
▁West
影
▁pretty
▁consequ
▁restricted
Wait
avier
▁Moore
ются
▁guilt
▁Specific
▁stands
г
▁Wahl
▁Era
hand
▁always
ʿ
▁Ни
▁data
▁Aud
ole
va
Foundation
Hom

▁toget
▁era
▁so
森
▁Material
Hide
▁duplicate
flow
▁tragedy
▁los
вих
acia
▁aqu
aban
▁Egyptian
▁Isa
▁rental
рия
▁departure
▁налази
▁Shanghai
▁tobacco
Vars
storm
▁higher
ichen
▁BL
REQUI
▁imped
▁hw
▁fucking
pad
▁naked
▁arriv
шей
ICE
Shop
직
▁covered
▁Expression
▁Galaxy
▁submit
▁bast
Modifier
▁indul
反
mon
Processor
▁serie
▁lanç
▁surround
Analysis
▁implementation
▁Brian
▁territory
registry
">&
▁să
▁Г
▁'';
▁Ж
▁Pok
had
▁Step
ア
▁Milan
gos
▁colored
pause
RP
虑
HI
▁occupied
imit
▁través
Ord
aim
乱
▁a
😉
shore
ших
责
▁studies
▁messages
▁ultimate
away
ビ
▁dri
벨
working
▁Studies
deprecated
por
▁entity
▁WARRANTY
背
力
▁tard
▁Diana
▁Marshall
▁dogs
HR
珠
Upload
▁defect
ISO
ming
▁Er
<0xF2>
▁municip
idental
hdd
▁closer
▁advantage
:'
▁Bild
▁heating
xc
iac
▁FREE
Behavior
Ђ
kow
▁young
ettes
oving
▁bite
izes
getElement
brew
▁similarly
▁Library
餐
▁Creat
gles
▁read
▁donne
宮
▁co
▁YO
▁locally
▁glasses
▁Werk
▁bos
fte
ainers
▁време
자
▁reput
▁osc
▁relaxing
page
ches
yy
Ф
架
馆
sea
▁систе
ás
teenth
灵
▁−
▁officially
Express
▁congress
▁OP
▁masters
▁perí
ор
atem
Decode
▁prosecut
ქ
eva
▁exercises
米
▁screening
▁rip
ść
ipt
▁saf
▁creator
ased
isi
си
vä
<0x86>
▁collar
ambigu
▁Kot
կ
▁Thus
▁cz
▁subsequ
Tests
▁state
NaN
pt
▁circa
▁thought
ром
Requests
▁craft
▁deutscher
▁trends
⚭
▁jaar
XXXX
task
шла
▁пра
▁Good
▁brief
▁shoulder
ków
☠
▁moves
▁janu
▁solar
ција
▁Hug
els
sted
▁reduced
▁plac
ит
<0x75>
}[
uffix
▁Indian
▁Monday
▁Chelsea
ixels
▁terr
▁items
FAILED
▁steal
▁legendary
▁cond
▁decided
Gamma
▁Twitter
stance
▁Ли
apt
▁fur
▁Time
▁solve
▁waar
▁shower
▁т
Inf
riel
ERE
cup
▁sidewalk
zig
▁tract
ION
▁representation
▁establishing
ги
DIR
esty
▁discret
▁fabric
▁ocean
▁Anton
Cur
▁otras
ternal
|_{
--)
▁larg
▁indeed
▁paying
junit
▁Cow
▁Serial
▁sleeve
▁choosing
▁bitter
[<
拿
Fill
า
▁уни
▁strongest
▁sehr
tbody
UND
linewidth
▁otto
Art
▁API
▁Ga
▁pen
ʰ
▁SE
▁entropy
▁Howard
▁Either
▁last
▁horrible
Register
ail
▁laboratory
could
▁Ce
зер
▁claim
skill
▁Setup
лько
▁Thought
▁Hij
▁substr
strings
▁gaming
▁▁▁▁▁▁▁▁▁▁▁▁▁▁
交
▁Margaret
ishi
peer
თ
ческих
ployed
subfigure
pd
autom
▁були
▁__(
▁volatile
▁bl
cht
nested
ヴ
▁È
▁transparent
▁Using
atile
▁bass
▁Imm
▁Sin
▁PDF
▁einem
lan
ateral
▁gig
▁watched
▁Email
▁attribute
▁NOT
▁rival
▁deployed
horizontal
▁Jak
lane
▁ihr
▁earned
▁Allow
down
illy

The
Decl
steller
▁heeft
▁Cont
▁py
党
▁rotation
간
▁stato
eden
>';
mys
ici
amm
▁wrap
▁Bulgar
▁discrim
储
▁Ré
entieth
wind
▁necessity
▁По
與
others
▁wor
undle
flat
hin
▁ruling
▁ster
▁SPD
alties
ê
Pre
}}$,
▁Break
▁aff
cd
transport
宜
▁Medal
malloc
რ
isy
▁psychology
▁mé
Full
▁curt
▁introducing
▁surrounding
▁opin
▁év
Compare
pond
я
TagHelper
▁regulatory
▁materials
▁possibility
▁cs
▁Shah
▁Jewish
▁Arts
unknown
hit
▁downtown
▁Returns
▁domains
▁Abu
▁Diet
▁vac
uming
icky
ocur
Eng
▁Pr
ც
Ù
▁mov
▁II
▁technical
Stage
ople
▁est
iture
oshi
мен
▁giorn
▁Ich
<0x2A>
://
▁Valentine
▁chez
▁Nat
▁essere
ickets
孝
▁very
asters
▁Mau
≮
▁gau
><?
▁Make
▁vita
▁creating
▁poll
▁reflect
scan
▁later
Ð
Content
▁um
ヒ
<0x4A>
▁Cer
▁email
ropol
social
less
▁redu
▁Comments
ُ
▁grad
杨
ię
tot
▁pid
▁rac
チ
sequ
Threshold
ally
ute
quote
ský
▁'../
password
onto
backs
Public
OPER
<0xB1>
══
▁means
▁contro
ван
▁mat
▁coll
耗
▁belie
ulas
▁Out
dating
▁▁
▁ng
▁Bon
Gold
▁Chile
blic
▁hyd
▁colleagues
General
▁novels
▁esp
▁Ltd
▁Zu
is
гов
heads
cipl
▁gonna
▁Fred
learning
▁blessed
inta
⊙
▁Holmes
▁som
wort
♦
▁manufacturing
▁Fac
jel
lli
▁asking
ieu
istribute
▁SDValue
计
mao
▁Rule
▁clay
swer
red
▁Blockly
策
▁original
sburgh
▁то
▁Az
网
cca
▁respons
▁clos
egin
ε
ropic
uz
▁bowl
▁convert
colo
▁Hunter
▁zero
pull
▁tools
▁Trib
ència
骨
▁p
▁sap

▁league
*).
著
▁terrible
Suppress
▁chin
Щ
usb
шая
▁dad
ман
▁land
▁lunch
▁radi
})$.
▁exh
▁promising
▁kle
roller
Bon
▁financial
▁exc
▁się
▁psych
environ
▁muscles
▁H
▁toler
▁father
▁female
▁subtle
contact
sembly
▁tried
▁diameter
▁fid
ani
▁palace
ords
itute
olute
▁Universität
▁ignorance
▁ja
aises
▁Diamond
▁Sac
inity
▁River
评
▁comparable
imated
atomic
href
怎
▁approved
▁hommes
▁использова
▁remembered
▁lä
===
▁sigu
▁interviewed
▁She
▁Son
▁ud
▁und
Does
aset
uvo
▁run
Because
▁Ess
<0xA9>
▁thick
▁mie
derive
unning
<?>
設
Matcher
▁rigid
want
heart
▁SEO
нологи
xB
▁progressive
tó
▁true
跳
▁wondered
▁dere
рован
▁runtime
<0x19>
▁emphasis
▁announce
▁sec
▁Maj
gz
plet
▁holiday
identifier
□
gorith
▁conoc
asci
ён
▁maybe
▁trem
KEY
)):
eln
One
textbf
('#
▁battle
CB
cards
な
lambda
▁filtered
▁nails
▁imagine
▁insect
owner
▁Cut
▁Air
ῶ
▁TL
AP
▁blacks
▁опера
VA
occ
▁extensions
角
▁Without
跟
BD
▁Math
▁Tra
▁Italy
ienia
片
內
▁award
턴
▁Anne
Allowed
Invoke
($_
жен
rc
▁blanket
▁Дже
首
нь
Cent
▁embarrassed
acher
▁statist
<0x84>
glise
▁Esta
ǐ
▁certified
ostał
▁Doctor
▁NA
▁spraw
▁Om
Love
▁лет
▁highway
S
▁humanity
Face
▁etc
▁Sch
nc
encoder
KEN
▁TX
TL
akespe
Imp
вър
▁personal
▁dead
Entry
asticsearch
▁Mannschaft
nergy
▁trailer
lene
We
ใ
empl
UID
▁рус
igger
▁Benj
unate
▁Active
Coord
Mask
bec
▁grey
▁screens
▁Thor
▁confident
▁abilities
frames
ế
ês
❶
ursday
into
tat
▁pendant
▁Owen
<
급
izado
Internal
aba
▁handy
[@
▁me
▁recomm
Self
▁faithful
敏
img
▁konnte
😛
:_
大
ch
dbg
▁sunlight
sub
▁Jos
▁robot
▁bis
▁diver
ability
ationale
▁national
▁holy
▁това
ancies
▁courage
▁Sets
evin
반
children
<0xDF>
вати
csv
▁fell
▁Israel
idad
▁exact
▁pushed
▁judg
題
inter
riculum
лы
“.
yme
Email
▁Urs
▁excluded
bug
ク
olver
▁myster
▁tt
rient
▁devil
▁cabin
▁par
▁contributors
▁classic
schedule
▁dial
▁separation
<0x2F>
▁watch
igs
▁Pom
----
Settings
▁XVI
션
კ
ération
▁regard
▁mix
(%
▁GEN
▁México
probe
TEMP
▁Jack
Error
"><
▁Describe
ocom
▁abort
▁France
▁dam
ated
ners
respond
ò
▁www
▁Auth
▁Front
▁surpr
▁[...]
▁Фе
▁paragraph
law
▁second
▁HO
▁Movement
▁sniff
姓
鬼
▁rate
▁Fer
▁parameters
avax
core
written
▁bread
▁methods
▁experiment
▁barg
▁crowds
AUT
THER
▁Director
▁Tuesday
弹
▁universities
öt
ержа
Visitor
▁invån
▁Sohn
▁carpet
▁кон
▁revenge
пей
Check
Fore
받
ades
▁anys
▁derive
▁race
▁nice
ья
нали
▁saved
▁compile
oti
rifice
▁wife
▁Ro
▁Council
edia
>?[<
Uniform
▁ie
▁libro
▁[-

▁fueron
⅓
▁winter
▁Bass
iew
▁path
▁solved
govern
phy
Reflection
Tag
▁adm
▁zones
▁churches
▁Meet
▁refund
▁NEW
логи
▁canal
REQ
ド
隊
▁periodic
▁protected
파
▀
描
While
icts
▁Quick
▁sum
▁onClick
psilon
ѕ
推
energy
▁jsou
▁Born
remarks
▁pagina
rad
lyph
oya
basic
▁natur
cat
▁survived
irling
amarin
▁upload
construct
otype
▁один
▁Alabama
login
ссе
▁ни
▁Sup
мей
kim
php
setText
▁Ла
processing
RX
▁reported
ological
managed
▁vary
chn
▁certain
▁Vietnam
assert
▁Welcome
autre
Camp
typename
>)
▁sliding
晚
ext
otes
▁Tes
osti
▁describe
(()
Edge
wed
ª
▁anyway
WL
▁nl
▁favorite
▁Jackson
▁nell
▁cele
본
edes
leted
tocol
covery
DTO
?,
▁призна
finity
▁individ
▁**(
▁spot
▁No
▁bor
exports
unlock
▁mamm
HttpServlet
Comp
▁dla
Ali
imen
ícula
▁Silva
▁(**
Peer
my
়
ublic
和
▁Champion
usr
▁boundary
worth
нут
▁c
农
PLY
<0x60>
total
▁Пу
▁known
bone
▁Medical
EqualTo
atar
бор
▁mi
▁already
green
ве
пи
▁lég
▁contempor
▁sock
Α
▁Spe
▁carries
should
▁status
▁weakness
▁Ne
ingo
crtc
▁abol
▁indicated
usher
▁staying
iek
░
▁bear
▁anxiety
▁nest
▁Required
ruit
▁magazine
▁uniqu
aiser
▁mobility
를
MG
▁strugg
usz
destroy
▁Piet
ové
棋
▁Font
▁none
math
់
pol
calc
appy
▁Ak
richt
ists
ca
▁shade
pdata
▁Bishop
▁d
▁Brend
▁detector
зна
reference
▁wants
ima
)\,
▁came
nim
▁Manager
▁Joy
▁publisher
som
mock
▁astronom
вор
▁Kurt
式
onio
hbar
ambers
▁American
cil
▁processes
▁teeth
érie
chi
names
▁Transport
ceived
▁scholar
▁Gen
ób
break
▁atmosphere
▁filling
▁Therefore
jax
kal
HP
Post
ells
yect
▁},
forming
▁слу
Ћ
▁forever
ió
SHA
▁'/
▁Theater
▁Mass
цев
般
▁BO
▁equity
ection
似
rw
▁picture
Cookie
▁Instagram
etry
itutional
isz
dh
™
omin
▁SO
▁Warner
▁Parl
▁throw
▁outcomes
ikel
say
▁registers
ientras
▁▁▁▁
▁tra
▁balance
▁Est
▁tray
figure
Ко
▁snd
▁module
▁Myst
review
amba
▁also
▁fake
той
Xamarin
므
eqref
¯
됨
▁Drupal
布
ln
▁Ko
▁ambit
▁SPI
▁motion
▁alt
▁Barn
wart
র
Қ
▁sexy
▁spoon
▁Сер
▁dire
??
▁innovative
▁literary
⁄
노
decode
omitempty
▁senses
▁Sylv
▁prof
▁grap
▁ends
▁plates
າ
▁runs
▁"-
aul
▁partial
Sh
week
▁lens
oi
▁Western
▁sempre
table
▁су
▁passionate
▁oh
zes
rob
值
▁drank
emper
prés
pression
сло
▁sits
itat
▁ran
Sam
▁thereby
▁varying
▁memorable
두
mal
▁Charlie
▁fn
iforn
aration
kind
▁x
Execut
▁Ye
fort
▁appealing
aku
▁brings
▁businesses
▁compt
▁Update
7
ství
ง
▁sage
mm
▁converted
▁stayed
atio
ъл
Space
▁MP
visible
▁Pan
▁Hub
▁ref
▁synd
er
聚
▁hours
▁por
Depend
▁Wisconsin
uts
▁inhabitants
န
wallet
手
세
▁ию
▁defeat
▁excessive
▁except
▁Always
▁kar
▁suite
clusive
▁geometry
ར
ný
▁January
▁permissions
▁reddit
▁vot
▁Condition
▁neur
▁helps
▁Farm
▁Awards
ential
ฟ
▁purchase
agnost
icult
▁opposed
Dem
▁users
▁Charl
▁hunger
▁changing
à
▁flex
▁instruct
▁cannab
Done
ське
."]
threshold
▁Initialize
▁rapid
▁couldn
ILL
$}
▁kin
▁Jahr
Fast
▁purchases
idity
▁developer
▁devient
ն
▁Communist
▁
Until
Indicator
▁split
▁emot
▁Championships
comed
発
▁became
▁pg
SB
tor
▁dock
,
▁constructor
▁сте
finish
\,\
▁PR
win
emente
▁allocate
▁CH
▁conservation
ね
▁ве
▁companion
Fall
nail
лова
ationToken
It
itle
▁These
▁commands
▁certificate
рого
▁Yellow
ef
▁rated
buttons
▁Ridge
▁Eye
osto
Here
absolute
▁Fortunately
Om
rating
▁Sie
▁Country
▁spe
▁Apr
ilib
▁mast
caption
▁testimony
ByComparator
trigger
▁Ned
cos
▁con
▁Spanish
duct
▁Gilbert
▁ха
ponse
eing
rie
▁für
桃
▁contin
udad
▁magnetic
▁vice
spring
ises
▁compensation
▁sacrifice
▁examination
ה
▁m
▁process
▁Wu
Checker
opts
omorphic
▁Jose
▁yoga
роди
ORT
__
▁damaged
Vi
CLUDING
▁away
▁насе
▁haar
<0x58>
▁applicable
ロ
▁Wr
reich
pected
▁Default
den
posite
▁planning
Њ
▁Crime
<'
kr
father
ე
▁Gregory
indexOf
亞
▁its
▁vector
▁Republicans
▁visible
▁escape
감
*/
▁'%
evel
shot
ood
umbled
▁lors
disk
▁triple
▁looked
oma
▁prediction
可
adelph
▁price
▁token
▁Mad
▁compiler
channels
ska
▁mascul
▁sake
▁Behind
︎
Separator
▁Kur
▁episode
▁Button
▁citizens
▁pleasure
▁ком
Network
++;
▁horizontal
▁Serie
Report
▁Murphy
▁sed
NET
heid
▁reun
Resize
enable
пис
▁ej
缀
▁Rück
▁turning
宿
▁Criteria
Than
▁interven
▁beside
▁settle
▁пере
lessly
▁primarily
notice
▁cried
▁ladies
Target
▁Create
restore
ventory
ме
▁Term
▁manage
▁Index
▁nacional
iz
▁measured
▁identifying
▁retry
▁chr
ReadOnly
uild
▁Environment
classList
▁defensive
▁Á
▁aunt
bs
icle
р
😬
že
}{
TI
Auto
▁tort
-
мия
number
wake
yaml
dale
▁italien
мент
▁Rog
POS
▁Issue
▁Mar
χ
▁renamed
Format
mark
গ
sex
▁sun
▁ді
Meta
▁coefficient
rud
▁vez
▁ш
ница
┴
Ś
Screen
▁scent
ؤ
Su
ច
▁sotto
shots
Contract
роб
▁stage
hew
▁général
Returns
西
▁variables
➤
▁captured
PHP
▁did
icles
debug
▁Date
<0xF0>
predict
된
];
Helpers
▁Because
▁CONTR
▁язы
▁silent
▁Hotel

国
FALSE
▁$-
▁departments
dyn
MARK
▁phenomen
▁North
▁elder
▁Budd
CALL
▁To
▁Mouse
='
▁merely
▁Fun
onical
ç
💯
Seg
▁newly
)\
▁staat
▁psychological
▁Almost
戶
▁shadow
▁reasonable
trm
▁вос
osoph
▁hon
▁presidential
inkle
Ut
▁think
练
plit
옵
hemal
heading
▁Point
▁|\
济
lection
▁che
▁че
▁свя
Finder
▁group
▁TABLE
▁Uncle
Stop
▁tech
mod
🟢
▁GPS
program
ggreg
며
oves
ności
aped
Wrapper
▁equ
ै
▁apolog
▁sick
▁UE
endor
▁eyeb
▁administrative
PARAMETER
**,
IMAGE
ced
images
▁micro
▁emerged
LAB
mare
∞
▁Dub
짜
ADC
▁Wang
orph
вра
▁pueden
gmail
▁squad
▁aimed
▁emer
▁conference
▁bucket
▁Here
amination
替
tober
lt
▁Senate
oche
▁credits
rage
▁Physical
老
▁consult
▁dump
予
▁shot
peat
▁introduction
▁hypothesis
▁blinked
▁cuatro
emed
ĝ
]),
abei
▁soci
▁beam
itation
▁Faith
▁probably
eping
▁EDIT
▁blues
▁der
uvud
WP
▁finishing
Loading
ní
低
▁Python
report
FROM
▁slave
hu
使
โ
却
▁Massachusetts
ვ
▁mus
enz
▁list
▁Rus
▁posted
▁desperately
▁Anti
▁Years
ET
▁band
methods
▁ik
roll
▁murder
▁Arena
POINT
▁Progress
▁bew
Acc
▁debut
▁OTHER
▁grew
▁^{
▁Sale
▁eggs
ann
equal
▁addr
▁Cou
cipe
▁capabilities
TRANS
itional
▁minor
scribe
▁Stewart
▁Londres
▁parents
輸
▁Overall
iano
)),
▁Soft
ña
ikh
hex
▁centre
╚
▁von
▁honestly
bast
▁Vic
iii
▁Neb
nob
▁Texas
论
▁Cruz
▁Rosen
Ы
Absolute
美
boxes
resolve
▁rubbed
▁época
▁access
>:
Sun
AGE
Android
▁SHA
▁Sud
Best
▁ok
▁census
▁poss
▁private

FTWARE
▁emperor
▁finally
假
▁klik
▁finger
aint
▁mapped
▁Inv
▁Asia
▁вой
▁variations
ardless
万
▁cfg
aux
▁isol
него
dated
Certificate
▁Philosoph
ץ
fre
▁maximal
▁Baby
orent
▁champ
cean
amen
Dir
▁combine
our
▁tongue
'$
!'
▁мет
lict
ⵉ
<0x33>
▁capable
▁tricks
▁programme
tr
Lock
▁hat
nm
▁attraction
erna
}`
xy
IBUT
▁Author
问
sel
ken
▁Dry
▁impressive
▁frequently
▁Environmental
▁Ire
▁skills
▁год
▁All
▁auth
)]
▁generations
▁updated
▁instrument
▁hill
└
erness
▁bump
Completion
rayed
↵
Ν
тий
▁favorites
▁stret
Hor
function
▁machinery
ascular
SIZE
GRO
▁diagnostic
olar
prote
▁trading
imiter
"\
ложе
▁grief
生
ộ
景
禁
union
Locale
此
ಗ
▁anderen
象
校
мини
▁Mono
▁moist
param
▁Ł
▁D
Converter
▁computing
ी
non
azi
尔
▁surgery
ļ
▁photographs
attery
door
vo
iden
ène
▁furono
☺
▁NBC
紀
ბ
irk
ground
▁gol
stub
▁Venezuela
")));
▁CRC
nage
iper
ord
▁Into
<0xBF>
BOX
▁praised
MSG
пе
▁safer
ores
liament
;</
▁Aur
▁write
нача
▁осо
area
능
▁Vil
▁size
failed
plaat
▁equipped
▁voegen
Our
lemagne
Warning
acy
▁Band
▁player
iedad
▁día
▁компа
eles
▁proced
▁дей
Return
▁helmet
vement
후
▁can
$-
▁collections
Make
hang
utes
Word
▁про
▁Estate
▁prints
Ip
▁call
▁vivid
▁CON
麻
▁pity
▁вклю
vv
▁imagined
▁showed
lymp
▁applications
▁deleg
▁dil
Measure
▁mind
▁Tip
▁exhibit
anner
▁Pet
▁migration
▁première
▁Terr
▁Manhattan
▁fing
▁destroyed
▁refuge
▁debate
Browser
▁revealing
▁patrol
▁chase
прави
▁bitch
youtube
isha
ellschaft
▁ban
▁vulner
▁*«
▁League
ez
rien
灯
Margin
七
▁espec
负
는
▁вто
iten
￼
▁tw
esta
▁na
▁enemy
ла
acles
▁excl
ossip
▁руко
align
Ass
▁HTTP
icity
Sign
▁exec
▁nap
verage
const
лення
▁dé
št
▁scores
▁refused
ст
iva
▁gender
▁Rud
▁Psych
DRV
▁booth
▁из
▁Ú
μ
▁Pred
▁Му
▁Springs
here
▁Empire
3
채
#[
ATE
GUI
▁prev
nea
▁High
Unable
stal
证
▁proxim
<0xDC>
检
ό
▁out
▁Da
"""
▁bird
Num
▁rapidly
sh
▁Glas
▁detective
▁Mes
▁Null
irts
cé
dump
expl
^{\
евич
нів
편
izio
▁boost
urd
дина
..."
▁Nick
circle
atori
▁autor
▁intim
▁prés
▁located
▁complaining
▁==
album
▁author
nung
factor
lines
▁Going
▁Herbert
дар
▁technological
▁altri
inent
▁Pi
̯
ۆ
вет
▁Resource
(@
Information
员
categories
ienne
▁strategies
▁forehead
▁engines
Rx
orry
▁éc
▁Са
▁prost
Would
▁tart
пад
notification
▁Васи
*-
gate
百
Pyx
▁overnight
▁czas
▁jog
Lambda
,$
▁Ka
▁elected
▁passengers
inton
▁breasts
▁witnesses
▁Spec
Generated
▁examined
▁YOUR
室
uta
마
横
▁PE
atri
ichtet
▁Integer
warz
.'"
alin
▁mathemat
nak
ży
Austral
▁mel
▁Link
IGN
andy
▁sober
▁she
型
▁с
▁corruption
▁werden
▁prime
TEST
▁suffering
▁Brook
▁cual
}+\
áll
nic
▁manifest
▁sug
Work
ammed
▁Catholic
ione
や
üg
▁investig
▁/***/
▁Das
▁slightly
▁Sugar
▁cav
eval
Only
▁Nord
处
urop
vl
▁associations
▁Herm
faces
▁urban
▁avait
ју
▁exclusive
龍
}^{
hav
▁Romans
ֹ
▁crusher
▁rav
Rom
▁breathing
▁considered
inois
ssl
él
▁Settings
irect
▁corre
▁RE
▁comes
imm
▁satell
о
Life
▁Chief
while
panel
▁dys
▁ownership
▁changed
▁As
▁Special
▁capac
Mouse
▁etwa
▁Edu
BUT
western
▁delete
▁Focus
▁had
▁reminder
▁binding
¼
▁lí
▁gli
RIGHT
Ψ
▁quar
▁upper
▁Israeli
issant
▁closest
ǀ
▁stocks
ánd
face
('\
include
Body
owy
▁command
Record
▁normalized
fortunate
仅
▁murmured
▁money
NotFound
setting
▁day
▁dive
ce
▁spokes
▁Jamie
äl
▁non
ENTER
▁redd
▁који
Standard
▁{'
▁señ
close
Pro
▁steam
▁probability
calendar
▁tab
What
зд
▁Shaw
бе
rich
exit
▁South
Fail
填
▁business
▁sentence
▁felt
ustral
template
ulty
▁['
▁wides
ύ
ke
peg
▁cro
lon
▁ci
▁passes
▁Nelson
▁huge
▁Sony
―
Utils
ट
▁Dur
larg
有
让
Pr
itung
▁сбор
▁referenties
rl
ugs
werken
▁Account
▁vertices
licher
0
▁Something
▁rarely
ACTION
reshold
▁Got
TX
lee
OPT
因
▁мі
▁conform
ды
▁bon
ссо
▁ye
girl
▁united
}}{
插
ّ
Since
▁Cast
▁numer
дер
never
▁sail
decor
cery
Pres
բ
▁AI
▁velocity
itably
▁Obviously
▁X
transfer
Mu
צ
▁valuable
▁dressed
▁lieutenant
Amaz
▁Jeff
uchar
▁thin
PIN
avi
▁car
▁Lost
为
▁Latin
▁civilization
mit
cross
커
enge
kl
▁ange
▁Lem
Audio
Testing
ฝ
▁hired
nil
ните
▁patient
▁newsp
▁IR
▁allem
▁highlights
tainment
▁entre
ред
▁waist
azor
.*;
▁structured
Fl
rical
іс
xim
▁meille
Listener
▁te
ederal
▁buried
▁объ
▁peripher
mv
▁responses
▁confused
Ship
zk
▁directions
othy
COMMAND
兰
concat
eny
omo
▁тра
▁Blo
▁на
▁consistency
rm
▁Lol
▁estado
▁box
Xml
Score
chip
▁impress
▁erhielt
▁Crown
경
▁immigrants
🥺
▁Nov
▁vendors
iesz
▁party
▁mechanics
routing
▁pare
▁Range
▁Province
▁substitute
ENTIAL
▁сем
▁Recently
speed
▁proport
▁small
́
▁clothing
▁grinding
ป
▁ip
▁Pf
▁Put
▁Та
▁$[
▁Actually
arator
▁backup
▁стар
▁surprised
▁deport
▁Page
ử
▁neue
▁=
▁disappe
ícul
estyle
wb
▁Agricult
TA
won
▁Public
¶
▁acts
uros
▁мест
▁Additionally
▁border
▁Dop
choice
▁США
▁Robin
тар
▁wagon
▁signal
▁great
▁Fat
◼
״
▁Braz
Comparator
ння
▁simplicity
▁bin
lint
форма
acent
▁collective
▁whereas
▁improvements
Г
ète
ヘ
▁ben
bounds
▁gentle
▁frank
Ag
uki
▁prefix
▁Oz
▁store
▁Tri
▁exped
▁coordinate
ť
<0x24>
ной
▁torn
▁Liter
wich
War
ל
UTF
▁Notice
▁elbow
▁Ek
RE
Username
▁term
mas
tip
▁dei
▁cards
vier
▁Ren
rente
FRA
▁punct
unque
wright
)$.
▁involving
▁travers
▁founding
▁finest
▁divorce
▁Mrs
▁todos
▁mate
▁Michelle
▁Columbia
ľ
izer
▁southern
▁très
▁Typ
▁corner
▁Lyn
DEVICE
kle
ril
▁sample
▁Grant

riors
gp
CHAN
▁ausge
▁как
▁Schaus
agent
▁washed
▁voltage
▁одно
▁digital
Cap
▁shock
▁donde
▁ox
戏
▁reaches
▁lightly
▁confront
öst
▁emergency
Ḥ
Л
▁simpler
▁created
▁assured
▁Lieutenant
▁Client
ARB
▁relationships
dirname
▁tends
▁pulling
plies
_;
iest
▁DNA
walk
apy
igenous
▁hub
ческие
政
▁partic
▁helic
▁start
etary
▁realise
Ign
prints
VICE
Processing
ously
Mock
▁competitive
▁Senator
▁aster
ului
▁switch
Use
▁kommun
▁Organization
ibr
▁StringBuilder
lj
▁Grand
▁reven
Н
ття
到
▁matches
assertEqual
Eval
▁otros
▁garden
▁regret
▁west
▁quoted
▁competitors
▁carry
▁master
ifa
▁None
▁dc
▁conspiracy
<0xE0>
▁perm
ze
▁Ко
▁Task
ował
outes
স
▁root
▁Imp
▁promot
▁Chel
ḫ
▁Rodr
▁PP
り
overty
▁pedest
▁dec
<0x6E>
hon
aur
née
▁bur
heck
접
Override
▁Martha
▁представ
▁dried
Authentication
▁ic
▁desert
▁IMPLIED
青
adas
▁clinical
▁take
▁Sund
▁}
▁sole
ation
tcx
▁Meanwhile
Out
ethod
▁Че
ight
▁US
cid
ael
opyright
라
😄
▁uncertainty
numer
im
▁knows
pyx
▁talked
成
ART
▁daughters
良
▁Enc
▁tempo
G
▁Thank
▁película
LEMENT
▁considering
shirt
▁tout
岡
▁Quality
ications
filters
▁deputy
rank
рат
▁пред
▁nerv
same
▁disc
Don
▁Administration
▁increased
Mutex
▁бе
Lite
▁appe
!!!
▁accompan
buch
TRUE
▁inode
▁strike
▁част
▁classroom
perp
▁saying
▁og
ais
▁strateg
ictionary
▁Muslim
gui
icc
Ӏ
Workspace
asted
▁Nation
▁Storm
atique
rypted
▁For
pers
▁decisions
▁herself
abama
ournal
▁Rum
▁sheet
▁exclude
־
▁période
▁zijn
▁lasted
YP
▁glimpse
Folder
▁fleet
empty
orld
▁decomposition
▁Download
Anchor
жения
|
机
▁Un
코
▁perhaps
feat
▁posit
▁trend
▁pb
inking
箱
▁Advis
Pixel
▁journey
▁Chi
▁Pointer
▁IS
gl
romise
▁advanced
↔
▁assignment
分
alg
Geometry
▁backpack
▁dest
кола
▁younger
▁strength
▁between
ampions
ODO
aise
▁бере
hab
ako
▁squ
▁Patrick
▁BUT
Second
ß
で
HOME
▁около
▁conflicts
NU
▁joint
▁Jimmy
称
из
▁dispar
殊
难
keiten
жда
Arc
VED
ะ
ierre
▁modifications
ா
<0xEF>
▁sch
▁due
▁chuck
律
itu
▁torch
▁Certain
▁inevitable
▁recommendation
jen
▁Nancy
ían
▁Th
▁shru
eltemperaturen
expr
complex
arely
▁Max
▁blo
数
▁joy
▁church
▁wages
▁Ya
Param
▁Daniel
atura
OLD
▁Watson
及
ʷ
▁blink
▁chopped
▁bombs
<0x5D>
▁stairs
▁Gordon
{-
hero
^\
must
GPL
明
Subscription
LC
ці
unately
__["
Comment
j
▁Afghan
▁Hou
▁reasoning
▁interaction
▁$$\
▁Nixon
Sql
layers
áb
▁Van
iy
▁susp
▁moments
pointer
▁dentro
oral
▁costume
▁room
une
кт
']);
▁tissue
хра
▁Mi

▁operational
▁homosexual
欢
management
ifdef
▁vin
▁commented
MAT
探
▁routes
▁mask
▁agrees
raph
▁turned
▁specify
Bet
▁reflection
▁underarter
▁with
▁cred
▁fights
}.
android
束
▁lingu
arono
▁enforce
▁drive
abling
▁GNU
▁ano
▁Digital
▁extending
ാ
lying
▁Afr
odes
▁tradition
olu
ci
▁outstanding
Vec
▁Feb
sat
▁irq
▁Rect
▁Diff
ization
▁Abb
ingle
▁abruptly

遇
글
aled
osten
▁sk
MA
▁schools
":"
eng
IM
UNUSED
▁Sau
▁DR
无
ɣ
strument
LES
entes
inks
▁loads
NOP
▁padding
tmp
▁Army
ции
▁EV
пня
PRINT
ias
▁Choice
▁heav
▁continued
SERVER
▁Educ
цу
▁Emer
ployment
helpers
ACC
▁mob
linear
!("
urchase
별
ハ
mail
♠
iber
▁ordering
host
框
atically
▁plugins
間
GENER
Start
▁Historic
▁google
▁einen
athers
▁kne
▁Board
划
▁zak
hausen
eclipse
没
runtime
▁norte
▁keyboard
Codes
▁Labor
▁Phase
▁Mitglied
Delay
▁investigated
⚡
Iterator
the
▁attack
unc
▁dramatically
▁persons
▁is
▁Document
aki
INTER
▁Virtual
▁últ
PORT
enties
rost
Une
▁офи
唯
▁relief
iddleware
:**
Many
▁Prop
▁cere
lick
cover
heast
uerto
▁Nintendo
FA
▁Chase
CONTEXT
reason
▁continues
asion
кви
&\
▁channels
▁rope
▁José
ös
sey
▁describ
asant
finder
김
▁synchron
gel
▁graduated
▁je
▁Query
CTOR
tesy
authorized
Nd
품
▁comprehens
▁isolation
▁additional
▁strengthen
ouch
▁chron
▁shouting
controls
▁hooks
Ē
Size
▁bra
HAND
▁mode
Global
▁committed
senal
Ο
▁cash
▁mos
èce

omer
ctor
▁Kom
PASS
Function
▁Ferr
Mal
▁sank
復
вым
▁Lap
work
▁ret
▁circulation
▁све
osz
▁stating
郡
idden
ública
セ
Rect
Buffer
sin
necessary
Large
BLOCK
▁execute
▁Any
▁fragments
▁blur
cm
tar
▁consultant
▁тур
▁dressing
▁DJ
за
▁crap
构
▁reducing
AMP
备
ynamic
haus
▁Mur
▁дол
ления
Seq
▁Anna
covered
wy
Equals
▁beat
▁cal
▁abandon
}'
▁of
adt
▁attracted
Er
lections
▁kissed
Middleware
▁shape
▁Fin
▁Validate
▁Barb
▁($
は
▁высо
▁Jeremy
叉
'
랜
LP
KERN
▁P
ข
▁Isabel
▁minimize
▁gir
▁Donald
False
leaf
▁doll
Packet
▁scatter
\|
▁repeat
iska
escape
Labels
év
送
▁nights
Bucket
urls
▁ст
▁emails
▁amaz
subsection
▁classified
chema
▁Egy
▁Death
ituted
master
▁Api
pha
rise
вом
▁subur
rec
▁Congress
ge
"></
▁Two
ства
Kind
▁northern
▁alliance
▁Palest
▁уче
Emit
▁WHERE
▁();
▁practical
▁surrender
<0xC9>
TOKEN
▁relie
语
країн
Ready
▁outrage
unct
▁opportunity
subscribe
рії
smithy
defer
▁interests
abulary
voj
▁toString
▁grandfather
▁distingu
▁invented
▁trois
▁Jen
ній
▁Josef
▁hr
<0x65>
ma
▁featured
▁Jazz
▁fus
¹
▁participate
▁havia
ology
▁employees
▁atmos
ții
ad
BUS
icient
▁proto
新
ov
▁pun
','
▁Mc
▁Form
▁Care
▁political
▁IC
▁prest
▁voy
Qu
Mer
▁Corpor
▁Gab
▁Cele
▁shaking
▁grupo
▁Tak
pf
▁dispers
ਰ
if
▁Anal
by
amples
cpu
▁specific
Insert
)"
estra
prop
▁system
tra
▁було
IRQ
▁Coach
quick
避
war
▁toss
▁shook
Unknown
▁Mediterr
▁Question
创
▁--(
▁Aber
MI
▁tier
'\
Must
▁parish
´
▁names
▁deal
Product
▁tower
▁jeho
村
▁directly
फ
▁сы
▁explaining
arsi
▁July
▁SB
▁du
<0xE5>
▁Stay
▁Mean
▁Herr
▁assembled
ban
▁Flow
▁tras
決
())
kers
▁forces
ep
ври
味
orem
AD
▁essay
ener
iani
▁laughter
▁ARM
statement
▁advant
▁GR
OD
▁distributions
▁Süd
▁You
driven
▁teil
▁literature
类
▁journal
▁Only
aces
spot
▁File
emás
ethe
▁manifold
ə
秀
isme
lyn
arn
mx
▁tattoo
▁FI
현
archy
▁dp
zza
▁må
ucky
ulator
acing
복
Ъ
▁Italia
▁aapt
orts
▁conten
▁tags
围
switch
▁Album
▁rele
▁req
▁Jersey
▁Unidos
iled
groups
assembly
ivamente
▁gén
▁exactly
▁rewards
▁WITHOUT
ibilities
▁galaxies
▁commerce
▁Services
▁perturb
▁trains
LS
bin
uses
▁mån
quier
/
<0xF7>
Cache
ają
▁Through
▁são
▁NT
able
寄
▁wall
▁gewann
ス
illing
全
答
량
▁excess
转
ង
iffs
Alignment
▁extensive
▁Desc
︙
ième
minded
▁Ba
▁мая
▁####
▁execution
▁apare
▁Мекси
張
PATH
cias
▁Gro
▁genom
ionen
character
역
ente
кан
airs
▁likes
寶
ходя
кти
▁Dublin
⋅
▁next
▁meters
<0x63>
▁embargo
arel
▁virt
體
▁trash
ु
站
ând
container
▁/>
▁talent
):
▁Photo
Sing
▁dining
▁chop
▁deep
▁Fail
┬
▁Tig
BUG
I
▁Jones
ier
▁PI
▁pode
сте
ndef
▁tem
▁makes
unsigned
,,
mun
éral
Bu
▁intention
е
胡
幸
▁Right
▁их
▁there
▁everybody
pieler
▁degener
▁cross
overflow
▁funny
▁span
▁suspic
▁Lac
LL
SH
aps
▁jewel
urt
▁init
▁slight
▁Template
▁monitoring
▁musicians
bert
▁observations
▁together
AspNetCore
⌁
essment
pet
essa
quant
▁Justice
▁html
▁promoted
▁dro
▁Vancouver
uerte
Pag
aggio
▁Color
▁Ш
amber
▁procedures
▁HA
xffff
독
detail
必
▁reb
▁Trade
кий
▁hated
▁speak
▁cited
ensity
ulated
yo
▁closing
loss
▁presc
▁allowed
ai
ouble
▁DM
ill
▁pizza
▁Ча
₱
ady
▁assertThat
mov
Li
〜
esa
术
ts
▁honey
▁lead
ának
▁Brun
▁SER
vir
ENOMEM
▁selfish
ut
Then
▁Municip
▁comprend
<0x15>
ateg
▁Bat
▁Beat
▁gi
pack
▁stadium
▁Johann
▁affairs
▁sel
being
<0x7F>
▁resident
福
Act
access
▁HTML
▁G
itime
DIP
BIN
▁Ever
notify
✅
ovan
檔
eft
cher
rule
▁answering
¡
용
monitor
▁То
需
▁operator
▁spread
▁Rand
▁Чи
outputs
***
▁Econom
▁bare
▁physics
▁ал
▁Karl
▁scan
deck
▁questa
▁MS
pot
riterion
▁King
issions
n
greg
ස
○
ler
▁participants
ers
▁undefined
▁ate
дей
"/>
oons
压
▁ner
omi
▁weigh
▁male
▁laptop
上
Transition
ональ
inputs
▁nej
態
▁Todd
Gener
▁letters
▁hitting
B
CK
rey
패
proposition
▁обе
▁tent
▁Hugh
Member
▁ap
ocks
And
spieler
▁belief
▁images
▁Sierra
in
▁mounted
▁customers
那
▁dem
▁Instead
▁fő
REGION
appoint
whel
▁interested
Logger
▁glad
▁seq
})}
▁prior
と
<0x7A>
▁att
국
▁accomp
overn
▁Accept
▁newest
▁oktober
mn
бу
▁Inn
gged
DATE
▁targeted
▁SU
▁technically
ering
ialized
uous
ización
iq
COUNT
▁crystal
South
🎉
▁entry
library
▁Graham
tikz
fold
ุ
▁Major
asi
tree
▁suggests
▁heat
▁sculpt
▁исполь
Desc
▁HashMap
智
▁manufacturer
≤
unit
▁weak
Ext
ava
▁funding
born
agger
ucket
▁synt
▁ін
ust
css
plement
▁shout
ło
▁into
▁premium
@
▁Greg
chel
▁'"
▁Portland
ading
▁även
▁free
▁Appro
▁her
uct
scriptions
▁Street
▁isset
▁crypto
▁pob
yn
방
warning
▁movies
▁Rep
ț
car
▁That
▁government
▁OF
ོ
▁experimental
organ
▁themes
▁kann
▁fünf
▁seat
▁Pacific
▁Никола
▁opera
Extensions
▁début
ercise
uri
▁checking
сно
▁juris
▁sofa
rupal
DBG
{$
▁branches
Trigger
▁packages
ゃ
white
>:]<
af
Mult
▁кни
hint
▒
▁Boh
ederbörd
ån
▁Portug
▁Bitcoin
▁kernel
CTION
▁sudden
inject
▁Parte
▁~=
Getter
▁spett
序
▁tiny
elle
▁воен
Company
▁calci
▁kennis
▁inflation
▁sup
слу
"),
▁части
▁blessing
离
▁borders
arlier
el
mediate
▁Oct
`.
%.
rike
Instance
uzione
▁beef
ért
LEVEL
вед
▁false
edish
▁Cong
▁Stack
anded
floor
Router
qual
nen
▁scr
▁photos
▁Not
▁Dance
▁Practice
eh
▁basketball
▁civil
▁tel
!!!!
但
▁GET
▁normal
angles
▁fancy
être
Describe
eder
▁crazy
▁references
▁Vol
▁Frame
itzerland
▁ersch
‪
▁nuevo
нове
▁grid
▁fighters
thing
gex
price
expression
¿
▁Tok
▁ra
third
▁inev
Preview
▁keeping
ante
번
ہ
▁hes
▁indicate
oked
▁covers
éric
arity
▁adequate
coord
▁Canadian
anç
hentication
▁Three

▁top
▁passage
▁'$
ografie
ската
▁Einstein
▁Seattle
sed
▁N
jan
▁exerc
▁mét
▁ve
▁ку
effect
▁FALSE
cing
▁ambitious
▁epid
ationship
▁gł
▁species
▁mountain
▁bath
igh
javascript
▁racism
觉
agram
Phone
▁Children
叶
▸
Activ
FD
ski
rier
▁fitted
PyObject
错
▁Red

▁Soph
▁Chand
▁factory
▁discuss
▁rem
▁coast
▁Search
▁showing
▁Mir
units
▁requ
▁professor
▁Grace
Alpha
▁cow
”
ibles
ὐ
▁explanation
▁Биография
Each
▁саве
▁uitgen
▁corporate
ifik
Initialized
▁pdf
▁Works
▁Gir
Å
▁Wayne
▁Based
▁reck
append
RI
▁Turkey
▁tamb
+'
p
slash
▁Microsoft
dates
田
DC
途
ене
▁Vec
▁wie
მ
▁At
▁Function
ließ
停
▁во
ere
orrow
uations
origine
었
▁Andre
秋
INK
▁Distribution
▁Half
orna
hm
EAR
▁flash
ński
▁DAMAGES
rawn
▁venne
ivel
▁laund
▁tape
propri
atable
▁want
lik
▁gardens
▁crim
isible
▁Boys
▁picks
▁constantly
瑞
werk
▁investments
▁pres
orm
▁shiny
▁rs
empor
**.
Generation
ptr
zen
ailand
▁sla
ر
iki
▁communicate
rund
langle
="$
▁plot
getString
hist
éro
┘
such
缺
▁virus
xf
▁warrant
SYMBOL
▁SEC
oser
▁eventually
Pay
▁inches
▁spo
▁grocery
Match
gomery
коло
회
▁naam
▁Miles
*>
▁вели
▁discrete
Ref
IS
▁towards
ние
▁pair
Validation
▁adjusted
▁designated
▁Ос
▁personnel
unch
enter
▁familjen
▁False
▁violent
▁denote
▁ту
▁promises
/*!
▁downstairs
▁»
ulos
translate
Cop
▁htt
▁health
外
Visual
▁Railway
▁char
▁eight
foreach
▁Since
▁că
isions
▁punch
▁inclusive
metry
▁updating
resents
▁operators
▁Karen
▁España
▁lyrics
nt
▁studying
列
зова
▁Clinton
▁Very
▁studied
feld
▁Pear
ither
REE
leen
▁Force
▁BB
bery
▁Mark
▁limitation
bound
變
▁fought
Overlay
▁acted
iral
▁pub
▁orbit
▁sog
化
▁stead
ubern
▁Minor
]).
▁save
▁Press
assets
exec
\|_{
achte
]],
▁THE
▁grant
мерикан
▁nationale
▁mars
boards
DOM
▁▁▁▁▁▁▁▁▁▁▁▁▁▁▁▁
compet
models
▁nú
▁respon
▁appearances
留
incl
▁porn
▁Beth
▁glass
olved
pred
▁banking
▁rep
ultural
▁Joh
base
▁organ
gebra
न
丁
▁Apache
▁cot
width
APTER
▁coastal
ermine
▁Ori
▁winning
ulse
▁akt
▁prevent
fake
Warnings
書
Ed
▁Sed
pat
POSE
▁alcohol
COM
▁Els
▁seemed
Dim
育
Timer
▁seeks
ium
▁är
▁therapy
▁crossing
setAttribute
unter
▁Gebiet
adesh
▁opinion
▁Champions
Ev
sis
сен
Œ
▁treated
ismus
rika
econom
င
ками
alt
▁god
Sync
ду
▁организа
▁Haw
▁перед

Statistics
auth
▁news
techn
poque
▁świ
ERNAL
wię
initions
▁**_
xC
▁facts
▁fün
asia
▁space
剩
transform
▁Tour
▁Under
agy
HAS
hythm
轻
Write
▁basket
ght
entries
HED
("");
▁VT
created
▁phr
▁inspir
gorithm
hub
day
▁hundred
▁sq
▁#{
▁ná
開
▁Dave
Storage
akov
ysk
ICATION
▁stre
▁reveals
Var
▁analysis
▁czę
▁Beijing
ratio
▁prom
▁asks
.[
▁war
▁ham
▁backs
▁неско
}$,
▁Especially
▁functions
▁Sep
exception
▁neut
localhost
▁Identity
Hel
▁gotten
mother
Alias
Ö
▁plural
▁petition
▁records
▁shifting
▁della
▁Metal
▁Freud
▁curious
修
▁Gest
▁Often
сня
-)
opol
ön
▁Throw
syn
▁causa
▁ugly

▁much
▁initiatives
bsite
ick
▁utter
TAG
▁Mais
▁disgust
▁ged
radio
▁greatly
iblic
rs
▁Township
▁wrong
imal
puis
▁impat
▁autres
loader
umble
K
BACK
▁usually
Q
▁son
ক
▁dreams
locale
▁$(
▁FILE
font
▁satisfying
▁directory
▁VII
▁medio
▁frustr
금
▁said
▁W
ър
塔
▁keeps
ER
▁site
utils
ič
▁UTC
"]["
Ns
関
암
▁bills
際
Criterion
▁Jin
спа
lers
▁Angel
▁Noah
▁flour
▁yes
▁points
▁Union
anny
▁sequences
▁этом
house
▁wa
WORK
▁measuring
▁dependency
xx
println
▁auction
äst
▁Render
ansas
▁folg
HECK
URCE
▁keine
▁unhappy
eah
▁matching
▁Convention
LIB
▁betting
▁miles
operation
▁Hart
▁sid
Deleted
<>
acked
="-
ain
▁ma
Image
rase
▁net

▁seats
ァ
।
aniu
asy
▁Man
<0xD7>
▁signs
▁CO
Based
<0x83>
▁enf
▁their
▁lawyer
stad
ards
ffff
▁yours
resa
▁tune
▁seasons
smart
Partial
▁führ
Lead
Contin
▁enough
▁RET
▁common
may
▁separate
▁Repub
ountry
ိ
▁Travel
▁forecast
▁SY
▁lap
offset
▁litt
EB
Der
▁cb
▁cru
isted
irlines
▁mechanisms
▁cert
ULAR
▁_,
▁yourself
express
▁Angeles
▁represented
▁Diam
▁hour
elia
▁actively
▁carved
igne
▁utility
▁Infan
▁воло
ध
Ui
朱
▁Component
Mobile
anges
ções
issement
override
bed
ki
Widget
elte
▁Dean
ática
▁po
orage
▁schedul
▁kon
ungs
▁onder
virtual
▁sd
▁oder
drag
▁useless
▁patent
▁ottobre
ı
▁resulting
cken
CA
▁resolution
▁Cr
▁meas
▁react
cin
▁invited
▁adoption
Da
▁expans
enc
递
▁ба
▁право
▁són
▁bail
 
liche
▁lad
.$
▁June
atie
▁Cant
▁simple
quare
cast
ז
▁suiv
raction
setState
▁:)
rot
▁Safety
▁butt
▁pela
Render
▁Harper
▁assume
▁suspect
)_{
▁Пет
▁simultane
▁guided
▁produced
▁S
▁crate
enschapp
▁internet
▁candidates
▁Kyle
▁Kont
Los
南
Ops
$)
orum
ral
▁priests
署
ologies
Sound
ommen
▁spreading
▁Ark
传
▁lonely
▁IE
▁audiences
chk
forward
▁eu
({\
now
▁useful
▁dated
igd
▁periods
Schema
▁Mann
整
▁notification
jär
▁Gabriel
Ill
▁sab
▁Rio
ables
▁pubblic
LA
▁що
▁Nad
Id
▁само
▁britann
▁*=
iffer
actor
▁inferior
▁ValueError
~
ภ
Execution
aris
큰
▁père
ered
▁politique
GIN
""
▁conse
ql
Role
WORD
御
掉
▁Storage
▁qué
▁Hist
▁evac
▁gam
other
▁INFO
▁è
Χ
}}_{
▁qualified
▁Cash
▁Bah
▁parent
Ź
▁iss
';
auch
▁route
▁фі
estic
help
▁bind
▁Fig
▁Zwe
seg
pgfset
Unique
▁verk
................
React
▁Staff
▁ride
^{-\
Razor
textcolor
Clean
▁ecc
▁Leon
▁highlighted
her
回
参
▁IT
Ac
▁tend
▁disappointment
协
ACHE
acji
질
軍
▁Pap
packages
▁identified
▁kö
||
▁bottles
▁Testament
▁деревня
Pop
▁chaos
析
Guard
<0x30>
▁Brother
opp
,”
▁axis
ktr
半
該
ceptor
▁gennaio
Balance
Effects
▁rhs
Fix
▁bec
▁WIT
That
recated
eland
setminus
▁themselves
],
▁recalled
▁Controller
▁Mik
ְ
century
pend
сер
▁М
▁Pakistan
道
WF
unic
▁título
▁Circle
▁powerful
▁Pain
▁wr
▁Success
گ
շ
▁fortunate
▁Azure
▁Polish
▁baseline
▁Looks
▁problem
▁symmetry
▁Battle
set
claimer
EventListener
parse
▁RC
Res
,\,\
▁жен
▁approval
▁Portal
▁Cz
мі
powered
ى
delay
iones
▁moon
scope
▁trag
▁dirt
▁Compan
▁hen
дол
case
▁trab
ificación
something
邮
▁Cort
ェ
▁horse
▁Sometimes
jack
ny
anska
▁USE
servlet
changed
▁incident
*{
缓
같
▁bring
udi
▁cref
▁Чер
Login
ط
phant
▁gro
▁fee
▁neu
Deep
ケ
raw
온
▁Luck
codegen
被
▁National
nek
▁så
扩
▁contains
▁lect
▁mirror
▁Whenever
[$
显
▁Mai
附
▁hair
EE
isen
▁quad
▁obey
▁concent
▁legis
▁belly
Am
▁nebo
bars
▁Sebastian
ALSE
aug
▁'{
▁emotionally
▁cp
▁seal
Tables
intendo
▁canon
€
▁Лу
/${
ické
э
▁ours
../
▁eyebrows
▁зна
cussion
ęd
;/
$).
ems
▁copper
▁Poss
▁country
ificates
▁Vas
短
▁Kam
abil
▁lady
▁\[
▁thirty
▁inspired
▁als
▁Move
▁disse
})$,
▁expanding
▁chick
相
▁breeze
pping
ko
▁leg
oriented
▁Dorf
▁trapped
gro
▁nog
So
五
▁Dar
▁o
E
▁True
▁divid
▁Dort
we
▁fue
获
std
ikk
ili
▁recommend
▁byla
▁Et
DataType
▁Stars
download
pv
▁​
Cal
▁Dé
˚
▁История
isEmpty
RO
▁Cho
吗
▁Async
Cor
▁politicians
preview
▁traject
▁miejsc
▁final
allel
▁Bra
印
▁alto
极
Tim
uve
)^{-
popup
▁Unlike
অ
▁cada
▁melt
зыва
▁versions
▁прави
▁producer
irs
}}{\
▁adventure
inth
fas
fn
¦
̧
额
員
昭
इ
▁Bird
▁Eins
▁cached
▁short
UE
led
ampionship
lif
▁Sche
♀
})
ப
便
ęp
ფ
▁Де
▁remot
ந
▁Avenue
rollers
itte
▁Bras
▁enemies
▁necessarily
▁voce
▁Fi
most
mathscr
▁hass
gens
讲
ANY
▁Aunt
shape
▁EVENT
Java
▁banks
ュ
▁Bronnen
cert
▁affiliate
▁left
ool
Dit
▁Other
▁harass
▁water
querySelector
▁suppliers
å
}(
神
滤
MB
▁viewing
▁epic
▁Slov
▁Buc
Հ
▁Bobby
▁Rest
▁trop
▁pop
ow
▁note
▁inaugur
ц
▁basement
▁twin
▁nom
▁earning
ti
▁resid
▁args
AspNet
entry
▁grows
▁girlfriend
dern
<0xBE>
vare
▁econom
▁Ruth
▁button
▁'''
▁rank
Get
▁Intent
▁behaviour
Listeners
▁reduce
ference
▁août
parseInt
лом
▁embod
▁gemeente
sch
▁beiden
▁failing
▁previous
mc
頁
ali
Univers
imet
▁Mercedes
体
sim
operator
middle
next
▁farm
<0x8E>
▁Size
▁Roberto
rac
.’
▁circ
▁pero
FFFF
lua
▁успе
ATTRIB
▁'-
LD
▁manus
<0x09>
▁automatically
coming
▁sir
▁Pictures
▁Ray
안
▁massive
ень
▁по
▁scheduled
▁Assert
▁Kor
writ
oston
▁который
▁css
▁hanno
né
▁demonstrated
▁Four
Inline
▁mechanical
&&
▁худож
速
▁thanks
bur
жду
▁дея
чёт
IT
oli
▁install
ូ
native
▁Mart
root
yside
永
▁op
▁Franz
▁teenager
Ť
▁Philadelphia
▁Davis
▁uw
life
▁STAT
▁girls
▁videos
▁unused
fem
ba
▁track
▁sans
▁Sul
without
nas
phys
сите
順
▁estim
▁residents
▁Гер
₦
аль
son
▁typically
尽
▁chair
tok
▁animation
DataSource
örd
anton
▁Lucas
▁appropri
▁naz
========
▁Sat
▁correction
轮
▁bolt
▁toxic
▁sticks
conc
▁sov
Move
▁invoke
▁occasionally
▁therm
Blo
Managed
預
▁upon
▁London
▁carried
▁BU
▁Liz
▁grip
xD
ategy
▁inputs
▁neat
activate
slug
▁landscape
▁вме
шим
*
▁adds
hadoop
♯
uly
Dao
Mut
▁generator
▁stretched
▁dieser
▁prob
▁horm
yr
ocket
añ
▁ED
▁genus
▁words
è
▁maint
▁stim
ær
▁neighb
ahn
▁boats
ijing
ailability
udo
▁Activ
ereg
▁tack
cker
Where
▁card
uren
▁Soci
▁unter
▁Bez
username
Ob
ysz
sen
stroke

▁Tommy
UMN
▁Work
▁vine
▁Fif
Changes
phase
▁anybody
etta
ы
Head
▁purchased
▁ges
inv
▁beste
▁jar
（
>();
points
▁Вер
请
▁sixty
▁effectiveness
minute
▁services
▁Rangers
▁trying
dict
▁worked
rics
dag
▁Parameters
gle
▁eye
▁ohne
SIGN
▁October
ị
▁emphas
brid
▁attract
<0x6C>
▁Laura
▁foul
num
[:,
ivity
▁returns
強
▁selling
▁files
須
컨
altern
▁fade
▁района
▁)
<0x36>
▁fin
▁série
inely
▁SHALL
▁«
▁permanently
▁careful
itty
▁Yet
达
pa
▁gent
▁obviously
<0xED>
▁Des
▁lab
iche
▁struck
▁adjacent
▁bulk
▁contributor
▁Jet
▁Ell
册
怪
每
▁Lib
clam
核
▁ST
Top
响
▁Fifth
rollment
▁efficiency
▁Georgia
▁rescue
🏻
▁коли
▁Rogers
▁cart
*/
sleep
い
✓
▁eliminate
傳
cciones
▁Cris
▁America
▁British
▁tennis
▁It
Ok
Sim
▁обще
▁forgot
äch
▁Hamburg
ция
Will
▁//!
▁introduced
erk
Ό
just
apes
▁"
}>
isches
 
弟
▁française
▁blocked
│
fections
▁Ge
ペ
▁TEXT
Pan
▁maker
▁Senior
▁imported
hf
riev
▁sat
fun
};
shall
ły
▁bonds
ристо
▁invoked
attachment
▁templ
寸
▁г
google
ССР
Ḩ
▁able
hover
sets
l
▁Bit
NN
ụ
▁Mig
Background
<0x48>
▁denotes
▁Jesus
("\
▁mill
▁télé
Most
acters
▁nouve
SESSION
stra
▁NC
▁TF
Creation
ступа
▁bil
▁Medic
Notification
▁Crist
ocon
ples
▁va
▁delay
?;
óm
hell
nement
вля
sdk
("<
вых
▁whisk
..
▁ś
▁'../../
▁Craig
ов
អ
▁Ho
router
▁dread
pl
▁positive
▁House
▁you
▁ali
мож
QUE
using
😏
▁painting
▁developers
▁caval
▁bars
AS
ấ
▁Prec
Environment
Õ
ép
▁Game
▁tone
res
▁trained
▁AG
▁March

gren
interrupt
▁Кра
________________
rial
▁hood
▁pione
秒
bind
▁Су
▁threatened
▁Ferd
MO
བ
続
Child
▁Pedro
▁Queen
▁Err
}^{\
配
▁Job
etic
▁germ
▁James
load
▁__
хо
example
=${
▁hurt
лко
icode
▁December
лин
フ
▁Rav
▁pulse
WW
aret
र
pes
雨
▁wolf
▁Fall
umpy
▁Bal
-----------
POST
Cfg
▁pes
arette
▁Will
anka
SG
▁Cold
▁graphs
▁Isn
▁reproduce
▁gebru
ourt
Parts
tre
OT
ama
pref
ged
▁convex
aller
▁мат
团
▁erano
ux
着
яв
warf
ё
▁kicking
▁нау
भ
▁cricket
▁Week
▁help
Az
paid
шу
STRU
▁"";
早
ску
▁craw
▁Am
▁bits
▁refriger
ure
▁garlic
▁CBS
▁Dest
▁réal
▁announ
▁Mall
▁Ale
▁coaching
esp
▁agric
Apply
zing
Configuration
▁presentation
▁twisted
▁ejempl
▁Inter
year
▁Kr
关
CEPT
打
▁titled
Est
Met
▁slaves
▁habits
▁}).
------
2
rupted
▁Bundes
▁sobre
▁vig
helm
▁dio
qp
▁chips
對
ond
block
бург
▁Android
path
▁millions
ithub
idd
̶
iendo
▁un
dc
ream
Tur
itten
leq
Options
iu
▁Š
ätt
pdev
▁Manchester
uru
▁swallow
▁Near
Such
ment
▁thous
äll
ie
▁monitor
Loop
rings
emplate
insi
enger
▁dut

X
hom
▁bold
added
ialis
cro
▁happen
RA
Cond
▁transc
ancial
▁ž
▁complete
numeric
▁ess
ade
▁alarm
Feed
?(
▁developments
▁bringing
▁performing
▁pending
▁arguing
details
▁matrices
є
▁depressed
▁Golden
▁Rain
шо
;
ן
▁facilitate
{\
▁seinen
▁sure
ā
elta
_{{\
твер
ء
ким
ા
▁formerly
Resources
▁tin
chair
▁Private
▁Stad
icator
ucht
▁systematic
구
▁Za
▁tv
ifi
▁Alex
Mvc
▁beaut
▁temperature
verted
▁lang
abad
ང
圈
ffect
inda
kel
▁Cal
▁sue
▁temp
▁copied
зва
▁Bug
▁rail
boys
▁intact
раз
ś
Running
info
grand
▁loan
confirm
▁Jean
▁old
▁obst
Tube
▁handful
▁Celt
▁nous
.....
▁temper
▁|=
Ä
▁/**
▁mechan
gain
▁occur
▁cle
▁Mountain
▁veloc
▁centro
▁Attendance
;;
mos
DITION
uart
▁DCHECK
▁subset
더
atos
▁IMP
ARD
锁
▁mentre
▁servers
▁opacity
▁elegant
▁aest
else
argv
▁broken
▁Study
▁enthus
▁)
ttes
RV
▁==>
▁sp
▁Zeit
val
▁governor
tik
모
▁requests
▁Parameter
▁inj
▁Mitchell
▁OPT
▁Bahn
▁rates
ября
ņ
File
▁faster
▁poems
ave
roud
ссий
移
WEBPACK
inet
tile
html
▁apart
▁Nie
▁Hof
▁indicator
Great
休
旋
)',
▁ticket
ນ
▁mysql
ដ
GR
▁snapped
)}{\
▁Cent
▁Rachel
▁Ord
бур
adget
▁І
▁captain
▁produces
arg
hre
卫
mi
вия
▁fasc
SUP
dispatch
▁journalist
borg
码
ence
喜
金
ask
▁Pra
',
▁walked
▁tribes
▁visa
▁ET
▁отри
▁responsibility
atures
Backend
ista
▁Stalin
종
▁influences
牌
estone
▁progress
▁совет
▁legacy
▁él
Dele
⠄
▁logical
▁longest
agers
ideo
▁Christian
▁cy
iami
▁développ
swing
‭
modified
leep
бре
▁provide
▁Dep
▁vit
▁её
VERY
▁gr
h
▁cotton
▁fre
she
연
▁gives
▁am
▁clearing
̆
▁Most
▁годи
bourne
uffs
▁im
▁Linux
▁settled
{})
▁tucked
oge
Cert
▁crack
▁є
▁hospitals
obe
ู
рами
▁vet
ang
owym
좋
▁glance
▁facing
斯
▁Clar
▁Frauen
▁Amazon
alion
rowning
▁dash
▁staff
UNT
▁visited
shift
▁affordable
▁movement
Identifier
▁y
▁ML
ҽ
▁sent
phan
▁Baron
berger
constants
▁incredible
isson
▁llev
VERT
▁may
ear
pre
спо
▁greeted
äd
▁queue
▁threshold
capacity
му
ünd
▁fuck
▁membership
▁enhanced
▁awkward
窗
▁nur
lower
▁invent
lope
▁readers
▁fly
▁sound
▁And
▁library
Supported
▁celle
▁Tut
▁Lane
▁administration
▁cycle
ties
▁OR
▁Hong
aping
定
Icon
icated
▁associated
}]
▁swift
ugno
绑
driver
▁computation
link
▁sit
▁in
▁on
ados
idx
▁encounter
▁Santa
commands
▁volt
▁TCP
czas
ower
pair
糊
bia
low
Refresh
ober
ieri
▁Leop
▁manner
▁nouvelle
▁För
chez
Thread
univers
license
▁Partido
ный
▁thoughts
{}{
▁составе
▁Hern
▁Is
▁I
▁account
▁votes
何
ele
▁recon
▁palm
▁evil
▁Def
▁narrow
uu
▁Personen
▁Sym
▁Fur
답
▁ass
▁server
ề
▁ul
▁wordt
▁chemicals
▁composite
▁resolve
ixer
className
think
FAILURE
▁Steve
▁Mos
zek
▁Alliance
Constraints
▁academic
><
Build
нием
▁owns
anca
order
▁Rob
sum
Parser
▁ignor
до
▁Honor
rès
▁През
▁Finance
أ
末
▁Sunday
▁acquired
бро
▁nar
nate
нар
neo
▁brilliant
▁cob
Dead
нию
▁beautifully
▁documented
uo
stable
command
▁spite
Norm
lbl
iment
▁stove
▁Airlines
inen
▁Fre
Arrays
▁stalk
▁provincia
▁resign
▁Butler
예
",
▁sistema
▁Pac
▁Pattern
▁Platz
▁striking
ши
▁Website
зон
Sp
▁decimal
▁orb
▁что
cc
▁India
▁flew
▁($\
▁станов
▁gallery
▁Partner
oine
лага
izen
▁mouse
âte
Mag
▁recall
'_
ah
▁Cart
ユ
Rel
chant
▁(-
rors
рабо
▁Chat
▁Familie
▁Carn
multi
▁Je
▁е
▁nursing
▁cens
▁VER
▁Ku
éra
▁Holly
▁morning
Protocol
▁detect
收
▁women
ashboard
symbol
insn
dup
▁oak
▁programming
HH
▁sadly
▁coun
府
환
▁interference
ណ
▁chances
▁mog
turn
oster
USED
eff
________
►
▁decor
*:
▁Television
ђ
▁tiem
ል
魔
ONLY
_[
▁Live
▁Find
▁foundation
▁policy
XFF
▁Parad
Esp
ref
▁uncomfortable
委
▁Ét
enabled
▁Birmingham
▁wanted
++)
ben
рито
▁With
bad
▁том
े
▁conne
▁Hu
ional
="
.:
▁TODO
▁Vert
ske
▁spatial
▁press
▁brew
over
thers
典
▁ske
▁Month
FB
▁Arthur
stood
haust
号
▁Dim
▁Want
ски
▁durable
▁Corporation
timeout
timer
▁provinc
▁XML
장
ÿ
▁ligne
ков
▁les
works
▁feat
▁deriv
ძ
IX
▁fund
▁instanceof
application
FUNCTION
▁primary
▁drawings
▁&=
▁In
random
▁Bath
▁invite
льта
How
▁Rug
▁apply
▁unt
full
๐
ANK
▁Portugal
▁cluster
lists
widget
▁temporada
Ps
;}
▁CEO
ishing
▁Kön
▁dedic
▁McDonald
ough
▁contribution
▁garbage
▁snapshot
▁Kid
operations
medi
▁Div
}}(
UP
▁Lear
ocument
▁youth
▁méd
▁EP
bw
Views
▁circul
<0x21>
▁Commission
appen
▁Mother
🇸
▁▁▁▁▁▁▁▁▁
▁Pope
▁olive
Percent
TERN
ུ
▁implemented
ę
ARY
pute
▁mothers
ocked
ód
▁succeed
▁counted
▁respective
🙃
▁века
▁Every
quate
▁Valent
리
خ
▁reduction
.-
▁Stephen
лет
▁av
urs
建
▁hear
▁ital
▁spine
azine
▁Select
▁episodes
▁wherein
▁seventy
encia
▁characteristic
▁Tol
元
▁mother
▁Reset
▁Harm
mf
▁categories
▁Candidate
asper
ures
."_
▁realization
▁Pennsylvania
▁lip
▁bub
▁tunn
▁continuous
<0x16>
Cam
▁exception
<0xE4>
▁disco
▁hyp
密
▁ruled
likely
▁Влади
ase
.\
geben
skich
▁conducting
enario
询
好
omorphism
▁wal
<0x61>
▁stopping
obile
▁reactions
▁lowest
irst
▁leaving
вий
▁env
▁Cha
▁Clearly
▁claiming
捷
▁constant
▁sold
tiny
▁farmer
values
▁wild
▁blev
neath
▁Duncan
诸
▁Blog
Tom
emos
▁бли
ster
form
▁dangerous
▁Can
▁pitch
▁PO
rena
íd
▁varieties
▁Meeting
slave
▁etern
▁inn
▁interactions
sequently
ך
лов
etric
iej
▁Hel
▁circles
▁released
▁texts
精
create
▁benefit
SR
?”
▁officers
▁afraid
aving
ive
▁Information
$,
[(
menu
aaaa
sock
erry
▁Authority
▁FOR
▁closed
ธ
acz
▁Dob
eron
▁constr
ifts
▁aer
▁cooling
▁charges
▁fifth
▁Grey
▁theoretical
▁))
奖
▁accord
▁memorial
nar
IEW
tu
▁marca
first
Sw
flix
atta
▁Saison
GG
STER
▁Так
あ
▁Session
ecause
▁sud
▁Moscow
▁beg
▁PROVID
▁McK
▁grab
▁fewer
chester
َ
▁eternal
Intent
參
df
▁spin
▁worn
apon
<0x9C>
EF
▁prolong
▁EX
▁niveau
ICK
▁win
o
addr
▁viagra
▁transl
Module
Section
▁latest
▁Cru
▁Hig
▁virtually
▁brands
▁antes
um
ญ
顯
▁agreement
ớ
▁Tr
▁пів
]{
ী
policy
сту
<0x39>
▁protect
▁Sounds
▁Insurance
ет
ो
ada
▁это
▁way
▁fmt
BR
uld
poser
տ
▁cone
antine
compile
▁android
chestra
lg
ights
▁Joel
▁inverse
▁accum
▁тру
release
▁Nash
)
ék
рен
▁Peace
▁Ils
yk
リ
Prev
▁worker
Č
▁concrete
itory
iful
kw
<0x38>
vre
▁volunt
▁visits
▁vast
ím
▁Av
▁climbing
гре
▁canvas
▁полу
▁like
▁metal
Endpoint
resize
▁Similarly
▁break
▁terrified
▁Shop
▁nue
▁Boot
▁Vall
TypeInfo
bold
adio
▁bald
ativa
▁Fut
<0x7D>
▁pointing
tcp
▁flick
▁Bou
▁Ant
▁fundamental
▁selon
Pse
)}{
▁ERROR
ському
▁meet
▁writing
▁Ra
üh
▁Molly
學
▁formats
▁tremendous
▁retr
▁Mississ
▁Barbara
▁impl
MAIL
▁Bob
▁Turk
Toggle
user
pen
оло
ெ
▁insisted
Previous
問
▁Construct
abeth
utton
▁pos
▁own
▁accurate
configuration
owi
▁committee
▁prote
▁coeff
▁Cond
▁lov
▁attachment
dims
▁GD
▁Sold
▁lengths
古
▁situation
lä
▁vil
oom
▁dimensions
Permissions
Hist
▁races
ől
▁prices
▁began
Migration
▁implied
▁staring
FF
▁cooper
▁пр
向
cong
▁defens
World
▁Resources
▁souls
▁[],
Ê
▁prefer
▁Fußball
▁reconc
ucc
프
REQUEST
▁how
▁Thursday
progress
hattan
▁Bright
▁Parliament
▁transformed
<0xCA>
noon
▁Imper
▁Chamber
▁therapist
▁stream
해
Builder
rito
▁Sil
Interface
▁weit
ně
▁Marx
▁started
azy
atto
▁comput
vano
缩
～
');
▁Created
verse
\}
lish
ona
url
▁Ple
SN
Country
▁AS
▁Hit
ска
ѝ
▁fest
▁nach
▁subject
▁questioning
▁square
ERCHANT
shaped
▁Place
Transaction
leton
folg
▁Up
▁scal
▁droit
▁imaginary
iliation
▁urb
토
ろ
kon
Fire
WAR
场
pletion
▁Corps
▁/
NESS
▁efficient
crit
宋
("/
▁Block
ifacts
▁prospects
aughter
Groups
rijk
rotate
}\
▁enumer
▁organization
▁cel
▁expect
్
POL
飛
atch
▁от
▁headquarters
▁songs
apply
▁Mon
▁-\
▁Foot
▁improve
▁quale
)?
‑
ис
Gre
▁Alberto
<0x1E>
դ
준
ités
▁induced
▁Credit
▁Bureau
С
people
=""
arin
則
ison
лове
—
▁Licensed
enh
FAIL
icional
▁fac
тов
▁Joshua
Static
▁laser
▁durch
▁Одна
▁Normal
▁Qu
naments
ds
▁have
▁mor
▁${\
Luc
elines
▁Grab
Amer
▁noch
azz
▁Civil
▁Sov
▁Jo
idelines
ర
▁Korea
ility
▁Lub
dorf
itionally
▁Geb
▁Islands
sten
▁meaningful
reflect
心
▁comprehensive
▁jumping
CodeAttribute
ided
ahu
нови
▁Pa
PECT
▁Angela
ち
PLAY
改
▁zoom
▁{}",
▁interpretation
zeit
лена
▁Orts
cent
利
blue
SUPPORT
Text
▁Wor
uded
绘
▁num
~$
▁few
▁optional
MenuItem
ними
спубли
▁customer
▁pros
assertEquals
ёл
équ
▁wom
江
ą
▁techn
▁jet
вой
e
▁competition
(((
▁frequencies
▁modes
estival
MEDI
▁gev
esi
▁policies
+\_\
▁ships
▁delen
▁varied
<0x34>
SPI
rizona
requests
終
мии
▁bekan
issa
wl
▁Famil
▁volunteers
success
▁bell
▁arqu
▁nucle
ल
ider
▁corrections
Focus
adu
false
comments
▁Charlotte
▁publicly
▁manufactured
県
jet
열
ême
다
conv
dummy
▁Comm
▁surveillance
▁libre
idence
▁inv
▁Seit
师
TRY
▁Notes
ця
▁got
▁Service
sembl
чу
▁locale
▁pecul
İ
중
OFF
土
codec
nem
▁stared
▁conventional
▁pump
suspend
▁medium
▁distribution
Send
▁incluy
▁Lion
▁liegt
▁foi
ктив
nb
▁cycl
вая
▁biological
▁(“
olid
▁reflects
▁inst
▁haul
bl
ù
치
ILED
ErrorCode
={{
▁può
soft
▁prototype
▁byl
▁Observ
▁utils
*)
ซ
avo
̌
▁presid
▁fuel
▁Histor
▁theories
▁Norway
spl
▁windows
▁handed
"));
▁Ber
▁assumed
▁cattle
вата
▁segundo
▁hosted
▁taste
▁"_
▁Scot
ಂ
cció
layout
▁jap
ске
▁Lucy
ève
¾
▁EN
▁sides
<0x64>
Bundle
▁centers
▁temporal
▁Neg
▁role
]+
ordered
▁pile
▁sar
▁luminos
▁Bald
▁tb
≯
衣
inst
▁advantages
!");
linux
bullet
Entries
▁Such
▁powered
builtin
▁some
]}
取
ial
래
▁surely
▁winner
ního
▁Sak
олові
ushes
▁soldiers
▁anymore
▁beings
skiej
framework
ザ
丢
Bank
삭
▁За
webpack
▁cv
▁conduct
▁caps
▁offic
NE
▁object
▁App
▁Our
▁weiter
▁vend
▁Ru
▁behalf
▁Official
ச
▁request
gpu
Something
izione
smith
▁Atlantic
allo
ena
▁luc
▁vertical
▁initiative
▁anom
▁terminal
▁Eval
▁oxygen
uffy
mg
▁athletes
▁wanting
▁dropping
▁relation
ERT
▁[[
▁owners
//
split
▁planted
▁accompanied
▁tide
▁liter
scape
▁tie
лиза
▁Gy
alis
тери
拖
ició
▁MOD
packet
nice
teil
iah
plica
▁portrait
▁Bin
cg
▁Syd
){
ху
▁equival
▁Caption
▁Architect
Policy
amin
Exception
▁East
▁discour
▁typedef
]<
▁fluid
▁Tam
▁neutral
aient
▁practices
Direction
act
ORS
▁applying
қ
KK
amazonaws
вод
subject
▁Have
▁хра
▁pilots
ких
▁leading
▁Philippines
▁contempl
▁swe
▁;
】
ful
▁Brand
Array
▁techniques
▁Danny
▁american
▁step
piece
▁flav
▁treatments
With
▁arrive
▁wars
І
nav
,&
▁dru
▁determined
▁Visual
sys
ager
▁everyone
▁led
▁signals
inale
▁tarde
▁premi
invalid
ж
ە
цій
axy
includegraphics
▁Dir
▁acceptable
▁sectors
▁swallowed
▁Video
dark
▁Nobody
▁await
▁Kal
▁exclusively
▁Full
iers
▁vulnerable
("#
▁Reyn
õ
versation
▁Meg
Light
▁migr
Modified
orge
▁thunder
▁elle
utch
ля
▁мира
istrz
剑
odo
▁ра
Next
公
ם
othes
▁intellig
гля
▁blue
queue
underline
----------
sko
Field
▁Rena
취
組
▁pert
▁unters
grade
▁doing
ind
▁namespace
III
Checked
цию
▁меда
▁maximum
九
icks
Const
系
ierten
▁collabor
▁demands
으
▁African
經
▁през
述
Even
▁fif
▁reserves
::~
▁Madrid
▁recip
▁cottage
▁Schwe
Enumerable
ǎ
₁
SP
($
▁slow
▁MO
quet
{
▁въ
Priv
▁коми
ân
▁Entertainment
▁Floor
cost
▁Tex
▁discount
▁affected
бі
▁corn
sc
Raw
▁rb
▁Rosa
▁gepublice
clude
▁presenting
▁selected
業
tagon
▁Pam
flex
▁Leip
▁си
rown
eller
▁frames
▁First
allen
▁місце
тах
rew
porter
Bus
пол
pod
▁mine
rel
▁scientific
小
▁educational
jour
试
ction
Keep
\":
▁Policy
▁Animal
▁unem
лич
▁Linked
between
▁Corn
Temp
▁bleeding
\+
▁Dog
ែ
▁stop
▁Invalid
fon
elt
Disable
call
▁arrested
▁Wien
▁crew
▁Toronto
ulu
▁ser
▁freely
ére
ENTRY
pipe
tags
▁operand
ま
▁Jar
▁Wilhelm
▁bark
ር
ely
respon
而

▁locks
Now
<0xC5>
================
rend
▁nominated
▁io
话
ě
▁({
от
▁predomin
▁vert
tom
▁dés
omic
▁Wy
ёт
‎
▁liber
▁Ха
▁follow
tm
▁Hand
▁String
▁Show
▁hast
▁volunte
getClass
<0x14>
▁кра
á
▁remove
▁Region
ват
▁qued
▁Ü
▁achie
▁Muham
)+\
▁options

TextField
湖
▁Sw
▁би
暗
owany
True
▁invasion
ygon
▁Meta
unction
▁Stra
▁Gallery
roy
ols
▁enormous
▁lear
▁listing
▁dark
ft
NR
▁u
▁broad
anto
▁Ö
▁dok
▁destro
.“
▁teaches
IV
ynam
▁Ralph
nost
長
▁Ме
clone
▁delighted
куп
▁Monitor
criptor
DEFAULT
unde
▁when
nbsp
steps
▁controversy
▁vag
▁hips
▁watches
key
ogg
▁Earth
ID
beta
MUL
ợ
י
▁marriage
la
party
These
▁estimated
Serializer
▁Extension
DAI
▁Cop
▁vá
▁focus
▁compre
`,
▁jug
▁transformation
▁comment
▁singing
▁Annual
Mo
Period
ner
GET
▁Crusher
<0x7B>
▁along
ura
кої
%
▁Rol
▁listeners
▁Regional
ША
▁das
browser
getDefault
▁Cass
▁Effect
▁contre
inging
▁hopes
▁negoti
umeric
ление
ARK
▁Mis
▁slammed
arga
List
▁advers
▁_"
▁earnings
▁П
ones
▁earth
bris
reddit
▁Buy
▁poco
▁seconds
cpy
▁politics
topic
▁f
▁december
▁magazines
▁дан
対
learn
▁retail
Pal
▁descend
jev
▁gre
▁сп
;\
Mc
GER
▁MA
ți
zip
▁streaming
▁Wallace
總
▁ellos
▁lord
percent
UM
▁opening
▁negative
ress
wear
igin
▁груп
영
INE
训
▁from
▁delet
itzer
▁mem
los
umph
iative
month
合
ex
цы
▁legally
并
▁colle
▁bet
图
▁honor
▁valued
mr
▁talks
solete
▁Fl
▁couples
▁fais
Det
Hit
▁zusammen
▁ци
▁DL
▁problems
.');
▁living
▁pract
\">
Payment
iner
лав
▁Gaz
匹
搜
ighters
acity
▁tempt
Ά
▁anim
cit
wise
ász
▁struct
x
　
mount
▁Î
▁tre
▁explain
▁состав
▁secre
▁billion
orders
Stub
▁Eff
▁него
▁Wing
ณ
pert
range
▁formal
imos
▁brought
train
reach
Operand
NER
stylesheet
▁Canad
▁William
▁gradient
osph
▁În
▁sometime
pdf
▁happily
▁veter

ucked
ups
▁Pat
▁tens
▁Hello
liver
Sink
ย
▁Internet
dp
▁strain
скую
▁assure
微
omes
💜
Ṭ
▁Memorial
▁mant
▁Compar
▁swing
▁"(
istration
▁Music
▁academ
▁Hold
urches
▁tempor
▁protecting
▁Capital
=$(
▁restaurants
▁juin
▁tipo
▁practically
▁Sev
▁International
?.
SW
▁double
METHOD
\}$
▁Con
▁Marina
▁coup
ablo
ে
aco
sup
▁mere
<0x8F>
▁through
▁Bey
▁minority
▁sentences
▁youngest
▁combinations
Д
圖
TDM
▁'@
qa
ի
▁book
태
pto
ты
▁wealth
▁mini
spect
▁produ
드
▁layout
《
托
▁tous
▁ba
asso
▁Rel
ROOT
meta
▁Collect
brief
▁logic
▁disaster
▁dismiss
▁grav
GroupName
▁machines
▁fict
▁wage
▁mistakes
▁consist
▁file
merce
ück
▁Hill
▁coord
Suite
bal
вые
▁continuously
▁Area
8
▁Bi
▁fool
▁firms
Ď
FS
℃
▁CHECK
'=>
resent
▁III
▁consumers
Ι
▁transfer
▁auss
\%
▁intend
▁siè
▁авто
▁attempted
▁isn
History
кс
▁entrepre
▁tiempo
но
attle
initialize
Cat
▁sovere
ounced
▁psy
country
віт
Linked
imental
女
▁vier
▁filled
required
▁de
▁relatively
SM
▁concerned
▁tok
▁американ
Week
льно
PRIV
liv
Sizes
$\
▁designing
▁represent
ǔ
▁down
Nothing
lad
▁mayo
▁shine
▁ceremon
ʊ
▁Pray
▁ds
ense
▁Kh
▁compelling
▁Walker
▁distract
▁lig
▁afternoon
▁relax
InputStream
erei
▁lib
▁exit
▁Sophie
▁emerge
▁nahm
finished
chts
▁Event
擇
▁[\
.”

▁bag
▁application
pts
▁Sad
▁under
ције
▁Madison
▁bog
港
▁stat
▁params
▁chant
▁going
Aut
GN
▁locations
류
融
▁temperatures
▁mism
▁jun
▁LL
▁Database
ies
Run
ѣ
▁Pool
▁laugh
▁Times
▁ant
stop
Visible
▁}
portal
▁perspective
ниц
▁nested
▁febr
▁footage
▁Cache
bre
undial
poly
CFG
тра
▁CONTRACT
诉
▁profess
▁prevention
☼
DUCT
▁Five
▁San
▁Japanese
▁dependence
sb
testing
stru
aming
▁family
!(
▁Anyway
щу
▁receive
▁cities
▁persu
υ
Sigma
▁Beg
ག
pis
▁joining
Den
▁ста
ceptions
▁legend
▁sl
▁tang
▁pow
vod
▁Мі
вать
▁jack
Input
amon
단
iß
roke
▁wherever
▁relations
▁puzz
▁wait
akter
ENCE
Adapter
jà
▁coin
▁dyn
区
▁Wales
▁was
zeich
ň
▁def
▁gaz
cha
parser
ере
▁dull
▁galax
弃
▁gepubliceerd
▁Glass
▁toward
▁Users
conf
INVAL
EINVAL
▁bacter
ove
ero
井
▁%.
lique
CURRENT
▁diplom
Files
▁anywhere
▁Od
mee
▁formed
}")
hentic
.^{[
\-
▁Haupt
zu
vs
赛
▁Minister
▁innoc
ends
<0x0D>
演
Chunk
lando
▁Entity
omsnitt
andal
options
▁opponent
ď
Tree
▁Atl
TING
▁Biden
件
ọ
▁entered
сом
EventArgs
▁goal
bras
BU
arning
▁Collection
ња
fif
klass
▁$$
▁task
devices
房
'),
▁Mine
frac
/)
▁wedding
▁anime
co
rapper
ною
ple
再
domain
ited
oci
nabla
▁vál
▁Ji
DESCRIP
{},
wheel
▁diab
idential
▁case
eld
▁blanc
無
▁Moreover
recht
▁principale
奇
號
upid
ַ
▁insp
habil
Þ
▁spark
▁offices
<0x5C>
wh
udes
search
▁sixt
ardon
▁Nam
▁lado
Transform
ocy
▁warriors

bles
▁packet
enso
▁lb
▁protest
ulp

▁holder
葉
▁NO
▁detection
▁ligger
Mgr
Preferences
Graph
▁lift
▁toujours
IVE
тал
齐
mask
▁temps
▁recuper
当
⟨
gg
oul
▁stab
▁feared
▁enjoyable
▁CHAPTER
ready
▁specifically
爆
▁plug
▁login
Stream
▁trivial
▁sowie
▁invas
Search
▁includes
▁eine
▁Olymp
rea
ら
ne
Special
▁escaped
▁conclude
▁Fu
▁SQL
outh
failure
lic
margin
--------------
Bit
acular
ơ
▁Taiwan
pler
▁polar
Azure
Label
▁supports
ependant
mitted
ble
Div
Integr
Journal
気
ands
▁project
▁Weight
특
inn
хід
found
▁intermediate
▁humans
▁suo
▁COVID
PARAM
▁colon
Pod
▁eastern
tem
▁Woods
套
}+
ton
北
parameters
▁Ap
iso
よ
ṇ
ρ
ander
UL
ції
▁permanent
egy
Appe
▁neuro
▁André
▁Think
sche
▁Used
▁fois
▁heal
▁Gott
ш
ui
arr
▁import
ulation
urg
ention
座
refresh
▁sand
▁nun
▁regular
▁lugar
▁autonom
.;
▁bitmap
▁angular
vik
▁weren
▁tres
ILITY
ination
idays
兄
ɪ
▁lug
_.
udio
кова
íl
In
▁return
poll
▁jail
▁glo
abol
AMETER
▁ноября
▁lan
▁infection
вро
▁);
Promise
LOBAL
▁Dat
plication
Front
▁};
eous
Relative
▁Standard
ser
▁ore
▁threw
▁lag
copyright
▁mathematical
кра
条
▁Sum
▁building
щи
TRA
▁music
▁Andrea
з
拳
▁effective
Padding
▁intel
▁individually
La
▁contributed
▁dealt
▁Fed
령
QU
▁vacuum
▁sanct
election
prec
▁Referee
▁men
color
想
lation
▁posterior
Queue
Binding
▁overs
▁Tan
▁mainstream
▁begins
▁boat
▁conced
thur
▁citizen
dhd
▁O
▁explos
▁dol
minipage
DataSet
효
▁Fra
iginal
!!
▁Dan
HOST
▁scale
след
▁dece
equ
▁skill
▁Naz
Keys
ност
挂
▁Bangl
▁seed
Ph
extra
▁seated
▁aws
▁looking
▁temporary
mid
▁loud
险
igt
▁Shan
ode
▁Quant
▁cutting
▁commune
▁titre
▁і
▁graphics
ised
ω
Count
▁investigation
▁association
▁vers
join
="../../
▁faces
▁mig
cpp
comment
server
▁RAM
▁▁▁▁▁▁▁▁▁▁▁▁▁
▁expensive
▁{@
▁equality
▁verified
});
▁Profile
▁Prin
dar
▁class
pcm
сла
▁venue
atr
▁Menschen
urious
ждения
▁під
mutable
▁Category
✪
▁jour
ieg
cir
дів
cx
oted
▁fantasy
torch
▁quart
hat
XT
▁entities
▁neces
Kit
▁wax
镜
ran
▁Bul
▁centuries
▁Kil
▁извест
▁venture
▁войны
▁applic
мор
▁†
▁filename
▁Fish
馬
▁station
Remote
▁sb
rip
▁FC
▁boring
tc
aus
▁explains
▁lowered
zą
▁représent
▁sympathy
▁PUR
▁depuis
мо
hor
ism
▁uncomfort
▁FO
▁operation
hba
▁shaft
▁jel
▁loss
▁Techn
항
▁occurs
▁roots
▁risks
▁Sister
pec
╝
▁infinite
▁about
ßen
фе
▁curr
Named
▁пла
flu
otic
ket
▁Ott
▁Dor
▁balls
Messages
▁Matthew
IENT
Clause
残
▁Ка
As
▁Af
keeping
▁reliable
▁lod
▁communication
cut
=$
UserId
▁ob
CONF
免
▁Roh
▁statt
▁wetenschapp
▁lambda
▁avoided
estly
fection
▁inspire
▁than
▁manuscript
ghan
esso
protocol
ohl
▁qui
Billboard
тами
▁Arn
йн
温
▁sweat
Mad
▁AN
aka
unn
▁attempting
除
▁artificial
▁multi
▁allowing

粉
▁Ces
▁cas
▁resp
▁broke
▁spher
ixa
inf
판
Student
element
▁AL
▁McG
▁legitimate
-------
▁auf
▁least
▁causes
▁worldwide
▁laying
------------
▁dz
▁currently
change
▁zaj
);
▁His
HAL
允
历
▁chemical
▁flo
▁rooms
▁myth
▁parameter
▁März
kil
▁alg
▁Nem
▁Liga
▁así
Statement
▁machine
▁grandes
ése
xd
crim
izers
index
▁alike
Total
▁Indep
atting
iciones
▁key
ição
▁"%
ﬂ
▁planned
чних
▁Lot
▁reach
▁aggregate
▁Nevertheless
▁existing
rying
▁Against
тво
▁=\
▁writ
ährend
▁LICENSE
▁Ag
▁Cuba
ution
rive
simeq
▁rob
▁футбо
de
Vector
Why
óg
BUTTON
▁sist
▁plaats
Src
▁sales
,.
▁special
▁pad
▁preserve
▁и
Output
▁Walter
害
জ
▁Ted
itors
▁alert
igate
mobile
科
▁Castle
evt
bud
▁typ
zb
▁роди
MED
ng
atre
▁compl
▁Pul
бом
iller
▁Heinrich
▁wis
NonNull
ometimes
▁holding
▁comb
▁Josh
нее
hidden
▁excell
oen
itas
stand
▁Lav
ylvania
▁conviction
▁correctly
▁Soviet
▁représ
稱
volt
▁Choose
😔
ADDRESS
▁(!$
substr
▁correct
}^{-
▁Sean
▁scary
Extra
CRE
▁END
Inv
Cr
ção
oft
Constants
▁Git
offs
aked
▁pulled
▁sou
▁testim
req
▁edit
external
담
ours
▁clean
undred
▁insist
"%
▁challenges
SYSTEM
ublice
▁seeking
▁[…]
▁respectively
▁approached
netic
comp
,_
▁somehow
Dispatch
▁sne
aute
▁rue
▁}\
Na
▁bal
▁miserable
▁understand
styles
Windows
▁backwards
共
ache
%%
Tw
▁epis
▁población
▁nasty
송
▁Ext
isf
ito
configure
▁composer
▁Paris
mass
ios
▁England
▁Edward
enen
▁alla
osi
▁Championship
▁indust
рая
lang
▁Deputy
ogeneous
▁coming
▁Dam
▁scandal
▁Para
agog
а
▁personally
顶
ję
TER
pg
▁chief
▁adj
тва
M
pit
▁Colorado
rake
▁sixteen
ieurs
▁pay
▁parte
profit
▁Close
ég
XR
LANG
ung
upiter
▁clan
▁settembre
Token
▁charg
Integer
门
toggle
auc
▁Vo
▁className
▁Abs
Low
▁annoy
ees
▁Baker
ポ
]
▁Jesse
▁res
rect
▁customs
̃
▁endless
▁sees
=*/
雅
ния
▁MD
▁$\{
▁security
asis
Description
▁confidence
▁Poly
ott
▁Aqu
▁’
▁Ex
▁Bur
▁spoken
Min
Term
▁gl
ented
Ј
enschaft
Spec
▁lut
▁dedicated
forms
ὸ
Authorization
na
▁след
▁percent
▁finite
err
mus
▁сі
▁Academy
▁opponents
▁Switch
Review
ști
▁Rice
▁Parse
put
──
▁diam
▁militar
👏
▁Serge
ession
etto
너
ститу
}}^{
▁ending
▁shut
▁Trans
▁lid
▁SOFTWARE
▁producers
▁Define
ổ
VS
‍
▁democr
😂
Prom
pas
фо
优
▁integer
Keyboard
▁Illuminate
▁situated
both
SL
▁starting
▁bere
▁creation
▓
äger
▁Ath
imeq
▁seam
▁fear
tick
▁obsc
▁cracked
sign
▁klikken
▁burn
String
oust
档
network
▁derivative
▁union
▁pt
partial
iliary
▁Pont
hl
▁Base
Events
ntil
Sch
IGH
ue
Attr
▁Gren
Come
▁Д
▁stick
▁Johannes
▁clk
联
$_{
coll
▁Berkeley
RETURN
Can
▁comport
<0x28>
▁Richmond
▁hace
prev
&#
【
甘
NS
▁assist
▁months
▁gone
calls
Arch
▁Ле
▁сту
▁поли
model
memory
▁minist
▁makeup
getItem
▁jur
iring
▁Beach
▁ty
Sil
änge
▁Star
lica
▁Hun
▁Happy
iza
▁{
▁<<
aire
uing
icious
ipedia
при
istas
▁Natural
odd
▁colony
▁seized
▁Paper
alo
▁Manuel
PACK
▁truth
線
▁within
HIGH
segment
ása
▁Bowl
My
▁Strong
heimer
rix
uminate
▁Ал
ɨ
?)
▁mortgage
ного
▁scared
Is
▁ground
▁partner
▁Tell
▁raw
Microsoft
F
ls
▁sale
▁precious
validator
▁Dad
=
▁knowing
category
▁им
▁Control
约
▁Ton
▁/******/
agation
▁huvud
▁flush
^
ör
∂
▁visual
▁Personal
W
icial
ro
$_
▁metadata
▁Ocean
urer
HE
▁balcon
AW
统
▁consent
▁safety
▁doubts
öß
▁sink
▁fit
▁Pent
START
▁Led
engono
tau
_+
ates
▁concepts
▁allow
▁chart
▁toy
▁apparently
(",
Grid
▁Es
▁animal
▁Consult
ver
Info
▁Oh
▁revision
▁Home
▁yard
HOUT
istributed
▁mistaken
▁Ste
▁Lawrence
IL
▁tiene
▁comparison
火
▁voting
ORK
▁president
仙
▁we
udder
inar
▁destroying
▁heavy
Runner
础
▁mű
Free
ˆ
Action
Tool
quis
▁BR
▁ла
tls
Paint
▁Pere
▁closely
XML
zerw
▁Facebook
ieux
▁jud
▁transitions
▁Kum
剪
▁Male
▁cups
▁Publish
▁cleanup
▁HP
▁damages
▁doorway
ographical
hem
▁Som
▁кар
▁guessed
▁народ
+
▁label
ash
late
itable
▁Oracle
dr
ck
▁two
Success
▁Hamiltonian
版
▁guys
▁electron
▁defence
▁regex
▁Jackie
börd
▁towns
inger
▁aggreg
▁Comp
מ
pare
▁Fort
uffer
_\
▁Jan
▁prod
▁distinguish
CTRL
Turn
▁passing
ató
>',
▁approximate
▁Along
▁removed
ultur
interest
▁siglo
▁restoration
personal
romag
천
对
▁hij
▁Singh
onda
▁gibt
verb
▁Besch
刘
úblic
▁ainsi
seau
▁schemes
SRC
▁bol
itched
Bot
Items
▁zip
yman
▁nerve
ська
obal
ղ
pid
stone
▁CP
’.
雷
resp
market
▁llam
▁ONE
пре
If
▁popped
рий
▁Football
aison
▁quando
eenth
tain
>
lich
arp
each
diff
LETE
loyd
accept
▁tight
😎
න
过
Reference
▁назва
▁intent
▁gran
▁lovely
ussian
▁bree
▁startup
());
▁mot
▁archae
▁sucked
▁Everyone
Ć
▁Attribute
delta
▁asp
▁bore
▁estar
rem
续
▁fail
Sent
▁furn
Master
▁Circ
▁ui
▁Nicol
ality
▁declaration
über
zeichnung
▁Ry
▁U
▁CE
èrent
▁him
hing
gor
request
▁mis
▁granted
});
▁compr
▁woj
製
five
Board
Edit
▁Convert
ock
Transfer
▁mad
impl
▁Bad
prom
▁transportation
▁Насе
▁eaten
Pair
▁első
龙
▁shall
protected
▁beliefs
▁resc
$('#
definition
▁incorporate
春
umes
▁Auto
▁drives
▁statistics
▁complaint
entially
▁capit
▁Newton
▁slid
될
▁countryside
control
Signal
˙
▁Object
common
ASC
▁recover
special
appe
▁equally
▁SA
White
贝
<0xD8>
▁cad
▁Human
▁(__
Translation
▁festival
pared
▁uncle
▁музы
⛔
▁junto
▁fore
▁string
▁Title
▁bronze
MIT
▁folded
atel
▁Comb
▁Bak
фі
▁jer
▁include
ү
▁Pero
▁Someone
▁Caroline
▁мор
Identity
▁intersection
▁ikke
平
▁array
▁completion
아
▁minds
▁AP
▁Writer
▁semi
▁Roche
iju
▁strategy
持
▁tips
▁things
▁usize
esome
▁farmers
▁suit
neg
sched
ί
격
reverse
ỗ
=-
<0xEE>
bas
▁forming
dm
ʁ
▁chose
▁за
serial
~~~~
▁labels
▁Northern

графи
▁philosophy
ص
▁mir
▁pró
▁invånare
IND
▁кри
▁Ern
▁cant
▁plane
нин
▁Print
Associ
iasm
▁Picture
县
demo
▁end
▁ts
сс
▁salt
▁satisfied
fixed
▁south
▁amateur
▁&
quiry
land
icket
▁creep
限
ляр
becca
▁осіб
bben
utsch
ony
sky
▁brush
blog
▁Flo
▁před
‌
Failure
▁gesch
▁terror
▁reg
anse
▁boot
▁hesitated
kill
▁profile
łu
绝
桥
▁Fem
▁street
mapsto
▁Entre
▁brut
exc
ḩ
▁fourteen
▁copyright
▁luglio
np
▁angle
▁DateTime
od
what
▁accompany
ram
▁production
acious
relative
hbox
Θ
草
▁WC
▁Anything
ioso
Anim
iving
ág
▁cou
▁readonly
衛
iences
▁surprising
▁hiding
achel
▁sharing
▁Christians
Framework
phabet
▁lou
consin
ort
▁ASS
мир
▁understood
▁integral
olds
vertex
▁examine
▁Dak
▁sie
▁dishes
▁ah
<0x59>
▁algebra
{$\
ubre
▁creat
▁areas
ს
Services
achen
ể
Confirm
▁Studio
▁overhead
ategory
}:
▁obtaining
sp
▁cop
▁sensitive
致
▁Suite
render
ipes
initial
ól
esser
Structure
▁chest
ellen
ré
▁comed
standing
帮
▁ol
▁Side
ungle
Directory
▁Philippe
▁Note
▁bands
▁pers
filter
rypt
errors
▁lists
▁allocation
iffe
App
▁обра
<?
▁meantime
▁Pal
善
<0xD5>
▁g
▁aan
▁webs
▁house
▁successful
▁paint
azioni
य
▁accurately
▁jQuery
▁contacted
저
((
ṯ
▁noted
Encoding
✭
▁З
▁Wrest
▁Gym
yal
itaire
ських
▁recipient
нах
▁klub
ată
(!
illet
NULL
▁knock
Animation
uster
kap
▁entrance
ington
▁До
▁bags
зульта
enu
лект
▁sensation
▁priorities
▁ebenfalls
ironment
volume
▁Occ
▁adapted
▁study
hes
▁Russia
coin
AIN
PEND
density
长
父
▁What
▁chim
suite
▁Oxford
▁permitted
▁ple
▁offered
▁remainder
亲
▁Ris
AA
▁tensor
";
ynchron
or
▁Trump
istant
▁rugby
▁także
▁Bachelor
▁metall
▁compound
naire
▁maggio
▁historian
ل
rice
cow
▁sever
▁Alfred
▁travail
▁cancer
̀
cu
erv
▁organiz
▁amplit
sections
▁extended
▁cabinet
after
care
cks

qu
▁spending
▁seeing
▁ec
Dataset
ENUM
inski
▁invalid
გ
▁pil
unden
▁Democratic
Linear
▁Pink
▁Arabia
×
▁coupled
已
counter
▁kor
рак
metrics
▁calc
▁instead
▁continuing
_
▁experienced
▁Stone
달
▁loved
▁gay
ब
▁viewers
▁");
▁resigned
▁Germany
▁toutes
▁releasing
ї
лек
▁Then
ferences
▁apt
▁reaching
hedral
Vers
AppCompat
ieron
Figure
Sir
▁років
用
Virtual
▁plasma
joy
omb
▁imply
▁End
▁strong
▁polic
▁вла
cret
▁discussions
rought
▁Republican
Zone
▁stair
▁Bel
Yes
▁explicit
apache
▁hopefully
eken

▁plain
њи
▁ce
Repo
▁remote
delete
▁highlight
сі
▁VM
AV
▁forg
έ
▁YOU
▁Friedrich
property
▁During
發
ය
▁popular
§
▁pr
▁vent
ugg
▁Third
운
▁added
<0x3B>
▁Label
谷
ya
ű
▁Lors
ignore
olare
▁Judge
▁música
functions
ital
Create
様
▁cute
<>();
лаго
ién
▁BSD
▁curves
▁MT
циона
rade
▁goes
▁dispatch
▁Posted
▁Cob
▁check
american
ifferent
▁statue
ē
illes
Theta
요
avia
ed
▁Nazi
▁PM
ría
▁integrated
▁Hot
kwargs
▁deploy
▁eleven
▁poem
▁Queens
▁Enterprise
threads
antal
▁affecting
ī
nie
TS
ekt
pow
фор
Attributes
ales
▁attitude
▁Ру
트
▁local
aign
▁cort
▁Suz
▁facial
anta
gio
▁tracking
▁wished
▁Susan
orden
▁anch
▁luego
Person
▁Dear
Backup
▁accidentally
▁maps
▁radar
▁listened
▁DT
Bytes
ци
╔
valid
▁Kö
т
₃
▁ні
Mon
și
IOException
▁Росси
Optional
ancel
First
▁Agreement
▁risk
▁horn
백
▁review
증
ầ
▁office
▁titles
cook
▁familie
nitt
veh
▁desp
Err
행
吉
imi
Slot
VER
UMENT
▁gain
rition
▁b
ié
▁strat
▁exploration
IE
ми
ol
▁body
▁ese
格
RECT
▁method
▁says
▁mom
uilder
▁gloves
amine
nor
atur
▁trait
▁WE
▁registr
▁Individual
▁uno
▁Ž
-->
FAULT
▁Ep
▁resur
表
벤
▁Hospital
prises
▁celebr
bitmap
▁mais
áct
Card
msg
▁camps
▁Czech
read
▁Africa
▁Century
hip
▁Mac
▁roce
gun
▁Gel
▁sensitivity
▁needle
$~
uns
Context
erde
네
ROM
Ка
ר
▁Wars
▁Hir
▁ras
CS
reens
▁profes
▁squeez
fund
rå
netdev
▁Malays
წ
▁franchise
cope
▁opposite
登
▁privile
▁adopted
On
rr
▁initi
Cluster
▁Amb
тера
hour
块
▁Harr
▁embarrass
▁celui
▁Self
▁ps
▁september
▁Assume
++
▁rise
▁plusieurs
ást
▁waters
▁difficult
命
█
▁playing
unique
Timeout
vendor
itet
▁legisl
▁mai
ROL
Rate
Port
▁denoted
▁universal
omp
ズ
▁interest
降
endant
orest
勇
iseconds
▁>>
but
▁GPU
련
ucture
▁precision
▁ready
▁ordered
▁mines
touch
aurus
▁random
▁Hills
Using
На
▁replaced
ocker
▁penis
▁variety
▁Freder
▁LP
▁-
yout
▁Ки
▁ella
▁Solar
▁Stuart
▁Master
pool
Thank
Errorf
▁yards
▁minimum
▁PARTIC
脑
▁treat
multicol
imento
▁CT
out
▁contained
⟩
shire
▁Morgan
{(
cn
▁rott
▁Cur
▁Americans
▁behav
동
arc
▁aria
▁twe
▁mayor
sterdam
▁Bes
▁pont
▁"{
▁города
▁octubre
▁singular
ă
钥
ped
巨
aily
Car
▁org
▁feel
▁experiences
▁км
Assign
²
log
数据
ale
sect
线
▁Love
̂
oe
making
rence
div
inand
OUT
Lean
▁Cot
▁aggressive
▁Estado
▁Opera
▁Samsung
var
▁Car
ensive
▁issue
▁ж
▁tanto
▁expend
▁Guerra
cred
▁bounded
supp
▁ро
▁So
▁inspiration
<0x05>
▁built
▁ist
▁supported
ф
▁pod
who
Small
衡
ife
▁Hence
▁Orth
▁moy
최
▁Department
▁ancest
HEAD
▁Als
▁cheap
▁Buffer
▁window
Args
▁diesem
ța
ugh
▁prin
▁Card
▁Multi
aded
Canvas
▁служ
ité
columns
▁zona
▁pe
▁Bas
▁Analysis
获取
▁||
Name
▁spiritual
irt
ingen
▁networks
▁разви
ční
▁reprezent
▁Lincoln
آ
▁dos
▁Cra
▁sexual
▁Ill
rolling
▁Kate
▁knocked
mutex
▁Score
▁Old
getInstance
▁modeling
Same
utz
]);
▁illegal
▁elseif
▁Bh
conduct
▁Durch
▁изда
acking
Prim
▁Kong
support
▁оп
岩
▁segment
rides
▁defin
verify
▁fierce
▁kind
graph
Fatalf
▁Mary
▁Gray
▁workshop
▁drug
▁Exhib
▁disappointed
开
HA
▁severe
日
▁lin
▁Ге
ám
▁say
▁police
Random
▁brow
▁behaviors
▁onde
▁Klein
车
holder
▁Samuel
▁PG
▁green
▁np
▁turn
}\,\
▁funds
▁headed
();
.',
jes
eria
▁interpret
ieren
▁(«
风
RAY
派
▁перио
▁hate
▁disk
oz
▁Но
▁Cre
例
Time
like
▁bab
▁links
▁così
▁Little
heng
▁unemployment
Play
▁templates
▁yesterday
IF
prof
wikipedia
继
▁elif
▁proposition
allery
jer
▁ко
limited
')
▁wear
akte
▁harvest
▁fine
▁straw
▁Network
Url
▁oraz
▁View
▁si
icago
▁adapter
▁Watch
▁suffered
▁cur
▁Complete
▁hist
arte
▁attacking
▁rv
▁{};
▁setTimeout
▁floors
▁plenty
把
▁require
apers
ipping
▁dropped
Present
▁XVIII
▁executive
료
▁TRUE
戦
▁naval
▁consider
▁quantity
ž
▁ingen
ные
ulates
▁roads
ittle
TY
encias
▁ir
▁solutions
rell
aines
▁Pol
Team
▁распо
...,
pi
▁func
rop
ḥ
\_
▁besch
including
oss
<0xAE>
Я
льного
▁lot
▁Anderson
▁Driver
▁Marg
sa
PRI
▁ancient
лан
▁unre
纪
▁fond
▁Books
тя
ern
▁Operations
▁workplace
▁iv
选
mber
▁Fab
ILE
mad
,,,,
Phys
▁struggling
▁would
pe
ERROR
Ber
g
▁composition
▁iron
unfinished
▁anxious
▁included
拦
▁products
▁++
书
▁worthy
▁marks
▁tournament
води
▁Squadron
▁motor
citep
▁Julia
▁Morning
▁therap
iv
online
▁Barcelona
Activity
customer
amerikan
idos
▁Emp
▁Fight
▁Okay
gency
▁expressed
▁Tim
▁выпу
xs
ixed
▁device
ovi
▁convey
▁activated
angs
▁decode
******/
▁чер
år
plo
▁void
anal
ählt
world
Hal
▁senior
ム
▁werd
▁succeeded
chiat
conom
ández
▁devast
Namespace
▁advocate
▁Round
▁zd
▁hypothes
efe
▁Days
己
▁increases
나
neq
▁Вы
▁joke
ion
▁loyalty
Names
ighter
▁Does
iente
▁Match
specific
▁teens
ggi
related
▁Sh
▁Back
が
只
▁Harbor
<\
▁"#
▁coat
▁flies
ès
ා
▁largely
▁ni
Shape
DR
▁Amsterdam
▁Justin
▁emit
▁eller
▁Unfortunately
Tip
DISABLE
вня
▁Deg
▁remarked
ashes
▁явля
▁afterward
▁comedy
卡
試
yan
ville
cdots
ELD
▁meals
▁Particip
ĉ
後
REL
▁Ev
ர
iero
▁профе
Psi
sprintf
▁Brooklyn
————
▁Wer
training
sure
▁big
▁embar
▁served
ход
▁believing
佳
▁targets
▁Netherlands
Auth
tle
▁eligible
MESS
პ
чной
▁continually
pp
▁add
▁sounded
svg
▁base
wave
CTL
Prov
▁+\
▁an
▁v
View
▁Development
Ctx
реди
▁дву
▁spir
zon
▁го
▁expressions
Equal
▁(%
every
ats
vr
âteau
enth
▁MVT
erase
▁marg
▁Greek
▁surve
▁conv
eqnarray
▁Social
▁clue
users
▁native
▁drop
▁Sta
▁lose
▁calls
▁shield
▁wide
▁Lat
кро
▁flu
ritz
▁aspect
RR
쪽
ielte
波
▁played
jection
▁handling
▁nah
▁club
▁Again
▁phrases
▁runner
ishop
icit
i
载
▁workspace
▁China
▁hol
▁aliment
Menu
rible
▁alle
▁constru
▁puede
▁killing
++++
onial
▁irr
TabIndex
▁setup
▁at
も
ব
redirect
SETTING
▁нача
▁URL
▁enum
ANG
▁Bush
▁Several
▁animated
pling
ably
pread
▁$("#
▁congr
uur
Attrib
▁conj
▁charged
obj
чі
s
parts
gie
ahren
());
▁perman
함
RANGE
placement
annot
Navigation
▁DC
bling
▁waren
otto
tal
VALID
▁integrate
loads
EXP
▁tow
即
▁drawer
▁–,
▁Buck
oll
▁*)
▁engineering
▁Intel
▁inf
)((
TARGET
▁easiest
raising
closure
▁wel
▁Sarah
teger
}"
▁surfaces
ń
▁Family
ὰ
▁dip
▁notion
▁cat
▁avoiding
жде
▁equivalent
▁stub
бли
ATOR
Update
▁tickets
蒙
▁mold
velt
상
權
ется
▁Sing
▁й
购
ister
昌
▁attitudes
▁perfection
process
▁Domin
то
gram
score
▁тре
atin
▁fot
▁usage
▁resume
nik
티
ไ
Th
▁sin
▁factors
еди
enson
▁ско
▁register
▁influenced
▁eq
▁contain
▁togg
dimensional
下
Gr
▁fö
▁ao
Unexpected
▁déjà
▁Culture
GetString
rais
={
▁opposition
ání
▁quality
▁sky
стоя
idding
▁mg
▁пода
acker
idle
itude
▁row
减
mero
▁Scottish
べ
▁Las
▁gruppo
ʂ
▁apartment
Ż
fmt
berry
▁писа
inals
▁trouble
▁fam
reen
├
Pi
▁suggesting
▁proc
▁Nice
🏾
▁road
single
oplus
월
▁installed
▁LLC
änger
▁Free
▁Edition
▁Rein
rq
▁Really
udd
贴
▁vessel
▁Conse
ғ
issenschaft
▁Come
▁software
<0xAB>
▁boolean
▁geb
▁among
nu
graphics
lauf
▁samples
Theme
bst
▁préc
VENDOR
▁cloud
'
▁worries
ubble
▁figure
ior
ela
じ
about
▁telephone
理
neh
▁Berg
ট
▁Francis
▁Sports
wr
▁nations
ख
cle
▁Princess
ja
gs
▁resolved
▁enero
▁zurück
Transport
🏼
+-
▁considerable
▁providing
variable
ig
▁JO
意
пен
Every
▁kön
▁illustrated

▁btn
▁Miguel
qq
ato
▁sister
ando
▁Suppose
eline
▁Har
▁regardless
Loader
▁genes
aged
▁letting
▁residence
▁Re
▁suff
bled
▁ex
listed
▁Muhammad
▁Must
▁buf
Limit
ја
▁Child
ert
▁Products
▁район
for
▁oral
▁nodded
▁translated
▁Abraham
▁wsp
<0xD0>
▁sharp
……
▁pl
▁overlap
▁particip
▁head
datetime
▁'')
‏
ild
▁booking
Jack
零
玉
сть
▁trabaj
aje
▁communities
ionato
talk
▁parl
Contact
▁cette
抽
▁vintage
▁form
▁стан
Replace
▁NV
▁Local
▁soul
▁homework
mer
"],
▁keep
镇
unes
ßer
▁poverty
▁excellent
atom
▁destin
/(
CPP
PER
ITER
▁↘
ms
▁endorse
▁manif
▁density
Access
▁tube
▁intern
▁?></
лина
▁reserv
▁places
▁sind
▁organic
forEach
column
▁ihn
amento
▁anniversary
san
<0x29>
▁rather
▁Stream
▁sentiment
codes
▁believes
▁Dru
iple
▁фор
ieur
◄
ฌ
▁wind
メ
folk
▁sc
▁democratic
▁alias
ibt
▁faith
Stack
▁Implement
Drawing
고
ifr
timestamp
ival
▁older
▁Te
opy
▁Input
\{
▁bottom
季
Tracker
▁pricing
Scope
▁training
ack
▁adapt
▁smell
▁Age
▁orientation
▁convent
▁Planning
getData
▁minut
ช
造
▁intensity
6
↘
iors
<0x47>
files
})$
iron
logger
▁Le
▁dit
▁generates
Be
▁hilar
thumb
.__
fony
sterreich
RED
▁department
<0x31>
▁citiz
outs
▁Having
▁nad
ALE
▁morte
▁|
Yeah
ẩ
▁explicitly
Bar
▁Career
▁retval
Utilities
ম
œuv
Gateway
▁Gra
▁\"
netje
adora
▁snap
urity
毛
ział
▁norm
extr
Ã
▁Oak
[]
IR
▁buffers
Strategy
▁directors
Partition
hir
dy
<0xB5>
▁Return
▁meant
PIO
ţ
database
TagHelpers
▁Sure
provider
uid
▁lasting
▁Holl
▁justify
ISTER
속
▁proceed
WO
▁bride
ciples
▁Interior
▁tires
▁veterans
▁everyday
iddle
▁emp
▁fut
▁shared
dtype
▁Vit
仪
▁Mathemat
▁Custom
▁fantastic
▁modest
▁includ
▁tank
▁amid
Pet
很
▁befindet
ặ
▁откры
Selector
uro
▁Prix
West
Doc
▁bt
ead
nullptr
▁rifle
*,
abi
▁settings
▁ents
pic
▁military
▁пі
self
Attribute
▁muj
▁Selection
Culture
▁Russian
▁waiting
▁prevented
▁Getting
ML
records
▁accuracy
▁Config
▁Joseph
▁Mum
und
ancouver
?'
▁designs
itect
▁brick
itos
itted
▁liked
设
<<
▁Although
cí
▁coding
istry
вся
▁sim
▁utilis
reduce
Timestamp
▁Wa
▁Due
▁Res
ítulo
Texture
ölker
},\
今
▁Charles
▁Stan
▁throne
Align
▁roku
▁Tower
Well
▁expedition
▁други
lst
Height
▁mb
Oper
▁whis
▁lum
▁wool
▁permission
▁guilty
aring
ց
ской
▁parliament
cester
▁'_
+(
rowned
▁Sample
渡
nero
ミ
▁Widget
Keyword
▁кото
▁block
▁vote
imat
▁dre
CC
▁Setting
eta
任
oms
Js
audio
Offset
▁nine
▁mic
▁camb
•
cre
oth
▁convention
▁Franç
atory
▁unm
较
jekt
"
uments
сон
aden
▁"/
▁swimming
▁offering
▁analys
▁'[
▁disput
esota
▁Manufact
dem
bench
HTTP
▁Doc
▁Connection
▁month
istence
бра
▁concert
awt
▁Creative
▁convicted
w
ు
▁Cab
▁Din
FIG
):
▁failed
▁gard
публи
▁notamment
▁queen
lit
CLE
▁recib
▁wearing
▁släktet
ielen
▁remain
IG
▁nombre
▁solely
istribution
▁algorithm
▁pharm
▁gorge
▁Schul
▁Edit
arna
CHANT
▁compilation
ogen
▁tm
▁school
▁mud
▁Fund
hop
reck
▁много
▁cheaper
▁components
▁Dal
*"
▁quatre
▁randomly
▁plant
▁[
IMP
▁live
{{\
alen
▁environments
ħ
fetch
▁lit
olin
▁repeated
▁Sid
<0x95>
<0xFF>
fect
mesh
▁Fly
Dest
тора
Mic
▁Bud
▁reminds
Models
pite
\\
quire
▁issued
▁guest
▁guess
▁Europe
▁він
▁des
Sequ
ishment
▁quick
<0xBD>
kat
ṭ
🔴
▁bones
owski
▁knowledge
▁cour
ристи
дь
uring
▁connections
zech
▁Ther
▁throws
▁example
ლ
Merge
iteral
swap
();
igration
breaking
icker
PROP
▁Hem
ators
▁particles
usa
ccess
▁ear
▁accounts
schema
▁thorough
▁enabling
▁sow
▁rig
LET
lay
▁cult
▁rode
▁Ball
arge
▁Section
ierno
λ
▁ander
ST
serve
年
ENV
rik
▁future
disable
▁Publishing
▁serious
Proto
dirty
▁Lil
BPACK
<0x18>
▁politician
anks
▁Options
fol
▁Cro
▁CONDITION
egründ
geo
ank
▁modified
olly
Δ
anj
eren
stock
▁Hillary
▁été
▁been
▁cris
▁сто
▁reinforce
wm
kee
ят
▁Ontario
Codec
änd
through
▁Remove
USA
av
▁nou
<0xBA>
▁remem
▁Wikipedia
ల
ATH
<s>
▁Ба
▁został
▁jak
▁lever
▁Way
▁bien
chem
рав
eme
earch
▁gé
polation
bis
▁chains
Fake
▁peque
▁ptr
▁hills
▁Ice
Flag
ribute
▁Legend
ុ
▁shake
::<
▁fino
generate
Extract
▁Raj
▁",
▁industries
▁chicken
▁Zone
ége
fried
▁sub
▁wasn
ota
▁matched
▁repository
latest
▁batch
PROTO
陆
▁Eq
ree
Tok
platform
▁by
rict
▁speeds
▁Fix
체
▁Wednesday
▁rel
▁Birth
bus
▁mobile
▁Pers
▁Cour
▁escrit
▁uint
tensor
▁choice
▁sus
â
▁cool
稿
стер
▁agency
blocks
<0xAC>
▁disabled
▁creatures
▁recovered
NEW
ipage
▁Armen
▁ultra
▁leaders
ervice
ව
▁controlling
▁Jessica
Horizontal
cached
▁shocked
▁über
DP
iste
yg
contrib
▁contribut
▁mechanism
▁strengths
Parent
▁Layout
投
▁artic
▁Kingdom
▁glanced
ず
▁else
▁medic
▁seem
aware
ಮ
丝
▁Ро
▁Helen
FR
▁aside
▁slaughter
▁SUB
랑
AY
три
▁pref
amma
▁dod
Very
bn
ском
Segment
ina
▁Tom
('/
^^
uning
▁Cloud
▁Incl
mers
▁pul
▁planes
▁relig
lifer
礼
▁stolen
▁dozen
▁brass
icked
▁myself
▁i
SELECT
▁Robinson
etection
▁irrit
ugu
ⵙ
▁safe
ништво
deleg
czy
▁Mediterranean
▁degree
▁implementing
▁respected
▁différent
ctl
▁Systems
▁Comment
▁Marcel
▁ax
git
pick
video
▁Rou
куль
<0x5A>
ёр
mat
▁fully
isan
park
▁wheels
соб
▁Left
碼
Origin
claim
▁agreed
▁Sur
Creat
▁Dragon
門
mand
▁recommended
ief
enez
IB
▁disorders
▁cause
▁slavery
▁armed
▁believe
▁initial
▁Lé
▁Schema
▁Argent
▁Youth
ō
▁quiet
▁retro
fe
enced
iolet
/\
▁FIXME
Asp
▁$
ova
bytes
secure
ness
intel
clock
▁però
PROPERTY
▁exploring
▁Dec
istent
▁encoding
û
ді
▁middle
▁theft
▁---
▁Cos
▁publish
erialize
▁Sk
▁parts
ил
Source
5
▁cod
schen
ных
启
outer
▁right
▁actually
~~
▁evalu
ASSERT
▁burned
ufact
icate
ój
▁Same
▁EM
▁bicy
▁blowing
::_
ivery
ган
Connect
kins
iances
▁tête
▁Vegas
nd
▁vill
▁Political
essen
Ρ
▁sung
<0x42>
▁Fernando
▁contributing
secret
ڕ
▁talking
▁understands
ন
("%
geon
▁winners
▁inline
airy
вин
▁signific
▁trou
▁arr
<0xE8>
▁Tree
▁rounds
зом
Tr
ью
▁Sn
emy
▁football
▁agriculture
Have
▁voyage
与
▁ord
double
▁stagger
asty
ays
▁não
RET
rett
▁Fourth
▁fetch
ains
arently
SER
▁milit
bew
▁autom
▁item
]/
慢
▁Wood
ISING
Domain
Before
▁hur
▁Hans
ció
▁atom
▁Carib
Em
ETH
▁movements
,\,
ологи
Lif
▁seg
來
SS
Payload
inters
▁succ
Ø
直
broad
▁nowhere
▁является
▁Transaction
iling
▁Lag
Cred
非
пан
▁struggle
常
▁Prom
ниче
kit
▁sta
▁HAVE
Has
▁ful
▁Sam
▁pied
प
▁turns
colored
▁peu
č
locked
ount
rupt
テ
▁il
▁Den
▁Ludwig
ld
will
eled
PD
▁teaching
▁observed
▁Arch
▁Drive
визи
▁noble
▁ampl
▁overwhelming
ridge
referto
md
▁especial
erek
▁conf
▁donc
▁determ
▁cheeks
()))
▁Mull
錄
▁laws
⚠
▁pou
▁gathered
─
▁Lars
▁quotes
▁dialog
Scalar
FORM
Expression
ᴛ
▁Spr
▁bibli
vert
thread
▁helpful
▁pose
Mont
▁Shell
▁representing
ри
▁caused
▁font
▁pag
▁soph
▁Giov
wei
▁elsewhere
▁attrs
stat
Lib
зво
▁FT
▁abuse
▁ehemal
▁lac
▁Basket
▁Ni
ueva
▁evaluated
more
chg
▁Review
mission
▁Foster
▁nin
▁presum
▁Definition
Month
▁avril
ould
til
▁fled
▁massage
▁Legisl
▁Mons
우
▁ya
oire
token
▁Daw
Anal
니
▁ich
▁intellect
機

▁fans
▁cough
▁Ital
⠀
▁repair
▁Amer
none
▁past
▁ор
▁NBA
лу
Features
ąz
Sets
▁internacional
▁seguito
Hidden
▁convers
▁bit
hook
▁though
▁населения
▁informed
astro
assem
▁Bun
▁clients
ро
▁Detect
▁cloth
▁Sciences
Alloc
ampa
▁crit
▁étaient
Library
edge
▁ns
?>
▁eerst
ichi
▁errors
▁*"
❒
▁professional
▁nd
▁zwe
reation
IPS
額
tilde
enburg
ogan
▁Order
naissance
шения
htt
Catalog
▁shirt
▁framework
dis
▁volunteer
▁star
onymous
▁ciudad
ály
▁Bryan
▁faç
MENT
▁chapter
固
arest
ний
▁here
▁still
Py
ウ
▁Jay
TLS
nog
💰
anni
ermo
▁uma
Session
▁evolved
▁intended
▁ministry
▁тор
▁Unter
multicolumn
▁Leonard
Proc
aning
▁Found
教
<0x2E>
conde
▁mare
▁tied
autor
chart
orus
__,
▁proposed
domin
▁Rank
≈
▁demonstrate
ostream
alue
▁nurse
▁ne
▁spect
Serialization
▁ancora
▁six
▁suoi
▁consecut
▁realised
▁Larry
▁hundreds
end
▁hearts
▁Alf
▁IBM
acter
▁después
▁Mess
▁Episode
▁upset
="{{
▁concentr
▁Il
filer
Async
Was
▁Conf
leading
▁sich
Null
uego
amped
▁rum
从
▁serial
▁·
▁modules
ὶ
▁filters
]))
▁Both
HL
té
VE
▁tx
REG
expected
▁Register
▁Eventually
ens
">
imeter
ular
▁processing
▁supplied
Bill
�
▁abortion
▁target
▁rx
shader
bian
Omega
▁without
▁spoke
ฐ
ńsk
▁stranger
▁indicates
そ
Ga
▁ms
▁atomic
▁Float
och
aling
▁cognitive
▁Hunt
you
alling

alloween
keys
▁Load
▁Advanced
▁skin
▁BAS
▁fileName
▁ctrl
▁mark
▁compatible
▁ninete
py
acts
▁film
▁Tests
remove
Net
▁Nevada
System
▁demonstr
思
逻
▁bul
дат
▁spawn
єю
▁empty
ags
▁Word
▁Clark
ulture
▁Gu
▁audit
▁believed
clusion
bear
▁}));
Account
front
户
イ
deg
▁PhD
▁kings
▁игра
▁Berlin
前
▁doctors
▁purple
▁opportunities
Disabled
ib
▁tire
/_
支
ets
▁sem
▁CA
avelength
▁comply
/'
Depth
sam
▁".
Variant
▁pseudo
umen
것
▁determines
▁coffee
ivan
▁declar
▁[`
▁refr
eston
两
ä
▁Melbourne
应
_->
▁permet
▁lifestyle
▁decent
ogle
▁["
▁king
▁Hy
▁world
▁comerc
▁beneath
▁Land
▁affair
straints
▁Duke
▁Co
isco
osex
▁force
inea
schaft
bach
▁plugin
▁prayer
▁hatte
▁soon
▁tender
Completed
VB
▁ke
▁Associ
▁dismissed
Collect
▁decline
▁Ста
educ
▁search
п
Ar
▁industry
▁pipe
▁janvier
▁cooperation
jections
nals
🟠
シ
▁delle
god
isely
encoding
▁assertTrue
▁listen
▁Nigeria
▁self
▁calling
iji
irection
▁comfort
▁octobre
▁aw
ichten
Φ
▁alter
▁momento
signed
▁CM
▁${
inx
kreis
document
▁Club
Log
ャ
Batch
▁Crim
▁educated
▁diamond
▁liquid
▁expenses
Sys
▁Dictionary
▁Marie
▁spectral
▁."
▁loops
▁allows
▁Ont
)}}
▁negotiations
▁sm
augh
ór
렬
팅
▁sym
gesch
ivalent
▁overview
්
ран
зи
▁misunder
▁faire
high
ansion
<0x76>
▁okay
▁question
▁!==
▁reward
▁fro
▁"");
▁golf
▁prosper
oc
▁promised
sequence
IDs
▁arte
會
優
▁fen
▁depth
▁racial
▁libraries
▁those
тали
위
▁ton
▁fr
again
Shift
():
▁``
▁versus
ља
Allow
пера
▁impacts
▁off
▁regime
owe
▁Ah
▁bug
Unicode
楽
ONE
illery
▁faded
omet
▁Juan
grow
▁income
承
پ
▁zum
▁Over
▁dell
▁improved
▁Observable
▁ти
别
otherapy
▁Filip
時
▁arguments
atal
Formatter
엔
тей
▁crypt
custom
incip
▁emb
▁ritual
┈
▁grinned
ホ
算
▁praise
プ
та
<0x57>
▁oppos
orship
▁Att
▁р
(".
▁):
▁wird
▁curv
链
isons
▁consolid
Video
uit
▁User
▁lik
▲
▁können
Valid
❍
execute
тер
▁hacer
IA
II
hc
▁Jahrhundert
tere
▁seen
▁estimation
▁secretary
<0xFD>
▁Hon
adrat
sol
▁repairs
imgur
▁accepts
Append
▁lav
pel
▁Display
▁Natur
tooltip
maker
率
▁charm
ding
nament
orsz
▁shore
ев
REC
entity
onom
reci
▁Gard
▁Gram
Safe
▁tug
CLO
ó
Addr
▁Muslims
Require
lands
вания
Dan
▁nutrition
르

ulo
press
Guid
azu
▁Pretty
▁rain
▁Ann
gres
rieben
勝
regon
ooth
订
▁fashion
Definition
▁"--
some
ource
!"
▁Design
ire
▁conservative
▁lemon
▁smiling
▁Кон
▁invol
lished
spe
ials
▁diagonal
leased
▁counter
▁Rom
▁encour
ographer
round
itz
▁patron
▁kw
CLU
▁abs
quin
き
CHECK
▁discipline
▁Lin
▁Train
▁marked
ennen
运
anne
().
▁Der
)))
▁pattern
▁nobody
▁forme
Bind
▁Luxem
LEAN
▁sout
▁hide
▁Dom
ف
Of
sap
洋
▁ain
አ
midt
▁Hope
▁chem
INST
ensional
▁nav
ategor
▁України
rection
Hot
▁XIV
▁BA
anguages
Tokens
iera
依
▁Kar
▁tomb
▁delicate
ety
ecycle
▁processed
▁Mission
Boot
DIRECT
▁reflected
我
▁required
borne
▁conqu
OS
▁designer
栏
▁dry
▁Garden
Bag
▁sacrific
◦
装
Tor
른
▁Papa
▁bg
Component
▁religion
▁involves
▁XIII
某
▁lane
pshire
先
*.
apping
<0xB2>
▁######
ा
▁Jahrhund
富
▁sport
▁idx
NING
▁особи
subscription
istrzost
尼
ści
▁Intern
▁fuer
넣
▁Chairman
family
џ
▁favourite
trl
树
)?;
▁mandatory
去
getElementById
ři
Like
▁eb
tasks
totype
▁licensed
äude
হ
▁plays
eyed
binding
▁possible
▁*(
▁possess
kc
δ
ұ
マ
ondon
van
velope
duc
▁hadn
ɐ
▁харак
▁kg
emat
義
/**
poch
▁prescription
CAM
hot
▁warehouse
implement
ど
BF
國
▁долж
▁была
▁Universe
Cons
ese
▁piece
Real
eted
buff
ɵ
ktet
TCP
maz
station
▁Icon
▁Authors
resume
▁cô
▁pulls
▁cidade
▁walks
copy
▁Um
hooks
oint
Monitor
tered
▁Ein
▁Site
▁Internal
ailed
id
▁essays
Fil
▁destroy
repository
old
Diff
▁phrase
Illuminate
lect
▁arranged
åg
oute
▁Democrats
▁rit
▁Argentina
freq
▁'',
▁""
清
▁dice
DI
▁virtual
▁cells
▁drums
fb
▁Barcel
notation
▁restr
▁beauty
H
▁barriers
ョ
ician
Con
▁Fol
▁Univers
pk
▁move
rypto
colon
▁equipo
emu
᥀
▁Bible
▁engaging
▁'<
▁years
▁Long
ensions
Dimension
▁\{
Ma
au
▁Arm
Constructor
▁routine
峰
▁props
▁Per
▁revolutionary
ulf
вар
DEBUG
▁Lewis
▁Craw
sq
▁Being
▁factor
oustic
bits
▁cha
▁Express
Trace
▁▁▁▁▁▁▁▁
▁stere
men
thal
ин
itut
sy
▁Vari
▁climbed
▁inclusion
▁molto
▁które
▁printer
▁worried
ỳ
adays
索
▁только
▁Sebast
覆
inted
▁fires
▁accessible
mong
so
▁Kenn
▁Erst
▁pupp
▁typing
SC
weg
ammen
▁boy
▁gra
▁Agency
BUILD
▁log
▁Palm
▁Ut
▁lives
aude
▁Node
▁vacation
▁ging
▁correl
▁Indonesia
▁Brazil
ologie
▁CBD
▁Deal
시
▁sweet
▁vista
▁medical
es
▁Hero
▁augment
aats
entities
▁loader
xml
<0x52>
▁gegen
await
undo
sem
▁poor
lte
uto
las
▁Rah
asp
▁withdrawal
гу
▁consum
▁pushing
▁carefully
sto
▁roughly
▁occ
▁revenue
刚
▁hed
▁Hor
_(
▁geometric
▁obt
▁victory
onym
liest
▁acting
▁grud
TH
iefs
▁gods
▁endl
MX
▁па
▁delight
CI
▁XIX
▁Sus
▁centered
▁pant
▁touched
Proxy
olves
etes
▁taxes
▁summon
든
generic
​
▁},
arden
Aff
<0xB0>
▁leather
react
▁game
alf
can
▁tom
arters
▁rev
▁difficulties
да
iar
stant
ția
▁victim
izontal
"}
▁Vern
degree
uest
▁IN
▁tir
<0xEA>
vart
▁prze
▁vehicles
resh
样

capture
▁pig
▁raised
▁gently
浮
ů
▁fifteen
SEE
▁sections
MF
cción
material
OC
UI
rices
▁all
getName
▁jan
depend
oin
ôle
▁Mundial
ON
ి
▁breast
iven
▁LA
tz
▁binary
warn
drop
▁пи
▁ka
▁systems
министратив
▁cél
icing
▁Les
ureau
▁worden
gi
▁bool
▁Had
▁diffé
tim
▁mag
▁pages
如
▁to
▁your
▁Lud
={'
加
▁ext
盘
▁spectra
uity
▁Story
angel
▁awareness
te
ící
▁Lau
▁elect
вал
▁wrist
▁loyal
ues
“
▁baseball
}\,
▁occasion
Observer
▁benefits
Cart
▁prim
ala
▁nons
inner
▁Democrat
れ
pon
态
ixon
&=
izations
▁Following
▁Ban
▁бро
▁lawn
▁Hab
▁Rating
▁closure
En
miss
-.
heim
▁relevant
ну
▁nearly
▁.=
▁tour
▁conflict
效
▁swo
▁Lang
▁trigger
▁tur
ancell
▁Park
▁complic
宫
mil
gling
▁Science
ara
}_{\
▁dia
▁authorized
▁numerous
학
▁Br
▁Roc
▁$_
ialize
yes
Db
▁Solution
<0x67>
▁Arnold
권
Sec
register
,'
word
ald
ych
浏
reply
▁Ph
ńst
▁advise
aca
▁replacement
Popup
▁Marvel
▁olymp
▁Drug
▁anything
>,
⬛
▁Ś
device
ównie
▁attention
▁height
▁Nag
SPACE
▁shar
▁itself
▁Related
▁beyond
▁irre
qquad
ную
▁dev
▁place
FIN
ope
▁Adult
scribed
MOVE
▁При
▁ги
▁freed
截
▁Quarter
Parse
▁raid
▁treats
watch
▁Prote
▁gave
ках
▁greater
et
ник
bu
▁algorithms
iments
测
ason
start
Basic
▁dialect
▁Assembly
vers
▁(*
법
▁location
ONG
▁diss
▁deer
Border
板
ids
ць
▁Pow
▁superior
▁idiot
▁Jacques
m
ходит
wand
ischer
▁hanging
annt
ở
▁CF
▁Staats
љ
стов
Manager
ြ
▁J
alter
▁Hal
/**
▁bund
ṣ
▁-----
atus
views
▁males
'",

▁broadcast
WRITE
▁Xbox
্
목
ries
▁entertain
ра
▁sop
▁челове
▁př
ising
isten
igos
ɔ
ibly
▁У
ступи
anches
▁Besides
▁usual
ookie
▁Rome
ajor
▁obs
aal
ар
▁social
acyj
▁functioning
乐
©
▁infer
▁україн
Empty
▁TIME
▁different
▁habitants
은
▁région
▁Py
DOT
▁že
wa
argin
▁expanded
del

▁phases
▁Terry
Without
▁polynom
Per
tn
Family
ultan
Secret
▁dates
▁answers
LINK
▁PH
▁resist
▁laughed
own
▁bubble
zoom
▁Diese
mente
▁inhab
▁trans
Dom
▁disadv
▁Hockey
ga
▁mari
▁lighter
}/
Á
▁shoe
<0x79>
▁quantities
▁grandmother
Uint
▁trucks
ˌ
▁Container
▁eas
▁пре
ario
▁Kas
藤
▁anyone
№
▁founded
▁expand
▁cm
ква
論
▁butter
ո
▁Points
▁vagy
Drop
▁Much
▁notebook
▁oblig
="_
%%%%%%%%
oad
▁стал
di
His
Bal
▁show
variables
prot
¨
yp
▁Eight
TP
▁heap
мя
▁sept
▁aged
▁appro
жение
ِ
▁till
▁portal
▁rh
ENO
mt
▁->
SQL
▁окт
▁VAR
gen
▁це
▁mental
▁nurses
▁gall
ride
Orient
▁workout
▁Properties
▁viol
raf
Jo
erc
▁"",
▁Dav
▁pon
Two
▁Dialog
侧
▁hybrid
ik
▁ber
descriptor
红
▁investors
сков
▁advert
RL
nis
▁COP
陽
oman
▁COPYRIGHT
▁doc
▁consid
▁Kind
▁др
▁up
변
Str
位
▁tense
▁fres
<0x9D>
▁reviews
erved
Prop
▁planet
▁drum
▁Ти
▁Canal
Inst
rij
staw
▁equilibrium
▁tam
▁riv
▁java
▁Debug
▁Abstract
ibraries
maybe
▁pairs
▁flood
▁Ghost
Gate
ocol
vt
otimes
▁jewelry
▁Save
qt
▁max
▁narrative
▁wound
▁managing
▁Titel
ning
▁š
ansk
Connection
▁Lond
home
aints
logging
age
ː
Please
fox
▁objective
▁waste
▁Direct
招
▁ent
▁traits
ling
▁viable
▁lux
▁Моск
olation
→
ʔ
▁Broad
呢
NdEx
}})
orte
▁noise
▁bureau
nf
▁cre
▁weather
▁beer
▁labour
каза
SEL
▁traditions
▁helpless
mina
gh
▁msg
BP
▁Opt
nl
ibe
CASE
ests
was
▁На
known
License
▁relativ
▁deaths
▁Gam
▁Мо
},{
▁discre
zte
inis
▁Black
▁aud
uable
updated
чка
rezent
marker
稍
idges
▁Houston
subseteq
▁Commons
▁api
▁outline
bm
▁additionally
imb
rott
Types
eli
rsp
ذ
▁Player
▁Commit
▁ang
BI
…]
▁prejud
-\
▁accident
▁cré
▁historic
:-
▁structural
▁widespread
Lim
Socket
▁proud
Select
▁sen
▁ll
려
Command
iger
erre
cor
asets
ories
run
vet
▁honest
▁départ
uter
UPDATE
▁masks
▁XII
▁CS
orted
▁callback
),\
ambda
▁Dakota
▁hand
▁Forest
▁anger
▁Year
▁fa
▁optim
Extension
▁LIMIT
▁Decl
▁François
▁wish
▁Rober
▁bridge
ibling
▁crowded
▁Technical
▁chaque
须
elm
▁photograph
()]
▁hop
概
▁batter
▁SC
▁inequality
▁Stadium
▁Marketing
ರ
▁loro
▁job
dru
▁Moz
achi
▁Nations
rio
unst
▁rubber
▁unconscious
ielt
ві
▁scene
astically
dentry
itan
▁warning
▁experts
chet
nit
GA
agh
등
▁jo
ieder
account
▁bott
▁intelligent
overline
▁Shar
Rob
environment
▁Merc
Bel
▁hands
▁Course
←
SE
▁Hum
▁coordinates
Tell
▁profits
rum
▁appreciate
atis
Route
贵
▁Mens
{'
▁gaze
▁к
<0x04>
ón
oding
estr
▁ft
▁Reserved
grad
Admin
▁obten
parameter
▁halfway
▁cx
▁Muse
▁Beautiful
▁preview
▁Report
▁Han
▁realize
▁restaur
▁meat
rgb
displaystyle
▁stro
임
▁kitchen
▁matter
▁deuxième
ская
▁Dis
NON
Memory
ಲ
async
ће
agn
▁Halloween
For
Root
▁está
▁field
▁()
它
Dep
▁bu
CR
▁sono
batch
▁STR
−
ти
▁Hav
▁anderem
ẓ
ನ
▁athlet
utter
Amount
▁menos
▁removal
WAIT
ára
▁license
▁chi
вої
▁shouldn
▁discovery
DAP
▁Earl
фика
▁Tech
资
▁sea
总
ilton
▁template
▁sinc
>\
▁Prim
umm
▁underground
Literal
WITH
▁Garc
▁тако
▁Ly
Pages
▁blast
Bool
printf
▁management
)},
Volume
▁producing
▁Batt
▁са
führ
▁distances
ста
▁society
▁mim
▁mol
▁Gener
▁spun
Or
uate
oric
▁C
▁entstand
▁enorm
gew
▁increasingly
Lines
▁EXPRESS
ノ
▁fare
enumerate
item
▁hoped
▁fellow
▁му
OR
▁portable
ume
▁Nederland
隆
encode
edu
▁propaganda
▁rendering
conne
кого
▁h
▁иг
ва
▁bord
exist
itä
picture
▁Gust
cref
▁ad
▁finding
▁Fair
▁tests
▁handler
gender
,\
GBT
Host
讯
▁Whether
ennis
▁decision
점
▁Ав
attribute
▁гла
hib
▁Sü
animation
▁Login
▁tand
vern
▁city
▁→
▁ment
▁mass
band
tract
black
ző
▁MERCHANTABILITY
footer
網
央
▁direct
ремен
ζ
▁tu
▁lined
ites
isting
focus
ANT
她
▁awesome
민
▁soft
▁haber
PR
acs

umps
urst
chaft
▁abroad
▁Wait
目
SSION
▁BM
EST
▁background
mo
team
▁re
ោ
▁build
Table
▁Shakespeare
patch
▁villages
专
색
рова
▁deliver
▁title
ylon
::$
▁weights
ด
▁compan
▁Se
tf
▁Around
▁chang
andon
终
▁Athlet
▁lavor
▁measurements
:
ping
▁Sv
▁Message
η
:\
▁echo
inde
time
พ
alph
皇
▁}),
anguage
chte
O
Pat
▁conducted
efficient
្
ITH
▁garage
▁simultaneously
月
▁DAG
}",
aman
▁scalar
采
▁ship
▁victims
oses
▁Indians
▁format
kan
Media
peror
▁Hung
DED
▁Negro
analysis
▁Jahren
ift
trace
▁був
偏
▁&#
▁Nev
кла
mons
▁Bil
дя
▁Balt
▁cultiv
▁Some
▁Tat
oko
neum
▁];
ador
址
▁recognize
▁facilities
▁Бер
▁Harrison
▁Rights
▁Germ
▁lazy
doors
▁Colombia
bund
▁Maryland
state
▁Profess
Decoder
qs
aws
portun
arts
two
Scene
oji
▁sort
LONG
▁genuine
▁Address
▁Tel
▁surviv
payment
Opcode
idea
▁blank
rf
odi
ILD
▁crow
nan
▁Glad
▁matters
▁функ
▁begann
igte
▁Committee
iker
▁circle
▁promise
skiego
ті
ë
iov
▁Alpha
▁Становништво
ospher
aining
▁players
<0xCB>
▁bow
ifier
school
Consumer
▁weeks
均
▁wasted
▁vý
▁undert
▁Mas
chell
▁IM
food
▁Sara
▁человек
лли
▁tijd
節
▁Were
AUTH
▁less
levant
▁symptoms
saved
мина
▁chap
▁eighteen
▁Campaign
哪
write
<0x41>
▁сло
▁Politics
▬
▁genu
Green
▁Begin
Є
▁Mand
ismo
▁Rock
kö
▁nat
bers
::{
imag
contains
value
`);
▁ме
▁bend
▁volume
▁Eg
)_
pn
itarian
▁automatic
aten
umbling
▁contest
ရ
ವ
▁shelves
camera
樂
Du
▁hits
▁Provinc
izada
мов
resentation
▁Visit
▁Bod
ended
វ
rub
REEN
>;
ainte
▁tegen
д
у
▁bed
protobuf
}},
WIDTH
<0x77>
flags
▁meditation
ioned
▁nothing
▁proposal
▁checked
nde
▁page
Ħ
▁supers
zo
Main
prov
▁lawyers
▁Arist
▁mismo
▁skilled
▁Saudi
彩
Properties
▁године
agles
▁à
uh
▁Marshal
牙
▁alloc
▁neither
▁Many
▁more
▁Thread
editor
▁utilize
▁vm
umn
en
ә
писи
▁calendar
▁managed
▁pills
▁COL
▁countries
😀
сса
<0x49>
▁forms
mysql
icus
▁Мар
("[
ussy
▁Ша
Missing
堆
▁electricity
▁TE
Html
▁stages
ße
ini
anzös
▁brig
onie
▁Disc
love
GS
nal
▁lower
▁Working
▁Emperor
gebiet
cp
ि
▁liqu
фи
ila
▁esper
▁tant
▁knew
łą
▁variance
ptions
olent
▁anten
▁sprintf
▁Gal
▁plants
<0xD2>
akers
▁edition
off
suit
anging
▁subscription
and
elseif
("-
arb
▁Change
DU
▁zu
sec
src
craft
▁substantial
▁Bapt
og
tools
😳
▁close
▁Academ
Coll
▁whether
Server
isce
▁Victoria
æ
▁Soon
▁Set
▁terrorist
wer
▁appointment
olence
▁сторо
б
▁sauce
▁L
istrict
Unmar
THREAD
题
▁pas
▁Gew
rived
Variable
▁switched
▁desires
▁ин
▁polite
A
▁frequency
clear
▁emotions
▁movie
ǧ
▁bases
▁као
ception
▁encore
▁située
▁JavaScript
▁Dol
న
owo
▁href
▁Dem
ont
bul
▁Elect
▁confess
▁Cit
▁effects
▁parti
ģ
atherine
▁town
каз
diction
⇒
Rendering
iev
▁Real
▁Mayor
▁begun
▁groom
auer
ices
▁wire
їв
▁май
▁sighed
▁rejo
же
▁asshole
lim
▁recher
▁espa
riere
▁characterized
othing
▁importance
斗
▁Others
事
😭
▁shelf
olving
ни
▁Bert
°
▁Admiral
Box
▁Vill
▁breat
ofs

<0xC8>
eed
頭
цен
k
Ñ
mar
択
▁Regular
▁associate
▁floating
▁styled
▁environmental
⣿
һ
▁student
▁prove
inations
▁ante
▁assumptions
▁cul
вый
▁incred
Release
▁rub
▁hem
ascript
▁experi
▁pretend
CONNE
▁Reference
▁")
LBL
Observ
▁supporting
спе
겠
PHY
▁EL
ctions
입
▁Program
▁done
ভ
gal
inating
▁Hash
elde
ῆ
▁Februar
▁dich
▁Incre
▁}{
건
cdot
せ
▁member
removed
CREATE
')->
ido
icals
За
▁enterprise
Π
autres
eze
▁push
наль
▁meal
▁enh
管
길
▁editorial
▁crop
.'
gest
Sequence
▁weed
▁Eth
pace
▁Apart
▁moder
▁founder
▁holds
inden
▁DVD
theme
\'
aff
▁Ob
▁Prest
▁Blues
▁Pres
LI
▁writes
▁Theme
규
海
▁Indeed
▁tact
oes
▁announcement
▁University
հ
рей
Prote
Band
▁PK
▁rend
▁embedded
▁draw
чина
▁ihren
vals
▁Kelly
ources
èle
▁trav
ство
show
building
▁cases
▁lur
▁convinced
matches
▁Coord
pathetic
▁sizeof
PL
▁</
bread
▁scen
▁основа
Locked
))
▁була
ட
▁equipment
▁collection
▁caut
FULL
▁Исто
▁scored
▁proceedings
进
▁damp
chs
ˈ
▁Пер
▁Mer
▁Bennett
▁California
▁Govern
öff
commerce
>%
▁Ci
▁Mist
riter
▁Governor
Europe
alone
getContext
▁prospect
ete
рев
woman
존
▁puis
▁Mobile
▁rose
<0xB4>
reek
ogo
enci
Marshal
希
▁Package
▁DIS
tool
phrase
дри
▁coach
itter
▁shipped
йо
way
ahan
encial
音
ourses
keit
할
sg
им
ikt
Ý
▁('
liminary
Mem
▁holidays
▁coverage
Col
ubernetes
iona
▁evident
▁pale
Jan
рома
扣
▁CONFIG
Complete
▁thousand
cia
iam
▁rag
namespace
"
лем
▁ranch
Children
▁Bark
▁desire
▁uns
▁stad
▁tou
унк
Claim
▁("
♡
▁demanding
까
,{\
ご
▁length
Who
▁Span
▁fp
们
▁perform
eras
erme
texture
Control
igo
▁leaves
複
ails
▁Option
▁Auss
тие
nées
▁Juli
▁meta
pgfpathlineto
англ
ả
ocation
.</
▁Nar
identity
toire
Styles
▁rectangle
commun
▁Build
uno
▁deg
▁Mus
real
amiliar
▁Engineering
▁related
лась
▁Commander
vere
ane
anos
정
obb
aza
▁Life
istes
Ste
▁bras
orial
aging
▁Hook
▁relatives
лекс
预
释
▁voor
▁También
▁dt
▁año
Single
imil
English
▁assignments
ett
▁Insert
▁long
▁database
غ
▁"*
imedia
▁Austria
weise
إ
▁noten
▁again
▁enters
ть
imate
▁express
▁Rich
closed
▁defining
idget
rium
▁international
oubtedly
sk
▁obtained
▁instant
pect
▁рай
▁suspicious
Exit
che
▁encontr
▁ev
▁wash
▁smart
令
LOAD
없
рі
getId
▁breakdown
в
rugu
▁Fil
▁sudd
▁tit
▁WARRAN
anth
ን
<0x32>
순
▁uncertain
lar
▁utilizing
▁отно
elson
▁neutr
itize
▁harsh
ortion
▁ver
▁ein
Algorithm
▁control
ino
king
▁Inga
份
ication
▁Dylan
▁classical
▁encuent
▁snow
น
Idx
▁Enjoy
▁trails
oria
drv
ley
LINE
▁Learning
▁synchronized
▁#[
ages
▁которые
ice
note
▁Changes
mult
▁soldier
OBJECT
ǫ
▁reduces
▁Puerto
▁ISBN
▁advertis
▁accomplished
emph
▁compress
▁surv
ish
▁shows
▁Military
▁achieving
▁?
ibil
▁repl
▁th
▁profiles
original
▁bid
хи
activ
▁days
▁Sea
État
reg
▁center
▁whites
▁solid
▁lay
▁Р
▁tim
▁работа
нов
▁router
mind
ployee
cf
Feature
▁amb
former
▁atr
ulously
钱
outing
oport
▁Blue
¤
вши
▁commission
▁Bos
▁consumption
▁има
<0x71>
▁strategic
labels
력
▁Sver
▁Paul
▁habit
filename
法
▁cnt
GL
▁Ve
▁septembre
▁Guy
hp
oned
▁odd
inch
▁HE
渲
▁monde
engine
zial
ур
$;
▁Table
▁cuenta
Β
umber
▁drain
Click
DEV
▁coff
Hand
SYNC
▁Spiel
![
<0xA4>
▁Ult
▁nord
eni
▁bob
<0xDB>
▁indic
MS
▁characters
ằ
▁letter
N
▁Beng
▁torture
▁placement
▁vict
▁Orange
▁UK
▁Не
obi
▁uuid
▁bodies
utenant
вое
載
parallel
cond
▁Hann
▁ар
ision
▁lovers
▁buttons
ventions
▁Aus
▁Gay
अ
▁molecular
ément
方
▁intimate
links
▁Assistant
▁Estados
▁blog
▁investment
<0x92>
aceut
WISE

▁exponent
umer
▁Па
▁who
▁byte
▁shopping
▁achieved
▁Ny
钮
Se
▁meter
▁algun
eti
▁estate
▁нов
▁Nor
▁just
▁languages
▁Vict
ativ
angers
▁entertainment
ници
▁хи
ʒ
▁vis
fill
▁Given
esis
▁\
千
▁Env
▁drm
▁actor
Æ
▁rôle
Len
▁hoof
▁ви
för
Droid
transaction
▁occasions
<0xFB>
▁crushed
▁rising
▁bour
gru
▁Go
▁Scotland
▁chrom
vc
days
ater
▁influence
message
▁cler
▁computers
char
owie
adi
iego
▁prohib
▁modo
▁Кар
▁sensors
指
irth
▁successfully
▁More
hund
ome
▁Leave
Hz
▁dub
aters
▁Sales
自
▁Don
▁economics
iciency
TREE
▁Now
▁people
рио
chsel
▁против
▁finish
▁Trad
▁Junior
▁worth
▁Fore
▁Louise
ached
Sk
{}
vy
RATE
▁KIND
()));
#{
ENC
ission
▁hardware
▁tenía
▁imper
objects
名
누
▁foreach
▁vale
▁Bere
▁assault
将
▁_{
iveau
▁hotel
ս
▁defend
nel
Ant
▁rou
<0x03>
ulate
查
運
읽
▁incorpor
▁Polit
aaaaaaaa
▁número
▁territor
of
Current
▁coinc
▁cameras
▁overall
bt
▁grave
ých
ERY
担
▁Smart
▁testing
ff
iw
▁Disney
▁courts
Adv
▁gegründ
SD
##
▁triggered
牛
platz
Good
ierung
▁seine
▁minutes
▁Gun
Camera
▁pause
MLE
:%.*]]
í
丽
Threading
▁colonial
社
▁secret
▁diet
ု
▁rolls
concurrent
▁Cir
▁Running
▁gan
暂
▁perfectly
▁wins
associ
▁ż
▁flesh
▁сти
velle
▁buyers
▁age
agg
▁formula
▁Hughes
Γ
▁din
▁mint
帐
▁La
Material
▁displays
股
sta
ล
水
▁ears
TON
▁vault
▁Ng
<0x9A>
ied
OB
▁Ре
▁libert
▁accessed
▁mater
右
▁buildings
▁unable
▁recruit
apor
▁wheel
▁Erik
Soft
▁марта
▁م
ur
▁payments
National
▁appetite
Comparison
ւ
Position
▁dann
▁fol
▁Cape
▁suspended
▁possession
ension
WriteLine
ў
fm
ús
▁ads
jsce
▁urged
▁ages
ή
備
amt
▁Geschichte
VEL
▁PD
▁according
▁certification
▁types
$("#
▁bud
▁per
second
▁whatever
ع
≡
▁commercial
api
▁convenience
Dark
您
▁value
▁FUN
)->
▁fal
LowerCase
▁official
хов
▁empower
첫
opath
rb
col
▁hang
BL
▁Glasgow
▁BBC
u
▁go
▁analy
Mus
▁refuse
어
▁hardly
epoch
▁heavily
SAMP
華
▁supposed
cius
ฆ
果
бри
ギ
👉
▁cleaning
mund
▁pian
▁yield
ŕ
▁active
▁translate
▁gets
▁arc
▁compon
ude
▁absence
ન
▁stunning
▁inaug
uk
▁dello
▁pens
ête
power
lag
▁content
▁streets
▁одна
▁detailed
line
▁islands
ι
・
itting
NG
▁increment
orie
useum
jav
▁Cand
▁regener
买
fast
<0x1A>
update
писа
blob
ardi
▁neighborhood
▁subm
uese
ITY
nych
▁providers
<0x68>
uga
Re
^-
▁Param
UST
ings
▁attr
卖
▁However

▁chunk
=\"
▁Jefferson
ե
▁foram
▁super
zed
▁experiencing
拍
Progress
▁NS
▁Software
药
▁witch
▁она
▁Different
ilers
っ
結
ample
▁presence
▁productive
manuel
▁bias
<0x9E>
ression
▁pent
Classes
▁allies
▁decide
Prototype
ર
▁Ha
ží
▁ble
mathbf
Hex
▁atm
▁illness
▁Christmas
Room
▁Swiss
RD
ющи
▁set
▁Costa
▁summary
currency
mu
▁accent
enda
▁oficial
response
keeper
▁глав
on
ought
▁relay
▁wives
▁»,
▁replied
▁Give
eres
icl
て
▁proof
WT
▁evolution
▁unlikely
FIL
▁overlook
▁%
того
パ
ec
嵌
▁Mach
▁Handle
utschen
▁imagin
▁magnificent
▁Nina
▁Buen
▁skb
▁execut
neys
▁guns
▁valor
IMIT
처
▁meetings
▁licenses
њ
ڈ
istributions
▁Ross
iform
▁desen
▁asympt
rho
ABLE
▁més
Calendar
ACK
▁Hindu
.**
indow
])
▁justice
tax
▁город
ECT
院
pez
ál
▁opp
▁copy
kin
▁wallet
▁controvers
Ann
vin
請
qpoint
▁director
▁я
α
%,
▁zw
iny
細
config
lung
ted
fty
▁mature
▁тем
storage
▁Billy
▁hely
▁Large
▁integration
omas
▁puzzle
▁selector
oro
▁week
<0x4F>
▁zm
▁Cert
quir
cart
▁AC
Off
▁drink
▁Easy
tit
isto
▁vous
▁cancelled
∈
の
▁monaster
metic
args
bow
vious
▁Bern
▁Saturday
чита
Par
▁Student
chap
▁briefly
▁quien
tech
AU
DMA
▁Hey
evalu
phone
▁person
▁Integr
yle
▁depression
andro
ther
▁erst
▁boundaries
▁convergence
▁Coal
▁К
▁Low
elfare
onder
▁buying
▁Elle
▁potatoes
▁str
▁Act
▁mx
▁USS
Ř
ṃ
ensors
▁drugs
▁values
▁logging
▁país
▁app
▁WAR
▁янва
utf
дно
ゼ
▁antib
▁Lim
튼
▁shiver
▁constitutional
▁área
▁update
!\
▁troops
▁wurden
▁Ку
unk
∗
oke
▁Arizona
▁discover
▁Down
good
substring
hid
▁born
▁Japan
▁pace
getType
Client
WA
igkeit
▁уча
▁Ор
щ
oubt
espec
▁appeared
Fin
»,
▁clock
riers
▁Ring
wen
<0x1C>
ASE
eness
ӏ
amos
*\
▁AM
ren
▁hogy
лия
aland
▁Vis
тур
)){
▁Draw
▁homeless
▁stamp
▁dalla
▁pic
via
wrapper
▁Ar
Resolve
vention
▁ways
ступ
util
(_
<0x45>
▁games
▁Product
Simple
EX
rz
Generate
NY
▁Above
throws
apsed
▁sex
▁Wind
▁attending
onden
Е
▁Raf
alie
ⵏ
ening
▁över
▁ERR
▁Kre
endo
za
▁estad
▁Griff
emetery
▁foam
▁ví

FILE
Original
▁pp
▁ray
Ма
WIN
▁commut
rian
atts
Tx
анг
▁driving
▁ME
olo
abc
rah
Could
which
]->
cluded
▁Obama
▁kiss
AAAA
▁naj
▁stack
▁Martin
見
▁erfolg
ste
▁frequent
▁Bull
<0xA7>
Compat
▁rod
People
fall
inned
iblical
ната
PREFIX
ἡ
▁tall
▁Hol
▁drift
▁px
▁apple
▁compens
▁algo
▁helped
▁participant
textrm
▁buff
▁Property
>".
Photo
▁Yu
ника
▁injury
▁destruction
графі
▁entonces
were
▁Like
▁attributes
ysis
▁Would
▁INT
amb
compress
▁Kab
▁неза
▁commence
胜
ка
▁details
urb
▁Produ
▁Kitchen
ulsion
xff
▁leader
▁Total
aqu
▁проти
▁divisions
▁Lor
Adjust
変
▁preserv
U
▁brother
Enc
▁globe
parsed
▁touches
▁assistance
▁pour
td
▁ули
perform
્
▁exempl
▁архи
embre
WE
▁_
♂
This
▁```
▁besides
▁sing
▁мо
▁dop
▁relationship
rias
状
▁шко
Do
anked
^^^^
LAY
▁exotic
fé
▁Pre
▁Mexico
▁EXPORT
▁probable
Nil
name
дин
▁region
▁convin
▁protective
стру
ISH
▁Wright
▁Id
▁About
▁Community
ified
ជ
рія
дель
庭
▁Race
▁Fen
']['
▁astr
▁struggles
<0xB7>
вест
單
▁determination
▁landed
alu
bid
ronic
alpha
cout
uc
olean
▁preventing
ន
▁abrupt
▁mús
Player
▁REG
integr
案
ɡ
▁Ox
ylan
▁Taking
▁wildlife
▁ACTION
▁cont
▁roz
▁seva
▁verd
ially
▁throughout
Typ
)&
▁Column
sr
se
шего
🤷
dashboard
▁rout
ío
务
▁coalition
▁cry
▁Y
▁nor
ས
近
▁slope
▁obligation
▁respect
assen
icates
▁reson
мати
▁Carlo
bon
▁Mont
niej
tk
olen
群
养
▁science
Cell
▁exists
▁driven
▁ti
▁Individ
▁Commun
▁assass
вич
гі
addClass
▁Did
▁Nothing
ished
▁toys
▁ensemble
RES
▁HR
▁Mal
ظ
▁MY
ют
▁cars
▁Position
▁phones
▁reveal
ivid
Servlet
▁Engine
▁[{
ט
▁Health
rees
▁rebell
▁rapport
entin
▁research
▁Curt
Not
▁Louis
▁compat
▁numpy
▁profitable
▁Num
▁intentions
Add
▁przez
eves
нения
👌
េ
▁inhib
▁но
▁low
Prefix
▁enables
<0x13>
⁠
Ľ
▁pel
▁Bened
供
진
mk
▁Beaut
▁far
▁expert
▁clearly
▁Von
▁hecho
▁Fant
wq
werp
Marker
endregion
З
▁exercise
殿
▁embed
aments
Double
ennial
雪
iros
▁Bog
▁Og
▁х
▁Esp
ologia
writer
▁eliminated
vec
agement
▁camp
approx
rpc
म
oise
스
čen
▁prison
▁fan
▁insane
項
▁là
▁Lab
alk
▁anticip
secondary
sl
incing
ernel
以
▁Ben
▁Process
▁suggested
▁tum
BC
<0xEB>
▁inher
▁accounting
empt
▁trade
▁capt
▁ле
▁resent
▁confusing
▁GM
iet
▁slept
▁countr
马
▁le
▁Energy
▁memories
▁hence
▁Э
▁Format
undef
▁tatto
usement
보
▁hans
used
AL
▁Mut
independ
조
클
▁vacc
jsp
▁altre
се
▁definitely
▁ridic
cli
пов
iece
dsi
EVENT
▁Annie
▁depos
mir
▁Kinder
▁affection
creen
Clone
境
▁reluct
▁existence
leans
▁agreements
▁Tips
▁fd
▁Admin
▁rice
▁nort
▁underlying
▁Who
▁significantly
▁Heat
idae
encing
▁defe
▁invisible
▁utterly
÷
▁refresh
erten
▁brace
bf
ho
▁racist
▁criticism
▁sweep
▁consulting
▁appar
HT
▁directed
furt
▁Str
armed
▁putting
RPC
▁gauge
plugins
<0xC4>
anter
▁Cap
iti
lista
eding
▁mě
inct
▁Details
primary
seed
虎
售
▁receives
박
▁Kentucky
▁tap
▁pure
geme
않
wiki
▁стра
▁bru
role
ского
éri
▁Hom
ilst
STRUCT
ã
▁classification
▁modal
scale
track
ans
▁medication
▁need
ède
emi
▁monument
ök
ষ
cie
ческой
amps
▁invested
Axis
▁Вели
colors
yer
▁sty
Failed
▁bedroom
▁vid
tera
▁куль
▁teams
Wh
▁реги
▁degli
Struct
Tools
▁först
▁besk
▁nightmare
products
FilePath
▁lobby
▁ace
ATION
▁gest
▁ки
▁satisfy
nels
-------------
uv
▁crying
тен
Sem
anners
▁groups
wide
MAGE
黒
ZE
******
▁Reddit
▁tonight
▁Subject
shops
迟
▁Leben
▁economy
▁conting
▁Harry
▁category
▁kan
áj
ʻ
agi
▁fl
▁disorder
故
ат
▁hockey
▁tro
scriber
▁acqu
▁созда
condition
Conn
rename
▁Ster
▁growing
Registry
▁jacket
анд
▁spons
they
還
▁Ok
Int
ẽ
▁buy
铺
▁sends
▁rear
desc
iago
▁Bev
▁sequence
▁Eliz
ieb
yard
▁Church
DECL
▁estab
▁exceed
▁competed
4
릭
▁sophistic
▁fingers
众
▁toast
VID
▁Expl
nah
ifact
▁performs
EXIT
▁Track
▁begg
oy
▁avoir
orb
expand
▁clicked
bbing
▁не
oooo
▁цент
why
▁concerns
ület
▁beloved
▁Refer
INSERT
▁photo
▁Sever
▁leverage
▁tourist
್
<0xF3>
▁Leg
▁County
isé
▁który
Cross
GEN
grav
uple
ˇ
sz
▁Mah
▁architecture
ustain
▁lev
▁beginnetje
oper
fw
▁коро
▁loaded
%)
Gap
oyle
▁spr
택
▁compatibility
▁Though
ー
報
说
▁conspir
Ü
验
MBOL
inz
▁digest
▁Branch
IMPORTED
默
px
▁когда
Autowired
med
▁costs
one
▁rein
Permission
吧
視
💎
ys
**:
emic
need
.).
>{@
间
攻
ldots
😅
▁ig
ring
準
▁used
/>
▁trip
氏
▁sust
Password
▁populations
▁Fried
▁secured
ollow
▁orth
pix
onal
▁Requ
weights
▁№
aced
▁
▁Whe
indent
bury
▁Lower
▁contrad
▁back
▁Bell
iel
TestCase
ното
逆
▁unsafe
▁stam
▄
Eq
ovember
ständ
▁Mün
JECT
▁rural
▁dom
pr
▁thread
▁sele
▁AV
sty
▁immigr
▁keen
Records
删
▁Q
istan
▁prepared
Donald
uber
akt
▁sensible
SSL
申
asket
()),
ву
▁subs
▁Edge
olan
▁platforms
▁Im
▁har
__(/*!
▁Maurice
▁activities
▁withdraw
orsch
Mix
USH
opt
olutions
▁genre
ivia
▁GP
Actor
rique
Sche
Alex
▁src
stre
▁insights
▁advoc
▁Roma
has
▁difer
▁analyze
assemb
commons
logo
▁response
▁peers
ू
▁Operation
Design
ror
▁stan
isms
amount
▁share
▁Conference
▁franch
*
▁importantly
▁mon
货
▁democracy
semb
▁Result
ilor
▁creative
▁container
▁guidelines
imary
▁province
▁baking
ན
岛
<0x62>
dk
addy
▁Sky
▁THAT
롤
Ž
Step
arding
icture
▁removing
▁margin
▁action
▁medicine
lor
posed
AN
▁Supp
án
bridge
хе
▁hero
▁шта
▁voters
▁Rot
moz
▁backed
Iss
▁eating
▁stir
▁Nova
▁amongst
:",
ји
ҳ
┌
▁vie
▁debris
▁outdoor
▁rebel
▁perf
▁Ministry
▁Maggie
pay
▁med
▁himself
▁Mom
tp
▁Role
訊
▁disp
fulness
▁introduce
erve
竹
▁VAL
▁George
▁sending
▁territo
志
▁picked
▁objects
▁recording
効
omot
お
▁bond
▁сель
▁irrelevant
▁Psy
▁pandemic
▁shifted
▁If
▁mining
▁gaining
Multiple
ubl
gar
▁Run
рои
▁Walk
▁Hein
▁Struct
們
▁document
iot
夜
auf
Produ
Controller
▁Franc
ating
▁Elizabeth
▁áll
runner
览
interpret
通
▁thinking
-,
▁biologie
many
▁generating
▁because
▁”
mouth
▁Zent
ші
ស
’
▁thé
mac
osexual
▁petit
啊
ITION
▁simpl
들
▁ric
step
▁encuentra
▁closet
▁magical
▁not
▁open
▁LIABLE
ḷ
▁Nether
FM
▁lub
import
▁szer
▁Pav
▁ry
详
chedul
->_
stride
=>
▁hunting
▁JSON
▁Phill
CLK
▁cancell
▁generation
.*
▁Sto
▁markets
▁kv
height
LOW
etz
onne
pul
▁Lanc
zet
perm
encoded
ậ
ными
▁tr
▁avoid
▁searching
по
谢
▁near
produ
"].
▁trunk
hui
uint
на
Type
hetic
▁seiner
▁EU
▁strlen
▁режи
infty
IES
Pos
へ
iore
▁Mond
enses
▁vod
ト
▁endpoint
▁quickly
兼
sbi
tek
▁sql
▁red
HOW
▁AND
▁React
\/
öffentlicht
▁/**
trfs
includes
ying
session
рии
▁discussing
▁anchor
dule
▁stops
icking
▁$(\
ġ
▁lim
▁sealed
▁Миха
误
▁ide
▁extra
▁Floren
ジ
▁dorm
analy
▁zur
Wallet
▁Turner
特
▁encouraging
▁habitat
▁schon
▁terms
▁rus
▁detail
▁drunk
▁duration
emit
ское
ious
ру
▁searched
▁Miss
▁burning
▁hurried
▁jed
▁resort
族
▁weap
滚
▁quel
猫
▁scratch
пы
▁blew
othe
▁Moh
frag
▁impossible
▁bewerken
print
▁hiring
旅
▁inte
▁Peter
▁batteries
▁tun
zens
▁neglect
τ
▁parked
termin
▁jew
س
тем
숫
ById
▁Drag
”,
▁catching
Example
▁Rec
pm
▁consumed
이
VIEW
▁facility
▁theorem
▁thing
▁purpose
▁coins
udge
▁condition
▁su
▁Sr
ilty
ktion
▁protein
ocolate
make
kre
arily
super
▁bek
▁expose
Radio
▁чемпиона
▁ethical
▁analytics
▁environ
▁today
usal
~$\
▁numero
▁flags
vf
Sprintf
▁`
▁yelled
ifiers
▁designers
变
▁QString
چ
ศ
▁elim
terra
aption
▁completing
▁Washington
▁ASSERT
iting
equals
ityEngine
*}
▁Neder
ml
▁эти
▁suppress
▁ta
bye
级
▁fluct
').
▁Bre
▁warn
Setting
▁^
▁discrimination
▁shed
parentNode
或
▁phone
uggest
▁Historical
🙌
▁maintained
▁island
ေ
orters
。
▁Season
Store
winning
▁Games
curs
▁expertise
ب
▁вре
nes
commit
▁AD
결
▁archive
接
па
▁developed
NT
▁Cons
▁Ende
ikes
▁Williams
▁arriving
▁kilom
▁suspend
Y
▁rows
▁jazz
▁серед
▁приня
▁detected
▁Drop
▁Constitution
meisterschaft
▁fast
少
ottom
▁Ron
▁primo
шение
Si
▁Gar
▁arise
▁apps
▁symmetric
тан
walt
Ins
▁./
வ
込
▁cit
/{
费
----------------
▁PCI
ek
Consum
▁dise
▁zo
▁университе
▁provin
▁hash
▁***
ĕ
▁gifts
▁heard
▁Ros
wo
▁punt
six
ament
Ir
▁buffer
▁correspon

ว
Item
Ch
unkt
面
lab
▁Initialized
▁Für
切
商
▁Sp
▁visiting
▁retrieve
▁timestamp
▁jury
▁Tai
ữ
ERR
▁nervous
▁cerca
▁хо
art
▁comun
Too
sts
Scan
▁hurry
▁Bang
▁compassion
亡
reib
▁fighting
▁robust
ighth
▁•
▁abstract
manager
▁separately
▁md
▁princip
кою
▁Devel
▁Thanks
9
▁Yeah
▁terrain
лё
---
ད
才
遠
▁обо
тура
▁família
град
iana
Σ
💪
elij
▁trauma
串
▁contributions
▁Graph
sigma
oose
▁\(
kv
Pred
▁Carr
대
Sources
ण
ant
OF
▁polit
C
bi
iration
▁ignore
acer
^+
▁COPY
▁FM
▁extr
▁té
洞
▁Gaussian
▁objectives
▁Ди
oking
lov
llvm
ijuana
bably
▁mur
▁Va
asury
▁présent
▁folk
▁scenario
▁вико
▁Just
▁whisper
▁explored
Form
dater
▁editor
▁strings
▁га
▁mattress
▁treating
ค
icted
▁damned
uel
防
飞
▁labeled
▁port
▁Phone
Men
ULE
▁Eva
pres
▁minimal
▁russ
▁consumer
▁Pour
ball
gang
▁name
▁lock
}}^
<0xF8>
Line
▁thr
[];
카
VL
érieur
noindent
þ
і
▁$,
▁pixels
folder
cons
▁Get
post
glas
게
▁urge
routes
▁Hard
▁Port
▁shell
rile
▁chairs
Â
▁aber
exper
▁MIT
▁och
類
制
▁ki
Wall
antly
▁diff
▁priv
▁cannot
xFF
ład
又
▁Top
▁Bron
scene
(:
eten
ünst
▁ubic
Sy
▁retire
▁Ali
▁était
▁accordingly
▁tex
▁temporarily
Your
▁eleg
▁Chen
▁){
▁ward
:*
▁encountered
ła
ra
Sym
▁anx
▁dur
▁Avoid
▁repeatedly
rit
CLASS
pw
▁Roll
oration
航
▁sandwich
▁noting
œuvre
▁Hamb
▁assigned
izing
INDEX
OFFSET
▁deven
}
▁controls
▁$|\
▁attach
▁score
▁Training
▁toda
тно
照
alous
ские
ensen
▁Arbe
Indices
▁ANY
paren
跨
Che
二
▁walls
▁Oktober
ு
Obj
，
▁escal
▁marine
ives
********
▁losing
▁Say
▁mail
▁dx
▁achievements
▁bajo
ěl
▁een
▁remembering
byte
sheet
À
LOC
▁partir
.",
lia
.),
▁Fisher
▁tokens
▁People
▁weapon
▁apartments
».
▁miem
▁Vers
stances
▁Fern
船
Custom
▁identification
Sub
▁bored
annte
impse
gt
oud
ú
▁Beyond
water
倍
距
uer
▁busy
葛
▁cap
▁findings
зя
uty
ំ
毫
▁reconstruction
▁elements
▁cl
▁Apparently
▁Sergeant
▁relaxation
eds
LIMIT
▁F
▁beh
▁viv
▁caracter
▁Krieg
▁fog
▁Saw
▁dominant
Credentials
ways
▁NULL
matrix
messages
▁purely
周
▁Einwohner
▁typeof
▁amounts
▁ArrayList
▁guy
ре
▁lack
▁aim
▁"""
VO
atz
▁Friend
▁mart
▁awards
▁Short
▁Hus
OwnProperty
▁ash
▁tan
็
▁e
▁Jul
public
idas
üng
▁för
▁SN
▁efforts
▁abund
phi
bahn
▁compliance
▁const
▁once
iliar
德
毁
▁compass
iour
()
▁Saint
Ty
▁erre
▁st
未
▁СССР
▁cave
Mir
▁interesting
▁forest
▁bathroom
▁revolution
apest
agr
▁contents
▁deleted
▁erh
▁De
ź
Service
getMessage
▁appl
Schedule
▁potential
Sep
▁approach
你
<0xD1>
▁info
圆
<0x00>
▁Norman
う
les
egr
▁dow
▁recurs
ἐ
部
▁posts
zas
▁woke
Validator
▁Хо
usions
doc
▁unknown
ance
▁COMP
tos
ĭ
▁Excell
plot
▁Се
▁poetry
▁se
▁generate
▁df
▁listening
<<<<
▁artwork
累
ants
▁fou
▁maxim
LOT
▁vég
etheless
▁expectation
ában
▁Brist
▁Tib
+=
だ
▁By
Subject
▁mixture
VOL
▁campo
ogene
[\
long
▁ctx
▁Asc
▁retriev
▁aligned
urm
▁де
▁cared
especially
кто
▁handsome
mathop
▁meaning
▁ö
)|
nant
▁unusual
▁voice
▁innovation
▁Stanford
aran
ång
zie
ons
▁HAL
▁provincial
cen
▁corrected
▁wur
рович
哥
▁ten
▁Customer
▁turno
露
ometer
around
▁że
▁camera
achten
▁called
event
elin
▁Opp
▁Rico
<0x5E>
▁Look
straint
raise
features
nos
oved
▁beim
▁XVII
partition
告
▁altern
OK
ify
▁fall
mathsf
Pref
▁péri
riages
▁Room
💖
▁glory
per
<0x85>
▁Cancer
▁также
ences
Runtime
课
▁online
ät
▁ost
∆
▁пло
▁Brown
ك
Column
osen
Opts
onde
olution
arms
▁deel
Elem
▁\]
erial
▁featuring
▁WARRANTIES
▁OB
▁hex
target
array
▁An
▁preced
並
▁inventory
}_{
알
aid
CCESS
▁Lind
rivial
▁correlation
docs
rai
ょ
dagger
▁Roger
▁Ref
▁ay
▁diagn
▁paintings
▁UV
▁tal
Series
▁mong
controller
▁mois
▁supportive
제
車
▁prem
▁district
▁Financial
psy
▁Statement
▁asset
▁Federal
▁nature
▁immediately
▁PER
fer
BUF
NORMAL
▁Town
cole
▁screen
▁насеље
▁гене
▁fix
▁Skip
▁nail
elijk
▁Ky
▁mult
<0x0B>
▁Palestinian
ін
▁zap
▁Cry
execut
▁somet

▁support
▁unit
ak
compar
▁Bever
du
▁>>>
ette
▁twee
▁Gesch
▁whe
▁complicated
▁Dum
م
ए
fig
DM
▁Saud
‐
▁operated
▁Dit
▁List
播
▁Cas
version
▁SK
ière
ARE
лази
▁vessels
▁Census
Import
Color
▁turb
elo
▁A
▁clubs
民
宗
▁Apply
Red
▁collapsed
▁predicted
▁reste
▁uk
hr
mor
inc
▁every
ovo
Did
▁Use
▁Super
▁argue
▁seas
▁Response
▁has
▁Pel
▁nelle
ALIGN
地
的
try
Cpp
▁Cyr
ères
▁theater

illon
EY
▁slowly
▁Intelligence
▁drawing
≥
▁Path
ición
▁з
)**
플
▁violation
Pending
▁termin
▁forward
▁sway
fed
Sorry
▁insurance
cal
▁Ax
▁Pé
▁Си
▁dign
...</
binary
▁Night
дова
▁typical
▁Cup
ponents
▁restaurant
ся
▁clinic
жа
▁propos
▁loose
nut
<0xFC>
throw
▁Al
繁
}_
▁dst
▁Looking
▁Women
жно
▁pseud
ктор
▁gentleman
buf
.~\
hest
▁grande
▁Kay
源
Constant
oph
gn
▁ling
▁Try
▁мар
▁observe
▁decay
径
▁Where
phas
▁Pack
▁uso
compatible
ryption
▁energ
connected
ARG
VT
▁WH
▁"")
abor
omorph
LY
▁sheep
▁forgive
<0xAD>
▁work
sur
抛
▁discovered
▁embr
▁equations
irty
glied
▁invention
hesis
▁á
▁scient
家
Expected
ソ
ün
▁happens
▁Character
▁Past
▁generic
ベ
<0x96>
▁Jorge
▁cheer
bit
番
▁mistake
▁delegate
▁expectations
▁reading
▁SS
Editor
▁smiled
▁salad
Sa
▁(&
incipal
ENSE
▁punk
)--(
ő
Find
</s>
uits
Bl
citet
▁egg
LAN
minecraft
FILTER
▁offer
▁posto
▁обла
enue
▁statement
▁mean
Reg
录
敗
▁static
ős
မ
▁sciences
amaz
▁election
▁Lock
▁could
▁declared
▁backward
▁Paulo
▁quer
▁dic
▁Я
horn
Node
cer
▁supplies
ész
ів
iversary
▁nerves
श
‚
▁whist
▁City
interface
▁incorrect
ools
<0xE9>
Stand
▁Delete
Resource
▁overcome
▁acquire
оне
▁Cycl
▁Glen
стра
թ
▁cogn
▁ambig
▁Marine
▁simulations
▁sophisticated
EXEC
▁construction
chestr
▁stra
Script
住
▁conven
helper
▁culture
mine
▁ER
▁large
▁comenz
▁printing
▁Chuck
klahoma
прав
gorithms
Boolean
ië
▁timeout
щен
▁accept
}).
▁monster
pag
▁под
▁altogether
▁Eu
comfort
ync
ність
▁fees
▁Cleveland
▁media
▁t
▁scientist
nings
кси
▁He
▁flights
▁photographer
▁aur
‒
▁continue
)^{\
▁Com
props
▁avant
▁AB
▁Know
▁Diego
cq
▁stuff
▁incre
Bits
posts
秘
▁Part
UD
▁stabil
▁independent
▁becomes
▁Welt
պ
measure
Aud
히
aria
▁servants
▁Mod
▁ny
▁Dist
▁efter
igma
宏
action
chnitt
▁vec
▁уби
👀
▁Body
▁tmp
▁Equ
Rev
▁console
▁SF
उ
vel
ම
etc
▁before
▁beast
atalogue
▁rug
省
▁One
box
▁Status
▁PARTICULAR
▁Project
▁inherit
tenance
íses
▁cir
Package
▁alternative
)</
OST
▁Eisen
fu
ipv
edges
TOM
▁Village
일
編
≠
▁secure
▁tough
maps
代
ielle
▁**"
▁len
reb
▁ann
▁URI
库
ika
Change
stats
▁ath
▁km
VAR
▁operates
aughters
워
stairs
▁#!
akten
semble
ча
▁пара
▁puts
adows
▁parking
▁err
slide
▁Contract
▁Sort
藏
YY
▁Shadow
aga
▁signature
▁adv
▁apost
EXPECT
hind
▁employment
▁rais
▁ar
Iter
owing
▁WR
▁Lauren
▁ultimately
▁let
<0x40>
▁hors
Nullable
▁Mong
所
ologically
▁DOM
}}$.
▁charts
source
▁rapp
▁area
▁service
Close
▁remarks
².
ifer
))))
▁ال
owego
▁Astr
Т
<0x23>
▁році
根
asing
▁grades
▁Tow
▁corresponds
▁ren
▁Arab
く
▁Nicole
▁tcp
▁*,
▁talented
asha
acl
▁Pier
heap
boy
angled
út
ŭ
MBER
theta
▁earn
immer
преде
▁publi
▁barely
shell
▁mö
▁stuck
pload
▁Memory
▁Aw
ach
atter
▁ImGui
▁bild
át
▁stark
▁awk
ћи
▁specialist
▁có
ator
De
▁neural
征
resse
▁rule
bbra
$),
▁Indiana
Curve
▁lean
▁predictions
时
▁raise
▁Fe
apped
▁Ten
▁syst
▁beta
Drawable

သ
Generic
▁havet
▁Vector
▁luxury
Hey
▁analyzed
label
ursor
▁Philip
▁necess
prevent
▁Sue
astr
Declaration
▁repet
cy
Object
▁HT
BUFFER
rá
▁Po
angen
▁Venez
SA
旧
▁gate
▁Med
▁technique

▁organizations
▁Optim
▁We
errno
APP
Ten
▁MIN
VIDEO
igator
▁clip
ч
▁pi
▁views
MON
▁sufficiently
▁broader
▁sh
▁DA
unte
▁documentation
▁boots
man
▁NOTICE
▁Frau
▁memor
▁kter
▁Ign
▁announced
SCAN
When
最
▁freedom
▁submission
ically
CAP
▁attractive
components
还
achment
▁Una
▁ideas
exp
▁heads
к
▁w
лен
인
塞
Exper
▁working
▁февраля
▁mount
确
={()
読
▁async
<0x9F>
▁Win
жу
▁MC
▁BY
RM
▁públic
▁через
ouw
yc
▁relative
▁Pas
▁'
books
ilation
▁arom
indices
Hint
▁append
▁dust
ouri
fields
iverse
▁Да
istribut
Weight
OL
▁feeding
idge
▁hire
▁ult
Warn
▁caution
▁firmly
oni
IZ
Region
▁attendance
▁di
▁larger
mate
▁Records
ometric
▁definit
入
▁DB
ES
big
endment
owa
▁Qt
▁×
project
走
▁crushing
ilio
▁Nel
<0x17>
▁Summer
▁pac
Annotation
▁tut
▁Ul
mbre
▁justified
▁statistical
▁junk
▁door
▁telling
▁Panel
Dictionary
▁particularly
BO
▁logo
vd
ctic
▁incredibly
feed
▁angry
▁fet
▁discipl
▁q
▁appel
▁geme
Impl
▁chamber
ше
ull
roc
▁look
▁Buffalo
▁спо
png
erra
ME
zs
.
▁Luis
issent
)--
Serv
ல
али
▁смер
ashington
▁дивизи
род
▁employer
Abs
versions
▁one
▁until
▁Gem
审
▁depend
öffent
▁анг
▁reports
}$-
orient
▁wat
▁PAR
▁Airport
▁should
🟡
(){
▁dw
▁moral
▁todas
<0x35>
),
ɹ
ր
resc
▁fourth
▁Kids
▁prince
ensitive
▁transmit
▁Pract
▁brain
ள
▁bas
▁minute
imation
▁guests
▁lease
▁excited
失
rolled
optim
▁serve
lined
ло
▁Iowa
solid
▁mort
gather
gre
▁Type
▁transm
ð
▁WordPress
▁registration
▁Chap
집
ų
▁cls
▁selecting
계
ент
▁singer
▁submar
▁correspondence
성
총
尾
Ang
ǒ
ualmente
▁Spencer
存
ług
₹
▁told
▁FL
▁pup
▁cheese
▁partition
Aggreg
▁earliest
▁meg
▁RF
银
했
Receiver
image
▁köz
INVALID
▁januari
▁dragon
Okay
▁fruits
▁któ
▁Fue
置
▁gru
▁Host
minus
▁NGC
▁teas
object
▁aren
▁null
▁payment
▁Hannah
▁Jac
illa
▁symbol
▁attempt
′
Loaded
▁Vision
ismiss
평
▁navy
▁XX
Executor
('./
cov
▁Primary
assign
▁fisher
▁equation
云
adelphia
▁tiles
▁Tal
во
▁бри
¥
▁personality
published
ALL
con
▁произ
cido
▁activity
extract
찾
▁Greece
Capt
bel
ós
▁alignment
▁armor
NO
ège
HER
<0x7E>
▁qualities
личи
▁Churchill
cticut
ския
Project
▁medications
▁bei
ningen
▁unset
判
▁Statistics
▁digit
▁homme
▁rare
acement
▁Mam
руд
Exists
▁Georges
解
CD
ὁ
▁дво
▁Ma
develop
ira
▁assign
액
▁Го
▁».
▁reporter
▁Jes
лей
itated
attered
GC
▁ho
áv
▁delayed
▁сент
▁Challenge
▁arrays
akespeare
▁travelling
▁sight
ihood
RAN
RESULT
zw
)(
伊
=[
▁Gian
▁dram
▁ignored
▁impact
▁gym
▁Украї
ip
ait
adores
avis
▁pse
▁E
▁пар
▁soccer
▁adopt
ラ
超
▁det
aque
tb
sWith
▁Flash
▁renov
▁CIA
冷
hus
▁cd
▁ав
▁acceler
jon
津
curr
pixel
argument
irical
тся
▁claimed
ribly
▁Bru
ll
picker
$(
cycle
DEX
icon
▁Woman
▁verse
▁compte
ត
▁three
callback
▁ven
▁Header
▁Prior
="${
<0x7C>
urance
uma
办
▁DI
▁Zero
<0x91>
▁Du
conn
▁dr
▁Another
uls
ften
collection
▁remains
▁expects
▁dl
▁tub
▁shaped
▁sous
전
▁miss
▁heated
▁But
ancing
dots
▁picking
ativity
▁Zel
EN
agma
▁naturally
▁enem
RG
▁Luft
▁affects
ная
xA
Results
▁este
BOOL
aphor
▁sense
▁remaining
LOB
▁NET
ost
▁displ
▁hav
▁та
СР
)'
ussen
small
TT
су
▁Kap
ap
▁deeply
▁leaf
PU
▁grabbed
VI
▁FA
▁heaven
bek
icion
▁regul
▁colleges
URE
pons
▁elevator
cases
▁Safe
▁codes
▁Capt
▁fait
▁phot
cess
▁Sport
關
▁above
Resolver
▁prisoner
▁Lam
▁nn
▁&\
ი
▁И
iking
▁Connect
將
aut
fy
▁roll
溪
н
▁участи
abile
Ratio
^{
see
▁grace
▁trib
▁thus
ът
▁ss
▁provider
ushing
aph
▁fiber
'.$
inate
PRO
▁dou
▁las
чо
赞
▁alley
▁Jess
▁Gand
▁post
▁ві
its
Flow
▁continu
proof
icans
rency
UG
ribed
Reader
CUR
Side
▁Pin
atively
▁Mag
̄
▁loc
▁RES
▁gle
<0x97>
aci
paces
▁participating
▁relating
▁knife
▁gap
▁prominent
▁userId
▁Collins
▁rot
▁ч
ounters
gif
imo
▁feas
ׁ
Hy
梦
▁Missouri
▁embrace
result
rior
ogram
Encoder
▁Sun
▁Invest
зь
burgh
mania
▁Heritage
▁Coupe
▁Australia
рів
▁Artist
gets
バ
▁Coll
<0xC2>
atalog
▁Ven
▁Hen
▁spinning
equation
▁ensure
ген
Tuple
})\
▁PA
workers
ondo
▁MI
▁histor
도
ru
▁Perry
▁"__
efined
▁breakfast
ellow
▁Mich
▁rib
▁gal
package
▁export
kie

▁▁▁▁▁▁
▁становника
▁Tyler
ツ
arness
oto
节
▁ved
▁cum
▁Minnesota
▁UN
ighbor
▁suspension
▁input
▁Linda
disp
▁Count
selected
▁shadows
ſ
ips
▁Allen
▁agre
краї
▁составля
▁ecosystem
▁flat
construction
▁seemingly
ka
▁therefore
▁Biography
emon
▁Bond
geb
Dialog
ASH
>(
▁Roy
large
regex
direct
]));
ruct
▁focusing
▁possibly
issen
indi
▁pole
Op
▁invariant
款
izo
ського
▁сво
▁restore
gom
▁experience
▁decrease
▁smoking
ateurs
itutes
important
▁racing
\,
▁optimal
[]{
▁onto
osis
▁consisted
▁rehe
////////////////
rooms
anned
achusetts
▁rape
▁pride
▁speakers
▁inclined
▁improvement
@@
수
ctors
tha
ienst
▁mal
▁symmet
setValue
▁MODULE
Reason
▁lots
▁тер
WARE
▁Й
▁graphic
▁ESP
c
▁sign
▁appears
▁steep
vey
otte
antage
笔
move
▁viewed
▁isolated
kg
灣
Pointer
▁пос
dot
bar
▁bot
Clip
рал
istic
Fields
EA
teen
³
<0x3E>
<0xFA>
\
▁Russians
애
▁tracks
ɒ
Old
▁bekannt
▁serving
▁giugno
ту
Query
ined
eno
human
壁
============
▁Zag
idth
mp
agen
▁Schl
▁Tu
always
▁entering
▁Poz
icism
continue
nam
sburg
ο
YPE
▁consequences
нами
▁Stockholm
▁nas
iaz
▁Hi
▁Grade
▁however
▁implement
érc
PROC
About
▁han
▁browser
ษ
▁Motor
▁Ram
▁посе
Saint
▁traveling
鱼
▁Reviews
matic
JO
ynamics
▁shining
▁silk
ṅ
▁Her
尊
hi
<0x08>
▁ot
▁tc
▁memo
br
▁Jason
▁Wasser
etime
▁accur
ក
Rad
agner
ält
hou
сов
RF
ƒ
▁LE
тии
onces
actions
▁июля
▁цер
CODE
rotation
kb
▁front
▁HD
enty
ospital
▁apro
Reply
▁authentication
_)
▁mapping
▁ze
Actions
▁appearing
oval
ště
郎
once
▁Станов
▁peace
刻
▁burden
▁Claire
rench
▁Updated
orer
ល
▁join
icol
▁Guide
orable
▁SW
▁fairly
RST
kamp
▁totally
'))
aciones
CV
<0x51>
intent
😡
爾
▁Root
▁sucks
▁Pick
▁famil
pkg
▁Bar
Created
선
血
ii
败
▼
est
Tooltip
▁wondering
q
pass
▁сві
▁commitment
▁vi
Bas
▁kids
vee
ィ
▁spec
▁[];
Rot
▁Historia
ں
▁hope
Initial
▁stellar
▁visitor
▁області
BE
beck
▁équ
邀
aven
▁anti
▁underneath
객
<0x73>
▁gold
▁lion
▁Probably
▁beans
▁R
▁Masters
<0x11>
Generator
▁april
eth
幅
▁marvel
orter
具
▁vamp
▁Bab
woh
▁type
--;
▁tob
普
▁Light
="<?
▁Consider
▁scholarship
က
▁stronger
▁disag
▁divor
▁white
ocity
▁Emb
▁PRO
boat
▁failures
▁former
數
▁freak
▁geld
▁raison
▁mod
友
▁Protest
▁authors
inates
▁Укра
▁sore
▁LI
▁vari
▁Prem
bra
pisode
Elements
ян
EL
▁alien
▁myst
▁polynomial
vscale
мой
ский
inding
▁division
▁Stories
worker
Application
▁date
лось
▁flag
▁goodness
ブ
SPE
▁ever
URN
▁Price
IGHT
▁conscience
▁stomach
ian
Pol
ploy
elly
Plan
▁wisdom
/"
▁Gate
щё
▁communications
▁час
▁Nic
WINDO
Management
bros
▁Mill
resources
Hard
▁canonical
▁Generation
acci
↩
ifies
▁dough
Regex
▁accessories
▁assumes
▁soup
ً
ський
▁Answer
itness
▁ladder
▁kap
tokens
▁formally
lle
Sup
)}(
▁ép
anst
But
bss
MD
тро
PCI
げ
AX
▁Buch
data
▁independ
▁annual
▁Row
▁poured
▁Bast
분
▁Education
alse
Shader
朝
▁likewise
既
opsis
checked
▁saves
▁then
:%.*
ṛ
мени
▁nederbörd
夢
▁Rate
振
///
medium
▁§
cs
▁fight
error
▁innov
Constraint
▁його
▁Archives
▁фев
▁Х
▁lattice
▁truly
dro
▁bom
STREAM
mathrm
▁moving
)}\
ש
scious
▁-->
jango
▁riding
班
▁persona
▁bent
▁thousands
л
▁Фран
▁satisfaction
▁Mo
▁Last
▁arrived
клю
▁pok
▁wounded
store
▁nation
зу
▁decorated
ć
第
Τ

▁fame
▁Detroit
σ
igation
London
▁capability
▁smelled
த
循
▁assh
▁reads
集
Include
野
ilt
Config
shaller
ativo
rote
ư
havior
MetaData
attering
def
▁controversial
ensch
FI
▁utf

amous
Selection
▁achieve
▁property
▁mentioned
▁observation
die
rv
ruppe
RB
否
▁gek
▁individual
▁sig
zeichnet
▁photography
****
▁even
oslav
чин
▁see
親
▁stare
▁+
Binary
拥
apps
▁pressure
▁Grow
▁demon
Multi
▁dém
":
▁CB
P
▁partners
ogn
향
▁shoulders
ψ
tw
▁satisfies
toString
▁Code
▁September
▁Europa
ót
▁affirm
Ent
opic
▁Mem
▁enjoy
忘
😍
▁trump
▁Space
🔥
aturday
()
▁listade
▁cast
▁bullshit
̇
▁NE
FEATURE
▁$\
▁alumin
Dev
avity
▁hearing
▁Є
Supp
▁ге
▁surge
olate
▁config
▁refers
▁negl
▁Clay
▁dumb
▁medi
quel
강
▁explore
▁Edd
▁sche
▁#!/
▁travel
▁conversation
anna
ając
<0x4B>
vis
▁practicing
▁tackle
olutely
▁narr
hide
▁Init
iere
▁CD
▁Thailand
Void
▁buyer
useppe
里
材
AND
rock
ition
Property
됩
▁standards
▁Moses
mouse
liferay
wicklung
chron
obby
▁DO
▁curl
ций
▁AF
▁what
▁Christ
orous
差
▁seems
佐
itution
▁candid
▁judge
%%%%
.]
oon
ati
az
profile
▁Later
▁comune
刷
cas
Destroy
▁invest
▁clarity
头
▁the
zel
▁Ask
▁Dre
▁prec
click
row
uck
]
▁patterns
▁cher
God
<0xB8>
falls
str
▁Ald
▁cc
anchor
▁duck
!=
舞
trans
▁corridor
▁послед
▁corrupt
olf
▁"@
▁newspapers
▁Napoleon
▁considers
ví
▁normally
TES
▁metrics
navigation
▁dimension
${
Vertical
ні
▁memcpy
▁pronounced
监
駅
▁executed
▁April
▁cold
▁labor
Music
🇺
inceton
igu
▁epoch
連
▁dtype
Ἀ
iced
▁LO
▁Bent
း
)));
ʐ
▁Plan
▁TH
ZERO
ict
▁four
BS
▁flower
▁quadr
ヤ
connect
▁Miami
::
quality
▁Roosevelt
▁extract
graduate
♣
▁};
▁mess
遗
got
▁hosp
▁lecture
based
▁lookup
🤦
Ë
jar
▁story
▁College
其
GPU
ving
▁Clin
varepsilon
ం
、
添
▁energet
洛
▁Map
▁Copyright
▁approaching
▁caso
ainted
▁whom
FIX
▁east
ienen
refix
nica
far
▁Util
▁годах
gr
▁Pic
▁notation
ader
Bottom
Hub
ula
▁approximation
endif
▁infect
▁CSS
楼
▁spectrum
sor
▁скла
▁perfect
▁surprisingly
bere
▁Deutschland
▁renown
▁horses
irement
▁Record
grund
▁sustained
保
EventHandler
▁important
ходи
▁summer
▁від
▁commit
▁sau
▁SND
cookie
段
ply
rx
注
旗
▁<
▁Frederick
▁traded
ჩ
unted
acies
▁engl
▁~~
▁foolish
USER
minister
奈
▁Dans
▁doctrine
▁stress
▁primitive
▁silently
cembre
▁editing
apol
호
↓
▁Pos
back
▁prot
一个
▁Murray
L
松
▁padre
arm
▁Bed
balance
riage
▁thumb
批
교
▁aux
icas
▁provoc
▁sal
settings
ючи
▁season
▁duty
ABILITY
ографи
LEN
▁blow
member
▁Theory
oct
▁ave
olding
▁Bei
▁Auch
▁surf
bot
(*
thy
▁fier
▁июня
▁Living
▁Stefan
▁Kirche
▁cout
▁тран
▁invitation
culate
{{
▁Files
EP
accur
▁INC
乡
ಿ
▁Log
Med
lc
▁pat
>")
ano
ellt
▁Met
May
<0xB6>
ije
▁brit
Selected
▁Exchange
▁Flag
ocr
▁Colonel
▁Shir
▁Sor
▁psychiat
▁spotted
▁buddy
ಸ
▁benef
spir
▁blown
▁ut
▁nodes
▁år
▁Wik
▁Made
▁NL
icz
▁enhancement
Symbol
식
▁principle
xic
scrib
キ
▁Orleans
映
fare
报
itches
arios
ateful
▁whispered
▁ratings
pur
private
▁Gent
▁Command
Currency
▁education
▁Appendix
▁â
следова
gray
▁diversity
▁fract
buffer
).
▁hug
▁sip
┆
▁sect
▁asym
reated
ร
▁representative
▁sua
▁Volume
▁assuming
bird
▁studio
VR
▁performance
aro
ensis
izi
▁Kim
isArray
▁Kan
ighed
Speed
ification
ර
"><?
▁seek
▁February
lie
▁federal
ッ
母
▁“
"`
DN
▁dall
▁Media
£
▁researchers
ließlich
ars
ew
▁children
▁Thom
ylv
▁vertex
insic
VM
▁brows
▁notify
▁Sof
▁реки
ᴀ
▁Luke
ps
▁tables
aky
▁###
▁yields
га
>::
ого
ná
Hash
rieb
гра
elect
[
▁engine
anz
▁weapons
adel
▁tp
PF
▁Liber
dl
вана
Distance
▁solo
ficie
▁Further
가
▁Brow
堂
fica
▁activ
<0xA2>
▁reference
▁xml
".
cou
ʹ
▁owe
▁previously
▁Bruce
泰
wall
▁activation
CMD
▁demo
▁drops
▁Mississippi
illas
cola
RESS
ђе
±
▁confirmed
POWER
▁Mit
Func
▁Grid
▁whole
▁Mama
∙
▁pill
▁mixed
▁Aub
占
_**
haps
thern
▁daily
sylvania
▁warned
▁timing
SY
▁events
▁someone
▁navigation
aves
ruption
▁promote
▁Acc
▁explode
▁make
cell
▁??
▁nep
▁Pass
Fn
FOR
selling
jor
ск
ailable
▁tip
▁"'
Phase
▁Denmark
agan
xxx
Stats
▁governing
)}_{
▁conn
▁ongoing
▁Conserv
idades
states
의
 
Width
▁overse
▁бі
レ
▁completed
▁domin
▁trainer
▁European
irit
▁Federation
▁crops
▁widget
와
▁advice
▁spirit
▁années
ag
▁first
ម
য
▁enc
▁Remember
▁Info
metadata
▁metric
▁cons
▁Cell
▁percentage
▁dig
▁Otherwise
alled
iterr
lean
▁Iz
▁dug
friendly
▁pistol
▁graz
UC
▁isinstance
▁Wi
▁computer
▁Alan
▁Fast
ugar
រ
▁EC
Private
亮
oped
▁nast
▁Agent
▁historia
▁crimes
DAT
Trans
ení
airo
▁driv
▁straightforward
▁%,
frica
▁?>
▁drinks
▁auto
chars
▁transform
рю
стви
<0x87>
]:
antes
ário
Dam
▁anc
▁classe
wn
▁enjoyed
▁Application
NUMBER
<0x26>
▁environment
▁easily
шка
keep
▁Este
ript
rä
物
▁Altern
Device
internal
▁employee
▁eg
▁spy
템
slot
▁Oper
MMMM
require
财
▁Insp
▁compris
▁Abd
▁expected
▁quite
▁hä
dat
▁bezeichnet
▁Pil
▁disagree
foot
socket
▁Lip
urers
us
▁MAX
么
▁hus
|\
ingham
nullable
ual
▁WITH
▁manip
▁ON
巴
okes
▁derni
hw
ื
▁maintain
extend
▁mouth
LAST
▁kont
▁É
ayer
▁Of
phones
▁highly
颜
IVER
rist
▁occup
争
▁Stud
lease
▁defined
мери
ة
▁transition
xE
▁dynamic
往
vard
▁buck
<0xE2>
▁ri
Und
head
▁spont
А
abl
▁Kunst
▁spectacular
чний
am
чна
orn
obre
▁Squad
icating
▁confirmation
⬜
▁sost
States
emporary
▁unfortunately
▁Пе
pan
roups
▁occas
istro
▁compute
▁Napole
▁Pod
▁javax
▁Gib
Commit
ም
edit
avorite
▁New
▁Chicago
▁Kir
▁probe
dd
<0x25>
़
tex
formance
Built
▁а
ル
▁Buff
ialog
ministr
ande
STOP
━
egu
▁devices
▁mou
▁LGBT
▁B
▁Mason
.}
nell
▁GL
▁strangers
▁raises
▁homem
☽
企
idy
▁Ist
hos
ু
ever
▁EXPECT
▁desde
jo
▁Geme
▁leak
тре
▁Bren
gence
('<
▁organize
▁consideration
achuset
▁SET
▁wiped
▁reached
▁Trail
▁wo
▁pred
▁чем
업
▁CONDITIONS
Mail
▁beds
▁Delhi
▁свои
isch
Ю
매
▁infrastructure
▁{},
▁channel
prototype
UB
Note
Used
▁manera
successful
▁transport
▁Catal
▁Magic
读
▁acc
▁sor
š
▁designed
▁KEY
integer
▁properly
▁Navy
▁Perm
oment
igen
ption
"])
▁welfare
Api
▁Bag
(),
akh
ottage
ums
шин
Water
cols
▁punishment
▁extern
▁scrap
▁mes
plaatst
▁iPhone
▁quelques
認
▁es
▁deux
▁Tit
▁година
▁sticking
emor
局
ioc
▁looks
▁vy
pent
击
Qt
jas
▁cu
▁propri
▁must
rup
igi
▁Bir
ledge
주
ebook
▁argued
ность
▁Off
etics
▁Nieder
▁pick
fish
й
▁mas
▁deb
▁ones
▁Furthermore
allas
▁judgment
▁▁▁▁▁▁▁▁▁▁▁
▁Pete
▁vide
stadt
connection
properties
point
▁view
WD
Back
ERCHANTABILITY
▁multiple
ivot
====
▁moderate
journal
ེ
ŋ
compass
SU
▁bundle
▁Hudson
▁folder
Po
▁ly
anten
東
发
▁Dies
▁Rebecca
▁theoret
▁manual
▁Euro
FLO
ilis
▁cor
Mode
лся
*>(
▁muy
▁weitere
師
▁Camb
▁happiness
мат
▁acknowled
ox
▁result
кото
ourse
▁que
ческого
▁my
poses
ancellationToken
init
:</
▁было
iser
▁json
▁perd
▁об
tons
nership
Ben
▁classes
▁авгу
▁peint
дом
ots
đ
Ç
ì
▁instruments
▁tilt
▁Anyone
▁Logan
º
『
▁Production
usalem
lock
▁aggress
chter
▁betray
ɯ
anco
ictions
thlet
After
▁vaccine
ств
▁communes
▁—
section
▁brown
widetilde
▁Modern
▁Ident
▁Reserve
▁paid
▁veget
点
ignment
▁url
course
▁involve
▁Jahre
▁rolling
FER
▁stesso
▁gradually
scheme
▁unity
/#
▁tourists
▁Mail
▁corresponding
▁penetr
▁merchant
ком
石
<0x3F>
▁easy
▁bench
Lin
▁impro
tery
Reb
▁retirement
transition
▁cyl
▁peculiar
隐
破
▁light
」
▁decades
una
▁SR
▁specified
<0x88>
▁två
isValid
ijn
Ə
▁saw
Owner
▁persistent
xb
▁sur
GT
▁São
▁enjo
▁Une
▁боль
emet
glich
ن
ца
▁Autom
▁Franklin
Br
side
▁conve
▁Dig
FORE
و
Arr
▁condem
®
▁calories
ґ
rap
▁quant
friend
<0x20>
éc
園
▁stable
Dig
▁scroll
uten
snap
▁tooth
▁heute
▁Chrome
imes
▁be
▁Post
bru
oler
cript
▁Ret
▁deny
▁BIT
pires
▁crime
▁edges
gery
пар
!”
Bul
ತ
▁Ми
▁calculated
oday
▁stom
new
▁prize
alias
▁remember
▁slim
幕
ural
ency
▁Int
annels
aches
sym
▁stepping
看
sm
▁Secret
▁rt
▁husband
aching
sha
▁premier
▁shifts
▁students
▁leur
▁initialized
oden
✌
▁menu
voice
icht
äm
AI
▁diagnosis
▁candle
▁WM
ờ
▁arrangements
aking
▁Rick
💕
▁masses
neurs
▁enjoying
▁austral
appa
▁Whit
ח
에
▁фе
▁transaction
▁chunks
although
▁financing
▁rat
▁gleich
▁statements
Oh
▁Silver
EMP
▁jeans
agues
▁ID
createElement
sep
▁version
чні
creat
jd
Strip
decl
▁sil
Cast
๏
▁-=
▁č
▁fulfill
phere
TIM
▁and
▁design
Disk
▁истори
▁Events
▁remained
▁halt
OP
PI
▁success
▁identify
ἄ
▁motivation
▁poz
▁Restaur
▁Award
▁raising
▁йо
wal
▁deemed
▁CR
instance
▁relate
▁GF
배
유
羅
uniform
**)
Push
cr
Contents
▁cov
▁Argument
ное
究
reat
Angle
▁held
▁dealer
▁pir
цер
▁Liste
▁чтобы
▁sometimes
visor
glob
enes
▁lieu
▁fon
▁ott
dig
Mat
▁ale
远
sd
▁spel
奥
▁<?
▁Bl
▁zwischen
▁орга
eb
▁peoples
▁intu
▁Appe
▁занима
it
atype
aud
Controls
St
illed
photo
▁Doug
Writ
▁frü
igua
мон
叫
余
кор
▁crowd
tee
omy
▁opinions
▁tropical
▁Industry
ipa
Collection
▁Json
▁struggled
ively
▁Eric
ské
군
DA
ker
getText
▁sedan
DEF
▁poi
▁Roberts
▁deadly
omm
arget
▁hell
ić
▁Features
ἔ
▁tot
lemma
▁sorted
▁wy
▁Irish
cap
▁majority
😩
▁disg
▁August
exists
▁contribute
▁Currently
народ
▁къ
▁Moon
▁Adams
▁belonging
▁DEBUG
NM
▁cms
Filename
▁verb
▁')
▁feels
itary
▁deposit
▁Tru
▁possessed
▁contract
NAME
language
▁recipe
▁z
▁consequence
▁dévelop
▁tö
вали
веде
▁penal
從
▁**
▁frag
▁proxy
▁esta
America
▁disturb
▁Oklahoma
▁fo
▁Why
▁lie
ajo
▁trials
▁rest
▁Editor
▁vo
▁rom
SIG
ées
ocal
▁Len
shine
异
arth
▁despite
▁diabetes
bolds
Ap
た
▁au
비
激
date
WID
tern
▁lui
▁Gi
scription
Need
▁Unless
oid
▁nic
ět
missing
▁bus
▁cam
▁сов
▁были
▁Generate
Š
電
▁foods
igten
▁darkness
迭
▁demol
▁Perhaps
▁Transfer
тели
eward
▁scaling
▁commissioned
▁spaces
plicity
oki
ve
﻿
uced
http
▁Falls
▁Activity
▁combining
terday
▁Bo
▁minim
▁Jap
け
Into
▁bush
͜
▁voted
▁dopo
▁Chron
▁effect
次
sender
Row
▁signing
ря
="#
als
▁Barr
▁awake
▁addresses
▁round
https
:`
▁Premier
▁Movie
ა
▁relev
考
▁seller
>>
▁cake
達
ieck
arks
▁Gru
delegate
idi
▁в
){\
▁Alaska
▁transit
ike
ropri
▁behavi
▁asleep
owej
imir
▁table
▁forty
wood
ast
>?
▁exem
cription
▁Bloom
agine
обра
erne
Home
zym
▁Adm
imore
▁Pay
▁Which
oup
▁demand
▁accommod
▁recogn
iens
▁Ol
▁Figure
ึ
cept
▁develop
жи
ego
clos
>()
view
boolean
Quest
▁ahead
▁allocated
abases
能
β
HasColumnType
▁eerste
▁remind
▁dear
="/
validate
hpp
▁ES
▁champion
▁beach
▁developing
▁février
strip
梅
|---
ół
isure
tes
ピ
▁ordin
▁Giovanni
健
ি
ngth
▁collected
▁fraction
ющий
▁Aaron
нії
▁evening
▁tutti
▁ko
encer
▁Route
▁Kath
ała
▁skip
▁Illegal
(|
reload
▁roi
zer
awk
upper
▁bean
▁sett
ires
▁films
ionale
);
▁држа
戰
UUID
Dr
於
dropdown
▁],
▁While
▁Chapter
ogy
层
║
icide
an
▁forum
eca
▁patch
Date
etch
▁_.
▁typed
▁wealthy
Exec
▁ос
)^
▁alive
HY
▁((
▁logger
ami
GU
èse
INT
iction
▁lately
ɛ
▁Ober
\"
▁dict
abled
Λ
▁belongs
▁substant
▁já
▁power
▁ego
rcu
断
▁Touch
助
▁outputs
▁operating
▁який
▁Pitt
▪
▁mu
moment
▁wake
сле
ric
▁flames
▁Simply
复
▁he
▁tired
▁colleg
▁dirig
▁Yan
NL
esch
▁Text
ign
▁threats
ViewById
▁importante
serde
點
▁Det
region
packed
OO
▁sell
Factory
NV
▁stata
kor
▁traff
▁Во
▁lake
springframework
▁gouvernement
▁біль
seen
▁Call
Nav
тель
▁Jerusalem
/%
rant
umed
▁Factory
▁solving
▁gesture
▁Ms
ent
пла
▁artists
▁actors
▁provisions
classes
format
ität
▁stud
▁officer
▁independently
▁Mike
▁approaches
▁Ин
▁couch
▁bat
▁aj
▁delivered
▁Tall
資
▁triangle
▁Tensor
▁коло
▁stone
unched
他
TRAN
်
▁Lan
Ą
▁absorb
ächst
▁Ма
aper
▁crown
▁julio
riven
T
這
▁pin
▁practice
括
闻
▁phys
▁ranges
▁traged
AK
мом
--------
fang
)$-
INSTANCE
virt
▁campaigns
▁digging
▁effectively
▁Brigade
陵
▁marker
▁Horn
tabs
▁partially
esc
conditions
okal
▁decade
arith
等
增
<0x3A>
iene
▁'</
▁они
▁qu
owned
▁podcast
▁із
▁районе
uss
book
Web
nod
Msg
を
⭐
▁sorts
▁determin
▁elf
ದ
▁лу
▁drama
▁seventh
Џ
越
push
▁Protection
Cir
▁approx
忠
▁waved
ahr
ters
VAL
alla
▁diffusion
ACT
▁dying
óz
location
uelle
Organ
▁brand
子
xe
uti
▁accomplish
լ
▁!(
▁име
zione
▁Published
ello
▁ett
▁django
<0x10>
▁imprison
▁min
Http
usammen
림
▁Britain
▁moment
▁сентября
chied
▁television
nov
Black
ز
eree
atives
ams
share
entric
▁merge
HO
▁deeper
нова
)*
лів
▁Ind
▁guerre
▁around
▁critical
▁як
▁Friday
][<
▁Builder
▁arrangement
lu
▁Metro
▁Wh
intern
▁publication
盖
INCLUDING
tml
ressed
<0x78>
▁settlement
▁clever
▁Arbitro
무
<0x5F>
▁mach
zem
Entities
]])
reement
soc
▁efect
ř
▁{})
▁happening
▁cf
▁Jer
module
ypes
▁mission
▁sam
sent
aram
lete
▁order
quer
ры
foo
▁государ
▁Cov
▁wyn
ders
jem
Ctrl
lr
ال
球
▁Douglas
์
Std
▁kl
regation
company
む
▁cope
CG
bio
bler
▁evangel
▁Average
▁source
Ò
do
↗
‰
four
ო
jk
▁packing
▁baby
dt
ръ
<0x4E>
▁Festival
oples
PRESS
针
統
▁UnityEngine
ico
▁chairman
▁navig
ause
▁ду
вав
▁sacred
▁Screen
▁actual
▁toes
夏
▁event
▁Let
▁containing
▁interview
rer
▁Ke
▁Lemma
▁чи
▁otherwise
▁lightning
▁Check
`
;"
迎
вання
▁Theatre
▁beaten
▁rock
<0xEC>
erie
▁didn
▁Mountains
Comb
▁ensuring
▁keys
ASS
ush
ák
▁otra
食
▁cho
刪
▁product
▁description
ber
▁Phot
['
▁k
ot
kt
////
▁Jane
▁refres
<0x50>
▁Google
ptic
▁whenever
bild
▁Бу
▁attacked
▁Examples
contract
textit
▁nuc
TIMEOUT
▁conversion
constant
▁Sal
▁сред
Parameters
CONTROL
iores
fen
．
▁traces
==
▁outfit
▁finds
Qual
▁lon
▁durant
)",
▁honour
▁satisf
▁porch
▁Seg
▁також
Foreign
anti
нва
▁Mode
ida
▁sessions
rogen
▁Args
ku
兵
äck
igious
ṁ
amo
ICENSE
avy
Env
pectives
▁ре
▁concl
▁reli
cl
▁Cle
▁Society
чки
catalog
▁drove
.~
bil
live
▁panel
▁describes
jpg
Rem
▁Ir
▁utilized
ще
▁fig
licht
apis
innerHTML
sw
▁på
ongs
regular
security
要
雲
庫
▁THIS
▁em
▁Australian
нер
TD
▁pets
▁pockets
ᴇ
▁thinks
▁tomorrow
▁plus
▁Initial
▁eager
▁Nah
fire
▁insight
▁]
job
▁stuffed
▁edific
NODE
Google
▁gen
client
quad
▁offers
Download
Tra
▁iterator
▁alternatives
zy
완
↑
Ret
ным
iver
<0x56>
▁books
ró
elijke
▁AWS
▁parties
▁rested
пу
loor
▁Fou
neut
шта
克
github
▁imports
▁iz
equiv
return
▁killer
▁literally
awn
▁Ар
▁kil
ess
▁С
▁deserve
судар
▁Lex
▁competing
▁innocent
test
▁От
▁cin
▁pov
▁blogs
️
fö
▁mont
stret
мпи
▁Nou
▁которых
▁Nik
Μ
▁gratitude
▁fis
▁criteria
▁bes
▁Upon
▁Sci
▁eing
дии
▁romantic
dog
amy
ב
▁backing
bb
▁presents
▁disease
▁put
▁networking
Del
▁brothers
▁être
▁Peru
rn
▁gioc
ี
dz
▁bio
▁concept
ary
▁Collections
specially
Request
▁mut
▁radial
规
▁î
▁locals
<0x0C>
▁mond
appings
toolbar
CHAR
ientes
legal
andidate
yl
▁nevertheless
▁Felix
cke
▁preparation
клад
seh
访
▁тех
▁portion
ប
ォ
▁décl
▁pilot
MY
indo

UnityEngine
active
ís
OutputStream
anon
usta
▁när
▁become
lap
▁READ
▁vectors
ében
branch
zt
default
persistence
ittest
сти
▁collapse
~\
edo
▁analyt
Renderer
dim
▁piano
ো
▁smoothly
machine
▁RO
рин
Ind
ografía
rok
▁requested
▁ab
▁guidance
icos
pc
че
▁Iss
▁song
ژ
▁model
FFER
JSON
د
Bro
初
触
▁Ric
▁domain
▁emotion
Assert
Go
appropri
也
寻
▁Scal
remark
nego
▁dynam
erm
CO
pose
ᴜ
▁bike
lem
Span
Usage
▁murdered
peon
▁haben
ebug
json
ето
acom
▁el
▁wonderful
▁$('#
ボ
agna
ROP
▁Kiss
isc
▁Ward
▁Jenny
▁metres
▁Sydney
▁ook
uff
▁man
编
▁ris
MOD
ked
▁timer
Zoom
▁either
▁Byte
√
给
ha
▁fits
>'
阿
wing
▁extremely
ENABLED
▁According
?:
▁Court
▁ign
aton
▁performances
unity
▁Butter
▁''
bol
▁Vik

rieg
Her
CHANGE
atinum
▁органи
▁exist
▁ball
zenia
▁institution
▁Joe
gra
街
▁behind
▁Pe
램
▁Article
vised
▁Daddy
새
▁differential
lette
▁Brit
main
ião
all
agonal
olut
ético
eg
oken
Fragment
扫
▁Starting
child
Non
LE
▁mystery
SHIFT
▁Fest
▁Belg
assertTrue
Capacity
נ
elli
▁arm
▁News
_{\
icro
▁tele
ork
▁WHE
lo
ella
▁IllegalArgument
▁blob
ా
ounds
Stud
急
炮
▁obj
応
▁finance
거
chio
Test
ND
▁casa
▁Democr
idal
▁establishment
arroll
RENT
▁rivers
Final
SO
▁Foreign
▁hammer
▁custody
seek
▁Cook
venue
▁flow
▁traditional
ows
▁Об
ன
extension
▁merch
export
bo
▁dominated
ento
▁Viv
▁liability
▁(
opl
acre
▁Micro
ей
ALLOC
▁thrust
[_
▁mul
遍
ktop
gers
'.
ember
▁decis
▁necessary
▁distress
▁summit
▁sag
retry
imum
▁Par
▁programa
expect
▁linked
▁via
▁conc
ע
antic
iles
selection
▁die
▁SH
;&
▁fish
a
ké
▁___
▁hun
DOUBLE
▁dont
▁extens
ateur
▁threat
▁tast
화
▁prey
extensions
▁ii
▁Benef
!
기
▁law
StatusCode
button
▁Gree
Vari
revs
стратив
lm
▁poster
许
▁night
iated
sn
司
dev
▁ro
that
▁grand
ಯ
▁edited
▁Ż
▁miser
ago
TC
▁nonetheless
▁dollar
▁он
▁consume
▁arrow
achine
TF
护
har
또
▁although
rangle
лись
content
ite
▁rich
▁Interest
chen
нем
▁dessen
\{\
▁being
▁circular
▁mit
▁suicide
▁strange
▁ferm
▁optimization
################
▁legit
▁theatre
▁:=
printk
▁survivors
▁lat
▁sprint
▁Craft
轴
▁rent
換
ław
ges
дна
▁En
▁exposed
▁carbon
▁std
она
jos
视
▁query
▁CC
▁colour
▁sets
}{(
trait
Parameter
rous
eda
赋
▁Coffee
mercial
ów
éd
ложен
▁entire
▁Januar
ád
chie
▁Franco
ize
▁image
left
he
____
vector
▁Talk
更
▁ses
intr
实
单
>=
▁Pop
ción
▁selbst
hado
▁appearance
кономи
▁why
▁companies
▁худо
Ident
▁manufacturers
▁Computer
ibile
磁
footnote
<0x01>
▁Broadway
▁descriptor
▁tale
itta
стан
---------
group
ics
▁Edinburgh
피
Provider
▁feeling
▁parc
bundle
kir
▁Cool
符
раль
▁Sleep
▁sisters
bean
Under
▁Rose
▁fib
▁Spring
석
script
▁When
▁Cohen
現
bez
▁altered
ញ
黄
isk
▁hidden
sized
▁naar
Img
generated
▁Radio
▁fert
ado
ország
poss
▁relaxed
▁context
body
тия
▁constructed
▁jumped
noc
▁damit
借
ött
tt
icher
▁jamais
▁\\
▁stagione
▁shoes
▁expense
ỹ
像
Watch
▁pass
oney
▁uses
Author
▁Group
▁оста
▁disability
▁unple
Units
検
▁‘
ental
▁Ta
ae
▁Maur
▁Florida
oly

▁===
副
х
▁Prov
▁debt
▁Europ
▁sf
▁verification
deep
察
▁whoever
▁Со
▁Also
Cont
▁Nu
Right
▁shitty
▁clicking
基
Z
ribut
▁delicious
urbed
ş
frastr
AtA
ќ
饰
alert
goto
headers
site
▁Cu
▁recru
separ
ffic
requency
▁ker
atform
Block
zá
Bitmap
▁instinct
ី
<0x8D>
services
▁Io
▁зі
oot
▁Ф
:"
▁fiscal
▁virtue
▁hal
▁Tokyo
addEventListener
┐
ි
PN
Patch
ical
▁Too
EO
▁generated
Left
▁varies
called
▁upgrade
▁exclus
CONT
ță
part
▁Exper
▁housing
ract
▁Officer
<0x43>
▁referred
▁Urban
iss
▁wishes
▁dog
▁Privacy
ż
été
ème
▁bugs
▁München
▁ub
透
denly
▁Rat
retval
▁organized
ству
디
Join
<0x4D>
ственной
▁окру
ctrl
ḍ
▁occupation
▁Const
▁Lord
game
xFE
iggers
cip
▁mysterious
▁Independ
äh
RW
PA
gb
хі
Callback
▁испо
ibility
зан
▁appet
Matrix
▁differently
▁twentieth
ei
狂
ٹ
▁Juni
itations
择
▁copies
ulations
EXT
atu
âtre
FACE
ilities
▁Nav
▁blond
오
aille
▁sn
CN
ców
▁royal
os
▁during
lage
Length
unches
▁gover
oda
utsche
▁pict
▁nam
▁UI
▁Villa
▁en
irteen
▁reject
▁lamp
소
▁wrest
▁Steph
istance
omed
FMT
▁tenant
<0xF6>
Base
Geplaatst
ються
ज
▁gri
proxy
wedge
▁Fel
虚
▁objet
▁Ass
▁Sql
notations
▁lies
itsch
FRAME
iNdEx
ི
▁dans
#
Expr
▁occurred
lio
удо
▁corporations
chrome
arde
All
▁reception
1
▁Payment
စ
▁pet
▁sv
▁unfair
滑
Comm
stead
argc
address
"},
LIC
"?
▁Mor
\[
▁{
▁emotional
ually
油
领
▁Commerce
▁T
match
named
Phil
▁overl
rass
▁St
Registration
shal
structure
ह
▁realized
▁XV
sensor
▁recently
zin
userId
▁Belgium
ADER
▁fastest
▁section
▁controlled
isa
▁Brew
때
▁Volk
轉
▁based
▁cub
▁Mask
▁nob
▁anal
—"
▁protests
돌
▁фран
estro
▁Stevens
know
ством
▁release
perty
Forward
▁și
javax
▁exterior
▁foster
▁který
ზ
El
nico
▁while
IFT
rez
▁qual
Day
▁COM
▁suggestions
▁considerably
▁mar
Complex
dash
▁sens
▁Rab
▁nem
🤡
▁Jr
▁ago
▁posting
▁carrier
Љ
▁organis
oton
ris
▁elementary
▁iOS
▁migrations
▁августа
▁Never
amed
-%
▁influential
ICES
бора
сь
кар
ClickListener
Display
.~(\
BN
▁destac
clk
▁column
Connector
▁apparent
sole
▁clutch
▁vic
PT
rate
▁dis
▁Ground
▁boards
▁Л
usk
ん
哈
destination
▁savings
кре
介
EC
▁babies
cul
▁promoting
to
DS
Times
▁platform
ORDER
▁pine
▁mood
▁Ruby
▁Classic
▁nost
ummy
▁crush
▁mineral
▁spring
拷
ULT
▁-*-
circ
engers
▁taught
▁più
▁Kl
▁LOG
▁commonly
fd
▁Kennedy
uj
skip
USB
ijk
▁resting
▁lips
▁disappoint
strict
추
▁апре
程
pro
ocus
VD
▁procedure
pective
▁paste
▁reporters
)$,
INPUT
ograf
▁consists
▁campus
話
▁districts
▁History
itor
ahl
rod
*),
날
Up
▁artistic
▁aid
▁Fellow
roup
cury
<0xBB>
불
▁flavor
####
gue
plic
ড
料
확
▁роз
营
▁float
ли
▁State
▁сезо
▁validation
too
▁institut
<0x55>
ments
Changed
estamp
▁Mario
▁hom
des
鼠
▁blend
标
)^{
▁tragic
▁ing
trag
Round
約
▁cent
▁Array
期
him
ipped
ok
▁admin
▁atoms
▁handle
▁Feel
▁Eve
▁user
店
▁parad
Dependency
emperature
▁Ва
┃
pus
証
▁hack
▁creature
▁jours
ड
jquery
▁FIFA
ething
▁missions
Skip
iable
there
▁groupe
ERO
ray
гда
▁align
▁Sab
▁identifier
▁acknowledge
ensuremath
frame
▁Jordan
▁Chart
▁practition
▁longitud
▁program
▁slots
det
btn
▁sched
▁syndrome
▁assertEquals
ũ
▁hier
Ray
汇
▁that
Invalid
▁>
ancia
agra
<0xB3>
足
▁Bear
▁kinds
▁Luc
立
▁Series
▁r
💀
▁plan
▁jam
▁castle
▁forcing
▁*)&
uw
₄
▁stell
▁eng
▁Stre
▁déc
▁shel
)");
▁Islamic
▁NAT
>("
<0xCE>
▁▁▁▁▁
▁liberal
▁promotion
▁Formula
ٍ
US
owners
Power
LEASE
服
▁religious
▁fired
▁scream
ille
esh
ogether
▁WP
only
▁desk
lib
any
▁Forum
mag
ើ
空
emb
▁How
iri
Mount
modules
▁Chinese
▁rab
▁rushing
▁create
▁Dezember
ter
Di
raham
Job
Force
uated
▁Tele
▁bamb
oux
▁tear
hum
▁originally
람
▁paus
검
실
▁suitable
generator
db
ня
uman
못
▁\,
itch
ū
▁awful
otos
▁Gr
▁Albert
rat
conscious
▁administr
▁datasets
embed
▁breaks
▁assets
strlen
anes
code
mul
▁goods
dai
Collections
äsident
▁tanks
és
▁rendered
∪
ee
hire
▁peas
San
▁fil
ília
▁TYPE
▁CL
▁Random
tras
▁representatives
▁registry
▁Nak
▁merged
▁answer
▁Lisa
ší
}',
”.
Pane
▁Gh
▁newspaper
▁cousin
▁Luther
▁travels
▁cuts
▁col
porte
▁surroundings
сли
▁BC
Lookup
bum
▁salv
▁Dallas
Э
阶
▁bill
▁unexpected
uesday
MEM
Ú
▁PROVIDED
STO
▁situ
illance
▁Sax
▁Schw
essions
▁Mock
▁beginning
ERS
DER
边
▁ski
USE
with
▁(+
▁tag
Added
mile
▁particular
ATTR
▁spots
,-
pu
▁Utah
纳
▁ca
▁pixel
▁frowned
halten
ige
▁giv
ión
▁sharply
▁wider
▁educ
▁drinking
▁nome
▁initially
brace
permission
말
▁follows
▁rights
ientos
▁só
博
▁hay
▁met
▁Sand
▁Relig
個
flash
▁Tamb
▁alone
▁spend
depth
respons
▁Stand
▁load
<0x9B>
ulous
▁funeral
Pub
▁Racing
▁MAC
▁SORT
Slice
ques
gin
▁precisely
▁pří
▁continent
Maybe
▁cr
▁retain
▁Jennifer
hall
▁vegetables
▁Veter
▁symbols
▁rim
Interval
▁jej
认
anch
asz
емы
brit
▁hor
▁Albums
stage
дон
IsNull
ulpt
serialize
ponent
▁determining
multiple
▁м
up
lear
展
Paths
нение
elligence
▁chill
▁peg
endl
▁Studios
茶
Props
bet
vá
IFY
▁diagram
▁levels
▁Promise
title
▁choices
▁complained
▁profession
յ
▁{{
▁K
Some
⇔
▁human
▁allerg
▁renew
▁Pearl
app
▁э
▁doctor
acle
changing
▁expr
▁Kol
Core
effective
sql
授
▁акаде
남
▁Holy
승
spin
▁Sec
vm
ston
comb
usive
▁expression
▁advertising
padding
sync
▁pret
▁Au
Submit
▁presented
uy
▁arena
▁SPE
▁dozens
SERVICE
collect
標
бер
▁Patri
া
aks
宽
פ
▁une
▁Sem
assador
度
zone
▁при
ore
▁doub
▁Fresh
<0xFE>
aho
Û
▁Hampshire
▁programs
зни
Set
▁scientists
▁glow
▁ens
▁cup
▁autumn
öd
터
si
▁кор
▁Hoch
鲁
tables
Rich
adem
▁well
Rep
rep
>>>
▁documents
mot
▁perception
▁Zen
▁Send
▁interval
▁Could
opens
▁cultural
▁midnight
▁grade
)/
표
otion
READ
oo
ogs
▁IO
▁extracted
},
▁lp
Battle
INGS
mem
running
▁leurs
▁Oregon
▁живе
▁significance
Wrap
▁Follow
ockets
iges
▁legal
space
Chat
▁publications
▁obvious
▁Ан
▁most
▁Snow
▁weekly
▁/*!
여
▁года
▁attributed
▁рі
▁instrumental
▁scarc
Req
을
SOC
anza
ilians
黑
++]
▁moisture
▁laid
▁Quebec
▁ur
▁comments
▁outs
▁imperial
Al
<0x8C>
INFO
▁Catherine
换
▁engineers
CON
▁board
▁decid
ToString
▁VIII
eman
typen
ump
lin
ty
stmt
▁categ
▁Rev
▁Fine
пі
▁decl
ส
bh
aglia
ORM
▁llvm
了
▁OFF
▁Benjamin
延
BASE
hs
▁Adam
<0x3D>
▁sons
▁Grad

▁publishing
▁pot
▁ought
▁vä
frak
▁Jonathan
▁conditions
▁Central
aned
▁loans
▁slower
▁nau
wi
ame
🥰
软
▁prep
▁refer
▁protection
▁displayed
▁wrapper
▁französ
ört
ifs
▁these
▁after
▁shapes
▁teen
null
▁mum
▁Jord
▁defense
writing
▁апреля
▁mk
▁Southern
al
otted
▁projection
Enabled
шен
▁mil
▁complement
▁Dale
▁Before
gress
▁Ty
▁GO
vue
prite
begin
Tex
▁Nep
▁//
▁Administr
▁quarters
▁protocol
BER
iko
Delta
zec
▁writers
▁Freedom
▁tree
wan
mathcal
osh
▁nove
▁PS
▁amely
▁Michel
▁States
abb
tan
Plus
▁Aff
▁opts
:}
▁conce
▁complex
▁porte
）
▁Phil
শ
▁hard
▁regarding
very
▁eran
Lang
▁mm
🙂
ities
▁measures
Book
inherit
версите
▁annoying
▁tours
class
<0x44>
min
centering
▁nella
amer
▁flows
erset
▁winds
iesa
▁Сан
itories
Result
▁Eli
fly
nx
შ
▁där
gem
▁bother
矩
grid
▁better
▁assistant
▁Phoenix
东
ears
Appro
▁Ad
▁notice
▁instructor
▁cooking
ก
output
Ā
Errors
▁гру
▁Mars
🤔
oren
Validate
▁resistance
usters
▁ped
neur
'];
!\!\
▁philosoph
▁incorporated
に
vider
デ
▁Sm
pled
AH
▁Alt
ação
▁Marian
ensus
▁так
ôt
Rend
▁notable
{
<0x37>
▁Gulf
▁healthy
sson
广
loading
cycl
when
▁Alexand
gener
▁BS
lp
▁vars
结
}$.
▁coefficients
▁wer
agnostic
▁Sign
▁periodo
verso
▁magic
▁saint
▁поло
▁oct
▁priority
lector
eting
▁deserves
▁Rail
<0xCF>
ctr
▁Upper
▁vanished
rift
▁payload
▁market
면
ح
▁face
▁revel
Frame
▁vé
▁golden
cosystem
▁rally
Font
▁Flor
▁tail
▁candy
Status
▁propose
uela
▁Ing
nodes
▁Vere
ucker
▁desarroll
▁grain
▁LIABILITY
▁mercy
▁gem
▁Less
曹
▁attacks
▁Apple
▁Management
Nodes
–
呼
▁graduate
hör
▁joined
▁existe
誤
ého
notes
ub
▁technologies
▁shares
▁cush
▁ops
▁пу
▁faint
ías
asse
чески
▁projects
scripts
]\
▁weekend
丶
▁inwon
textwidth
rets
▁dense
IST
▁Sally
са
Inner
',
▁grateful
acions
▁Cann
ั
▁befind
чат
▁Char
▁transactions
▁gener
▁sz
Upper
itud
ἀ
▁physically
▁„
ient
getValue
engu
▁Attorney
otal
▁depending
period
ပ
示
▁stiff
eling
nih
▁lifted
▁regularly
▁Sound
▁requirements
▁FIX
SON
ATCH
olph
▁Within
),
_-
▁Entry
▁rhythm
ق
▁variation
▁Ship
aine
▁breed
constructor
▁dici
▁interrupted
ncia
loaded
ICS
▁Claude
▁desperate
▁arrives
▁fallen
▁otro
itr
▁surveys
нок
Common
eps
ADDR
▁Те
▁energies
▁Hud
Ս
iels
▁matt
量
▁Organ
Max
▁skulle
Ke
♥
▁Emily
▁Seth
▁aller
signal
DT
xture
▁host
Operator
▁Gle
itative
▁Vel
▁Raw
▁Universal
encies
▁GB
nte
ث
Functions
▁modify
dit
cules
mux
▁bloody
krieg
人
▁favour
▁web
upt
ger
ao
▁Stop
Р
▁early
▁yellow
ником
▁distinguished
▁denom
▁ка
▁solution
system
▁kr
▁condu
▁Burn
模
<unk>
êm
▁somewhat
▁litter
VC
▁wonder
Assembly
▁catalog
бо
eks
▁average
▁membres
ør
▁moved
Lu
เ
始
▁taken
▁jako
twitter
ferred
циаль
▁ó
▁Power
bc
ORMAL
aimed
▁exhibition
▁Problem
since
<0xD9>
ASK
▁hosting
▁!!
▁criminal
elf
▁lost
▁flowers
ich
scri
SUCCESS
▁concer
ivas
▁curriculum
▁Anim
▁champions
▁Origin
adata
Sur
▁Hawai
▁report
allet
▁Пра
Copy
▁maintaining
▁quarter
Gui
🙄
▁стру
▁Won
▁Complex
키
▁grin
ǝ
paths
▁rap
战
hen
메
甲
pton
)+
UNIT
▁clothes
vol
ori
top
ately
shared
Year
▁cer
amic
Hol
施
invoke
▁Bet
ș
ֵ
▁identical
ius
▁USD
stick
su
TIES
▁civ
▁aunque
PERTY
▁creativity
▁listed
oret
templates
ン
川
▁devoted
äft
ños
attan
lington
過
브
种
BA
uding
▁Casino
arded
▁trouve
raid
vars
▁wore
▁pam
▁Represent
▁technology
aught
▁upcoming
▁traveled
▁Ernst
▁Kill
▁summar
▁skull
▁harmon
▁upright
ської
));
▁specialized
▁Horse
ности
▁Institut
="../
WARN
ём
▁wholes
achelor
▁toile
▁valid
▁measurement
ographie
▁Matt
▁noon
▁Bür
▁audience
room
length
▁prz
▁reaction
▁Michigan

bes
ⵓ
inement
Tile
▁kole
▁lungs
ி
rib
plete
▁subst
uler
잘
▁Open
▁fold
ỉ
孩
▁Ja
▁inspect
▁cand
uis
▁fraud
жива
▁Together
▁Syria
<0x70>
▁After
hol
oj
▁stupid
izioni
绍
jek
▁evt
▁touch
▁lover
blo
▁Security
opter
FN
)=\
▁Nathan
▁faz
{"
oice
orne
header
lets
ware
тів
xspace
Holder
经
▁achievement
LOCK
lat
身
▁MON
enn
<0x69>
✦
je
stderr
华
▁amazing
▁charming
▁certainly
Pass
vest
▁fab
uzz
headed
▁juni
usch
wahl
пада
▁volta
ored
eries
▁Bibli
▁Loss
▁saddle
▁firing
odot
▁Outside
▁https
eve
▁Ave
▁Length
孙
▁pipeline
▁regulation
>"
▁inner
▁Nacional
Case
▁august
GO
▁Stanley
AC
oker
▁Or
tres
posing
▁uid
▁arrog
▁Dev
vote
ith
Spe
pson
Strings
▁jokes
▁reasons
▁lleg
▁Executive
lv
▁Lov
▁forced
▁galaxy
▁CNN
ging
▁©
▁interviews
▁thoroughly
▁Mans
стри
▁(\
▁като
▁downt
▁Police
▁shoot
▁foot
äng
▁maj
▁dist
▁–
▁Reb
▁This
file
▁died
listener
▁idle
CLIENT
▁guitar
Database
▁Wonder
▁Wes
'''
▁explained
▁Machine
▁Version
▁connected
▁Results
▁bij
▁queries
▁Kaiser
▁j
▁forth
▁ис
▁Na
▁bapt
▁Stock
▁frozen
▁musical
▁which
acco
raj
,(
ória
▁anticipated
▁Jews
OM
▁involved
▁ně
突
eters
▁patri
river
▁sj
▁nicely
Unlock
▁attend
▁casual
########
anean
▁partido
$
▁maintenance
▁hade
▁Guard
лок
▁distributed
än
▁был
▁sustain
agne
▁architect
zh
__(
▁oscill
▁theory
pub
Shadow
═
▁Hil
▁Tw
▁surprise
്
▁pron
oh
wards
▁sorry
Diagnostics
ory
▁estimate
feature
CE
▁sleeping
emen
醒
▁ties
▁parseInt
apa
▁Import
ថ
>/
▁sque
MAN
热
▁prac
canvas
aj
▁regards
อ
ashi
▁rough
AG
▁elev
Show
▁patients
plug
▁pull
Enumer
▁challenge
Objects
ica
Shell
adém
<0xE7>
▁purs
TION
▁observ
oded
iro
▁ranked
inal
▁nie
▁dent
Tele
ної
½
❤
burg
▁Might
▁Item
儿
▁ill
肉
▁Mack
actly
!--
▁pays
▁supplement
▁голо
▁telev
▁verl
음
če
merge
快
▁są
Local
▁Dead
iler
ometry
(&
▁cig
Model
若
Class
inte
prime
erts
▁requirement
▁Andy
DF
▁reviewed
ilda
▁precise
▁Harold
SUB
rg
uli
▁married
▁comp
olic
▁Association
▁exhaust
▁brill
ora
Driver
▁Mot
rar
▁Ser
▁idi
це
isión
aska
▁Norweg
wie
▁Small
▁acres
▁tym
nosti

list
ecut
▁cab
xt
▁Take
▁electric
▁Victor
aneous
Grad
Typed
兴
▁ru
izable
liga
auge
person
FUNC
liter
▁organisation
icians
board
▁barrel
▁Nicholas
▁marzo
Util
▁deutschen
ponential
rivate
UN
!)
>@
▁Nur
▁comme
Redirect
タ
Primitive
▁Burg
▁scenarios
äß
▁counts
SINGLE
▁Über
▁results
▁parse
entials
▁com
hn
▁Fitz
▁~
▁Вла
aben
ゲ
Take
陳

<0x22>
▁goals
▁sy
▁Each
itel
气
short
▁outside
`)
<0x98>
▁Iter
▁cats
ipper
Ad
HERE
.<
enta
▁Theod
签
▁rules
▁especially
▁essential
▁reform
SI
▁dan
▁against
▁Wis
“,
▁improving
▁diz
▁ratio
▁soort
)[
▁compare
▁positioned
▁capital
▁credit
Choice
▁network
文
▁python
̪
<0x2C>
cri
▁stars
zi
edly
▁article
▁desired
flush
gent
至
ribu
aler
COLOR
ana
▁various
▁Kat
ioctl
▁Well
▁Hollywood
▁arg
arius
">
Av
grades
▁Amanda
umin
weet
▁accom
▁бра
အ
HW
▁experiments
▁fav
▁Museum
ien
▁mock
sizeof
▁Tun
▁como
▁cell
▁Target
▁rodz
ões
]{\
▁five
ake
▁twist
[])
<0xE1>
ides
▁Confeder
icrosoft
▁kidn
Thanks
▁kicked
媒
Fr
근
▁Defense
▁vas
naio
▁Arg
brand
ñ
bara
▁questioned
▁harder
▁partnership
▁Students
▁behave
▁acknow
▁attached
odge
PTR
wp
▁tät
wik
ried
▁Mex
plex
▁spell
▁постро
▁nicht
▁new
pio
projects
")
▁souvent
▁exagger
▁index
▁аль
▁amplitude
▁>=
cies
▁Naj
nex
▁ont
▁supp
▁Ч
ге
ikan
▁dy
LIED
▁intimid
▁descent
؟
帖
TMP
,"
▁lucky
▁Father
üss
▁brave
▁frame
BYTE
▁doesn
}}}
▁Mil
錢
▁Darwin
▁Alb
▁fs
▁infected
map
▁sol
▁doubt
bau
太
zej
▁Aug
▁*
verter
Rest
Il
holm
ola
operatorname
▁mentally
▁happ
▁Ken
Security
▁Number
▁Voice
▁immer
▁Hamilton
▁Antonio
uture
detect
mean
▁br
entre
▁particle
▁below
▁Hitler
at
нг
abase
满
input
beat
▁tool
thm
iches
之
环
▁Coun
▁//
afka
▁bigger
Mr
pret
gpio
Program
▁mens
▁numerical
Metric
▁прое
▁enable
pse
attributes
▁diary
▁real
^{[
塊
▁pist
drive
▁[...
▁challenged
criptions
orney
▁Stat
ähr
▁tracing
▁Heart
▁Key
▁rés
diag
widet
▁provides
▁mountains
tegr
▁principles
ண
opes
params
Sn
Hook
▁responding
⇽
▁Available
▁unders
▁fill
▁instances
--
冲
见
▁them
hspace
▁injection
WER
モ
▁филь
Commands
CT

▁Ent
shop
▁passion
▁место
包
▁bel
([]
mathbb
▁Ä
GTH
▁authority
▁championship
▁Your
ropolitan
▁recur
▁arts
iness
Event
ending
▁ю
▁...
лла
ủ
▁Boston
стави
▁Julie
lav
尚
}^\
▁Zw
elles
▁&(
▁resource
陈
▁colors
削
arguments
▁earlier
▁find
▁Iron
▁females
▁ди
literal
▁dim
regs
▁Jahrhunderts
▁they
ose
▁Quest
▁unlock
▁Nob
▁odds
ffen
설
▁prepare
keyword
<0x81>
athol
▁бо
▁siècle
getNode
▁dat
▁Ю
▁guides
▁Из
▁Film
ult
zn
▁instructions
▁beneficial
^{+
▁rec
isation
observ
▁Ві
руп
▁Unit
▁Extra
▁alongside
▁Louisiana
▁tar
icular
current
▁Salvador
me
ی
Delegate
fin
Fe
oles
mann
▁onChange
Poly
མ
Duration
▁primera
▁få
orse
▁proportion
що
ri
ound
▁historical
GM
Method
▁Fal
▁Blood
▁españ
irat
zahl
积
ses
▁Contribut
io
▁approximately
Perm
ು
▁cours
Inject
plicated
More
▁stain
["
oir
ise
sek
Which
眼
▁Iv
odigd
้
po
▁Making
▁storm
▁envelope
MT
uffed
십
▁prop
▁tell
▁definitions
▁clim
']))
Debug
From
▁helper
scal
▁course
▁internal
▁<!--
ropy
▁purchasing
▁career
acht
ech
attice
Down
port
▁point
▁plans
axis
康
▁shelter
web
Number
▁TO
▁Ort
Printf
▁uri
▁difficulty
ians
atra
sters
Chart
idade
cz
icio
ض
'],
ס
▁del
▁smooth
unned
air
▁рабо
▁compiled
✔
amiento
▁prov
▁Seven
▁aveva
itori
▁functionality
▁twelve
▁Affairs
▁}}
vé
▁Nom
録
▁familiar
▁Hat
▁farms
▁give
ិ
use
ش
etti
▁Hass
▁controller
▁ideal
▁Neil
BITS
▁Maria
▁vocal
ay
▁ради
知
起
amar
chunk
▁suffer
▁states
▁deciding
▁giornata
▁président
▁né
CU
<0x82>
▁The
_,
Character
ție
▁steel
question
▁Бо
undefined
▁Lit
Phi
▁Box
▁ga
▁Lebens
▁Pro
ptember
▁regulations
▁general
__)
▁stole
ché
内
cmd
pless
▁get
▁живо
visit
getKey
▁took
▁DES
▁Poll
'+
▁Station
▁touching
▁zaw
▁occurring
▁находи
▁secondo
▁orient
▁hasta
▁stated
▁sports
▁fishing
ih
]['
ousel
▁lif
anda
▁essence
▁radius
quest
▁Zur
Snapshot
▁notably
COND
verts
мира
ins
▁Morris
Utility
▁specialists
ument
>{
▁cancel
▁nearest
eless
ціональ
▁brutal
▁bearing
▁alors
阅
Params
▁управ
ustr
▁FROM
▁primer
ange
▁María
Operation
▁decom
▁foss
ueblo
▁elderly
▁splitting
▁Т
▁ils
归
wire
esen
蓝
yt
▁sources
isecond
端
▁Friends
▁circum
▁dawn
▁shift
▁print
TV
Worker
▁Bring
ạ
宁
▁tea
計
▁survival
pfn
-$
WC
Ids
▁Sweden
▁sa
asa
ppe
▁shorts
verbose
translation
▁tops
arante
销
▁mand
深
仍
▁literal
▁delta
▁Santiago
▁code
il
▁nuts
▁Op
▁distinct
▁fact
cam
▁Professional
▁hosts
▁А
▁becoming
語
icip
▁Read
Ő
▁visit
don
▁ha
▁Liberty
▁Febru
){
▁White
shadow
Debugger
idan
▁albums
otti
fprintf
iejsc
▁replace
ém
ennes
'*
▁public
ét
▁houses
▁mush
▁occasional
▁bad
ink
▁derived
eq
▁hot
▁blocks
bucket
▁please
pection
precated
ற
вы
▁français
Im
yond
▁pointer
▁layers
olt
▁hous
idents
ULL
▁refugees
uje
▁wp
▁cache
▁junior
▁rocks
▁trap
RT
▁incon
▁prima
▁pointed
▁чемпи
▁af
▁Dick
RUN
Υ
▁loading
PC
▁wood
▁Asian
▁{$
äter
ijo
域
▁simulation
J
望
▁esc
▁river
▁November
CL
/.
▁stem
▁SL
汉
fortun
ာ
▁Население
▁it
true
<0x1D>
ablish
ʏ
onen
▁HIV
▁wh
ė
+\
ხ
par
グ
At
▁Landes
▁smiles
Ver
ligt
ross
theorem
awi
▁Cher
▁sites
▁placing
▁Rivers
▁div
▁dish
Customer
▁chef
▁Write
rick
▁quot
'].
ous
▁circuit
▁café
Gen
.");
dap
退
▁Aleks
▁Jag
eph
▁ersten
圣
###
▁ag
▁Platform
▁acquisition
structor
▁sixth
v
ills
▁ceremony
크
▁our
Intern
rev
▁д
▁Dou
▁dv
▁Kamp
▁aging
ष
▁fer
▁NFL
▁dependencies
▁Bio
&
▁sleep
кон
]$
ivos
▁Italian
OPEN
ètres
▁peak
▁Hier
▁Honestly
一
참
የ
op
elled
Question
थ
umbs
ан
▁disrupt
▁indicating
ท
▁distribut
lam
perties
okrat
пер
戳
ović
控
ен
▁trat
RS
PK
▁Scre
▁failure
▁zomb
▁января
Unis
alia
oring
▁happy
ByName
tx
gu
▁high
!*
杂
威
乎
▁where
faced
ката
before
results
▁guide
▁Spot
आ
<0x07>
▁twice
输
▁Cars
▁Gef
▁restrict
▁Eld
▁strict
existing
œ
▁▁▁▁▁▁▁
Cost
nesday
clean
▁representations
▁Pen
FLAGS
▁sha
▁Ker
▁grants
▁Model
▁Ins
esse
▁cinq
Un
pmatrix
▁PHP
avg
▁hf
Pen
▁pension
Ж
ೆ
▁Enable
▁Popular
Touch
ograph
LICENSE
▁Example
Share
▁elaborate
▁combined
ingly
<0xDE>
▁jedoch
ta
▁bout
▁Anthony
▁Join
r
▁fprintf
▁tells
▁nurs
强
▁учи
bitr
▁sont
веро
Images
▁structures
这
tti
适
▁Shel
ovie
ceiver
Price
▁leaned
}^
ふ
DATA
▁tension
<0xD4>
▁retour
ipe
}}$
itempty
uß
▁rhet
▁spé
▁deter
▁corporation
▁(_
wc
__.
祖
▁marry
▁breathe
▁Ran
▁Ch
▁Hall
▁dimensional
▁overwhelmed
слі
ٔ
▁til
izia
го
▁estimates
ников
▁reserved
rows
▁awarded
▁Marcus
illo
EOF
▁inequ
▁ers
east
▁Cord
▁rm
fx
ITEM
▁locked
▁Soul
▁participation
▁\|
Ab
▁selection
▁cruel
submit
▁lived
▁medal
Button
▁coc
▁Khan
▁Universidad
▁Heaven
ancy
天
aya
▁idea
Parallel
xa
▁click
▁drivers
film
▁Coast
▁suits
🤣
pped
▁Egypt
▁polít
▁miejsce

hd
Emb
▁verw
Found
品
▁});
Notify
▁filing
See
导
hof
nh
▁unw
dialog
sqrt
▁Today
▁tunnel
▁precip
阳
Wr
▁Pierre
▁mour
▁wooden
▁Bor
되
▁lines
▁convenient
▁obra
▁MR
▁rect
▁während
▁rational
court
산
▁Gran
reate
▁limitations
▁Their
ilarly
lights
imper
▁AUT
rt
leave
▁password
orough
Byte
ieler
(
Te
ceed
activity
▁Tay
ucks
Entity
draft
▁gep
▁divide
▁configurations
▁Га
▁truck
▁lessons
▁zwei
aby
▁Salt
Direct
在
▁vital
Rec
FUN
LEFT
▁Source
▁hung
▁describing
iał
Convert
▁poet
story
▁kilomet
Fig
▁Cooper
▁listop
버
▁critique
军
▁covering
▁subsequently
▁hierarchy
▁discussion
▁bothered
▁tendency
obs
▁romance
initialized
į
▁relieved
▁Reading
▁gang
▁Bro
¢
▁finale
▁conclusions
▁outlined
▁});
ény
▁backend
φ
▁documentary
橋
Mar
▁kept
"))
FE
pressed
plications
▁dicembre
lookup
▁PC
▁Among
▁fun
▁getting
▁belong
iert
▁Tennessee
▁liver
▁scrub
▁scoring
idel
▁IL
)}$
oming
▁Building
▁registered
確
wid
pleted
▁vocals
plier
rek
▁batt
zenie
enders
町
▁pack
events
▁powers
ità
Bound
refer
GroupLayout
▁Business
ydro
▁satellite
▁midst
appers
钟
ღ
▁Wow
▁iteration
adj
▁fascinating
エ
Def
▁pap
▁Lo
acio
Fun
▁ade
▁toute
mitt
ньо
▁paras
▁absorption
</
活
dex
▁siblings
ęż
ھ
퍼
▁doors
servers
bres
▁commun
▁pillow
ו
ція
▁Bus
uther
cel
▁пов
▁flowing
Rows
▁lifting
▁consistently
▁pu
jQuery
▁pounds
▁Politiker
ত
ほ
usted
▁Sig
▁reporting
nym
▁debug
▁Hend
paragraph
apple
▁washing
▁servant
Dist
▁Ab
<0xDA>
▁disappeared
mont
▁Kings
完
km
soap
ут
sil
ement
▁compact
▁radical
ít
▁tactics
Accessor
▁fitness
▁состоя
iders
)\\
▁mehr
▁sender
▁default
含
▁Door
Loc
Clock
▁catch
▁voices
razy
▁Kit
По
▁maid
▁investigate
▁central
▁interact
uries
▁campaign
▁pentru
▁ai
▁dabei
że
▁David
▁Eastern
▁corpor
ate
歌
▁Cambridge
мб
BG
▁consistent
memset
▁York
nder
▁райо
カ
Index
_);
▁£
▁extent
▁Scar
ун
♪
▁bou
▁expecting
▁somewhere
▁лю
arl
▁predecess
omega
DIS
Sv
▁edge
стре
▁бу
Fat
▁elem
▁quand
XX
▁function
▁Sav
▁cinema
y
aker
Us
▁Ze
▁Mat
▁ele
▁throat
▁Bu
Version
▁dependent
▁humor
▁client
▁population
▁Enter
Rotation
▁compos
patient
▁Mount
arent
........
ت
曲
▁meets
ivi
▁Switzerland
▁entrepreneur
▁Highway
otive
enze
▁boyfriend
рон
▁Gil
++){
LED
ARGS
State
dv
▁wenn
<0x46>
Pad
▁се
▁workshops
▁cosm
▁tf
_{(
safe
▁pregnant
▁Clear
<0xAF>
ње
lings
rale
icken
чно
▁Java
term
IC
ք
aat
▁SD
ificial
izarre
Arm
▁website
no
▁Wilson
▁legs
▁are
武
▁els
▁reality
ellig
▁pink
▁talk
лександ
cv
▁NASA
▁delivery
乌
▁gown
▁Brad
pository
<0x12>
▁facil
replace
ître
▁General
Order
ât
▁meth
ต
▁Smith
­
▁physical
=\
osta
Leg
ăr
OUTPUT
endance
play
tag
▁poison
▁Sl
▁Nature
onia
▁intervention
▁hold
惠
▁shortly
▁fusion
¸
▁inc
",
▁ва
зы
▁nil
STRING
than
High
}_\
▁blame
▁Teil
▁screamed
xico
▁pray
找
ព
▁DEFAULT
▁fucked
▁provided
▁material
rough
▁pants
стве
rific
▁marginal
luss
Components
▁fault
chod
Never
kappa
▁б
HEADER
▁Solutions
▁utiliz
▁Kent
▁bonus
perf
▁Tur
▁keyword
ugin
érica
▁depends
▁Early
ype
ZZ
ฉ
▁Console
dal
ха
reed
ров
▁vibr
UX
agnostics
▁ice
▁Ide
Own
uch
▁waited
apan
PP
▁vu
ComponentModel
▁giant
future
▁answ
▁collect
▁Prime
▁Christianity
AUTO
Η
▁admit
▁Catalogue
▁dude
ئ
Last
▁sei
ô
anged
▁Gon
fix
▁lands
オ
▁Après
▁natural
▁fra
makers
▁Julian
▁Afghanistan
aval
Save
gan
arance
▁See
▁indoor
uni
bitro
▁вій
ervation
羽
Big
ocratic
Routing
uper
Seconds
Sl
option
▁Configuration
ilibrium
rait
▁все
▁restriction
rtc
▁Minn
fil
vor
arta
ategories
stract
▁Queensland
▁interior
▁Anders
angu
itemize
addle
▁modification
acja
▁universe
▁этого
▁industrial
▁fatal
ба
▁tuple
usqu
django
SV
▁custom
▁oven
▁сер
▁partly
agle
▁helping
./
▁destination
)$
▁employers
ussia
▁schema
ham
<0x6A>
▁institutions
▁On
ERN
WH
eler
fl
ació
textsc
▁wed
▁suc
▁couple
ounce
nia
▁fence
getProperty
▁ease
▁Vincent
onte
beans
▁pm
▁Creek
psz
▁Spirit
Ş
⁣
ắ
▁Twenty
Arg
▁dictionary
▁redirect
▁Class
▁alleg
artment
▁gren
▁seeds
▁ripped
▁Ibid
▁Toy
essage
▁н
외
▁roof
▁vel
▁sia
roz
...
▁requires
instr
KS
▁tries
ark
science
▁aircraft
▁full
FT
ских
cloud
▁Simon
▁cust
▁Evans
▁gras
▁Letter
xF
▁damn
▁ча
▁amer
况
▁angl
Vis
▁gouver
▁secur
▁Kore
▁explan
▁twenty
▁WIN
ulating
▁warmth
adding
Har
UES
ester
频
▁speech
▁*/
▁eat
upp
irq
vari
▁Context
▁Captain
▁birds
|^
素
▁soil
kn
Dat
те
▁streams
pte
nr
▁ignoring
border
li
Pack
▁sympt
▁фа
▁Virginia
▁Him
▁tightly
Bo
avan
▁portions
▁nov
▁Field
ppo
▁Александ
Accept
kov
▁Contin
▁Eine
▁independence
▁dispon
ija
?_
You
▁elections
Filters
▁ded
▁Filter
)-\
built
itled
▁capitalism
<0x4C>
▁también
倒
▁=>
▁Feder
밀
▁builder
ongo
<0xC7>
Syntax
');
aze
▁Pot
▁slic
▁bay
▁wounds
▁Sach
ко
◆
▁blind
AIL
М
▁employ
ço
▁aussi
osc
▁freeze
▁Chain
▁Anc
现
URI
였
ٰ
pty
ni
▁attribut
itt
guard
▁ion
iley
▁several
ollary
wij
histoire
▁examples
▁equals
▁thirteen
▁caller
▁sera
ère
▁porque
▁Budapest
▁Victorian
ряд
Val
够
▁desc
rir
rons
▁Stadt
ining
Ṣ
▁(((
▁stance
priv
ollen
▁pint
▁philos
▁univers
▁slide
ώ
▁txt
▁przy
▁Us
▁unless
rom
레
互
▁waves
LO
service
▁subsequent
屋
▁preserved
▁variable
▁Language
PDF
▁Recent
좌
hal
decess
▁бы
▁simply
▁separated
▁ensuite
RC
▁Col
▁unique
GB
Split
▁Members
ɲ
ab
}=
▁Ц
И
▁late
SYS
spell
TRACE
▁Supreme
▁!=
▁trail
▁san
▁calculation
ních
损
questa
▁Namen
ktur
Filter
▁Durante
Verify
▁ABC
variant
Blocks
词
Conne
nio
ю
▁There
Style
▁matrix
园
▁ALL
іб
▁Eug
processor
Ă
Flags
▁boxes
▁Sequ
Sender
杀
ecute
▁ISO
▁дека
ev
eu
▁princess
Pipeline
▁sulla
assy
▁({\
rim
Area
▁feelings
club
Enter
▁jerk
▁IF
▁navigate
李
▁argv
▁gene
▁hospital
ং
FX
▁tears
▁Que
▁Ed
초
▁TD
▁дере
▁divine
mob
rolog
▁Pittsburgh
,*
▁$.
Metrics
▁hydro
范
kom
CKET
▁fruit
▁softly
▁aware
placeholder
混
▁Add
Priority
링
러
▁од
中
ching
▁addressing
▁Audio
▁arbitr
fter
atro
Sample
ieden
▁warnings
▁minister
ито
み
▁screaming
₂
▁Mid
▁diese
ulent
▁consultation
▁Crit
▁manager
FLAG
To
▁Indust
▁orig
▁Native
Heap
▁кре
ized
▁oc
sert
▁Truth
▁entertaining
▁дви
▁roles
▁teacher
∑
摄
▁Fle
▁Arr
▁entirely
▁Spect
▁Technology
adjust
<0x53>
NF
Level
reedom
requ
▁Office
原
Pt
ம
▁placeholder
Walk
ierra
▁ju
mans
ʼ
*(
▁може
uen
▁Carlos
ocz
ֶ
▁exceptional
▁ру
▁instantly
prob
elcome
▁side
Site
▁filter
umerate
ormal
▁nick
'>
▁warranty
blank
Break
▁cream
▁angles
Handle
▁Writing
CONNECT
玩
泉
Headers
▁combination
afi
ynom
ν
▁Parent
▁Soc
▁Sher
ibration
▁pri
hö
get
GPIO
compute
待
ną
▁proble
▁silence
▁feder
▁Level
bour
▁casino
rys
▁slä
ity
он
▁Oscar
▁Market
({
ські
▁Sub
▁Richard
▁ihm
▁kall
anje
▁Legal
wald
complete
▁фи
фа
▁teach
▁soap
Bay
▁collision
ajax
scalar
▁slides
arly
define
ATA
▁dass
Counter
f
▁/*
▁adoles
ג
작
▁pain
THE
plac
প
Broad
Ne
▁declined
▁Module
▁collecting
▁subjects
VP
▁cookie
ография
iod
▁exper
▁World
▁Rap
▁GA
▁eer
}),
Autow
▁село
▁address
tbl
▁texture
▁obtain
пози
▁wing
高
▁Johnny
arse
▁combat
略
ribe
▁frequ
▁Val
▁comprom
▁download
▁taxi
花
静
OG
dma
tagHelper
bg
igr
asons
odox
갑
jud
atern
▁também
▁'\
▁Economic
▁wheat
reno
modal
▁ло
ا
temp
atrice
aceae
aser
unci
▁Ts
ENDOR
apter
▁wyst
▁disgu
属
hed
▁notes
▁ф
context
▁needed
▁Core
MODULE
tings
▁trunc
цо
▁caf
있
▁gar
▁unh
▁wet
▁phen
lisher
xtures
ա
▁Thomas
▁Medicine
▁BT
umped
▁neighbor
▁teles
star
▁Tax
Ser
▁ACT
▁corps
▁europ
▁President
▁needs
▁kick
Mark
▁rage
行
zeta
handle
▁unf
▁prompt
▁translation
十
▁ability
owed
itals
本
NP
th
▁Republic
selector
Vel
▁JS
▁его
Engine
Cancel
▁characteristics
heit
▁gathering
▁shown
place
changes
վ
規
言
▁projet
▁Lic
▁область
▁entitled
mary
▁escort
IDS
▁parks
▁Help
ousing
▁alternate
↳
Picker
toEqual
▁hit
範
ף
leveland
Handler
шти
Lou
ktor
▁presumably
洲
▁ä
▁overflow
ਾ
내
usc
ший
▁empt
sembled
▁anth
▁stories
▁families
AR
'));
}}}\
夫
Foot
▁WA
RIP
radius
elve
▁da
▁holes
ouse
▁as
CLUD
▁shallow
▁gob
ned
▁Населення
聖
▁l
ricane
▁egy
iku
▁ан
ns
ación
terior
azed
ö
ACE
collapse
▁parsed
▁diseases
stringify
nej
weight
▁SIG
Mil
▁math
▁Magazine
▁confidential
▁Hind
Over
▁orders
▁categor
▁Connecticut
Export
▁railway
▁limiting
iph
▁Alexander
▁assembly
oping
boldmath
mill
▁oz
лий
▁Lake
window
▁Kaz
nent
AST
ológ
▁enforcement
Emitter
▁"$
xFC
▁scattering
▁kit
▁presidente
▁effort
kern
▁у
лі
types
▁Wald
▁Ве
▁Girls
oks
▁projected
▁preferred
сько
ье
▁commod
▁kingdom
山
▁width
▁USB
▁inhabit
▁Impact
ł
ผ
▁Francesco
▁tek
▁Online
▁verify
▁expansion
▁museum
▁expl
сия
▁var
▁nel
徐
bag
▁Serv
▁shops
ttp
▁towel
▁Except
▁distance
preventDefault
▁famous
▁landing
▁Wells
▁rul
сті
Ґ
▁quantum
▁neighbors
сни
screen
ْ
inho
▁medieval
▁BASIS
▁drag
▁render
▁corrid
▁dun
▁arbitrary
▁witnessed
▁warrior
八
sort
▁Day
lé
▁unc
▁Plot
す
UEST
▁Liberal
PART
▁nuclear
span
CORE
ances
▁My
▁eigen
▁å
sample
рт
▁soit
▁buzz
PAR
▁Perfect
▁sector
▁commanded
ht
▁Rather
hemat
寺
attach
Layout
inery
ijd
msm
▁GC
▁enhance
▁appeal
▁fant
▁Support
▁analog
Center
▁substance
)=
▁clas
▁den
Conf
▁Sol
▁dramatic
▁coupling
\",
এ
▁argument
▁#
WR
ailing
held
▁Gre
ague
▁Covid
draw
▁uitgenodigd
루
гово
▁.
▁toggle
_*
▁fiction
icies
▁##
gamma
olv
▁Tool
opacity
fers
een
▁Throughout
▁Period
▁throwing
▁DMA
▁chall
▁challenging
▁profit
▁healthcare
Star
rei
IDE
Slider
pués
▁injured
("
▁genius
サ
▁lol
▁Late
EFF
roupe
LOCAL
▁possibilities
▁paths
▁фо
▁appear
тор
prepare
fact
▁tor
▁poorly
alloc
▁limited
irus
▁learned
series
▁balanced
para
ique
history
▁zá
criptors
▁Francisco
▁yo
▁deadline
raz
Air
▁lanz
▁discussed
▁fu
▁sib
Argument
▁consecutive
▁prisoners
▁core
γ
▁PyObject
>",
▁hacia
Game
▁musician
ứ
▁(@
▁ji
alle
▁embedding
Station
▁Cat
▁Server
▁febru
亚
▁panels
IP
ێ
▁IOException
лее
Setup
▁Liverpool
azar
▁beard
reject
▁wurde
xis
EDIT
름
▁stored
▁cost
ungen
▁troubles
▁Expect
▁Cameron
▁engineer
▁anci
▁побе
▁stay
▁cycles
▁Все
anya
▁spat
▁clar
athan
▁sav
lace
▁ruined
Ε
▁db
▁основ
fico
oggle
▁Dr
ey
де
▁present
мет
fa
Equ
▁guards
▁peut
ruction
雄
"];
ม
▁Ensure
CAN
PEG
nika
riend
oter
öm
limit
aha
▁Rh
▁Names
Place
▁exp
Should
▁college
▁priest
ificate
nten
▁rece
▁fins
avirus
▁img
arian
ufficient
лён
allowed
b
▁temple
acks
▁Saf
from
▁privilege
▁fighter
▁pier
▁Develop
}))
折
▁zone
inese
*;
MAX
hash
▁economic
▁privacy
зда
▁tong
▁▁▁▁▁▁▁▁▁▁
▁toll
▁Bart
術
anced
лев
fs
ud
▁models
Ignore
▁charge
atic
▁cater
Quick
PG
▁Lily
▁conversations
▁denen
▁Oil
▁Experience
▁squeezed
▁Mul
▁shouted
dom
▁Rod
▁leadership
▁Background
▁OS
閉
▁rounded
▁marble
▁Kirk
elif
▁air
▁Michael
动
▁Fr
<0x2B>
cls
̥
стро
zten
▁strip
▁inside
quarters
▁süd
aders
sv
▁consensus
XY
pars
▁total
▁injuries
"—
▁heels
▁Types
沒
▁woman
Arrow
ʀ
▁addiction
▁Bay
▁lung
Ro
ố
▁tram
irmingham
ּ
Map
▁две
ITE
▁suffix
▁contacts
ength
gart
▁cheek
▁мно
菜
DOWN
▁journalists
▁magnific
;
▁kilometres
▁trial
▁UEFA
▁complexity
icia
▁weight
▁SI
сій
▁dirty
▁клу
▁SM
<0x0F>
ifornia
▁sede
Any
▁Ellen
▁Malaysia
pher
rules
▁arrest
▁deput
▁prayers
том
▁firm
▁engagement
▁dancing
▁sigh
▁Dow
干
▁dif
▁won
▁supplier
▁Sandy
▁momentum
▁CPU
^*
▁Naval
▁stations
ým
▁dernier
listen
▁forests
·
<0xF9>
▁if
▁dating
avid
со
omen
▁vom
▁intelligence
гор
▁barr
▁artillery
чё
■
hard
void
Descriptor
BT
▁Phillips
†
atoes
issance
▁bust
urope
▁Hair
▁Sant
▁Better
Criteria
▁returned
logs
cursor
bee
atore
eqn
<0x5B>
▁drawn
▁McC
▁returning
Fetch
fred
ainer
zero
xfe
boot
secut
▁Proposition
▁Liver
algorithm
imp
amazon
▁ourselves
consum
▁clo
▁tecn
候
Dec
▁декабря
King
か
▁War
olas
:
SOURCE
▁composed
<0x8A>
коно
▁doit
▁сле
Fi
HashMap
▁hy
▁potentially
@{
▁smile
oirs
▁AUTH
Compar
▁incap
над
▁cryst
imately
▁Content
Emp
Pool
attr
▁europe
Ó
▁alpha
article
ients
otta
▁Und
LOG
▁unnecessary
тки
临
charge
▁sys
▁stride
▁folks
▁Flight
▁century
adow
▁ingred
mbox
('
ща
▁courses
▁Pur
mix
▁gut
消
wrap
trained
▁Exp
▁interrupt
▁wand
oku
▁})
ٌ
▁rejected
▁officials
▁shop
▁Common
▁Tor
ствен
bias
▁Russ
病
inator
wx
▁Lesser
做
cember
▁mitt
▁Аль
▁deutsch
▁gorgeous
▁pressed
▁Biographie
▁damage
Writer
ówn
abilities
зі
▁correspond
business
cord
▁challeng
译
ῖ
fac
Put
▁segments
▁Centre
▁submitted
▁parallel
aty
▁Execut
▁AU
apture
▁avec
▁whilst
▁Style
Hen
ashing
▁Please
▌
}$)
are
▁России
End
▁indication
▁Its
lement
▁funded
▁conflic
SEC
▁n
▁Creates
chos
AE
▁They
Location
<0x6B>
▁number
▁ranking
▁adaptation
comes
▁arrang
▁<=
Tensor
ntax
▁equip
Instruction
izz
oxy
emp
__);
拟
CAST
▁macro
ток
伝
▁kol
▁ост
▁prepar
ohn
▁Bridge
atten
▁cookies
Help
▁care
▁nose
▁anni
sources
ğ
Pe
▁Between
CM
▁compromise
êt
position
▁vor
Once
rael
▁appointed
eto
author
▁fir
▁tales
ss
▁Frank
▁attra
』
▁fundament
scriptstyle
따
nick
vas
▁proposals
<0x3C>
▁fields
news
<0xDD>
▁tak
▁shame
asures
▁Brig
lot
Whe
▁essentially
lev
▁compar
bootstrap
net
▁november
mb
錯
No
▁того
▁advis
<0x54>
▁video
▁impressed
ibli
sbur
▁cement
▁pit
KE
HasColumn
vid
▁Hö
Alert
))
▁sufficient
Bad
graded
aw
▁ter
vil
▁Mel
ivers
▁speed
क
▁segunda
▁chance
▁separ
cho
追
▁Bry
inburgh
FP
▁sword
UInt
elling
Values
▁Sha
Й
▁sooner
media
▁Portuguese
‟
ồ
辑
▁arms
chr
▁prow
Gu
▁nomin
▁compete
▁tax
prefix
Let
▁sketch
▁Foundation
▁household
▁counting
<0x06>
auto
▁incons
व
▁trick
▁Non
ば
啟
mode
▁Ian
▁birth
_{-
Vertex
▁glob
ک
栈
Required
▁authorities
▁packaging
▁logs
،
ured
▁style
hood
構
▁agree
ji
▁Schedule
▁mention
▁Fleet
iem
▁goto
▁Magn
▁Sri
▁Be
▁Six
ники
fit
/:
▁hallway
Tick
▁Imagine
aron
fee
▁leave
တ
▁gift
▁televis
▁concerning
▁flexible
▁surface
printStackTrace
arrow
▁audio
▁Food
▁drap
das
▁ces
Lower
▁República
gov
erman
▁desktop
̞
утбо
▁Tod
▁Gor
▁urgent
▁domestic
▁Zach
▁Current
berg
▁stays
yrics
azzo
ily
PE
拉
▁Joan
done
yles
▁Remote
onic
ene
▁abc
▁Canada
plom
功
신
ared
AME
kte
ʌ
▁Viet
frequency
ʾ
京
▁count
best
▁SV
▁singles
▁history
cuss
Ō
吃
COMP
mapping
curity
▁те
cohol
▁immune
享
步
**
ari
▁USA
size
▁Johnson
▁ú
▁hab
ography
▁Everything
▁French
Metadata
Document
▁éd
▁Ez
▁horror
ться
▁triumph
▁Summary
공
contr
▁nécess
▁Ti
essages
▁harmony
▁liv
▁proven
底
▁cook
Contains
www
ên
каде
Available
Mapping
cio
urent
ា
필
▁ensures
▁override
erst
票
▁License
MSM
pie
wealth
▁ste
)
loop
▁Big
▁Natal
▁Ari
▁Trace
▁scheme
▁sheets
夹
▁nullptr
<0xCC>
<0xF5>
▁standing
MIN
▁articles
FIELD
frastructure
▁assessment
▁caring
▁Bis
ten
ској
castle
▁thats
主
▁cos
▁ans
▁bo
xi
isset
▁року
istics
indust
▁GFP
ether
enas
▁worrying
士
тел
дия
재
▁franç
▁civilian
▁match
Begin
MR
執
ે
edi
STATE
Des
}-\
<=
▁Image
amd
会
과
▁▁▁▁▁▁▁▁▁▁▁▁
irtschaft
ним
present
▁plt
▁помо
Serialize
▁Christopher
xpected
▁LED
▁now
▁до
etr
▁nan
▁features
гар
shake
君
▁PropTypes
▁rég
▁Sz
▁protagon
厂
usion
ford
(/
right
▁'.
▁Zealand
▁newer
▁neuen
Fixed
▁Strateg
▁immedi
ema
▁extension
▁dels
aja
▁latach
west
▁strang
anning
▁mise
▁Kin
▁Start
页
▁limits
uge
▁sphere
부
icense
▁connect
▁carb
▁Singapore
fo
nown
▁ib
▁watching
WS
▁casting
DO
▁roman
▁Fox
▁Atlanta
▁lacking
▁approxim
▁Ger
▁dealing
▁assess
▁generous
crypto
沙
▁reass
].
.,
David
▁demanded
▁Agr
▁Campeonato
θ
skim
佛
Primary
EQUAL
▁arist
▁wyd
宇
Just
▁bron
▁pued
attrs
▁aesthetic
▁paper
▁Пи
▁Gast
_{
▁seu
▁budget
▁bank
▁phenomenon
").
formation
player
));
Dot
▁Island
pin
Bi
gage
▁Bomb
문
inated
硬
ob
:%
▁Sc
ived
ಕ
Ё
▁Brasil
z
▁Simple
——
▁sep
ं
▁Buenos
eri
▁Georg
▁herman
▁pollution
▁Camera
▁Money
▁actions
Destination
ється
вер
獲
▁Gall
цю
▁Rem
▁Taylor
▁GT
▁Research
▁processor
개
how
▁Knight
SF
ENT
▁hatred
PO
▁goog
▁hollow
▁woods
▁Como
isle
irtual
enza
▁traffic
▁moins
▁breath
Members
▁Holland
▁activate
▁radiation
▁id
Expect
▁Bol
▁Chall
uth
▁Vor
▁flame
Ì
▁unus
줄
▁productivity
тин
kol
natural
록
про
势
▁участ
previous
ued
▁feet
▁fair
UNK
ATT
▁és
pal
▁strikes
▁realizing
shit
FileName
▁Channel
▁participated
▁Yale
▁shit
berries
聊
▁Windows
▁serv
▁Treat
▁Mort
▁Florence
elem
ק
დ
?"
asure
▁immigration
▁grow
wohner
▁femme
▁которы
项
▁farming
ry
que
eight
▁í
does
史
不
filled
▁terra
▁excitement
บ
."
▁quietly
當
▁worse
∼
▁http
▁understanding
okat
▁colours
▁Oliver
onders
ћ
▁friendly
\!
summary
▁municipal
▁observer
ative
▁extreme
▁ins
ней
gow
prit
erson
CY
▁dragged
ग
▁bi
▁running
raft
EV
reme
▁).
▁thrown
▁speaking
STR
째
igan
▁Votes
▁stressed
▁Fuß
Me
ስ
▁sought
▁oppon
▁inch
INTE
▁surn
em
▁aus
▁над
лле
Com
▁fost
inction
bigg
гла
unregister
orneys
▁attended
▁поль
▁intr
claimed
oa
▁Boolean
▁indent
▁::
▁sounds
光
▁enter
▁pelo
▁English
joint
▁seiz
Cmd
CSS
parents
apshot
▁sync
add
asto
▁global
<0x72>
▁"</
庆
chten
emony
▁magnet
▁Grund
▁defines
Ș
java
constraint
SK
▁Tob
wor
▁sequ
▁adult
▁Ри
び
ifiable
inary
elasticsearch
tta
CIAL
▁gun
▁FBI
STATUS
ült
▁verschied
▁amount
izard
efore
ARM
▁lesser
bor
▁accompl
рез
▁median
▁madre
▁interrog
▁juice
▁Suddenly
난
bing
API
ific
▁existed
▁Independent
illion
▁logged
▁admitted
▁Symbol
ographic
▁Aut
▁міс
▁pro
▁made
jal
▁przed
answer
▁crist
сто
각
莉
▁пе
▁clause
ia
parency
riz
atched
英
abet
ilia
rome
Enable
👍
▁afterwards
ea
azure
▁TEST
chan
▁scenes
hy
owych
<>(
▁Introduction
▁Kle
▁Gene
▁welcome
rust
▁households
email
oenix
varphi
rand
ográ
comput
▁два
▁learning
ass
▁guaranteed
ová
flag
Ω
dep
posal
FLOAT
hdr
ect
私
▁wx
▁driver
stud
▁guard
Win
riv
▁Labour
ת
▁clear
aa
anim
':
▁growth
▁±
NONE
////////
▁advances
CH
▁likelihood
▁repo
▁depress
后
▁Он
fortunately
PY
刀
▁Contact
▁fle
kernel
▁stones
？
▁CV
antry
河
▁Дж
surface
American
▁descriptions
▁launched
<0x0E>
äs
▁jest
▁Chem
uffle
▁caract
ifting
▁Бра
酒
Details
▁complaints
▁time
▁good
production
вого
▁zn
Tri
▁upward
compat
▁Eng
▁Films
forced
่
ක
ensk
");
Dict
▁merc
aría
▁Dise
▁aument
External
▁dare
ografia
យ
ono
▁infl
▁Head
字
ül
▁followed
Ha
«
▁leap
▁Ernest
iation
ARGET
▁disappear
▁initialize
▁soc
▁Team
▁van
ACH
▁Pir
ał
▁worlds
▁contr
▁tutorial
TO
▁za
TM
ports
xygen
ско
🙏
AM
▁depart
▁tasks
▁Cad
▁раз
暴
jours
tg
▁versch
ioni
cott
▁respond
еред
▁longer
▁Lev
▁образова
ï
ël
▁Compet
כ
▁prend
ell
▁curve
▁argc
'}
▁ml
▁incoming
▁Poor
serts
UR
▁nod
kehr
Ї
▁half
止
ac
'},
▁us
▁beautiful
Forms
▁Fran
cancel
int
▁Ay
重
ieve
▁main
▁republic
▁quella
▁exhib
▁dignity
爱

resolved
尺
orth
▁В
▁Var
▁proves
▁falls
▁neg
unto
dam
▁util
▁Wild
▁written
▁internation
Κ
aries
▁Iraq
▁username
ipher
▁PART
▁Turkish
▁unlike
-(
▁other
contents
▁Virgin
▁ocup
**/
▁Ast
isine
ience
▁train
▁Chair
▁jealous
▁topic
▁Geoff
▁overwhel
inline
😤
ナ
ves
▁streng
het
imiento
▁haz
▁bez
appro
▁geldig

▁peer
bat
▁',
factory
ке
sid
▁speaks
▁bull
▁storage
▁variant
Union
oder
mic
▁Copy
▁range
archive
▁many
vision
alth
rite
▁wreck
dn
▁fire
uary
PM
▁una
▁Writ
▁monthly
▁questo
Rules
▁Kansas
jj
▁Commonwealth
TYPE
▁popula
transl
▁"<
容
íst
め
plain
官
urn
▁receiver
▁killed
▁genetic
ierte
astern
▁lesson
▁kinda
▁everything
wend
~~~~~~~~
▁Cor
▁exchange
吴
entr
▁fat
agu
▁Hawaii
木
▁König
arten
▁'#
};
enum
▁part
cont
▁'./
üd
″
met
Fact
▁Member
▁prevents
▁defending
possible
励
crement
▁carriage
<0x1B>
▁Б
▁reign
▁appreci
major
▁information
▁Cath
forall
▁Instance
▁ADD
ault
Implement
ar
Sheet
amily
▁counsel
▁for
▁ridiculous
anche
▁revers
<0xA8>
▁Фи
▁Tibet
display
IO
zz
▁School
▁absolutely
nonumber
▁motivated
▁dispos
▁Edwards
Category
ologist
▁ch
сы
unicip
background
▁Campbell
hung
据
▁catal
▁trace
[],
polit
▁poker
▁come
▁Wil
▁agents
▁changes
bank
сты
Range
▁ли
items
▁Future
▁boss
ilo
▁inclu
/,
Value
Cl
anc
tol
▁Marcatori
ワ
▁Young
nn
Press
coln
txt
▁fonction
▁Про
▁Пре
▁wave

▁az
▁spray
Launch
estern
真
▁);
ugins
▁pound
stream
local
▁smallest
▁cmd
▁draft
unwrap
straße
▁Was
▁survey
▁scrut
▁suddenly
▁making
死
▁restored
handler
inian
▁trips
apolis
('.
parent
fff
▁MB
▁Ryan
▁including
维
▁zam
▁surg
封
ischen
▁Basic
星
▁Present
▁Isaac
Element
<0x94>
An
▁gains
izza
▁knees
▁threads
pawn
uce
▁#####
standard
▁¿
","
skin
dataset
▁proces
▁origin
об
Native
▁Center
久
}$
▁sang
恩
<0xA6>
О
▁Graf
▁Monte
▁Olympics
同
cedes
▁Jed
▁Mend
Channel
echo
▁missing
▁revol
▁contrary
xp
▁works
▁increase
▁collaboration
weak
▁часть
▁team
asts
▁oldest
▁tablet
нии
Float
▁fist
▁given
▁output
Scheme
▁Former
▁Roth
uario
▁radio
🌍
▁sto
ه
▁slowed
▁Kevin
▁beating
값
************
У
▁Equip
▁był
љу
rd
▁Whatever
Less
FREE
ockey
▁circumstances
layer
▁dummy
▁companions
ἰ
▁Wire
▁лі
▁Wat
▁Description
▁VA
▁favor
rog
ct
м
▁shipping
d
▁raz
rose
ega
▁marketing
▁agricultural
▁einer
▁febbraio
▁steady
ATED
angular
▁severely
ách
EMPTY
Panel
▁swept
▁grat
inge
客
lected
守
ytics
ד
▁scripts
Je
▁INCLUDING
▁gu
▁Mechan
▁Phys
erves
▁li
не
urations
Are
▁Ter
ulative
ippet
robe
ي
▁worst
кри
▁clusters
▁Wall
▁cleaned
umbing
▁andere
▁veteran
зе
▁hum
iglia
提
▁inform
▁jego
ules
▁dai
st
▁lo
▁Communications
viv
▁checks
'(
mé
▁Jew
▁differ
<0xC1>
▁aspects
argo
ampion
itudes
▁гра
isti
Έ
▁fel
▁pear
带
▁ere
▁component
▁siendo
Blob
кры
Apr
▁Pand
▁lu
uf
▁Dy
alom
stri
▁stern
imer
▁concentrated
▁usb
▁€
ria
▁Web
Land
▁major
atte

垂
There
▁rif
▁кла
zung
с
▁рас
force
izont
▁später
▁dimin
▁bacteria
„
▁available
ather
ook
fileName
క
iom
cial
▁Generic
▁anonymous
ury
▁IP
▁lapt
sidebar
Ptr
▁header
▁established
▁Kon
Sure
uan
▁bound
盟
panic
电
би
▁basic
▁Girl
rus
▁há
▁Wo
erg
Part
▁Share
▁ша
backend
ctxt
▁session
▁Me
facebook
▁fifty
▁reminded
ship
▁christ
<0x66>
utt
▁reader
opcode
cod
<0x90>
▁opened
▁validate
▁Wal
▁горо
▁Stage
DESC
▁almost
▁Li
STEM
▁Ло
da
▁Ј
来
ють
uetooth
plements
▁walk
▁bone
▁birthday
▁printed
▁Sou
▁Vienna
aly
чи
▁suggest
arry
▁Nas
igned
▁addition
uation
▁harm
irable
▁encode
▁воз
▁Water
uum
zd
▁vol
▁Ду
▁critic
焦
▁proper
▁defaults
▁Tot
▁operate
install
▁exports
▁climb
出
补
thrift
▁Carm
▁agent
▁Action
▁placed
적
crete
Links
▁residential
念
▁Are
帝
ney
▁unos
▁Del
▁Ges
▁engaged
▁вер
([
▁absolut
▁sustainable
env
▁excit
▁Sept
Ț
▁language
▁orden
▁Su
Title
▁pleased
離
pgfpath
▁entert
▁ended
伤
<0x2D>
▁delivering
раб
▁Pak
▁availability
eau
ά
株
▁imp
Graphics
▁resulted
▁TR
Factor
ív
ulin
ocate
▁exposure
affe
older
SED
약
▁seinem
▁followers
▁aprile
▁branch
ince
ired
▁dort
asma
უ
▁celebrate
mals
▁owner
ई
▁wine
component
▁YouTube
▁Bill
▁degrees
ée
▁incor
cles
▁bright
wait
▁principal
▁lett
▁SP
dan
▁Colin
▁peaks
▁году
▁filed
obil
product
▁Rad
▁Jon
opher
чного
iken
▁forma
ennessee
valueOf
mart
▁dental
Sc
▁tribe
▁todo
ই
NI
typ
GLOBAL
▁aut
record
▁thy
NEL
▁estaba
都
▁Request
ile
center
▁battles
bands
ência
fur
wig
▁scales
▁Robert
▁param
▁absorbed
ident
ly
nab
rh
種
ﬁ
aligned
ilde
<0xF4>
▁ingår
nehmen
…
▁quasi
ющих
▁guerra
MAP
yers
TEXT
umb
▁"../../
▁проце
▁Mol
▁italiano
▁replacing
▁leaning
GI
출
▁Os
esian
▁provision
▁OUT
ት
▁октября
▁swim
TOP
▁System
tty
нал
Machine
agraph
hent
TextView
▁novembre
IAL
▁Veg
vez
林
▁Ca
lb
▁Art
▁magnitude
▁Baltimore
VALUE
▁manually
▁dynamics
▁dot
un
UINT
▁где
わ
▁dinner
prod
▁El
ender
▁pal
nv
▁preparing
▁Mak
[[
딩
overlay
▁Sa
路
▁cable
▁blood
▁releases
▁explosion
Delete
▁Jama
ATURE
▁definition
▁het
▁position
ље
❌
▁tile
Summary
是
▁seven
益
▁febrero
ному
uffled
ogue
▁resources
▁appropriate
▁Nort
renderer
endpoint
▁best
▁ey
▁concentrate
▁extends
▁Questions
▁reve
選
▁learn
atan
写
")
oop
Requ
▁efficiently
CESS
icients
▁Book
▁useState
▁gy
▁Reagan
▁stri
DIO
Super
▁tremend
aña
AB
pos
/*
iface
▁+=
▁interpreted
▁pocket
oun
▁leads
▁ink
▁tons
ди
▁Learn
▁denied
▁confer
optional
Neg
COL
午
▁his
▁syntax
Code
snd
(\
형
ORY
yster
▁Cover
WN
▁tid
城
▁use
学
CREF
▁know
▁anytime
ij
▁Mix
'][
looking
bage
fic
▁Terms
▁Wolf
▁personas
▁cancellation
▁expos
▁banned
▁Spain
▁Auf
distance
▁Mittel
▁outbreak
][
▁difference
agem
fi
Pl
▁ц
▁passenger
lord
▁$|
▁Arkansas
')).
▁decre
▁hint
ír
()).
Ms
▁Inc
▁viene
isher
▁Esc
roduction
▁Fo
dest
▁portfolio
road
icons
upload
iante
▁nut
ķ
alls
fully
▁Single
▁bzw
▁cents
▁ranging
▁easier
вя
▁dashed
▁Cub
itivity
▁listener
лю
▁со
elements
han
為
▁advent
▁suggestion
``
▁muscle
豆
▁upp
Points
▁dispute
各
▁Min
▁floor
卷
▁dir
研
zeug
defaults
sung
¬
▁Lie
▁pregnancy
WARNING
▁февра
static
compare
▁femin
ushed
▁spent
▁constitution
由
▁employed
▁Roman
▁childhood
colm
▁Forces
чення
User
Đ
袁
▁calculate
▁further
▁cleared
▁laughing
дела
uspend
Vo
▁permit
▁wouldn
▁implements
awa
except
▁Bruno
upport
node
osp
▁flexibility
▁attempts
▁sponsored
<0x99>
▁behavior
chor
▁ма
$$
▁District
▁sensor
▁Sic
▁suck
▁Jun
▁plastic
plicate
WAY
左
▁silly
▁county
游
ICT
▁vl
ributes
lichen
▁gained
▁opt
▁vague
▁sugg
▁thank
uction
▁Warren
Layer
▁painted
▁pré
Health
▁exam
aju
▁Palmar
ensure
Been
▁meer
▁Wend
'=>'
query
ша
▁excuse
▁seit
ELL
▁recent
▁Finn
äre
iao
▁Wol
▁ї
赤
ivo
▁în
－
ño
ixel
▁fitting
▁BE
한
▁Columb
oco
碎
ende
▁gas
rav
▁Lad
рок
▁such
▁begin
▁rings
zent
cedure
▁regions
つ
什
cur
▁Claud
▁Leader
▁play
▁Bach
initely
going
leg
▁curiosity
枚
contin
řed
▁boys
}(\
▁broker
PAGE
▁décembre
benfalls
ery
▁unsigned
▁this
▁court
▁preval
stack
▁Islam
rodu
▁same
▁legislation
▁Limited
vspace
▁Tro
vertical
▁urg
Buff
▁clone
▁gaps
ження
▁character
▁Sir
isp
▁mp
halb
ivals
ห
च
▁initiated
ayout
Vert
connector
olve
multip
▁script
gd
▁reverse
▁unfortunate
▁Exception
▁fem
cep
Toolbar
▁pobl
▁feature
▁Ford
emark
笑
atever
심
▁bre
origin
вета
comm
▁Vlad
▁Adv
ares
FORMAT
ting
▁titolo
▁implications
医
▁veh
▁govern
itar
▁openly
.)
▁más
chain
▁calm
▁opens
inher
erta
จ
창
▁да
▁gram
ROW
▁Great
▁illusion
求
▁applied
▁Road
asset
說
stellung
▁heter
itive
▁partie
▁Лю
▁eval
▁hey
acon
▁skirt
▁life
▁outer
Look
iate
issue
▁Steam
ieties
acion
$.
络
yna
Sal
▁might
▁Gold
pragma
▁dav
MODE
測
amil
▁slot
ilon
▁defeated
dist
▁eines
▁sido
▁stability
▁Slow
魏
rug
▁novel
▁enthusiasm
职
▁willing
际
▁encouraged
skb
▁Menu
▁uniform
▁Olympic
▁current
ORD
ename
▁Henri
migr
GROUP
tele
▁деятель
unal
▁passive
orr
▁landsc
BY
tabular
▁belonged
formed
arch
▁entr
☃
▁requiring
▁Easter
oured
Radius
▁reputation
▁Municipal
iento
>.
чения
데
▁dup
ath
▁Quinn
Ь
cop
insula
▁constraint
anden
(-
▁Steel
▁bunch
▁surrounded
▁recommendations
▁assum
▁&&
]]
pci
▁ener
▁Herz
▁Harvey
▁creates
▁Walt
▁Mic
П
▁febbra
技
‬
▁Dutch
▁FITNESS
▁evaluation

FL
ях
▁Kultur
于
Header
▁Script
▁Players
▁или
hostname
▁Commercial
▁tren
▁pol
rowser
▁accommodate
▁Play
mond
▁dess
▁issues
ipeline
▁finns
▁visitors
▁från
ellers
포
пор
нен
▁Nap
