äsident
hör
bc
isé
▁Dakota
格
▁momento
Move
quel
▁keeping
ática
▁partie
Щ
▁attacked

▁guide
协
olt
相
▁vers
▁makeup
На
reich
▁instinct
<0x26>
▁hands
▁Was
WARE
manager
was
imir
▁François
▁clas
ratio
..."
hh
one
ivan
까
▁friend
вед
▁Request
▁Twitter
_{{\
▁Gall
ле
▁eu
features
▁Heaven
zk
rible
▁wagon
Try
▁свои
expression
.
lege
▁remembering
▁cheap
▁ро
How
▁electro
▁fiscal
buff
▁Space
▁composed
▁Handle
क
priority
▁);
ate
andra
ANY
▁blanket
▁missions
Tube
dm
▁Rating
▁Honor
溪
▁imagined
노
▁volta
▁carbon
▁swimming
nen
▁erh
NEL
물
');
▁maar
▁compromise
▁worlds
cref
▁Orchestra
Multi
▁exped
重
aco
їв
▁String
▁tum
icans
▁information
Edit
▁Benj
VIEW
▁mistakes
查
げ
▁explained
▁attitude
▁explicitly
诸
ilt
Orient
▁Jess
ය
▁episodes
▁commut
▁supplies
▁Slow
▁Arena
▁careers
atur
非
resolved
News
▁fucking
▁Road
▁specify
▁fig
▁gay
▁studies
▁steel
▁Pack
▁circle
▁rem
▁Karl
▁everywhere
▁mater
bounds
▁toutes
▁Plot
ろ
вала
▁attendance
▁trav
▁met
records
preter
▁neither
ory
승
▁Nick
票
▁relay
².
▁pm
ggi
nab
fon
Graphics
▁What
▁steps
▁Rab
W
uation
eni
acc
maps
▁Custom
bootstrap
▁Kennedy
▁hire
пла
▁fleet
▁bibli
arl
▁ву
▁Champions
ilation
Checker
ბ
と
そ
вод
▁Hub
▁vault
orte
▁состав
mals
▁худож
aci
ęż
▁compress
欢
ژ
>",
anes
FALSE
▁É
▁Together
unched
▁pkt
卡


▁Arn
▁blog
▁grain
cip
▁geometric
🙂
▁Moh
ét
ec
▁near
▁ss
сер
▁describ
▁suffering
▁sun
▁galaxy
▁onClick
郎
▁Display
Die
▁enem
зы
▁januari
LAST
▁OP
▁Refer
▁Laura
▁Moore
vey
▁Institute
ualmente
▁bere
▁tot
<0x38>
▁selecting
▁exclusively
▁Marcatori
▁Alpha
▁Today
owych
author
olution
▁prescription
▁human
▁record
▁bes
ham
▁Cruz
dyn
▁ferm
▁Douglas
erg
▁magnet
▁father
额
elements
ся
▁Stefan
stmt
▁available
mod
ites
repeat
ज
ณ
pha
varepsilon
▁naar
LT
XT
▁modifications
країн
▁sigh
▁moments
▁consensus
\
ố
▁лет
▁plate
agent
▁mining
▁ně
edge
Called
ric
▁shrugged
cken
▁proces
▁Fe
▁Product
더
▁Tax
Run
▁central
ingu
otherapy
cuss
▁~
・
der
▁Reference
▁дву
▁roles
science
▁Theory
▁analyzed
▁Di
<0xCE>
large
onymous
plete
Comparator
バ
▁legacy
WAIT
Simple
iced
error
▁computed
lected
secure
▁shout
omen
VO
Cmd
LL
umen
UG
▁Du
▁Cache
▁incred
▁inhabit
▁internation
▁rund
Europe
▁determines
▁chang
̈
weak
ency

▁dies
▁ones
Construct
▁flex
icket
▁Abu
Ign
▁jours
遍
ão
▁wide
▁př
▁moy
▁Going
▁stuffed
▁see
igi
▁El
Was
两
▁advice
▁fuck
▁meta
▁ds
▁Wayne
▁Thor
초
▁refugees
Ro
▁пов
▁Al
▁energy
▁funding
holds
руд
success
▁differ
▌
▁prec
倍
SUPPORT
({
▁stating
HAL
ives
调
▁inn
▁Initialize
▁young
öt
▁drei
ci
flu
usion
▁resp
Track
lan
uras
iggers
rous
▁Usually
▁PD
gem
▁orange
›
액
ू
useum
▁pob
▁cle
▁approach
Module
iore
append
▁bottle
▁Alabama
Մ
▁Global
▁Basic
▁those
С
Vis
ح
jar
▁[`
snap
ö
习
jection
▁Bill
▁labour
▁Balt
ふ
ACCESS
▁nouvelle
zel
Hand
▁Pers
▁screaming
▁hig
ly
▁Kong
console
▁год
▁stones
▁refuse
hora
rob
olves
encoder
▁Phoenix
▁premier
midt
▁Anim
▁vision
▁counsel
▁statistical
▁hack
了
▁*"
▁tide
borg
SIG
▁equivalent
▁ру
▁тру
includes
็
▁hunger
going
▁pictures
▁trap
reference
Sem
▁rugby
pers
iture
tabs
炮
▁sleep
<0xF9>
樂
▁Mannschaft
▁difference
▁Culture
▁Nelson
▁touches
kind
aniu
▁Pretty
ées
}$-
ad
ket
▁initialize
ój
館
▁elsewhere
ル
ĭ
▁Jet
"))
▁unh
ческие
▁participating
)-\
om
▁Myst
▁throw
▁ampl
▁descriptor
▁PCI
▁travail
free
▁habits
▁AB
нь
werk
描
omin
▁Shel
▁cleaning
▁deter
acji
↗
▁walking
Width
ält
▁Title
▁Haz
▁reform
▁оп
voj
▁baby
essa
compare
Emp
obile
create
Tr
▁ON
ogen
yd
anç
setValue
+(
▁birds
([
▁wants
udi
▁interface
ăr
rings
○
▁distances
▁percentage
published
▁GM
ige
$_{
▁minut
▁multiple
王
emperature
存
▁Mul
memset
Origin
▁Tyler
承
tl
▁при
▁crashed
ito
}{(
▁Blake
▁colleagues
观
lig
Lo
▁Braz
itut
▁них
▁decor
istant
overlay
▁sf
▁conn
▁Louisiana
▁cost
▁Rights
▁PyObject
▁Pav
▁intended
▁effective
▁coron
GPU
▁det
▁explore
▁delivered
▁jou
▁"'
<0x46>
Stmt
谢
Ptr
▁palace
éal
▁wanna
ug
lee
unlock
*
Std
IGN
}[
Ν
▁restore
▁plugin
▁sugar
▁ideal
▁Gol
▁Roc
▁polynom
Round
oured
▁Bruce
LABEL
▁characterized
Since
ieb

▁inclu
WAY
郡
▁times
iliar
▁knee
yond
multi
▁administration
cott
geben
ause
▁db
▁Entre
ikk
some
ixon
Don
▁Austria
择
타
ismus
▁Pays
見
沙
▁stru
β
▁buff
javascript
▁separately
▁imagin
oya
encil
nero
ပ
ensive
▁uncomfortable
лось
az
▁Still
мы
▁qualified
▁Fro
▁locally
mapping
edish
▁tissue
▁City
cn
worthy
▁был
▁simpl
Step
▁Crit
▁most
參
semble
▁approxim
▁rab
▁membre
ève
▁possibility
▁По
▁clk
▁Friday
公
▁communes
君
geon
▁Occ
▁thermal
▁Maur
Sql
▁Server
▁mare
Depend
%,
ines
Strategy
▁tribe
to
equal
gram
▁guess
ermine
▁España
review
▁residents
▁notably
▁writing
ół
▁connection
▁awful
hex
isha
▁hf
▁passenger
▁Ji
acy
▁Histor
▁Eff
duc
ao
▁registers
설
智
ध
▁journalist
usch
▁haar
▁wom
anie
▁Eins
▁wy
▁Grad
▁Selection
▁synd
▁Cre
▁BU
<0xFA>
触
ABLE
sem
テ
▁Gulf
ily
▁running
▁jag
▁documents
',
imes
}{
▁sinc
ella
▁So
кий
евич
кор
될
Compar
вать
▁Drop
▁basement
▁sing
variable
▁Н
aries
▁zurück
▁Gal
▁player
▁purch
▁land
Standard
probe
->_
akes
ob
▁default
▁honey
▁Mid
▁improving
▁pist
▁reign
Leave
jpg
▁slaughter
horn
ris
▁surrender
('
plaat
▁complement
▁spots
▁river
▁reactions
▁refers
aise
▁Mist
▁ли
Group
▁Engineering
▁crossing
▁slip
▁č
▁sequences
▁ju
Example
▁advertis
ITE
uded
▁photographer
▁ш
▁splitting
scope
▁Equip
▁sug
▁happ
proc
▁computation
여
umbled
▁Castle
▁NBA
▁Connecticut
chte
▁accommodation
pas
音
▁compos
▁Taylor
">&
ALIGN
▁adv
▁advert
************
▁crow
把
▁translate
▁lunch
▁gray
▁його
▁Bed
CLASS
return
itzerland
IS
▁liberty
burgh
ц
berries
efore
blic
World
estly
θ
iver
▁evaluate
These
▁nar
BOOL
west
▁grow
temp
▁рабо
▁chopped
nr
▁tears
▁cha
uz
vector
▁blind
▁Active
oise
alling
▁Chuck
စ
▁cho
▁lying
▁talents
criptions
inherit
▁naval
span
Scroll
ال
▁charged
▁junior
▁improvements
▁discussing
ח
bar
▁upstairs
*>
TT
▁legal
।
▁Menschen
вар
费
▁bas
┌
tor
aben
▁Hitler
istr
▁school
▁camp
▁ing
aby
display
▁населения
anged
ologie
▁Fall
😄
▁named
cep
leq
▁board
reduce
▁nn
▁judgment
̃
▁memory
▁opposition
▁дей
▁Bur
adv
rated
CON
colors
leased
NULL
▁Ivan
љ
▁Day
▁significantly
liest
!'
Я
▁AMD
▁Deg
▁XX
NM
护
ские
Ent
▁Trade
▁views
▁обра
▁Walker
▁operators
▁presidential
▁Nort
war
▁Kir
▁enh
zn
hemat
prop
EventListener
wicklung
ance
ético
ig
atoes
ię
sup
uments
▁desarroll
忘
ниш
區
▁corner
éc
▁stopped
Mail
medium
▁ку
berger
ilor
文
┆
▁romance
▁tid
class
▁siglo
▁chase
▁aest
▁Shadow
ala
▁indent
▁части
extension
hib
▁remain
Rot
paces
幕
================
▁Einwohner
▁intern
orer
▁altered
bian
▁Just
kins
▁mån
<0xDD>
失
PN
txt
逻
pel
▁Tennessee
▁psychiat
▁Take
iz
▁Kap
inkle
▁saf
try
always
▁wid
▁warrior
Pending
▁England
dest
sender
▁east
▁Stockholm
there
VER
▁showing
▁Independ
▁acquire
Loaded
Claim
BC
▁ante
▁measuring
rieben
▁Moreover
Toggle
▁NEW
▁repo
▁vit
amp
Ì
ined
asury
blank
季
▁stiff
RP
▁Expect
▁validate
ByName
▁Pand
▁inspired
▁jQuery
=[
▁Kath
▁philos
▁cover
atory
edly
<0xA6>
▁spark
▁Sales
▁existence
▁questions
▁Sp
▁advantage
ющий
▁gain
elf
bread
▁Key
▁standard
▁tank
▁·
知
rown
▁trab
▁Cas
▁Sciences
vare
▁*/
▁он
▁Cu
mid
▁surpr
upp
Vector
inner
wort
알
▁Of
▁by
oret
Bal
▁sheep
▁п
▁att
▁MOD
▁mood
▁startup
brid
mutex
▁interior
▁answ
轮
▁Component
elif
compass
▁ns
enumerate
\|
ocal
zeug
▁ligger
▁Auth
❤
▁et
▁recommendations
Sim
cout
▁venture
+'
mo
uren
▁Haupt
▁Poland
명
Sy
▁consideration
TypeInfo
▁subject
▁likes
▁gel
ups
map
лю
answer
▁seat
▁efforts
▁ui
isible
▁dummy
▁Food
▁noting
Exists
に
urch
organ
▁peque
部
行
ff
κ
▁principale
▁Buy
▁investment
▁Sym
вая
▁Over
obs
MR
▁Lanc
isation
Namespace
gre
▁fn
တ
Lookup
its
▁here
tex
▁Duke
▁bankrupt
ebru
▁Ме
¬
posite
esse
Entities
DEX
ometry
▁scar
▁hopes
▁tossed
cri
Equals
▁above
▁bug
▁positive
▁enumer
Named
uuid
inging
ör
▁recall
бі
US
▁rug
▁pending
зан
▁Please
▁national
lang
'+
,&
▁blank
▁happen
valueOf
▁Well
Depth
description
admin
istrzost
MetaData
itary
▁encode
sets
▁import
Leg
▁Кра
ís
▁%
image
钱
AT
變
▁entitled
▁urged
_{-
▁CSS
▁designer
﻿
▁master
▁IllegalArgument
ו
▁spending
Stud
▁complet
▁temp
agu
▁ensuite
▁settle
▁Zen
ogether
avel
▁allows
异
▁dominant
тра
ま
‰
eron
▁cloth
")]
▁horse
▁interviews
▁tort
Authentication
▁allocate
▁clarity
ё
Animation
Security
ʻ
송
▁super
▁modest
nek
▁unlike
oples
▁live
Shared
/**
▁trou
▁boat
▁illness
onso
▁continent
▁ob
layers
▁blond
▁Hy
▁horm
▁dedicated
RF
▁moisture
▁AA
ORMAL
▁object
▁Jim
▁exempl
iss
酒
ocratic
WS
▁Cos
▁Beaut
▁COP
▁compelling
▁educ
▁Advanced
የ
▁trouble
▁discipl
▁деревня
cted
▁perman
▁▁▁▁▁▁▁▁▁
▁virus
▁collar
▁EM
<0x17>
▁Admiral
▁minute
▁swept
▁orth
▁shake
iefs
▁Ham
swer
[],
hat
▁veter
insic
assign
}</
▁Audio
▁spons
▁Lol
gz
▁Watch
ду
ಕ
▁inventory
▁disappointment
TD
ets
db
iveness
▁garlic
▁Angeles
▁ET
net
朱
Mult
▁Drive
▁selling
▁функ
omorph
室
antes
Seg
▁infant
pat
▁ha
ства
▁Sports
져
▁Beck
▁stages
▁vain
▁immune
COMM
woman
parameters
▁complain
喜
atted
ENTER
▁average
akers
▁Ox
▁soit
▁minimum
▁theoret
сов
gebra
createElement
▁False
▁Poss
▁Ор
▁contains
▁Apple
▁rail
▁street
▁substitute
▁labeled
▁Liter
**.
▁Van
▁BA
peated
Created
▁anniversary
rey
▁pointed
▁grades
design
▁Studies
▁Ronald
▁созда
▁tourists
▁knew
▁born
为
clam
▁prima
▁opens
icker
▁cave
▁existe
우
▁Росси
sidebar
▁Terr
▁exh
▁Exhib
▁Football
/(
workers
匹
▁birth
▁intent
ARRAY
▁col
tb
▁parish
▁dign
▁Observ
skb
▁hills
▁Lor
ץ
軍
getMessage
▁Fl
▁killing
▁const
证
▁Link
▁Nacional
getContext
▁Roman
▁encoded
轴
Tell
жда
▁prep
iasm
Gamma
eny
▁Pain
▁embed
▁decid
是
▁appointment
世
води
▁upgrade
ina
),
▁Eli
마
Yes
▁grey
Ε
link
▁января
>'
such
급
▁workers
``
不
DIR
)+
▁tm
▁upp
AW
▁agent
▁alert
protected
▁graduated
▁Television
Reply
ə
Ս
amente
▁lot
rea
▁Recent
▁far
▁unable
▁Sz
uty
KEN
ន
▁SM
▁strange
machine
bre
盘
▁године
┬
▁provoc
↳
▁Pe
▁Kle
▁grand
된
▁te
▁Article
▁da
▁luglio
ENABLED
▁tastes
▁Harm
ills
▁shr
▁exec
▁gram
WI
後
wrap
HED
▁fixture
anon
▁lay
Ö
▁focus
▁frequently
▁Astr
ī
▁Colorado
ӏ
ম
CF
▁FIX
scar
堂
naio
Binding
▁recognize
atz
Host

prom
▁int
antine
▁sei
SED
ähr
KERN
▁which
▁scales
▁county
▁peas
▁ret
erase
▁iter
▁advances
they
▁significance
▁corporate
aller
/%
▁Roth
▁режи
▁poem
hs
▁themes
€
▁пол
keley
>("
bro
▁wireless
FileName
▁antib
▁bank
▁allowing
束
agation
▁improve
obby
▁reminder

alls
▁helper
사
grpc
aiser
▁delay
▁silence
fin
▁pushed
▁sail
▁trailer
ibil
ских
▁authentication
wall
в
abling
▁jan
inceton
▁kom
SR
▁nothing
ós
Single
▁Grand
▁tod
所
̀
ḫ
▁А
ность
▁satisfaction
SCAN
логи
▁living
▁Construction
Pat
▁benefits
▁map
google
▁weights
▁inst
▁transit
"},
selling
▁Arm
pn
▁Argentina
▁autor
ographer
argc
▁forces
▁Mod
⋆
▁protection
saved
ST
▁upload
▁ancest
▁Tab
▁together
▁details
lov
▁counts
ennessee
RG
Variant
▁годах
▁teil
Sir
pgfset
▁dessen
ê
ARE
▁milk
Registration
止

▁may
imum
▁first
▁organic
▁mos
▁")
▁heels
▁risk
▁blob
▁Dak
▁bigger
iker
ject
▁QString
ct
▁Pres
▁дви
▁Amer
▁large
▁Si
ного
▁MP
ls
get
емы
BA
WAR
Asp
▁Instagram
▁ore
▁ин
гі
▁pow
▁started
▁shop
▁ال
children
Hidden
▁Russia
▁Hillary
▁anche
▁TE
Camp
wie
▁ents
▁ESP
▁fellow
Г
sn
▁deutschen
▁convert
intent
堆
legal
(
attro
▁TYPE
▁Pir
SINGLE
Bits
▁LLC
▁defaults
utch
填
ulous
▁networks
mil
icked
onces
oma
▁gonna
▁bottles
anto
▁attribut
▁roll
▁days
eph
▁coordinate
avorite
Components
▁kilometres
▁Electric
▁crushed
▁install
center
▁Health
Hor
▁osc
▁"../../
▁doubts
▁creat
注
▁Buen
result
▁тре
▁direct
▁Stadium
▁assertTrue
<0x40>
wake
HER
Primary
▁formerly
▁ur
player
gor
▁Bog
zą
▁Franklin
TOP
▁Dean
▁реки
\{\
▁proven
Destroy
▁↘
▁retirement
れ
igenous
Window
elson
undial
Arguments
▁interrog
aling
▁Error
folg
▁ал

bel
'=>'
▁Broad
▁quant
▁ji
ツ
rac
▁complaint
bud
obb
▁NA
▁mi
Report
Ø
▁Armen
▁Dun
convert
▁behaviour
ROP
wor
pull
OLD
public
▁disrupt
▁going
itate
▁automatic
ề
▁convenience
atisf
)).
root
편
impl
▁incon
Func
rowser
DESC
secut
▁europ
▁gradient
ri
gu
ej
▁protest
▁Ball
Peer
▁rooms
FILTER
岛
경
<0xCF>
▁Administration
▁stag
▁mistake
nor
<0x2B>
<0x0A>
->
Nodes
aman
▁Edward
leen
But
▁principle
ј
侧
õ
▁avoir
}}$
inject
▁sad
▁captain
▁klikken
▁Netherlands
▁laying
ios
///
▁degree
▁initially
系
▁Lin
ego
Identity
订
Pag
▁Bu
▁region
ROL
▁breat
Č
ے
mann
▁conduct
▁prolong
''
▁opinion
▁Ta
▁американ
cols
ser
▁zomb
▁decent
mong
▁cr
▁Madison
▁traders
▁init
▁brain
▁circum
’.
quir
▁story
▁pic
Match
▁loose
▁recalled
Creation
▁Ре
▁Amsterdam
▁Mercedes
殿
审
▁extract
iking
Feature
ὰ
▁sich
xy
Loader
▁remains
▁Penn
▁barrel
▁trag
▁Writing
eta
▁”
▁dimensions

▁Ber
▁PHP
全
ley
——
ë
▁Samuel
CP
▁edition
러
<0xBE>
▁diss
▁brushed
ipt
ATA
<0xA3>
Mill
▁murdered
▁міс
▁easy
▁Fig
Blob
utz
▁Generation
amil
▁Empire
Points
▁chose
だ
▁skull
uario
索
kr
Nothing
▁stern
▁George
▁Fine
▁couldn
▁Ga
fileName
▁void
ści
8
▁Jen
GroupName
▁gra
▁iterator
▁underlying
▁фе
Board
▁growing
ests
ielt
▁propri
ifer
nonumber
<0x4F>
▁Puerto
▁//
ERN
▁wreck
isure
ním
aking
▁swallow
dirname
▁Се
зер
▁dispers
ˇ
Basic
▁Aut
▁Hong
Ctx
▁Ti
▁Theater
scale
▁parliament
Red
Ř
▁defined
::{
IEW
▁conver
▁peripher
ião
夫
ើ
defaults
▁relative
▁junto
▁Rena
izioni
âteau
▁pine
стви
▁Operations
ueblo
bo
▁diciembre
▁été
▁mic
▁eleg
▁Гер
▁fate
▁partially
▁bekan
▁sor
Serial
ela
▁Khan
Sigma
▁initial
▁exit
▁topics
▁traditional
Shift
施
irs
▁psychology
Div
▁sist
▁miejsc
isons
▁landsc
▁Cher
▁Belg
лли
▁priest
nage
”
isl
perp
▁again
аль
▁beste
Less
另
▁raid
压
▁gepublice
▁username
▁BS
idades
springframework
boxes
▁colleges
▁realize
prises
Settings
▁vague
▁GP
▁COPY
quant
▁fifth
▁invisible
ա
好
▁Coun
▁passive
lv
dirty
ulin
▁pi
▁fueron
퍼
範
▁few
▁harvest
Life
▁immigr
▁rés
Appro
▁Therefore
▁INT
oved
<0x2F>
▁whatever
▁Gregory
constructor
▁boy
mut
odox
}({\
Home
Es
echo
▁obvious
CTION
▁collaboration
▁sheer
▁emb
▁ти
ват
▁hearts
ској
▁foster
▁tow
▁grows
verso
nullable
事
aty
▁responsible
▁depart
story
upid
▁definition
▁curv
▁объ
Ы
сли
므
▁gam
gin
▁flexible
hind
▁ate
▁otra
▁sn
▁prov
▁Kom
▁lapt
ogy
intel
▁Ocean
Μ
▁wrote
▁Paulo
▁arrog
▁gru
crate
▁"";
▁remained
▁snapped
▁physics
bst
▁drum
<0xE1>
iversary
▁Railway
▁punch
HW
▁Cuba
▁Didn
ulator
▁successful
▁loc
▁entert
스
▁pr
Height
SPE
▁лі
Runtime
Without
▁crying
▁jap
▁neur
//
▁charging
MIT
ком
▁businesses
into
gio
▁affected
▁frag
▁closing
ље
:**
PROP
▁debris
alter
umb
citet
Unit
▁wage
▁ACT
】
▁Affairs
▁fiction
▁fights
▁equ
▁implied
ppo
▁denied
▁breeze
▁March
▁NGC
▁roads
Times
▁Dam
▁deux
ials
на
▁key
Poly
书
Configuration
<0x54>
SEE
ć
▁quien
)$
ász
ithub
elcome
▁tile
uses
ẩ
패
▁believe
Subscription
↘
ocument
▁ale
changes
fur
izers
N
续
▁foundation
LENGTH
istent
▁depending
POST
▁dad
ω
▁Students
▁Document
府
bolds
▁remainder
Been
▁invite
▁fatal
Schedule
$('#
CLUDING
▁disp
int
▁flo
▁Mon
agg
▁signing
auf
usalem
▁she
▁sorry
▁got
split
▁processes
usr
MSM
ping
Nil
anzös
▁Max
ACC
り
imper
ensor
ʔ
▁dollars
fill
_{
oped
ния
▁бі
▁innov
È
bd
HOW
▁elements
▁training
▁hiding
▁Ontario
▁cloud
sed
▁вер
▁fighting
▁removal
▁eval
rena
▁kont
▁Mont
▁JavaScript
▁июня
▁studied
dig
▁Years
▁priv
▁annoy
▁bird
öl
▁speaks
弹
▁Sak
▁dim
slug
ENUM
▁CONTR
▁repair
▁Dre
브
▁Users
▁elderly
5
▁retr
▁Ring
▁slight
▁Kl
▁SUB
Mo

ara
▁rav
NUMBER
}(
TER
нал
▁Roche
}}{
▁père
ONLY
▁größ
फ
omega
()->
▁Behind
▁cultural
▁С
ously
WITH
▁CEO
▁towel
Page
ĕ
)):
▁SP
LOCK
▁Isn
each
lect
CHANGE
ique
eben
▁Hoch
▁guides
▁vol
Private
▁distinctive
broad
▁cuts
nant
▁menos
ready
oston
▁winner
▁Rule
.~(\
stal
▁Canada
ả
pect
pre
▁phot
eng
▁nations
▁intens
▁finally
▁мно
Js
▁ni
creen
続
▁derivative
恩
essment
▁completely
assertTrue
,\
▁assumption
AUT
▁af
▁Dennis
distance
▁ic
?:
▁thrust
}),
ief
NS
▁fee
ület
😤
<0x97>
serie
material
ไ
ång
plications
▁Un
栏
ivers
forced
VIS
▁mineral
턴
tax
▁donne
▁ž
<0xA2>
DT
ье
ź
arness
▁he
▁Springs
▁Jenny
ISO
íses
▁thumb
atto
arp
Good
▁Flor
▁visitors
arc
separ
reg
▁maximum
anked
▁reput
▁scientific
”)
Opcode
umph
between
▁Finale
ws
++++
▁identical
▁spont
Cost
illa
▁throne
▁devast
▁offers
洞
▁Hope
▁Бе
▁Stein
须
etime
버
rd
view
ny
▁proport
Visible
bis
ora
▁order
▁hes
börd
▁tips
▁Layout
CREF
▁soldiers
▁.=
▁spin
affe
pected
bs
▁match
▁més
erme
표
隆
▁Pro
▁simple
▁fő
▁test
▁woman
rollment
▁Action
▁pick
iana
▁LA
ies
▁Young
hooks
▁protect
ACT
▁pairs
▁участи
▁decision
果
▁ú
versation
.).
ེ
ल
ably
志
▁Bangl
amar
“
▁Вы
▁Solutions
▁firmly
春
AUTH
▁suscept
▁valor
Exec
▁very
▁Oper
▁Teil
▁hay
跨
▁ges
Min
▁Types
▁Perry
▁Elle
▁général
Pay
lc
线
вы
arians
▁searching
▁gross
▁observation
▁wh
▁tribes
▁proud
▁afford
▁Download
icense
▁Butler
▁therefore
▁verb
▁окт
▁compris
▁гене
aises
▁extremely
ctors
圈
▁tag
▁ott
▁Imperial
Serv
сій
▁routine
Element
▁possess
▁portal
TEMP
▁clock
▁Educ
▁goods
zens
comed
▁properly
ALLOC
▁patterns
▁aapt
▁sua
▁sto
▁laptop
▁PK
eted
;
素
ARCH
▁Anders
व
IFI
þ
▁Tell
abi
▁header
▁Stadt
oslav
radius
unsigned
▁caut
▁bias
Commit
nte
akespe
▁optimization
▁gates
▁.
▁tre
该
▁Cond
▁teens
▁amid
▁GO
▁niet
▁który
Returns
zin
<0xAF>
터
ette
▁dok
▁которых
▁stay
▁Corporation
▁nested
ille
▁Су
视
▁Palm
icing
ending
End
▁immigrants
▁farms
질
叉
)}{
ographic
▁Body
😳
▁anci
▁prove
snd
▁herself
▁Disc
▁needle
;\
VID
▁Budapest
耗
▁checks
PF
chart
▁насеље
PER
容
艺
▁condem
ador
ports
▁frightened
▁Golf
▁AU
▁havia
˚
▁wanted
▁gained
шки
▁Drug
more
▁resur
▁told
Style
tha
Score
▁IR
▁traditions
▁technique
Parent
▁dice
▁Episode
▁consum
▁przez
▁Lyn
Sep
难
▁building
▁drap
quin
ater
ense
igma
▁font
塊
▁cas
▁fundament
agnost
▁cock
amt
friendly
éra
▁й
espec
Quick
：
▁angles
צ
▁trib
телем
tty
▁явля
▁but
▁faint
爾
색
rich
coln
▁pt
qp
▁può
ldots
▁Room
пі
Anchor
▁Validate
▁Warren
pp
Info
▁tower
gl
avax
▁temperature
▁Marc
▁forma
▁warranty
aly
transition
subsubsection
oe
bss
▁особи
ன
▁practices
ٍ
VS
▁genuine
▁seeking
▁shared
▁сы
▁Describe
ALE
YY
TabIndex
▁hi
Ψ
▁issues
▁attraction
▁qualities
▁discovery
imit
ació
▁Netflix
(!
▁roman
▁octobre
Apr
Us
转
ila
▁customs
ORS
▁Information
▁introduction
lement
./
▁href
▁commercial
type
▁&=&
iments
▁beef
▁toxic
▁Lov
oping
aaaaaaaa
ussia
ument
aken
illing
<0xD2>
▁singing
▁Results
request
Topic
▁Agreement
brand
▁famous
▁lid
++]
Lim
▁Vas
▁inher
램
▁OUT
oup
ribe
▁ahead
Android
▁drive
uli
<0xF3>
▁separated
zm
Notify
▁cul
ównie
ass
▁Governor
wohner
▁imprison
▁Iran
Hook
º
엔
▁jump
▁slä
pert
▁foot
▁dismissed
オ
ano
▁fd
▁filter
▁$(\
нок
▁Fußball
▁virtual
hew
ную
▁становника
gb
▁assembly
▁leg
▁utter
enable
▁disg
samples
bigg
▁lesser
▁cool
▁purchase
▁gy
RIP
▁oblig
▁pockets
▁nella
▁spectacular
idental
consum
iew
▁end
▁stre
▁latest
▁обо
︎
▁Trust
▁Walter
agog
ittest
chan
Full
icious
▁sty
โ
Delete
NV
▁spirits
▁safer
▁!!
を
Lou
arter
stable
▁centro
▁signature
阳
効
▁redd
[:,
fig
▁kap
Opts
>:
▁Lamb
▁ol
▁not
vard
▁Class
анг
rss
▁cats
ners
▁Perm
ghai

▁Parent
itat
▁investigated
meta
öff
па
▁Might
▁Democrats
▁Cover
▁aver
▁Spect
▁Long
ím
rq
▁Parliament
▁puls
ження
cio
intern
ût
▁card
want
▁suffix
▁Window
unter
▁Choose
lock
wealth
іль
て
▁кри
▁politique
ському
▁approximation
character
n
재
▁vag
▁Rus
赤
ente
▁politician
▁awarded
zza
▁macro
bara
▁Flash
*:
▁essentially
gres
equ
▁ts
▁lean
getNode
▁Coupe
RC
+
▁Mand
Testing
▬
bec
▁fluct
▁broke
▁Beach
▁Raymond
▁espec
▁production
▁Toy
itar
▁anom
H
Џ
孙
top
▁practition
る
reedom
▁amb
▁Austral
built
ître
ό
рон
arta
ር
▁associated
▁AG
ented
▁owned
compiler
agon
▁mature
skip
▁Sh
iffe
urers
▁Society
uis
regation
▁timestamp
▁verd
▁messages
riere
▁Pedro
lington
GM
▁token
unge
inition
ixa
minus
Please
ģ
▁Politics
Buffer
▁ling
би
sembl
▁Nature
▁Louis
<0x83>
▁comply
Capacity
▁случа
═
▁photography
美
達
tee
że
rict
▁enjoyed
▁».
▁surely
White
▁increment
iNdEx
▁mal
сы
▁Bra

Gu
▁tracking
▁получи
veh
▁under
▁mainly
tti
▁prof
▁exactly
........
▁Va
▁dévelop
▁VIII
▁outlined
BER
DE
ถ
▁whisk
▁conclusions
mé
Non
▁arch
Join
▁Weight
▁{\
local
▁"",
Pane
һ
ont
▁Vir
pgfqpoint
▁Johann
rais
CFG
▁trial
▁imped
observ
▁mess
are
klass
▁Trace
▁filing
▁Friedrich
Install
▁bottom
fty
▁consists
site
▁absolute
mind
anim
▁trees
步
▁enhancement
▁tun
▁Hal
^^
▁Generic
Ш
anche
▁squad
ジ
ini
IDENT
区
▁simply
ย
lette
▁handle
idan
▁orbit
did
▁Му
▁Gold
▁getting
ract
Cfg
ٹ
ე
▁ml
ologist
('./
ructions
Gap
▁onclick
▁peak
▁Due
▁along
<0x4D>
▁bound
セ
▁Jam
aria
<0x0B>
▁abuse
▁facilities
▁crap
prob
▁dyn
ur
>.
ਾ
▁funeral
▁allocation
boolean
▁justice
▁church
cr
▁decide
anti
SSL
pv
▁premium
▁Rules
bast
Cl
peer
▁target
ilar
▁male
▁sprint
ingo
▁components
className
笑
<0xD6>
след
inson
▁noble
▁filtered
ɛ
core
▁han
Channel
ifferent
endif
态
▁expedition
Rem
antly
ு
▁Holmes
▁Roosevelt
the
▁Elect
ole
▁report
acom
▁Alf
▁plugins
message
ang
orters
four
运
ouch
▁consumption
archive
้
▁activ
▁remark
▁sharp
依
▁wished
consin
▁exemple
▁pint
⟨
▁brothers
▁industries
▁Module
At
▁locations
▁Seattle
▁Cir
▁somewhere
lab
临
佳
▁founded
inners
▁architecture
▁Archives
▁practically
▁movies
inde
inc
▁parts
transform
ryption
▁Jews
դ
emark
▁ann
▁arrang
ič
textbf
hing
▁Ray
▁seven
:%
▁aspect
▁magic
langle
▁grade
▁II
▁claimed
▁Johannes
}&
▁attention
▁bg
pose
▁designers
▁seventh
목
▁flags
Ș
▁Bank
▁extraord
▁Bel
▁theft
▁committee
▁season
▁recently
infl
MO
▁dismiss
▁}),
▁besk
▁survived
▁глав
候
oles
좋
Tree
yaml
▁Enterprise
又
▁assumes
alse
▁anchor
Core
liminary
FF
▁controversy
▁slept
▁apartment
집
INSTANCE
▁décembre
▁padding
building
▁final
effect
▁però
▁intact
▁Person
▁complicated
▁gas
▁things
▁recipient

식
дат
hc
▁psychological
Best
rivate
▁Vor
▁transition
ogene
asures
▁Jersey
▁bez
▁incoming
ioso
▁Berlin
▁Stage
ó
▁galaxies
▁città
bb
▁asks
▁Galaxy
▁Mach
▁Sky
▁caring
TM
▁ice
▁Alexander
▁Brasil
▁focuses
all
same
米
*/
▁Yeah
▁offic
▁Mess
▁sessions
▁Justin
▁forever
endar
▁drives
▁innocent
▁ladies
▁района
?,
ned
▁servant
▁Werk
▁Gaussian
psilon
time
▁quality
▁Interior
lli
rift
▁hypothes
ネ
▁making
uese
ucc
▁plane
▁located
cpy
▁reminded
▁уче
▁solving
far
 
Metric
▁doc
▁|\
uper
▁Portuguese
組
Norm
;
ically
▁family
▁tcp
▁Result
ಠ
gel
iev
▁Who
windows
▁structure
▁permit
sheet
jsp
▁Companies
ault
▁chick
ibr
rá
▁common
二
Remove
Percent
obil
▁pří
<0x21>
branch
oth
▁accuracy
bw
▁Avoid
inating
▁comune
Share
▁sig
▁Moz
ledge
담
API
iet
dule
▁systematic
▁$\{
▁Complex
▁IF
▁classe
▁Morris
▁Muslims
во
Bul
나
▁bi
▁action
▁email
▁inspir
METHOD
Coord
élé
▁enforce
<0x65>
dec
▁looking
hen
▁Charlotte
▁nah
follow
▁#####
▁Nel
popup
▁Shanghai
း
▁Writ
eclipse
Description
共
▁Ф
{})
ruct
▁shelf
▁wool
ng
▁existing
▁employed
▁nej
resources
gi
grow
imiter
uvo
ptic
abol
▁Kyle
erm
agers
▁exhibition
▁gebru
icc
▁October
olo
▁play
▁yelled
<0x3F>
▁Пер
▁até
▁Will
chter
zw
▁två
▁Wang
▁Dave
▁IBM
▁дома
мене
▁speaker
ama
ErrorCode
▁everything
▁Division
▁tags
▁thanks
▁alle
▁Nash
J
Receiver
▁Sir
▁Portal
▁gaps
als
一
ล
北
▁mayor
lay
▁missing
▁Cert
court
ovie
▁avril
▁KIND
ova
controller
▁BSD
▁steady
remote
plex
▁Te
merce
ografie
emed
▁tok
Three
UNUSED
▁Churchill
є
yna
STRUCT
sep
irts
<0xEE>
▁project
note
conditions
▁Econom
alue
figure
зе
▁Sarah
erves
▁Paper
▁DEBUG
▁Players
▁deleg
<0x95>
never
▁No
▁grip
▁phenomen
尾
然
ko
▁wrist
▁America
Live
tz
▁ry
▁Mouse
isms
reci
Threading
▁stats
Comp
TO
aron
▁Florida
Information
innings
か
▁Ind
⚡
▁trusted
▁syndrome
<0xC8>
▁bot
Aug
ollar
<0xD8>
哈
itet
jon
▁tens
цев
niej
▁same
▁compt
ето
▁WA
的
Χ
▁conj
egin
aders
concurrent
▁ship
▁termin
ld
▁pun
▁Department
营
▁toast
▁fonction
continue
▁CL
▁tried
▁knowing
ně
▁[];
▁Mission
true
织
▁heavy
▁Au
тера
amma
▁presents
▁thoroughly
дон
▁Advent
▁nasty
rok
Đ
각
öst
INK
▁diz
Occ
ln
itional
▁ch
&\
▁Prim
▁gehör
wright
▁Vi
▁constructed
front
Close
aire
riv
Update
ARG
бу
ским
▁Season
▁Father
▁King
▁factors
utsch
ง
cdots
▁strat
Value
▁suo
te
sts
▁varieties
mgr
▁Visual
▁Bureau
brew
isf
ṃ
▁integrate
nice
▁Supreme
band
▁serv
MP
ów
Her
▁prest
Nd

▁clicking
▁aid
合
▁Double
ourt
NonNull
▁peculiar
▁ah
▁Luis

▁deciding
)+\
obi
tokens
CM
▁cfg
ил
▁o
▁official
Id
iff
▁twenty
Cannot
irement
usta
▁message
ல
asc
▁tail
▁globe
▁imagine
iface
teen
▁your
▁Bronnen
▁adj
▁para
▁Guerra
▁Ver
▁szer
коло
▁vod
▁Meanwhile
동
dn
▁ramp
▁ан
▁Wars
кою
▁Always
rupted
▁Korea
▁including
ayer
▁flag
oubt
Disk
托
ತ
anten
启
decl
▁населення
},\
▁она
▁Sohn
gex
▁joined
▁ment
▁waren
DEC
Other
移
▁cancellation
▁poems
Reason
▁renamed
▁concentration
▁Nin
▁Мекси
▁Ге
steller
▁Roland
рий
ミ
안
▁[…]
▁stated
▁tele
socket
▁reducing
▁disput
▁designing
wb
bow
▁mism
▁drawings
ponents
▁defend
▁pace
вши
wt
iku
▁Team
▁we
<0x92>
Deleted
ostream
Sequence
▁height
ADD
HEADER
▁groups
▁seemed
ді
PRIV
▁ye
arsi
－
▁HTML
▁As
▁bien
▁Kaiser
▁substance
aram
▁targets
▁să
ensis
『
ess
"—
]{\
▁Got
▁§
」
☉
▁custom
зом
▁---
▁minister
▁Route
▁scene
▁Pierre
Dto
▁pid
Ú
hd
frastr
▁STE
▁Кар
释
ceptions
Univers
▁communicate
▁plus
▁Collection
ROM
cussion
alert
▁chips
▁published
Map
▁bright
▁gauge
▁Suppose
▁abundance
Ab
▁financial
▁encore
bres
▁filters
▁signal
},{
▁else
▁USS
indent
plaatst
▁advance
pen
▁Given
epoch
▁су
▁Saison
▁north
Bitmap
lifer
chema
aca
iously
▁vill
interface
chs
▁viable
сле
psy
opf
leaf
중
▁consistent
7
та
ues
逆
▁Used
벤
▁Dezember
gray
▁kill
ours
▁Style
Ben
▁network
▁Israel
ipa
hall
话

RL
▁Dol
ifndef
lesh
▁cabin
rip
▁homeless
utt
▁essere
▁tym
ский
▁Email
▁Dallas
ண
▁Leo
▁fils
Clear
▁algo
ի
▁unity
she
ran
▁conqu
▁Zur
arith
▁ло
▁atm
Pointer
zem
▁Super
social
oun
<0xF2>
▁heute
▁handsome
ġ
▁{},
▁Za
▁Moscow
▁Clark
▁Egyptian
ection
ación
▁ut
></
ського
:%.*
GUI
⌁
▁terms
ᴇ
▁sé
យ
batch
▁shoot
onds
▁intellect
▁Carm
fc
▁sketch
closure
рого
elm
▁era
chten
ʲ
试
▁Mult
We
ocity
▁everybody
{"
됨
ා
▁Лю
▁Brow
ysis
境
▁appreciate
문
svg
Theta
Edge
▁EXPORT
▁rest
▁Enum
)}\
Currency
▁decl
享
▁dio
ское
▁гла
ště
▁displ
▁believes
▁Sus
Warnings
Vert
Sl
ِ
▁LP
▁kiss
▁Maz
议
将
Based
loat
getName
itted
利
ört
▁everyone
▁dir
hub
▁были
▁Old
ERR
▁rac
▁Ve
▁gioc
▁Formula
▁lamp
▁Jeff
bie
▁desen
Separator
cod
mx
▁Cour
UA

"""
Tip
▁done
props
▁Так
ollen
▁Bl
ist
▁Gordon
▁gains
WM
▁ausge
▁updated
lio
▁стру
▁Barn
單
file
ád
▁Champion
long
σ
▁temperatures
▁систе
▁sentence
Save
▁arrangement
ogs
▁utilized
▁Cal
¼
zent
▁Before
▁Question
▁Одна
▁corps
録
▁uit
▁Desc
▁With
▁Reddit
▁чем
]));
Address
▁via
mul
▁reduces
ya
▁provincia
▁forg
じ
Â
volution
ungs
Request
▁Miami
spr
▁section
LECT
Drawing
▁Development
▁Kh
▁handles
▁elections
▁indeed
▁presentation
▁customer
▁passage
hyper
▁организа
▁slowed
Д
門
activ
ῆ
屋
▁toward
Warning
VD
ashington
CODE
▁Fernando
▁Ter
▁You
▁reduce
▁WAR
▁febru
▁stream
▁×
▁breakfast
unden
▁Detect
▁flaw
hent
▁Clin
▁Ever
▁enemies
▁open
▁added
Operator
▁compre
▁Obviously
feature
ation
▁imply
▁tem
umi
ych
üh
curs
backend
▁registry
河
领
rf
▁np
▁Street
riority
▁striking
arly
▁core
ounce
▁Finance
PORT
▁J
Ac
▁before
▁cell
undo
▁Ire
▁rock
▁вой
▁въ
▁coins
liv
▁res
▁apply
▁Optional
uetooth
list
ested
▁nic
▁zich
▁kit
ج
BP
zas
▁Hand
▁Jesus
第
班
bably
▁GA
▁stalk
oud
▁manufacturer
▁Colonel
▁Updated
ско
för
!=
▁Qu
ROW
▁Specific
▁matched
و
Old
token
▁septiembre
sch
THE
▁artificial
instr
▁during
pus
▁somet
▁),
▁regret
▁Imp
▁fulfill
▁outrage
▁wordt
#{
]
endl
▁ride
itsch
▁churches
дела
▁Church
called
pdf
color
▁Francis
▁developers
UX
numer
▁knees
▁compassion
▁де
Arm
▁Last
▁water
Del
uration
▁Bird
upport
▁Pen
▁defines
▁genetic
stein
DO
▁chunk
▁landscape
▁cultures
ET
▁Rate
ган
staff
▁corruption
Stat
RET
▁Mother
▁Seth
▁WARRAN
▁epis
]{
лек
▁Ruth
Management
积
ope
▁Train
ait
▁Cooper
Ṣ
TRY
▁Again
<!--
scan
zek
rypt
channel
▁mach
▁contin
Visual
▁recru
becca
EX
▁GL
VENDOR
clear
▁Historia
<0x27>
▁Viet
flush
-$
‒
▁daughter
▁Click
quality
▁champ
▁tra
prim
▁writers
ons
ebook
▁Ges
▁Service
<0x9D>
▁Each
▁solid
▁comparison
▁Staats
ourse
▁fal
▁Association
Profile
▁feeling
LOW
▁dollar
::~
UT
▁scrap
▁sigu
OUTPUT
▁energet
▁bounded
카
▁Kot
rieg
▁hospital
Sk
mb
Droid
▁Console
verify
citep
▁WHERE
issement
------
▁sophistic
▁($\
ific
▁Ludwig
▁origins
▁пара
pending
▁пер
▁OFF
▁ty
тали
▁disse
▁Sebast
undred
▁ta
▁~=
▁brew
▁later
Option
Cross
Les
▁binding
Face
▁blocked
▁society
▁});
urity
▁також
ogn
Message
▁Icon
▁vég
▁Overall
▁draft
▁stable
ie
uga
▁native
▁Sunday
nals
yrics
gal
▁ignorance
▁distinct
▁seeing
▁Liste
capacity
gather
▁Lady
▁reality
▁коман
yal
YPE
ч
geme
)=\
▁фор
riz
▁Nicole
줄
________________
ин
▁wrapped
Fixed
Success
▁HIV
▁degli
patch
V
▁members
VIDEO
▁Plan
}-\
Arch
▁най
'*
ходи
zu
▁Basket
ná
▁Eng
▁Fuß
▁nevertheless
製
Provider
▁š
▁merc
orge
▁notification
▁myst
▁doctrine
삭
oding
▁bio
own
▁|
▁opportun
▁norte
▁blessing
date
▁Hem
do
ป
▁limited
▁ainsi
íd
▁distribution
▁um
▁cargo
Ap
▁deserved
▁meat
ções
▁nou
▁RO
▁promised
▁Cambridge
CLUD
ья
▁Family
▁embedding
bey
▁Fant
្
▁Div
тив
▁stepped
utf
▁molecular
활
RATE
▁dead
router
葛
fort
WL
oney
▁Restaur
statement
▁banned
▁belly
querySelector
▁collections
▁thirteen
▁RAM
😩
▁Oxford
▁secured
络
▁Bob
▁than
▁represented
uous
('.
▁mat
▁stories
▁enable
stellung
▁marijuana
amily
▁other
▁Story
▁Cl
▁engagement
▁sacrifice
▁struggles
shift
dao
友
▁inner
cost
wd
cca
)--
▁Creates
▁radial
▁zn
-(
ropol
▁ri
▁pas
▁insisted
😭
▁cou
cean
video
oustic
▁Ak
▁magnitude
目
▁suite
stroke
避
▁–,
▁©
▁Iter
course
▁mixing
▁quoted
(__
▁extrem
▁Juan
permission
▁Bru
formance
пен
eno
▁Nav
circ
▁backed
▁ask
Look
comments
▁distinction
▁appreci
puis
uff
<0x8C>
▁Platform
бор
▁Mill
▁releasing
produ
Ignore
▁Manchester
▁appoint
");
▁Report
▁indul
orsz
▁Une
▁parc
isted
限
gr
glas
RST
Invalid
▁directors
ẓ
‟
▁motivated
창
phant
▁does
olation
▁pecul
▁ze
▁colour
▁flour
▁wish
▁Application
▁dav
画
▁See
Progress
备
eman
▁single
codes
▁searched
▁Your
▁operates
▁civilization
Pref
▁Typ
ży
packet
▁naked
logger
teenth
丰
▁witch
Num
▁loop
ynom
짜
▁sick
<0xE4>
▁chuck
▁contribution
ultan
▁rais
法
ére
smart
板
▁testim
Sm
▁тра
構
▁пе
▁qualify
▁box
pdata
▁і
▁що
政
▁Format
▁Li
▁heated
independ
▁residential
▁witnessed
▁ignorant
fa
late
▁GPS
Word
bye
aurus
dro
安
▁sull
icher
▁Array
ówn
▁спо
Collect
CPP
личи
▁wore
▁Dream
Src
▁might
Validator
▁haben
▁forehead
ern
▁tend
▁Upper
▁giugno
keeping
∗
SO
ponent
berry
»
▁hiring
né
dc
ako
▁word
")
▁Easter
份
expected
▁Dist
constant
▁Screen
once
стру
▁powered
▁Decl
迎
▁cov
▁Tut
oooo
Grid
▁GPIO
▁generate
▁grav
▁nä
▁honom
▁scen
:</
ilities
▁spend
▁time
▁wife
▁drop
▁PP
resume
qpoint
zet
▁alt
▁Roberts
风
▁Rather
帧
▁advoc
▁safe
▁shouted
cí
▁coaches
요
▁Prov
코
Anim
▁explan
▁measurement
▁également
▁currency
▁Dis
ocz
aki
▁ihrer
ね
▁Tr
▁Las
Dec
Vertex
宜
antic
]->
ém
▁откры
▁sudd
▁videos
▁debut
ollow
вой
agy
wrapper
чна
▁crossed
ittle
.**
RV
ICES
▁Iron
GI
alin
▁cmd
ft
Unmar
ienia
Walk
Њ
▁tom
ський
}}^{
фе
async
▁limiting
l
mq
▁Hoff
▁Adams
▁(!
ні
▁Stan
ط
info
fold
▁ids
iej
科
ท
▁joint
ighbor
▁учи
岩
listed
能
▁Mam
man
rass
▁please
答
sections

».
▁interesting
▁vocals
рь
▁jug
/*!
▁Cann
▁flowing
<0x22>
<0x5F>
œuvre
▁passed
▁carrying
change
дол
▁(
rez
packages
▁technically
錢
▁room
girl
▁Mono
Ḥ
险
▁Amy
▁mag
▁ownership
▁Tob
̂
擇
▁glass
Ma
tik
▁Alb
▁dal
ência
ask
▁Lis
product
▁Fin
▁Ap
Neg
▁янва
th
▁Yellow
fire
▁nutrition
IND
nan
▁judg
▁kicked
▁attend
▁restricted
▁Since
▁administrative
FIX
終
ћ
kte
▁refuge
▁"-
ях
INDEX
зі
▁License
飞
ób
▁ide
▁Cars
Credentials
▁fet
ξ
▁surv
гла
▁folks
▁Mu
shore
▁search
La
▁probe
ército
клад
▁tiene
Chart
▁Container
▁salv
▁Neb
▁saves
方
unique
▁@
▁vot
]/
ison
▁hardly
▁HD
▁Taiwan
▁ISO
ENTRY
ي
▁годи
▁sque
▁pleasant
▁CIA
▁guarantee
ೆ
emporary
team
▁opened
ň
coming
Une
ys
ilers
▁amen
?”
elligence
▁occas
Notification
illo
▁ag
▁pon
つ
월
▁SORT
▁ops
▁practicing
Scan
ipper
▁od
left
▁celle
▁Questions
医
▁Military
▁harsh
▁Without
▁bin
▁demo
▁jealous
▁adventure
iot
▁zunächst
▁length
DEFAULT
ub
▁nurses
orth
mont
xml
▁Bes
▁regularly
▁dialogue
[(
▁expressions
▁changes
▁cluster
财
▁sympathy
▁Ship
▁disorder
▁eigen
▁Media
igo
া
▁strategic
bling
▁Build
▁так
▁soup
Li
▁Fab
agonal
▁varies
forms
▁Hein
ложе
olog
▁Administr
▁weeks
ή
Found
▁priority
▁Robinson
▁collecting
》
∆
ioni
▁commence
pathy
▁Polit
פ
▁gren
tain
▁$.
DAY
inter
▁stock
▁concluded
qual
▁saw
▁Speed
AME
sty
RAY
ž
leans
ческого
aft
▁warnings
odes
arel

mass
дия
▁gli
▁Germans
▁Santiago
▁unused
removeClass
Pub
udd
▁Par
FUN
▁CONDITIONS
▁tutorial
▁clinic
first
▁stride
▁give
▁solved
ocation
▁Pakistan
plot
谷
▁blowing
dr
▁Appendix
()));
▁health
ak
▁intellectual
tcx
)^
▁debug
▁Paris
ціональ
Delay
▁funded
▁everyday
Second
generate
modal
▁Position
phabet
ល
▁assess
▁ears
arms
平
uto
ổ
▁Club
▁або
uent
▁lad
▁teaching
▁distant
▁metres
virtual
▁lease
мента
背
lemagne
▁principles
▁revolutionary
▁Commit
▁Jur
ské
minipage
▁Mol
▁micro
▁insp
Original
▁International
render
納
theless
▁invent
gener
itarian
Environment
打
order
▁pepper
anta
▁recovery
▁Geme
▁Hotel
pués
▁spiritual
/#
PB
THER
lineto
▁rice
▁cinema
Attribute
▁като
Fn
▁combat
▁versions
▁roi
til
▁Gre
bach
[
dw
emplate
▁haz
ados
▁Scre
순
ifications
PHP
▁shade
▁refriger
否
jär
ision
▁Ang
Yeah
▁rhet
▁ll
实
▁adding
ং
▁tf
rdev
itched
▁def
club
▁injection
▁anim
▁treatments
Sorry
рії
▁Bot
plant
₱
▁explain
▁Tor
istance
ceed
▁Excell
_->
▁Liberty
ள
igg
何
lation
enge
lower
▁weight
丝
Ἀ
ederal
▁British
▁carried
▁universe
▁transactions
▁ceremon
[\
isti
▁transmit
도
vo
]))
册
▁exceptional
▁stands
Deep
▁jun
▁entonces
Lean
▁Qt
ame
▁Wales
uffy
‘
▁Smith
▁Along
▁Captain
▁Schools
▁Tokyo
▁chamber
adelph
✪
▁Marian
ხ
随
▁February
▁Wednesday
ert
▁Sin
stairs
▁close
uffle
▁sometime
元
ibt
Int
unci
▁das
▁dove
▁distribut
asion
传
Domain
▁vert
▁pilots
:%.*]]
▁durch
▁пів
▁Working
љу
Sure
▁Fi
▁pollution
DTO
path
call
▁people
▁Ł
ﬁ
▁stagger
▁hall
延
вра
▁surface
≡
мии
▁Op
=_
▁progressive
▁centre
▁literally
▁trials
tocol
edy
йн
▁tête
lying
redirect
▁nouve
[$
▁hopefully
eward
anks
ong
▁Description
!_
▁zw
precated
▁bath
condition
ѕ
alloc
状
▁entered
▁exploration
▁productivity
Tex
▁nature
▁{};
Widget
▁Item
unches
▁IM
orrow
▁sacred
flex
vote
▁Bos
abs
▁Third
aqu
toLowerCase
Combo
oji
GN
www
alu
elihood
▁coefficient
▁aveva
isset
足
apache
▁Point
stan
erna
lad
角
▁elif
}$
▁rounded
材
▁stopping
▁Role
▁immediately
▁Techn
CMD
orter
▁iPhone
य
▁hated
▁Nam
revs
▁_.
styles
▁thunder
irst
▁raw
}^{-
("#
Or
▁Conference
▁probable
▁hr
▁revel
▁TD
▁bec
▁Hold
惠
▁ap
▁Anne
▁stuff
▁pipe
Snapshot
ere
▁années
▁erhielt
▁volunt
▁bra
▁Year
▁mari
▁New
▁Chem
帐
****
▁suddenly
▁Hij
othy
▁)
Payment
▁personality
endent
TestCase
Error
▁sensation
庫
▁observer
▁synchronized
▁major
▁encuentra
▁deb
ская
Migration
▁crown
▁Singapore
▁early
▁Tex
▁forms
ible
概
isk
▁MIN
▁swung
ър
"].
团
predict
▁stolen
▁sports
▁primer
▁sore
Selector
tcp
♂
▁besides
▁secre
▁dedic
ض
▁UN
▁Robert
дом
FIL
plied
ted
áj
▁Boh
ء
abile
quad
▁depth
зова
▁mandatory
წ
esis
쪽
▁develop
▁Kn
კ
▁Priv
athol
▁permission
Bool
copyright
▁destroying
▁stadium
▁Silver
▁affect
uilder
▁knock
▁fib
related
百
PUT
∂
▁cher
▁aren
▁instructions
ty
▁бо
▁wis
▁Abd
arator
▁că
arrow
▁finite
▁Ple
ismo
aughter
▁swim
links
↩
词
▁individual
dated
tx
scriptions
▁También
▁Eye
чний
сно
贴
âtre
▁Yet
ческих
ộ
普
▁extens
теля
▁pentru
▁Casino
▁lasted
▁drama
▁determination
▁dil
▁inde
Measure
▁rhythm
▁therapist
url
▁CT
▁-=
▁seasons
▁Personal
▁Widget
ą
▁là
};
▁Origin
▁Published
break
nom
eder
da
▁site
數
atting
IBUT
▁industrial
▁bul
owy
▁Pra
▁mint
▁Name
ten
Margin
kal
▁contempl
sources
':
bag
▁integrated
▁convinced
Toolbar
▁Freedom
▁Lé
CB
▁outstanding
🔥
量
angular
обра
route
▁дол
▁selbst
▁ACTION
å
▁tools
▁agreements
▁Town
don
WT
metric
};
LC
▁aimed
▁varied
▁slides
ugh
▁sop
pathetic
▁Wild
Introduction
▁German
▁Lau
▁voy
▁ад
lands
▁cout
IA
▁merged
ional
ів
awt
▁blue
▁pied
▁preparing
Enumerable
пра
▁($
ffen
нием
▁wondered
▁Egypt
행
earch
▁How
▁invol
▁Kab
▁Furthermore
▁had
▁Vector
folio
pg
▁ell
▁lett
▁illustr
){
▁Mann
▁Resources
▁contact
яв
що
OG
س
▁Look
▁Я
är
▁Matt
<0xF1>
▁constr
ід
ération
分
<0x7E>
otic
ными
▁segments
▁sp
You
▁Nation
假
▁establish
追
inda
Instance
redu
Exception
▁wasn
osh
▁plac
omi
)',
}}
▁John
▁MS
▁образова
▁brutal
ped
▁reject
pf
▁counting
▁beliefs
Off
connected
▁retain
▁never
ules
CU
غ
HI
ního
옵
▁avec
ют
▁ber
▁catal
Stage
Cut
refix
abase
▁Wr
▁Later
BS
нут
▁legislation
▁mysql
itute
ijn
▁Nether
amas
▁havet
ancing
iko
▁AUTH
íl
▁pad
▁Romans
կ
▁stove
▁réal
师
▁defens
LP
▁adults
Paths
▁Version
▁hundreds
▁Tamb
▁ignored
▁nine
inger
▁Но
Fl
▁Fa
Push
▁transmission
.]
emi
Conne
onne
Compare
▁Korean
雅
…]
▁});
▁|=
gui
Protocol
▁não
run
▁CNN
▁obj
物
▁Bo
▁natural
ícul
😏
▁progress
side
isher
▁wor
术
cow
▁фо
ked
▁Lam
gg
▁den
вое
▁Other
돌
Database
▁revenge
▁incent
▁sustainable
豆
▁mouse
yect
巨
nehmen
▁Up
ју
▁air
forward
▁includ
'
illy
▁families
anton
梦
gt
虚
▁Devel
inher
ւ
re
▁belt
ota
▁Mais
▁Related
BE
▁driven
gs
▁effects
▁fund
▁notamment
▁Number
вля
ei
ile
tuple
φ
wik
rar
▁trade
роб
▁bronze
why
▁mong
▁wheat
rav
雷
cembre
vised
▁spring
eres
▁ander
ֶ
▁вы
▁Innov
▁across
▁destac
무
▁toes
▁STAT
▁**"
▁mount
ные
´
WO
elect
▁theory
estival
▁flowers
▁Seven
▁suited
▁lengths
gged
ahren
▁achie
▁Visit
imp
Union
▁Hindu
▁concerning
heit
พ
itel
▁Anyone
stood
▁Austin
▁Cit
▁remember
李
変
}}}
▁opening
▁souvent
應
мени
plicate
xe
▁({
iejsc
displaystyle
jj
prit
▁coding
▁tray
▁Deputy
開
▁cache
Method
uzz
Apply
▁DES
caps
ilarly
▁Five
▁functional
▁mother
iglia
▁domain
ografía
▁rescue
▁Cool
▁voters
▁notebook
▁ident
▁crucial
▁lag
▁Asia
▁cit
<0xAA>
▁vo
ICATION
▁ме
▁li
Body
ден
▁Blues
င
▁Dest
▁bild
mathscr
白
Ad
▁narr
初
▁authority
operation
▁impossible
剑
點
stage
tar
here
зно
▁meer
().
pragma
▁Noah
금
▁Track
▁between
щен
oni
ependant
junit
麻
▁ville
NOT
qt
▁fitting
▁Turkish
lage
▁invention
)
可
device
▁Rhe
▁Aaron
ters
ynam
▁inserted
compar
▁serves
▁Appe
{{
段
reate
Scalar
atan
▁Pacific
▁vu
settings
들
▁Après
ью
vre
▁fort
▁students
NAME
ATOR
▁clone
▁Brigade
gnu
umbing
Dot
Op
▁typing
ISH
ateur
utes
QUE
▁coup
▁inf
add
▁determin
aude
▁nie
▁committed
▁stamp
▁viagra
▁quelques
ishes
▁western
▁adoles
arks
▁tou
▁citiz
<0x36>
election
▁fed
▁Clear
▁fing
tests
ugin
級
limits
▁relaxation
▁awesome
seq
friend
▁все
▁*
unkt
▁llam
▁buried
▁folder
inian
▁retro
▁Hawai
▁mini
▁agriculture
afi
▁filename
解
fact
▁GNU
се
']))
▁одна
▁Jed
usb
근
▁Ari
▁McG
ographie
▁Maryland
▁magnific
avirus
▁hallway
-)
setup
▁ML
ientes
▁коро
Ir
▁inspire
izia
▁Currently
<0xDC>
oop
▁Entity
rides
ө
▁Instance
▁individually
▁income
Codes
イ
▁strong
▁jail
▁architect
▁ja
▁figured
▁remind
nos
runner
pawn
▁represents
mus
👀
VED
anc
buffer
lav
▁franch
▁dump
▁aim
▁monster
▁Titel
bitmap
▁disorders
實
▁cells
▁lake
▁Quebec
른
▁shifted
Built
▁formats
▁Jewish
▁Disney
ships
▁Caribbean
▁Say
amba
OB
oring
▁accompan
▁Chelsea
enu
▁Enc
USH
vention
monitor
▁stor
вого
▁скла
立
▁rece
attr
abel
iente
Dao
▁shaped
amy
脑
Connect
▁Bast
▁lighter
Google
ting
ited
stride
itime
▁quer
函
▁League
▁gmin
▁holidays
간
▁legendary
itors
▁According
▁YouTube
olved
氏
zoom
▁Valent
_{\
▁citt
PROTO
▁notify
mouth
▁couples
▁happy
▁мира
▁comun
▁stam
▁Death
▁Wells
▁wives
▁е
Locked
▁intensity
ANG
Hy
▁knowledge
▁în
join
▁bits
specially
▁reserves
▁acid
л
Super
develop
▁ü
▁cage
▁Russian
ari
▁scripts
▁discover
▁pretend
<0x5D>
fol
▁Hamilton
▁hem
형
London
▁?>
oint
<0xDE>
emony
PATH
▁descend
▁liv
▁Esta
▁neighbors
▁Les
[])
]<
与
▁sweat
wal
▁tram
▁rolling
▁bearing
ку
▁courage
ativa
▁slice
uding
kem
▁abril
变
Ñ
▁credits
▁idle
▁thinks
Ф
orneys
jk
精
()]
▁Jin
how
로
▁complete
wed
UC
essage
}\\
Consumer
▁House
▁scr
▁acceler
▁responded
▁hurried
ầ
裝
routing
또
érieur
▁cous
▁rope
▁parent
ti
insn
alf
▁regulatory
вати
▁qui
換
♯
amped
олові
隐
rek
asket
fortun
▁†
▁Manuel
▁fist
names
гор
▁Sergeant
Station
<0x53>
▁continuously
▁path
▁confidential
ENTIAL
REC
nels
▁Theme
▁sys
▁disability
ვ
ниц
▁elf
π
hdr
▁Buck
▁го
MAX
oter
mu
insula
vl
▁Italian
Dialog
assador
▁mascul
▁Williams
▁kept
▁scroll
借
gue
▁Historical
▁dam
▁Jose
▁Wis
▁Wasser
atern
рович
-
▁files
▁delete
сите
<0xDF>
License
▁produ
▁convers
▁Meg
live
oks
▁receive
对
▁philosoph
umm
▁mb
▁plaats
iros
▁Vers
jud
ody
project
▁narrative
▁aging
uo
▁sensors
aza
▁","
<0x6E>
вича
▁compon
▁absolutely
door
▁invasion
▁zijn
▁Seit
ỹ
kernel
stra
省
▁defense
▁sometimes
▁stom
keyword
▁departments
Arrays
Lin
▁convince
idge
▁Hig
eree
rivial
Blue
Locale
▁proceedings
▁представ
▁bleeding
▁potential
”.
ɕ
iteral
▁anytime
无
aux
▁Geschichte
▁entries
▁owners
ceptor
{}{
▁turn
▁rid
▁Mean
▁handled
ternal
▁faded
pin
pick
贵
idden
orsch
lete
aats
▁▁▁▁▁▁▁▁▁▁▁▁▁
▁jar
may
▁Outside
▁unters
CT
▁himself
▁style
▁equip
供
▁Senior
▁presidente
TRA
refresh
auch
▁country
▁сент
▁inflation
▁awk
itle
ael
▁Stevens
UMN
▁tie
▁souls
▁support
▁Song
▁Bun
补
diff
▁animation
▁gir
▁employees
▁instanceof
ident
handed
patient
efe
smithy
▁curve
iele
imb
hash
▁dull
▁Liv
框
味
▁ital
ags
▁Š
KE
▁Everyone
▁disease
▁Andre
▁brit
ellschaft
▁Char
▁iron
Shader
Av
▁Moon
%%
▁algebra
entity
ghan
τ
pa
▁graph
pan
world
津
trace
戦
▁poco
▁;
▁client
testing
▁MIT
▁Feel
ride
<0x62>
▁sends
▁page
▁Province
▁sobre
acions
▁gate
日
▁Lil
▁purchasing
▁ep
▁bent
▁form
▁exposed
@@
ITY
ść
ъл
▁Ot
▁laundry
album
Checked
rade
▁Virginia
兄
▁craw
▁Mack
由
▁Ste
gens
▁increased
▁antes
isc
▁ridic
▁lemon
onial
inand
검
alion
▁appreciation
xit
▁Gil
ips
▁actor
▁Swiss
<|pad_0|>
▁meal
ⵏ
etheless
▁argc
Air
clock
ing
▁cor
▁kitchen
OF
Abstract
controls
ٱ
.'"
▁virtually
repo
▁wand
▁dai
▁implies
▁Lond
Config
aml
▁contemporary
ҳ
▁sub
endment
ton
▁mond
itis
南
enders
赛
offs
▁ihm
sted
polation
▁ladder
<0xCA>
▁vintage
Version
▁Compar
▁facil
ASE
ast
▁objet
▁Chief
ペ
obal
▁continuous
PROC
▁dispon
▁employee
F
肉
rayed
ể
ो
宮
▁Charl
oded
▁toString
▁Vol
기
▁Nep
[_
atched
▁tongue
▁having
▁ecc
j
ources
▁mob
older
ръ
▁creating
▁Full
▁correl
Decode
間
finish
▁beyond
d
▁Sm
Slider
lyn
▁Melbourne
rio
▁attrs
atu
▁accurately
↵
uity
----------------
▁Something
▁medicine
▁FOR
ografia
ocom
ị
▁praised
au
▁spec
complex
▁sung
alias
▁homem
▁schools
▁able
▁Dav
attice
▁boundaries
richt
Shadow
Stack
▁thesis
Promise
ceive
êm
▁commanded
ior
кс
免
▁equally
▁cm
))
internal
{$\
▁sadly
abil
▁авгу
▁Ah
iterator
▁toute
▁laund
▁place
▁Send
chair
ashion
▁especial
Mark
agles
ime
▁franchise
▁бри
UTC
▁Wend
▁resume
WP
串
since
▁letting
▁успе
▁alla
чения
▁deren
▁innovation
▁portrait
▁Band
INE
de
▁mús
ADC
▁aws
▁gest
owany
nost
Ass
▁beneath
▁floor
▁imper
tera
▁ultra
▁Execut
override
▁Columb
▁convicted
################
▁chall
▁Historic
Missing
oned
agger
ové
вання
▁featured
uge
▁lista
▁placed
roke
▁Model
▁enthusi
▁editor
▁pré
kamp
▁bite
▁dignity
ose
▁horses
▁cant
Wallet
▁Stop
▁curt
ONG
▁compliment
lem
关
ancial
DS
short
▁dumb
▁Emily
engu
▁Никола
oric
($_
▁G
棋
▁vertices
SER
▁cater
\%
ousing
unning
▁лу
▁fünf
bol
▁gruppo
Х
▁ба
▁exciting
▁shoe
Position
▁Ми
DA
▁Major
ieve
зво
▁hood
▁companies
▁FC
.(
▁hitting
acl
geometry
▁aged
▁extend
agnostic
拥
▁ME
▁importance
▁online
Sn
▁withd
范
oden
OBJECT
▁constitutional
bum
গ
▁impressed
▁magn
▁Lip
EVENT
▁sever
rab
▁Political
▁sufficiently
ji
owner
три
됩
▁mountain
Xamarin
asz
clip
▁questa
series
iedad
▁The
▁wings
zen
▁Welt
Õ
▁knows
▁Java
▁debate
ClassName
orney
▁photograph
▁cord
Culture
nt
ironment
RES
▁ran
▁excuse
▁стар
▁Sol
秋
parency
▁specialists
،
▁environ
▁ek
▁games
ILED
장
C
lbl
iron
Ľ
▁dict
▁advise
▁promising
▁isn
argo
▁descent
BT
▁Return
▁champions
▁Helen
▁después
έ
▁configured
▁Чер
▁compens
ब
▁began
▁legis
▁shelter
▁being
AAAAAAAA
рю
▁switch
▁¿
▁Papa
洲
▁rev
▁Ten
▁Among
space
▁supp
NI
nar
▁drinks
lif
▁During
▁Pri
▁caracter
▁lie
▁simultane
Download
ik
icol
▁tone
Size
▁chat
tensor
▁council
arding
▁vál
iaz
▁Base
▁field
rup
flat
`,
▁negotiations
ifi
▁Pink
static
<0xC2>
▁evolution
ribly
▁padre
▁Па
▁loves
▁Bart
Can
▁detector
Time
▁Sof
▁Lost
TON
▁Thanks
)}(
Normal
▁von
▁scores
▁constitution
ት
▁records
ATURE
lg
▁$('#
sam
WIDTH
ུ
▁molto
▁basis
());
suspend
▁kinda
▁Ny
▁Near
▁Mov
▁staring
theorem
otte
atically
▁/**
▁Office
▁optical
ев
▁Font
")));
▁announcement
ntil
SEL
▁Хо
ications
▁Rober
▁emotionally
▁Prior
voir
▁engineer
acters
▁Nevertheless
<0x3E>
▁persu
▁burned
<0xC0>
▁Населення
ά
(\
▁weren
position
▁ay
oids
▁beans
▁established
APTER
ND
福
디
▁Arist
Intern
abort
▁о
▁#!/
ll
apol
GF
▁chocolate
▁financing
▁mismo
▁down
▁peaceful
▁incidents
omed
▁olive
▁Abs
▁creep
治
▁brings
Invoke
imgur
▁fly
▁'';
▁requirements
cloud
sil
▁sage
▁languages
▁Present
▁соста
oft
▁Tok
Scale
Compiler
aglia
¶
orum
Generated
구
▁porque
▁tours
포
▁italiano
▁statement
▁emphasis
ają
print
▁eq
▁petit
verb
▁seg
?"
▁Check
▁VI
▁Scottish
dup
All
▁rates
严
▁jobs
▁accommodate
▁coll
extr
нова
▁hal
intage
▁diffusion
▁enables
azed
▁obey
▁Option
Na
▁stand
▁twist
ță
,_
тно
Lines
▁squ
mutable
▁mig
▁datasets
config
▁extraordinary
▁pred
IX
등
ILITY
óz
nown
▁twelve
▁mobile
iddleware
HOME
qq
▁stair
▁Sü
▁memo
▁Anal
▁relig
Primitive
▁extension
▁correct
▁entering
▁seats
ም
ṅ
▁Pick
ugno
inale
▁junk
▁Geb
▁genre
Menu
▁isolated
▁glanced
▁injured
▁Little
EP
▁ear
etics
rollers
}$.
▁appointed
ctor
ivos
cou
▁consistency
影
dar
▁Nom
inted
fl
▁scenario
绝
▁intim
▁cart
▁widget

▁matching
▁Want
▁этого
▁app
▁comfortable
stract
лет
itled
▁террито
▁dialect
▁success
▁dozens
abases
idelines
▁pract
▁tö
;/
▁National
ickets
icas
▁Spring
▁var
▁These
STREAM
Number
服
▁Switzerland
◆
Inv
nd
▁Ан
▁readily
Dem
▁stranger
▁rights
▁tout
▁explosion
▁pursue
հ
▁circulation
questa
HO
disabled
andal
@
Emit
ando
REQUEST
乡
anges
▁Returns
▁Can
▁['
OUT
▁uncomfort
▁genom
모
儿
Û
ember
odd
▁any
▁Social
▁entities
▁decomposition
節
▁legend
)}
讲
VEL
ßen
▁im
▁murmured
▁È
▁hij
variables
▁må
插
<0x15>
许
▁Dop
сси
▁developed
ution
inate
▁demon
idade
▁kr
rière
▁charge
贝
▁memories
️
клю
🤡
ktr
▁USD
해
aven
ify
icht
▁Case
▁blinked
▁juillet
„
▁policies
ху
▁anime
MS
▁depressed
тов
▁District
irect
▁flip
minute
▁Bio
▁supports
▁SW
▁Windows
▁Age
▁три
▁Peg
roc
▁Navy
▁Collections
录
orn
▁worn
▁propaganda
▁“
email
bia
nego
散
▁out
▁wood
тел
contains
STAT
▁firing
希
impse
早
▁similar
Codec
▁fluctuations
▁moment
▁brand
browser
▁V
▁BIT
ensus
▁conflict
▁Sav
exp
Translation
▁Manufact
▁neck
▁bench
▁introduced
r
▁bub
▁different
▁spouse
hest
ASH
ého
▁Driver
▁gather
▁nucle
rom
▁pseud
▁Jour
neo
链
▁East
▁dark
Api
▁broad
▁Cop
▁belief
▁coffee
▁ongoing
▁qu
olare
▁cél
ов
▁toget
▁penis
▁Different
NotFound
▁Haven
▁steal
ocus
▁who
▁buzz
▁WR
▁nons
icer
▁Beth
Lock
iveau
將
Column
▁allies
yme
▁educated
▁Liga
▁horror
▁pressing
directory
▁iv
다
▁historical
веде
▁top
▁onto
결
istro
越
▁Vo
Spring
REQ
▁vor
▁Cab
getElementById
ceiver
ча
<0x49>
▁sin
▁Sing
▁attack
▁buildings
▁nag
▁allerg
▁cruise
▁doing
▁css
▁participants
▁opportunities
▁activation
istribute
ru
CREATE
ategy
ster
▁logical
вых
못
▁projects
▁protagon
хо
▁Private
▁vac
▁consulting
ün
▁Rad
Ber
ł
icit
Nullable
▁ent
hip
week
았
AspNetCore
.;
ativity
Weight
п
▁adds
▁sap
title
▁escrit
arget
>@
▁mush
▁picture
tv
ным
▁attractive
>"
▁recipe
▁excitement
SAMP
扣
▁fol
▁container
最
Proc
▁компа
▁seeks
▁triangle
▁gegen
▁prepar
静
▁replied
▁Institut
▁chem
<0x10>
▁mt
码
oor
▁colon
▁output
▁Jacob
▁changed
▁Relig
▁twice
▁\,
GET
Icon
▁Corn
addle
imedia
▁mondiale
aría
efficient
첫
▁também
▁conf
▁caller
udo
back
▁Learn
▁blast
▁membres
▁Rodr
▁k
▁spo
▁surroundings
omic
奇
▁drug
▁tecn
永
▁[],
▁amounts
pher
*;
础
emy
cq
▁Sv
USE
▁Spirit
看
．
subfigure
▁Ven
▁control
▁Som
잘
▁suffered
▁sacrific
🙌
"):
▁its
coll
▁scan
▁struggling
uce
му
▁rubber
▁Famil
urbed
▁rain
constraint
к
վ
通
▁choose
AND
▁Generate
▁ers
amb
▁lifetime
Intent
▁le
DRV
▁cousin
attribute
▁beard
▁že
hour
кон
▁experiments
▁Kum
▁Let
wc
"?
▁télé
▁Store
por
▁Imm
▁ter
▁delicate
acing
▁desktop
министратив
▁walk
ะ
кла
atom
oline
▁px
▁variance
ovan
cular
ція
perm
gamma
änger
▁wal
▁Life
▁је
anno
UV
sterreich
當
▁#{
ores
▁general
FO
rieve
Press
▁Justice
▁Ts
PARAMETER
Parts
ừ
▁approximate
olute
ichten
pite
TAG
jav
>{
▁rage
)>
isión
▁insight
ভ
▁"--
▁налази
▁route
__)
▁czas
Light
값
ฐ
▁WH
ubern
▁loading
Gl
▁Cav
▁Биография
▁*=
ijk
▁/***/
屏
itta
▁Cr
erde
O
ITEM
ֵ
▁!==
Owner
▁bunk
▁preval
▁industry
веро
▁sticks
▁propag
▁Produ
▁las
▁cush
▁terrified
속
▁sidewalk
etr
ato
igue
▁Lars
inet
Millis
{-
нами
▁willing
builtin
CONT
▁Ay
ţ
역
▁wild
лко
▁Über
Container
▁fish
platform
▁Sql
oning
ubl
▁ab
ILL
▁hub
irling
▁herman
▁institut
cir
▁prevent
▁explode
▁completed
▁Cin
sor
▁${
▁recurs
▁raised
导
▁accident
▁Franco
▁proof
Cor
▁paying
member
▁Whenever
▁attached
CSS
▁decades
场
panic
GA
chr
▁сту
▁compilation
▁україн
▁fres
🚀
优
▁Ма
py
strings
ί
мен
éric
jel
OPTION
▁configuration
Builder
ében
goto
olding
▁Denver
ють
▁Rank
▁Human
▁più
▁Pictures
▁Inter
▁rules
p
https
него
:'
GER
ahoo
num
▁Roh
▁ot
▁suppliers
fail
▁Univers
ئ
ロ
▁mai
tek
같
Ó
▁Sk
Grad
signed
▁Mount
▁<<
๏
▁opinions
ститу
們
▁warmth
isco
▁Time
ature
▁porn
▁Che
▁Movement
backs
ort
razy
▁acted
격
skim
swing
Catalog
約
Sys
岡
Err
▁▁▁▁▁▁▁▁▁▁▁
▁Orts
快
{$
ju
▁sow
ональ
▁curl
ider
吧
igious
CAST
▁std
▁Linda
▁Ty
便
zip
ée
ylon
▁CONTRACT
AP
▁range
▁museum
▁Is
▁famille
▁byla
mv
ma
sprintf
Feed
▁Parl
̥
▁argued
▁Á
▁Hall
xF
iom
지
▁public
▁timeout
icio
购
▁However
▁Born
▁Queens
▁Manhattan
▁Safe
не
imal
▁segundo
▁phones
▁geme
▁Horn
▁background
ateg
▁returning
▁Lub
▁Gallery
IF
DBG
▁ant
▁transm
uve
▁Fried
rer
▁transformation
▁Byte
Cal
▁UE
▁forgive
enes
▁első
機
庭
▁ста
▁suggesting
дер
azu
▁rb
ств
▁was
serv
default
▁telephone
▁Ms
▁tex
▁bland
ributes
eless
бре
▁México
reload
ристо
办
ých
▁це
ි
img
isArray
rell
uffer
▁confirmation
пей
WA
rin
(:
原
ʰ
▁konnte
ит
Own
▁sexy
learning
Ι
()
óg
▁sob
▁alloc
▁Bat
╔
▁occurred
cmp
▁\;
▁bride
javax
ising
绑
▁velocity
▁divine
key
▁pes
▁procedures
🤔
▁bloody
▁Hel
ה
▁notation
▁suspension
mate
▁Jahren
imiento
▁evt
ele
cial
aimed
բ
ց
▁ras
yc
▁lip
อ
顺
▁beside
extend
Partition
ched
▁excess
▁fav
ial
▁rob
¿
▁chip
▁einer
Organ
▁фев
▁Como
▁estar
▁degener
▁Sul
vier
itize
类
estic
▁design
process
▁Every
▁care
▁rep
▁program
*),
▁"./
▁Matthew
▁horizon
▁moon
▁Вла
▁coastal
ợ
▁inject
▁contrad
效
▁biological
▁Aqu
$(
ities
▁Universal
▁ST
▁WITH
▁radar
▁sensible
▁Internet
▁infrastructure
▁▁▁▁▁▁▁▁
▁Internal
▁metall
▁randomly
RANGE
endor
lj
▁balcon
ocy
,\,\
▁negl
sigma
愛
▁Hur
▁Mobile
▁Vern
▁afraid
rium
튼
▁port
ख
Make
▁Also
▁Gro
▁Capital
me
adores
▁earn
▁Nah
네
립
icrosoft
apes
▁babies
▁Settings
▁dating
BOX
Cop
ղ
roupe
▁поло
宫
protobuf
▁fifty
▁owe
ד
低
▁tightly
吗
▁setting
ција
템
▁stocks
▁Zealand
▁witnesses
▁related
)[
ски
*
prés
▁sophisticated
z
ces
▁vendor
▁Mediterranean
我

xc
Power
▁round
iginal
▁mere
☺
▁treating
▁symptoms
▁creativity
ниче
▁worst
▁quart
▁imaginary
anced
kw
osoph
▁SOFTWARE
!");
elly
mag
▁impl
ighter
appe
ieme
olk
atalog
▁Rain
▁crop
feat
King
▁implemented
▁US
▁grad
▁hardware
▁Length
▁normalized
ikh
iar
▁Peters
▁E
empt
EF
▁researchers
avity
assembly
▁ul
ategories
▁ки
izes
▁breed
▁(((
▁minist
▁associations
神
widet
not
▁atmosphere
▁camb
▁christ
▁Molly
━
ску
▁cricket
));
loader
▁taught
<
▁совет
▁spat
administr
予
▁murder
▁payload
▁skb
▁center
▁delayed
▁schedul
▁advantages
▁About
That
▁football
風
▁vend
VL
season
▁BE
▁Kind
USED
▁add
wig
ou
▁Mem
▁perhaps
și
yan
▁interact
▁yourself
▁Lane
▁embarrassed
äs
force
▁Sad
Where
mons
▁Chron
source
▁animated
ech
▁circuit
ord
zahl
▁repet
▁space
▁attachment
бер
▁Kids
Callback
uti
常
統
onical
respond
Clock
EQ
▁questioning
▁[
▁Pool
View
▁cooperation
个
▁abort
것
▁commune
▁resolution
{'
▁Saudi
FLOAT
▁experiment
▁list
ismiss
coin
▁sour
")
▁Everything
▁као
Keyword
▁Princess
anted
Cache
城
▁{{
Hom
▁behav
▁assertEquals
▁hw
que
ough
▁Dragon
▁dispar
VI
ification
ép
because
▁мат
aya
▁Вер
₹
oz
▁Ern
む
▁th
▁seas
▁factor
++;
aws
▁uso
elia
ำ
▁registr
riev
▁pregnant
cticut
analysis
ifference
sequ
ေ
unn
▁weapons
▁resting
详
▁approaches
Cluster
ggreg
▁Bahn
▁variety
▁loader
▁config
▁Ord
WER
▁не
▁previous
})
▁Country
State
▁mapped
erei
Man
qa
▁drunk
▁nerv
▁candy
istas
ших
평
tenance
isten
▁consent
sylvania
▁Runtime
▁pants
▁file
▁zap
▁peoples
합
推
Units
库
融
%%%%%%%%
▁Greek
▁joy
warning
inburgh
▁permanently
iders
▁pont
▁whist
▁houses
ս
▁David
astic
象
▁bzw
vi
restore
odot
松
Interval
戶
SA
ATH
href
▁punt
▁scientist
Condition
<0xEF>
self
▁High
▁choice
▁divisions

name
▁selection
▁rend
printf
▁'../../
oki
▁flights
ǎ
▁пи
面
▁dirig
oyal
aping
integer
▁Performance
▁Those
▁ва
ouri
▁maxim
▁manage
').
malloc
▁bullshit
▁Ira
▁settings
▁silently
emperaturen
rera
▁Kr
▁advis
▁killed
vin
jet
pace
▁comport
▁equals
▁perfectly
组
▁Naj
▁основ
▁riding
▁trois
▁engineers
>{@
}=\
▁Louise
стов
▁Challenge
▁две
▁Lou
rend
Section
POINT
▁marks
OS
memcpy
▁осо
f
tf
igs
har
▁GFP
▁strang
▁pass
SS
▁nearest
ivel
▁guests
hba
May
▁trad
▁plt
▁Ster
▁finns
PP
▁Alt
▁displays
▁Budd
_*
mitt
audio
▁DL
▁Heritage
Down
amazonaws
until
Listeners
#[
▁Front
轩
▁Past
rugu
iac
naissance
’,
极
▁rele
▁gras
▁gleich
▁marketing
jax
AD
erta
)&
▁alg
▁Wahl
▁ла
oken
▁logger
▁drew
▁Broadway
▁Dar
▁Content
Executor
▁niveau
▁patent
▁Officer
zy
▁staying
▁global
anca
▁expend
국
lique
serve
▁coin
▁Todd
▁mod
nergy
mine
shadow
水
▁Pur
bild
цер
▁já
▁employer
Cam
「
▁puis
▁tested
agle
ité
▁elder
▁lawyers
walk
▁colonial
Watch
tick
roz
▁touch
custom
avi
umper
▁Barr
▁eff
▁winners
sleep
Comm
▁appetite
”,
ät
▁Exception
template
▁seq
BUS
▁screening
approx
prepare
Unique
asets
▁Гу
▁thrown
App
▁alors
edges
▁within
mask
▁artists
▁FBI
end
capture
▁rural
Sync
▁hour
铁
▁representations
住
mm
▁nodded
▁recur
▁Hav
急
▁Heinrich
▁astr
asto
by
▁Off
▁films
▁became
▁overhead
Ke
Extract
toString
▁Circle
storage
lings
getClass
▁czę
▁verschied
=$(
カ
OP
▁mour
入
▁кни
▁anten
▁terra
este
ŭ
UST
域
▁finger
poss
▁political
▁rever
єю
strlen
Vec
ission
▁handed
unt
▁take
▁wieder
鬼
zie
▁sniff
▁swap
⁄
Eq
ре
▁Juli
▁hid
▁shitty
recht
▁tries
summary
MAT
▁pero
▁Nations
▁Token
make
iment
ћи
ra
Ą
üg
▁Logan
ɔ
cancel
▁Re
Aff
▁rude
INTER
();
▁stub
ế
brief
Cloud
▁would
▁Das
▁Corpor
▁unhappy
▁sharing
iative
especially
碼
▁tradition
▁flash
▁physically
▁creation
Bus
logs
▁summary
▁poder
▁día
ERE
▁encouraged
▁Eva
▁ink
货
▁posted
rios
av
ieri
▁found
句
resource
Player
▁bullet
lie
▁McDonald
ḩ
?'
deleted
▁associ
anco
acci
сько
▁Girl
▁rental
▁directions
▁év
▁Iv
TC
▁therap
¹
红
▁Government
▁independent
opath
త
▁PA
钮
factory
▁susp
▁genuinely
▁Все
▁Rol
▁Transport
equiv
▁fost
again
简
▁DEFAULT
»,
слі
▁Entry
iesa
Ї
unct
ange
▁crew
kel
▁Pu
stances
rees
▁thr
불
▁LED
▁boost
▁поль
▁Margaret
password
etc
bone
ња
át
elte
rente
▁Memory
pires
▁new
▁изда
▁spect
}_{
▁gotta
▁madre
pul
▁dread
▁eine
ross
Rect
让
ij
={
▁sway
▁copy
За
▁loro
▁objective
▁kat
(-
▁begann
▁notes
亮
姓
▁Merc
fif
▁Regular
്
▁Less
▁Ton
す
ror
estr
ORM
▁Lauren
担
зя
▁truly
▁Arg
女
▁Use
oo
▁Minister
fre
$,
set
▁Having
Next
▁fence
▁film
initialize
▁kne
說
Labels
▁dial
iii
varphi
imary
▁))
▁alignment
bere
및
▁полу
▁holiday
▁Vis
avia
ffff
▁хи
cat
▁Baltimore
printStackTrace
eria
irlines
ų
▁Follow
notes
feed
ither
▁samples
▁bool
area
▁privile
Quant
halten
wich
icts
▁autres
VOL
terday
▁Harris
▁tw
walt
dropdown
đ
▁vars
▁архи
▁så
tab
cor
▁ersten
ు
ivot
yst
▁Resource
▁discount
▁ле
National
)}_{
▁coinc
\":
▁housing
▁Stewart
용
ió
▁desk
hdd
▁familia
getOperand
EAR
▁vent
▁slope
▁warned
era
▁Ori
ilty
慢
ค
▁Here
▁$|\
▁uw
Dom
iral
shop
▁diese
indi
orp
▁metal
▁sab
extract
▁dtype
▁####
▁Championship
Your
▁sink
颜
}\,\
子
ַ
▁forgot
▁−
▁Perhaps
▁category
▁meas
зыва
rics
air
indexOf
▁although
lando
▁coaching
demo
▁Irish
spieler
unts
覆
▁polic
many
fg
USER
▁beach
▁Sort
xFF
▁character
▁thous
erie
▁retreat
▁hans
▁janu
ichtet
▁Between
nodes
ции
rency
▁Mittel
н
▁Est
▁Condition
▁resigned
▁bothered
adora
nm
▁networking
<0xE7>
▁Dow
长
warz
}(\
akter
ander
▁decisions
▁convent
▁consequ
▁Con
immer
▁every
Guard
▁gau
app
лась
▁Malaysia
▁courtesy
▁x
Vari
▁місце
wing
▁inequality
▁Quinn
热
▁'
▁isol
does
唐
抽
ថ
';
▁Stre
▁beginning
▁opp
▁abstract
▁Bere
!*
ヘ
▁Nigeria
▁point
chem
ASS
▁Rap
≥
ũ
▁''
伤
結
api
ival
▁rib
▁efter
lookup
▁mobil
생
▁selfish
verse
Med
▁irrit
▁weekly
verted
▁widely
▁eggs
▁pile
▁recognition
▁Freud
▁anys
말
wire
▁vehicle
cd
▁ord
uminate
▁reach
cast
▁represent
▁answers
▁thé
▁restriction
▁Grace
▁mens
ရ
мира
▁stepping
liga
▁boxes
▁potentially
sta
▁fire
ije
izable
ype
▁preserved
▁endorse
clusive
igkeit
▁favorites
q
循
▁cir
ailability
▁Status
▁nut
▁house
rench
▁Alex
<0x64>
▁affair
izontal
Static
uru
▁Griff

▁incl
Platform
enen
ზ
▁Points
scriber
▁aut
▁enthusiasm
Plugin
▁wear
él
▁mathematical
▁identifying
▁Jun
<>
傳
▁logs
widget
rito
▁monde
▁tires
▁Aur
ite
pez
▁Edition
onna
elfare
▁Parameter
▁conspiracy
▁Ker
▁corn
▁ign
ấ
▁chi
PASS
avg
▁economics
▁hist
rase
▁wurde
佐
▁geld
羅
rale
kat
▁Rice
च
php
html
bler
▁Urs
HERE
▁Illegal
▁Chall
ced
'=>
ore
▁Foreign
,{\
桥
ֹ
▁gran
▁IP
▁Pic
bits
has
olate
rif
▁Tree
▁feeding
onden
▁community
▁Cub
▁val
▁darkness
점
icator
Azure
▁environments
▁SHALL
▁vendors
▁jeho
▁worse
硬
ava
<0x0C>
wallet
▁draws
▁fals
▁Ag
▁prze
ヒ
urious
uso
CLO
▁powers
roid
<0x1E>
▁pleasure
블
chrome
▁maintain
atable
Equ
名
▁chemistry
课
");
▁Fourth
iley
▁indicating
ี
aten
нача
升
▁reaching
▁ast
▁vista
бо
▁pizza
bsite
旧
▁Delete
▁static
Replace
▁overall
▁eating
▁entstand
▁adult
▁bills
▁forgotten
full
▁Esc
Sink
pro
▁cooked
iform
▁Kor
▁bulk
▁switched
▁и
▁une
▁CON
gomery
iety
‹
мо
Mount
▁În
▁audio
金
▁Josef
_(
afka
▁transform
▁sett
产
destination
▁Wind
DOT
▁brush
▁Je
define
▁disk
▁accommod
▁clay
▁relaxing
<0xA1>
ซ
▁conducted
igr
▁occur
▁Fre
▁Ryan
library
▁Бу
▁freed
锁
<0x8B>
▁>>
▁Ad
▁dozen
TRAN
▁State
ए
▁Haw
Rest
etary
▁env
▁ві
求
▁sitting
HA
sea
chod
ől
▁organize
Pe
▁sc
final
andidate
grund
idos
acement
▁Kas
▁Fur
attery
шая
Pop
▁dej
float
▁Groß
ogle
дии
support
▁relatively
▁Chile
┃
ComponentModel
▁nin
ḥ
💜
etz
ظ
IL
▁yard
iero
▁Kon
▁slammed
де
ást
Sam
站
▁ox
тем
Question
PG
▁février
▁лю
icture
▁Reset
양
▁Auf
vspace
Ag
✔
anguages
题
~$
itionally
▁train
▁patients
′
transfer
▁quickly
▁Bern
▁deployment
linear
m
▁documented
ссо
FORM
め
enda
▁Gas
村
lets
▁cake
▁cons
▁dwell
▁Complete
-\
▁Lux
▁lord
ums
🟡
▁aff
arten
▁practical
addClass
anchor
▁gown
▁regarding
▁thin
勝
़
psi
▁Ground
▁dat
▁consultation
▁prz
interrupt
▁Friends
sound
▁murm
累
bra
▁contributing
▁flies
hof
сса
▁wrap
▁mű
is
ICS
▁Thought
▁ker
щё
▁fortune
▁Holl
ometimes
▁Mi
▁detection
amos
▁finest
alous
ґ
umber
▁Matrix
romag
▁keine
ocur
▁NY
clos
▁{})
margin
▁ya
▁около
▁hungry
─
Қ
тво
hed
▁influences
вана
▁disappe
▁boards
ర
lo
Slice
▁renown
▁tool
ery
▁newly
▁Anderson
methods
▁delight
*\
What
▁waste
需
ı
▁от
ἀ
▁coupled
cx
▁zwischen
SIGN
ный
olan
▁pain
▁Factory
sensor
▁unm
UND
hem
회
▁demonstr
▁pair
imen
смо
▁wasted
▁describe
▁This
▁driv
▁Ess
ば
VC
DD
▁jumping
====
../
Top
▁Chair
▁crypto
ppen
▁expects
chell
▁aber
ühr
▁Carter
▁spun
ा
Ό
Love
车
bitro
ய
__(
▁Bon
itational
▁kicking
▁dictionary
▁TH
▁birthday
▁có
Pet
client
axy
otion
▁tast
MARK
Decoder
Execution
▁Confeder
▁posterior
VAR
仓
stdout
nav
amo
▁cada
料
▁context
号
之
ruction
start
aining
▁feet
▁Olympics
klahoma
▁Дж
▁ath
stance
▁Impact
ires
▁totally
▁Ukrain
<0xB9>
ibile
▁perd
gy
▁generally
▁skirt
ains
dbg
▁kun
onen
▁Theorem
▁Int
還
▁shore
ição
github
poon
鲁
▁evident
`);
▁XVII
fred
▁Го
▁offices
▁cb
Com
autor
rt
ene
Tri
▁compared
zenie
▁aprile
▁Pero
▁Br
▁whether
strcmp
Log
▁as
unicip
('\
ever
▁waited
▁районе
▁Italy
▁econom
▁AWS
wiki
pid
▁Michelle
拦
▁History
▁occasion
weights
▁Ep
ellen
only
▁lacking
ন

COND
▁sport
▁PO
▁cards
ence
▁pap
▁unknown
▁streets
亚
<0x42>
lict
zenia
▁teacher
▁diab
▁fighter
▁caught
▁sem
ний
▁last
▁announce
ступа
▁embrace
<0x57>
ificates
▁Glasgow
My
▁anderem
▁coefficients
▁projet
▁Reich
▁movement
▁Fue
normal
▁humor
ital
ʼ
▁FIFA
age
▁SPD
▁least
without
Monitor
▁nearby
▁ratio
ijd
▁bob
phys
▁Jak
ader
▁primarily
engine
人
▁<!--
ту
named
▁Others
tings
▁Foot
рии
du
▁scent
▁attempting
Conv
▁compete
▁impress
▁audience
▁italien
▁Ped
š
nc
Reader
ometric
▁conflic
▁enhanced
ground
새
▁Param
neh
▁relationship
chsel
▁tobacco
OC
▁se
▁prominent
avier
KERNEL
▁verse
▁reflection
▁God
▁cp
▁_(
▁suits
键
▁girlfriend
Stand
stat
test
▁Mad
▁weigh
▁autom
▁awkward
▁Ос
▁Steve
▁fashion
.)
▁si
▁hint
eston
▁LL
ue
▁rating
▁contracts
▁manager
Loc
▁crowds
답
counter
application
▁Builder
▁Rat
eten
igua
и
pi
▁territory
psz
<unk>
neath
▁royal
▁ARISING
ници
▁Ду
CHAN
▁animals
▁secrets
▁their
▁Maria
кту
ellow
▁худо
configure
gender
▁Contin
rim
лько
deprecated
Á
▁lab
գ
▁zu
▁Special
▁Looking
cury
+=
▁upcoming
Water
Free
String
cedes
,
base
▁analy
▁Pitt
Elements
▁p
▁Juni
Pt
ြ
ности
▁corresponds
▁democratic
Wall
▁sa
]+
▁iz
ández
(%
Aggreg
▁extr
▁Russians
▁dealt
training
▁tucked
<0x82>
halb
😉
跳
▁lift
▁Why
▁exc
vet
▁Richard
ف
▁integration
▁Lee
▁drawer
▁canon
▁giving
party
EXT
[<
▁Angel
▁independ
▁vis
owi
▁enforcement
▁comb
▁ordinary
<0x24>
▁PC
▁suffer
▁Prize
▁applies
▁slowly

alla
ust
▁guard
ipping
hythm
▁tenía
▁popped
▁gets
Big
expect
äter
beta
▁lov
>".
▁marzo
cell
ischer
iones
ᴀ
▁gun
Γ
fw
▁good
▁апреля
ensed
請
▁agree
DESCRIP
▁equality
▁focusing
"%
▁dropping
▁ton
务
ция
▁dém
outing
▁abortion
▁syn
▁asset
▁Mat
去
▁al
▁max
▁sed
née
▁Background
I
fd
▁strlen
nie
PAR
▁adjusted
断
森
▁soci
ielle
Hit
ர
▁grupo
▁spectra
▁Function
führ
▁свя
▁Camb
▁tune
orna
▁loads
orio
店
▁Kont
▁stick
Cpp
▁firm
▁Hil
▁drank
Ç
″
ů
ante
었
▁environment
▁Police
▁eastern
▁Isa
▁fragments
▁Def
▁career
iento
▁covers
▁miser
▁Norman
见
Clip
▁computer
ume
TI
▁é
▁recorded
helper
©
Con
▁AT
IT
▁BT
天
▁Solution
з
▁spokes
▁service
▁salary
▁Picture
▁Initial
▁fault
<0x25>
ishop
▁province
Ć
onda
▁Gabriel
charge
ober
▁javax
anging
▁triumph
▁violence
кого
▁Options
▁Sophie
iman
Setup
ames
▁Germ
▁prow
PHY
▁cette
▁act
▁STR
▁corrections
▁initiated
ometer
▁Catholic
▁aliment
hal
▁deleted
▁Antonio
Two
XFF
▁api
▁disc
▁outer
\{
GroupLayout
▁fixed
▁ours
UES
▁inwon
▁Denmark
ACK
▁School
▁sleeve
▁Err
▁фа
▁attributes
speed
Sw
▁stretched
▁foi
▁Yang
vertex
WORD
yk
▁java
▁ranks
gro
浪
래
Val
ві
▁од
********
ended
Certificate
Submit
ifiable
ASSERT
▁webs
▁arqu
▁Jenn
▁Gab
▁Murray
▁chief
ysk

▁cotton
▁Gew
ummy
▁Lieutenant
▁Nothing
olph
conc
▁Shar
▁scoring
▁Rum
circle
▁fert
▁won
▁бы
code
igung
<'
▁arriving
▁sera
FFFF
apy
ver
HasColumnType
▁shift
defer
▁homework
▁stress
▁matters
▁MAC
▁Pract
▁Changes
▁manifest
▁CBS
▁hol
▁are
▁stupid
Should
▁Peace
▁Switch
Ah
▁auction
ential
▁laughing
▁testimony
▁teas
ICAL
含
ۆ
▁Gesch
shal
frica
▁invest
▁fame
▁Veg
regs
▁understands
▁Rect
Wr
▁girl
▁Business
▁reasoning
IVE
▁trim
arde
rodu
;&
ucker
gery
ps
*(
▁funds
izza
and
▁`
▁Ge
▁forty
ald
yard
Uri
▁сов
tre
▁»,
ớ
▁accordingly
▁only
▁parsed
▁doit
estern
LET
Analy
葉
晚
온
▁arguing
▁covered
tools
▁Malays
▁identifier
▁nation
▁incorporate
PERTY
ado
▁Cant
string
▁commander
Large
交
▁branches
äck
<0xD4>
▁abandoned
'
▁ce
د
tmp
▁);
}).
olas
▁cups
<0x11>
偏
Would
증
inv
agh
ស
家
▁Extra
Ctrl
▁Amazon
CIAL
▁altri
▁feel
▁Era
>,
.")
amiento
Br
▁vectors
fp
▁siendo
Store
▁person
ké
▁fucked
стан
▁erano
<0x4B>
▁fick
Tick
▁profitable
年
▁села
al
보
▁concl
▁furniture
▁dragged
▁python
▁isset
isi
▁IS
▁Gib
▁carefully
▁eyeb
dataset
দ
▁Republican
persistence
ge
▁registration
lace
(@
跟
▁extracted
▁prospects
▁sister
▁multi
▁voc

ega
Ӏ
−
centering
▁Jul
EEE
▁kilomet
mania
▁XI
▁кон
▁eg
porter
ISING
▁»
▁pueden
▁november
}}(\
▁comedy
Generate
▁denoted
▁":
▁Stories
▁fab
onder
\-
ograp
Add
電
▁тран
▁giorn
Service
▁Days
Token
HOST
▁announced
secondary
▁digest

lin
▁politicians
▁commerce
right
▁adopt
▁мест
▁graphic
▁quadr
$.
▁exclude
ool
!\
͡
▁corners
)^{\
oting
▁Bev
▁Hat
spir
version
copy
atten
you
▁consisted
▁Jason
CAN
▁certainly
alo
▁grap
▁suspicion
▁warehouse
▁damit
mot
▁Bach
gc
LONG
Ț
sr
큰
otto
▁papers
▁Bak
到
cel
gen
▁Carl
▁irre
▁Dark
гов
▁charity
allel
▁offering
FilePath
ট
▁difer
▁Lock
zed
ANT
▁compiled
Helper
▁комп
ḷ
▁phenomenon
asters
▁evalu
▁Storage
▁axis
▁Blood
▁fastest
▁rule
▁inherit
▁bund
▁promoting
encer
상
▁_"
▁durable
izo
▁jo
問
た
western
야
▁areas
▁sont
("\
▁flat
small
▁kall
▁EXPECT
▁My
umped
▁miles
ads
▁writer
environment
▁пі
▁furono
hor
zeta
?_
技
▁Really
▁Co
এ
env
▁pitch
dates
▁UnityEngine
▁sculpt
▁Sign
▁Net
▁bytes
▁romantic
▁habit
PECT
▁ї
moz
▁canal
aneous
▁reviews
▁reasonable
▁Portug
▁fro
▁legit
▁though
had
▁accused
▁endpoint
▁wir
versions
edit
▁you
ording
▁Valentine
Par
▁calculated
<0x3A>
▁honest
▁Sher
▁Jefferson
▁públic
☼
Array
▁Early
▁Ру
▁tor
▁religion
▁HTTP
▁pound
▁closure
▁sharply
▁pra
▁ши
▁Та
▁"*
▁el
▁built
▁amely
ги
кре
▁Zu
esome
cb
ASC
羽
▁pronounced
▁measurements
▁Пра
lick
ар
roups
▁<=
▁measures
▁mode
icals
▁settlement
▁пре
▁deze
ческий
Health
▁navig
▁FUN
го
▁'-
▁veteran
books
▁==>
ゴ
차
worker
▁wyd
▁opponents
▁todo
öß
yy
ipp
▁NBC
▁neu
▁"<
▁Fund
)}}
minded
overn
▁pela
▁offset
▁agents
LOAD
usk
람
▁realiz
▁unc
arm
▁toll
摩
▁cre
▁Wa
▁signific
dashboard
<0x0F>
rot
nia
▁Universe
▁са
éré
<0x01>
abilities
su
ock
▁fs
▁composer
inas
ORK
▁failed
▁of
,”
▁COPYRIGHT
▁brow
▁manufacturing
▁nau
九
bio
udad
.";
ILD
😆
▁indoor
▁decided
▁Down
▁hockey
green
mates
占
ivil
Send
syn
▁Ya
pool
<0xB3>
▁took
▸
▁concern
save
▁harder
样
▁pet
▁Their
▁){
Operation
▁newspaper
▁sugg
groups
▁Rail
▁Christians
zone
dx
▁after
Batch
ANK
▁Halloween
▁fur
Connector
FE
▁diversity
▁ná
SION
▁inevitable
因
갑
textit
▁naam
iding
▁weitere
醒
HP
▁что
ʂ
▁tremendous
ー
▁Air
CTL
▁diagn
("%
▁reasons
div
▁ebenfalls
▁fins
架
▁active
▁SQL
心
▁Ра
blo
mma
▁namely
▁tan
▁decre
▁Definition
▁viv
}}$,
▁typed
log
▁sir
getText
Л
▁cy
incipal
▁transfer
▁categ
▁Training
Upload
▁deliber
comm
▁Period
▁liqu
<0xDA>
▁There
▁referenties
<0x68>
▁Municipal
▁devient
▁pie
▁automatically
▁ambit
▁excell
field
▁tap
IGH
uc
▁incre
▁Ont
<0x87>
▁ace
company
dal
▁vig
▁Clar
▁pre
▁navy
AA
)"
▁drinking
ippi
Used
▁Pre
contrib
Delegate
'.
เ
сс
找
antal
▁LGBT
▁eer
amine
vere
▁fru
gom
̞
▁population
/'
▁meter
▁absorbed
居
Proto
getId
▁gł
vod
國
though
▁nécess
bor
WE
awn
▁presenting
ә
"]
▁sheet
unwrap
▁Wo
ฆ
auge
routes
ров
mente
▁Pel
▁interests
▁ді
▁difficult
Balance
览
Sym
▁Environmental
▁interference
▁Pak
截
▁ARM
▁basket
▁сер
▁К
▁Reb
Annotation
▁tempor
std
django
▁Мі
▁пос
▁Camera
▁Week
Plan
бур
▁Many
▁districts
event
ighters
▁illusion
enti
▁mothers
▁played
▁installed
▁Portugal
▁Ин
tesy
▁pendant
Fac
印
▁daily
▁given
namespace
▁democracy
▁sede
род
arettes
itutes
♡
▁talent
container
Addr
▁alc
▁yet
ён
ей
▁Text
▁f
inator
▁immedi
ili
▁Staff
▁travelling
▁Gast
▁Lear
ે
▁Install
▁Twenty
▁updating
▁prés
▁Valley
▪
▁move
▁ASSERT
▁сві
transport
са
▁Jerusalem
▁slot
parsed
Ď
ngth
▁Norweg
▁become
network
▁Biography
xture
▁har
ią
ías
Typ
▁Gym
д
원
汇
▁jack
----------
words
use
♣
headed
uzione
educ
abad
тура
▁dla
▁во
Register
▁scored
Rich
Rele
ability
▁diet
▁españ
▁Де
sole
▁pip
▁layout
▁libre
局
▁jeans
▁este
▁mechanism
assen
ilda
▁Nev
нів
✨
wick
▁difficulty
▁Start
WID
▁psy
enum
CUR
▁marine
GG
▁Seg
Assembly
支
▁Sample
...</
▁fiber
▁llev
▁dw
▁Olymp
MI
▁Source
▁answered
asper
̯
Expr
▁scenarios
Bot
わ
lle
Renderer
▁deal
▁msm
MUL
**/
clone
▁engage
▁Us
setState
帝
▁bringing
cept
▁Sun
▁trail
պ
▁het
▁rub
äll
Le
ссе
▁Saf
▁__
▁inequ
Background
setminus
▁kingdom
▁triple
шин
渲
▁strings
▁Rav
Why
오
▁candid
tos
德
健
▁Rub
▁vess
вые
<0xBC>
yer
▁reverse
Help
InputStream
oser
ェ
▁Ant
▁model
▁volume
wi
ті
▁midnight
▁miner
理
achelor
glied
会
Tensor
▁doors
__.
▁leap
NEXT
mesh
configuration
▁flying
▁Bened
▁incons
▁proxim
▁className
kar
lined
▁grandfather
▁Count
▁threat
▁wheels
ätt
▁strengthen
▁pelo
adas
▁Daily
▁instr
SG
connector
▁было
ència
<\
Pad
▁earliest
▁both
▁machinery
ɹ
练
δ
frak
œ
▁fa
icle
▁Hughes
uchar
▁privacy
коно
bet
_+
▁Reading
▁Legend
<0xA9>
="+
▁now
▁Stephen
▁pharm
▁editing
classList
▁lib
▁st
▁Select
<0x9A>
▁Pass
Compat
▁];
elt
▁Had
amarin
▁constraints
▁spy
usage
▁trained
}_\
▁force
▁smooth
zt
❶
▁column
▁spectral
度
rev
▁around
ES
нер
conne
▁hace
▁otras
▁frequ
boat
▁err
decess
▁elseif
ھ
move
▁artist
▁gaining
▁governor
▁Unit
▁sein
▁litter
▁sen
▁Late
她
▁analysis
Mat
ViewById
▁_{
expand
▁weak
▁talked
Resize
▁sixty
ostał
TA
▁contr
▁bush
**************
投
▁Ро
▁maint
▁bell
Te
▁essence
▁bekannt
achte
▁dig
ository
▁deel
▁casting
respect
kt
▁esper
▁words
▁ten
comes
Accept
里
▁Thank
▁en
LIST
▁absorb
▁hed
,*
▁Daw
TextField
Pack
otted
▁Australian
▁asking
▁special
▁Lud
▁Film
пре
ioned
放
VB
▁advised
▁Contract
▁abruptly
bias
ಂ
<0xE3>
כ
▁achieve
▁DOM
▁Graf
ске
▁[{
▁Charles
▁solely
debug
▁Kinder
▁della
urd
▁waist
Met
▁arena
▁entire
ั
▁Ка
▁Martin
▁skilled
atti
attle
▁bad
▁em
▁sandwich
▁hold
▁separate
Items
BUT
ahu
undef
entric
▁warrant
CHAR
Buff
dump
▁pier
▁ду
вен
⅓
▁/>
▁stability
错
making
▁akt
:\
spector
<0x91>
▁hate
▁former
▁wire
▁Bol
▁rust
血
▁Beyond
▁Sex
mathrm
)$.
▁voce
fmt
":
herent
▁tense
hspace
▁excit
▁рус
atform
▁Ra
及
BM
iao
▁(%
Pro
▁adjacent
▁efficient
▁either
▁leave
▁completion
▁calculation
▁hast
ucky
▁genius
▁exotic
递
complete
▁стан
ห
▁concentrate
▁ию
лев
ml
b
Product
강
▁Biographie
武
Great
▁Herbert
▁losing
Review
▁Marvel
▁bundle
UMENT
termin
Marshal
ylan
▁controvers
▁months
▁vide
▁ak
Thank
áll
▁gar
=\"
ờ
aky
MA
▁Dem
▁Egy
NODE
)/
▁meaning
▁WIT
约
ть
userId
ajo
▁root
▁suppress
▁detected
nih
pte
▁rear
▁datetime
▁Volume
ritz
▁Gir
Payload
复
mero
▁""
▁troubles
ry
px
ré
▁emissions
.");
▁Gru
FD
Resolver
рая
warn
lat
▁beg
▁Glass
▁Jessica
руп
oplus
Valid
aled
orest
▁{
▁depend
😎
▁scarc
▁billion
▁efficiency
рия
°
WD
aphor
▁но
eso
ateurs
▁Talk
something
ories
▁amplitude
▁Go
▁seus
▁occurs
▁película
加
drive
FUNC
people
▁assistant
▁expressed
▁confusion
venue
olving
你
TABLE
▁bands
ส
<0xAC>
flix
▁HO
▁expert
▁car
phy
▁suggested
▁oraz
▁чтобы
▁hatte
▁CS
▁kol
oton
▁doctor
▁cust
.[
▁Milan
reply
ued
▁defe
VA
充
▁Stra
▁initialized
fe
▁lui
▁mo
▁classroom
▁Minn
▁Sl
▁occupied
▁Ther
▁sequ
座
▁our
paths
oen
▁WARRANTIES
Generation
▁vale
deck
cp
▁incor
▁hosting
▁eighteen
▁absor
▁conven
ashes
▁voyage
▁M
Not
▁Estado
acia
edi
▁entrepre
*}
▁Built
MG
▁legitimate
▁flesh
Matcher
innen
zione
▁shoulders
▁gorgeous
stock
And
ention
fortunately
▁contra
▁obtained
▁reck
FMT
ǧ
peg
component
adém
▁Won
▁backwards
父
ダ

▁quite
ations
▁European
Control
лан
Random
▁McK
Ћ
▁Не
nym
rypto
cid
ilibrium
onal
▁UEFA
rangle
▁Afghan
▁USE
▁дан
CONTROL
incl
Limit
▁otro
▁response
认
▁caps
▁Parker
rai
▁establishment
▁Cons
▁fantasy
▁recogn
')->
▁Pac
▁Element
お
▁bereits
<0x94>
▁Kent
arette
eqref
▁hotels
}))
▁anticipated
拷
▁comed
ZE
▁task
ля
REAM
💎
▁esc
ol
হ
}^{
究
uar
▁func
름
irk
medi
}_
▁шта
ardless
▁keys
sg
icular
So
Р
Ok
▁standing
scheme
▁Buch
資
▁{'
▁substr
MT
▁gr
▁Ex
ļ
▁visibility
미
▁wondering
▁prospect
illion
ാ
an
▁dialog
beit
Filename
Resources
typen
modified
based
▁tales
▁brands

▁uint
but
actory
活
▁Liverpool
▁Ende
▁riv
Dit

▁patron
尺
Alignment
▁wealthy
v
▁free
▁anxiety
▁sod
obj
сков
raid
～
▁residence
CG
▁conne
esto
Ə
umes
▁Help
asticsearch
▁Save
blog
▁fra
Form
▁commission
▁Ke
▁beskrevs
▁Gent
Preferences
云
кова
▁aggreg
航
filters
adows
--;
▁ша
▁Stud
▁float
ieurs
์
ív
Site
▁Samsung
▁little
▁Sec
Am
▁long
Picker
<0xDB>
 
▁febr
Tracker
▁ча
▁texts
eu
▁remote
▁zwei
▁router
▁ped
Tra
tle
▁employers
▁Pod
▁ту
▁FREE
Ship
Input
▁discussions
▁Ferr
Chat
▁continued
▁Channel
every
▁Deb
zech
ฝ
▁Ukraine
чки
▁talk
confirm
ú
▁dist
ena
▁BL
维
WN
▁хо
fang
cul
▁urb
Arc
ར
▁stir
();
Blocks
▁є
▁unt
▁job
response
quier
Cell
isting
igte
▁bitter
▁hyp
Tor
▁Edinburgh
▁children
▁dramatic
ARK
▁achieved
▁affects
♠
aded
commons
SUCCESS
サ
take
ă
▁tal
▁S
▁Mis
▁kter
▁Anna
▁outs
Because
▁celebr
iza
▁Lion
Ver
emor
▁Soul
▁Dictionary
akt
▁away
usz
aient
▁"${
thers
>
throw
▁African
▁trick
inton
ités
origin
▁с
▁Kunst
▁racism
▁raise
erry
зу
opacity
▁third
▁nos
▁fat
ды
▁shoulder
MOD
▁hacer
▁Race
bitr
▁novel
exports
slash
<?>
ächst
▁Certain
Qu
▁Curt
▁pit
▁Arbitro
▁surfaces
▁guys
▁memcpy
▁jedoch
Priority
$:
▁openly
nez
▁Bür
条
Ò
▁Sydney
ond
υ
po
▁▁▁
hist
cookie
▁overlap
rename
istributions
苗
pressed
ply
']);
ancies
▁scrub
少
▁reg
Result
▁park
Behavior
рои
Long
sko
idi
option
OPER
▁leading
أ
▁London
▁Jack
▁Marine
な
▁circ
▁reduction
ське
▁declared
▁deutscher
piece
訊
▁franç
▁wat
▁staff
▁Ne
▁nur
construct
▁dl
▁blacks
別
lla
▁Af
say
▁inc
èle
aison
rp
▁Cort
cz
▁Solar
報
dtype
iated
ch
Psi
hus
▁b
▁avant
……
<0x07>
▁Raf
▁Larry
▁Stack
rent
▁Ul
▁influenced
GU
udes
М
<0x84>
isson
en
權
ental
pret
▁student
▁Parameters
reason
ито
▁proxy
resents
▁période
न
赞
▁underneath
isValid
業
dir
Refresh
▁heating
ще
چ
EST
▁Er
▁instance
▁SET
▁Lors
▁dinner
▁dried
▁vl
basic
▁investors
▁Facebook
▁Си
▁passengers
▁Становништво
▁asympt
▁Bright
▁congress
▁aggregate
▁Issue
▁realise
▁Sweet
▁Fortunately
/>
PE
▁seeds
trm
uri
▁Ave
η
On
伝
ør
pad
▁stri
▁prob
Billboard
стоя
性
▁Singh
▁provision
atem
plication
▁Bus
conde
▁varying
iesz
▁сбор
▁Mur
▁nick
▁reass
ères
pkg
Sa
ip
notify
FAULT
{
▁knife
▁artistic
▁lon
际
▁contributions
▁VAR
ew
▁COVID
ɪ
Rec
▁Ken
ński
nées
ń
ญ
▁interval
def
▁needing
▁climbing
▁aux
▁heat
▁Dans
uw
▁fix
▁contacts
kk
":"
FFER
▁occasionally
enas
ші
▁sched
▁countless
ické
▁tolerance
力
spi
orden
▁gone
nabla
спе
▁Mig
ende
enburg
äd
▁there
▁cyl
▁Middle
EXEC
良
pl
operatorname
PRE
hentication
stylesheet
방
Land
内
今
.'
ido
▁gew
▁cares
▁kills
▁MA
Parameter
▁Gian
но
multip
▁curriculum
▁cope
onel
▁supporters
▁Two
▁fait
▁Var
▁laboratory
▁below
▁union
▁Regional
▁fruits
ἡ
▁pieces
▁work
▁currently
vart
▁Digital
dings
▁lado
▁trait
number
)]
attan
▁Phillips
▁gegründ
▁reli
▁South
▁Bund
▁acc
▁user
▁regex
scal
▁struggled
▁victim
чита
arian
IR
▁EL
▁Criteria
amen
জ
nung
parentNode
▁pione
▁Altern
iciones
▁amazing
▁Pittsburgh
óm
五
Indicator
HL
▁incap
▁accounting
▁Spec
▁syntax
oco
▁on
Language
▁serving
achen
Thanks
ː
▁boom
▁Mond
kee
▁points
▁struck
▁pill
anse
▁nicely
Errors
▁waters
▁vita
▁Kirche
▁governed
áct
itempty
odigd
ْ
▁Spiel
vb
unächst
▁fled
Mod
Get
▁()
▁fino
itivity
radio
над
▁heal
fect
▁долж
▁mil
pic
▁modules
kc
亡
partial
▁proble
tid
▁Tru
ancy
每
▁SB
ret
▁graphs
▁aria
拟
rah
▁Oz
空
ierto
▁exhib
▁doub
▁Grab
船
▁reports
press
▁sh
TY
ocks
Side
▁tanto
▁underarter
▁vacation
▁forests
▁purely
ammed
Ý
▁Sou
▁robot
尽
▁strongest
▁display
▁segu
delay
▁Wy
▁mon
▁shows
▁minds
▁reson
▁chill
▁Raw
y
pec
▁TV
▁как
║
▁stairs
<0xE0>
ote
PY
ibe
▁halt
▁heeft
▁charming
Σ
▁Bapt
▁Del
▁compute
▁soldier
▁Alan
oire
fem
▁Pent
▁string
pred
cess
▁Cameron
湖
height
▁tear
▁HAVE
cccc
track
▁wyst
▁fairly
uct
▁nu
ões
▁прави
▁cuando
GENER
▁später
itutional
▁theories
▁highlights
▁Village
▁Mediterr
ország
▁eth
▁Celt
▁yoga
мом
ítulo
中
чение
▁peg
▁equilibrium
발
▁farther
▁event
case
▁Cross
▁consume
dark
▁Tol
▁tutti
客
LIN
ERT
setting
▁аль
▁trump
▁sm
gpu
iffs
...
Mag
DataType
<0xB1>
▁während
ennial
▁серед
POSE
zd
IV
▁département
arts
station
oka
erc
▁wounded
▁wolf
▁Created
▁окон
▁agrees
▁préc
▁invitation
▁options
়
рав
▁Microsoft
channels
heet
块
policy
毫
▁them
esp
▁Kel
▁params
▁Fr
▁planning
▁Пи
▁helpless
▁opera
oge
дно
isecond
üt
▁movie
assem
▁neighbour
range
▁guaranteed
▁releases
inode
Features
olid
▁cub
▁anyone
▁intimate
寄
volt
▁över
cheduler
freq
Che
poser
et
Company
▁Arc
▁expect
▁gaming
ugins
сло
▁kind
пада
▁apt
▁смер
status
毕
▁naz
дя
▁Suite
arono
😊
▁Inst
jas
▁understanding
▁accomplish
mir
MBOL
▁Census
▁sky
▁thank
▁relax
▁Video
father
▁visited
▁Chart
amento
chron
▁города
SUP
ething
▁grin
Clone
▁skill
▁chicken
▁foo
▁North
▁AI
▁repeatedly
┴
▁aussi
concat
score
▁sat
▁Wait
▁period
label
▁Ди
▁Pal
▁Barb
imo
み
▁yours
▁realizing
▁selected
▁Image
▁María
▁handler
té
)$,
think
Base
Š
▁handy
皮
▁пред
imm
Hal
ful
STM
Ω
▁necess
▁understand
▁autonom
록
▁Panel
ali
▁incorrect
blem
rog
▁collected
ân
▁az
~~~~~~~~
▁AC
▁recipes
transl
▁complained
iness
▁cigarette
▁hours
associ
rott

ivalent
ње
▁Бер
▁Jacques
▁sensitive
要
տ
泉
▁geb
Skip
▁nous
<0x8E>
▁sudden
正
▁би
autre
▁Jackie
UInt
checkbox
▁Ch
got
▁Scott
Router
▁$|
▁était
▁dish
irmed
тки
▁Mountain
▁-
ieden
▁Turn
▁like
▁worked
⇔
Visibility
있
benfalls
▁ens
athers
发
umpy
▁Gram
▁temps
<0x52>
asso
cent
getAttribute
▁suggestion
▁utterly

Current
▁script
▁Jan
Distance
▁Hass
▁isolation
▁Dev
elin
рія
COUNT

▁comprehensive
🟢
▁etwa
▁Luft
istan
▁Grund
paren
environ
স
▁Config
Os
▁Chi
▁Ko
▁ejempl
▁institutional
▁Friend
▁Harry
▁wed
Manager
str
▁spir
ٓ
▁review
叶
▁Å
丽
ков
apple
▁invoked
▁created
array
ът
✓
頭
▁therm
button
ヤ
▁ved
▁Conne
▁wishes
▁Appro
canvas
▁("
section
äst
▁hosts
NdEx
Assignment
sock
定
ヴ
ption
});
<0xE8>
Key
yp
▁dirt
Rows
▁Farm
▁annoying
WW
куль
▁zone
TIM
闻
▁read
adio
▁Berkeley
▁(*
▁admin
▁scared
heart
lisher
▁argv
▁so
cia
GROUP
=*/
▁straight
▁excl
▁constants
ши
▁lum
▁duties
Break
teger
EA
лее
▁Francesco
Keep
입
▁something
Events
감
申
down
▁From
bahn
▁Cer
ome
▁achievement
▁creative
fer
▁Cut
▁Jay
inis
▁initiatives
▁greater
▁sotto
ждения
馬
style
0
<0x45>
▁mim
▁derive
▁led
▁assessment
▁epic
▁pixels
acional
NE
▁admit
(['
▁mist
ז
ople
Parse
▁pe
fetch
▁queen
INTE
兼
▁K
▁gi
single
▁stage
▁son
▁heavily
st
selector
WARNING
▁(\
ста
дри
▁asshole
respons
▁Gene
滤
▁fixing
with
▁cooper
▁Krieg
Co
ѣ
▁Exp
▁subsequ
ége
х
ǀ
arium
ink
▁Jug
▁warriors
▁Ev
▁popular
乘
DEV
▁který
Inst
]*
▁coverage
▁stim
▁arbitr
删
▁They
onie
;</
▁одно
▁well
ARGET
钟
▁Tes
▁име
ientras
▁Sal
aging
▁beauty
▁cross
Imp
▁pull
▁cro
▁angl
▁waved
▁иг
▁becomes
▁computers
ERY
▁virtue
▁municipal
ins
▁shut
iforn
Self
sbi
ată
сен
▁chest
▁batteries
曹
▁voice
Mapping
рей
itions
▁Party
▁yy
▁distingu
▁près
Hi
ATTR
▁waves
sburgh
▁lap
▁pupp
▁ao
▁vine
▁infinite
▁beat
▁Hof
umble
▁köz
▁Deutschland
頁
▁reconstruction
▁morph
▁Poly
cosystem
works
▁[...
▁republic
▁compatibility
▁Hot
▁Beng
🤦
▁sv
▁Mom
Material
▁Per
直
gew
≈
Sprite
▁blade
▁Pam
listener
management
opher
▁jamais
形
provider
<0xE9>
чно
▁finishing
QL
▁**(
▁complaining
encias
rou
▁colours
porte
▁buck
▁closely
▁lieutenant
账
び
▁nacional
▁refres
▁easiest
ött
creat
▁Query
pay
ollary
grad
▁Gra
▁all
势
▁Success
▁pulls
▁cuenta
doc
▁Inn
▁weird
程
▁Vincent
▁уби
あ
▁Land
<0xB2>
▁voegen
remove
▁Elizabeth
旅
▁Integer
▁Comb
▁mate
▁THE
▁PRO
▁metric
uffs
so
ween
іс
询
က
▁lightly
osph
▁Yale
_,
▁dopo
ア
ste
▁saved
▁empt
▁wr
野
▁Male
書
▁Things
▁worried
▁emergency
LEASE
▁Flag
▁minim
▁Са
▁Future
镇
▁egg
sect
▁poster
ῶ
Functions
very
!
▁OPT
<0xEB>
▁Exchange
▁Ian
erson
열
▁introducing
ibles
uint
ур
town
while
Cast
▁профе
IZ
encoding
Nav
▁terror
вав
skiego
ោ
▁inspection
ira
Helpers
DOUBLE
neg
ție
▁Миха
▁Jimmy
가
▁exercise
Worker
ák
▁Watson
ни
▁fam
Place
▁begg
▁Ри
UL
▁Ross
CTRL
▁condu
'):
▁respond
PLY
▁gep
urst
牌
▁watch
▁cheaper
▁send
ely
返
特
DECL
▁офи
xic
▁hosted
▁Domin
ović
="{{
零
▁particles
探
▁chunks
▁eat
lector
Enabled
▁holder
▁/
▁directly
実
▁invented
cross
▁Comment
▁audiences
нах
ear
DB
book
▁сентября
▁Kre
항
▁higher
▁Jer
Trace
eh
чу
▁Jackson
Հ
Windows
▁призна
ropic
/.
road
eti
Str
▁delicious
▁Extension
тель
SPACE
lik
writer
▁ranges
▁dominated
▁efect
aph
▁yards
liferay
ynamics
ど
▁vict
OK
ese
▁dates
amer
FRA
▁£
▁Tall
▁logic
▁или
▁practice
jo
▁brill
▁Islands
рок
()).
plus
▁bless
▁COM
▁adapt
Follow
▁medieval
统
ième
▁shar
<0xD0>
発
▁resolve
day
ählt
▁Battle
温
rg
arte
кі
▁erre
Application
▁implications
內
군
astr
μ
ры
Utils
▁tracks
▁nue
▁hunt
▁peint
comment
▁channels
POWER
ر
ël
elli
ormal
ountry
▁etc
Ã
▁William
▁treated
derive
▁coast
很
Program
↑
iances
imately
▁keywords
▁vec
vä
▁pict
邀
食
▁[[
⠀
▁Thursday
応
models
▁pd
▁bump
▁lives
▁haber
ß
▁}\
▁Theatre
▁Bry
▁Gott
▁Evans
▁які
пе
▁perceived
Pattern
▁було
▁surrounded
▁equipo
<0x8F>
▁Cele
noon
▁pat
agne
▁Otto
▁před
▁turned
▁На
▁foreign
pled
节
nel
呢
ен
▁qual
▁directory
Binary
▁jego
▁positions
områ
▁Span
льного
▁countr
SPI
▁transaction
parseInt
▁Throughout
星
ACE
▁tb
众
▁Manager
▁exponent
avo
▁View
ongo
▁Jap
통
SP
othing
MON
rund
Express
achi
ном
="
▁Tests
▁Dig
ла
▁permanent
aching
▁dans
head
jan
▁MD
unned
ired
▁по
読
>';
▁Salv
deep
爆
ว
▁AR
▁pup
▁Р
RR
▁An
▁flood
▁entertaining
pipeline
ṣ
མ
gest
▁require
ctl
▁deck
terra
▁Creative
▁Kirk
▁Democratic
▁growth
etta
urm
▁Ale
factor
adding
▁Mitglied
▁reconc
acles
赋
▁dos
▁Met
▁Vel
▁stake
▁slots
▁teach
▁melt
zon
ώ
ero
▁Marx
▁cuatro
▁Single
▁intention
게
aset
塞
▁Pok
▁Reserved
▁Gran
源
裡
GUID
▁accurate
▁console
Ђ
▁cops
▁rocks
▁Wh
▁ули
about
ube
раль
xA
▁marker
▁/******/
öffent
▁thirty
cdot
)$-
Linq
Wrapper
▁роди
ungle
winning
▁Universität
={{
▁index
▁Rand
▁tender
刚
Use
Τ
ung
iques
opts
▁сти
▁Ü
urop
isan
▁vy
▁cig
NA
Present
ango
语
ancell
▁Cry
Timer
哪
▁commonly
STATUS
▁lived
▁ó
▁gently
▁Rest
▁Чи
▁Fern
▁år
▁alpha
害
▁temporarily
"),
пол
ieur
▁calling
schaft
▁Исто
▁Welcome
rec
▁grandes
bau
▁cand
▁collapse
bullet
enson
난
scr
mao
▁sender
▁conserv
Comput
▁Drupal
pository
rake
▁publi
Maybe
▁discovered
▁changing
cre
▁dragon
▁noten
▁Sid
energy
▁women
▁caf
▁куль
▁dello
▁Qual
light
ן
UTE
▁Obama
▁adm
ynamic
uals
DEBUG
▁sur
▁Poor
abei
▁him
ijing
▁doubt
uations
▁wash
▁suicide
▁NO
▁thorough
▁More
DF
▁calm
▁course
▁Bau
வ
hop
▁через
▁affection
.,
ipped
▁Jahr
stderr
▁Node
rons
▁ano
sync
▁addr
▁Mär
êt
Names
▁Baker
▁nederbörd
Roll
<0x6A>
orough
Middleware
▁май
▁unre
emb
▁Reyn
▁diagnostic
Constraint
▁Roma
icial
▁guessed
▁Premier
▁companions
▁Abb
▁Medal
layout
▁Eve
▁ko
視
_.
▁Green
▁broken
Friend
▁fit
ło
▁causing
▁Random
▁butt
▁prevented
▁returns
▁cl
▁У
▁pir
▁lattice
▁Provinc
aw
arded
owned
▁eing
▁afterward
ב
čen
<0xC7>
abul
征
▁performing
AtA
▁July
▁IL
▁да
sw
oard
▁plant
▁ett
▁року
▁Rec
Template
▁marry
egen
▁Bridge
Obj
nej
▁oc
▁necessary
▁"""
▁arrived
▁***
▁pocket
Som
NOP
▁vas
SU
га
iene
待
picture
profit
orted
hum
▁Brig
▁could
▁CC
▁ess
ទ
▁dieser
▁клу
▁ImGui
empty
▁Arab
ulas
TING
▁affairs
▁viol
▁College
Est
▁Hay
▁Large
▁systems
big
▁anymore
bridge
Import
▁FI
ç
bury
▁Ukr
聊
💖
▁Bond
▁Ein
▁Lew
^*
emper
▁/*
▁kings
encial
▁же
▁чемпи
___
▁organizations
ній
BAD
▁quantity
▁Unlike
▁Writer
栈
▁AM
bh
Default
频
Driver
▁satisf
Logger
icated
added
▁fine
▁Async
шка
Dis
jek
ancel
▁sales
ower
<0x35>
▁healthy
нин
身
enties
<0x48>
▁à
achine
Session
зва
unction
apolis
▁limitations
▁fle
▁где
▁template
hide
▁citizen
MY
ව
▁suc
明
▁entre
▁::
▁Ц
mark
iva
▁sent
irty
▁Vit
▁certification
>?
▁File
▁annually
▁behaviors
▁exchange
▁rejected
scious
////
usted
▁России
▁Drag
imil
雪
enh
<0x9B>
▁referred
▁ко
▁Hom
哥
▁Starting
▁sam
platz
цен
▁représ
woh
iest
par
ლ
許
▁Delta
▁Running
blob
▁kan
▁EV
Oh
parents
mc
▁rehe
));
▁version
▁Self
▁punk
▁fight
'$
▁fou
ær
If
▁Ав
itz
rise
▁significant
unit
ман
Do
▁Fire
▁Education
migr
dag
▁држа
itos
▁emotion
▁ripped
necessary
▁Me
▁mouth
Rx
▁través
▁buf
辑
йо
▁Islam
tile
▁kennis
ША
▁blocking
öffentlicht
plements
▁Atlantic
}}$.
▁Claire
준
secret
▁three
iple
ided
▁piss
▁разви
ên
唯
繁
▁deputy
▁Fal
▁mountains
ře
▁withdrawal
▁synthetic
▁comenz
▁clearly
▁dirty
▁conform
uild
wan
▁sober
mart
Disabled
进
Block
💀
▁initi
ITER
Job
▁Eine
ด
լ
▁twin
▁partido
Mutex
a
▁recognized
uelle
▁muj
▁Customer
▁relations
iven
▁fasc
▁fier
▁Oktober
under
연
bundle
▁Georges
SC
🏻
▁Doctor
▁consid
▁touching
▁RT
▁reprezent
Unlock
▁Jane
片
push
▁artillery
ph
pkt
▁from
▁spinning
▁str
▁offense
泰
▁insult
▁experts
ALL
>";
▁cd
igate
▁Simply
▁much
hello
▁Zent
iation
ła
त
iq
▁hunting
ো
▁function
▁awards
ло
▁two
thon
▁Bundes
OT
▁TO
ун
ណ
老
Messages
必
▁Sci
过
atio
▁Chase
azione
Eval
tto
听
▁productive
ethe
▁$[
▁bott
▁guest
ampionship
▁pac
▁först
▁portion
Loading
év
▁earlier
▁Аль
anson
▁Available
▁Fer
都
ictionary
apore
▁tree
health
▁Anything
pe
ula
▁conversation
<0x20>
▁assigned
ctxt
▁goes
▁medal
▁unf
搜
▁sost
шим
▁gentle
▁Controller
▁Color
▁помо
​
▁aggress
▁worthy
▁Iraq
▁expans
▁issued
▁rat
тери
eper
totype
▁correspondence
<0x16>
▁Anton
▁sizes
fn
▁aqu
▁relativ
TRUE
conf
▁conversations
门
战
ersion
NING
▁specialist
经
IOException
сту
▁фон
▁enc
skich
roller
▁*«
generic
▁Walt
Requ
▁вла
▁deg
Adv
aur
▁plain
▁StringBuilder
▁$
প
dess
сия
èmes
標
itaire
aye
ִ
已
Instruction
ELL
▁Test
▁stance
▁albums
uart
inge
HH
asa
▁poet
▁prim
notice
▁Arts
▁rang
▁há
itty
Autowired
树
spl
."
▁Фи
归
ondon
▁checking
athan
▁relieved
mon
▁Japan
▁past
ück
▁crisis
▁ED
про
▁likelihood
Da
▁sizeof
—"
▁duck
ieron
▁publication
Include
▁policy
asing
pping
▁partnership
<0x73>
={'
mund
▁Machine
ко
▁Є
itte
ISTER
▁worry
ញ
atter
▁Classic
prot
<0x79>
draft
PROPERTY
icon
▁ese
▁walked
tober
idea
▁altre
scroll
▁presid
▁Finland
codec
layer
▁communities
font
▁Course
otimes
RENT
丢
▁China
▁Page
▁Julia
으
ams
▁remem
养
▁formal
▁Chain
<0x7A>
Types
▁ec
Results
▁Android
eding
▁concept
▁spawn
▁PI
wear
▁Stars
drv
▁stare
|\
uset
<0x09>
▁surprise
cho
▁accordance
pression
▁Min
▁acqu
▁recover
▁Actually
숫
▁Rio
<0x1D>
▁inline
ona
Reference
▁RC
▁Nach
▁compile
forEach
irical
▁Assert
ṇ
<0xF5>
bn
▁Й
▁Foster
ソ
Qual
▁giornata
▁electric
▁genus
intendo
ceived
▁determined
сла
еди
▁Salvador
ément
▁Pin
▁zaj
raz
se
>%
Family
編
软
Note
cases
▁Bag
▁smoking
▁deals
▁torture
click
Layout
rupal
🟠
▁Jew
iod
▁md
role
ictions
▁Mong
▁Дже
Collection
▁capt
ὐ
▁Filter
▁lanz
▁catch
gn
▁react
cu
▁minority
▁prv
mers
ionen
▁Colin
hook
？
lambda
▁kid
▁ж
▁Okay
standard
▁proto
atro
'_
▁fill
focus
icity
arden
▁Code
▁contract
<0x00>
▁consciousness
▁$-
frag
Jack
▁Saw
({\
atra
eves
Failed
Metadata
▁Spanish
ā
Є
▁proportion
]}
▁vida
CONF
ង
switch
Filters
▁therapy
▁objects
▁right
face
graphics
MB
▁Dublin
####
▁specifically
吉
zte
extra
▁affiliates
▁patri
ками
▁rec
ared
闭
▁mer
▁Airlines
▁Mary
ն
ath
三
▁forest
▁mention
▁Dise
icism
idad
내
▁tres
▁surveillance
AST
agement
<0x47>
▁seit
Did
diction
File
▁concentr
arry
amazon
placement
▁idea
▁років
Low
▁capable
▁phen
ounter
LED
rock
elseif
試
send
вания
▁Form
▁frame
<0x98>
▁curios
▁а
Marker
▁cum
道
▁dealing
▁expr
▁{"
Mad
▁brief
▁minor
sizeof
▁Fleet
▁Bow
etric
▁clar
▁Quick
sb
manuel
▁accounts
acle
aciones
▁supplement
▁determ
="#
▁lac
ющи
✅
ħ
▁Indeed
aris
bm
▁seiz
▁perpet
èce
்
▁Palmar
catalog
▁Dy
▁tt
▁hang
▁brass
could
лла
▁entity
▁können
when
▁Mock
Ť
▁{$
strict
ก
▁surrounding
▁paus
▁Cov
prod
▁mart
Men
▁instantly
▁combining
▁passes
▁images
▁Scient
ход
amous
▁cf
ण
吴
▁optional
nf
LI
▁бли
▁Dou
val
──
▁gard
="${
mail
▁-----
▁elle
GPIO
keeper
▁ft
▁dv
객
illon
De
▁Try
BUG
▁Dum
ved
ità
▁bewerken
HOUT
Mgr
зо
ON
FT
▁Client
▁Лу
▁blame
▁undert
▁employ
’
bek
▁Ice
▁calci
linewidth
ulp
▁Sold
▁dei
▁asleep
▁‘
Mvc
sek
ồ
hci
▁kil
Ц
Fake
▁Ar
▁bitch
▁Cand
▁Ned
▁Missouri
▁comfort
▁tunn
ATCH
LEAN
IME
▁assertThat
▁cls
▁ordering
▁Duncan
▁etern
▁Crown
skin
▁nr
ulos
▁why
oking
▁earth
master
▁regardless
▁sympt
▁analyst
▁Ло
▁sous
▁privilege
▁Fel
▁Ét
▁restrictions
indo
▁masters
ivid
▁looked
▁nebo
owym
Records
OFF
▁MAX
▁LOG
)))
▁attacks
'"
ం
▁Equ
Runner
▁Bent
▁Maggie
anka
▁bare
▁Express
▁Aunt
velope
Th
nal
▁Edge
▁overwhelming
uman
▁Filip
▁Aub
>>
▁classes
lass
▁Must
omp
▁meetings
dap
▁caso
__,
▁Or
ensions
▁па
утбо
▁comments
VERT
▁Васи
chedul
▁brown
Operand
asp
*>(
▁Three
▁colleg
▁sisters
ษ
oine
蒙
▁fingers
▁Ferd
too
▁App
▁bras
▁(†
oves
▁compat
Duration
regon
▁dicembre
면
Editor
▁causa
we
̶
pal
▁Ста
▁Bachelor
ड
CURRENT
▁masks
▁reflect
cil
▁орга
▁closet
添
}")
▁Schul
▁Maybe
▁Natural
folk
▁machine
▁bend
▁leverage
夹
Bounds
▁kilom
engono
夏
▁Apache
▁Buffer
ո
▁solo
urable
fab
Branch
器
▁MI
ы
osto
▁eas
▁uitgenodigd
lp
▁adoption
RA
▁mast
Media
Cr
В
▁grabbed
▁knocked
maybe
乌
▁Shell
Sig
ta
▁turb
收
刪
▁socket
▁instrument
him
▁ih
▁address
%.
▁Details
▁court
▁wip
▁professionals
▁recomm
▁slic
향
ít
EM
handle
▁],
dead
▁perfect
▁license
arity
▁Vere
▁gob
rit
rizona
▁restaurants
▁fluid
▁cri
omot
▁$,
BY
Al
None
▁equations
фика
▁sens
▁USA
▁nuc
▁ego
igent
Star
]",
adr
itories
тели
▁hat
▁із
▁elő
▁_
Handler
▁territor
▁intervention
PL
キ
▁u
▁Sha
any
Hen
缩
ി
Reset
▁workshop
PD
▁Dim
depend
▁Lac
▁behavior
▁dug
cycle
获
▁shine
▁Пе
ா
ekt
kö
itated
▁Nova
ono
▁schemes
▁greatest
영
▁migrations
検
겠
▁poll
▁'',
ategor
▁Stay
⣿
暗
▁forcing
shots
▁attending
▁copied
▁libraries
▁Sev
Thread
▁Hop
IN
bt
бли
Detail
途
▁hecho
▁Bis
▁Annie
▁pear
ibration
edes
▁находи
usive
▁pare
LAN
▁democr
NN
olve
Role
▁Sep
対
poll
▁Пу
▁cutting
▁complic
Db
▁racing
▁Washington
▁Gree
▁GF
击
ự
▁finding
pres
▁September
activity
▁activate
resolve
▁Anc
▁towards
vir
RD
question
mun
prevent
问
려
레
eld
陆
▁wouldn
▁бу
▁Herr
▁Napoleon
native
ski
▁collect
ike
xf
▁maid
▁lately
sembled
▁resolved
Post
▁total
Which
ister
tbl
▁série
ற
▁durant
öm
▁jed
Prote
.</
Go
▁monitor
plo
general
old
riet
▁reliable
Integr
▁dabei
covery
▁spher
ursday
▁congr
▁stata
▁BASIS
чні
osi
▁bases
lope
್
▁sources
▁prices
▁FIT
opt

menu
cknow
Copy
▁unemployment
▁Philadelphia
ishi

▁Above
Photo
ugar
▁fe
soap
え
纳
▁Management
schen
▁WHE
▁Then
报
loc
Case
private
▁passion
▁greatly
▁simpler
▁doctors
▁tooth
聚
▁Earl
▁arrives
▁pens
▁rap
imag
Routing
▁Ark
▁Device
ם
数
ach
рез
beans
▁dream
car
cius
dan
▁influence
▁turning
▁kur
oss
dp
Mus
▁strip
ну
▁leurs
▁}).
 
▁indic
▁mark
ู
▁ratings
ients
*-
ifacts
▁conspir
ฉ
▁nil
\'
▁inspiration
Pin
Radius
joy
STER
▁possibly
ative
呼
▁Agent
▁healthcare
ches
▁orb
Prov
▁rs
IG
qquad
▁Treat
фі
dimensional
使
COM
ion
▁bicy
▁mejor
▁rebell
▁gek
ends
▁_,
▁Wikipedia
Ź
▁Canad
▁hurt
just
low
<0xF0>
▁In
anas
▁possibilities
▁sistema
▁platform
▁воен
():
IENT
▁Columbia
▁strain
▁encryption
▁FO
▁Board
▁Liber
olly
enci
ark
Back
▁kw
▁bounds
riors
▁porch
vens
▁Commercial
油
othes
ampa
▁entrepreneur
ness
AK
▁обе
iences
ERROR
bu
▁costs
უ
ร
▁reprodu
▁provided
▁Ell
▁actress
▁Republic
gency
Metrics
▁governments
且
cond
▁burn
▁sind
▁shape
▁Mik
SELECT
▁considerably
})$,
XXXX
▁за
cont
An
▁Home
メ
metrics
▁nas
▁À
ńsk
mas
▁circul
▁concerned
BUILD
includegraphics
▁tragedy
▁conducting
Start
generated
라
ville
bf
▁returned
▁Looks
▁relie
вший
▁Gate
seen
▁sog
▁apparently
ployed
▁unfortunate
Cond
▁Aff
▁Introduction
Flags
CLIENT
▁legs
PM
scene
<0x63>
loading
▁paintings
|
श
▁ERR
▁Mé
▁Lucy
iah
▁Hug
:*
▁regard
Ś
bras
uki
▁Zero
StatusCode
guid
ই
▁stere
▁más
criptor
▁states
▁spell
ix
fas
▁Happy
余
Transport
<0x39>
Empty
от
tal
jections
▁surprisingly
eau
▁Oregon
▁insert
▁generated
▁He
ale
drop
enger
▁tant
▁love
も
vari
▁considered
▁°
[-
Failure
▁tmp
ї
▁Getting
▁ABC
▁latter
▁situ
▁Kur
▁uns
▁upset
▁São
▁Jar
▁insights
▁wheel
Dele
était
▁hel
KS
▁Cot
▁sensor
дов
애
▁KEY
▁marg
▁Kö
▁bar
elo
▁alter
▁downtown
▁singer
ouver
▁subsequently
StackTrace
▁Instead
Partial
▁vid
▁ellos
ナ
▁Russell
▁forming
点
▁femin
leep
▁Cel
wind
▁село
rap
▁toilet
隔
<0x5E>
▁declined
▁conced
<0x8D>
▁elabor
他
읽
spin
▁которые
▁stesso
▁crít
አ
▁cer
ким
▁rounds
▁pedest
gar
▁Christmas
▁calculations
▁peaks
azar
▁dif
uer
▁Pete
ayout
Dataset
Common
anean
▁expecting
ount
sche
▁spotted
atura
pis
▁kör
LOG
foo
▁misunder
圆
include
Fun
locale
▁hacia
▁quasi
Sets
χ
ெ
module
▁Computer
claim
ahl
asha
conscious
▁tx
▁mg
▁Portland
Most
Overlay
plicated
▁imag
▁Alfred
▁WordPress
ish
▁\\
旋
▁equipment
▁thickness
▁put
sl
сом
ference
▁апре
▁ball
3
LINE
▁році
▁digit
▁secondo
▁sufficient
through
–
CALL
ા
▁cogn
▁parser
▁whenever
▁Dor
▁Frederick
idd
▁immediate
▁stud
▁tir
派
▁retire
រ
LO
▁GEN
▁symmetry
rij
▁accompany
mic
▁distinguish
▁capac
uela
▁Diamond
▁stretch
ē
▁Scotland
kre
<0x19>
▁meters
Book
▁гра
▁baseline
留
riving
▁infected
▁bust
▁lif
▁Industry
parts
▁instruction
++
▁protected
etto
集
▁Ref
tr
▁tug
ќ
ciples
ailing
serts
▁rou
kehr
ží
bris
Sun
▁Francisco
▁Glen
▁horn
▁packing
riage
AH
▁nurs
aal
▁elite
▁drink
ptember
▁[]
▁blo
化
▁number
▁vs
ements
▁Eastern
▁Simon
▁regul
ular
▁egy
▁beings
پ
▁apolog
▁Hu
▁trop
usions
▁black
▁homes
changed
▁Xbox
claimed
▁Art
paragraph
垂
<0x28>
▁opt
ull
▁override
▁Studios
▁живе
▁sum
itor
▁Jesse
▁pos
▁tensor
yside
element
▁baking
▁klub
▁PUR
▁Quality
ogo
▁halfway
▁specific
borough
▁workout
osing
意
нима
▁OF
pointer
次
ە
ides
朝
▁está
▁receives
▁Chairman
wr
▁Pot
파
▁Tele
▁',
▁това
stud
▁es
▁коми
products
▁session
="<?
▁Songs
über
);
RX
jal
commands
indow
▁typedef
appings
▁symmet
Fore
▁clear
ใ
▁mur
▁habitants
Put
е
Generic
▁qued
okat
▁heart
cv
▁belongs
▀
func
▁arguments
▁hus
Dispatch
▁uncle
职
▁Constitution
ва
▁placeholder
▁Ron
codegen
▁struggle
DEVICE
throws
▁Hunter
Expect
payment
▁zo
Sec
▁Kore
▁reb
AF
▁hearing
▁drivers
}+
▁Str
▁yesterday
xC
▁lawn
mbox
і
phi
assert
京
▁justified
▁requirement
迟
heid
▁scaling
▁completing
啟
▁quel
éri
▁Sleep
▁Chen
Tim
▁inhab
▁numpy
▁jet
ongs
참
dy
▁ignor
gart
轉
Def
▁migr
collection
边
▁lawsuit
▁Mag
̣
<0x05>
ý
▁slid
abled
▁moist
▁Particip
eous
▁étaient
▁Wilson
▁bonds
款
apter
▁Insert
▁Michigan
<0x7F>
tables
▁MON
▁EVENT
Seconds
гом
▁doll
▁variation
="../
▁Skip
▁de
}\
▁Mrs

##
▁painted
bil
▁servants
▁san
▁supplied
','
ል
項
▁cursor
▁mol
▁Sor
▁'./
▁influential
▁Bild
▁facilitate
▁imports
▁personal
D
▁lear
subject
壁
avor
being
▁dog
▁Oil
▁nodes
⬛
▁lock
▁Led
loss
ð
▁город
<0xA8>
should
pr
izado
▁Dorf
▁schedule
legt
Policy
▁weather
甘
准
▁Out
▁М
emet
ORD
mal
▁combined
▁Detroit
destroy
▁Il
rien
Person
ל
▁той
aring
▁destination
hö
:{
▁Kal
()}
▁signs
▁sup
cite
frastructure
Warn
ani
wedge
▁scrut
告
▁situation
▁cond
▁acting
▁Whit
▁projected
≯
▁operated
气
oler
чески
mediate
><?
▁Th
uck
▁Со
umin
Dr
▁delta
editor
kil
io
amber
▁AD
▁pride
▁painful
▁habitat
icates
jekt
件
▁freeze
▁potatoes
▁méd
cciones
SING
']
kg
login
Art
▁floating
▁Championships
netic
ár
▁devices
▁google
ograph
краї
▁Power
rico
▁Target
Camera
▁RF
])
NUM
camp
▁Thompson
▁ValueError
<0xD1>
rijk
<0x5B>
▁ensure
▁Math
From
▁→
ZZ
K
▁nast
▁mattress
ymbol
▁Ré
▁rushing
▁Lab
竹
▁emotions
izer
Der
▁Diam
ainer
Signal
▁evangel
נ
▁Care
▁accompanying
コ
Cont
▁Rh
▁prefix
City
iri
▁Rivers
▁Cleveland
士
Period
❒
.-
bug
вся
solid
ged
вета
操
Objects
icons
ာ
ктор
▁lands
дера
ವ
outs
▁youth
ო
▁melod
▁ihren
▁Gen
▁drift
刀
▁how
RI
▁Kam
+-
TIME
▁regener
INPUT
tn
▁Cold
Att
▁aud
Rotation
ingly
emit
fields
commit
▁centers
,\,
▁Gon
属
▁rested
▁rebel
▁performs
цу
▁accent
▁penetr
정
▁resign
▁Assistant
Que
word
anne
лександ
omm
▁Angela
▁TR
▁Kin
🔴
Col
RESET
less
Remote
▁Edd
vd
vol
pit
were
▁Butter
▁Bitcoin
▁emails
▁Strong
▁dow
Sender
Record
ァ
량
Context
Come
igne
▁jud
▁gender
▁Morning
▁drag
▁mission
▁исто
ally
Work
overline
fan
▁weakness
▁commit
▁Login
bound
▁Meter
▁wrapper
▁ain
ceil
▁prote
▁favorite
жения
▁DAMAGES
▁tricks
ungen
ribut
▁partir
vez
택
▁sighed
fit
AppCompat
▁nelle
▁cancel
ctrl
▁organ
▁Sull
▁composition
▁была
▁Nancy
▁partners
一个
phone
циаль
uur
es
▁processor
FAILED
Matrix
WIN
BG
ály
})\
.__
MESSAGE
▁togg
gress
Adapter
polit
▁Practice
ich
<0x08>
ними
ExecutionContext
▁Campaign
▁borders
Uint
ondo
露
object
ní
INST
enta
▁scholars
ester
▁hired
ври
pc
▁emotional
始
ortion
Loop
▁appear
▁hanno
密
▁Rog
idae
▁Communist
actual
invalid
▁Ident
LOB
^{-\
▁kissed
▁friends
She
unately
▁sue
▁гу
▁van
▁Jos
▁genes
▁dispute
▁Marina
ное
▁del
林
▁wedding
▁homme
衣
▁liegt
▁Academ
▁strength
callback
▁пар
)},
Img
fil
ols
њ
▁grants
onto
Tok
criptors
₂
▁impro
aved
▁Stad
▁dx
▁Poll
ERCHANT
▁Because
▁Fif
▁money
det
diag
▁Ted
▁Work
▁два
steps
▁ceremony
Until
сто
Dest
▁работа
策
oder
▁keen
❌
<0x29>
Su
reb
Pr
▁process
▁fade
▁reply
<0x96>
▁boot
功
▁OB
eled
딩
sd
▁speeds
::<
▁league
kim
ктив
ammen
▁Former
▁allowed
ncia
▁renew
▁planned
reement
▁н
▁rapport
▁duration
▁Army
▁Loss
▁bel
▁Come
▁make
▁really
оне
ه
▁sang
selected
规
Printf
sec
▁judges
ipage
Per
▁Wrest
imat
robe
▁shock
▁Ша
▁rush
▁Mall
information
▁sounds
▁Crusher
ễ
)");
衛
▁Sab
eln
umer
xl
▁–
▁du
eq
▁photographs
Space
▁gear
▁interven
▁Choice
чі
▁sect
rant
▁relev
▁simplicity
](
▁//!
▁superior
▁company
pgf
▁techn
dist
vement
LEVEL
▁Venez
Hard
placeholder
▁gé
▁body
Ё
処
omet
Response
cos
ovo
▁trem
ishing
iu
▁overflow
ття
atts
▁quale
after
rb
▁validation
airy
भ
▁invoke
▁Og
Linked
ám
▁printed
▁Several
▁possible
▁watches
▁Has
uß
▁thoughts
▁crusher
▁Secret
▁whereas
()[
▁India
DITION
網
unto
ологи
▁Alberto
idal
▁emp
arna
储
▁Anthony
▁Dat
▁parseInt
▁boyfriend
▁Some
ción
uno
***
wheel
▁phases
▁pillow
想
▁known
▁Simple
Eng
ultane
▁populations
▁variables
▁nach
▁implement
▁sequence
▁Raj
▁weit
Tag
▁hö
Safe
Retry
▁ej
피
▁aware
été
water
▁term
▁assured
▁Linked
▁nurse
▁Bay
介
▁arom
▁momentum
▁reward
▁brick
▁sphere
ailable
▁snap
rel
<0x0D>
bourg
▁chef
▁Eug
▁fears
▁Aber
▁Zeit
‚
▁шко
▁Mit
▁fus
plica
▁un
GB
iv
▁recon
▁existed
Ray
▁feared
▁му
utschen
▁cut
жива
CH
▁view
▁réalis
åg
idth
ке
Servlet
▁imagination
▁urge
UNKNOWN
▁backup
달
▁brother
▁trigger
ском
em
STR
복
рі
▁deuxième
▁gardens
ilton
▁Brit
▁mul
▁Gam
▁Ridge
▁conflicts
▁co
,"
▁Make
сте
eing
▁се
▁ordin
▁р
▁soort
IDS
▁summer
▁teeth
▁Value
slice
itches
icion
▁fact
▁Francia
▁pdf
ката
▁upon
고
▁providing
views
陽
PC
ți
▁Publish
irq
icro
▁taste
▁распо
ode
▁pretty
▁Address
Month
hattan
▁wound
▁MODULE
▁DO
▁minutes
oon
iece
ю
OFFSET
▁zero
substring
▁fires
hint
▁planets
▁Hence
▁leadership
▁hyd
▁barn
▁Mundial
Browser
ню
ände
▁RES
iration
кра
▁seam
ablish
erre
▁betray
▁Fort
texture
cker
▁Sur
Descriptor
▁bur
▁Zw
▁death
Ste
android
Pol
ling
▁END
▁lost
▁ок
▁ptr
▁challenging
▁pixel
▁Sri
toBe
▁Harrison
isle
▁cabinet
其
▁б

▁Влади
nes
▁club
▁Incre
▁line
毁
▁structures
▁Sa
ierten
solete
arto
uits
acket
compute
▁analog
▁fais
ermo
▁signals
ihood
vent
isce
▁yo
Em
▁Tour
ua
▁Mason
▁retired
▁University
osp
▁julio
▁St
essed
▁(«
Data
Changes
▁requests
тей
▁induced
ķ
ingen
▁welfare
orph
▁ris
vert
ensuremath
▁Sie
Arg
▁buffer
alis
allowed
▁tennis
▁recommend
iciency
▁pubblic
alk
Class
Battle
▁medi
sy
坐
urope
▁utf
Compute
念
再
▁experienced
replace
ién
▁apro
▁random
▁matrix
-------------
нение
▁Tw
▁fr
Math
▁surviv
响
san
put
▁«
ним
ে
을
▁precision
▁televis
▁paint
ender
▁demol
anner
LETE
▁volumes
before
uary
▁Feb
▁Feder
▁dont
▁pc
‎
▁tomorrow
▁humanity
▁Bernard
▁pu
▁submitted
▁arms
▁Vlad
▁describes
▁heap
▁Boys
▁world
(".
dependent
protocol
▁pam
▁statements
▁opin
game
хи
▁фран
▁Transfer
Sent
trfs
▁Reserve
▁shaking
frequency
ality
áb
PTR
▁Gren
het
▁Robin
opens
▁Fish
博
▁Cec
▁Monitor
▁enero
▁police
entially
▁pal
Keys
chie
▁Ric
▁área
▁erfolg
▁posit
Param
▁Observable
▁Glad
▁square
▁observed
ClickListener
?!
▁temporada
▁première
▁necessarily
Conf
后
▁penal
ço
▁backing
▁Craft
▁volunte
▁política
▁tarde
▁listened
Dir
Identifier
▁Victoria
телей
▁Vict
<0x7D>
до
▁#
▁Student
Sprintf
ג
cé
户
饰
builder
▁jury
▁Rang
▁folded
▁encoding
comfort
▁égal
ap
вали
▁Sac
CodeAttribute
▁desc
ется
▁DEF
休
den
actic
opp
_);
▁Diego
arb
▁Lad
▁regional
numeric
rice
ỉ
▁curr
amount
░
Θ
▁sq
▁rul
▁rom
UB
unc
▁orientation
▁symbols
iego
MAIL
▁}));
tere
ạ
▁announ
▁husband
▁cough
tta
执
atinum
ounge
verbose
為
Ï
క
▁Love
utter
▁red
Port
▁ER
▁used
Gen
▁otherwise
▁número
%%%%
杀
vee
ISD
계
แ
uch
▁lors
Enter
▁holding
▁voll
▁Once
eting
Ô
disk
枚
▁où
chel
Left
▁ис
rub
▁Frances
▁Ci
▁flexibility
VALUE
▁Murphy
▁Summary
▁meditation
▁perception
emon
▁Environment
▁$$
ic
inct
▁Members
^{
DIO
▁Grid
▁Cur
EXPECT
▁sha
EqualTo
▁founding
x
cht
▁technical
▁ar
▁buyer
Force
ailed
▁CR
▁alike
▁evening
▁zaw
ump
ан
lection
員
/\
oven
▁siècle
Team
▁plans
▁JS
arn
asted
▁respective
ve
**,
▁Brand
閉
▁accord
▁Masters
▁seen
▁també
arios
▁manif
SE
▁assum
otti
▁від
▁unpre
stick
▁Tri
uate
▁algorithm
Bean
wave
iful
▁feas
▁Hob
indices
周
▁cin
▁ISBN
▁BM
War
чин
Э
▁aims
пло
∑
Accessor
▁ein
▁lang
Client
neum
丶
Ü
TCP
▁heading
iate
▁escal
▁stumbled
Pres
▁racist
茶
▁companion
izont
▁aer
▁unus
package
typ
▁SER
egründ
▁Nem
台
att
REG
▁Register
<0x61>
▁mixture
▁improved
Β
apsed
▁tur
foreach
▁prend
▁Schedule
č
▁Coast
John
"}
끝
▁best
▁leur
TagHelper
нар
▁e
反
秒
ereg
▁Chinese
▁pause
土
▁clever
▁electricity
▁Ober
osen
聖
▁Agricult
▁,
▁capture
ём
複
otal
루
▁cab
▁interrupted
Ā
cas
起
onde
▁Vik
▁conversion
▁somehow
dating
▁Primary
ři
▁since
ould
▁Su
▁vir
>(
▁hero
▁write
▁kin
▁schol
▁▁▁▁
▁serve
Debugger
Aud
▁fetch
hp
▁-*-
α
}}\
Execut
^{+
▁outputs
▁condition
clusion
▁lesson
▁▁▁▁▁▁▁▁▁▁
▁Kiss
♀
▁cities
▁neighborhood
▁Č
ῦ
icy
▁Photo
∈
▁disclaimer
aving
▁Professor
łą
À
atori
▁Besch
istrz
rä
！
▁execute
▁boats
長
roy
ství
your
unde
▁backward
enced
.),
私
▁happily
ifica
▁&
▁Ban
▁earnings
▁discrete
SK
uber
▁installation
select
▁CH
document
▁spaces
▁breathe
чних
▁bol
mother
▁Asc
▁definitions
▁por
agment
sun
born
▁prom
▁recher
iante
▁Democrat
shire
▁cort
Canvas
진
Ty
▁interaction
▁także
▁severe
picker
▁legally
▁obligation
AE
<0x14>
SEC
Range
▁к
NC
▁generic
▁Rev
term
">
oust
▁figures
ione
▁Nic
ingham
▁YOU
▁fis
SN
▁europe
▁criticism
Members
crim
▁segment
ර
▁dz
▁creator
▁})
quet
One
▁injuries
▁extra
▁Pay
▁tropical
▁Left
着
inst
categories
oi
▁buyers
▁mamm
▁SO
ById
▁foreach
▁organization
︙
fel
▁sure
velle
CRE
▁Fran
叫
▁increases
yt
city
сты
▁worrying
▁ranking
▁worm
itution
лия
▁Lead
▁seem
Unis
ypes
mux
Б
華
чё
▁Whether
timer
mount
▁uma
govern
Bar
PU
ehicle
▁psych
▁które
▁terrain
ulus
Rev
KK
▁Tat
▁memor
dl
ii
oming
▁edited
ს
▼
▁Nou
▁atomic
▁boring
▁circular
uster
▁Configuration
得
ars
Sp
Contains
▁Ва
IFY
fy
mmc
rys
nis
egu
jquery
izione
TEST
сті
▁\[
▁lazy
graduate
▁Ensure
▁winds
▁om
▁hit
▁Act
kol
kwargs
preventDefault
▁proceed
▁*)&
▁декабря
calc
▁med
-----
spe
▁cheese
oci
▁proposed
gov
ifier
}}^
▁gennaio
▁protective
▁Vic
ustr
▁shower
▁placing
Mix
resent
▁Win
ifting
▁stan
激
▁RE
▁cried
\\
FW
▁результа
Stream
▁treat
▁URI
І
▁hooks
▁valley
iqu
argument
Series
▁Technical
▁когда
甲
faces
хов
▁Ju
▁alternative
▁Museum
uerte
▁SE
Sch
4
▁overlook
≤
uego
$~
▁Fun
ave
▁Rod
宿
▁puzz
simple
rike
ẽ
▁prototype
К
▁That
MX
ud
REEN
▁Mer
▁purchased
啊
▁fre
aters
▁research
▁streaming
▁urgent
├
<0xB0>
继
Encoder
лази
nio
▁Court
▁Need
poly
▁WE
▁coff
чат
▁INFO
▁collective
▁strengths
▁Бра
"><
iste
▁mundo
ugu
▁Assembly
▁proves
ała
ulated
añ
▁notice
▁API
цион
▁Pad
ully
▁december
пан
▁newer
▁ought
▁INC
▁Right
RIGHT
▁Mus
▁Rem
▁helping
▁Only
▁academic
▁usage
▁Network
jour
▁literal
접
icus
Proof
▁Chapter
▁normally
▁O
▁nav
Location
ulations
changing
▁Fo
忽
▁stad
▁воз
SHIFT
▁Invalid
▁человек
▁febrero
ა
ُ
acked
▁contro
▁Inside
eland
ト
▁nullptr
▁Using
Boolean
▁lit
▁Landes
anter
▁pok
▁challenge
▁Ly
READ
▁Commander
last
>=
▁Arbe
▁Fem
▁candidate
▁glimpse
▁functioning
资
▁Medicine
ultural
▁Mic
▁settled
mock
宝
▁conoc
▁Impro
▁Tun
▁Best
▁mě
▁Draw
▁contempor
인
atives
Strip
▁dre
▁Loren
▁Texas
Bundle
▁uitgen
packed
oggle
és
prototype
▁nicht
<0xBA>
▁providers
▁mentre
▁litt
▁competitors
AY
NET
庄
ade
мов
atie
ampions
▁office
▁teles
лта
tot
▁Ни
▁Кон
Read
▁Dire
▁aesthetic
удо
▁encounter
馆
▁laug
▁statistics
eters
še
Url
ע
Black
('#
Commands
▁gentleman
▁Trump
▁ud
Ж
stre
inx
▁spread
wa
▁sym
fore
pon
agem
overty
▁Context
▁Date
<0xCD>
œuv
iting
▁Hern
则
Res
antage
xxx
称
▁firms
▁displayed
▁développ
ರ
▁consist
chester
▁substantial
▁nightmare
ポ
▁update
▁thro
rypted
▁Sean
plit
evt
ambigu
▁protecting
▁seva
▁dag
Ÿ
ľ
news
▁FM
▁deadly
▁log
▁При
▁paused
▁dici
整
Headers
▁surprising
▁Bab
ць
BITS
▁Trans
Signature
▁Apart
iago
ث
gorithms
▁code
▁Stalin
▁maps
uen
riel
^\
‌
▁product
function
▁чи
🤷
強
lichen
▁Burn
mitted
▁prompt
leveland
ennis
DM
uros
▁sixteen
perty
ремен
▁Protest
▁came
▁неско
!"
insert
Bill
▁discre
▁typically
'],
▁wanting
begin
▁игра
▁parallel
▁reference
÷
integr
▁Requ
👍
▁symbol
place
▁Franc
▁Enter
▁Lie
ensk
▁Би
zej
Ar
nate
昌
▁day
rand
▁washing
urer
ension
schema
▁handful
Any
▁жен
時
▁sulla
Zone
▁more
▁rel
▁W
▁toujours
▁Wil
▁Villa
▁Center
aught
netje
▁má
rgb
▁frustration
plicit
▁Catalogue
,.
віт
èrent
▁Grow
▁Cont
▁Stock
RETURN
CONNECT
riterion
dog
itage
▁HA
setAttribute
hesis
▁dorm
▁store
͜
angers
Cred
▁takes
석
}^
ಲ
ić
▁ont
apshot
▁поли
▁Georgia
▁overs
ʁ
rus
▁journal
▁Martha
/{
▁Kit
▁appealing
il
▁vector
▁ersch
Now
!--
oct
▁Nas
▁harmful
ême
abet
▁Queensland
매
▁should
▁Bath
▁loaded
bad
▁indication
▁Now
RT
▁cannot
ques
▁FALSE
quate
learn
star
▁listeners
▁'[
Play
▁question
Ed
开
це
ated
▁keep
ſ
▁&(
▁streams
ball
▁fo
кти
▁nest
▁stored
UN
work
⇒
▁}
▁examination
▁release
▁För
Drop
▁liver
%
ٌ
andid
▁clubs
ORDER
▁###
TYPE
▁percent
▁patience
ة
左
ionato
nob
pref
▁Bryan
ACH
▁сле
▁town
VERSION
parameter
▁recuper
Ō
采
Segment
▁Box
▁appe
▁Roll
oc
primary
▁savings
Lambda
▁trunk
hemal
rv
property
escape
sung
customer
reib
ktur
~$\
stringify
▁дея
▁±
▁состоя
在
▁SIG
Linear
ქ
▁PDF
▁supported
▁post
nh
▁theater
hes
▁sep
ooth
SM
<0x72>
profile
▁grid
略
Journal
well
▁pressure
ea
▁Knight
▁seller
ฟ
▁VA
ο
ォ
example
▁to
ycz
▁Wien
omitempty
▁rubbed
s
▁projection
▁occup
met
▁barrier
▁expanding
achten
▁over
inese
▁numerical
ro
▁sock
口
allow
▁э
General
зь
Prom
▁pity
▁plenty
CL
▁likewise
anguage
▁chairs
▁Japanese
mixer
Ident
Main
curr
▁gene
▁Games
?;
拍
▁monthly
ylvania
▁dom
sent
ospital
pd
^{(
▁Albums
▁цер
Video
▁preventing
▁promise
▁ver
bus
quote
射
▁domin
ى
▁Oscar
▁dynamics
▁uno
只
▁Serv
▁df
Member
lett
дар
odge
▁diplom
▁Naval
iliary
RESULT
school
▁rotation
西
▁promot
fortunate
▁Albert
▁Publishing
ki
▁talking
,-
布
heim
eve
▁сезо
anz
▁distress
labels
▁Commons
Serialize
▁relevant
VT
ushing
eltemperaturen
▁asp
▁want
▁Prom
▁wine
▁GR
orig
▁contre
jos
iliation
boost
iendo
▁début
boy
,(
த
ibrary
牛
▁Mind
css
▁accept
ம
ex
▁ninete
▁older
位
▁C
ple
▁noon
Then
ō
acon
Microsoft
unate
▁Branch
facebook
▁stole
Interface
▁retry
▁był
변
React
kn
▁representing
분
▁Hen
hado
▁Rock
▁label
▁End
▁проце
ския
After
NER
▁ill
Sequ
▁tax
▁drawn
ufficient
▁Pas
▁Pop
BR
row
▁ram
con
▁Harbor
asons
▁sud
▁Foundation
cock
ěl
▁athlet
storm
ulture
TMP
▁Minnesota
itness
iens
havior
тий
aland
▁Ш
extensions
▁Franç
▁Phys
<0xBF>
▁enter
▁Testament
KEY
▁embar
Contact
▁einen
ǔ
▁Nu
析
getString
ិ
ures
Agent
grand
queue
▁Украї
bg
ubernetes
《
contin
ję
▁Scar
enter
ἔ
▁Architect
互
▁territo
éd
ían
▁revol
▁Men
▁real
▁begins
Area
▁childhood
微
phas
###
套
serde
▁R
anches
▁alliance
▁needed
ONE
ène
▁stared
▁испо
того
лага
твер
akte
▁veloc
etry
▁lol
▁neuen
उ
Direction
▁signed
ijo
▁Ј
serial
rote
CN
it
mathbb
rate
▁aircraft
▁raising
ossip
:}
ложен
▁Falls
种
▁supers
▁brut
Values
▁plants
▁consumer
▁sword
▁Lesser
▁Durante
▁Four
▁interpret
▁Hung
adapter
Packet
▁то
ßer
▁diagram
▁equation
声
▁proved
▁american
▁Lic
шения
trag
AR
esta
oriented
ван
ƒ
▁differently
▁skin
▁Д
▁performance
▁basketball
▁Durch
จ
据
otes
▁Nar
▁party
áz
ofs
▁andere
▁SC
▁engaged
▁Heat
讯
мери
▁Euro
куп
▁kernel
▁vary
▁nap
▁í
▁invariant
▁sake
▁climbed
▁telling
localhost
updated
▁it
▁Den
Decimal
▁men
▁juris
島
Getter
▁Pat
opol
▁Creat
PK
▁Ald
)?;
▁configure
othe
É
lists
▁organiz
▁sex
\,
ница
ats
eth
▁fallen
▁titles
ąz
国
▁serial
▁Cor
序
▁Doc
▁Sandy
▁law
▁Platz
ісля
▁happiness
▁emission
▁Hudson
ORT
司
▁windows
▁step
▁fifteen
anch
▁hung
▁#[
istence
irable
▁unfair
­
▁wealth
▁avait
Author
ције
">
When
▁LI
▁vie
罗
▁Protocol
results
▁Cell
allet
Absolute
▁opposite
▁WM
▁unique
建
▁append
▁justify
▁dest
▁safety
▁measured
▁ash
Setting
processing
Uniform
ָ
riter
▁mis
▁Individ
▁WP
저
мя
▁pur
▁humans
▁immer
▁Nor
更
Flow
▁locale
▁Psych
invoke
▁killer
ordered
▁full
▁sch
idents
xd
▁disabled
▁algorithms
erness
Alt
▁chapters
▁ki
▁lose
ず
come
OutputStream
▁cast
▁shame
▁laughter
whe
▁explanation
finity
▁fantastic
ync
ал
▁DATA
ր
td
▁js
▁crack
▁jacket
▁modo
ACTIVE
ING
Alloc
グ
NEW
ció
ost
▁auch
pie
бря
ця
Vi
▁spatial
▁explicit
Factor
▁dit
irth
eight
reens
ڈ
istry
ёт
ab
Props
▁Africa
▁Zach
设
Attachment
▁Ur
▁financ
Raw
▁loss
№
Ṭ
▁tijd
▁ov
nica
거
hadoop
utsche
amination
▁Daddy
▁Labour
▁divis
▁Peru
▁Virgin
▁restored
▁exports
ication
▁types
▁occ
ague
byte
People
―
DC
▁Dé
▁independently
▁whose
▁despair
▁questo
jack
▁resort
▁dy
▁Tow
REGION
▁designated
angs
▁excellent
hentic
▁Geoff
ű
▁schon
тва
▁sol
▁Shan
Html
▁Americans
idges
oux
tt
Idx
▁Stream
▁Ha
▁constraint
▁Kentucky
BPACK
who
)?
▁Ma
▁Alexand
as
~
십
세
le
à
preview
ські
gorith
▁dece
▁dying
▁fu
▁Tony
Bytes
▁Joel
park
▁forward
▁gibt
▁whispered
LIC
▁leads
ми
▁пр
Ratio
▁failures
two
▁Mun
rika
▁Gay
icago
백
▁budget
▁Cho
▁Get
lished
ression
▁från
▁ho
adget
▁Volk
卫
▁scatter
................
help
▁pistol
bottom
("[
hend
ska
Redirect
▁ruined
idential
▁dri
▁travel
經
▁fields
▁fract
‑
▁truck
▁demands
});
▁Andy
▁Probably
▁whoever
arlier
順
▁disadv
ü
II
ié
person
▁DM
fulness
▁Mai
▁performances
reverse
ál
▁обла
&&
▁approached
alen
真
ator
▁throwing
VAL
▁corrected
昭
▁expectations
ss
▁Royal
ueva
▁arbitrary
reated
▁Swedish
structure
ş
enn
개
▁"{
Very
▁ambig
▁exclus
社
Links
ând
ho
▁rein
|_{
▁Where
感
▁ending
▁casual
▁healing
▁name
▁Gef
ɴ
Scene
▁Schw
chnitt
turn
▁sight
▁unconscious
req
▁sorts
▁exploring
▁Cris
lessness
▁Für
▁analyze
He
エ
tyard
getC
▁comme
ссий
:-
▁==
▁Bell
grav
▁familjen
▁ways
ków
uni
▁Kil
MEDI
▁sale
▁helmet
▁streng
eenth
▁tube
stream
ca
Encoding
▁przed
ἰ
▁Hannah
▁Ec
▁aston
ĉ
▁description
▁len
VALID
mission
bin
}^{\
▁Susan
▁Pom
😬
▁сте
▁Roger
▁seinem
ieu
Web
▁leaf
▁terrible
stead
cache
>',
Lite
(
▁reun
furt
玩
▁paths
▁anterior
病
[[
▁Montreal
."]
박
▁rit
xspace
)|
▁пере
Radio
▁frozen
this
Bas
▁tight
▁farm
ゲ
ℓ
keit
checked
▁Design
▁]
▁Mo
▁Vienna
▁Clearly
Cir
Blo
ল
🌍
若
▁norm
▁grew
😛
ɨ
▁Northern
irtual
▁Amanda
пози
lst
nv
disable
ger
▁detailed
pletion
▁SY
▁jewelry
ğ
ablo
▁abund
▁"%
util
▁Aleks
▁reported
▁Radio
▁nineteenth
▁bab
即
Oper
▁Thom
▁semi
Ins
цо
i
inputs
ECT
fixed
Our
▁disgu
▁Trib
▁Market
◄
▁intersection
ande
thlet
▁mor
▁invas
▁JSON
ivity
▁highly
부
us
▁campaigns
ht
▁Bour
戰
ashed
/,
▁platforms
▁insist
▁destroy
▁Hit
▁ster
但
▁perfection
onym
git
▁Benef
▁divers
▁wo
стави
*/
▁burning
勇
ჩ
▁probability
▁Naz
▁mét
▁luego
▁Azure
▁fond
▁ps
▁holds
ounced
udio
Total
▁Ich
▁applied
▁maintenance
notations
ток
▁Dry
getCurrent
한
珠
▁Order
▁federal
▁phil
▁pode
vc
SYNC
Bind
▁fail
较
лле
ុ
▁speakers
▁tells
ficie
\[
剩
://
owe
▁moder
▁Miles
▁ар
▁despite
▁actions
曾
рен
▁still
▁Trad
售
▁come
▁punct
▁corpor
▁Top
ри
ိ
▁Га
ノ
▁Him
weight
▁månaden
▁beneficial
▁befindet
▁incorporated
▁conscious
▁listop
cut
▁Focus
alom
estone
.....
▁Fil
aku
irat
Ph
▁Whatever
▁whites
Point
▁described
chio
▁февраля
ব
BYTE
connection
▁Vec
uba
icate
dru
DIS
▁interviewed
▁fourth
ỗ
題
▁minimal
posal
бро
▁his
▁breathing
▁Alice
}|
dsi
ieux
ت
ặ
▁мор
ство
▁security
▁hear
▁vi
Writ
▁stays
▁eyes
kill
▁instruments
сня
▁atoms
constants
▁Э
▁finished
▁seconds
ಗ
sf
▁readonly
▁ranked
ск
▁университе
она
PRI
ǒ
bucket
ren
▁Throw
▁Apparently
▁chances
WH
imation
mathcal
▁assist
▁emphas
▁Six
ipher
▁accepts
▁Ran
===
▁afternoon
<0x8A>
▁Craig
Event
▁containers
▁Felix
广
ktion
▁relation
mee
ADER
DEF
▁god
power
▁falls
▁tanks
眼
▁Kön
▁vulnerable
ocked
clude
▁Head
▁años
▁ehemal
uter
▁bail
^+
▁utility
▁Ast
▁(!$
▁Ces
▁neat
▁alternatives
Processing
▁chapter
▁tier
▁One
▁Ä
▁sees
▁rt
ма
▁against
<0x75>
▁particle
▁inaugur
과
AV
▁veterans
▁callback
ἄ
sid
krieg
)}{\
▁geldig
▁Web
▁equival
ното
展
😁
тя
▁Great
filled
▁Nad
bbing
링
verter
Fil
▁км
кро
▁nursing
▁Organization
▁robust
⭐
leted
▁Philip
基
previous
Sup
лав
▁Kansas
pse
▁+
webpack
ivo
<0x89>
▁composite
hid
ната
▁WARRANTY
idy
rite
okrat
▁simulation
topic
▁Ask
▁chez
oom
Whe
LOT
▁\{
▁books
Unknown
L
én
▁friendly
┐
▁ví
photo
$;
Parser
Done
▁Faith
▁opacity
▁Fly
▁Ax
▁songs
TES
▁leaned
metic
▁$("#
visit
▁stain
째
암
VP
▁Create
▁suspended
▁secolo
▁TL
Cap
ța
ках
▁СССР
▁hundred
!)
****************
▁Scot
вор
▁motivation
▁admitted
input
▁Ho
iel
abama
<0x4E>
{
ца
ycle
▁чер
▁(@
Gener
ROOT
▁transport
▁bread
▁hence
циона
San
uning
▁Nevada
▁hommes
▁"");
▁'../
▁compet
ого
'}
▁Career
▁Pict
iba
inity
Status
▁IMP
▁отри
▁тер
Observer
錄
DataSource
▁weiter
▁Gem
.*
resize
▁Süd
▁nod
iffer
itation
CHECK
▁userId
body
汉
лі
▁hum
▁shots
▁accessed
grp
▁Revolution
▁try
▁station
Manifest
publish
ються
land
dom
▁possession
▁een
HS
ublice
)</
▁besch
▁kick
ене
ichael
▁Io
▁mand
▁sov
翻
▁synchron
▁panel
▁Lincoln
▁realization
▁tp
žen
▁echo
ida
▁identify
VM
▁learned
▁gym
posts
성
▁captured
▁Rah
High
▁Marshal
따
реди
▁cru
▁andra
▁produces
該
dentry
▁cheer
ља
▁Lawrence
▁surviving
▁dual
送
▁Authors
▁connecting
Disable
▁Christ
lights
▁aster
▁descriptions
▁cur
▁Lewis
жа
▁wyn
약
▁Mons
burg
▁conventional
room
▁atr
▁parents
▁batch
▁controlled
▁Mathemat
мож
▁вели
failed
NL
ther
idas
Special
▁Frame
▁theoretical
▁Beijing
PCI
▁lover
ften
▁AND
wm
▁Bishop
dbc
▁tip
▁Products
]\
ityEngine
▁valuable
▁counter
▁Vision
pliers
▁diagonal
▁sustain
具
▁expression
▁rely
}`
▁Heavy
▁check
Running
東
▁disappeared
▁TCP
▁construct
▁Lind
adata
Hash
▁Economic
่
년
記
omorphic
▁dancing
▁Liz
와
лиза
▁высо
▁Sweden
]$
☃
▁integrity
Each
写
matched
unte
plic
кан
▁ba
▁deemed
ყ
√
▁obviously
ogan
per
--------
▁demand
▁Bras
ブ
ńst
▁surge
цы
CR
р
▁winning
ith
TagHelpers
▁ourselves
▁highest
aque
▁Forces
▁comprend
▁Emp
▁whis
▁dated
▁Carolina
▁piano
▁hass
ag
▁participate
table
filer
BB
properties
relative
運
▁costume
▁til
▁attitudes
ks
▁print
графи
▁)
simeq
issent
ition
ников
aser
pond
azure
▁references
▁paragraph
▁classical
▁mem
▁bugs
HANDLE
▁{
▁million
empor
▁Biden
□
▁roz
▁Gilbert
▁Pred
Max
▁hospitals
iving
ран
▁Ro
▁bre
▁origin
▁enters
owners
▁nominated
▁EDIT
gow
缓
宣
zeit
▁partly
专
▁Vill
CAP
=%
作
▁Bor
▁vest
▁suggestions
▁treatment
▁saying
BO
▁believing
▁ci
draw
▁améric
▁plat
▁Ú
▁throughout
Modal
▁Prin
Du
udge
石
▁militar
rogen
▁bears
strap
getItem
▁amateur
atri
SQL
▁reputation
ones
▁inj
oga
emente
😢
▁call
]['
FER
▁parties
▁craft
▁lifted
▁simultaneously
rpc
caption
tered
percent
Fatalf
ede
▁rushed
Structure
▁oct
环
mber
cm
▁sending
pection
▁triggered
acz
祖
Statistics
ien
velt
▁kommun
▁Collins
▁acres
нва
▁guards
▁crushing
▁Saint
virt
▁screamed
▁white
OwnProperty
▁mk
anst
cluded
▁voices
▁vital
▁COMP
▁wider
破
▁Camp
omer
메
""
▁comprom
▁locals
idle
hung
гар
▁study
▁Sund
▁rx
▁хра
▁Londres
currency
马
银
▁approximately
▁stra
square
▁gesture
幸
▁Neil
두
xb
raph
vm
路
bage
По
▁lect
urls
▁declaration
мерикан
▁cancer
▁surprised
ART
sing
▁break
degree
▁▁▁▁▁▁▁▁▁▁▁▁
▁contribut
▁realm
▁inode
▁elect
▁abol
▁especially
nesday
▁heaven
multicol
pieler
▁IMPLIED
enabled
PACK
▁owns
nico
expr
▁engaging
▁:=
▁politics
].
Factory
ě
▁row
CY
▁anticip
▁Sem
ological
itating
▁Kate
tiny
▁unem
▁branch
▁quatre
interpret
▁altogether
▁oz
bold
▁April
шти
▁accum
yles
▁Ger
▁München
▁ref
yg
agr
荐
▁themselves
ствен
available
surface
▁glow
▁fileName
esi
retval
вро
zá
texttt
Ð
ori
▁NAT
▁VER
▁behalf
present
VE
LINK
▁bag
MEM
hang
dispatch
operations
▁Wol
arily
▁nat
▁neglect
Pair
orious
▁medical
▁consecutive
owski
Price
ése
▁tous
▁reserv
anners
▁Frauen
▁compression
▁pages
▁Vert
prefix
▁Man
▁estad
苏
▁hand
quiry
▁SD
▁mirror
ゼ
▁Acc
▁links
▁Pl
▁SN
Split
гу
ę
Auth
mode
▁Ils
ierra
nov
▁få
Љ
责
PH
▁MERCHANTABILITY
Launch
刘
Http
rix
ⵉ
▁expense
论
ơ
Rules
▁Equipment
izarre
▁\
ственной
Temp
▁sticking
▁administr
▁/*!
ware
▁arranged
▁ans
мат
▁на
B
ι
▁Dr
cursor
▁integer
Fast
出
register
];
▁rifle
delete
isa
▁corporations
eze
▁ruling
▁Syria
▁Poz
▁tv
▁haul
育
▁Cle
ulum
care
iterr
▁Popular
▁surveys
>&
න
bes
▁critical
▁Blockly
To
fen
quot
▁Sic
▁Pars
▁class
sin
▁atom
八
▁Bro
<0x6D>
rick
Seq
\+
irmingham
ビ
围
▁controls
▁Hamburg
▁neural
▁'/
▁Access
校
▁magazine
Ga
▁},
▁size
▁å
▁haut
Ş
अ
▁utilize
▁shadows
▁trainer
js
footer
▁associate
▁Marcus
nim

ória
▁Connection
index
Just
▁campo
▁realized
▁dude
▁whom
ray
propri
▁fem
ʿ
▁breaks
▁reflected
▁$$\
▁полити
▁cler
orage
▁Cohen
^^^^
aje
Field
tag
▁resc
▁cookies
▁+=
earing
▁inch
али
▁United
▁generous
WEBPACK
▁Andrea
▁avoided
▁vivid
Properties
▁war
chunk
▁computing
▁ци
▁oder
▁rendered
▁Fresh
楼
群
visor
▁Europa
▁};
▁NS
▁intelligence
▁<?
DER
▁convex
Date
▁cidade
個
ці
--)
▁Joh
▁IT
aute
▁Yu
uffed
k
▁Hon
wards
▁artikel
kan
▁Our
show
yle
▁occasional
▁место
▁presc
▁Ath
▁werden
▁Bod
▁rect
aaaa
quer
▁vertical
▁vet
seh
▁embod
reflect
▁rich
ピ
▁poor
nent
пов
▁MVT
▁Gust
▁absence
▁scandal
owa
▁Ż
Updated
▁screen
◦
▁Roy
▁edges
▁Afghanistan
ништво
▁questioned
▁Bibli
▁dynam
▁REG
zig
▁rare
▁categor
▁Soviet
chos
FIG
Transition
ż
▁lights
▁awareness
ಿ
isions
fragment
▁enemy
▁login
▁Gener
首
It
駅
Added
▁те
▁noted
▁Legisl
år
sha
태
▁Mex
▁France
annels
<0xFE>
▁favourite
▁Jag
▁venne
Ex
erk
γ
▁five
▁included
赖
upload
▁famil
poque
▁ArrayList
дова
objects
attach
▁({\
▁when
eqnarray
▁annual
Band
▁Charlie
▁epid
走
▁interested
enez
▁República
▁bapt
reno
tree
▁Within
▁Dead
▁hex
ÿ
▁kann
▁scattering
▁Pé
▁expos
▁dare
إ
▁electron
▁Brown
▁Method
ön
▁Menu
“.
Controller
▁tam
ered
Transfer
▁Т
▁favour
ning
▁officially
▁elaborate
▁website
ి
▁v
▁comput
찾
orld
华
crete
([]
ut
▁(&
▁reminds
▁pregn
ដ
olds
▁Prof
////////
▁mild
ici
▁shield
negative
еред
Tables
fare
控
▁ID
Cat
ax
xx
▁soon
▁army
ст
▁extends
▁fog
▁Tot
PCM
CK
▁neg
ppe
▁polite
▁hook
а
▁scary
ttp
▁encountered
▁designed
"\
inden
Customer
Font
▁restr
▁USB
▁Account
▁voted
▁Ros
Constructor
aired
Ready
▁express
ikel
▁ghost
<0x55>
Float
Alert
▁reserved
▁burden
▁bonus
▁timing
ilis
para
▁novembre
▁milit
▁pushing
▁developments
▁must
▁Communications
細
▁Cook
covered
▁Commun
DL
transaction
)){
▁denotes
uther
ity
haps
▁sciences
リ
▁Prince
▁paras
erd
▁esp
▁press
akespeare
raham
▁capitalism
▁assure
♦
▁divor
▁cryst
▁dental
▁AN
▁{@
▁ma
c
▁Vice
ively
▁has
undle
▁vr
▁fue
▁stem
Ь
{(
▁monument
▁prey
▁Burg
项
apeut
▁Recently
▁finance
▁itself
▁True
▁discour
▁Cent
🙏
▁спе
▁French
fake
%;
ODO
PA
▁una
ney
гра
bal
▁arrival
рова
▁Sub
▁light
▁retained
▁faithful
▁Book
aker
avy
(/
▁bags
▁muscle
▁fought
▁dub
▁old
▁Inc
Btn
ured
▁Wi
UserId
▁октября
▁Lower
▁arise
▁locks
ahan
mathsf
cin
non
▁subur
}}_
▁Door
cop
sc
▁ph
▁fuel
ภ
▁Papers
╚
Global
▁Pear
▁deutsch
▁Black
cs
▁interview
▁initiative
▁sold
寸
fly
▁whole
▁cod
▁Sue
gfx
▁analytics
ett
▁Sax
▁Bou
uv

mad
▁node
▁rot
▁snow
▁interactive
▁manufactured
▁ARE
▁eager
cover
▁HashMap
▁flow
▁Frank
aks
▁counted
ु
кви
шего
Workspace
tem
▁determine
een
eros
ului
▁######
abe
Flag
်
▁brave
▁Fac
rome
▁م
▁pub
им
]).
Dig
ulty
getProperty
▁Final
▁beaut
▁revolution
▁month
▁guided
▁Gill
essages
▁look
▁IC
▁Rogers
']['
у
oubtedly
ashing
▁crit
▁weekend
▁Els
<0x43>
existing
Front
▁ok
phase
▁beiden
▁finale
▁ONE
兰
alties
└
Init
▁popularity
▁Gun
▁tons
ajax
qu
▁—
.”
SL
tele
▁accomp
识
宏
▁stood
т
COMP
ensen
Lang
Miss
▁depends
▁Deep
▁playing
▁Kos
ulent
Panel
▁miracle
终
▁CAN
$_
iembre
▁will
igation
▁rising
Box
▁bore
amiliar
▁fp
▁elem
▁team
▁clause
▁brought
▁age
zung
ССР
ário
ola
▁entertainment
▁learn
乐
▁Oh
▁scream
forming
▁unsigned
▁Nintendo
▁extent
▁eerste
inal
comput
naire
▁Studio
▁module
sol
▁concer
▁Edu
▁song
▁stell
itol
실
▁seinen

�
▁mechanics
خ
ema
ʒ
▁climb
Hz
istically
▁gathering
▁Better
▁mentally
▁Invest
rost
▁oven
么
▁pagina
▁recip
▁reve
▁Sy
<0xA7>
fic
zeichnet
▁Hell
▁exact
aden
▁управ
▁Tam
▁welcomed
▁Racing
助
ajor
Engine
▁Share
▁anybody
▁loyal
.’
▁FE
▁System
icos
<0x2D>
▁CD
Implement
appers
▁dou
▁competitive
lij
sey
ší
▁preparation
XY
▁through
▁Eliz
▁Soon
▁Comm
ierz
▁miejsce
▁cam
lm
▁a
▁testing
▁estimates
▁prisoner
FIN
America
ром
青
mans
uu
▁these
▁als
▁Airport
高
▁User
vma
lot
мб
▁llvm
▁Billy
▁bind
▁typical
ỳ
sburg
▁zak
▁Bir
mond
sert
მ
hbar
Completed
▁increasingly
sson
▁Latin
thrift
▁await
straint
ifying
asting
▁comment
▒
dis
▁letters
▁lí
icia
Mu
$),
atre
raft
&
▁exam
Endpoint
ześ
__);
Iss
▁according
▁preserve
ide
wen
my
graded
plug
▁restoration
équ
▁ease
▁jako
messages
andy
▁anth
▁merchant
Fin
Perm
▁ні
▁Implement
lene
▁Century
▁audit
头
line
▁AS
▁Leon
▁Station
▁cô
▁minimize
Json
▁dut
▁приня
▁consult
third
▁net
▁gef
▁mut
缺
ami
wend
ְ
▁terminal
ulse
▁panels
ificate
▁circumstances
▁Bear
лаго
그
Pipeline
▁mov
▁culture
▁provide
iber
слу
▁drums
▁longer
▁discussion
▁mise
랜
བ
ق
仍
fff
▁cref
Autom
▁der
Fig
▁cash
incing
osis
find
ervice
▁flu
chip
▁conservative
ruption
读
ource
▁this
▁Em
▁distract
listen
STO
vision
▁generator
▁disappear
ABILITY
íst
▁quar
▁amer
wer
г
thing
command
▁forget
▁pierws
울
▁define
▁bo
boot
}}_{
▁sleeping
users
▁lecture
ʏ
▁profile
▁uncertain
▁WC
▁tests
ⵙ
atalogue
Direct
лё
ises
Writer
isely
elde
ke
acts
▁me
▁grass
▁Cat
search
▁lighting
▁sweet
ང
▁controller
¦
▁flick
▁obra
nak
▁aur
QU
user
▁grateful
lauf
weet
▁manufact
▁Leop
assertEquals
▁Bever
ш
ährend
struct
╝
▁meg
▁spe
▁msg
ulf
ʀ
Admin
▁td
exception
▁possessed
▁child
▁fear
rapper
▁vul
owie
aughters
мати
DIRECT
▁Tan
▁mine
erved
▁Mario
▁Allen
▁manual
ep
plies
/:
‍
▁autumn
kit
▁Don
▁d
check
logo
▁wenn
rett
▁mechanical
стратив
連
▁developing
▁COL
▁experi
Enc
prise
rows
ש
Ζ
▁Hind
▁compensation
▁pool
sky
▁Barcel
var
▁ю
unity
▁Gets
FEATURE
emu
alle
▁location
▁examples
tit
▁Von
pcm
▁lines
$^{-
ples
breaking
msg
▁Greg
▁germ
CO
▁achieving
Permissions
言
▁tent
▁lan
▁metadata
▁Os
XML
▁camps
alone
iring
CONNE
▁jusqu
orie
▁thread
▁Tim
▁infection
▁HT
▁Georg
▁Blo
Υ
ber
nership
▁yield
BN
esk
shader
▁fl
▁Indust
▁philosophy
▁estimated
▁gri
Preview
inea
▁musicians
HD
▁Donald
pos
▁Bi
odo
▁advertising
▁genu
INIT
olia
awi
cen
▁rod
▁leather
Е
Border
omon
eping
ủ
▁Batt
days
erten
vers
▁aside
▁belonged
Entry
os
▁sector
▁inform
▁eternal
▁bombs
▁Vall
▁die
xs
▁stone
▁posts
tags
ête
CLK
судар
▁Unidos
kin
err
▁result
accept
▁opponent
小
▁до
tw
▁Authority
anal
▁José
▁bod
Austral
nik
Mil
!”
println
▁demonstrated
▁compound
▁cars
▁solutions
rol
▁clo
▁även
▁consultant
▁PART
額
aign
FL
mathfrak
▁Herm
▁premi
ʐ
("
pet
▁`${
▁stations
▁copper
▁female
▁lieu
boldmath
▁hosp
<0x70>
▁Square
▁Virtual
당
EventHandler
▁sla
azine
both
▁Capt
....
▁tiempo
▁meantime
▁modes
▁sensitivity
ocker
><
rotate
kb
Overflow
▁prev
ensch
▁seguito
failure
▁todas
▁Мо
quare
▁appeal
▁documentary
при
ucture
▁Guide
rz
omo
▁divorce
▁establishing
某
gorithm
ston
▁pour
▁secretary
Property
▁Marco
▁arrange
▁Niger
確
bourne
▁creature
▁trat
▁referring
MODE
spring
▁facts
▁año
▁commitment
matrix
WC
CLU
▁resources
▁preg
endpoint
▁сем
▁Wolf
mem
▁package
▁December
▁march
With
oirs
řed
Equal
▁Licensed
▁layers
▁Namen
First
record
ワ
▁creatures
규
ocate
▁Adm
▁Area
pci
▁Rob
vue
▁BY
▁answering
▁SSL
Call
Resource
Script
uspend
MM
IST
▁Ign
▁Fisher
▁bron
▁afin
Bro
asant
▁Besides
▁esta
▁bek
▁invested
▁derived
ி
▁foods
eed
▁revealing
As
┈
close
aka
▁PS
True
▁Verm
eft
pur
六
▁meille
python
ENV
▁Ralph
ack
ales
▁destruct
核
estro
▁abandon
▁Port
▁Mel
▁Argent
▁Mas
▁гру
omsnitt
Click
▁capital
zeich
tp
媒
▁smart
érica
▁implementation
писа
▁lugar
ustom
Bo
BUTTON
▁Fail
▁моло
Diff
▁für
▁reduced
liter
SET
▁motor
▁Russ
▁pump
▁Soph
ecut
▁frequency
mac
▁modern
▁gro
($
▁Gu
▁dur
sure
="../../
LEFT
▁Auss
ных
лся
▁Emma
WISE
mile
background
券
천
▁Hun
▁morning
anni
▁SV
▁fool
eness
▁vegetables
は
播
₄
Content
Are
erra
▁femme
лом
▁painter
chk
치
▁rodz
▓
Finder
▁CHECK
DU
lim
uesday
플
▁#!
хі
▁ener
▁señ
▁EU
reck
▁Leg
STRING
은
imore
uan
▁freely
ря
▁short
Ut
ギ
▁save
▁mx
შ
▁Pa
ov
iert
▁errors
▁arist
tbody
▁Yan
сть
▁diverse
诉
ү
▁metrics
▁sele
▁cz
PIO
▁entertain
Mesh
▁depos
▁Om
icies
▁Stuart
▁salad
▁pa
Н
Bank
▁complex
ay
onte
▁acquisition
ège
ieck
▁Auto
▁Mah
▁defining
pto
мент
ب
▁GC
————
▁essays
▁cosm
▁shy
▁candle
▁quella
▁--
▁sb
▁Campbell
btn
▁worker
拳
post
ul
▁Multi
fb
ded
▁tiny
▁landed
▁dressed
▁polar
▁homosexual
▁Touch
▁hom
▄
▁dawn
▁Andr
▁contributed
elasticsearch
▁prohib
▁cont
▁matt
▁bedroom
arently
ashboard
ös
▁Call
ding
▁gu
matic
Timeout
▁glad
▁patch
onomy
▁nei
ATION
Schema
克
▁постро
▁Verify
}=
▁worden
Tests
äch
wx
username
illes
▁clinical
▁AP
ellig
▁replace
▁venue
▁Jerry
▁prior
ем
Converter
Ù
oko
слав
aper
initions
▁är
▁ép
▁tablet
▁Ireland
▁frü
▁con
▁encourage
ata
▁problem
黄
ship
▁revenue
тии
len
MAG
▁harmony
▁allocated
▁Dance
ar
cred
Luc
▁pole
▁pse
▁nú
浮
VF
▁transportation
▁Crist
▁lion
▁academ
▁chain
▁Example
▁On
▁threads
▁Mama
▁stressed
decode
▁prosecut
▁flame
Ë
▁historic
盖
吃
▁(_
▁allem
paper
seconds
Backup
▁Kevin
shall
ournal
▁pointer
▁gesch
EB
▁SND
col
successful
▁failure
oh
Select
▁leaving
äude
tasks
▁Women
Append
screen
▁poz
▁Intelligence
Ui
rhs
▁Veter
▁arte
isch
rig
▁skip
`.
pause
ntax
¯
▁farmer
▁Brian
▁nep
▁lub
▁rivers
utdown
INT
▁От
▁Unter
▁FA
mix
imer
Repo
uniform
▁Hair
▁Parte
Decl
Ē
<0xC5>
sto
▁repl
▁travels
▁sounded
決
unch
▁Ob
тами
ؤ
▁institutions
ationToken
cope
▁Rot
кта
▁feature
MD
tikz
▁ele
Hint
izen
ITION
▁Ann
▁helpful
FIELD
▁rendering
XX
▁repository
▁bew
▁Leip
▁carrier
▁Arizona
▁JO
ample
▁up
пу
▁involve
})$.
Header
elle
灣
irus
Ł
▁nun
▁Terms
▁seems
י
출
stub
Af
issions
▁owner
▁curse
<0x77>
б
▁wie
away
servlet
▁hole
آ
▁Rome
ard
том
▁works
~~
▁visitor
Foreign
▁Cob
▁nj
▁packet
胡
Package
▁kindness
ється
▁sits
▁Diet
▁wherever
摄
sz
atal
Options
仪
ilib
▁Taking
▁attr
λ
Open
iał
ک
Gateway
▁voltage
▁correctly
▁ministry
dem
▁NET
▁tokens
▁rag
Once
프
ग
encia
▁HE
▁kön
▁curves
ný
-,
autom
▁frustrated
shake
▁TRUE
▁off
▁bid
▁layer
▁Oracle
町
Anal
vor
elen
▁habitantes
SON
▁attacking
▁Times
┘
ț
rist
▁award
▁bow
footnote
▁Adv
zten
}
단
express
▁tub
那
▁cu
etzt
▁clean
recv
ở
isches
▁ey
▁toe
ischen
▁familie
Heap
▁compliance
▁Lake
inters
<0xE6>
▁Ser
aren
schedule
▁travers
▁'{
监
▁connected
▁imp
▁entirely
ッ
ization
▁Agr
▁excited
нії
ною
zial
nten
▁Awards
َ
▁employment
▁кла
▁Holy
xygen
roud
▁Mississ
Sur
hole
▁lists
ges
▁arrow
ζ
rr
DATE
Consum
▁rows
wikipedia
▁Rose
▁FT
Target
ocial
▁tracing
▁mold
▁organis
▁locate
src
▁consumers
iani
▁query
景
Title
Right
tat
▁Dale
▁Sé
inement
ś
▁\]
ived
▁withdraw
▁candidates
ane
perties
icients
▁nost
agna
etes
ager
磁
geq
▁emerged
包
TRANS
유
▁excluded
일
enden
Activ
tpl
even
mor
zero
▁trips
▁hammer
▁bout
▁tale
▁cop
лина
▁irq
exper
thern
unted
親
ions
xi
▁Vil
▁Um
ateral
공
些
▁profess
▁wind
▁deserve
SRC
nod
ließlich
Reflection
Cancel
▁pul
wid
textwidth
遇
▁password
▁civil
▁predomin
▁нача
▁victory
translate
ții
▁него
▁Num
\!
典
▁Join
El
grid
usa
driven
▁spoke
proxy
▁history
▁sixth
▁ав
▁outside
▁lead
▁rm
Scal
▁ingår
矩
▁dich
图
соб
▁cookie
▁loudly
▁stayed
▁giant
▁NOTICE
▁Bah
▁Rug
ound
▁tiem
iche
чи
ography
osa
▁centered
<0xD7>
services
▁eb
▁gewann
▁http
并
▁manufacturers
质
आ
▁delivery
ateful
iek

▁reporting
▁prince
INFO
▁lessons
员
reme
编
Zoom
▁fin
▁représent
▁civilian
ψ
▁brains
plugin
plac
ней
ifest
或
▁Section
▁Din
Username
eurs
▁lowered
сни
▁Secretary
▁bother
▁br
▁cere
qs
ט
敗
IM
ení
DAI
AB
▁clothing
▁expenses
▁followers
adesh
domin
retry
encode
▁Round
虎
▁dimensional
▁Production
▁byte
▁server
▁тако
▁scratch
▁Leonard
▁Ka
商
న
▁src
▁Fox
▁races
co
▁fon
▁clients
▁vý
▁is
▁normal
rael
RS
UE
American
keep
adem
toEqual
plain
IDs
ölker
ospher
щ
আ
must
ział
see
▁reads
▁много
).
▁symmetric
ussen
▁comprehens
Network
рома
▁contents
▁bald
▁until
▁Someone
▁freak
▁ven

ド
icking
▁sucked
ounters
sdk
▁süd
oyle
▁environmental
▁führ
᥀
▁cannab
▁Term
Rend
尊
▁того
▁news
▁After
Repository
esa
¾
▁trains
▁browser
▁pb
距
Fall
Entity
ние
▁preference
Layer
ICENSE
▁winter
▁wa
▁sample
▁falling
}+\
▁Her
£
Mac
▁language
eken
릭
▁fif
▁television
ill
▁trading
letter
▁morte
▁Meeting
▁appeared
balance
eter
double
▁Rou
▁obtaining
仁
▁professional
oses
▁Required
▁thereby
▁Sale
spect
xim
▁gives
▁dive
ù
▁/**
完
▁Anyway
Det
▁preced
>>>
haus
werp
());
posed
￼
▁fos
▁abc
cord
▁confirm
▁Sim
▁valid
addy
▁зна
▁soc
▁affecting
態
▁charg
▁hair
More
▁nv
▁universities
econom
med
▁tamb
▁causes
▁prisoners
▁conviction
())
井
ством
短
▁Tower
▁linear
▁oral
istributed
жен
▁devoted
stand
▁fundamental
▁selon
▁cow
▁trivial
________
▁marriage
ush
Listen
▁engine
▁filed
規
▁enthus
▁os
▁Back
ennes
▁Rück
<0x1F>
dex
▁è
▁items
cook
ứ
▁Ital
▁Steven
▁Hus
令
ician
annel
▁credit
▁decline
▁Heart
cke
▁appro
odio
込
Line
▁Council
▁Situ
▁біль
)_{
ɡ
Ê
▁Darwin
▁Assume
▁акаде
nic
▁Muham
▁Garc
▁thousands
▁then
Wh
▁Thailand
話
▁Nov
▁singles
▁harass
▁convergence
Mal
▁Wing
▁uses
▁dent
▁ор
▁warm
á
▁Leben
▁august
oll
▁trucks
‪
▁pointing
::$
▁Newton
▁smell
chn
▁deadline
nit
Christ
般
raise
▁Safety
▁city
▁Grade
▁нау
▁Sylv
▁писа
▁level
▁chemicals
▁mole
("/
ME
▁Hey
ogg
▁Type
齐

dern
aju
<0x60>
}:
▁época
naments
ire
embre
▁if
▁emot
▁cours
ṁ
▁cached
▁util
▁kn
▁another
Inputs
rule
spot
▁Mechan
apping
▁cour
▁народ
▁rus
rå
▁Ли
FLAG
▁Through
▁Based
▁Europe
ご
iti
▁Med
【
▁bud
▁embr
▁як
*.
联
ุ
▁Universidad
GD
န
бора
▁diesem
บ
▁critics
Car
olen
ouses
▁proper
pix
iso
▁Glas
▁theorem
limp
ATTRIB
evel
жде
▁accessible
esian
ystem
▁baseball
textrm
▁went
сон
수
ór
▁resulted
▁citizens
optim
▁Kurt
▁meant
▁bowl
HAND
льно
COL
▁Tak
▁Cultural
rets
rian
▁Birth
▁Site
·
ignment
Clean
▁interrupt
▁cal
AL
)**
ardon
thy
▁primitive
▁Dopo
▁jaar
▁engineering
▁Pet
duration
#
▁peace
>::
ingle
▁listing
▁N
▁Ki
YN
ходит
▁processing
download
▁sit
▁fortunate
шен
▁surve
▁periodo
▁Star
Constant
**
logging
ɯ
⇽
▁attempted
scripts
addr
▁Harr
▁precise
▁toy
ató
构
HECK
▁planet
▁veget
▁delen
▁whisper
▁promises
formed
▁wen
▲
▁automated
▁unple
▁replacement
▁serie
▁пло
窗
avelength
▁disable
커
▁analys
raw
▁ren
▁epoch
ธ
ñ
▁Palace
sized
kh
Mobile
apos
period
▁кра
Т
▁McC
様
▁LIABLE
▁Voice
evalu
ots
▁violation
ream
▁show
▁Tip
igt
framework
▁cold
▁released
▁diff
rolling
ología
▁onChange
auses
▁soll
унк
lich
▁Kan
與
▁Spe
'\
▁Marie
胜
ching
Ret
▁impression
ears
▁left
ascript
▁sw
bp
▁indirect
임
▁previously
▁Opera
iami
être
pk
reek
[]{
▁rose
透
▁formation
▁Struct
が
Holder
мия
Env
▁furn
▁departure
▁transc
▁inferior
▁тор
:
форма
▁dev
▁который
BIT
▁instead
▁König
omas
.~\
Z
egr
▁ser
Well
ute
erve
▁sac
▁plastic
▁stomach
▁DNA
ք
hpp
ized
ক
▁Ла
▁involved
igned
$-
erts
roit
mouse
қ
▁Group
occup
RAN
cret
uvud
▁punishment
▁earthqu
cup
▁bog
확
vt
'])
atherine
▁literature
，
▁Posted
Hey
▁storage
▁коли
▁przy
iki
+"
▁gold
▁Philipp
▁importantly
ס
ѝ
▁Coll
▁without
除
useppe
▁damaged
▁trying
▁ax
▁prepared
prime
irtschaft
▁Christopher
contract
Tools
Ps
▁estimate
▁puzzle
eva
买
▁Nicol
width
ENOMEM
▁materials
▁describing
Upper
▁Sup
osity
Й
▁Lap
inar
▁Cz
curity
vá
▁assignment
ając
▁Support
pb
Je
жно
open
▁eng
▁мет
▁Diese
▁bacter
ef
Destination
▁з
<0xAB>
▁octubre
FOR
▁&#
>()
▁dimin
▁Fellow
umps
▁IOException
▁Моск
Tom
▁I
▁Record
NORMAL
cción
▁integral
rawn
▁Canal
proof
▁damned
▁She
plement
▁ru
Will
▁diam
▁bamb
ecycle
▁Admin
▁glance
▁ч
ULL
ク
▁og
▁approx
pective
",
ǫ
▁Sept
Bin
||
▁Avenue
▁jul
▁Letter
함
LM
UBLE
▁identity
▁selector
▁Index
▁forum
roll
▁durante
▁Water
wq
done
]],
▁limits
▁manus
신
▁always
▁Aust
▁Highway
▁reven
误
▁Personen
▁behind
▁settembre
orable
▁sell
emos
boards
▁vier
ambers
acio
▁fun
▁application
RE
학
роди
▁ex
▁representative
色
found
OL
▁useless
▁Fair
▁Av
▁clue
；
▁constantly
▁flav
cule
宁
▁swo
▁Optim
▁felt
ศ
session
UNK
▁drawing
▁Json
astically
rolog
▁Log
Soft
▁foolish
▁Fou
▁Hart
装
▁corresponding
][<
stret
Å
▁hasn
crit
▁corridor
품
▁runtime
▁features
▁mas
▁iss
▁Coord
лин
▁голо
▁implicit
▁usual
▁exceed
▁twisted
▁foam
6
▁cet
Week
▁batt
▁properties
reset
▁association
▁nouveau
▁area
則
=(
▁au
ian
='
Fat
▁satell
ologists
Criteria
▁hind
станов
よ
dam
];
▁an
▁hot
▁actual
▁invited
usters
ITS
czas
▁Tensor
Curve
CONFIG
ª
▁départ
▁située
▁arrangements
▁Crim
할
Ill
▁juice
▁deven
▁agreement
▁Academy
cur
🙄
Fetch
期
hm
▁uk
鼠
)));
▁cottage
ная
igu
▁blown
Test
▁none
emat
arz
▁Ха
▁lin
▁innovative
ス
ilst
混
ío
▁Illuminate
ansion
agan
▁acts
▁scale
sequence
ény
▁sul
▁wins
▁вій
▁profound
▁Should
▁listen
Gui
си
▁Bron
▁noise
▁tension
рт
Chain
Before
▁assign
Gr
art
▁Sc
▁fan
,$
RESS
▁memorable
apon
▁Erst
ち
▁muttered
▁Leave
ী
ivas
▁Turk
кто
▁intelligent
die
Encode
▁Technology
▁fired
▁innoc
parser
iolet
icles
asts
▁Sant
▁regards
udder
▁django
▁viewed
ನ
״
▁боль
pons
ER
__
▁Tips
線
▁each
BD
▁once
⟩
铺
▁some
<0xBD>
▁tact
▁Gle
▁empower
Memory
▁gig
or
illas
!!
▁Remove
▁min
▁марта
▁development
▁measure
▁delet
alt
ូ
▁neutral
tract
ök
ail
änd
▁SEO
shine
▁targeted
omb
▁great
▁monaster
▁reporter
▁manip
▁Diana
▁frames
▁Aus
▁Hamiltonian
▁ctx
▁nails
嵌
atile
림
▁си
CAL
ampion
▁cents
山
★
▁dru
ens
onia
osex
▁extensions
▁feed
tenant
ockets
弃
▁tand
▁^{
gru
▁conclude
global
▁domestic
ained
наль
selves
▁Bible
▁Вели
生
▁Ott
flag
▁myster
▁beta
▁artic
▁sovere
раб
▁praise
照
😍
ifies
clk
кола
дина
▁Inv
▁conservation
▁Minor
ێ
ára
abulary
▁Federation
seven
ी
戏
▁obten
ouble
▁vé
ư
▁Az
▁NOTE
̇
▁FITNESS
rw
▁performed
▁strikes
▁оста
어
▁Around
um
fun
Level
▁Run
▁tables
Auto
▁Truth
Mic
层
getData
asm
细
▁Да
▁thigh
uple
▁incorpor
▁perform
▁Wire
▁Jon
ས
▁Attorney
Λ
),\
Entries
▁utils
than
▁barriers
aged
▁trouve
▁Gar
▁Ernst
HE
apps
减
▁variations
args
▁loans
ны
ants
▁link
ég
ming
▁Indones
arg
绍
մ
▁quad
Available
Sum
▁эти
▁worries
▁roku
idding
ansk
▁Begin
orne
▁participated
▁thats
岗
▁Wer
▁wurden
▁Id
tern
▁Turkey
xE
▁Thomas
icl
▁considers
산
ril
▁better
<0x85>
за
▁también
▁Region
sis
snapshot
▁petition
▁requested
▁Kid
▁Answer
imento
AI
🏽

▁say
▁wherein
opy
▁UINT
nl
▁lawyer
▁BAS
▁lavor
▁Ку
▁element
ourses
▁traged
▁offer
cember
мини
▁CBD
oj
Bag
formation
conn
address
ed
UTF
Touch
Transaction
SF
▁strategy
▁Los
▁flavor
歌
paid
▁Att
Mer
▁straw
扩
ox
▁market
▁lp
▁Phot
▁ang
▁that
umerate
instance
▁Does
ifs
▁Moses
▁були
▁election
필
▁operation
▁tick
▁funny
•
access
ało
prints
▁vel
ichi
Complex
▁Ohio
▁Dru
2
Ż
Than
ipv
▁silent
emás
▁fragment
▁prop
~\
lymp
submit
vas
BUF
▁peers
置
▁threats
▁Lat
::
')
▁derni
ٰ
▁oxygen
▁inverse
▁in
▁ikke
▁convention
▁Conf
▁Klein
ò
writ
▁unexpected
▁served
▁submar
パ
▁poly
▁Money
spell
防
▁scenes
▁aug
▁styled
ن
▁partic
▁cms
▁grave
▁gev
▁defensive
fund
$
批
▁claim
▁tournament
?>
rès
PEND
bled
halt
▁dun
ohn
▁countries
▁Fitz
▁plays
ML
▁dick
oman
▁бро
lyph
osc
from
ử
્
trained
LY
▁respectively
▁bridge
▁Tom
cl
▁laugh
же
auté
の
ifiers
▁requires
▁Music
▁verified
▁depicted
▁janvier
▁wake
initely
章
▁nam
▁часть
▁ende
owed
ж
ology
cks
▁Jr
am
Span
▁ins
▁ligne
adj
cc
HasColumn
▁mel
▁Luc
INGS
▁couple
об
▁све
▁sk
LS
▁While
▁Mor
▁Independent
cery
){\
ck
rying
▁\|
▁bring
▁Graham
▁Tib
▁devil
▁univers
ico
Search
▁otto
▁LE
▁Sto
IPS
▁status
▁conc
itative
enne
cció
acs
¢
Queue
atel
▁stripped
incip
BIN
▁planes
気
ŕ
report
Center
angles
▁advanced
Inf
Cookie
▁président
istes
‡
▁several
▁sia
▁intense
parse
▁gén
▁survivors
ὁ
öd
때
フ
択
▁Ru
xpected
Account
eturn
exec
ständ
▁История
columns
▁ALL
🙃
glass
▁tends
龙
▁Dub
uls
oa
ands
ág
▁relationships
angled
▁honour
▁слу
Create
▁exp
▁Are
rait
▁septembre
▁Israeli
azioni
▁noticed
▁Isaac
▁ces
▁programs
тан
▁cav
卷
్
ʹ
▁Building
▁dot
ники
if
rating
riers
签
▁świ
(*
▁dangerous
Formatter
Inner
я
▁doesn
▁sentiment
▁sal
▁purposes
SHA
ви
▁speaking
▁onder
信
▁replacing
▁И
▁Bas
▁predictions
arroll
州
▁Als
entes
\">
▁mie
▁wetenschapp
स
▁width
▁Ben
heading
▁Joseph
▁Director
▁bom
Machine
ᴏ
▁vous
▁aan
Connection
별
▁ancestors
lu
▁numero
▁assumed
Choice
bul
<0x7B>
▁investigate
▁Sum
手
▁Ю
▁dort
дель
ANCE
▁increasing
Pl
)\
▁magical
番
▁Brooklyn
▁ham
▁när
▁войны
bind
Storage
股
personal
권
ailand
latest
▁Stone
▁ха
alloween
stri
▁време
limit
JECT
adi
ms
ì
▁также
▁bat
▁hasta
annte
▁LICENSE
overy
URI
oose
처
▁VM
⬜
ба
▁fid
Threshold
rowned
▁tak
▁passionate
usqu
▁government
frame
autres
son
▁own
▁&\
▁grocery
Ord
EO
▁Pere
▁proc
Child
▁Votes
pod
cached
▁temple
▁publications
▁detective
neur
袁
▁составе
Ge
ву
▁Opt
aches
染
▁notable
allen
<0xFD>
ikan
original
っ
▁bc
dai
▁bet
테
Stats
рал
▁penalty
enc
child
▁ingred
▁appropri
▁Language
▁Did
Cart
<0xB8>
▁Eisen
▁NE
▁Open
ﬂ
▁z
▁tendency
▁anx
ktor
▁Eight
Cert
ents
▁klass
▁bour
怎
副
▁parl
▁fans
▁SL
│
▁él
agi
▁biggest
▁communications
막
ческой
fers
▁-\
▁scholar
▁Series
bles
ване
隊
月
▁Quant
correct
ут
Path
ikt
▁titre
ts
URL
존
ô
way
▁exist
▁workshops
flags
̪
acks
▁compan
auto
▁();
▁Output
łu
_
ត
assets
vals
▁Pap
▁resist
▁Message
owo
▁palm
OO
▁vil
▁Eddie
uable
ment
▁agencies
….
GT
▁Player
▁needs
ße
ulate
争
finite
▁Reg
▁outcomes
▁Control
▁acknow
▁Brother
commerce
▁fighters
calls
▁south
)*
▁cup
　
ти
▁provincial
▁=
oms
길
match
▁statist
▁optim
asci
usher
▁flower
▁pou
▁dep
▁Similarly
≠
aff
ARD
language
▁domains
▁consumed
ptr
▁Gor
▁";
▁ра
les
anje
恢
▁Liver
Omega
▁narrow
▁lev
И
loe
▁мая
▁submit
equation
▁bu
Conn
▁landing
)^{-
фи
좌
▁barg
Prop
ód
▁wearing
▁Nob
lers
shops
▁snake
▁identification
▁mm
▁suitable
▁Costa
larg
üd
▁Author
▁apparent
Screen
義
ical
▁hanging
▁Federal
pgfscope
션
▁bree
▁library
ną
▁deep
▁trust
ült
zo
▁Franz
attered
osz
▁August
▁unsafe
ғ
▁Kim
▁Buc
ข
ervices
▁wax
造
▁aunque
getElement
력
▁со
lte
▁pci
💕
trl
▁agency
▁Fut
▁experiences
▁marble
вия
Meta
▁Flight
Must
Tokens
▁Steam
▁anc
当
Var
Row
anga
atin
зда
▁satisfying
Scheme
▁Mars
sk
ensity
▁Piet
ются
▁DIS
------------
▁ihre
近
▁connections
rank
peonato
▁tilt
▁greeted
م
▁пра
Analysis
列
▁ве
DMA
▁larger
▁drops
<0x69>
▁Illinois
▁Sure
▁programa
ATED
▁carb
clipse
Users
tau
ifact
rie
lar
▁Bennett
의
▁fresh
Alias
▁commissioned
▁imperial
Emitter
addEventListener
aming
ENABLE
}',
▁CP
Offset
▁Ча
▁com
被
▁certain
history
든
typeof
▁bru
▁vm
im
pgfpath
▁sehr
thm
Dependency
њи
<<
▁Tem
▁Post
▁btn
Fill
▁./
ether
embed
▁recycl
▁Spot
COMMAND
▁Suz
TextBox
[:
▁merch
Dlg
▁Slov
orno
ponential
ление
▁Jord
dagger
▁Word
▁twee
ogue
гля
Tool
▁steam
icks
▁Nina
▁decrease
fr
rov
ስ
▁violent
▁Pointer
ـ
ctic
arch
▁Files
azzo
ne
▁población
設
мор
▁Default
▁saving
▁vote
Priv
川
🎉
▁Intern
ҽ
rl
▁preserv
▁estaba
text
▁imported
▁almost
тал
▁Intel
▁principal
eton
映
▁enjoying
important
預
▁serious
▁cared
▁nerve
▁Hawaii
▁bou
▁vagy
iano
ians
DataSet
▁dop
残
▁licensed
ash
▁inclusion
洛
▁че
id
▁racial
▁Cap
ses
▁granted
▁uid
ius
▁дво
▁jerk
▁eleven
े
▁maintained
园
▁her
пера
▁namespace
тон
▁hav
known
је
SERVER
>();
▁NULL
▁primary
че
▁Keep
Images
char
▁subs
▁thing
▁helps
achment
UAL
這
▁grounds
his
iant
▁attorney
▁Sr
bed
▁publisher
▁Wal
Effect
▁clan
Util
ட
刷
nail
▁Any
arr
▁Olympic
▁shall
损
adu
Real
▁directed

▁danger
Dep
▁Tool
LANG
▁codes
젝
▁nel
asi
▁Short
▁equipped
major
EC
▁NAS
rat
▁females
▁ради
ucks
▁grud
▁tragic
mg
rices
ulates
▁Grant
Cons
▁под
▁ra
imos
ผ
▁studying
Action
members
▁насе
▁saint
▁Accept
▁refr
OM
^{-
▁plasma
Mapper
▁ubic
<0x02>
ר
Ī
▁bunch
▁memorial
▁py
Draw
ří
ци
aton
▁Henri
relation
▁PURPOSE
▁estimation
Mont
Wrap
▁pets
▁Perfect
<0x58>
▁Det
Observ
ύ
▁concepts
<0x56>
阵
entin
▁Animal
▁▁▁▁▁▁▁▁▁▁▁▁▁▁
▁Cru
Ч
▁против
▁Logger
ENS
pson
DELETE
lé
▁involves
прав
FB
▁food
emic
akten
▁heter
Extension
hou
▁są
eries
unused
▁Kings
弟
▁siblings
вый
[];
▁forme
▁natur
runtime
▁Ana
▁Rosen
Constraints

anned
price
▁mill
▁embargo
ALSE
AG
授
The
rough
plom
▁alto
idget
▁послед
▁над
▁Input
terior
▁Memorial
▁Interest
▁Vari
▁Ek
▁m
▁grown
▁Modern
▁users
LOC
▁№
лем
Er
Build
▁PM
Allow
▁escort
▁Another
рак
→
▁officers
ellt
▁tenant
HAS
moment
▁permet
▁cos
encies
auc
▁Add
▁tourist
äft
ユ
pot
tagHelper
▁ocup
{{\
▁Colombia
▁ви
▁pin
ɣ
▁deeper
rooms
working
enze
ux
▁reaction
Guid
▁theatre
▁Coal
▁numerous
▁EP
▁dia
ン
↓
▁tickets
which
uel
▁moral
▁diagnosis
card
<>();
▁Monte
▁lever
aste
▁troops
mer
ector
▁sixt
▁Survey
▁cognitive
▁bezeichnet
кар
▁mayo
EventArgs
▁Eval
▁exhaust
Dimension
▁stellar
☠
▁personas
Gate
zym
▁м
Args
▁Atlanta
▁moving
▁backpack
▁Price
asta
iction
referto
ザ
▁enough
▁gall
▁revers
ują
▁agenda
▁volt
▁seu
▁Travel
9
ât
▁drain
▁succ
<0x50>
▁Engine
icky
chet
주
Fragment
▁York
▁Kol
▁mobility
▁equal
▁folk
示
шта
ium
ほ
▁permissions
unic
—
配
smith
Release
oku
uing
▁Ill
▁дру
▁L
Ids
▁casa
ŏ
ENCE
▁keyword
厂
▁musical
ión
獲
▁All
▁timer
▁repeated
CONST
▁зем
ans
Buf
▁weap
ual
▁subjects
너
▁officer
▁clouds
▁DMA
农
payload
ells
▁Thread
aze
▁ASS
Horizontal
▁Size
▁provinc
▁prime
,'
agma
anny
lag
sur
driver
▁beautiful
▁(**
▁Jordan
▁wages
▁UV
ი
▁updates
▁Package
FREE
jours
▁Senator
▁calcul
Rendering
庆
SSION
▁Match
DATA
▁hug
▁YOUR
IMAGE
▁convenient
GRO
▁spray
▁tin
ugs
no
▁lowest
jango
Dam
▁lég
▁stret
images
▁sorted
▁angel
vik
rik
▁Fast
padding
External
▁Phil
AM
!!!!
▁pig
Okay
▁gifts
▁tremend
Volume
▁renov
teil
'].
uns
▁strictly
▁correction
---------
WRITE
]]
▁featuring
▁estim
rial
strument
каз
▁Cole
▁problems
▁correspon
ocolate
▁damage
äng
▁threw
Summary
▁lady
xFC
lica
▁liability
▁casino
▁Res
▁topic
▁limitation
▁appearance
ARB
う
UM
ood
off
▁multip
▁math
haust
冰
▁liquid
▁s
"];
▁operand
こ
цю
ἐ
soc
ု
wo
▁BR
▁item
aret
▁Bang
▁Asian
MESS
ieties
▁ray
acer
reach
灰
▁Stanley
Δ
▁transferred
▁celebration
anded
train
▁appl
划
▁*(
▁tc
▁newspapers
rem
ators
nick
▁Reed
Secret
▁curiosity
dst
代
▁pron
gang
▁Mark
tc
mat
▁Red
▁players
選
////////////////
▁bit
able
▁digging
▁Ford
APP
Usage
ï
EV
▁Jama
ervation
怪
▁confusing
▁Rs
▁сло
Unicode
ifts
▁conclusion
PRO
थ
▁Block
ボ
meisterschaft
Modified
▁quote
<0x04>
▁boots
managed
pol
▁uniform
oso
getInstance
▁cap
▁busy
▁rarely
deleg
З
▁rational
▁hostile
ึ
▁bl
▁Stat
Align
▁mind
▁None
▁GET
▁translated
--------------
双
운
claimer
▁CONFIG
▁X
toggle
▁qué
our
urt
оло
istics
▁isinstance
oday
▁Exper
chor
yout
▁defeated
▁HP
▁clearing
▁bal
▁Keith
,
ً
▁spoken
▁tonight
English
God
:"
▁Patrick
▁SA
ником
▁attempts
▁intermediate
ifr
▁воло
Previous
▁balanced
|^
SESSION
ierno
▁destroyed
▁Construct
achel
зни
urance
▁Hum
▁nationale
▁apost
▁mix
widehat
▁Storm
▁approval
insky
<0x81>
▁schema
icz
<0xF6>
▁byl
▁Ja
Variables
▁READ
sen
▁Snow
ån
▁Average
geb
▁Convert
▁picks
▁pressed
▁Owen
▁ethical
Library
底
ierte
Details
▁kg
夜
é
刻
▁tempo
ержа
▁encouraging
▁Centre
▁harmon
军
ener
elij
▁guitar
▁Dutch
▁toys
<0x93>
宇
▁Commission
arth
colm
%)
▁Payment
execut
glob
▁"/
requests
▁Gemeinde
▁De
Multiple
Ž
▁go
мой
东
▁mum
Pi
▁cerca
▁sheets
pared
'",
▁bast
Req
▁Path
▁acknowledge
dash
viously
*,
ген
▁Change
ública
▁mö
▁fi
uma
ious
▁secur
g
▁exposure
▁из
вата
ু
▁VII
och
▁wp
▁bike
ף
黒
ening
▁Union
▁organized
▁rent
▁spot
▁motion
$).
▁quarter
▁Wright
literal
▁already
ichte
▁reveals
ilo
“,
û
ٔ
▁Upon
▁beating
▁Process
sters
▁Mix
ref
UUID
тет
iverse
▁illustrated
▁PropTypes
BI
Gold
DN
▁Caption
房
ológ
itudes
itung
▁fever
▁ré
▁Night
^{[
▁observations
stell
钥
▁conve
érie
Extensions
▁demanded
aning
换
тор
▁visible
vil
▁push
Graph
า
▁).
pes
▁та
▁setup
ables
▁Doug
亲
▁band
ння
aña
<0xF7>
ifik
镜
apor
▁cris
▁probably
▁boundary
▁Lo
▁defence
ulle
▁Annual
▁челове
▁Jones
aru
▁findings
Using
▁Roberto
ⴰ
▁Plus
▁bass
xfe
gd
пы
情
▁such
▁prejud
▁nose
orse
вий
제
sqrt
▁assumptions
Ann
ince
▁últ
预
▁kwargs
▁compte
▁Analysis
mk
HT
avis
,,,,
▁contribute
▁said
孝
▁args
Sheet
▁fün
径
▁asym
ommen
Bu
▁effect
▁indicator
▁Vegas
▁основа
…
▁exterior
arin
א
礼
INSERT
▁combination
▁animal
▁Floren
▁oil
▁life
▁believed
▁cruel
ристи
owego
▁enf
)),
顯
мпи
oment
▁unfortunately
Sort
hol
из
▁Plant
slave
▁shipping
▁Norm
▁Civil
ipedia
Index
▁Cast
▁religious
▁authentic
½
▁Flo
▁contributors
▁"
igator
▁operational
▁apart
ija
czy
stadt
uit
▁Rosa
▁succeed
▁islands
▁cleanup
Ind
▁lovely
chg
▁Diff
рами
pts
▁Living
▁Hou
▁Break
▁activity
ToString
▁само
▁ди
ský
男
▁desert
alled
apture
Zero
▁GT
errno
▁Statement
dd
差
▁*/
▁lasting
requ
gif
权
▁continually
▁reset
бы
▁hip
▁Holly
tim
acent
⊙
চ
위
\|_{
▁Amaz
),
rei
▁stronger
▁Bring
icken
█
rud
▁manera
▁Distribution
alpha
agn
▁exceptions
▁accompl
▁translation
printk
▁important
ees
ske
god
▁soap
шли
▁slim
зд
▁shed
values
▁Show
else
вом
aja
ět
III
園
ATE
▁déf
▁conting
ской
▁polít
Xml
▁alleg
译
▁complexity
raising
▁XXX
ee
guard
stack
▁Sta
Could
jsce
▁составля
須
acity
▁traveled
vp
▁lets
▁DS
зи
shot
pfn
▁skills
▁В
▁priests
▁Zag
TLS
▁filling
SOC
▁shouting
ե
un
▁digital
▁vast
▁templ
maker
▁consider
Hex
ṛ
▁prevention
▁ric
▁Energy
▁negative
▁stead
phere
▁spoon
amon
▁mitt
action
▁gratitude
SW
IVER
Net
Struct
▁expensive
▁celebrate
▁Wilhelm
▁Have
org
▁Made
с
还
▁begun
llvm
<0x71>
oid
cript
фа
roduction
Gre
nam
arent
▁interest
▁Although
<0xFB>
ception
TE
▁ми
▁Brun
太
Ten
FR
DUCT
▁experience
▁Metro
repository
戳
ত
▁vehicles
amed
bean
ixels
Write
remarks
hel
ku
hot
urches
▁chance
▁rc
▁Familie
▁columns
Des
▁surn
▁Cath
prite
="-
ienen
льта
warf
ट
тие
<0x78>
IMPORTED
Plus
omes
▁Krist
▁Regiment
▁rif
▁kids
▁nog
stop
ascular
▁ensuring
レ
ía
headers
▁Claude
acyj
necess
▁Chap
▁руко
ď
▁congreg
▁private
HTML
Len
▁buffers
▁series
▁ben
leave
pton
opter
anos
▁satisfy
IGHT
▁Haus
▁Connect
▁dispatch
▁Fame
unnel
▁load
▁Award
▁segunda
]])
▁fict
▁amongst
इ
▁edific
車
Too
}$,
пня
▁cré
▁consequences
▁Hans
▁chart
▁lun
DI
рое
тельно
▁â
Term
▁occurring
▁grasp
missing
▁'"
▁Por
▁seine
mean
gling
Something
帮
▁necessity
▁CM
hens
▁re
▁surg
Count
res
<0xC6>
rect
night
▁headed
build
Show
▁NC
▁сред
acja
HttpServlet
☽
乱
▁scholarship
▁UP
▁keeps
▁outdoor
▁estud
Slot
▁zoom
Theme
▁html
lemma
ría
▁estab
ading
(),
}^\
▁Spain
▁url
"],
▁divid
▁тур
▁cent
Se
Sv
ktet
▁social
▁score
CAM
▁Api
励
▁appearances
ôt
▁')
ropri
Ά
▁anything
Bottom
▁sec
▁adapter
▁Reagan
▁countryside
▁"")
aster
▁subsequent
▁bucket
▁altern
subset
LICENSE
mobile
M

▁lobby
ื
SY
itan
없
▁desde
shaller
+\
▁shot
▁ultimate
寻
▁promotion
▁kar
▁cooling
camera
?.
▁TF
▁late
▁poorly
mapsto
▁neue
▁DAG
🥰
▁c
▁button
heads
>
▁Serial
▁Comp
ICE
су
▁Muslim
Padding
▁Properties
▁Grey
DR
▁ange
千
▁texture
▁Lag
▁MC
Comb
ப
▁Nederland
ussy
Pal
FRAME
minister
шение
In
▁Cycl
火
neurs
▁pills
Und
▁Ministry
cheduled
▁Sche
CASE
チ
▁next
▁scope
▁accomplished
▁joining
erek
black
▁determining
INVALID
▁Kill
▁where
rior
▁render
cie
▁Он
▁Укра
Den
ұ
▁Mort
▁dr
kir
▁eligible
▁bolt
▁info
▁Bin
falls
ész
▁electronic
▁conditions
******/
▁ф
▁PROVIDED
▁Politiker
▁zá
▁Hugo
▁liberal
▁Neg
IMIT
Email
▁pandemic
▁mp
ョ
▁Dan

▁:
▁français
!("
▁Tech
▁Mine
вин
gain
Algorithm
▁bor
▁execut
ání
▁vaccine
復
▁Valid
▁Movie
URE
los
▁Miss
ento
▁structural
DateTime
▁TABLE
▁configurations
▁eight
▁agreed
phony
▁+\
▁obs
▁ignore
▁dash
▁pert
Produ
式
imental
▁screens
fé
▁entropy
▁param
▁Cancer
Byte
annotations
▁issue
pm
apa
----
nell
avid
rightarrow
pling
্
▁highlight
▁packets
нен
rence
rn
▁overcome
▁исполь
itr
including
▁<
▁Der
ན
<0x5A>
▁ANY
▁Maj
▁gre
cam
▁Rom
▁double
▁Judge
details
DIP
англ
▁Sar
ęd
mult
Ext
FILE
▁Vietnam
riages
deg
▁insurance
稍
ása
comp
▁merely
▁deput
hr
▁challenges
will
▁defin
▁Congress
')).
▁Sver
하
"
▁immense
release
▁borrow
][
▁authors
▁их
ils
Regex
▁Pol
▁Brew
attributes
ὸ
김
▁Company
This
▁true
▁mines
▁argument
Future
▁ai
▁cv
▁tit
▁leaves
ights
Kernel
pute
▁Command
达
▁Eu
သ
ня
▁Otherwise
▁refund
ulating
▁trunc
▁Chris
▁feder
▁осіб
ición
▁Et
ʟ
ки
▁protein
▁obtain
▁région
Be
wise
▁profit
rive
▁XII
▁longest
▁Jah
▁battery
▁offered
▁neigh
▁din
▁helped
LowerCase
▁прое
opic
▁família
","
";
<0xC4>
context
oche
olutely
estamp
}>
initial
▁Syn
ialized
▁swe
aval
▁org
sterdam
消
冲
ែ
▁gallery
▁facial
▁outfit
▁mass
pair
▁listade
▁Jeremy
阻
▁Program
द
dat
лена
▁prayers
кономи
▁yes
ary
offset
▁leaders
▁né
▁Mayor
▁sentences
洋
ír
▁има
▁Richmond
_)
ців
▁Standard
▁deriv
ugg
кры
▁мі
▁shel
▁Ки
amd
▁formed
▁Сан
▁l
▁Fra
Pan
▁Tur
▁tras
▁shapes
▁subscription
▁тем
强
erialize
Proxy
载
🏼
rc
ploy
▁Pan
▁Britain
▁eran
itable
▁Schaus
▁strugg
▁crops
&#
▁princess
▁West
▁delivering
ิ
');
▁twentieth
▁beaten
▁Ku
▁▁
▁magnificent
▁Effect
Void
▁washed
▁Conse
зон
oot
▁expand
▁gave
▁tro
▁kor
▁Range
▁Palest
sat
atus
▁jaw
voice
Sh
▁dance
▁ctrl
▁arriv
▁горо
▁badly
inf
▁thy
▁civ
/${
▁alcohol
utton
▁damn
Iterator
▁sand
▁Bowl
▁speech
▁живо
iop
▁hill
CS
Prim
Autow
▁pure
ך
▁Kultur
вест
Lower
▁verl
ai
ven
▁charts
▁broadcast
▁Wat
▁juni
▁hon
▁€
▁rolls
▁can
̆
Amount
▁Oct
▁Direct
▁correlation
▁зі
ife

像
ụ
▁fraction
▁Daniel
USB
▁goals
▁авто
署
contact
bot
Order
▁concerns
ín
MF
;}
▁Nieder
Switch
orial
▁bodies
pisode
Card
вал
align
ers
quick
▁respon
icional
ღ
Hist
beck
chestra
ativo
cules
▁Being
ких
▁Val
▁honestly
▁numer
fried
isme
ví
LAY
security
▁strike
natural
Ő
▁senior
node
▁brows
Backend
▁sound
leading
▁cleared
▁prod
page
▁neuro
▁Incl
▁Harper
数据
nu
▁GB
만
Ha
zb
▁Nobody
▁Close
/
stad
▁Util
▁scientists
▁Eth
▁Sounds
▁differences
lap
Every
▁cable
▁Edit
Groups
apped
olic
YP
Internal
DED
▁others
▁graphics
▁census
Mode
Lif
<0xFC>
amps
}}(
olin
▁menu
▁Prest
eras
ponse
▁suspicious
▁moderate
inline
▁Chand
▁Symbol
创
龍
Illuminate
†
▁Iss
▁rott
▁Jennifer
▁cpu
izar
ник
parent
術
。
level
Appearance
▁SDValue
▁distributions
▁Integr
azz
Has
textsc
▁Credit
▁similarly
ain
Async
шей
param
SERVICE
бра
cription
fish
▁sus
ष
eur
련
▁source
ennen
sort
rical
iju
▁США
▁spel
▁detail
ül
▁Privacy
▁ev
RUN
рито
ந
)}$
ь
▁Анд
▁didn
izations
uced
▁Rein
`
動
<0x32>
▁Kay
▁presence
▁Ві
▁trip
而
▁Ni
\+\_\
Over
▁Hir
▁Michel
verage
▁Lisa
▁„
URCE
▁Maine
▁heroes
scribe
▁caract
levant
ienne
vider
▁только
▁beloved
<0xD3>
▁vari
eler
▁Wisconsin
del
iera
Native
▁less
់
▁failing
translation
▁heritage
<0x03>
▁critic
▁Brook
ika
Under
▁booth
AX
▁acceptance
yers
▁Philosoph
▁Marshall
▁mid
▁Johnson
▁exhibit
▁Berg
gos
▁чемпиона
ength
▁Tag
▁outcome
Ä
也
illed
▁attach
▁cycl
▁apare
▁canonical
▁bitmap
▁gen
▁makes
折
판
uest
时
评
cit
cola
▁current
▁tempt
_{(
▁blocks
▁после
秀
▁per
▁dishes
▁Bad
MAP
Here
▁patrol
thur
▁were
▁maintaining
=>
('/
bands
\_
렬
vious
чёт
🏾
▁dataset
ტ
▁struct
▁Put
▁bt
()),
▁touchdown
+\_\
iday
▁radio
▁daughters
dh
▁radi
▁hilar
▁deeply
crypto
▁closed
▁Italia
▁accidents
▁година
指
вър
ASK
ं
ogram
▁febbra
▁seated
ernel
▁asked
ioctl
RED
▁Child
iona
appro
Mask
▁supposed
▁farming
徐
▁LO
▁deny
▁Industrial
▁ranch
▁prem
▁Gard
▁GD
atomic
pages
▁workspace
▁approaching
▁analyt
Har
foot
▁idx
▁additional
<?
шу
▁California
▁shook
ôle
atch
up
▁rolled
visible
▁SH
▁urban
▁Tai
▁sd
́
▁Einstein
дна
ہ
straße
three
)((
<0x90>
▁Lav
alie
調
▁%,
轻
ufact
▁actors
hom
▁effectively
EQUAL
data
tri
▁perm
▁том
▁Wall
ReadOnly
就
Who
币
桃
端
(_
ury
▁Jamie
▁Names
▁Guard
▁markets
issue
▁And
▁channel
▁styles
▁Which
▁role
▁iteration
▁сторо
▁glory
▁Ret
aille
▁Jazz
▁cinq
▁incredibly
Qt
▁её
를
irection
▁expected
💯
▁Hello
▁picked
nement
▁teaches
▁Organ
▁diabetes
▁kam
▁fot
▁Bul
ica
▁част
▁fourteen
▁sche
appa
▁Identity
cles
▁retail
progress
▁millions
acion
▁ich
せ
flow
捷
лект
奖
▁inside
▁credentials
ф
▁мо
▁legisl
既
▁auto
▁Blog
uh
▁crypt
▁Corps
wide
Return
▁область
best
▁dod
▁ри
▁befind
▁ма
sample
▁dimension
▁seemingly
▁lod
▁briefly
poses
▁availability
թ
▁Howard
ETH
eller
ि
▁mapping
▁Benjamin
äre
▁Read
choice
▁observe
oration
▁blood
▁rise
imeter
₦
▁груп
▁argue
▁green
▁subset
▁uri
▁dry
oper
ot
ĝ
▁!=
▁-->
執
graph
region
˙
▁letter
anger
▁IV
▁g
▁неза
▁кото
>\
▁nord
▁tract
èse
▁dé
TS
▁youngest
▁hash
variant
▁neut
▁mounted
▁News
∙
؟
▁Would
ilians
ington
▁lo
▁Pearl
new
▁décl
▁prost
²
фо
▁notion
-.
ored
▁reinforce
▁:)
▁decom
colored
▁reading
hw
illery
[@
ław
love
▁AV
riend
(?:
▁integr
appoint
že
▁noviembre
▁models
Pos
▁representation
▁UI
▁satisfied
umbling
▁nombre
အ
Diagnostics
partition
ipe
pub
▁Dear
▁Brend
ús
Chunk
urs
▁Govern
графі
ई
離
魏
▁Wald
▁majority
aturday
Alex
iance
(`
保
fed
▁engl
Tile
phrase
opsis
orient
▁Opp
▁payments
▁worth
▁encour
._
af
MIN
▁Sout
▁align
▁Mini
ertain
Exper
▁Leader
▁celui
<0xCC>
▁Jes
▁Research
▁acknowled
▁Chicago
▁ring
▁Compet
Route
Such
▁fen
chat
▁someone
\"
sten
▁removing
▁imm
Vars
总
▁permitted
▁Sel
▁pl
ility
▁Consult
▁purpose
▁Agency
initialized
Tw
▁night
theme
😡
企
▁international
xff
PRESS
▁Caroline
언
▁SF
▁toss
▁shining
输
chiat
▁bureau
받
▁suspect
annon
лись
ș
▁characters
▁ple
▁suspic
▁placement
oker
▁rapid
▁Update
▁Data
▁sevent
▁belong
▁calls
▁Madrid
eles
bers
滚
JO
AAAA
▁fmt
▁Reviews
eren
NON
▁lyrics
ڕ
트
▁histor
G
▁chron
<0xCB>
▁aj
▁rh
▁Ol
▁coupling
luss
▁Step
spec
▁maj
▁calendar
▁Listen
▁ability
▁loyalty
▁fast
▁ц
▁operations
TION
▁ingen
▁economy
▁null
▁является
▁protests
LD
▁adjust
▁airport
np
ска
▁informed
FLO
▁lungs
chied
港
évrier
Tur
▁diffé
做
▁Yes
oin
▁Until
actly
>")
▁jel
▁slipped
now
timeout
("-
▁mir
▁fant
▁Central
implement
wy
Cent
ひ
⚠
▁consistently
hausen
▁posting
▁sectors
▁educational
▁horizontal
▁Ent
deserialize
▁został
▁flux
▁island
▁Napole
lane
<0x9F>
account
yman
▁mois
Hello
连
nx
▁crash
▁Website
管
▁Scal
화
apers
]),
▁Nie
▁Belgium
▁Oliver
▁\"
▁sought
▁exclusive
▁Cow
場
▁remot
▁Intent
밀
▁nuts
<0xE5>
ady
▁ecosystem
▁gotten
abb
nog
▁text
кої
chen
▁Ле
▁Mississippi
▁теле
什
▁ext
▁titolo
math
▁squeezed
▁Delhi
觉
म
ext
▁required
▁HAL
~~~~
▁vertex
조
нове
oir
▁helic
▁áll
▁evac
onom
▁anch
wait
insi
▁dc
▁tunnel
▁For
des
🤣
▁taxi
티
▁festival
tom
▁wholes
▁secret
▁Henry
Pre
Foot
仅
::_

▁massive
▁Rep
cing
itter
▁affordable
velop
同
▁burst
argv
▁sealed
GEN
▁Natal
▁это
̧
"])
▁refer
redit
▁wave
▁lined
▁Czech
▁ка
nil
</s>
▁formula
▁endl
inta
ties
▁statue
▁ste
▁relief
bell
▁photos
▁largest
unque
▁expertise
ONT
▁universal
das
類
efined
urent
▁explored
aid
箱
▁Search
▁keyboard
ying
▁Пет
▁Toronto
olent
▁div
▁highlighted
▁increase
item
feld
▁др
Bi
Mar
▁individuals
▁laser
▁desires
ened
▁absurd
Country
▁hard
▁cycle
▁events
▁biologie
等
▁Nathan
▁Under
Arrow
▁County
▁Kelly
▁intel
▁había
动
▁ik
✦
apan
▁seventy
ktop
▁click
▁Google
zec
▁dell
annt
▁así
▁crist
▁coming
ois
▁thus
▁luck
▁TX
▁проти
sbur
▁generations
▁hydro
PRINT
Pen
多
ridge
▁swift
▁alarm
ệ
Tuple
angel
won
ce
▁props
ês
▁PAR
"/>
▁techniques
IMP
symbol
▁Copa
í
者
▁Bh
inated
lä
ں

▁tel
▁MB
peed
▁Gy
降
what
neq
▁phys
₁
▁То
▁Study
inks
▁blanc
▁Crow
▁headers
for
陵
ments
œur
Only
hire
음
▁fancy
▁фі
ulsion
切
MAN
CTX
▁nuclear
▁pant
▁modify
▁Sat
ilde
▁snd
▁dst
▁Fu
▁odds
▁Tuesday
▁rim
bros
▁arr
Dev
▁posto
ної
Console
▁importante
Ю
NR
▁PORT
▁remarks
▁Alaska
around
▁вико
▁shallow
Bl
▁Big
Custom
▁quando
gpio
Unexpected
Component
taient
▁spraw
▁containing
pack
ION
▁mult
▁naj
▁сп
母
ect
▁Cass
orem
▁administer
cycl
体
访
mys
java
▁Mes
▁Hollywood
▁об
▁Cra
Capt
й
datetime
▁г
Fail
GO
ates
▁После
▁britann
▁Ren
▁Brist
Lu
▁hadn
media
grade
UD
▁Adult
算
DAT
iov
🥺
▁categories
▁Sugar
▁Its
▁loud
▁warning
itu
inned
.~
菜
▁experimental
▁Arnold
▁guidance
▁La
드
독
aps
ícula
▁electrical
▁BO
▁sie
▁machines
▁gang
ће
▁hers
underline
▁Ти
Mouse
接
▁час
▁happening
▁portions
overflow
тур
▁instant
<0x4C>
▁pink
upiter
Í
fter
▁faz
义
▁Фе
Ant
▁roots
▁dough
▁déjà
▁smallest
▁bars
▁sampling
eling
▁start
Active
▁Александ
▁collabor
▁между
STOP
▁использова
atar
itzer
▁rejo
mathop
▁bomb
Changed
▁dem
gent
tml
▁tough
▁Nicholas
▁Chrome
multiple
vec
subscription
strip
▁Fol
▁Tro
▁Convention
ė
Hol
虑
▁пу
▁russ
▁walks
äß
▁nobody
▁poker
历
▁Sets
ttes
▁ave
▁breasts
▁restaurant
authorized
!(
LOBAL
▁Warner
药
▁window
▁sido
▁Line
di
▁decade
▁Despite
mel
▁станови
▁obst
ban
▁serialized
▁tob
ARGS
▁Boy
▁printf
▁estado
▁publicly
▁филь
ferred
랑
спа
ρ
oro
со
▁faced
ür
devices
eto
▁harm
atrice
!!!
mi
erst
ancellationToken
▁dependence
▁différent
▁?
크
ゃ
▁mechan
▁database
ler
▁desire
▁beh
Reb
▁golden
▁framework
dzie
seek
scrib
system
▁liber
шла
▁Dal
▁Jac
▁Sound
гре
ript
ラ
▁scalar
ян
▁oh
izio
▁Zel
unk
▁Mar
▁share
▁Financial
独
▁inclusive
▁motiv
reject
horizontal
▁use
▁begin
▁shadow
rust
CE
▁diary
ська
Y
Optional
▁diameter
▁Rel
▁loan
Jo
.}
▁donc
▁Films
▁rout
prev
▁easily
▁retriev
▁sexual
actions
URN
컨
heast
▁wisdom
▁fitted
closed
▁MY
<0xB4>
▁algun
য
▁cad
▁Lang
▁internal
▁propose
)\\
odi
▁lookup
ename
boldsymbol
ferences
▁pattern
▁Meta
▁indices
▁painting
▁MT
ka
Popup
▁ES
ón
ually
▁newsp
▁Imper
achusetts
심
▁!
▁younger
▁droit
▁workplace
.',
Like
online
▁writes
bew
▁Е
▁musician
Me
E
▁addressing
藏
Dict
▁denote
Display
стер
ibilities
▁English
location
++){
▁www
▁goto
▁mientras
ា
▁nor
▁registered
fica
astern
ids
▁big
__["
▁prosper
▁arrive
▁intentions
▁promote
pmatrix
pty
men
ச
ijuana
▁prison
▁Han
▁powder
능
▁drove
▁widespread
Bon
▁am
▁Found
▁Polish
銀
▁desired
▁Mot
ings
▁ms
▁basic
scription
▁Wes
Foundation
嘉
crement
▁indicated
▁groupe
計
▁wur
▁portfolio
Lat
▁torch
la
▁theme
▁rapidly
▁Athlet
▁Quarter
-----------
阿
"></
cers
▁catching
▁Ash
aines
▁aunt
direct
Local
▁empire
Function
ologies
isp
▁conse
пар
rived
▁caval
aut
ker
cluster
▁beautifully
▁peer
▁males
▁FR
iors
calendar
▁coun
▁adaptation
▁apple
▁inte
▁prediction
▁invån
▁Craw
▁gouvernement
plan
▁ticket
▁Row
length
▁ult
▁Kar
▁evil
worth
ября
<0x23>
▁shooting
▁proposal
GIN
Calendar
ificación
RW
▁austral
暂
▁bem
▁state
▁stuck
▁neutr
▁Ph
▁teams
ieval
▁afterwards
mt
Assert
▁crowded
▁выпу
Mr
ガ
ព
▁Header
结
straints
▁Население
▁spent
敏
▁quest
ỏ
ographical
▁XV
▁посе
senal
<0xEC>
Dist
NONE
▁unnecessary
▁By
引
enschapp
▁EC
語
те
▁originally
bank
**:
ậ
它
▁тех
rolled
then
assertEqual
ists
Rule
停
tabular
▁movements
▁abroad
six
▁wer
▁équ
▁confident
▁Develop
▁Response
▁aller
▁nove
▁Promise
▁${\
Processor
NT
ancer
▁poi
並
▁Junior
jem
TOKEN
▁exper
rsp
ере
▁pró
▁American
prov
wn
▁sz
ivery
op
ubble
*"
▁vez
FAILURE
ా
▁organisations
cher
๐
▁evaluation
替
ounds
ah
▁influ
▁enabled
▁eliminated
unst
▁faces
ner
▁Compan
▁va
()
▁Partido
Contin
▁века
▁hen
inz
▁Vancouver
此
▁dear
▁woj
测
SYMBOL
CV
apt
abor
va
▁anywhere
▁procedure
▁copies
▁Clinton
▁rape
▁nonsense
aligned
unting
▁charm
▁means
conduct
▁Shakespeare
ʊ
dorf
種
dit
usement
验
▁sanct
void
ме
▁Norway
UID
▁saison
aggi
▁hoping
▁energ
▁През
清
ص
sys
dep
▁fright
▁united
息
師
▁partner
ції
▁Expression
▁amplit
族
istrict
▁cancelled
▁sel
cleanup
▁been
States
дин
ché
▁Ky
蓝
disp
▁tech
用
erne
▁blew
▁Rebecca
▁lob
▁rip
enza
▁continu
▁regulations
▁battle
▁cases
▁cx
article
script
substr
▁latach
äh
inte
TR
jQuery
成
nament
▁але
▁BC
▁gaze
Ser
▁Andrew
of
▁enormous
POS
agraph
▁Про
reed
adt
▁chemical
▁programme
resentation
▁deserves

▁university
aler
licher
▁Luck
ygon
TIMEOUT
month
Oct
關
▁into
▁Character
ис
ಾ
TX
▁Steel
』
▁Fred
items
shirt
go
▁alien
▁temporal
yr
iour
準
Trigger
bund
kappa
TEXT
ográ
ifdef
install
fully
▁protocol
iling
Dynamic
▁jer
▁Dur
▁PAGE
▁govern
ze
aba
emen
▁assh
ainte
cipl
●
▁?></
▁Hills
▁один
elled
▁Conservative
▁buy
ement
▁Cad
elles
hover
▁plan
▁Soc
loads
▁viewers
ience
▁reason
▁unusual
ních
▁Cup
▁PROVID
Received
Ъ
▁cited
▁cyber
▁depression
reen
ნ
student
aterial
▁служ
appropri
토
ètres
ight
вня
▁non
Trans
▁parad
▁transparent
▁format
structor
compile
oted
olar
ndef
▁usize
▁Utah
):
igd
acre
iane
▁freedom
other
▁even
▁sy
OST
▁pounds
▁Urban
emph
▁dentro
ysz
▁achievements
▁Ost
ょ
Design
▁Gr
狂
▁}
za
Shop
▁був
▁Map
▁expose
кри
▁queries
▁jest
CA
ર
mob
Music
init
▁meeting
undefined
ських
▁know
▁n
Associ
▁r
IsNull
jd
▁also
▁Float
▁tim
kern
esh
sum
ENDOR
_-
改
▁Nord
▁glob
Adjust
sh
ться
lia
▁parte
hn
▁Infan
ays
▁pulse
</
▁vom
▁honor
Esp
さ
slot
══
AMETER
хе
hir
mf
▁buddy
Actions
ベ
defined
orus
▁receiver
COLOR
Length
ступи
job
▁reached
▁Ry
▁Zone
▁erst
▁Non
={()
algorithm
content
тия
▁CRC
▁opts
や
мир
ún
▁DR
rile
Im
▁hell
▁Total
▁sle
▁century
zerw
inen
▁exhausted
ottom
fix
圣
尼
▁SEC
<0x1A>
▁Associ
lish
bour
▁scal
THREAD
▁febbraio
올
FM
▁otros
ools
NO
▁packaging
▁перио
▁bay
▁EXPRESS
}
aban
▁profession
scape
▁pleased
SI
icide
▁odd
))))
`)
ști
▁belie
Validation
▁spr
▁powerful
▁werd
Rank
▁anger
▁persistent
효
aced
▁Trail
▁do
мей
▁clicked
丹
▁shoes
iels
▁Pope
▁instructor
/$
Aut
types
стри
UR
tech
optional
ಯ
▁temporary
isz
▁carriage
gets
usal
esty
tu
ring
▁specialized
soft
▁differential
¥
sched
▁INCLUDING
▁predecess
▁Tra
▁thou
▁participant
▁fewer
kle
hin
aud
št
alia
Small
▁TIME
ista
kfree
▁woke
opcode
nested
<0x80>
▁variable
후
▁extern
流
да
▁vacuum
▁Sov
▁wel
orb
▁ост
巴
respon
<0x06>
rtc
க
▁mock
uggest
HTTP
▁trapped
ribed
▁NOT
პ
▁set
äl
▁Ali
르
ánd
ura
EE
ERCHANTABILITY
▁persona
__(/*!
▁Hol
iser
▁pipeline
▁criminal
licht
▁guy
▁radical
ряд
lista
buttons
▁FILE
▁Sach
▁competed
рабо
▁ä
▁truth
▁crime
▁Never
pag
ків
▁"[
rowning
▁wait
▁syst
▁particularly
▁Те
🇸
ringe
jes
▁If
keys
engers
Columns
▁lifting
regular
▁losses
▁q
▁cert
бург
Fire
ioc
▁idi
▁document
union
▁original
ności
ا
END
▁bill
先
▁no
hood
▁Pour
▁abilities
nych
▁Subject
四
EMP
ès
▁nd
▁addition
proto
▁gods
▁Move
▁mes
▁exerc
même
Project
ност
éta
AUTO
lear
isine
ᴛ
▁sprintf
▁websites
iga
five
▁мар
жду
Copyright
▁think
amm
middle
却
спо
Support
depth
對
▁trace
Mem
False
▁sea
▁Too
▁foss
▁caution
卖
였
unknown
ixel
▁blur
Pred
▁Professional
▁salt
▁emperor
▁fraud
iger
▁Bar
▁discrim
IC
eden
pipe
▁bubble
ament
▁H
▁colored
▁historian
▁ware
culate
ет
▁versus
▁deliver
་
焦
▁middle
wh
▁tall
▁april
▁Medic
kers
Turn
▁États
▁ub
▁уча
▁jam
Patch
▁Dep
▁ended
▁shorter
faced
aul
=\
▁waiting
▁'#
×
▁viewing
<0x1C>
▁climate
)'
otive
gas
▁discret
▁intervals
▁prevents
̌
▁Mac
▁coordinates
olver
лок
▁IN
モ
<0x4A>
▁pot
HC
ellan
▁cat
ните
▁poured
ades
▁для
▁___
▁bord
▁Dylan
angen
▁CA
<0xEA>
floor
▁deliberately
idays
service
▁coat
დ
['
hold
▁nome
▁overseas
-%
▁Insurance
▁cycles
▁rather
覧
î
▁northern
▁Thus
RGB
▁department
ograf
▁OTHER
æ
CD
▁Abraham
▁grande
anza
ʾ
▁juin
ben
▁anderen
▁escaped
}\,
ords
lit
ős
▁garden
etic
▁exagger
TERN
лення
expl
▁///
▁shown
essions
ucht
▁Metal
工
â
тро
▁preferred
Sub
▁purple
play
md
ieg
▁ге
▁där
▁il
▁evolved
ustain
▁duty
akh
like
▁Sch
PyObject
}}}\
▁collapsed
ignore
aupt
▁Sever
гово
ahoma
▁hierarchy
ющих
▁flush
.\
boys
扫
▁kö
ষ
▁trends
▁Hard
▁--(
Vel
docs
▁Hö
ByComparator
▁packages
▁accom
▁receiving
▁due
rug
resa
▁pricing
entieth
SETTING
▁orden
▁Lim
Stub
▁desperate
],
▁$(
▁Ж
▁Project
UNT
Object
gate
▁станов
^{\
▁corrid
outine
▁dire
▁hors
value
▁parked
▁Month
▁ere
![
▁colle
orm
▁Hamb
▁appears
ERO
▁reviewed
▁rectangle
▁Following
▁Sw
MenuItem
▁NL
++)
▁Ing
pless
▁book
iny
▁queue
RB
▁naturally
вым
Pyx
notation
▁Liberal
ni
▁ever
ступ
仙
▁Ellen
There
бом
<0x2A>
▁includes
iere
▁visits
About
▁zd
▁Len
旗
ILE
▁Problem
ག
▁Dad
▁decorated
挂
Ns
peat
Fr
adelphia
tra
ployment
etti
▁música
скую
itations
noindent
/)
issen
▁}{
inking
▁Nazi
sign
▁balls
▁destin
igible
▁Tal
Phase
exc
SOURCE
mbre
▁wx
ä
現
▁reveal
processor
endance
pio
hline
esso
▁pose
▁Gary
definition
主
▁П
▁ca
▁soccer
▁smiles
arning
ruit
▁contributor
FTWARE
Query
▁beast
uture
ahn
▁ties
▁separation
▁dense
▁num
▁throat
estra
▁tong
ensors
◼
▁armed
ça
▁Print
▁mostly
▁utilis
IES
▁Find
update
анд
RECT
import
▁supply
▁Part
▁attempt
▁els
至
ção
▁licenses
Η
▁bon
▁masses
ل
▁suggests
pgfpathlineto
善
▁Figure
從
▁ceiling
▁responses
▁offensive
▁web
▁Event
▁URL
▁Barry
valid
roe
▁ade
▁Miguel
▁waar
rient
圖
...)
▁ö
▁scattered
"`
block
Char
▁reporters
BL
▁star
зна
▁dis
▁Clean
usammen
▁Joe
▁bones
то
etch
飛
▁Rud
▁inaug
迭
▁Schema
▁Pont
▁excessive
▁switching
▁??
edia
▁React
▁Че
▁Verein
Validate
▁без
花
▁опера
▁się
▁sql
▁Honestly
▁Imagine
returns
enses
nut
«
▁Score
▁degrees
▁mixed
".
Change
▁swear
▁yellow
писи
Attrib
▁remarkable
▁Roose
itive
Donald
ската
▁Be
▁Jean
▁chap
▁blogs
འ
▁bear
mov
:_
며
▁actually
▁Adam
inely
crtc
enso
▁addressed
▁Chel
=
▁exists
olean
вої
▁hun
▁вре
▁Except
殊
▁bean
离
atte
▁photo
▁frank
▁desper
ght
▁enjoy
ха
ensing
渡
▁trash
народ
reshold
However
▁Cash
ньо
宗
▁various
Modifier
▁dress
Statement
这
▁fork
▁CO
riculum
▁Victorian
second
rop
▁neighb
▁Py
ций
dummy
류
▁Chamber
▁отно
regex
PREFIX
чо
CHANT
▁Small
▁Gi
ih
chi
issance
ielte
share
▁VT
値
cnt
high
▁enorm
bas
tring
aned
▁chaque
▁Car
▁Mak
aves
ebug
proposition
▁VAL
oul
itä
IMPORT
▁vice
▁independence
running
▁scient
▁silk
▁Hash
ird
▁wird
▁Proposition
▁cult
umed
▁athletes
▁Cong
ющие
▁count
ക
oenix
onio
▁Giovanni
matches
▁Sen
ící
▁||
▁нов
ּ
istribution
▁shifting
flash
origine
▁Property
}$)
▁inev
▁>=
",
▁Additional
▁sim
▁goog
业
▁Partner
ational
▁Lebens
ъ
▁poss
▁Saturday
▁division
▁tell
▁stop
▁elim
▁front
▁defect
▁UK
▁hely
▁nights
orr
▁declare
▁=\
给
▁particip
▁amount
ят
▁shelves
▁Rangers
▁Ins
Lib
▁publish
▁Schwe
记
ardo
enz
▁lies
▁comparable
▁tackle
▁Orange
▁ethnic
▁bro
▁ir
annotation
县
▁(+
▁Law
in
▁Ibid
onders
▁bajo
quarters
沒
inations
)_
histoire
bur
▁сель
uly
▁Parad
UnityEngine
Color
hab
LIED
$)
king
▁ve
▁eventually
▁"+
▁Location
▁Events
▁arrest
T
=$
វ
BASE
▁ro
lections
nings
itude
plugins
▁sliding
▁visiting
ᴜ
ENSE
▁confused
nat
▁Vien
▁Ward
:",
query
▁Very
cias
幅
WR
wp
▁tea
ὶ
▁intu
▁edit
▁internet
▁Este
}{\
间
amin
▁dropped
▁largely
ра
thal
▁A
▁weapon
▁summit
▁Es
▁game
lease
▁laid
ake
áv
▁reaches
ivi
▁ging
§
▁Ал
▁banking
ách
▁ist
▁woods
ADDRESS
rs
▁frowned
Table
▁media
ensure
auer
Pages
"+
allo
▁strangers
▁Root
▁often
株
can
▁Level
錯
epsilon
▁remarked
▁transitions
▁strongly
▁Below
▁missed

лове
▁eller
Some
Begin
▁że
▁ne
und
▁Des
彩
▁Eg
▁titled
▁Allow
ׁ
▁харак
▁follows
▁vocal
▁claiming
▁eyebrows
▁beam
▁prints
▁optimal
▁До
▁Do
▁classified
<0xB6>
▁roce
▁desp
▁wrest
makers
▁Into
chant
fast
▁vacc
▁Editor
况
ately
analy
▁FROM
▁shares
production
pars
▁lambda
▁value
_[
▁repe
ában
▁TEST
▁headquarters
category
multicolumn
FC
▁Entertainment
▁wonderful
collapse
tagon
▁jsou
ction
光
▁literary
liver
point
▁journalists
▁Medical
雨
▁recent
▁author
▁rival
Describe
вя
▁tang
▁disco
burn
脚
▁cameras
binary
▁mortgage
▁Cord
▁teenager
▁worldwide
ana
Phil
ighth
EY
portun
▁false
UINT
dict
timestamp
▁ihn
Tax
slider
▁dec
▁dar
liament
Directory
дж
▁Even
]:
▁bored
outer
▁T
▁slower
airo
AU
牙
▁роз
AC
▁bark
GS
❍
莉
▁Patri
Ă
▁back
Asset
▁sedan
▁typ
▁lut
Dim
▁jumped
idence
▁cracked
▁Were
hos
ier
servers
▁group
oval
▁августа
▁tek
▁benefit
riteria
params
▁Com
scalar
memory
▁ships
▁Python
Region
▁attra
▁Christian
ť
▁produce
aceae
pdev
纪
Root
▁boys
edu
▁Im
NESS
▁predict
ým
Prototype
."_
▁Ба
▁conce
で
лы
▁sync
ор
ша
▁Bei
irteen
État
vern
▁priorities
▁Children
uffix
▁managing
vis
▁Loc
Initial
IE
▁porte
▁Ltd
Export
▁Hugh
atis
‏
▁pobl
▁listener
▁challeng
▁soph
handler
require
命
剪
SB
▁putting
_;
▁resistance
ye
▁cheek
Vol
▁Dies
▁футбо
ニ
▁Live
Rom
▁occupation
▁assert
▁Pattern
▁unw
▁
▁regions
▁destruction
於
▁softly
nika
▁mathemat
▁tatto
chestr
▁quick
▁android
▁recruit
ascade
陳
▁compr
peon
▁alleged
arters
▁Leb
▁Database
▁rad
▁monitoring
▁его
▁happened
Sign
СР
:`
Never
MAGES
▁Mass
izing
▁hur
▁"@
ache
cedure
Þ
twitter
nier
agnostics
▁dalla
▁Colomb
ве
▁icon
▁disgust
▁Mut
CACHE
Φ
▁meth
孩

▁education
▁launch
▁quantum
▁solution
▁Wow
▁conscience
OPT
▁contacted
бри
著
▁myself
database
▁ac
Category
Exit
▁Johnny
ised
▁Terry
)--(
ŋ
TREE
duct
▁bei
hy
blue
▁revealed
▁[...]
▁listening
Does
▁frustr
▁spite
heck
▁``
Ка
sm
▁Column
▁Marcel
▁till
▁unlikely
mar
▁endless
▁nl
icted
▁taxes
▁join
ṭ
';
},
▁governing
uta
AspNet
▁perí
NF
▁Indonesia
检
&=
👉
hostname
▁graz
ług
▁membr
Rep
ière
▁kole
▁surf
▁lots
omy
▁Covid
▁phrases
brace
備
Constants
Actor
▁repairs
azor
bear
건
ently
▁foram

▁small
??
▁gap
▁Col
▁FL
▁Mountains
▁forecast
Link
<0x3D>
附
ureau
▁Pi
STEM
esen
▁crazy
黑
午
▁loved
ocon
iller
▁talented
▁packed
est
^
바
※
Bad
Jan
elta
ems
▁peu
acter
▁Review
▁courses
▁rode
PR
apis
▁outbreak
▁Februar
▁agricultural
▁Good
gles
lint
▁bus
▁agre
▁Brothers
▁Насе
ipes
▁Fest
▁Mil
▁unit
▁It
▁caus
ae
▁panic
▁faire
aments
▁incluy
衡
bi
▁vä
▁checked
▁Sequ
erman
рат
▁Dod
▁Comput
ony
け
▁grat
▁PG
american
St
单
▁plates
▁November
reation
дів
ublic
HIGH
aska
("");
<|end_of_turn|>
habil
irm
Source
▁effectiveness
▁profes
▁Baby
▁benef
游
imate
▁succeeded
▁Wu
ixer
▁campus
▁kon
▁може
▁denen
▁apps
vscale
▁Coffee
▁des
▁maker
EFF
CKET
▁impact
▁CPU
▁quarters
▁slow
▁disaster
▁Bil
▁expanded
prof
helpers
Initialized
▁Release
ederbörd
const
▁CV
▁Sara
▁merge
<0xF8>
iale
▁Pow
▁dock
▁focused
▁Holland
ék
▁ports
▁medium
▁zones
▁rum
Check
attrs
TL
.<
▁i
▁paste
CEPT
adrat
MSG
../../
▁temper
Collections
ds
ining
▁frances
Managed
asy
bing
▁enterprise
know
队
▁Mr
)^{
▁gan
😀
ень
ハ
endet
notification
unes
시
Final
클
▁Arch
GetString
rier
шо
нан
▁FIXME
▁essay
ouw
Text
▁Free
▁graduate
safe
▁són
Image
▁journey
▁unlock
CTOR
ót
ibli
▁par
▁suppose
ruppe
▁experiencing
▁contrary
ν
<0x30>
▁Side
▁accidentally
▁volunteer
▁Beat
ˈ
selection
lord
▁tour
▁mail
arge
▁Od
▁Quest
▁processed
官
gers
▁Member
Sound
毛
construction
▁doorway
нд
▁SK
▁aus
);
▁fois
▁Mend
▁footage
aha
licenses
dater
ought
雲
▁Queen
▁Earth
helm
ка
adays
▁manually
▁Mull
xB
Permission
暴
▁enhance
Rad
▁difficulties
▁avoid
▁watching
une
nea
ಸ
▁conv
▁examined
▁nuevo
▁Consider
bench
пер
scriptstyle
Subject
▁appearing
Let
OPEN
LIB
▁sucks
tres
sub
▁Peak
$("#
▁solve
▁slave
▁poison
ана
▁Y
ine
▁Public
▁Rich
▁commands
▁conference
GTH
上
▁gent
▁{}",
While
aggio
atos
▁Buff
▁recib
Ops
ству
▁shopping
cer
▁subtle
▁ng
👌
▁exem
▁Buenos
▁poetry
ム
▁ridiculous
▁executed
▁aspir
▁Western
▁Game
▁Additionally
▁Referee
▁delle
▁gal
пор
▁agosto
▁joke
VR
>)
▁Mexican
▁Hampshire
▁Kenya
₃
▁mehr
ië
▁at
▁NASA
深
▁married
▁Theod
し
▁applicable
ère
▁Florence
▁Syd
롤
▁Host
task
rod
otype
▁eye
Task
▁gle
▁DVD
▶
weise
▁plug
아
▁acceptable
<0xE2>
▁podcast
横
▁Catal
▁damp
▁professor
▁sauce
▁anni
subseteq
▁popula
▁fore
:
▁ii
MBER
▁assuming
▁uuid
大
▁traded
学
▁builds
▁жур
▁sempre
▁Bit
▁median
▁oppos
cert
▁chrom
MODULE
яви
hill
iat
bert
hard
▁recovered
User
▁fabric
fections
▁Systems
반
▁wall
▁["
▁Labor
▁involving
▁>>>
xFE
寶
▁agric
$}
мон
▁participation
▁suoi
amic
')
ǐ
▁Park
▁goal
▁shifts
MAIN
‐
gebiet
ancouver
ive
▁Lily
▁dys
▁valued
▁negoti
ushes
'},
apply
iß
osed
▁stagione
▁Walk
▁downt
▁Ар
▁spare
▁insect
認
▁critique
aro
▁flew
fs
▁smelled
▁magazines
▁operator
ña
izi
pow
тах
▁péri
grades
port
▁Herz
ionale
enschaft
una
common
▁lat
wahl
▁regime
プ
į
▁smiled
▁Apply
itably
lung
▁Arkansas
▁distinguished
▁called
EINVAL
▁Het
▁face
life
▁twe
epper
Keyboard
PART
制
ixed
▁Setup
Command
compatible
법
ő
▁video
▁princip
▁erste
▁convin
▁Barcelona
▁revision
▁Sierra
bery
▁haven
▁aligned
▁Artist
Student
▁touched
▁engines
▁showed
New
▁Beg
▁ско
▁delegate
▁'$
human
▁affiliate
▁insane
▁coc
³
키
▁prefer
Ali
osta
STRU
server
kon
lex
components
пис
▁Ruby
▁satisfies
Pool
▁ski
페
вид
}"
▁finds
적
▁BB
▁desperately
▁punto
ursor
▁phase
kreis
Rel
atique
ulously
▁modeling
fony
Debug
▁bacteria
stant
▁traffic
▁[\
inent
tes
▁grab
▁ka
▁specified
▁Boolean
▁oak
▁вклю
▁pref
ん
▁[-
ainted
LE
▁method
irl
▁Dec
нее
LEMENT
兵
бе
apest
笔
uming
Phys
og
contents
▁Setting
ම
▁home
Into
achers
▁stars
▁characteristics
▁Copyright
▁mant
▁authorities
Public
ows
▁Kat
ctx
xt
mr
▁spé
TextView
/**
▁external
▁intro
pixel
▁бере
wand
arely
▁Dez
Type
▁barr
Exp
▁confront
级
▁garage
▁follow
}",
网
▁пода
楽
INVAL
▁sust
下
▁OS
м
▁Lan
Tab
▁material
▁thousand
Az
▁redistribute
מ
▁impacts
inski
youtube
outes
uffled
▁breast
▁nowhere
opyright
▁Nr
▁array
▁jazz
富
▁Ext
over
▁Serge
ippet
▁toler
iden
▁git
▁ambitious
▁Die
▁finish
▁актив
學
elijke
MOVE
Ј
▁nervous
▁contained
▁Danny
▁ads
古
anth
▁…
▁transl
▁gravity
▁actively
RO
<0x18>
產
although
ilen
▁Brazil
<0xC3>
▁enabling
▁perturb
via
▁Aw
abl
▁miem
oba
说
тер
atively
글
遠
▁four
▁async
connect
gage
▁respons
signal
▁consequence
▁Especially
csv
active
ook
▁cause
▁manner
ospel
neys
START
reddit
ict
AN
house
▁remaining
Output
▁ends
▁careful
ivamente
\/

Bucket
opes
Prefix
istration
>:]<
ን
éro
▁Sony
▁quand
▁na
.');
";
А
▁controlling
▁hover
DOM
loyd
▁Bark
(((
▁•
Wait
issant
佛
▁Aug
▁host
▁ranging
Parallel
▁Alber
asure
aga
ja
TOM
▁Bloom
▁éd
..
ér
▁payment
▁type
ribu
erial
ased
Criterion
▁Afr
▁Neither
▁chant
<0xAD>
▁driver
step
▁denomin
▁Low
iter
Models
▁effort
Login
▁Iz
vid
▁preferences
确
xD
PIN
yes
▁utilizing
鱼
ificial
↔
▁gab
▁miss
▁Stanford
▁circles
▁realistic
business
▁low
<0x74>
ares
Π
▁instances
▁pg
▁perspective
▁ad
form
▁accur
▁earning
Children
▁Not
▁Emperor
▁applic
▁fprintf
▁while
hui
Visitor
DAP
...,
己
ának
康
quis
▁asc
oly
▁Tig
Mc
sequently
UP
acious
▁volatile
жу
dhd
idity
▁detect
Attributes
▁behave
▁pent
ctions
по
▁attract
Po
▁orders
▁Know
체
档
outh
▁acquired
hon
▁’
▁suit
ering
zeichnung
aj
▁oktober
▁trend
几
▁Пре
loor
enty
▁gradu
▁dispos
▁през
▁Giov
TH
▁luc
张
▁che
df
нови
▁cultiv
omorphism
▁anonymous
べ
▁says
▁choosing
▁overl
▁Indep
球
ität
вет
▁welcome
▁idiot
▁être
ского
airs
▁radius
▁opposed
ationship
спубли

▁Germany
▁Real
нию
▁très
▁traject
▁inclined
aver
▁https
▁▁▁▁▁▁▁▁▁▁▁▁▁▁▁▁
▁coal
▁CE
ców
South
▁covering
▁CHAPTER
▁Place
shit
mes
▁clim
cpu
random
▁usb
▁Clara
▁Shop
▁highway
机
CHANNEL
▁Soft
▁стал
X
ช
target
zh
cls
ign
seed
eb
▁dip
▁luxury
▁compar
agram
IAL
tol
▁Bull
ialize
gmail
舞
{}
\}$
Fields
BU
▁courts
ails
남
木
vé
pread
elines
ק
▁Common
▁Ö
▁nad
▁ottobre
▁Hor
Counter
elling
▁райо
▁Lord
è
▁hidden
▁Island
▁Hud
ィ
ek
▁flight
輸
▁provides
▁".
clean
adel
▁Physical
NG
▁guilty
gie
▁presumably
'''
emetery
signature
▁irr
itori
▁guidelines
descriptor
eah
quest
▁Mexico
▁logo
dv
▁intr
▁continuing
SUB
indust
▁arrays
拒
▁puts
▁States
▁phrase
cart
animation
Scope
▁Mir
▁Zwe
▁behavi
▁Tay
總
▁▁▁▁▁▁
▁junio
<0x41>
▁Nap
▁dro
utat
威
▁spett
tó
▁prac
▁clothes
▁Canadian
▁Science
Supported
▁spirit
oxy
ън
▁buying
sql
▁einem
рой
▁mé
▁resulting
ww
▁comic
以
冷
▁Parse
▁dogs
▁variant
▁Prec
▁becoming
thread
ete
enario
▁alternate
raj
▁zum
supported
于
▁parti
▁heard
ada
▁listed
▁tired
augh
▁pel
;;
.^{[
miss
▁promoted
▁Guy
ssl
Texture
ĩ
▁services
▁attracted
▁decode
)=
き
enue
▁moved
绘
▁перед
▁Morgan
direction
▁resent
нологи
vf
▁among
▁'_
▁Dialog
▁▁▁▁▁
▁fare
▁{}
hre
En
хід
cies
рев
éral
▁пла
▁(!(
▁introdu
▁obligations
▁Cost
elijk
▁Nut
ercise
▁War
lor
▁tops
带
▁Profile
奥
ib
▁av
▁la
▁picking
▁carpet
▁color
▁Lex
ron
▁juli
theta
portal
▁mais
▁Lot
▁traits
ituted
absolute
ql
▁answer
▁Gl
▁unders
▁він
▁shaft
▁wonder
▁Policy
plicity
▁appet
▁Bez
▁supportive
▁Ве
持
¤
▁Hab
▁Advis
џ
▁editorial
aints
bru
conom
▁impressive
▁AUT
iro
minecraft
Sing
cf
bben
😔
merge
▁quiet
Razor
▁guns
▁following
craft
▁export
charg
ockey
forall
▁download
▁screw
▁===
十
▁SI
▁dashed
Set
lb
▁curious
▁retrieve
본
▁á
публи
▁expansion
▁Mike
Ко
Parameters
Ms
measure

▁abs
▁aument
▁weed
agra
round
tons
э
▁Alban
▁Miller
▁readers
▁concert
▁Aud
▁decimal
▁manifold
fte
▁Mens
▁Gray
▁сво
▁кре
▁título
at
▁Lev
▁Autom
▁propos
Filter
'));
▁nail
▁River
▁maybe
ęp
▁ritual
ocol
▁");
Si
oca
tool
▁Muse
▁decay
현
▁select
▁Gand
▁May
aires
▁Temple
▁mesh
▁based
dialog
Angle
址
▁дека
ressed
梅
▁convey
(&
volume
▁accepting
ilia
arguments
ims
▁survival
metry
▁regulation
▁realised
藤
▁Collect
如
ją
▁Pray
ardi
domain
전
kow
▁instruct
ety
nas
Double
▁ed
las
ettes
▁zip
获取

тин
▁рі
▁YO
计
考
▁property
▁Garden
uss
▁verification
▁Woods
ホ
iper
▁pulled
넣
▁future
Contents
▁glo
Merge
aa
▁register
▁distance
▁access
<0x9E>
dz
orders
touch
FUNCTION
▁disappoint
▁explo
▁cattle
▁leader
isto
Many
▁overwhelmed
▁linked
(|
▁Township
▁guerre
▁provin
▁Commonwealth
▁ensemble
dot
com
▁Nice
않
TARGET
http
▁сто
web
U
央
ulu
*).
ima
Literal
ase
▁HR
attering
super
Hub
▁Fifth
▁цент
finder
배
be
▁debt
parallel
STATE
Transform
JSON
▁physical
按
▁Febru
▁Mal
▁Ok
Vo
▁SPI
▁ook
▁Material
win
乎
▁sides
▁correspond
ank
▁turns
▁они
는
რ
interval
anning
powered
▁results
peror
ure
▁mou
▁suspected
▁Bulgar
▁занима
oria
▁Yam
▁observ
▁virt
-------
▁atmos
▁Circ
업
▁sear
ляр
▁les
REF
▁dise
Model
IRQ
海
▁contest
▁slide
ת
▁dealer
▁diagnosed
če
ield
▁Ut
olf
▁LIMITED
▁Far
▁inv
alph
▁elbow
尔
▁ноября
exit
▁Bernie
▁бра
astro
▁Magazine
▁кор
▁TODO
▁Linux
▁proced
},
ueto
ش
ellers
▁builder
lon
▁IE
▁são
▁cui
死
▁His
▁Second
▁slaves
size
▁ged
min
▁nov
▁starting
▁Almost
<0x5C>
Throw
▁unos
▁discussed
▁Joan
▁abrupt
▁comparing
▁стра
xa
▁error
angu
院
ји
ac
hf
linked
▁nerves
▁consecut
滑
▁vin
жение
Forward
▁wides
кси
▁chim
anda
Utilities
▁ultimately
▁):
▁seek
七
思
oster
<0x12>
Serializer
▁Prime
▁sense
▁distributed
▁vulner
▁Сер
ropolitan
▁organisation
▁midst
lib
▁pov
번
▁comp
▁allow
▁walls
он
="/
ork
endregion
nde
▁jej
默
oti
ift
▁'''
Dictionary
kl
▁let
▁wallet
▁ін
▁belonging
▁wsp
цию
▁obt
草
▁hide
azy
▁shipped
film
▁capit
red
ningen
寺
Serialization
сти
ors
▁plot
Label
▁cual
decor
▁hous
▁comerc
ли
▁damages
▁Harvey
າ
remark
决
rifice
へ
누
▁est
Fi
▁logged
Buttons
▁Iowa
盟
▁utiliz
▁statt
▁navigate
▁parks
▁pray
istic
WARN
List
▁don
▁Australia
▁levels
▁chr
ventory
functions
prote
ATT
Registry
kv
▁Ca
MENT
▁indust
▁warn
▁collision
▁imposed
obre
▁taken
▁mental
▁области
itas
池
▁emer
▁ost
▁fil
encing
uring
******
тора
<0x33>
execute
▁Null
▁recommendation
юще
osexual
▁gener
iy
)",
ක
▁because
▁continues
灵
ད
▁Unfortunately
Require
ok
▁passing
fm
▁Session
▁Hier
▁hab
অ
edo
obe
раз
quire
greg
ances
Format
▁извест
w
▁spine
表
▁downstairs
▁après
▁executive
EL
▁('
bee
Arr
Part
▁окру
▁side
activate
▁txt
▁hatred
▁++
utils
▁mar
Hel
▁programming
FORMAT
▁infl
rad
imated
▁Sometimes
▁evaluated
▁torn
▁LIMIT
소
▁folg
Pixel
aim
▁facing
⠄
▁emit
▁Note
loop
▁opportunity
frames
У
▁lack
▁Magic
▁accessories
▁Hann
FAIL
ribute
▁generation
▁Ng
ع
▁Ab
AIN
UI
cy
▁coord
itten
GPL
Folder
▁Musik
斯
▁marked
▁cancell
LA
нали
By
▁founder
▁lb
ជ
▁mysterious
▁Vent
removed
▁Play
▁faculty
습
▁trauma
ස
lt
▁prot
▁density
/"
comb
▁secondary
рин
杨
тен
ző
▁camera
▁frequent
▁race
▁XVIII
▁Sam
▁ét
▁Wood
▁considering
▁visa
gence
aped
▁urg
▁threatening
▁applications
atype
▁instrumental
olence
Drag
vano
Find
urations
忠
yn
▁envelope
hand
▁Cape
▁como
▁local
▁då
üng
Views
_\
ivia
rm
whel
▁Blue
entr
compress
romise
чина
▁Hend
▁fell
▁wiped
▁writ
▁fails
altern
▁mit
intr
rx
▁ind
ittel
▁THAT
粉
count
▁crate
getType
▁comes
▁Le
orry
Params
tegr
▁ideas
▁discrimination
ђ
ohl
ders
▁Prix
▁IX
Process
mn
▁Kenn
Speed
USA
ICK
▁ward
ERNAL
▁Conserv
inth
кото
▁circa
▁Joshua
лей
Io
▁XIII
新
anqu
▁mars
▁encontr
▁explos
▁gorge
asis
▁beds
▁Sig
seg
<0x0E>
▁characteristic
▁respected
➤
▁neces
Amaz
▁sag
▁upward
ウ
▁investigation
波
widetilde
▁guarante
▁paper
▁pan
atta
▁quotes
nem
▁июля
chts
▁corre
vv
idx
振
▁officials
▁successfully
▁silver
▁smile
){
▁și
▁Mün
Mut
▁intend
▁duplicate
▁feelings
Unable
compet
▁PE
options
▁my
TV
VICE
▁Fight
NOWN
▁provisions
pt
").
▁Deal
<0x99>
лова
stone
▁persons
▁immigration
▁pret
▁Во
▁railway
▁diamond
▁**
Colors
unregister
Green
▁PARTICULAR
ais
▁Like
▁hips
▁fully
ree
ologically
▁bed
AMP
率
mp
▁orient
ronic
워
▁pursuit
▁assignments
nitt
▁plural
hetic
shell
heng
<s>
▁marca
▁году
ba
ше
▁op
Null
▁fascinating
▁estate
▁Motor
▁gift
dim
▁But
▁Am
▁рай
amples
▁tattoo
Sche
负
▁relate
▁Contact
alth
Un
oph
Appe
ipeline
▁(__
▁Jahrhunderts
esar
▁Bobby
iges
▁crush
=${
▁James
▁change
errors
Clause
iches
▁им
▁gemeente
▁emerging
agner
▁tart
interest
▁pension
值
Ḩ
resh
⋅
▁Fen
ному
Classes
▁Mart
.*;
張
ер
修
▁Original
фор
staw
raf
▁'@
▁Indians
Geometry
▁extensive
collect
▁ger
来
▁brig
▁whilst
シ
zer
WF
<0xC9>
▁Pr
▁radiation
😂
针
ways
환
Il
▁constructor
▁infer
▁Tu
ago
橋
▁steep
▁claims
▁Orth
▁deport
서
▁Individual
Win
requency
yl
▁blend
kie
tip
▁ugly
▁present
▁Append
ὴ
Allowed
▁elementary
▁elegant
▁Barbara
drag
SD
▁supplier
測
▁Alliance
▁О
▁oscill
▁Contribut
▁defending
▁lim
▁Jahre
лён
▁military
▁what
рів
elve
denly
isEmpty
WINDO
▁Forest
▁Festival
Mass
home
rag
民
▁shell
▁fitness
▁Mey
▁medications
▁compatible
▁ERROR
png
Effects
万
ã
▁forth
ienst
(()
▁aboard
ède
ibling
fac
▁locked
*{
Bound
<0x2E>
▁arm
▁upper
*)
▁liked
typename
▁moins
▁adopted
▁votes
Attr
ierre
⁣
Timestamp
operator
igh
itect
▁~~
Vers
▁Bruno
гда
▁Micro
▁Kingdom
▁shiny
字
▁Jonathan
▁modification
due
▁Git
⛔
▁pack
▁artwork
(",
▁Maurice
▁(“
▁authorized
ified
holders
顶
board
RM
▁energies
▁Sn
İ
▁technologies
Delta
▁auss
▁create
чення
👏
nah
▁U
▁leaning
EXIT
▁interactions
▁Karen
▁Defense
BUFFER
лич
issa
▁complaints
Spe
ilon
▁leak
외
▁(-
rotation
▁Sebastian
viv
▁usually
ican
▁blessed
掉
eqn
artment
▁rég
▁Statistics
▁Jake
Tx
抛
sal
ousel
▁blues
マ
$$
▁entrance
▁Jorge
™
根
▁amaz
▁pom
▁"</
▁perf
▁ADD
▁CB
ventions
（
▁Ach
▁affirm
eda
▁accompanied
▁Wonder
abc
▁Insp
▁accus
▁basically
Axis
▁Prem
ADDR
каза
Phi
▁introduce
INCLUDING
▁conten
▁î
無
▁Frankfurt
µ
满
▁MO
▁Pil
▁laughed
▁identified
▁cement
▁chronic
borne
ძ
▁dust
▁straightforward
▁Palestinian
▁option
azi
▁Sorry
▁Democr
▁huvud
ensional
look
▁Victor
▁illegal
лий
▁written
▁ig
рио
▁speed
▁Tel
bidden
▁sept
RPC
斗
▁construction
imi
▁dernier
▁tire
ialog
▁too
▁direction
▁self
otos
ფ
ards
standing
ient
▁regarded
ken
▁ion
▁groom
▁ly
▁Emer
街
ह
▁Cart
▁iOS
▁Deutsch
pend
most
▁бе
▁grandmother
▁язы
▁whe
▁loops
uries
▁более
CCESS
▁assistance
♭
▁peut
igten
¸
let
usc
finished
axis
locked
▁Г
র
itch
sa
версите
▁rôle
current
))
ighed
处
рован
gun
aration
▁received
itory
pyx
▁Legal
них
EOF
ɾ
ował
▁nob
▁skulle
▁batter
▁gloves
bird
▁functionality
▁aspects
oute
▁hyper
▁dramatically
र
ous
ició
▁française
청
bid
▁roughly
▁teen
beat
Creat
▁Limited
ENC
▁requiring
遗
eme
▁En
▁soil
▁centuries
▁Dob
▁predicted
▁zona
이
▁Ч
▁sooner
▁Carr
Œ
aces
▁matter
▁bought
▁Bew
used
▁bos
dire
Dark
▁Remote
▁incident
ң
▁crimes
jen
▁restrict
▁obsc
anel
▁bone
▁Bert
攻
▁zam
GP
NP
PEG
拖
▁BBC
括
colon
শ
iten
奈
atic
pleted
ḍ
▁earned
阅
Mir
▁reasonably
▁Dir
@{
assemb
▁раз
ancers
▁generating
▁distribute
owing
▁Mc
▁tren
chars
▁carries
()))
ITH
▁studio
▁parameter
▁stark
▁Lem
family
Saint
▁overwhel
Abs
拼
u
▁Tibet
mercial
Definition
▁uniqu
▁poc
▁'%
提
▁Son
▁breaking
▁"../
ắ
▁commented
ড
<0xA0>
▁"#
▁attended
PO
▁jour
Comment
reat
entre
▁corporation
▁Security
SYSTEM
eps
header
ін
▁Smart
▁slightly
▁sole
▁Works
wl
▁PL
▁households
▁filled
============
▁butter
POL
▁cream
▁OK
contr
▁horrible
newcommand
validation
acular
bytes
eyed
SEQU
je
]);
▁pol
ieren
易
ди
annot
▁faç
ationale
awa
illance
▁typeof
)\,
▁secure
Mart
ської
˜
Ա
той
license
▁assass
iner
▁wrong
стро
▁matrices
ylv
▁sne
ュ
▁'')
▁printer
▁Josh
干
▁Dog
achuset
御
▁Tod
誤
rcu
▁Eric
▁\(
▁precisely
icode
▁June
lam
DP
▁concent
Day
®
jed
▁absent
▁fold
▁shiver
▁List
▁rig
sel
\}

▁йо
itt
rib
▁extreme
ario
cro
Impl
▁border
총
eral
olutions
▁jog
TF
Expected
▁catalog
Kit
Ο
際
ប
стра
о
▁did
▁nearly
poch
▁Lu
ོ
▁htt
▁portable
▁EX
special
okes
marks
ustral
ك
▁hey
排
ovi
▁Бо
▁уни
▁assembled
骨
Navigation
Room
▁Miche
▁ful
▁sofa
lez
▁Neder
act
entry
ichen
UPDATE
ERS
ły
▁Inga
▁manuscript
Coll
LIMIT
roup
▁binary
稿
▁Ze
▁connect
looking
▁stabil
▁image
▁"$
esser
▁track
antry
▁hier
▁breakdown
▁marvel
▁Attendance
碎
thumb
river
▁onde
Fe
uk
▁года
)-
sim
▁floors
box
▁planted
▁frequencies
▁Orleans
adow
nder
▁französ
▁jew
ambda
raction
Relative
Prev
hbox
urg
})}
Hide
avan
▁starts
▁parse
▁Southern
▁compare
▁gem
▁Graph
▁demonstrate
▁absorption
▁investments
▁los
▁вто
ró
suite
▁refused
endant
Î
▁государ
▁holes
▁Coach
arest
▁Ist
renderer
nex
osti
▁district
Dead
o
▁Making
▁giv
▁té
▁runner
▁stack
тар
циональ
阶
units
▁spl
gh
awk
izon
asset
gan
▁content
▁compact
▁Define
FACE
inus
acker
od
▁periodic
▁socks
GC
false
ArrayList
▁veh
Variable
벨
▁Fill
Expression
No
💪
▁grace
▁implements
萨
created
▁Strateg
empl
▁Both
▁coach
▁sons
▁DE
external
LOCAL
▁toda
▁ство
HR
▁Joy
▁grim
▁Nixon
▁swallowed
▁boolean
▁Remember
▁toile
Is
ha
eval
UEST
}^{(
identity
▁Phase
cido
Fact
izada
▁Brad
▁inspect
ذ
rew
▁defeat
talk
▁patches
▁Psy
▁useful
▁ihr
ший
▁Squadron
▁Face
ც
igin
ovember
េ
FA
▁Books
▁Eventually
▁къ
aware
getValue
▁hy
▁traces
▁Grande
htt
atures
▁sid
ICT
▁Either
▁Lar
zes
▁compass
▁Houston
actor
xis
▁oldest
▁explaining
▁rough
▁fruit
кло
fö
▁меда
ifa
▁campaign
▁sí
▁particular
<0x37>
Of
▁arg
REE
▁Load
eg
▁reluct
ga
inder
▁smaller
▁Progress
oons
别
.
▁этом
evin
▁attribute
▁soul
▁municip
gren
▁jur
▁Silva
univers
▁shouldn
########
▁Ac
▁съ
FORE
ズ
▁PR
ULAR
subscribe
▁for
▁victims
fox
occ
▁publishing
refer
igos
▁concrete
▁Easy
▁vibr
▁Lemma
▁д
▁affili
ffic
▁inputs
ather
▁witness
▁trails
Q
▁orig
CI
▁definitely
ccess
▁classification
oes
▁під
▁six
noc
Broad
anj
▁betting
▁technological
ម
east
▁nomin
<0x51>
▁couch
猫
зульта
▁Wor
Button
ns
pattern
▁lovers
▁extending
ivals
ат
▁Girls
▁pers
▁Golden
ym
▁miserable
▁produced
팅
▁Monday
Declaration
▁exercises
▁happens
▁così
▁profits
교
Errorf
▁sets
entials
▁prize
cg
endo
▁ordered
ookie
Handle
▁girls
▁gathered
▁Ort
assy
▁MR
ann
Amer
agues
arse
His
▁generates
urn
LAB
marker
ケ
▁run
exist
iable
unda
▁Current
判
▁Next
▁Dort
▁RET
Tooltip
▁parameters
▁Мар
ól
textcolor
▁вос
infty
▁dressing
채
IP
英
iska
aption
▁incredible
▁summar
oshi
▁partial
▁armor
▁garbage
▁Official
▁pri
West
▁▁▁▁▁▁▁
${
output
holm
▁Phill
acking
▁CF
Controls
EXP
▁medic
▁Apr
aho
1
▁Ed
▁taking
uy
мер
▁Lib
▁lens
销
кт
WriteLine
右
<>(
sWith
▁charges
▁criteria
▁dependencies
亞
▁door
tok
=-
▁ос
▁XML
▁blink
inding
▁ga
binding
▁contrast
isy
allery
berg
fall
▁intimid
▁prayer
显
David
hu
▁capabilities
▁kidn
료
▁Oklahoma
▁labels
▁hor
ussian
Ма
▁III
xffff
▁Services
现
▁champion
]);
雄
▁Bass
▁CONDITION
▁deploy
▁P
wij
▁Philippe
▁Kaz
ಮ
▁LIABILITY
▁one
▁intellig
▁physician
onic
trait
'.$
▁nonetheless
▁Ви
▁upright
မ
▁split
Load
▁booking
\]
▁seiner
▁rack
<<<<
▁Tommy
▁printing
▁Hist
▁precious
ieder
▁Http
▁extended
▁clip
oli
▁Summer
▁Isabel
▁somewhat
iles
▁communication
Bel
asma
events
,,
lua
pent
▁Ye
attachment
▁août
iblic
ram
▁nem
▁Об
▁області
▁sj
▁adequate
▁Gel
▁alumin
取
Κ
▁rv
▁shorts
--
▁Евро
▁preview
▁Online
▁Und
detect
▁values
▁embedded
pu
ocr
pw
▁Operation
ENT
▁произ
▁Sau
bool
▁Fuck
Ang
▁Enable
▁Pub
▁sign
iam
REQUI
nbsp
▁ella
▁}}
▁technology
▁have
кой
мина
вич
ics
|---
▁gradually
▁"(
▁Most
▁Feature
Suite
▁Argument
▁glasses
▁reproduce
▁appreciated
weg
灯
bl
▁mentioned
们
倒
▁fir
▁strategies
ɐ
▁ke
umbs
▁Punk
ква
▁hesitated
ђе
▁ingredients
▁polynomial
gly
▁släktet
▁consisting
MLE
發
next
▁lucky
armed
▁sweep
Indices
▁ip
HY
rep
rules
▁villages
▁subm
▁Sally
}})
▁Protection
▁Campeonato
✌
▁surround
▁blev
perform
▁//
Forms
▁king
ización
GBT
el
.",
ves
effective
▁facility
vendor
▁dic
▁ruin
▁elevator
heap
toire
党
▁Baron
▁Arthur
▁snapshot
ford
▁refresh
rum
ydro
eri
▁mercy
▁Env
闲
BACK
ORY
ctrine
gon
ల
ulo
▁"\
inates
▁dp
iores
▁smoothly
▁Cette
▁divide
▁disagree
▁angry
▁suiv
unfinished
änge
abeth
osten
uated
▁Pos
▁коло
▁SHA
▁'\
Shape
电
allas
Activity
▁},
▁tack
▁servers
Pars
els
▁seal
▁raison
▁Anth
▁puede
▁uncertainty
riven
scri
Modules
▁custody
⚭
▁музы
過
▁Comments
ʋ
(){
▁рас
̄
▁rated
稱
▁mac
▁gepubliceerd
uda
vest
▁Cy
▁DateTime
▁respect
▁fuer
vars
▁patient
▁navigation
irt
?
、
▁magaz
宽
ῖ
react
▁Normal
"><?
ční
╗
▁versch
▁Library
▁Tools
cpp
▁road
modules
▁Notice
▁hop
Strings
bez
Di
detail
▁satellite
秘
read
▁example
▁Х
rho
нем
▁Carib
▁кар
▁siè
▁Sed
▁назва
▁presented
ias
ль
ños
▁Album
餐
<0x9C>
▁director
PAGE
夢
▁Executive
▁klik
▁dann
mit
▁restaur
holder
演
▁societ
'),
ília
ilio
▁Initialized
▁eaten
☆
▁input
вер
▁survive
才
▁nom
▁approved
▁fö
identifier
getDefault
pler
ases
issenschaft
符
iled
loaded
ữ
▁fall
▁hoped
▁y
inery
чка
▁id
▁crim
▁logging
▁treasure
▁Notes
▁hurry
▁Kamp
outputs
ason
▁canvas
Out
▁Import
▁certified
▁celebrated
▁golf
되
▁lips
▁parking
▁copyright
▁assault
otta
phones
▁trailing
檔
ច
iers
▁sowie
▁products
▁thick
▁subst
▁simulations
▁ż
DOWN
▁présent
li
▁обще
ologia
▁archive
тся
▁Info
▁meet
▁chin
▁relating
oy
▁Creek
следова
▁Birmingham
▁and
自
작
▁т
tk
rh
ELD
trigger
▁stat
▁програ
▁##
dk
▁```
Ip
▁avoiding
Device
論
从
ctr
▁overse
states
Drawable
▁sponsored
▁embarrass
лу
щу
히
▁noch
jev
▁Luke
eds
▁precip
▁delighted
argin
▁guilt
Kind
▁право
▁XIV
orts
dynamic
itemize
♥
град
aine
進
▁novels
▁grinding
▁advers
EDIT
out
▁Mau
▁destro
ubre
pass
uld
▁Against
く
▁watched
Selection
▁denom
▁fees
cal
km
store
ession
▁mu
▁Senate
tan
▁breath
▁vessel
idel
vel
▁ny
▁som
▁considerable
CORE
▁Meet
AS
buf
▁ги
▁&=
json
爱
Item
appendChild
≮
)->
▁І
▁Jahrhund
▁dose
oad
▁Represent
▁individ
await
aked
▁slavery
Æ
Έ
Sizes
▁Seine
▁heav
▁álbum
▁entry
hund
▁threatened
utenant
Methods
stru
▁Estados
▁half
℃
▁фи
▁primo
cong
▁cel
▁spectrum
‭
ນ
▁vic
program
rought
Authorization
нов
metadata
BLOCK
▁Schl
lic
cipe
лекс
취
▁examine
▁för
▁Hero
Password
▁apr
amment
tilde
▁Anti
okal
▁depress
▁high
▁Ś
▁underground
cov
дей
▁modal
▁fest
rid
OD
isse
▁März
нения
▁decides
cester
zs
▁Dom
pop
bit
Resolve
▁boss
▁date
▁General
!\!\
▁producer
▁Much
ULT
▁methods
Sil
uerto
▁concentrated
▁Julie
▁ни
突
▁mom
ў
▁Clay
▁ib
适
getInt
模
ม
held
▁"__
fx
▁er
▁ban
▁pand
▁ruled
TIES
▁Unless
▁enum
▁constitu
완
▁io
▁nit
hren
▁Europ
▁definit
▁Ту
▁PARTIC
ensitive
济
Completion
rose
▁business
▁tri
▁safely
▁west
▁vessels
omena
▁acknowledged
út
esc
▁september
▁castle
▁accepted
▁Claud
▁Carlos
▁gaz
ņ
県
mand
▁rank
▁carry
'(
▁AL
▁Bre
sv
>?[<
▁cheeks
model
sex
harm
pped
cap
än
▁provider
ǝ
ге
ದ
gra
anya
▁requ
▁Fed
▁implementing
upper
ibraries
▁capability
rias
▁arrested
▁реги
▁quantities
R
▁power
▁pro
▁anos
▁viene
ination
▁tu
▁fut
▁IO
▁анг
▁сі
▁Wel
▁DT
▁silly
ția
▁alley
Contract
iji
UNIT
gold
Hot
▁singular
UK

▁need
▁episode
故
<0x6C>
▁которы
CONTEXT
erv

yar
▁factory
Figure
▁diseases
ért
inn
应
gp
종
▁species
Paul
ifornia
▁rhs
▁gele
▁Object
castle
ott
ACTION
law
orf
plet
▁donde
▁years
xtures
'][
▁structured
▁formally
▁auth
远
▁Phone
▁undefined
▁=>
GL
▁Hospital
▁$\
▁deaths
▁Carlo
plane
jà
▁sustained
dt
▁throws
▁World
uten
▁Expl
▁Repub
▁Salt
techn
▁>
chaft
andon
maz
▁Na
▁responsibility
цій
prison
▁consolid
▁__(
▁phone
except
resp
brit
ография
▁Buffalo
ages
made
▁capacity
▁Singles
▁Abstract
▁je
예
white
▁smiling
▁stroke
▁second
export
▁turno
い
▁White
/_
▁margin
ру
ativ
▁voting
apse
▁driving
會
ace
デ
entities
▁awake
▁lic
▁interpreted
illet
▁Such
supp
▁Jud
Syntax
데
▁competing
oice
▁wet
▁towns
▁Commerce
▁cele
som
✭
▁tasks
▁&&
▁managed
▁beginnetje
▁други
▁même
▁verify
ral
▁places
▁scheme
tls
証
cle
iem
▁hotel
ouse
_**
?)
ideo
▁flows

▁país
▁position
▁sau
▁commun
angle
generator
▁lur
▁survey
mill
▁reserve
▁dreams
▁backend
▁я
▁^
inals
▁Eq
▁retour
.$
▁za
MMMM
▁President
FS
▁деятель
iken
Cur
▁України
▁medication
▁Pul
▁Hunt
▁divided
shared
▁Peter
ład
관
Access
▁Santa
Supp
▁lik
▁broker
have
ał
▁speak
▁Julian
杂
seau
▁mile
▁articles
uler
▁dependency
▁Ce
久
▁oppon
封
прави
umn
▁char
nosti
bars
Α
任
ро
========
ща
rief
PS
iddle
likely
rors
▁inches
▁Shah
▁handling
column
▁Arr
▁pag
▁'<
▁ś
▁bij
▁lleg
tainment
▁us
PARAM
Emb
Sc
▁vamp
дан
ward
folder
▁tät
本
urb
Pod
suit
▁Л
▁dan
▁Tar
▁contain
▁zwe
mysql
▁newest
▁*)
▁Po
navigation
ฌ
▁rede
чной
wood
ble
fprintf
▁éc
▁yields
▁strateg
▁suggest
▁};
▁Main
sembly
▁likely
▁Master
Convert
▁Фран
Need
▁Images
ɑ
▁easier
density
enth
▁confirmed
innerHTML
appen
aat
外
IO
▁Greece
兴
andro
itals
▁swing
陈
CC
丁
▁SS
istribut
▁ciudad
<0x3B>
▁kle
▁loving
▁Temp
writing
dims
▁ре
▁који
▁'</
▁dens
招
▁yeah
糊
▁Que
âte
ried

超
sig
andom
▁Woman
▁дивизи
▁verk
▁Activity
стве
agine
rique
▁understood
▁main
kov
Fix
▁Ez
▁sou
orship
rific
▁Pun
😅
hell
exists
▁household
Los
▁table
PT
Pse
<0x1B>
▁purchases
▁Force
版
▁Mos
▁applying
▁reste
.“
▁initialization
ieler
ural
▁held
▁oper
elem
▁Beautiful
uje
速
▁Luther
▁fits
ulative
🇺
▁lanç
Mock
fi
upt
▁sta
▁fer
▁pale
ány
TRACE
olut
浏
ffect
hit
others
mare
▁Pull
标
▁​
isterschaft
tery
▁additionally
S
IFT
kor
t
▁today
▁emerge
▁på
ati
▁André
xico
perf
▁SPE
▁жи
♪
▁win
<0x7C>
▁enjo
good
▁район
▁Label
▁Give
▁ohne
▁Cro
▁Activ
▁Islamic
▁scheduled
}/
torch
▁ge
ʃ
...'
紀
vy
±
▁Cha
esota
▁nan
uts
页
They
<0x6B>
таль
▁unter
verts
▁representatives
ARM
▁Examples
xp
▁they
atever
Server
.:
igger
▁Jo
▁separ
직
▁Bud
jer
equals
▁primera
▁побе
преде
lean
▁
리
han
▁feedback
▁wildlife
▁ner
<0xED>
▁Bet
▁"_
watch
▁Same
▁hoof
▁rewards
▁closer
journal
ність
▁libro
ansas
itting
▁favor
HEAD
▁w
▁Task
▁ske
▁responding
▁dependent
werken
▁pod
▁however
▁Marketing
Ob
BF
▁terrorist
}]
▁working
▁Prote
▁Municip
▁eerst
MED
▁lav
ной
败
▁PER
▁clos
TDM
▁institution
▁XVI
▁dall
▁way
▁plusieurs
▁autre
▁ali
▁visit
THOD
▁empty
▁sans
rezent
▁impat
▁discipline
▁adapted
▁tar
▁Ele
▁Muhammad
▁stro
PLAY
sap
('<
▁mot
▁meets
write
anden
<0xA5>
자
?(
▁дере
Act
▁mystery
▁Oak
▁DCHECK
ecute
ottage
▁greed
▁NT
▁Hockey
Inline
▁college
▁certificate
▁és
▁visual
▁inherited
▁req
ulation
▁trans
▁Chat
▁und
前
▁di
▁myth
▁confidence
▁wing
buch
▁proposition
▁astronom
タ
ન
▁draw
<0xB5>
▁cnt
▁First
▁Ba
▁suck
▁huge
▁Coff
▁raz
bbra
▁$_
ule
ita
▁meals
▁base
ючи
▁terr
▁music
▁rally
▁marginal
▁участ
auth
kes
▁Luxem
▁Viv
▁admission
增
▁interpretation
▁calc
agen
▁When
▁ble
<0xD5>
▁about
ʌ
շ
PI
▁Mich
Desc
▁smoke
▁wooden
entries
▁Script
▁shortly
▁Category
ṯ
▁traff
▁remembered
▁drugs
rupt
П
ø
날
SV
▁assets
▁Inf
▁roof
issues
LEN
▁account
▁help
▁indu
AGE
yo
accur
▁hollow
▁Aires
<0x2C>
▁Could
述
ɵ
▁challenged
▁Michael
="_
▁ancient
Files
▁improvement
ynchron
▁guerra
▁bis
گ
▁Fore
未
▁ground
▁looks
▁Cou
ャ
▁component
chain
ја
▁followed
▁faster
Initialize
stats
dev
▁except
▁farmers
▁tied
DISABLE
प
■
▁pil
Const
ancia
ipart
載
▁art
▁Erik
eneath
▁Vin
amerikan
▁acquis
비
▁pros
▁irrelevant
▁matches
Tasks
Ħ
er
times
Pers
ino
▁Spr
ir
ism
ethod
▁déc
wart
Surface
opl
▁caused
▁supporting
▁replaced
▁след
uth
ise
arance
▁tuple
▁tab
control
▁lux
▁suspend
▁geometry
that
need
heimer
▁Hill
<0xA4>
ainers
liche
▁inhabitants
ließ
äger
eline
uid
Sensor
▁sil
TP
points
threads
▁PhD
yll
▁Lloyd
▁toggle
asia
▁Uncle
▁sunlight
▁man
▁Kitchen
INS
<0xFF>
ice
ild
▁talks
border
▁disappointed
曲
）
eca
isen
▁Б
▁substant
SIZE
史
nn
▁dere
▁essential
panel
▁Winter
ulpt
hedral
Elem
▁rapp
▁invånare
Tele
ら
민
inois
umeric
▁stores
former
▁tomb
GE
比
▁gambling
령
'];
oda
recogn
▁kv
пад
▁developer
part
Tags
恋
▁Bald
▁Saud
▁февра
ent
delta
▁Community
ultur
▁enjoyable
▁Nur
▁crystal
▁Ir
皇
▁Horse
▁Committee
Year
NaN
▁popul
posing
▁Frau
ove
MC
Sources
ENO
尝
projects
Bay
▁chaos
Argument
rieb
玉
▁blow
▁lower
orous
izard
▁appar
▁Features
▁names
▁Emb
▁rings
▁nahm
igan
zi
year
hl
catch
▁lonely
▁producing
น
▁collection
▁Wed
ی
▁seized
▁Bomb
Dat
▁edge
rage
ricane
▁Copy
cole
Enum
Services
"
▁purs
▁invalid
food
▁friendship
CESS
▁pseudo
▁Further
▁Init
▁prin
▁science
▁indicates
Java
▁Da
▁Negro
▁luminos
▁inter
OR
Py
▁Button
▁ready
瑞
▁lä
norm
delegate
ucket
▁week
cmd
▁sout
ز
dale
▁volunteers
real
▁Often
rection
сь
oport
▁templates
▁ass

▁DI
▁Freder
峰
香
possible
<0x67>
▁data
arius
icating
where
'))
Short
价
▁unless
∪
^-
FP
using
gle
validator
▁equity
▁angle
written
Bet
▁recognised
Comparison
getKey
ARY
uum
▁Candidate
▁coalition
Re
▁submission
▁Gh
hidden
▁societies
ibility
▁Set
▁article
main
▁х
▁dés
-->
∼
▁F
▁goodness
▁po
____
▁pop

bat
▁reddit
ová
▁café
▁larg
group
igen
Rob
phan
▁championship
▁price
cfg
System
ter
Render
ordon
्
▁deployed
▁occasions
half
▁worship
▁json
▁dram
▁hä
archy
Typed
▁chop
tooltip
▁Way
iw
▁Half
▁sip
лен
resse
▁mean
Execute
ε
▁anyway
blk
▁Ernest
ás
▁balance
▁recommended
▁hypothesis
ು
hi
==
Om
▁reader
▁fram
▁album
▁Indian
▁Planning
▁shirt
▁B
▁unset
]=
▁include
▁thinking
▁!(
See
]
vr
Ch
вих
▁Lay
▁People
<0x44>
▁ie
▁To
Extra
▁January
▁."
▁strict
sp
▁voor
▁launched
▁D
▁kinds
受
▁transformed
ент
▁retval
邮
Print
▁or
▁return
▁periods
អ
▁village
("<
▁Gebiet
▁SU
specific
▁Mode
▁expl
desc
swap
▁many
▁redirect
üss
▁migration
mina
)
▁cs
▁year
▁combine
Operations
▁Republicans
▁shru
▁Rico
SYS
▁Transaction
tg
О
ọ
▁battles
▁cot
▁Dit
▁documentation
▁guid
limited
品
ences
▁Records
▁cob
没
致
host
CLE
▁iPad
Spell
ategory
▁internacional
plier
colo
型
▁stab
сі
▁lig
▁resource
▁removed
чен
往
{\
▁arts
iph
▁managers
registry
▁Atl
▁wise
Last
Generator
ick
▁pulling
▁tactics
мі
▁maggio
ampton
templates
體
ète
▁jokes
тів
▁franc
登
érc
ligt
▁chains
leg
scribed
<0xAE>
▁Carn
ropy
ления
ev
▁Boston
尚
äm
▁sites
NY
yster
▁j
cons
ientos
▁outline
h
▁Nak
▁advocate
Ev
▁made
▁system
▁в
History
her
classes
▁Render
▁Core
"));
Rate
▁dess
▁span
ходя
▁Q
Selected
acht
▁Wik
rir
▁buttons
▁pays
conv
▁Mail
zing
▁bull
▁alive
▁lust
에
▁Lucas
▁paid
ead
▁Z
▁Pier
dots
▁classic
also
▁Edwards
van
▁Hi
▁su
▁cook
=""
▁spreading
ating
Required
serialize
vertical
▁Hook
oral
pload
Head
▁senses
ต
▁muy
ក
ំ
委
▁tegen
▁'.
uction
举
▁the
acco
వ
Assign
▁aggressive
window
appy
▁Mask
▁galax
GR
▁fake
▁Sister
ria
▁calculate
▁oficial
▁Davis
subsection
glich
zz
oto
Even
▁lingu
ünd
atr
anska
割
似
您
Sample
▁Debug
益
缀
優
files
olu
例
►
GLOBAL
▁pian
▁pay
▁EN
LES
▁mainstream
ˌ
▁laws
century
nullptr
▁grief
ops
▁barely
▁banks
▁Januar
▁pregnancy
▁який
ằ
宋
▁Ram
▁Nich
▁investig
▁Shir
atore
nb
案
▁gl
▁constant
Inter
▁elev
▁clin
arga
和
ី
▁Mum
athon
iler
▁southern
priv
▁runs
▁Sud
▁lifestyle
▁га
)(
▁Indiana
▁attributed
▁crowd
imeq
▁activated
▁Catherine
ação
▁Pennsylvania
თ
▁producers
▁Ко
▁Pf
▁ti
ployee
▁shops
▁carved
amaz
<0x66>
aus
▁у
대
▁remove
oke
XR
▁dass
▁Stand
▁Sport
有
tail
MAGE
▁routes
ѐ
▁*/,
▁ils
Shell
▁colony
▁Eld
守
▁vanished
▁overnight
▁Ide
▁Rick
лів
▁kl
▁request
owej
coord
▁banda
ি
均
▁tr
ize
((
[]
▁bil
"]["
erset
▁membership
▁moves
ника
}}{\
▁designs
blocks
▁explains
FX
▁clusters
▁streak
▁Sea
▁steht
ّ
▁olymp
▁Sil
Character
encoded
}-
▁eliminate
▁situated
江
▁uz
ⵓ
іб
/*
▁über
▁deposit
ia
oren
icip
▁relaxed
▁further
<0x88>
ude
NU
付
semb
anna
FN
validate
▁piece
▁device
▁jak
▁про
ACHE
▁dup
▁Nat
▁teachers
wei
▁só
Listener
oby
▁customers
ult
▁Î
▁exception
崎
▁Mans
пи
ULE
▁pilot
▁management
**)
he
▁Gaz
▁Natur
dma
▁gol
chez
〜
▁Lit
▁medio
oked
icians
ished
▁fair
▁Prop
▁evidence
▁Tre
▁decis
▁саве
호
aran
▁alone
NotNull
orent
<0x59>
▁involvement
▁appel
▁treats
▁Youth
▁Think
arante
▁tape
來
doors
▁seriously
▁Journal
wald
▁ses
Iter
▁summon
최
threshold
▁squeez
律
니
▁ages
▁Magn
▁cure
▁Amb
▁coeff
▁redu
Stop
pshire
够
▁Whe
Integer
▁SR
▁pen
▁faith
▁sib
▁Shaw
▁ancora
Audio
LBL
<0xC1>
▁appropriate
▁Se
▁gover
leton
▁pp
▁stato
ushed
backup
;"
▁dining
Name
▁Ris
Master
▁Ghost
▁ст
▁quietly
Doc
resc
jor
keiten
asse
▁execution
▁units
▁personnel
▁Fat
退
}_{\
Styles
unlikely
▁WIN
▁Card
▁sort
rest
්
FROM
▁particul
For
▁..
>/
["
▁fierce
▁ком
▁severely
▁be
▁augment
>;
▁We
▁Serie
▁cens
▁lied
▁jewel
各
Node
▁sav
▁dt
ries
▁Field
Game
▁arc
▁build
mathbf
▁Jahrhundert
segment
號
▁libert
▁diver
▁compiler
<0x86>
▁block
Cursor
▁commod
MASK
ogeneous
▁figure
IDE
▁alias
ishment
icient
▁operating
etection
选
ministr
ania
塔
▁vá
Ref
▁auf
abstract
lessly
che
▁addiction
関
▁NV
method
▁sar
▁Sand
',
▁surgery
▁raises
ɲ
▁Nik
▁fishing
▁km
▁DJ
Bit
Opt
хра
▁органи
▁solar
total
e
▁propriet
▁combinations
щи
▁historia
ially
▁sank
▁quit
←
▁h
Pass
kom
▁reflects
Override
Enable
▁mort
▁brace
мет
slide
жи
▁t
ow
▁investing
aceut
REL
▁Arabia
▁och
uj
MAC
请
地
▁thought
▁Marg
▁cooking
▁chairman
ucked
▁cc
⁠
ི
lev
▁THIS
▁drm
▁saddle
▁((
Symbol
▁Similar
▁chosen
▁labor
▁Experience
▁Wallace
bon
▁seed
▁encuent
ytics
▁expectation
▁ocean
Ne
eff
cards
▁regular
country
max
▁learning
Inject
ED
▁command
参
▁wars
▁NFL
eli
▁creates
ied
▁**_
Framework
Quest
A
▁using
став
▁profiles
ership
▁Own
inary
▁useState
▁Una
HashMap
▁PT
irit
none
Same
拉
魔
sym
cli
▁Para
Alpha
▁fel
▁find
▁Christianity
▁Squad
▁traveling
▁case
▁advent
训
▁economic
▁hybrid
拿
estyle
Dan
<=
선
acher
▁cute
▁limit
aug
▁Mitchell
kap
▁hade
▁regia
Vertical
▁mask
▁*,
▁Crime
▁adventures
Have
▁lou
▁Steph
▁stunning
mary
▁Esp
."""
geo
EN
▁forced
▁rate
hav
▁Soci
伊
inction
FI
▁Forum
market
▁вме
null
ez
tm
ielen
filter
<0x34>
}},
ς
Virtual
▁meaningful
ît
ографи
▁bef
P
田
▁%.
ey
▁",
shape
▁standards
▁Flow
esz
ünst
▁Native
alg
lagen
▁Profess
FULL
ை
▁liter
▁nice
unal
▁depuis
si
uf
ialis
}'
▁declar
▁poverty
▁escape
▁rand
▁mutual
linux
gesch
▁At
▁relatives
Complete
▁competition
▁holy
ycl
▁heads
br
▁cry
state
▁Software
▁grinned
$\
<0x6F>
ikes
▁XIX
reak
▁resid
skill
▁...
▁activities
▁zm
▁corrupt
▁demanding
Spec
cohol
EMPTY
essen
визи
▁fusion
▁ensures
ices
örd
▁ál
Paint
\,\
▁head
▁feels
uro
ached
frac
▁Massachusetts
▁За
▁Harold
acies
▁cleaned
emp
esch
Code
▁died
▁lug
▁DB
▁massage
▁sl
▁WITHOUT
fu
="$
fee
reader
ocket
}.
▁Finn
ே
▁okay
▁</
▁wounds
ै
▁elected
▁Const
'>
\",
skiej
▁fisher
쓰
▁hope
urchase
▁shocked
hero
▁xml
▁anxious
▁Paul
▁staat
▁BUT
VERY
界
Acc
msm
FLAGS
▁infect
▁tiles
trim
გ
Suppress
▁Rachel
▁Bush
▁recording
glise
▁brilliant
Mon
led
ño
Requests
▁Bal
})$
▁Enjoy
▁Auch
▁cone
IB
Ρ
нг
ibly
▁rue
▁member
▁magnetic
▁время
▁sections
▁proposals
▁president
市
):
ř
▁Partial
igration
mos
egy
▁indicate
▁ignoring
▁verw
▁choices
▁Philippines
▁Write
▁objectives
▁Carol
▁Finally
Utility
▁foul
▁zur
▁Light
setText
▁comm
▁restart
ierung
▁judge
▁title
▁functions
▁colors
▁Dick
<0x76>
▁trabaj
▁inhib
olv
▁angular
望
ū
ёр
AIL
▁part
▁modified
▁Template
▁Though
<0xB7>
▁Har
研
ZERO
izz
{},
<0xBB>
▁Bey
ind
shaped
on
Geplaatst
▁UTC
recated
¡
▁була
чного
Lead
fection
▁operate
▁Press
했
▁mud
▁tut
▁dels
▁Constant
compat
ptions
▁Harvard
ape
▁lightning
вано
察
aint
ky
ahr
▁Floor
▁DA
▁storm
▁mistaken
▁GPU
Confirm
▁TEXT
▁zusammen
▁confer
▁converted
icult
▁archae
▁soft
▁chair
Sal
eks
▁beim
固
Socket
▁dol
netdev
▁just
▁efficiently
յ
strong
▁Станов
▁lung
sq
▁familiar
▁PH
Reg
▁telev
▁Bug
▁apartments
▁dynamic
Document
imet
Enumer
▁OR
prec
▁Nag
<0xF4>
ʷ
削
▁DC
▁sono
JS
---
▁Table
ты
▁Cloud
▁hits
▁clutch
▁bold
iseconds
▁numbers
▁polit
<0x3C>
ras
▁with
chap
▁presum
ред
Insert
▁setTimeout
▁partition
joint
ving
CPU
ros
▁alongside
fico
▁synt
ecause
Ґ
ische
ging
▁Learning
▁Estate
▁maximal
дь
向
▁tipo
▁rigid
▁flames
▁anti
inos
üll
лов
▁pued
▁grant
▁broader
▁gouver
▁disag
Capture
允
▁backs
▁Local
▁bond
¨
教
▁lu
тре
▁Cyr
▁disturb
▁mus
∞
▁Turner
format
itud
чество
▁entr
inho
落
ant
▁compl
▁phr
▁ther
ёл
▁risks
▁img
Verify
▁lane
▁Suddenly
‬
▁que
▁controversial
▁mad
▁któ
Boot
vs
ress
Focus
▁AF
Up
PDF
▁shit
lr
akov
▁Gest
▁mont
▁ou
▁ago
cha
▁Ž
▁Spencer
半
▁feat
▁nell
icios
ID
回
▁note
oving
adjust
▁Fix
▁espa
commun
нии
asty
Frame
▁todos
Take
ashi
toolbar
▁suff
禁
▁nort
WORK
▁prepare
trans
▁quot
▁Venezuela
▁positioned
ɒ
▁pres
inch
filename
▁cred
▁Supp
eking
▁Cam
load
末
▁addresses
▁somebody
pectives
▁Job
▁Boot
nett
<0xD9>
SH
▁beer
▁gut
▁fac
警
▁threshold
▁deer
▁injury
tras
▁continue
▁advant
lines
стре
na
▁confess
▁personally
ell
▁tard
▁situations
־
▁repeat
▁discuss
▁Tit
▁mechanisms
án
특
추
▁assume
務
▁mog
▁З
Phone
fo
ello
▁resident
▁истори
▁->
neut
aily
▁anal
Msg
úblic
emplates
▁Ult
ui
▁Jung
▁stops
ˆ
▁Fle
▁hogy
▁calories
required
ème
wię
ਰ
▁Bren
<0x31>
▁Из
▁closest
iblical
rition
▁commer
future
▁Args
▁absolut
▁software
▁muscles
▁aw
▁longitud
▁Ass
каде
▁constru
▁eines
▁Attribute
帖
<0x13>
▁overview
▁reception
▁get
▁bathroom
pare
▁neighbor
💰
▁San
▁ded
