ified
▁accompanied
▁meth
▁Upon
ひ
sz

▁flexibility
Drop
ADC
ONE
▁accepted
Ex
erc
ѣ
▁nurs
'=>
▁janvier
इ
▁Mau
▁overseas
▁Historia
己
▁encourage
ards
$$
ited
▁wasn
Char
▁fün
▁automated
ม
reedom
▁Books
▁matching
imil
▁senses
▁Quebec
政
▁Cov
▁broker
ют
las
▁integral
ht
▁Anyone
▁Generate
uzione
▁Intelligence
▁likely
▁letters
▁galaxies
▁Joel
▁indicate
μ
▁respond
▁ambig
ország
˙
Eq
itaire
▁sixt
foreach
▁video
▁judgment
gorithms
▁expenses
▁CAN
▁id
INIT
iliation
▁Maggie
▁zoom
Are
▁ши
▁otro
:</
▁masters
έ
rika
cont
uur
adr
▁why
aur
—
时
vp
▁bomb
minute
真
▁road
▁mois
fm
▁evaluate
‹
▁Beth
anches
DateTime
▁Catholic
▁А
EFF
🙏
лле
▁typedef
r
ም
▁Martin
▁categories
▁accent
<0x6A>
▁author
▁jur
AST
▁baseline
改
[:
fox
this
вета
prom
▁Om
ilda
▁seq
▁students
▁plaats
▁interface
▁cens
▁colleges
▁sure
▁labeled
Buffer
宁
▁brown
LOT
si
icients
gpu
town
▁defined
의
HED
▁ry
ě
▁ade
▁І
阅
Hidden
▁cross
▁million
oby
ately
▁mit
old
▁repl
:\
bourne
될
ados
earch
▁comm
▁summer
▁alongside
Default
Admin
▁Matthew
▁Used
▁Black
▁Arts
▁fal
▁Felix
bias
▁Morning
спа

虑
메
ria
▁debug
ля
do
물
▁Ker
▁Francisco
▁cru
▁came
▁grey
▁redu
▁terminal
▁consulting
▁C
▁occur
▁syndrome
dess
<0x96>
href
部
Ω
Friend
▁falling
Re
令
▁React
▁If
▁sustain
▁king
umbling
▁maintain
”)
▁FALSE
▁Brown
ظ
▁description
portal
Phil
▁Ther
ova
*.
aming
▁cousin
▁nav
hh
leave
ate
▁imp
▁entre
metadata
▁historical
▁Board
constants
Ж
羅
▁sens
▁comprehensive
gon
▁Helen
₹
sender
▁compat
"?
TX
і
ir
▁centro
ighbor
▁пів
Asp
▁satisfied
nier
▁exist
▁acquisition
▁posting
Opt
▁could
▁bank
▁divide
зер
FAILED
CONTROL
VALID
▁Ep
icity
▁leur
Item
osph
挂
▁strip
Send
▁Als
Patch
ouch
HP
stick
▁Try
▁Usually
▁g
▁pt
▁phones
riel
,'
omer
▁Star
series
itting
▁Six
被
▁experiencing
pes
odi
жда
▁Other
▁queen
▁met
itals
▁battles
▁Pope
▁Paulo
▁TF
▁mayo
ates
▁Middle
▁surfaces
▁Steve
ổ
ход
wave
depend
▁seu
Body
datetime
Batch
▁Together
SION
▁espec
DataSource
adt
▁democr
▁Jeremy
▁sent
ח
▁стал
▁closer
orough
▁governing
<0x78>
спо
SHIFT
▁Culture
▁янва
▁seam
▁tak
▁scattering
▁jaw
▁derivative
▁concentrate
ч
▁Cop
▁gleich
流
BOX
▁време
toLowerCase
bund
Warnings
switch
剩
RESULT
▁worlds
▁tomb
▁gray
IMPORTED
Pair
ICE
Figure
▁Henri
▁Prior
▁Natural
▁профе
backend
▁XXX
Accept
▁todas
idential
उ
▁satisf
bold
▁Aus
om
IF
Msg
neath
▁Ernst
кло
Progress
▁acknowledge
short
▁ottobre
組
ebru
Note
▁Virginia
rawn
wahl
▁kat
▁violent
("");
▁gesch
ropy
▁passenger
ainte
oop
▁USD
▁Dar
Il
▁formation
▁EU
Mus
▁NOT
▁GPIO
iment
▁starts
urers
▁rapid
imm
ahoo
BLOCK
▁principles
▁slot
_)
▁eerste
▁MP
▁bekannt
▁Jennifer
)/
▁picks
▁AF
▁Express
Net
History
▁multiple
弃
旧
▁filling
▁Diff
菜
changes
Clean
▁équ
▁judg
▁tension
zeit
▁relief
мина
itor
▁ули
▁surveys
▁otherwise
Life
▁unsafe
▁Moore
}&
ockey
$;
化
▁Richard
required
▁é
па
▁века
istro
cticut
("/
aises
▁roz
Float
▁relating
Express
▁slots
汉
▁основ
▁Setup
▁lawsuit
拼
cles
▁maybe
hist
ipedia
▁arranged
▁bunch
▁schedul
▁Famil
▁Range
▁zunächst
▁Sex
cep
kil
IDE
▁Dictionary
ológ
olph
▁Red
amples
▁golf
ennes
atos
▁programa
ctrl
buff
▁exploration
Js
▁Cuba
Constants
Volume
顶
pd
missing
▁tard
▁McG
▁proof
rieben
ODO
▁début
atin
irical
лько
ruction
▁~
ис
▁Attorney
\|_{
▁da
тах
RG
▁Arch
}$,
▁Further
mediate
▁dining
▁storage
▁Mrs
▁Develop
▁double
▁German
▁гру
録
▁reviews
ុ
▁Mu
aal
▁Num
▁Poor
▁fast
训
>(
▁suicide
▁Га
▁Fußball
▁geb
▁angle
til
clipse
▁selecting
▁tricks
▁въ
▁Ko
▁Bin
import
▁compensation
▁desperate
▁subjects
▁markets
▁Pal
find
▁accomplish
TOKEN
▁racist
Join
▁PROVID
▁witnessed
▁proxim
▁soccer
][<
▁Jun
Your
sm
True
▁later
▁mid
▁literally
bridge
stock
▁confusion
oka
▁hid
▁Ри
itory
▁holidays
▁tourist
境
ရ
referto
▁heter
일
]->
reme
TC
▁precisely
expl
▁Denmark
を
假
▁GF
+'
UINT
(".
百
asset
▁executed
Inline
apa
▁tum
▁rush
▁anth
啊
atore
engu
rera
xspace
ну
赤
BP
▁height
▁British
▁calls
footer
!*
▁access
▁respons
▁sticking
˚
園
Executor
links
phase
▁Abu
▁amen
▁ideal
▁coaching
▁alleged
▁нау
▁acqu
▁tucked
="{{
▁Association
▁}
▁ensure
figure
">&
▁peculiar
▁Dise
usz
getCurrent
Lim
<0x5D>
Real
ENS
▁flags
▁Soph
▁ISBN
▁imagine
▁PhD
▁common
▁Internal
▁producer
▁trick
▁neat
▁te
iani
▁warehouse
ioned
막
▁crusher
REEN
arlier
▁room
EXT
ancies
▁fuer
íd
ピ
ony
▁uit
▁won
▁ми
▁Zach
▁neglect
▁enjoyed
count
bi
REE
kol
tee
▁Sorry
WF
Ζ
Heap
atrice
pic
▁otra
values
▼
▁stuck
▁vulnerable
▁Hig
identifier
того
換
码
ð
各
ffen
▁Tor
хід
fg
▁scrap
▁J
▁besch
▁ess
рок
和
▁Properties
止
▁purpose
▁loop
öd
anges
IG
ctx
Mutex
manuel
spir
▁follows
▁_.
pectives
ׁ
▁SORT
ff
▁ranked
){
zek
Great
▁AL
oire
izable
▁deren
▁restored
eline
vf
藤
LOW
gren
▁Listen
rium
Media
▁thank
ે
klass
▁Fred
acity
ﬂ
▁wake
▁weapon
big
▁glad
▁Taiwan
▁recycl
Mobile
Touch
▁Just
ile
▁government
▁delegate
▁ор
▁Васи
LONG
▁for
▁instantly
](
kehr
▁dick
placeholder
▁anderem
〜
▁psy
osoph
Mult
▁managed
zá
Plus
▁scroll
▁Pred
outputs
▁Dat
▁Fortunately
▁Pers
▁Londres
▁Fut
▁However
Return
ine
писа
▁Wolf
icans
赋
▁ca
▁maximum
▁toes
modal
textit
ateurs
▁Symbol
Nil
▁toutes
♣
Styles
rente
ще
▁code
▁Lov
extr
WIN
▁Research
▁walk
▁sed
▁sexy
▁spir
▁пар
▁choose
lace
▁Coach
gre
-(
▁lets
특
▁content
arters
▪
▁promote
▁feas
▁photographer
ն
[])
▁política
▁Tele
moment
▁Wells
olutions
▁traditions
>?
▁autres
""
vens
Win
click
▁USA
\%
▁switched
▁Gaussian
$\
ты
▁domin
▁[...
▁Unter
жде
▁Cloud
vil
ilen
▁readonly
ศ
▁rel
▁Per
▁ty
ert
▁col
▁od
▁purs
ница
▁Driver

Þ
▁cpu
▁patron
▁sout
structure
▁construct
▁use
▁face
▁luc
Sem
람
gent
▁angular
ee
nie
quarters
級
rolled
agh
ipes
▁Luther
▁purple
▁attend
▁conve
▁Columbia
▁memcpy
zing
▁Miles
ocity
▁chest
nov
>:]<
▁geometric
單
▁farm
ît
Ô
▁animals
▁Cong
<0xB2>
▁gén
,&
Oper
straße
ಂ
▁pul
▁pun
延
▁deutsch
▁má
դ
utdown
ICAL
▁breaking
果
▁increasingly
▁Valentine
▁sont
货
BUFFER
▁sacrifice
▁COM
fp
cast
ttes
恢
▁Ball
▁\(
▁case
Result
▁prior
ixon
▁Vor
▁ON
▁find
▁jak
ные
べ
▁establishing
<0x92>
▁affirm
way
▁Out
▁IOException
▁König
▁neue
▁appreciate
▁rap
checkbox
▁charging
▁Fra
**)
▁confidence
▁Switzerland
Broad
▁astronom
ular
lifer
▁tob
▁Team
▁Grad
▁Kin
?.
感
▁peint
须
irement
rior
’,
anton
微
++
်
We
▁Mike
Stand
▁Conference
There
▁statistics
▁networks
▁WH
▁nar
首
▁Editor
▁publications
▁companies
▁scientist
▁beds
Authentication
▁rhet
▁Federal
▁whose
▁Cont
OwnProperty
▁hardly
STO
ţ
SUCCESS
ナ
ready
▁gle
活
▁evolved
▁swe
ließ
▁escrit
NET
rac
domin
▁Dy
▁éd
function
urches
Austral
ca
▁Tour
▁beautifully
「
дри
Backend
▁wy
▁Jahre
▁clone
▁hö
▁praised
▁Options
▁tijd
▁Crusher
amed
▁gen
▁Wallace
▁trail
▁Aut
anst
uros
<0xF9>
ichtet
▁version
▁Only
liminary
▁arist
thm
LY
nt
hes
ENDOR
lli
notification
▁Doc
empty
▁Eisen
▁lever
▁Pas
Drag
ocument
Copy
ifr
▁GPU
▁province
Ό
ILE
"><
▁ruled
▁[{
▁atoms
Ð
▁econom
▁severe
Jan
▁resent
shell
borne
▁export
▁Police
oting
sqrt
が
▁foam
лиза
᥀
▁Street
avax
▁Ha
Compar
▁moisture
anger
▁мо
▁nut
▁supply
▁miss
▁ate
▁Mik
್
="../../
concurrent
▁Gay
▁western
」
REG
▁rapidly
▁outcomes
▁overwhelmed
词
▁lifestyle
Register
따
FALSE
阶
ATOR
fire
iom
held
▁Bour
oku
▁screaming
э
▁creator
▁including
于
▁risk
зь
illy
bros
ка
hspace
▁(**
フ
chs
▁шта
▁Historic
▁mach
weak
▁medic
▁ordering
▁ideas
▁correlation
▁-->
▁gran
▁Search
apore
Fl
▁extern
▁kle
rename
▁extraord
▁Cath
Behavior
▁morph
confirm
▁cogn
▁contrast
▁modules
ajor
eking
验
jer
思
ција
aja
▁Delete
散
string
▁int
><
▁shoe
collapse
▁Pink
▁ou
преде
▁data
▁all
▁gover
▁Senior
▁Po
▁published
模
▁bag
▁click
▁drunk
▁nost
nes
▁Students
▁sisters
▁MAC
,$
≯
▁var
usr
▁aspir
▁departure
▁crashed

▁uno
▁milk
▁Email
▁europe
▁nuclear
isecond
▁Nina
IEW
▁XML
참
变
▁churches
▁Non
iev
CODE
ил
Reflection
▁эти
▁guided
▁cant
▁pocket
eing
電
hood
💀
▁aest
▁extracted
▁speaker
▁Мо
èle
ading
BIN
ق
リ
▁lens
<0x99>
г
王
▁archae
Band
stdout
Guard
čen
&=
▁ratio
ろ
▁designed
▁affection
ė
▁kun
▁youth
ila
agan
Partial
▁awareness
ς
▁Eddie
▁Picture
ppe
tech
▁gown
▁Coff
▁ainsi
field
▁War
▁alle
▁colors
▁lugar
ário
▁Philosoph
%)
▁Products
<0x79>
♂
▁helper
Field
science
▁Nova
раз
breaking
▁"_
berg
atinum
▁L
空
▁он
说
NOWN
▁Aug
▁permet
▁Mama
<0x0F>
▁la
LINK
ctor
▁plates
},\
cref
▁exact
init
edu
▁sensation
ères
▁occas
"],
▁ind
Anim
肉
▁Update
准
予
ipped
서
Submit
▁Common
亡
▁î
rank
▁Roger
▁nom
▁Украї
mix
aman
inos
▁signing
ban
▁engineers
▁cele
▁Bob
▁disappoint
Sup
堆
▁favourite
▁Mobile
}"
🤔
Border
▁Emma
▁sav
▁Peace
구
▁bro
Algorithm
▁Front
Lou
▁analysis
▁living
ité
▁gain
어
▁\
▁captain
▁bride
▁hang
ity
▁▁▁▁▁▁▁▁▁▁▁▁
▁theory
Failed
▁Sn
prison
("<
},{
▁Introduction
bage
esis
“,
INVAL
Selector
▁importantly
▁Rice
hem
static
▁caused
annels
eca
Organ
ort
▁mate
__(/*!
▁sooner
般
totype
▁je
▁Vel
▁Very
毫
Bl
ս
хра
定
ك
▁things
Master
nd
▁ingred
ată
▁situations
eu
初
Response
▁ling
▁hed
▁signs
▁Jefferson
▁panel
([
▁IL
▁difficulty
web
Camera
▁validate
▁solving
return
End
poque
▁regia
▁Iz
PHP
వ
▁Mod
▁kick
rieve
▁Indiana
▁candy
▁|
▁rele
⠄
aware
This
Ga
▁clock
amps
▁besk
ktor
▁flight
▁perception
▁applying
▁weren
▁protagon
▁скла
▁circles
entries
refix
▁electronic
▁junior
⬛
▁Champions
ueblo
I
▁truck
checked
sha
CPP
削
quare
▁Nicole
em
▁md
▁Det
▁balance
▁traits
▁preserve
ija
ње
域
▁remark
DOWN
Pre
▁slides
getKey
誤
骨
peed
lock
atory
+(
reed
▁prob
LABEL
Attachment
rav
iel
▁benefits
nen
▁definition
hof
维
▁Kurt
▁plugin
虚
▁eaten
ostream
▁акаде
▁Pl
voir
▁/**
்
▁сель
ное

▁appet
▁wage
__(
Droid
▁poder
단
hadoop
▁Лу
▁ausge
emark
▁Richmond
dentry
▁served
▁QString
Debugger
▁моло
▁YOUR
▁towns
▁aber
)--(
▁stabil
▁beskrevs
▁Il
▁Administration
olan
▁Lake
▁artwork
.",
▁Infan
▁wisdom
▁diciembre
▁breeze
arch
grp
▁част
ʂ
II
▁endl
▁You
▁degener
▁dieser
▁oven
sets
▁uses
мпи
▁supplement
FER
瑞
▁statist
▁cre
牌
▁hanno
借
Usage
▁▁▁▁▁▁▁▁▁▁▁▁▁▁
Card
▁helpful
▁machinery
▁survived
▁Assume
icia
Ge
̯
番
▁ant
powered
▁responsibility
▁уби
dal
▁Joseph
卖
내
Reference
▁extended
▁klass
▁critical
▁el
ʁ
its
▁Cec
lim
▁utility
魔
opsis
▁ihr
icism
enth
▁Ukraine
source
▁checked
▁jail
▁introduction
ί
▁speeds
Sum
tbl
reset
▁menos
Ћ
Get
ც
▁vehicle
}
▁sheep
removeClass
▁exhaust
Error
▁volume
▁aesthetic
▁anc
%%%%%%%%
▁funeral
ゼ
Hide
▁pierws
▁dur
▁жур
▁Guerra
▁%.
▁quel
店
)'
used
▁challenging
romag
Option
▁promise
么
▁gras
▁cabin
stairs
▁hydro
▁Find
scope
ør
Im
domain
BU
locale
▁Afr
▁lif
encies
근
▁nurses
邀
aders
ashion
▁causes
▁nú
▁imaginary
insi
desc
▁coff
▁BO
▁dec
ale
atoes
▁temperatures
fx
▁Halloween
▁seventy
▁sch
ott
▁pale
řed
▁longer
хо
▁inform
edges
▁pelo
▁cargo
like
Amount
▁rs
▁gli
▁Ry
ourse
▁astr
▁counting
__["
iddle
ushing
%.
务
▁Raw
因
餐
▁self
ooth
ometric
▁Play
halt
▁foolish
▁afin
ли
addr
▁Volume
tail
+\
▁Mag
xim
▁Deg
▁состав
帐
▁flow
VM
▁Tab
▁dispar
办
ications
▁usb
▁negoti
oving
eted
▁existing
▁тран
Groups
▁Office
▁Чи
Skip
ALSE
ilon
▁#####
zy
▁explicit
▁wished
▁hiding
▁trucks
▁bike
indi
ierto
▁hommes
▁workers
▁base
▁adjusted
▁trees
sign
▁ebenfalls
▁impl
▁facil
DESC
▁Diamond
WD
éra
▁tribe
EVENT
*:
样
Έ
SYMBOL
ex
===
▁seasons
altern
▁witness
▁Со
▁commission
▁California
)--
modules
牛
gres
▁Ohio
▁Fur
▁Ils
PK
orig
▁tape
▁Capital
▁ALL
tons
▁LLC
▁means
рев
▁intentions
上
绑
кра
▁Tw
rou
docs
▁lacking
umes
scribed
öl
▁times
uras
▁Made
▁decl
LIB
ég
▁ST
мей
▁**"
▁Relig
▁learned
▁write
▁normal
▁Div
多
ousing
iber
<0xF5>
▁simultaneously
▁чем
par
했
▁suspicion
▁more
ABILITY
▁Look
▁lim
ById
▁Lew
except
Override
▁später
unde
П
▁culture
▁logo
₱
▁X
ложен
▁costume
▁H
▁settings
▁spare
▁Phase
旋
}(
▁titled
♭
・
aid
asty
▁tre
▁media
<0xF8>
ack
▁larger
«
gom
path
ittest
▁placed
▁Suddenly
Socket
Ý
engono
▁Square
subfigure
Input
▁realistic
▁mon
▁produces
▁villages
▁attacking
grav
CP
Enum
unk
究
reck
tain
jon
ROP
暴
▁url
▁PR
ktop
メ
weights
▁Air
▁Meta
▁фи
ctr
ucked
TextView
▁type
订
scribe
▁whispered
▁conserv
acies
FLO
▁glow
▁siglo
व
भ
▁differently
▁si
atile
▁Sull
▁byla
Cache
▁businesses
▁minut
ritz
▁contro
encia
payment
▁contr
=-
✔
선
▁stays
▁Clara
Measure
束
IFT
omen
▁sw
▁BC
▁représ
▁Carr
▁]
▁Tro
itled
▁Pat
orter
ag
▁FT
▁Mason
▁Leave
▁investigate
BO
ultural
▁trusted
appro
proposition
cell
페
EB
FOR
▁Griff
▁///
ablo
nement
▁black
▁importance
Sw
prés
▁Lamb
speed
▁Abd
BAD
Using
ism
erved
binary
лази
방
udder
市
▁assist
Namespace
▁minister
▁Canal
▁Tr
▁Repub
ē
▁numbers
ment
<0xC2>
▁broadcast
▁худож
▁feature
▁weigh
▁lov
MODE
▁noted
Sch
icl
▁Text
pie
▁asking
ief
gl
▁Situ
<0x57>
ycle
atts
▁осіб
→
dist
pect
▁вій
IS
▁gehör
▁impression
ре
▁*
▁Pedro
▁failed
wed
▁req
▁Unlike
ationale
aron
yl
▁Access
ivan
When
▁Polit
▁scenarios
PAR
ov
▁leads
▁Sov
enger
▁hated
ats
▁test
sel
xFF
▁gru
▁dedicated
▁Phys
mixer
▁session
▁Ма
▁resume
CONFIG
▁Lie
▁година
▁uncertain
▁stam
▁(__
▁color
ського
ajo
▁intelligence
COMM
aterial
Tok
…]
aug
"—
errors
}'
prises
:"
lista
▁~=
Counter
hand
}=
▁central
isa
▁fastest
\\
▁gl
Մ
Ł
temp
▁planet
▁wooden
▁Hij
Domain
▁Will
″
Rest
▁sudden
▁tong
ab
‪
ages
undo
▁Collect
▁Results
▁ra
▁scrub
▁finding
▁answers
MAGES
▁oil
ijuana
sor
okrat
Fast
▁Dire
प
first
▁flour
鼠
▁modes
▁terror
rome
input
▁certification
ervice
AE
bn
▁cz
jav
▁whether
▁Wind
▁weights
▁sons
irect
▁Hur
server
ходит
cil
▁hr
▁photographs
▁attempting
!'
Toggle
解
▁organizations
▁sofa
sa
ih
▁ran
overn
▁Bau
Padding
▁Hudson
volt
▁Andrew
▁ano
ев
▁organiz
▁collections
▁Technology
▁ehemal
rot
▁etwa
▁Convention
▁чемпиона
े
▁re
mond
▁'<
ixels
acement
▁sk
----------
dr
▁difficult
module
▁suited
uffled
陵
weight
▁cere
atus
▁Seattle
▁IT
istrz
象
ług

▁notice
psy
get
▁François
▁ul
instance
STRUCT
▁source
oria
▁composition
ɑ
▁Mit
─
▁hotels
ost
prepare
<0xDC>
良
counter
▁стан
ideo
▁Rep
▁spatial
uits
▁Engineering
▁dogs
index
▁vital
▁SA
▁Sale
న
lessness
▁citizen
▁substr
▁Ду
▁echo
alu
chk
ops
▁Wild
▁Imper
▁"@
▁Pattern
placement
▁squeez
Byte
Linked
▁Education
每
illed
▁initialization
glich
Rele
▁саве
MG
iy
uge
▁couldn
▁fol
Mag
▁Hold
Description
▁consisting
▁addiction
ijd
関
▁publish
▁Thailand
ycl
▁Serge
袁
▁successfully
▁Network
▁owned
▁Todd
▁Standard
father
Arg
ött
ennen
▁saf
HY
간
freq
▁hour
igd
▁dun
仁
ias
udge
Configuration
▁$\{
▁two
▁legal
anged
▁variation
serie
uler
▁endless
▁c
сько
▁mouse
ech
Router
▁Anim
amaz
▁config
arna
AK
▁liegt
▁sd
▁UINT
▁ID
Prim
や
▁reserve
arettes
ە
*
Mat
▁target
wh
▁Pack
....
invalid
ften
phan
▁logic
▁Complete
▁Ach
▁Noah
ip
▁historic
▁opposed
bers
▁forming
▁remind
phabet
ENC
change
anqu
▁estimated
✌
шти
house
cht
requests
▁much
ius
arette
▁attributed
sung
▁rott
▁several
▁Bur
unfinished
▁freeze
atto
disable
▁Portal
anner
▁rapp
}\,
Compute
нение
Root
eng
刻
▁foss
rag
▁fitting
▁demonstr
érieur
▁heute
▁Pak
heet
="+
Num
▁vend
▁Wi
Come
Than
▁supposed
rol
▁В
ensity
ollar
▁lined
▁paths
巴
Tags
!”
кси
▁viable
▁"{
易
▁",
("\
▁proven
istic
▁apple
▁Beyond
▁chips
ო
▁Sounds
▁November
convert
Children
iane
Row
atre
▁работа
▁initiated
择
Public
avel
紀
ześ
ounce
order
ére
▁extraordinary
same
uesday
shaped
Bad
ischer
▁Maz
zb
▁(&
Extensions
▁bucket
▁Bert
▁sand
派
latest
▁weird
opcode
▁gek
uary
▁optim
Mad
=$(
敏
▁destroyed
LOC
WT
ição
stage
▁advoc
Pan
▁Queens
▁tomorrow
▁founded
filters
▁Database
edo
▁Fre
▁Становништво
ribut
ления
▁>>
础
aked
▁loads
Radio
rust
架
ego
Х
読
▁tower
▁können
▁Marco
▁men
owego
▁command
Capt
Remote
▁Susan
▁instruct
▁Sold
▁Reg
▁Nak
BACK
▁Moon
icrosoft
▁Washington
multicolumn
▁rav
қ
likely
▁Jahrhunderts
Tur
мы
▁medal
 
▁continu
record
▁bub
▁abstract
▁sich
▁Kid
ors
atan
▁places
▁nouve
ța
▁Spring
▁delivering
'):
бо
othing
Points
ies
iven
▁Good
▁pieces
▁No
▁tur
▁Mine
취
▁functional
рез
ribe
▁van
▁sel
}_
nej
眼
▁drm
▁Миха
Comput
тура
channel
▁booth
()
结
▁Gener
▁educated
▁quit
▁Five
issen
与
Ad
conf
▁mistakes
uber
Name
ists
occup
loader
aby
▁toggle
▁written
▁pdf
▁Tun
▁Coast
▁hade
Sil
ifies
Not
gmail
uj
<0x6D>
▁multip
▁listened
iative
▁differential
з
ісля
zej
е
▁proces
▁scattered
េ
ヤ
нали
und
▁Insert
い
pow
▁abs
▁Nem
▁campus
ploy
▁cops
▁inspire
Sh
▁complaints
▁hostile
ێ
▁partly
Found
▁rece
xd
▁Flor
iliar
getInstance
aris
▁invoked
▁flat
▁previously
▁Stockholm
teenth
льно
endet
naments
▁destro
▁Reyn
▁DATA
<0x24>
Unknown
▁economy
▁posit
BF
clusion
▁comme
ecause
,\,
ент
PRINT
п
▁Break
▁Nou
▁Role
리
▁AD
▁revealed
▁lleg
inks
market
pyx
▁KIND
言
models
▁contains
▁($
简
▁Church
ató
ნ
▁messages
sym
Univers
▁Regular
▁fam
▁мор
▁LL
▁html
▁Хо
▁Лю
▁bacter
▁ś
▁documentary
Microsoft
État
etric
）
roid
▁litter
▁Component
▁explos
Spe
щ
▁lower
▁limits
но
▁ell
▁wool
▁"./
▁Democrat
ವ
Cookie
▁intended
▁nan
▁све
roupe
▁faz
iances
hf
ées
▁provided
elli
▁stomach
▁Grund
review
ěl
itat
many
▁comerc
产
▁draft
▁Barr
▁slipped
▁complained
"
▁Scotland
宿
从
▁presidente
▁Decl
Mem
State
aise
▁enjoy
▁innovation
acc
interface
▁Global
activate
木
▁killed
▁flights
▁Jane

▁pied
▁universal
▁m
▁wins
Expression
▁Capt
▁understands
nm
▁Д
▁lease
decode
▁right
▁вто
▁During
ète
rived
η
▁über
▁exit
▁(\
hill
▁troubles
sem
oids
©
▁halt
▁facing
ect
oring
▁Sept
▁GEN
ct
▁fmt
▁forty
itionally
йн
Mark
Classes
▁contact
ξ
#[
▁exerc
xE
▁exotic
▁});
äll
bra
▁Cole
화
atch
▁trend
supp
Con
午
▁An
▁Jersey
Sn
▁ster
▁effects
▁correctly
▁pain
▁yourself
.";
ährend
▁tap
▁Ger
entes
ана
西
仙
▁Cultural
▁warrant
▁Sé
UTF
見
itted
▁Need
▁Mes
getDefault
▁Heat
limits
▁MERCHANTABILITY
ních
ні
<0x75>
▁бе
▁meat
▁widget
endo
`,
▁Oliver
▁paused
▁scent
spell
▁tri
▁XII
ilia
ixed
▁deux
▁Stars
量
▁Convert
SIZE
▁Vers
▁teles
lr
▁organic
▁Daddy
▁role
ega
▁bald
<0x1A>
▁Coun
radio
▁shared
PROPERTY
DIO
Force
▁load
▁___
гор
▁minute
动
bl
▁jobs
harm
▁Budapest
abad
▁Te
stop
enda
bst
▁bullet
Rendering
Property
▁memories
▁Marvel
▁durable
▁emotional
jpg
积
USA
▁composer
ográ
▁lot
Weight
▁contracts
▁repet
iden
efficient
perty
iring
▁учи
▁unemployment
aland
▁Gilbert
▁Ка
▁build
▁agre
▁with
▁mentioned
▁Fernando
LEASE
umen
▁incl
ър
▁Wait
▁monthly
▁statement
▁notification
cycle
▁&=
AL
цию
▁backs
rael
▁protected
▁select
▁continue
▁Cand
▁poem
angles
▁coup
Previous
▁dating
argc
GTH
VC
Bottom
▁annoy
гу
▁separately
▁typical
endpoint
▁noticed
▁trainer
▁format
acks
▁cont
Us
btn
▁Alabama
ents
▁newsp

远
ist
▁lattice
▁совет
▁Join
******/
▁explode
법
кого
ching
inary
ini
▁Amb
카
▁aud
aj
▁runtime
oco
👉
becca
oning
×
▁év
▁parad
▁fet
▁près
▁chef
тар
▁teenager
▁cour
▁Policy
рой
atro
또
Generated
fd
your
▁случа
dom
▁opponent
▁hood
▁Kar
ieval
alling
-)
consum
▁fixing
井
▁blacks
stance
now
asa
ensional
////////
▁toile
ONG
▁uz
soap
jà
flex
▁Natur
▁languages
▁Nixon
смо
▁Better
த
▁Size
▁Freder
ong
serve
RV
]:
▁lou
▁configure
sap
<0xE9>
▁stones
▁protecting
▁Conservative
ween
emen
▁assh
▁Gulf
ifference
american
hw
▁entered
▁comedy
▁Parameters
Rows
▁di
▁jest
▁funding
ках
▁Bill
▁Creek
user
▁div
Backup
雨
▁push
kat
▁dio
}({\
▁brick
▁visits
▁Max
▁chamber
▁Rev
▁bor
▁affairs
▁Pop
▁reason
▁ско
born
▁rue
Img
▁induced
▁minim
▁проце
▁Rico
▁рас
💪
▁бо
▁Baby
▁Bo
▁DVD
useum
▁werd
そ
protobuf
▁skill
▁reserves
ssl
▁imagin
對
hythm
▁Elect
▁regularly
▁Fitz
.’
▁Gab

amas
▁Alpha
▁advant
Alias
▁lock
▁Court
Try
▁**
▁phone
▁prayer
▁fact
ports
scape
▁flaw
Dir
pton
▁Target
odox
▁URI
CREF
▁inte
Methods
▁Zen
shire
nero
▁BSD
▁attitudes
graphics
▁eighteen
▁State
usions
▁handler
umph
▁Nation
▁LIMITED
read
eping
zoom
▁spher
▁indul
pipeline
Shader
▁str
▁▁▁▁▁▁▁▁▁▁▁
iore
▁itself
▁take
▁listeners
ち
讯
▁blues
▁tempor
xico
▁Camp
▁Kore
Best
▁rejo
el
▁quite
▁Inc
BUTTON
astr
呼
▁\[
ہ
Without
inity
ъ
▁considerably
▁ocup
▁Mons
▁chair
▁quoted
▁servers
▁css
;}
▁callback
ati
malloc
▁transferred
▁Orts
▁nd
▁stud
▁Minnesota
▁сент
▁Gott
tw
▁stagione
Save
berry
Single
▁bamb
<0x89>
Serializer
▁impressed
se
arin
▁Ю
演
们
forms
ras
▁refriger
反
amento
▁Attribute
▁templ
warz
▁Pearl
▁Region
▁Ide
successful
▁american
▁SI
apis
▁Alexander
▁Nothing
tables
黒
she
lg
▁Commun
inda
ュ
▁Wasser
▁_,
isco
▁crowd
▁battery
heid
▁fully
愛
area
≮
▁fell
walt
Duration
▁flu
culate
▁Bew
滤
ʀ
岡
ule
▁fingers
▁гене
ня
plaatst
six
port
WISE
▁Throughout
vec
▁success
錢
CTL
ный
▁assign
▁court
▁clear
PTR
▁food
onces
▁split
king
▁Order
▁confident
▁wondering
etheless
rec
▁Grand
▁slä
usage
Rx
▁Sol
pués
Basic
▁ang
▁’
▁midst
bs
▁Bay
▁grief
internal
Filters
▁vot
▁Win
↘
▁flew
▁reflection
leading
Lock
▁ng
uti
www
▁extreme
▁Jerusalem
▁imply
▁tragedy
зан
▁awake
브
▁damaged
🥺
▁in
▁timeout
▁cart
anza
▁examine
▁frequencies
IX
▁clubs
▁Integr
▁nn
QU
▁Referee
niej
assy
▁Zur
▁Behind
▁torture
▁Temp
сы
▁vector
▁translate
▁lightly
Dependency
卡
▁мар
▁Indones
ULE
結
▁unw
▁Las
▁Platform
ٌ
▁Long
▁Connect
▁Answer
anned
HL
▁Harrison
▁pre
check
ά
etta
▁Schools
▁idle
▁gotta
干
kn
▁backup
дии
▁dich
▁Cruz
necess
real
▁Function
▁anime
▁дви
ward
▁lon
▁période
WR
▁sett
▁окру
Sent
Ľ
健
rade
▁breath
ér
тели
<0xC9>
ugg
вої
▁Ted
▁Far
until
ubl
ᴛ
})$,
ucc
▁PER
▁Biographie
宮
fé
enze
▁Grow
▁ї
ol
zahl
Owner
ür
oved
Session
❍
▁granted
▁sequence
▁dict
ugno
▁yeah
▁Mississ
uments
▁Latin
▁cms
ק
▁général
▁we
custom
▁enterprise
▁disorders
ativity
("[
▁mobil
▁Conserv
▁iterator
ients
ación
isher
obs
wal
ök
▁lonely
▁jsou
INCLUDING
▁twelve
置
cup
urch
▁но
▁tick
ining
database
bool
▁Madison
▁powered
▁detail
▁License
heit
▁Israel
CT
▁manufacturer
ieme
iet
ա
▁fail
<0x2E>
▁metres
▁$_
pot
▁Nord
연
▁Hill
rolog
▁distant
org
▁framework
״
▁же
DRV
▁hosted
▁revealing
Exec
сите
My
▁lighter
▁comun
▁Lear
gg
udes
▁appoint
steps
own
▁mysterious
▁wonderful
Ber
▁junk
▁per
▁affiliate
creat
вое
▁bas
▁conservation
Σ
EA
▁systems
Review
ék
summary
▁faced
▁identifier
ER
reflect
łą
▁Ал
▁cake
▁percentage
▁sys
coin
▁loaded
▁unnecessary
########
UI
▁communication
из
▁arc
Transaction
▁instinct
▁Napole
▁гла
plete
▁writing
▁Jim
▁harmon
监
▁deposit
▁MODULE
ász
▁fans
▁monitor
▁diesem
def
▁Avoid
▁Missouri

▁strike
▁CL
Sur
▁recru
▁Young
▁Japan
anz
people
▁Hem
▁irrit
▁Се
ң
тера
▁Param
▁AB
Contents
▁ere
▁South
▁weapons
▁belonged
▁AG
▁aug
коно
oral
須
="$
ked
hö
▁asshole
▁cock
upiter
▁hearts
}{(
▁Agency
IVER
able
▁±
▁Var
oton
des
▁preparing
▁opinion
▁тако
▁lessons
▁Mitchell
ི
▁t
></
inners
▁Walter
▁republic
▁Okay
Entity
▁context
▁MIT
性
▁net
▁Schul
▁elbow
份
ystem
<0x9C>
▁associated
▁century
க
WINDO
Resize
▁При
Hint
achte
확
prite
innings
TES
rq
ses
▁inclusion
▁adoles
Construct
▁Gam
▁Bil
▁Mal
uls
▁Institute
▁Requ
▁Cache
▁HAL
scan
▁deg
▁Lad
▁$|\
cho
▁Roland
ULL
▁stripped
package
gold
g
ition
nea
역
persistence
▁uniform
▁friendly
ィ
▁Simon
▁septiembre
▁Azure
▁Going
▁techn
▁inch
avan
▁TE
조
▁temporada
creen
ble
▁shar
▁accordance
соб
Rem
▁init
First
xC
▁Wonder
▁amely
▁апре
ion
▁dann
icit
▁habits
acker
▁Appe
()));
azione
ipp
▁Score
▁doorway
sat
预
^{-
▁watching
▁authorities
colors
▁Luc
▁Carol
▁pou
нами
▁сем
Λ
▁slower
▁hop
anse
asy
▁testim
gas
renderer
▁hatte
initial
undle
▁Ad
▁horses
▁alla
▁rail
▁st
▁printing
евич
▁announced
nab
ulture
▁end
▁islands
담
achine
aws
ват
fn
ATTRIB
FORM
▁batt
▁Bern
usal
gers
͜
▁ugly
▁Could
▁stub
▁reads
러
▁deadly
▁desde
▁transl
outer
発
▁epoch
Sp
▁mais
▁creature
elta
▁Chand
рав
dev
SR
▁estimates
Ú
ția
▁día
數
▁cooking
▁&&
▁dashed
0
ែ
("%
▁hospitals
Dam
Love
▁functionality
↗
-----
ή
▁Boh
ersion
▁eller
horn
▁combat
▁ad
J
▁Чер
CV
Writer
ific
holders
▁skirt
cers
▁Comment
▁Rating
▁embed
▁minutes
и
Encoder
▁pushing
อ
igos
olly
▁Address
币
SUPPORT
▁Sad
uity
▁park
▁Str
Thread
ются
▁Cel
fel
Locked
itas
▁indic
▁establish
▁admit
▁unfortunately
▁inner
▀
!\!\
▁plot
▁después
orry
▁membership
▁FIX
shore
ження
▁liter
izar
▁downtown
佛
ive
▁Olymp
▁Put
▁дека
uffy
▁eye
▁spell
▁gas
ials
▁independently
orie
🤡
ens
▁===
Pixel
routing
CKET
▁я
cal
only
▁Men
此
城
eton
provider
▁Mitglied
▁Incre
▁gennaio
smith
▁lavor
▁names
vention
ds
ability
▁veh
nested
▁Gil
▁defens
oyle
▁controls
▁méd
▁дво
нима
▁relaxation
▁completion
ян
returns
▁Broad
▁dello
▁sede
▁just
Tri
<0xAC>
eding
≤
Vertical
▁Bridge
▁Date
▁Fin
▁Math
rollers
▁async
曲
▁[];
acher
▁ging
▁coming
▁Rah
界
▁swo
Chat
bitro
udo
▁dependent
▁Crist
LA
▁Harold
网
berger
▁volunteer
нологи
мой
코

ಯ
▁Gir
▁val
▁sometimes
чних
isible
▁ejempl
魏
лы
Cap
▁Chamber
ค
公
iam
裝
▁authentication
▁Among
student
CHECK
▁tokens
Station
▁quick
▁зна
▁melt
ions
maz
Tokens
urls
▁prac
ฌ
SC
▁ris
▁Isn
▁familiar
동
▁vista
▁hely
emu
oyal
ắ
▁bass
▁Config
phones
▁swallow
▁treated
REL
All
дин
▁Barb
Gamma
▁hitting
▁SB
▁poster
▁our
▁manifold
▁anci
女
▁час
inian
్
мини
▁availability
▁Tensor
▁Florence
ẩ
▁Label
limp
веро
Device
uint
▁Marie
olver
oric
▁Matrix
▁harder
ἔ
valid
小
▁quant
ガ
尚
▁Saint
olen
▁террито
십
함
PS
지
▁ри
▁touching
▁(-
▁stumbled
题
▁straw
▁insight
aries
Token
task
material
pol
▁januari
▁pleased
avorite
zt
special
▁meg
▁injured
▁carbon
--;
▁Andre
▁collapsed
セ
▁dimension
雷
Convert
▁rec
isure
▁goal
▁Miami
▁should
numer
▁remarkable
▁forces
ût
▁ال
▁entirely
▁joined
▁Dean
▁easily
▁paint
erial
▁chose
lette
▁cage
▁formed
▁że
TRA
▁outbreak
Lif
Message
mmc
▁vm
▁aliment
їв
▁represent
▁singer
Display
atura
nullptr
nit
▁Neg
▁citt
▁Dezember
▁ange
▁monitoring
izi
admin
ських
▁investing
plications
Manifest
PART
/*
▁trav
▁Moscow
riving
▁fame
▁Ко
▁invas
fa
▁thereby
▁repeat
cred
ailing
nbsp
ῆ
ool
▁mús
An
zi
▁Ку
,.
▁minimum
vider
bben
angle
iated
▁zur
cock
pm
current
ittle
▁when
ör
<0x10>
table
uz
Look
▁faculty
▁helmet
▁Thanks
خ
itos
▁Advanced
▁transit
▁Average
agraph
$),
▁officers
icate
SHA
▁generating
▁Barn
▁directors
▁FA
▁notable
▁FL
OUT
▁hence
km
же
security
▁bands
Div
▁packaging
unn
▁waiting
▁es
ARM
bsite
▁adapt
▁opportun
▁beliefs
ographer
sent
总
▁described
▁lift
▁°
류
ズ
▁après
()[
▁dispos
▁settembre
ialize
▁NAS
hop
Sink
▁ignore
ements
ification
iał
▁spectacular
▁Well
▁styles
мия
▁famil
▁sore
▁shut
abor
amber
ITER
▁sympathy
▁package
▁Term
▁no
av
▁Soci
▁Romans
▁Shan
▁satisfy
HR
Dead
▁Bath
nez
▁profits
ither
▁wallet
2
應
integr
ury
createElement
▁déc
▁
▁calculations
▁"../
▁pension
alloween
▁mism
▁pg
▁fonction
inson
▁_{
步
课
▁Насе
▁considers
Exit
respons
▁break
GM
Appearance
▁Naval

ove
embed
*/
epsilon
▁Chapter
Pag
criptor
👌
ww
▁Franz
▁infected
▁Cu
김
▁Sof
▁Never
▁clearly
▁Observable
acja
▁weekly
▁Antonio
▁causa
due
▁blur
▁Commission
▁Sup
ಸ
▁СССР
▁restr
▁Johnson
ENO
logs
spieler
metric
ró
▁помо
▁Protocol
▁Public
▁ди
jo
ston
▁produce
eneath
Variable
▁serial
▁swept
▁ist
'.
MB
▁ram
统
istration
▁marzo
wo
Constraints
▁random
們
▁tremend
<0x48>
▁secret
say
▁Kenya
▁laying
HECK
型
irq
▁Dialog
▁uid
▁explanation
▁Amsterdam
Asset
▁Chase
▁jour
insn
▁reports
ющих
Member
▁Writer
▁ace
確
azzo
Pi
ía
▁bold
β
▁res
▁Zeit
▁Egypt
chor
Names
▁pine
case
Ā
dates
ё
cir
nis
▁performance
Long
CN
▁devoted
▁pedest
▁industry
Ã
▁vict
▁suppliers
▁hoped
<0x67>
shit
▁dece
▁see
▁Audio
rection
▁sphere
qu
▁key
▁Beat
De
film
shader
ility
▁Des
ATT
dex
rollment
▁grandmother
▁Kim
iov
▁})
üt
Vel
▁gravity
roduction
uries
Tor
ˈ
ysis
▁Tra
▁је
rait
▁boost
▁Colonel
Android
▁chosen
▁declar
▁qu
ript
ployment
▁erste
дя
▁segundo
gain
▁cf
▁arts
▁Slow
Timeout
lyn
▁strictly
elo
▁single
▁lots
▁followed
▁donde
WEBPACK
ster
Collect
▁fib
▁тур
ismiss
ccess
Schedule
ocial
▁бы
ULAR
BITS
▁Palm
iction
▁vag
》
▁tegen
thur
ln
▁guns
för
▁Rather
Require
ван
ificación
льта
getMessage
icon
▁prec
▁contre
\!
peat
▁jan
▁refund
ġ
idence
▁local
ul
etto
▁class
lene
MAT
▁Este
дар
▁loving
FT
▁Nor
▁cond
▁behind
Draw
▁Simple
▁archive
▁merchant
Enumerable
▁konnte
▁cinq
Strip
▁глав
▁wetenschapp
▁statements
IGH
mission
Template
▁absolutely
orno
анд
neut
obre
질
▁decode
▁say
▁mum
?”
▁ин
▁hab
▁Veter
ким
posite
Operations
',
▁tek
▁probe
zie
вих
ڕ
▁gates
▁COL
▁overwhelming
naissance
▁tight
éré
▁HashMap
▁estimate
党
()),
▁Agricult
▁supportive
__
ORMAL
iene
铺
ibraries
▁correction
tex
ATURE
▁auth
join
кой
▁illustrated
▁Environmental
IME
▁og
▁festival
▁caring
▁suo
▁Nur
eous
že
▁vod
po
▁philosophy
omena
aint
дия

<0xBE>
▁circ
▁soort
▁anom
lines
▁AI
uman
伝
NI
onomy
ennessee
▁grav
▁также
休
Green
imper
ClickListener
!--
▁кор
▁jours
Go
▁dismiss
ouri
例
▁Apply
▁Department
handler
▁voce
▁SK
▁life
▁closet
▁cleanup
))))
▁Holland
▁Pittsburgh
month
Rot
▁mineral
”,
府
Used
Keep
▁она
司
支
тал
準
帧
iour
▁Kirk
▁images
▁то
следова
oon
chan
▁Укра
▁moral
▁sm
▁Robin
▁др
▁Democr
ност
▁Ра
▁Buen
▁коло
зна
fortun
삭
vart
👍
ucks
вет
▁reporter
▁trust
Application
▁Festival
hor
*
▁us
getElementById
issue
▁Super
▁Staff
▁kill
▁Tokyo
isto
▁Lap
ynamic
▁PC
▁unused
▁fileName
望
Sy
▁slope
▁do
lict
▁remot
ство
게
........
▁Under
Execution
无
▁país
▁leaves
▁Rodr
DECL
▁части
iterr
----
you
вер
▁gł
▁Ts
ֶ
▁palace
船
▁werden
줄
▁congr
DA
▁etc
▁marriage
Span
}}^
▁resort
cls
▁З
▁sophisticated
щу
Norm
';
▁responsible
▁Energy
StackTrace
▁воло
="_
▁Generation
ijn
▁protection
▁Inside
▁Wil
▁drawer
▁Cast
"),
erts
▁administrative
ção
▁Kap
▁reminded
▁nails
▁diseases
woman
▁onChange
ers
"])
anno
▁Personal
▁offset
▁using
▁philos
"\
▁questo
知
attribute
Z
都
usb
name
▁wherever
став
▁reception
▁Raymond
MAG
▁monument
conduct
verb
找
थ
▁reference
tr
▁robust
▁TIME
▁measuring
tat
▁down
сон
PIN
關
Sm
▁sop
aign
Database
assemb
тии
ನ
▁Christ
▁merch
▁Ludwig
session
▁oscill
ट
▁outdoor
iously
▁tries
urt
▁candle
▁Raj
▁profes
▁politique
▁passed
▁kont
NF
▁reduces
▁insights
▁titles
▁musician
Ass
autom
▁Say
▁bond
▁implicit
UBLE
▁mechan
▁fos
servers
").
?,
Donald
ព
Tasks
gles
▁Prix
识
Thank
amo
ië
DP
▁employers
▁hw
▁leader
▁chill
preview
▁parked
▁▁▁▁▁▁▁▁▁▁▁▁▁▁▁▁
▁brilliant
Width
▁Liste
▁waters
Account
aped
▁participant
▁loved
ier
▁stress
▁Werk
▁blanc
▁Details
▁waist
▁straightforward
springframework
orte
intern
▁electrical
显
<0x7D>
rown
와
▁president
game
atting
▁Sure
RC
▁bij
лом
▁Reading
寺
lected
кс
cen
▁Throw
PECT
'));
▁"[
hostname
织
▁covers
][
▁agriculture
\}$
ポ
Api
кти
▁nj
lisher
▁gaze
▁fled
<0xD4>
ley
▁pict
▁них
편
fico
▁Gallery
▁below
▁flies
▁Roc
ael
겠
▁Lux
ark
▁digest
ñ
à
▁repo
▁cord
▁machines
▁proto
FR
delegate
▁Liter
▁individuals
▁dear
ape
nl
ские
вал
▁somebody
heim
cid
▁dys
▁Phoenix
lesh
▁prototype
cester
忽
▁einen
▁viewers
栏
▁institution
parency
▁determination
▁variables
лення
▁Gregory
▁Plus
▁baby
▁libert
录
Unicode
▁Player
Dec
▁blood
amil
gn
iral
ografia
▁*=
▁dut
▁cache
urope
▁а
▁derive
丁
▁Dak
ǀ
<0xC6>
▁excitement
▁Maj
Surface
▁implements
▁laundry
შ
iteral
<0xD7>
▁Balt
ulin
▁wax
▁trim
▁diver
▁agreement
屋
▁Affairs
res
▁bundle
ники
▁steal
▁driven
PN
▁Hof
▁liberal
iona
▁Temple
isms
owych
measure
▁violation
ˆ
ograph
Because
▁Stop
器
sts
▁basketball
access
▁mul
<0x4D>
▁becoming
<0x3C>
▁batch
Emitter
aaaaaaaa
password
▁gig
abling
Current
anska
圖
▁Prof
▁joining
▁Hein
ম
support
▁stayed
▁Pool
▁mandatory
.")
Pol
start
▁rules
▁adult
elem
new
糊
▁snapshot
▁driv
▁rigid
▁verification
▁Manuel
github
prev
overflow
▁объ
▁teens
默
▁blink
▁Y
式
▁warranty
东
▁keep
quier
첫
▁walks
れ
akespe
▁deny
mania
hir
▁tube
Bal
ampionship
宋
▁original
RAN
▁Staats
▁olymp
те
Ref
osten
▁оп
▁romance
áll
Subject
▁coupled
▁arrive
别
Sim
signal
▁longitud
▁Appro
asp
▁defend
경
钮
▁Manufact
▁range
oom
lying
▁Про
▁tile
Setup
Instance
▁nucle
▁Pok
▁frances
▁useful
▁Intent
$:
▁retrieve
▁lovely
农
lee
▁sup
Work
▁wrapper
fact
▁naar
Side
yt
▁Mexico
▁award
▁réalis
▁mens
▁Zel
▁centuries
▁forest
▁Mode
fort
\_
egen
▁Officer
ereg
통
▁insp
▁анг
ти
▁ан
▁near
rei
>.
▁Ho
phas

▁São
ші
tk
modified
▁nest
プ
▁"$
▁units
▁Blockly
▁results
Adapter
lich
ктор
hub
▁Bruno
│
layer
▁prep
▁Dakota
▁undefined
▁£
ら
CONNECT
▁Henry
ader
▁worn
▁Photo
▁tel
▁twentieth
월
ichen
strip
ance
레
됨
keeping
▁resur
▁{};
General
▁Move
▁decent
ason
▁ing
▁під
cout
▁Никола
▁lan
▁поли
ettes
ardless
Provider
Focus
▁embedded
▁F
wq
▁integration
HW
UL
рин
▁wounded
akter
▁Early
▁diam
MAIN
▁rear
▁surrender
▁ex

▁Che
liche
▁−
ENSE
notify
▁protocol
시
trained
▁cop
▁goto
▁FREE
▁clinic
heck
▁giving
dat
dataset
问
▁Tri
▁Bis
▁sedan
치
mg
mill
▁Nov
вля
bian
$('#
突
Fire
▁gewann
ears
za
nut
Emp
Private
▁einer
▁cancell
▁rehe
▁vagy
▁Week
▁Would
▁hier
▁crít
front
▁meeting
▁Cert
▁arrangements
顺
CR
▁gift
荐
#{
recogn
▁views
▁maintenance
DER
▁сти
Extract
most
▁films
▁examined
▁Venez
>()
▁interrupted
▁${\
remote
BE
▁His
▁desk
▁Performance
aga
▁sum
▁thinks
▁Chief
той
령
輸
хі
▁Mär
▁Mother

▁hal
▁organize
block
▁+
asse
▁prize
icy
▁perfectly
children
▁особи
▁Nevertheless
▁Manchester
";
▁Caroline
вали
<0xDD>
Autowired
▁butter
▁brow
anning
act
▁partir
▁Czech
Transfer
serial
▁fields
▁Und
▁haut
▁nap
▁absence
hentic
know
servlet
▁map
dern
▁décl
▁synchronized
ISD
шла
▁Bet
▁Cit
пра
▁cig
Foot
ो
▁Digital
▁dopo
▁Pictures
▁organis
semb
ussen
aute
▁read
▁feder
nex
▁moving
▁През
▁cs
▁созда
flu
riere
▁workout
≡
Des
▁Steph
▁бра
mc
itud
ști
<0xE0>
sim
ŋ
ña
▁style
▁photo
MAP
No
POL
effective
▁await
itty
ме
▁Salv
AppCompat
ioni
▁England
▁judges
abled
▁specific
▁Abs
▁fiction
デ
PRE
▁XVI
▁Construction
▁ander
Agent
尊
▁page
▁observation
isted
hook
∆
▁tb
▁Represent
disabled
ō
▁crush
▁AUTH
▁shitty
▁trois
со
empl
style
▁check
ohn
▁hide
ню
র
adows
▁pages
序
aining
扫
▁practices
High
▁BU
icus
minister
▁Hook
▁(“
▁sustainable
▁Sometimes
▁these
crypto
예
▁enorm
才
eten
func
▁friend
च
utf
bert
å
end
aceae
fers
plom
<0x18>
YY
▁incredible
occ
Week
week
▁bibli
▁Artist
▁bajo
▁zum
▁cement
ben
▁hollow
▁trauma
▁Glasgow
<0x2F>
▁creat
▁enable
▁exterior
▁ap
push
▁Nah
font
▁destroy
cks
▁clos
rics
▁briefly
▁banking
▁ethical
კ
▁Myst
ichte
▁divided
Big
▁relate
POSE
osi
>{
=$
condition
dup
▁Nazi
astic
▁iPhone
▁environment
▁angles
▁overview
▁Wa
Aff
▁rifle
▁`
▁Kat
▁verw
▁Bring
무
▁category
▁Life
▁Bou
▁guilty
мира
▁déf
继
▁arrow
▁removed
▁intimate
emit
▁UP
omp
▁contempl
equ
▁entertaining
▁taking
wer
▁os
▁Ess
▁sb
Ap
tagon
▁rout
▁received
▁lights
Decimal
swer
▁grandes
one
▁concent
▁pump
▁clean
▁enf
▁Ice
▁ARM
icial
▁openly
aned
▁boring
▁Ronald
▁Bell
asma
Theme
▁marker
ählt
⋅
▁Junior
eed
Created
elt
ственной
^*
▁раз
}+\
▁місце
ской
▁butt
ules
▁Dream
▁Stephen
sko
▁watches
；
ه
STER
qual
▁focused
argin
ynom
т
▁pending
▁Problem
вър
▁stag
prot
ought
endregion
License
:",
airs
dump
xff
comp
▁Direct
sson
▁Pos
Rank
▁Prote
Based
Finder
▁corporate
▁Session
▁advert
endant
▁privacy
▁woman
Conn
▁helped
ület
매
▁primarily
IMIT
▁явля
▁smiling
ья
crete
▁convin
▁legitimate
▁Franc
CC
▁Х
Geplaatst
gra
cv
Unit
▁upcoming
▁carved
=
ientes
▁fly
▁embedding
ди
бро
als
Shell
▁maximal
▁{'
ou
Sort
sequence
▁sober
▁Year
▁время
OO
▁heeft
HI
尔
▁open
]],
▁shallow
▁pero
▁insist
▁harsh
classList
▁stim
▁avec
▁Ref
Hello
RETURN
是
▬
ড
▁email
oki
▁laser

rep
陽
ING
concat
▁ops
▁Ra
▁rights
ians
▁elections
fect
cord
Modal
ず
<0xAF>
▁peu
▁shiny
▁terrible
▁ion
ERN
▁/***/
▁Born
▁homme
▁throughout
variables
▁PARTIC
▁libro
▁par
▁beiden
Thanks
▁control
Before
icz
▁lb
!"
▁Jeff
*(
▁visible
){\
/:
▁mari
▁TODO
elfare
LET
統
▁native
spect
"):
▁vit
eland
MI
▁environmental
HT
内
▁сер
华
isse
▁slip
arm
▁frequent
트
▁rounded
zo
aval
ミ
苏
į
▁Бра
▁parking
▁PS
CHANT
▁Verm
ächst
▁honom
▁Ya
bez
▁pued
atype
ibilities
▁playing
RA
::$
▁groom
ợ
▁cell
Tw
▁extract
xs
▁survey
adjust
州
Õ
ATCH
inal
>,
)$,
▁xml
▁disappointed
beat
========
▁Sierra
▁Grande
че
▁Valley
Pse
▁Mark
regs
ié
拳
rike
▁participate
ironment
aneous
contin
Renderer
▁burned
▁conspir
▁!==
▁nod
сте
Marshal
▁Netherlands
osed
ხ
າ
rical
▁Observ
▁volumes
clean
ork
▁his
▁regul
▁Altern
▁Doug
équ
what
вич
▁Re
▁ци
▁Bra
▁observations
▁dialog
▁rested
unic
<0x41>
Decl
▁frames
▁clue
Have
èmes
War
▁you
unkt
▁wrong
▁cidade
▁parameters
CLO
▁completing
▁orange
Forms
ts
▁maxim
▁\{
▁compromise
▁pil
動
▁Вы
]);
TABLE
ւ
▁американ
▁ev
itä
▁um
англ
CIAL
Fore
▁comune
平
chn
WAIT
▁apare
▁mutual
▁San
▁the
▁deleg
át
Dto
합
Just
零
▁Jenny
ane
ự
▁migr
▁*/,
rency
▁head
machine
▁него
▁Hist
▁–
inding
ographical
▁way
FEATURE
指
<0x65>
▁victory
mate
Flow
▁webs
iko
▁interpreted
▁jewelry
DEBUG
▁chip
▁Tim
aps
>>>
oni
пада
pawn
▁офи
▁inevitable
▁connect
▁Carl
ocom
idad
术
▁cancelled
bing
Ц
use
▁began
querySelector
▁Buc
▁Unless
ками
▁przy
▁MT
emet
ioctl
▁область
▁viol
▁honey
▁germ
olk
▁aspects
▁Jed
울
▁Marcatori
▁kennis
▁polite
▁сред
hend
▁Wilson
▁return
html
]);
▁Chen
Data
],
▁remember
▁established
▁Nin
▁thigh
ⵓ
▁unem
▁metall
……
кто
▁Estado
▁stair
▁Ú
chant
▁неско
FileName
▁tennis
▁Fue
林
ches
NT
)=
▁Muslims
halten
▁popular
퍼
comed
▁ped
igent
預
period
▁brains
exit
▁cups
AW
▁null
▁enem
trm
▁crow
▁inches
▁Jar
Qu
Game
Orient
▁Base
▁dental
▁Jul
▁nose
▁Although
▁anys
connector
RR
Generator
▁worship
minded
▁är
tokens
Dist
▁Masters
垂
allas
▁mask
▁egg
▁facts
▁Kur
Mar
▁display
▁Sant
▁Stanley
Engine
ahoma
▁WordPress
cret
BUF
Š
ɡ
▁group
iful
▁Chart
▁wordt
apest
у
ʐ
▁bend
▁Spec
platform
has
▁balls
inate
▁evt
▁todo
Vari
group
VERT
ición
▁stupid
▁descend
▁integer
▁Sch
▁virt
▁dragged
▁Venezuela
ó
▁attack
nel
por
Chart
泉
▁одно
>\
父
lineto
▁polynom
стратив
▁Asc
њ
getClass
Regex
▁Ser
药
▁bring
▁Canadian
▁found
aw
itches
Guid
▁public
病
郡
▁dici
omed
PAGE
▁categ
▁caf
Blob
▁definitions
▁decom
Autow
.
▁symmet
boat
riority
▁nécess
ui
nten
▁Gew
views
▁viewed
่
▁soldier
PIO
subset
contents
Ctrl
merge
▁selon
▁pon
']['
▁wheel
▁Configuration
.
▁zona
▁Bank
utschen
ictions
Features
▁Tree
공
▁tightly
▁broader
resolve
capacity
▁Defense
save
▁Sav
▁fabric
ří
▁premium
▁episode
▁Initialized
▁relation
good
▁Col
.__
oms
NUM
afka
▁old
rivate
▁online
▁Sk
▁cov
컨
▁sc
▁light
▁ersch
ribed
wire
▁Feb
▁Git
▁valid
▁Every
dc
quet
▁rev
rote
▁info
анг
ِ
ჩ
Gui
SPE
<0xE2>
▁brand
ỹ
▁Fish
▁plants
ifs
▁Ci
▁Rand
▁cô
ustom
▁woj
▁crushed
ce
▁República
車
▁più
‎
▁saying
▁element
▁Columb
▁рус
OF
▁evil
omon
▁спе
iendo
validate
盟
ლ
▁streak
▁года
쪽
<0x88>
▁sor
LICENSE
▁bless
▁fist
▁Row
▁vu
▁f
ural
▁transc
ział
▁nel
Roll
▁sans
▁estar
ს
▁distance
▁regulatory
▁drug
秀
top
Phys
pattern
▁Roy
gate
▁ports
▁defe
µ
便
K
▁Ben
▁experiences
кту
▁response
сков
▁Call
mero
tek
&&
▁zw
▁mountains
▁IV
FRAME
▁ranging
Att
み
▁bitmap
▁Scre
ince
😉
getOperand
<0xCD>
▁deriv
▁modal
▁barr
ёт
▁tö
▁Muhammad
sek
itemize
▁versus
enable
▁Ž
授
雲
▁році
ouses
bench
udi
Adv
▁trips
▁Country
but
▁authors
der
▁pam
тив
isión
Failure
гра
▁save
git
▁stock
Attrib
▁Bent
▁emissions
inals
▁valued
▁vs
▁transformation
Components
▁Heaven
▁ep
▁Campeonato
▁awk
lection
▁Americans

▁prepared
▁фі
rost
▁Wed
FMT
▁studying
▁SS
▁Golden
bidden
▁delicious
▁WR
ivalent
▁mo
▁wars
alis
▁moist
▁sap
▁confront
')
gal
▁show
▁Bor
usalem
SEC
▁flame
▁adaptation
▁Sun
▁ladder
▁”
▁Party
Mgr
pal
чин
neh
▁joke
fried
▁Fly
缀
NE
▁från
▁Walker
<0xF1>
сты
▁bird
Ε
ヘ
▁Dom
RENT
ash
▁boat
▁throat
អ
▁objective
▁circle
etc
▁Interior
▁Normal
Btn
▁Much
▁przez
▁wurde
▁oral
loyd
▁Fort
ICES
▁(
▁virtual
▁Kos
接
est
metic
♦
▁max
▁curios
CodeAttribute
┬
filled
formation
Met
inth
拦
▁cler
crim
▁dispers
²
ät
inst
▁climbed
pan
nant
▁strongly
set
▁driver
▁Wal
achment
former
▁petit
yect
▁destination
aran
▁unity
cury
导
梅
▁surf
ʰ
▁wieder
rus
Zero
Period
icons
urd
▁Effect
半
▁située
▁piss
Native
ALIGN
▁Lane
▁batteries
->
esch
▁ubic
▁charming
▁whom
▁Jesus
▁literature
Prov
▁sche
モ
▁Ed
▁accessed
Resource
unches
<0x1C>
▁Particip
▁OR
icago
▁Gand
<0xA4>
▁result
გ
▁achieving
Ù
fast
Credentials
▁droit
▁adding
▁October
evalu
LC
▁bears
▁Lu
÷
▁гра
▁entitled
▁COPYRIGHT
▁millions
▁ett
▁bt
实
**
nym
oge
▁adventures
guard
▁estimation
▁Pere
sen

▁Head
▁earned
▁B
Cont
▁Here
▁imper
isz
ѐ
▁sketch
ą
iday
▁ids
▁RO
itar
boys
▁Comput
atio
apture
Pal
geben
▁suit
чі
▁intermediate
▁aircraft
▁Nav
▁nou
Kind
▁grant
▁Ill
processor
%;
▁#{
克
▁Fair
▁smile
venue
▁uncomfortable
observ
▁making
По
▁decades
▁(«
▁clas
混
▁executive
▁Large
☆
戏
template
plugins
opp
時
▁Overall
brand
Rep
andy
ʿ
mit
версите
▁shipped
래
약
nv
overlay
▁mesh
▁fino
▁introducing
▁physician
Table
ště
puis
resh
▁Na
вся
âtre
s
ested
过
▁Bah
▁condition
▁Heart
▁Mak
節
▁positioned
▁tract
tit
▁alliance
▁Big
▁Debug
enced
itude
皮
▁Starting
Document
▁Tel
ế
▁police
▁Poz
ype
▁Reagan
Iter
▁underarter
зова
▁Dist
▁Of
▁distress
Unis
▁Og
ained
射
шка
Hand
▁section
▁initially
▁ss
▁grow
']
▁città
▁są
arr
JO
▁ip
▁Tol
тами
У
NotNull
NODE
CTION
▁ek
Pred
▁ses
▁nep
▁Sara
▁!
▁reviewed
春
ât
▁Lud
▁blade
icos
▁Danny
▁Sarah
▁updating
▁doubts
ほ
ror
ल
gz
ň
▁Allen
▁Random
runner
Р
)),
Certificate
▁triangle
ath
▁dangerous
▁grap
▁февраля
丹
习
emph
through
▁Lauren
▁palm
▁DI
▁essentially
▁là
capture
▁Stevens
ե
▁contacts
▁fund
TE
▁steady
centering
▁Treat
every
▁Alberto
ط
Render
블
юще
Window
step
▁sun
😄
▁actively
▁Creative
opher
▁branches
▁Fifth
▁Oxford
nih
▁Gene
hold
RIGHT
ibil
blocks
GU
▁American
useppe
▁partner
ONT
▁Mend
▁lid
▁Stadt
▁Control
▁classes
▁lat
▁tram
slide
n
合
丢
чен
exp
▁accidents
Run
▁alias
🏾
▁powers
լ
ão
▁Kath
={
▁WM
flash
ři
▁época
▁emission
▁meille
dots
▁Figure
VS
kh
▁realiz
▁streaming
▁Julian
▁commence
kb
▁discuss
▁ear
▁pa
▁agency
▁Spr
▁lub
¾
ల
}}{\
▁ги
▁фо
▁hosting
zeta
Bi
▁gr
anje
▁opera
▁embargo
uded
HOST
SPACE
itol
科
cached
ões
▁Bez
▁encryption
ethe
header
cursor
带
finity
Enumer
す
ֵ
▁prohib
Static
▁ties
Ir
▁redistribute
▁kv
▁Ла
▁Auf
▁Number
▁drugs
aat
лександ
▁essays
Accessor
▁Edd
▁Februar
▁toll
atives
aphor
▁Italy
wald
▁Bang
▁Russian
▁Log
▁fresh
▁enhancement
▁Center
depth
UB
▁mad
戦
Declaration
plain
▁cho
▁heaven
▁Bangl
<0xEC>
▁structures
▁kings
)");
▁players
젝
▁relaxed
▁Victorian
▁held
迟
▁revel
PT
▁camb
决
RF
▁Three
gress
istribute
看
records
ང
bell
man
FORMAT
▁basis
▁somet
ful
хов
▁Content
гре
assign
　
▁*(
skim
categories
▁Harry
ём
;
━
▁rund
▁mor
collection
▁thus
▁puede
▁hooks
▁activity
Ver
Pr
Delay
▁ру
▁Rome
海
cher
兄
▁surve
vote
▁Landes
omega
atal
izioni
inch
▁fan
▁patient
▁Kaiser
▁Gu
▁perhaps
▁mes
▁partido
rok
▁cush
ck
▁Channel
▁cause
▁length
▁Amer
▁jej
rod
专
▁frightened
lie
▁CNN
ного
▁Detroit
ної
пи
▁tide
▁июля
Θ
▁comprom
ikes
生
▁sh
▁best
property
▁foul
levant
▁thro
▁hacia
▁seeing
ึ
▁customers
▁ter
ms
▁threw
David
Europe
antry
la
▁BUT
▁cb
▁roof
building
▁crit
▁ready
▁excit
▁resistance
▁pulse
▁Lé
度
▁Pent
▁Elle
America
eks
식
▁Kill
ético
чні
▁differ
▁stole
▁vous
▁suspension
▁Gle
▁---
Cancel
ROM
▁sees
pref
▁centre
nah
▁respectively
angel
χ
ok
ito
▁diagnosis
▁parks
▁yard
ocy
▁havet
<0x26>
▁fees
▁respect
FUNC
을
바
▁celebrated
▁anni
▁purchased
нал
▁Gel
ALLOC
eld
▁cel
ties
uss
imgur
alf
登
搜
▁smiled
▁circuit
olare
}^{\
ancing
▁plural
╝
▁att
▁sod
calendar
件
▁obtaining
▁llvm
norm
ی
▁Micro
žen
▁seemed
▁coun
▁mine
▁peace
rhs
olog
▁other
oin
umpy
▁lum
ABLE
▁emperor
白
ET
▁gonna
▁THIS
loor
▁performances
▁comp
ographic
}$-
▁во
Curve
tings
▁channel
▁strategies
▁locks
▁monster
ulsion
江
▁raise
▁Palest
▁Changes
▁Jerry

▁talking
ไ
▁Singapore
▁historia
▁tonight
▁Walt
异
yle
င
▁introduced
▁A
smart
AI
▁stab
ʒ
▁upright
▁Shir
▁pants
▁alg
▁cub
▁spraw
տ
▁Flo
▁Blood
▁scholars
▁physics
▁Leon
ici
Testing
ynamics
颜
>{@
exports
enas
▁bronze
▁joy
ів
READ
joint
▁shouted
▁Women
▁Mannschaft
્
▁тех
▁stopped
gender
▁ten
UN
eclipse
ji
▁cooper
▁limitation
▁Ir
▁pi
▁groupe
▁surge
iot
灵
enso
picture
eth
▁Scot
▁relie
air
istrzost
<0x9F>
▁Any
▁manually
erset
бри
atti
bus
'))
▁magic
Offset
▁allowing
sch
▁"\
setState
▁Art
}),
TT
owi
切
mul
</
.</
▁brass
▁Penn
Bound
▁série
iku
끝
▁Mount
▁corporation
▁investors
ORDER
нова
▁underlying
рова
▁thorough
ப
ζ
▁coding
▁Using
äs
ortion
Қ
승
double
origine
▁intim
]*
▁Industrial
루
ativo
rets
▁vain
DOUBLE
▁hosp
▁strlen
vá
watch
opter
翻
É
dx
Detail
IMPORT
▁sowie
Marker
crtc
▁Rena
▁favorite
thlet
▁ja
dimensional
▁crucial
▁sac
ienst
▁Holy
'];
Global
▁_
▁arise
Ї
吉
');
▁спо
)):
infty
▁Comb
▁XIX
▁Bull
▁relig
▁blue
EV
cr
awi
▁Ali
▁Louise
沙
;&
▁inv
▁lived
▁transition
Common
ква
교
▁Source
▁führ
▁для
▁merged
ello
▁involved
ASK
▁kön
single
▁Deutsch
▁prosper
▁portal
▁fract
▁Deputy
유
▁Coord
annte
eph
icio
▁Ing
SYSTEM
▁фа
mun
▁arr
▁siècle
জ
Tex
TRACE
▁months
▁miejsce
▁alternate
▁lack
El
▁pleasant
CF
ITION
▁Years
▁Implement
phere
▁deven
▁treasure
▁Publishing
▁manufacturers
▁belongs
▁Fran
ann
ните
▁viene
▁"'
ieler
▁tragic
sin
pliers
gro
▁seinem
▁careful
▁Milan
▁silently
▁prints
ylan
▁Wy
▁gard
▁before
▁engaged
ido
ctl
▁Viv
////////////////
пов
ée
continue
PROTO
▁fünf
ɐ
▁Rück
▁verschied
▁sick
A
▁Пре
▁extens
="#
Parent
)).
▁theoret
▁Cris
elect
rsp
());
burgh
ultan
阳
criptors
asm
▁move
▁vida
▁ctx
▁Educ
▁tongue
♀
▁Definition
}^{
awk
omi
cache
leep
Port
▁simpl
<0xA1>
тел
▁recruit
▁Authors
▁muscles
▁Jahrhundert
UG
──
▁areas
▁jar
Canvas
约
logger
ordon
getContext
▁surprised
N
ографи
дна
▁Loren
▁expand
side
▁entertainment
apor
chr
▁Но
▁Xbox
▁bo
otimes
identity
▁hast
Κ
sex
lect
▁sou
VD
▁mater
▁six
▁smiles
▁decimal
机
▁handsome
aska
▁},
▁milit
▁('
▁Sig
ี
omorphism
▁Gate
▁career
▁étaient
▁sind
ashed
▁contribution
▁å
▁Ele
▁lear
issa
▁replacing
▁assault
iti
参
ým
рія
▁swing
▁speech
ię
Labels
▁doit
▁bog
এ
▁sear
equals
)_
ý
▁temper
생
▁desires
Tx
▁urged
▁their
処
anks
▁декабря
agg
inf
odot
▁sotto
▁confusing
▁expecting
▁being
рии
etary
🏽
▁plant
▁Net
▁measurements
tenant
fund

▁dz
generator
_(
▁crypto
▁Arnold
Ha
▁pom
izard
焦
▁commun
job
▁Das
▁accompl
南
main
He
($
▁Consider
Axis
▁mothers
▁fights
ків
▁становника
₄
▁closing
oss
▁users
▁column
(()
REAM
▁WA
▁Float
▁Wood
▁hacer
url
▁sleeve
MAIL
類
ASE
<0x59>
getC
▁connecting
ヴ
IN
▁eff
▁nowhere
▁existe
▁geme
▁achievement
John
▁tissue
▁Hans
▁influenced
Β
̂
▁sem
▁uitgenodigd
▁zd
▁EVENT
encoded
▁feel
oke
▁teacher
сла
▁réal
ponent
otherapy
ggreg
▁professor
Enable
▁wings
Scalar
alt
):
onda
ountry
scripts
▁Yellow
▁conspiracy
▁bottle
▁instance
▁под
Package
▁Kor
ector
▁Since
▁April
ól
▁creation
▁matrix
▁distributed
▁коро
▁threatened
cnt
IL
interest
▁fever
net
")]
polation
▁crops
▁scratch
▁sanct
ạ
fred
▁erfolg
▁dealer
cn
▁pitch
neq
rog
owed
▁Time
▁tobacco
▁Mean
ubble
Ke
一个
iss
ände
ǐ
PACK
stand
WS
bid
▁Phot
▁graph
istan
Ко
ViewById
▁anticipated
thrift
Units
▁flowing
бли
▁yesterday
▁libre
▁sigu
oft
нем
pse
▁mode
Location
GUI
sdk
▁downstairs
jal
▁Queen
grand
Walk
Poly
textsc
olution
▁market
香
▁patches
wait
cdots
▁май
▁arrives
▁Shakespeare
▁added
Content
ု
SE
▁Ки
▁initi
DS
▁Arg
横
▁projects
▁scrut
▁reduced
▁Condition
▁coverage
SEL
▁inode
perf
▁coefficients
▁человек
mas
▁Jew
getAttribute
Bill
▁cous
⛔
▁renov
aster
▁Hal
quality
▁kol
▁serving
▁cheap
▁infect
►
划
iego
ans
ê
midt
SY
▁prey
▁Box
▁putting
▁cottage
▁impressive
▁Flag
▁Netflix
▁obey
ién
▁replied
intr
:
graduate
▁after
佐
ży
▁poverty
久
▁formal
skiej
ím
▁U
▁burst
uki
▁genetic
LES
exec
▁yields
ulas
▁Beck
kov
▁myth
orters
▁periodic
필
▁retour
▁CONTR
async
▁cast
Future
▁argv
▁Ster
▁Stein
Fac
cloud
￼
ę
▁an
▁Giovanni
▁uk
Request
NU
ША
dan
▁plans
▁Reserve
▁Anth
▁televis
▁Even
▁bal
▁exports
▁sil
oz
▁buy
Job
▁naz
<
erg
<0x21>
▁▁▁▁▁▁▁
ligt
agation
izes
CONT
▁CO
pared
Ratio
▁Built
idental
<0x69>
▁Prem
▁championship
▁subject
▁evidence
▁fucking
▁Cz
▁título
family
▁charge
奥
▁chin
▁objects
▁patients
▁nach
Author
outes
▁shelter
enes
▁Craw
▁affect
ô
▁Authority
扣
▁José
▁":
▁mim
▁scope
▁produ
▁bi
▁Hunt
▁visitors
▁fighters
ի
离
▁memorial
ás
▁Through
▁`${
ా
ŏ
▁emot
È
▁kil
osing
▁array
>=
▁slowed
▁lungs
▁shape
release
ju
优
▁"</
▁lic
▁апреля
ấ
▁hallway
▁drawn
ش
/{
gray
draw
Loading
▁Attendance
reader
ac
(__
patch
▁opposition
Region
нен
oman
▁Sach
▁Fi
safe
▁temporal
▁canal
number
umbing
late
▁she
▁Jour
ность
▁win
throw
thal
▁prescription
Annotation
platz
Small
▁Й
adv
▁invoke
▁Web
▁initiatives
construction
WI
rb
▁худо
▁People
▁lui
▁D
EventHandler
▁Мі
▁emer
▁continuous
▁Att
▁así
INPUT
Filename
▁got
▁school
▁meet
▁rob
ru
created
▁grows
责
▁Ges
ческих
▁Grab
▁material
long
현
▁Sin
Ч
author
▁nue
pair
erve
介
lam
▁mark
▁acceptance
setting
▁exped
friend
▁scr
▁```
▁Turk
probe
▁село
▁stiff
▁wet
▁gebru
▁tenía
▁Live
utes
▁Maybe
▁Hum
▁brows
▁Want
After
Never
რ
estic
▁Casino
▁rise
▁waste
ʾ
▁между
▁bet
▁ah
bres
uario
ві
▁Sy
▁countr
으
取
since
▁buffers
oline
ț
Mesh
위
vars
Indicator
▁friendship
cpp
▁polic
▁zn
▁agent
饰
▁vol
▁sell
M
▁creating
rg
▁mie
itch
▁population
▁sweet
▁Diam
ハ
▁Brazil
▁Hindu
matched
▁Ukrain
ikel
uan
▁removing
▁agreements
wc
▁accordingly
试
技
ropic
▁start
ству
▁×
сло
▁dirty
▁rhs
▁Crim
▁representatives
當
note
és
ahn
▁guard
▁eyebrows
▁such
<0x6B>
あ
het
▁implies
ун
nia
circle
▁pos
poll
peon
▁Taylor
▁offers
▁inhab
osex
▁Hö
oko
减
▁slaves
poss
prise
fed
open
ту
▁ú
INST
▁ahead
){
▁its
▁supplies
zon
eau
stri
DIRECT
▁Entity
▁virtually
mgr
▁Nick
▁advantages
Hash
semble
▁utilize
▁hips
fu
▁Sto
▁greatest
▁repeatedly
rent
analysis
лее
▁février
defaults
ree
============
▁crown
mq
aco
ĩ
▁hunger
omorphic
▁View
high
stein
Inf
▁ве
Bus
Ret
▁sensible
▁loro
▁Ende
▁Aub
build
iß
▁outputs
terra
<0x20>
▁recuper
▁mi
cipl
uct
UND
▁Dun
▁Cars
▁answered
▁Canad
para
ן
▁particle
/_
▁Bere
^+
▁nau
abl
▁++
inis
▁Current
▁Job
▁tät
地
▁propriet
▁Та
Alex
rs
orem
▁blanket
Last
Settings
match
▁Vent
▁rug
▁Isa
LIED
tty
стви
▁SPD
▁mult
andidate
▁Verify
▁silver
▁Geb
며
etch
▁prove
▁poly
▁professionals
▁Cooper
▁sono
ym
▁prince
jekt
resume
▁pent
kr
▁ride
▁Impact
买
▁Bald
<0xCA>
▁directed
▁referred
ène
▁Holl
▁')
request
▁fon
plicity
▁recover
▁Bit
iar
alled
Util
▁work
ých
▁из
örd
▁derni
ध
▁vault
▁moved
insert
▁kap
▁laughter
▁Фе
VIDEO
▁affair
▁cares
▁fight
ski
▁także
▁pred
CLE
States
▁Marcus
зы
issions
GR
▁dispatch
▁Tennessee
gd
▁CM
▁nonsense
ák
▁Es
Currency
▁visa
▁applic
포
od
deleg
enses
ensus
aving
▁Medical
++;
frag
Μ
ram
▁pu
▁Dig
▁OUT
▁inhib
▁matrices
▁Vision
▁Dop
reib
▁inequality
▁exposed
▁advent
▁massage
pgfset
▁perfection
imental
▁seva
ICK
▁conoc
reach
ұ
__)
printk
ission
је
▁Juni
onym
▁Wh
▁esp
mathbb
▁ads
}-
▁Collection
iciones
▁ns
tag
Light
Appe
▁pig
."
▁./
ensis
hado
tilde
▁VAR
▁Ха
▁tender
▁rang
▁Ob
Example
MESS
▁past
▁Mé
▁Parte
▁yield
▁proport
▁strong
▁enh
▁fundament
▁că
es
oden
vey
<0xD6>
▁partition
▁Aaron
▁chim
▁London
▁Так
◦
ardi
entin
▁depends
▁emotion
▁credits
▁rem
▁мно
Arc
▁mont
▁mapped
▁mod
▁necessity
것
▁Не
戶
创
rz
後
▁sucks
▁Jam
▁handled
Equal
▁growing
▁$.
▁engine
▁developers
▁Mill
▁Nep
ims
ERROR
anners
lished
▁Fe
фі
uve
sized
found
S
Lang
ampions
▁dove
вед
▁fick
shots
▁OPT
▁ARISING
▁nail
вен
▁shadows
▁society
Bon
▁села
asury
▁tatto
Nav
▁Rest
omy
▁declaration
▁groups
Variant
ֹ
ough
▁bow
▁Qt
ton
▁Impro
▁banda
▁sake
▁ric
▁soit
<0xFE>
inand
▁changed
anto
osis
▁''
PER
aban
▁belly
multicol
▁entire
▁Era
▁Menu
worthy
▁Review
opol
▁Royal
▁gruppo
!("
▁sitting
▁Fa
bank
▁covering
▁appeal
申
▁Many
▁revolution
▁poet
▁recib
▁railway
driven
erten
ót
▁demon
.**
威
Mod
)));
▁web
▁equip
▁Screen
oslav
fil
▁require
マ
▁Shop
▁day
bec
▁café
----------------
]).
▁skills
▁describe
▁exciting
▁Perfect
olt
cap
▁illness
Visitor
apolis
▁turned
head
▁leave
▁sizeof
明
▁nej
▁weak
chaft
▁России
▁recurs
AD
▁fair
preter
pres
▁knock
▁ihm
▁characterized
▁/*
▁Luck
▁speed
tick
▁occurs
▁byte
вання
▁perm
ijk
▁Eye
ando
?;
▁anterior
▁predecess
ких
V
pfn
bee
####
chema
Calendar
ód
assador
▁Certain
▁voll
ederbörd
library
▁sector
ᴇ
▁Gill
▁react
▁week
▁network
կ
▁nah
▁definitely
▁said
▁abandoned
ници
ll
amen
▁builds
<0x05>
▁crazy
▁Б
?_
▁claim
idden
▁decrease
<0x8C>
▁delicate
▁que
▁maps
ulty
▁finish
)+
五
▁jump
пор
Creat
▁gauge
▁autumn
▁бу
-\
▁{},
▁capit
щен
▁declined
posing
ood
VI
дол
eft
▁instrument
ename
▁Carlos
▁UEFA
▁ever
BUILD
ш
▁primary
ள
Strategy
▁Cha
утбо
▁nights
▁Talk
Cons
conde
▁purchasing
▁Shadow
▁lp
hex
ote
▁insurance
kap
▁Gal
▁assertThat
▁assigned
▁essere
▁Basket
>".
▁traders
oya
▁treats
▁exercises
▁diffé
ס
▁Кон
▁Woman
▁Кра
▁HIV
им
▁edges
▁tenant
стан
▁precise
土
말
FIX
▁publication
▁Mr
▁capability
▁full
itudes
ocal
arden
sched
)-
tensor
XY
lights
▁integr
▁kernel
▁expressed
▁gent
ende
▁Sec
Intern
rage
▁mejor
▁$
▁Length
站
c
izontal
▁report
▁cancellation
▁brace
rott
ever
▁txt
▁pointer
ского
▁Dob
▁inside
eva
anch
士
▁chains
▁blind
opes
▁condu
▁execute
▁greatly
ords
zza
▁commented
▁Ray
放
ច
皇
ffic
логи
▁Durch
ally
ground
cut
igte
▁н
FACE
张
̃
ders
Observ
sound
▁però
▁tempt
Mu
ὐ
via
▁zo
▁Which
▁п
Abstract
лів
Ą
▁grandfather
ר
▁Expect
GG
ardon
မ
Af
教
▁sevent
▁na
▁homem
▁subtle
▁greeted
▁confirmed
stood
шен
▁Controller
▁chopped
▁git
▁plan
▁breaks
^{+
▁contacted
ande
ក
▁threatening
ゴ
Desc
▁alarm
posal
🥰
ngth
▁Progress
('./
ances
▁competition
▁productive
▁Enum
▁community
▁classroom
▁дея
▁wide
зыва
▁ass
▁dress
werk
▁India
▁souls
izz
xis
ulle
▁Door
о
ُ
▁schema
▁habit
ricane
ki
▁home
CAL
▁Branch
▁kall
ő
▁zwei
is
DE
▁Py
▁reg
▁поло
Diff
Millis
😅
▁gender
кар
▁returning
uar
▁cur
ieur
Be
CB
轻
़
▁Living
▁lion
oons
again
Air
▁ge
VIS
▁exchange
▁*/
▁services
ker
Rate
▁Terr
▁wyst
爱
▁Vincent
▁Pitt
nage
▁Force
▁programme
>%
▁Gra
borg
>";
зво
म
▁press
▁listing
▁Gemeinde
ium
🟢
ieden
]$
▁pretend
▁among
opf
て
Payload
пан
▁layout
做
▁congress
<0x9A>
▁после
▁Adams
ains
▁gym
PHY
fections
ச
каде
console
▁Kenn
श
▁licensed
▁offer
▁tensor
▁costs
ография
Title
▁bicy
▁Opt
)"
▁Ди
적
▁rare
▁selector
▁procedure
▁cleaning
▁picking
poon
zens
▁Alex
▁//
▁conj
ך
평
кон
▁wrest
▁denen
▁cities
▁visited
ghan
▁font
------
Fact
í
inv
buffer
iley
▁oficial
USH
Sa
▁appearance
jsce
boolean
archy
▁measured
▁mix
▁'\
▁hi
▁HO
{{\
▁DL
록
vspace
ç
rich
»
eyed
Sig
Criterion
▁courts
psz
ฐ
财
차
DAI
ahan
isk
▁Rank
veh
▁chick
▁Lesser
▁unters
ould
mare
▁Always
▁eg
▁};
▁looking
▁inspect
▁Houston
Arr
▁Durante
▁semi
▁Ord
▁__
Co
▁Par
istance
xA
▁literal
▁memory
▁Van
eman
schaft
ță
psilon
▁Inn
ність
▁Won
ំ
agement
▁toss
relation
kin
▁augment
ventory
▁è
gesch
롤
▁careers
Inputs
▁Nob
▁opening
CMD
FIELD
Prototype
▁"#
ೆ
Len
ć
▁leurs
<0x32>
▁list
▁hig
▁Liverpool
metry
hav
!!
ण
▁corrected
규
parallel
▁unhappy
▁measure
▁'./
ówn
▁tras
")
▁Fuck
▁Kab
آ
▁Techn
OL
mes
▁Jones
▁Lis
ros
rv
▁stamp
itle
eller
▁effective
▁Free
rand
ßer
Memory
él
毁
▁franch
ться
▁standards
▁pok
φ
只
▁artillery
▁il
Az
ain
▁Frank
▁dei
▁organ
▁па
walk
▁spots
▁систе
▁Value
Rule
њи
▁Jonathan
▁indirect
}\\
▁settlement
▁ay
ließlich
AAAAAAAA
▁posts
EO
▁Charlotte
.$
owa
.“
▁married
backs
ží
▁dru
alg
▁Conne
<0xFD>
▁Zw
▁thou
▁OP
ientos
hre
▁happiness
▁rolls
ними
▁champions
ange
rend
▁sus
сно
hent
▁trad
In
cca
▁everybody
php
isely
▁revenue
ừ
▁technical
▁Fle
▁pode
arning
▁confer
▁reluct
▁Probably
▁installation
ٰ
▁birth
宽
▁Ф
🔴
▁fő
▁prevention
dating
▁Fou
Test
▁univers
Slot
▁formerly
nav
Sun
▁contrad
Quest
kee
Cost
een
▁sheer
rolling
▁intr
нії
span
ít
▁Did
▁Tests
▁Gol
asta
ью
mina
Sound
asc
▁Check
article
▁Hit
▁основа
MAN
▁Fat
▁json
uten
▁manner
enburg
▁px
▁canonical
ronic
▁Din
▁Franco
Stream
▁Home
Bitmap
▁jun
acom
▁го
▁propose
▁href
meta
▁(@
service
ład
items
▁Really
Le
▁Profess
↳
onia
град
▁concerning
<0x56>
计
ieron
ruit
▁recovery
▁cult
▁charges
▁opin
▁},
▁economics
▁mock
fortunately
▁interviewed
ko
▁translated
它
▁fits
▁outside
SK
ع
区
books
isle
▁prv
▁asc
▁galaxy
▁highest
ded
Debug
▁delayed
ungen
▁kidn
}",
▁ET
Push
Ì
kal
lon
ekt
存
[],
▁sia
き
▁ridiculous
▁Pel
▁")
▁ultra
akov
▁Э
▁Wilhelm
▁Request
Top
▁cable
pub
▁fis
jd
tabular
▁specialist
▁Accept
軍
▁straight
▁used
Col
ССР
豆
▁forum
▁Senate
▁dag
▁hav
▁brother
न
သ
factory
share
fen
▁fancy
▁фор
▁lad
ڈ
▁v
ється
}\,\
▁Coupe
C
upp
mi
▁'../../
▁Jahrhund
▁regret
链
▁index
EQUAL
▁Lisa
ÿ
▁Fill
▁immer
▁abund
▁Returns
▁descent
bably
▁bleeding
▁mild
▁Khan
Intent
school
uc
bild
♯
▁Cut
emat
umps
▁metric
▁sorted
ells
Reset
▁interviews
<|end_of_turn|>
▁recommended
ɔ
▁Museum
parser
}")
ə
▁Meg
▁sentiment
▁involves
eben
▁vast
▁hypothes
дат
▁booking
▁participated
choice
leaf
▁candidate
apps
▁seriously
▁eas
▁Wik
нок
旅
▁ó
PLY
rière
▁opened
)^{
iterator
:-
porte
右
▁modo
▁string
▁Econom
返
▁Hann
ENTIAL
Implement
▁Dit
Args
ུ
▁.
fig
項
▁(%
┌
▁dice
uis
BOOL
▁rising
▁included
▁bill
▁Hamburg
▁ruined
autre
pause
▁transitions
▁który
удо
স
pro
ha
▁Detect
▁Strateg
Τ
migr
▁preced
>/
acer
兴
)^
feature
ilde
▁websites
▁volta
RT
▁Sa
ских
▁Guard
▁Ober
▁purposes
▁Remember
▁fra
browser
▁solid
▁algebra
▁silly
ude
Ang
⠀
TextField
Hz
▁encour
äsident
▁locate
▁derived
▁cref
▁им
▁süd
▁durante
哪
▁Sebastian
▁unter
burg
}}$,
▁Ein
℃
gos
qs
▁interval
cards
_.
製
änd
▁cu
кан
Ḥ
▁interests
▁Disc
вания

▁officials
▁era
iod
▁dates
▁utilis
VF
cosystem
▁comment
unlock
▁declare
▁Kind
乡
assertEquals
Vol
▁quarters
ệ
▁medium
tto
▁interaction
▁organisation
▁Lead
▁API
asures
▁воз
▁permit
forming
usters
💰
▁Unidos
▁Poll
▁steel
▁було
▁fruit
▁авгу
avier
▁const
ategory
aught
ensions
rible
ated
▁který
▁Contribut
▁Neither
▁but
▁concerns
▁ratings
axy
innerHTML
▁#
▁franc
talk
HOME
▁cookies
export
undial
▁Clin
weise
▁glasses
usta
▁RF
▁luego
▁tun
▁sehr
▁snake
▁startup
▁legendary
▁consist
楼
覧
ült
▁Constitution
▁wed
Delta
▁Centre
yc
▁camera
Good
▁Raf
պ
▁x
▁obtained
percent
Payment
▁mitt
asons
Options
▁kter
▁pros
vel
▁colored
▁firmly
ně
▁fier
直
▁solo
site
▁Parker
▁information
зом
idade
▁vessels
Repository
▁áll
住
▁y
▁LIMIT
esi
可
▁combining
code
▁Mechan
irty
▁Env
▁foot
bear
sk
▁documents
▁Third
▁output
▁Seit
▁Optim
haus
消
American
rer
Endpoint
▁Tob
▁Extra
Values
ithub
▁bare
油
ambers
opic
▁close
trag
uding
繁
Supp
▁num
▁Records
▁<=
мии
▁Music
▁fois
far
larg
води
▁invention
шим
▁Because
▁increases
▁Greece
dropdown
чение
Writ
▁greater
▁amplit
▁pci
▁ä
▁territo
<0xAE>
▁Nr
arance
ri
察
▁forget
▁prospects
trans
▁invitation
inski
▁Light
▁dance
▁Republican
ყ
cy
▁Weight
▁Exhib
esen
kö
ination
timer
шая
▁Language
達
auté
icked
Const
▁newspaper
▁conflict
▁finance
üd
▁negl
操
▁compon
▁neur
▁bek
▁Univers
les
용
▁Clearly
古
post
▁Additionally
PORT
▁license
*/
巨
▁coal
▁Indian
minecraft
▁vert
(-
igned
▁Sab
▁denied
▁Бу
▁CHAPTER
▁compilation
chio
bro
▁on
▁Giov
▁min
,(
▁currently
▁header
chars
▁Two
typeof
istr
agu
ID
▁послед
ße
▁RAM
omes
▁Custom
info
▁elements
azi
ף
▁са
rap
▁NS
Ρ
wing
Qt
essment
▁widespread
▁Op
▁eerst
ilar
▁translation
▁Film
Whe
ten
ungs
rho
isl
▁operational
▁часть
---
apy
▁hat
фе
▁applied
▁Kirche
▁aapt
缩
replace
▁Questions
전
ceived
▁aqu
▁nob
ví
院
パ
were
▁Liv
arl
▁relatives
pite
▁Nach
▁zwe
▁estim
zd
▁окт
ķ
击
▁PCI
▁Jur
<0x35>
▁organization
▁bad
▁lug
▁пи
leans
DELETE
.^{[
▁lur
EMPTY
ride
umn
▁hur
▁Islam
▁Priv
▁literary
BYTE
▁fre
anth
Shop
▁Falls
▁protests
▁Ce
mys
灣
▁obtain
▁surround
▁overlook
▁ast
ECT
▁Parad
emor
ʔ
жу
▁pont
▁tune
insky
itative
tooltip
ּ
및
itime
▁Frauen
▁toys
Members
rid
fill
…
托
alth
atherine
Okay
Mix
▁jag
▁reserved
▁Mas
▁filing
▁blogs
▁RES
cel
SU
OD
pressed
GROUP
▁Garden
▁exclude
▁ai
REC
▁philosoph
ON
master
effect
▁DAMAGES
*"
чита
级
▁області
Parser
▁Ва
atable
▁ignoring
<0x2B>
scale
cond
▁Foreign
rupted
▁implementing
▁Blake
urs
osexual
White
▁Spe
▁exceed
▁Brig
▁ladies
Mac
recated
igger
▁war
▁__(
amin
Die
▁†
Sing
<!--
▁cook
▁Ab
(((
▁band
inas
战
delta
partition
▁Afghanistan
ческой
▁designers
▁lista
ბ
elia
▁spinning
▁loops
WRITE
▁TEST
quel
▁complaint
Black
▁stadium
▁incons
储
Miss
related
cons
matrix
▁maintaining
▁режи
▁My
ibr
▁experience
▁Bes
▁eing
报
▁bod
ahu
▁binary
▁homeless
htt
arget
▁Christopher
▁legend
▁Quality
uper
IFI
▁location
oration
▁Tre
compiler
uated
▁scenario
▁pist
▁convey
▁surrounding
Such
ois
▁міс
С
Bean
initions
▁ii
ired
éal
▁syst
ὶ
▁phot
Av
▁fortune
▁ф
emy
kir
"+
▁precip
esian
verbose
chter
}}
▁excluded
▁inaugur
contact
▁permitted
dap
▁tren
▁Станов
PY
▁Mad
erm
vier
▁Mini
mock
绘
▁excell
▁intellect
▁utf
▁certificate
▁rais
▁asp
▁fence
╔
Ui
when
▁{$
zes
œuvre
\":
cow
Qual
iant
▁Route
់
Once
▁Edu
inations
▁mathematical
▁pkt
Mic
TRAN
여
addy
ную
Must
▁Chall
eper
▁Moreover
Actions
esar
erna
iface
▁newest
co
▁Mul
▁urge
sal
▁exper
ством
▁Reed
够
▁races
▁circulation
▁stand
geon
▁rose
stru
Mapper
▁grateful
minipage
▁nebo
gang
encial
▁ph
Tree
Destination
pond
▁calci
▁Cir
▁ruling
▁Format
▁И
INTER
▁brothers
经
SD
▁são
?'
sis
据
EF
▁learn
icating
especially
▁almost
▁useless
▁inclu
▁Soul
▁adv
▁Radio
ISING
▁surely
ходя
WriteLine
▁Census
▁bord
pace
▁Proposition
▁pound
'},
▁FM
心
▁goods
gin
▁example
gling
▁України
▁bem
▁Corpor
arsi
▁Series
▁ES
▁everyday
▁thing
BPACK
rest
країн
Status
▁named
▁occasions
worker
Illuminate
▁sufficiently
▁damit
‬
青
bul
▁само
▁Ба
▁considered
▁Nobody
ган
▁terrain
▁Issue
▁pint
▁commissioned
▁Paris
▁Гу
Al
lo
▁Sz
orders
▁sacred
▁satisfaction
▁slic
▁epic
▁filter
paren
ṃ
TagHelper
🏻
替
igs
ensk
ън
ю
ề
▁""
DATA
▁Sie
▁Lim
▁wasted
Lu
▁denotes
uals
▁creatures
Group
▁Collections
╗
▁surface
Wh
▁answering
▁ka
독
▁Hunter
<0xBA>
pu
„
▁han
ord
企
▁sources
rov
▁analyzed
▁poll
cert
msm
▁aj
▁defining
▁political
▁prospect
Tensor
▁ab
▁lado
Confirm
价
医
hip
▁Clean
▁Rule
down
▁fais
ences
▁remote
▁Price
WW
ége
Wall
▁phrases
chiat
Permission
brit
ding
▁cert
part
▁inde
achi
▁número
ҳ
<0x76>
entry
className
▁Korean
▁discret
}{\
▁Posted
trim
iches
▁dernier
ide
▁likelihood
▁https
▁Harper
分
▁Dylan
▁scream
▁formally
emed
▁vest
▁across
ъл
aine
▁awesome
props
inction
▁WE
▁ml
root
proto
▁communicate
▁ocean
▁Mam
orf
▁tw
▁mé
icer
▁security
▁hyd
π
▁release
outing
▁ву
arge
ipping
▁пло
del
ade
▁medieval
ango
▁kg
▁Title
▁aside
▁Films
Back
Tell
▁Mand
strong
rect
othes
dings
<0x71>
apos
▁rain
Models
▁NC
▁EP
жения
历
ateful
▁ancora
▁significance
more
▁Widget
пей
Ο
阿
启
▁Rou
ulation
렬
▁power
ría
inct
▁mascul
▁second
▁Hel
election
▁Deutschland
▁corruption
▁LA
ionale
▁python
iling
▁Native
▁Championship
😔
ா
▁numer
▁Google
ском
ха
▁encoding
ẽ
video
▁Faith
PM
▁required
ether
▁Girls
క
▁Sau
▁Lebens
ham
▁Coffee
ക
lord
ityEngine
描
agine
▁Initialize
军
ia
ania
▁thanks
elif
▁announ
▁envelope
▁many
refresh
þ
opens
▁Rang
▁gener
▁houses
!
▁Après
▁área
\/
▁pandemic
▁tecn
workers
▁gest
available
溪
float
ensen
▁Option
owym
mapsto
nor
▁Filip
▁heal
▁announce
▁йо
▁believing
双
▁proud
Alt
▁feeding
entially
▁reactions
ues
****
▁About
▁tutti
ญ
▁sharply
▁Chile
Class
▁Jacques
▁ACT
▁dem
ute
SQL
wealth
▁discre
▁März
▁Hollywood
▁leather
▁Dum
▁hard
OBJECT
▁denom
준
▁sistema
▁jel
lett
▁Mediterranean
寸
plic
▁пара
▁mostly
▁allowed
ible
▁Oregon
删
▁upward
opath
Ț
▁pick
같
enta
▁surprise
▁Irish
▁Today
▁Belg
▁suspect
upt
cmd
amily
ii
▁legislation
ников
▁remainder
শ
▁Contact
lif
▁cul
▁knee
aki
▁strengthen
▁$('#
yes
ar
▁demanded
ções
▁Ur
city
atra
▁stride
▁Expl
▁Bapt
：
Queue
Com
▁Nev
շ
▁fs
▁Publish
................
Pe
exist
lass
▁abc
▁matters
ostał
▁▁▁▁▁▁
▁describ
arth
▁quart
anga
lik
ов
maybe
▁attempts
▁Sax
shall
재
▁ie
▁feeling
▁prediction
▁receives
▁safety
ente
GT
▁dtype
lington
acon
öt
izza
▁attributes
▁Norm
▁racial
GPIO
▁nacional
DUCT
▁Campbell
CHAN
wx
군
Sprintf
Commands
้
▁custody
ḫ
▁ellos
example
EX
▁Apart
телей
Why
▁коман
▁tou
▁fen
elled
▁innov
шение
▁Ру
▁Ki
adrat
運
▁кото
▁phenomen
▁twist
▁gar
ERCHANT
▁mercy
脚
▁DM
▁habitat
▁partic
▁significant
▁rebell
simeq
宝
斗
号
▁reduction
aters
▁Ann
余
)}
hard
<0xEF>
▁нача
▁approved
▁Indep
▁Buch
▁Cher
▁Ell
hesis
▁SHALL
并
▁дру
irable
환
param
<0x39>
▁Georges
▁pract
subsection
▁freak
kern
▁shit
JS
▁image
▁игра
▁при
ql
▁fix
▁Ost
乎
oda
fica
요
▁Gym
SB
[_
▁death
ocket
▁trading
▁charts
APTER
Pat
▁ce
▁IF
▁Apache
丰
▁Prom
aqu
ico
▁ign
isp
Complete
HO
▁lands
([]
uart
▁pup
де
▁District
▁quasi
▁sob
зда
ette
▁feedback
Min
prefix
shift
ISO
estern
▁Pull
▁cheek
▁particul
Place
én
ล
▁bol
±
riers
▁perceived
ols
ylon
▁tendency
assertTrue
▁latest
▁eleg
atel
atisf
ès
stats
▁cd
li
▁czas
▁Gar
▁aussi
netdev
▁Partido
VR
▁Delta
ky
ise
ಾ
▁Le
ACT
ெ
tom
硬
<0x8F>
▁orders
▁aprile
า
▁intro
ensed
클
oji
▁a
ifornia
▁Taking
ці
▁tone
te
бу
▁mood
enschaft
TF
achers
SUP
▁brig
▁д
фи
<0x7C>
unit
type
▁пов
trace
nod
Route
itness
▁ignored
▁Пет
RB
arding
NEL
ifications
▁agric
▁suspected
oster
▁?>
▁jet
power
▁Schw
ⵏ
un
unt
members
>
▁authentic
▁ability
стра
blk
▁Nieder
夏
▁cigarette
ulates
Support
▁helps
贝
alk
ció
сса
AN
▁packet
Threshold
§
▁ought
普
▁Instead
▁handed
oriented
常
CY
HE
增
▁East
▁Mail
▁stretched
▁Second
▁due
oston
adj
ulf
▁Ни
anten
oder
▁Boot
FFER
執
▁P
▁n
▁Fix
亲
▁Моск

▁México
尽
祖
icts
稍
scroll
elte
acyj
▁estado
▁separate
izations
▁is
▁beard
änger
)\,
▁Legend
▁choice
chte
▁energ
ialog
tls
▁farther
▁рі
utsche
▁gepubliceerd
▁Graf
▁í
ције
outine
denly
rangle
per
▁hardware
▁convex
unning
▁Working
▁FBI
▁correspondence
▁optical
ump
AAAA
ault
ressed
même
amment
▁reader
▁rugby
ו
▁sta
<0x8A>
▁coins
▁constant
vc
差
▁seguito
remove
▁Basic
▁magical
(
entities
这
،
itage
asha
阻
▁capt
▁sle
▁Cou
lem
▁travelling
▁OFF
bol
Ż
▁visitor
LIMIT
▁CONFIG
Worker
icky
▁Mont
Den
▁Occ
our
▁knocked
▁suggested
▁saves
▁ге
REQ
▁NASA
或
date
inter
▁takes
▁Given
▁ni
▁coinc
▁Gh
▁lady
▁``
▁mou
▁static
▁["
▁swim
chestra
▁och
▁gal
online
Lat
▁furono
enen
нача
▁FIFA
富
▁contest
▁how
TM
吃
valueOf
▁Гер
▁firms
▁transm
AGE
success
cart
▁genu
chel
▁où
在
▁regulation
tot
容
..
▁bapt
icians
▁bullshit
interval
▁Question
▁core
▁först
▁necessarily
▁together
▁providing
▁association
▁Bobby
▁Tools
ja
▁Was
▁consciousness
woh
arity
▁permanently
unicip
ком
ampion
▁Carlo
iami
▁eager
绝
erness
▁år
▁Nelson
▁su
args
▁Central
▁Rud
▁surg
▁Drug
格
ogn
ocr
▁ü
那
▁lie
ве
Frame
ces
fe
속
받
▁classification
bler
лю
iu
gor
▁breast
secret
形
▁сторо
▁Daniel
hint
Sc
▁Jake
▁сво
险
▁Ле
connected
功
▁ham
asket
▁Hub
ardo
TYPE
▁dropping
▁position
USE
竹
itta
ई
었
▁ner
▁iOS
▁upgrade
Op
▁witch
▁closed
▁pair
▁Tai
bau
ungle
▁ignorant
robe
箱
▁pear
▁separated
▁пред
zem
▁liability
▁Ro
Processor
<>();
風
Enter
>'
zte
x
▁Philadelphia
ollen
▁neg
▁WARRANTIES
按
▁któ
▁hit
▁Kol
tery
ongs
▁onder
▁."
▁partners
▁Kansas
▁findings
▁det
▁Ag
ён
annotations
нут
ORS
😊
▁Cre
▁threat
▁impat
bottom
▁parse
pent
Node
중
វ
äl
▁instructions
▁Egyptian
zeichnung
▁males
▁User
wa
canvas
액
▁Template
UPDATE
▁Mind
▁sigh
▁Father
others
密
anim
▁never
ook
spector
▁separ
ense
▁Old
▁hidden
Cell
▁vier
▁Annual
рами
▁physical
▁accum
tf
ám
▁headed
fan
▁#!
▁nv
업
Í
黄
irling
▁Ol
immer
你
▁rôle
zech
▁intern
cluded
▁&#
UAL
▁prisoner
pathetic
▁reveals
rgb
▁posted
▁други
▁notebook
▁Volk
▁ти
owners
庭
rors
▁aspect
face
▁caut
▁cout
▁dev
compar
▁investig
▁dismissed
口
▁explains
▁although
▁fairly
▁Os
oplus
Helper
▁diverse
습
unque
朱
▁medications
▁ol
▁variations
▁Commonwealth
▁Lower
▁nothing
▁wouldn
uh
тие
сси
▁Michael
independ
▁run
▁sow
▁cos
ление
▁enthus
мати
破
▁aer
▁Object
Mouse
▁quest
<0xB7>
ext
▁initial
▁sam
‰
mel
▁grew
▁cents
▁present
aller
▁Paper
▁categor
∞
ACE
く
ល
);
,
▁fault
ikan
▁clothing
cx
astro
▁lookup
ٔ
▁sit
▁elected
search
▁bell
浪
ǫ
▁suspended
Key
aints
▁which
▁Stock
PCM
Opts
▁owe
̣
▁Dir
unate
▁cheer
<0x15>
▁interrupt
ives
▁IllegalArgument
▁Cort
▁ihrer
)->
atively
▁Britain
assen
▁Jessica
iefs
▁бере
▁China
zet
blic
GER
ford
▁recur
out
plug
move
ґ
Boolean
▁denoted
Text
Camp
gart
▁од
Processing
▁territor
▁Mach
▁damned
Radius
course
between
▁anche
default
▁link
α
尾
ာ
▁rein
▁game
▁android
▁anxious
▁distract
iness
▁Face
▁interactive
▁shown
▁Compet
▁Mov
▁бро
▁ép
▁Joy
mand
스

ago
ource
▁some
▁sleeping
noindent
є
▁ui
状
क
😤
▁chant
▁talented
ARD
five
▁Iron
』
over
▁thread
▁{"
icular
eless
ateral
▁thumb
询
▁Gebiet
户
▁Might
♠
threads
▁Maria
▁Have
▁Keep
▁died
▁tooth
▁Psych
▁criticism
нг
ErrorCode
▁gouvernement
😍
ów
材
stable
▁normally
▁tail
▁Author
▁stead
▁possibility
▁density
plaat
len
d
▁LGBT
¸
▁charg
▁(†
ped
achusetts
Ь
▁руко
▁Promise
<0xE3>
▁HR
▁Glass
▁Churchill
▁Mock
▁succeeded
thers
▁freedom
forall
▁Catal
▁elim
▁prison
▁grinding
ді
▁li
▁Ellen
▁resulting
+-
oper
▁awful
CLUDING
▁Client
▁Sport
▁taxi
▁orbit
▁Column
ным
▁fixture
▁Sister
ষ
account
▁ru
▁"<
UInt
Rect
▁backward
▁unfortunate
Dev
▁Adm
Help
▁cp
▁stats
陆
▁himself
ähr
ACK
▁struggled

Foreign
ơ
▁Finn
<0xBB>
Pop
▁expanded
design
▁belong
}_\
▁octobre
▁isinstance
▁gave
▁eventually
abile
false
▁sports
▁afternoon
dale
Spell
ientras
▁yes
▁Sen
▁wider
Valid
▁hors
▁hills
▁Illuminate
▁watch
Double
▁locals
▁escort
▁'../
ò
>")
更
CAN
protocol
City
overty
▁acknowledged
ilst
Imp
▁XVIII
▁questa
▁landed
▁septembre
▁contribute
▁Yeah
ész
enc
▁Western
▁Де
Gate
▁faint
ே
▁And
mile
짜
▁med
▁cycles
ı
▁…
▁lawn
▁comments
np
Sizes
▁Nicol
▁corner
▁computed
Wrap
▁agreed
体
unched
▁potential
ERCHANTABILITY
▁Error
refer
ִ
▁éc
abil
기
▁uma
вод
▁brew
rict
math
罗
brace
▁shipping
▁rounds
▁realise
▁Sep
▁Examples
▁prz
self
▁государ
unction
▁massive
кре
▁getting
账
ém
vre
ij
olding
▁.=
BUS
▁repe
▁weap
tasks
unted
▁parsed
▁convention
mathbf
▁bot
▁були
▁Tut
,-
phant
▁donc
版
strings
▁onde
▁want
▁desired
▁shower
▁Dragon
▁père
<0xAA>
ming
야
const
▁chairman
▁phr
▁Development
▁heads
▁febbra
▁associations
▁$$
acent
▁Hamiltonian
ść
▁destin
پ
▁uniqu
Exists
▁THAT
{
Tube
付
<0x06>
estyle
SN
▁obra
▁för
▁cy
▁expects
рен
▁рабо
ample
▁вели
Mock
cg
▁exempl
▁keeps
▁Rect
CALL
water
appy
▁lig
ючи
水
Prom
▁ath
▁treating
ahl
▁Newton
▁Kay
luss
▁displays
autor
▁facilitate
▁blow
▁Property
Initialize
▁intervention
▁cit
theme
▁genre
cas
▁former
▁attribute
▁IX
▁loyalty
▁defence
▁veget
hang
▁vacation
Oct
ссий
▁Vern
▁buttons
▁Bus
ount
▁Justice
Analysis
▁COMP
▁prefix
夜
Exception
▁aws
▁asympt
ERT
keyword
▁prominent
▁forever
andra
▁counts
GO
sbi
hs
Store
▁stan
◄
encias
fas
▁memo
▁approach
respect
marks
事
Ť
app
etr
▁cfg
gp
THE
break
▁Fil
⭐
Ἀ
▁narrow
Î
▁Fab
▁Theatre
▁competitive
▁tout
▁facilities
▁HTTP
<0xB0>
▁wait
▁compar
mber
▁garage
Validator
matches
▁Dead
Console
대
▁rating
▁what
▁official
▁Little
iture
underline
▁Console
amon
▁deel
urst
namespace
▁Former
<0xC8>
▁tem
း
iento
anny
▁demonstrate
лем
hren
▁sug
😳
▁deliver
y
▁watched
▁Cer
transaction
?)
▁suggestion
▁Way
息
▁).
▁liqu
cius
rp
Size
low
▁thirty
[[
▁shoot
▁varying
▁frowned
рії
ills
tt
▁System
▁Len
▁effectively
▁theorem
ebook
▁stern
▁Valid
▁desc
▁complete
▁lun
▁коли
Upper
ľ
▁ensemble
iesz
吴
▁Rec
sect
ermo
=[
▁Open
рак
ansion
Ten
▁trab
kt
▁Lind
▁Pin
▁Byte
цев
▁stro
▁nicely
▁Statistics
Blo
linux
▁Liber
Less
тер
▁Para
wand
▁ignorance
▁Ma
aration
▁/**
VIEW
shine
Transition
▁successful
▁HAVE
stre
▁Un
▁Af
inates
▁tips
arded
▁enabling
▁varies
▁tactics
▁Vert
th
述
▁dx
cancel
ierre
tos
စ
won
▁hurt
-,
記
▁Cav
/**
▁Arthur
▁Mex
讲
rices
ating
▁final
Dr
務
epoch
▁strongest
mux
Ю
sum
god
ன
asting
▁switching
quire
G
▁choices
fac
▁voyage
▁project
享
▁Come
ikt
subscribe
▁nad
eli
▁slim
⚡
ENABLE
▁landscape
▁recorded
▁pac
▁unh
elements
Adjust
oine
memcpy
лко
▁Frankfurt
▁club
▁mic
ע
ová
▁St
estone
▁clearing
▁challeng
▁guid
ង
▁как
▁sched
Operand
orrow
▁animated
UV
冲
▁Except
岩
▁increase
▁Ch
▁days
▁subset
义
▁Input
▁recognized
▁activation
Menu
iseconds
▁generated
▁aging
intel
sec
▁Arbitro
DD
AV
revs
AX
Feed
operations
Ben
кры
getProperty
▁}).
▁Prov
imi
aram
legal
ived
bour
eno
Fig
▁columns
▁chaos
▁solved
jj
ŭ
Center
⌁
▁серед
▁btn
дан
iros
▁Barcelona
▁persistent
▁steep
特
/(
▁weakness
▁Ryan
▁gives
▁pm
▁weeks
▁nor
▁BASIS
rum
▁missing
▁dyn
bands
ส
請
She
▁Reich
▁Luft
slug
依
requency
▁properly
▁bud
▁Sign
▁mixing
▁dise
▁Category
Del
▁critics
▁install
ev
▁accomp
▁Одна
▁THE
▁cooked
▁TABLE
strcmp
▁Islamic
оло
лок
▁endpoint
Buff
▁kills
/$
▁Bev
slot
▁calm
▁fasc
▁Lieutenant
▁изда
Statistics
ight
Bo
ishing
▁founding
owing
ze
вых
▁leading
▁binding
▁listening
二
▁nationale
▁Olympic
lish
▁tart
rew
▁licenses
'+
▁loans
▁bark
▁punct
▁cream
▁sentence
▁corpor
serv
▁Pur
wij
告
▁Take
▁slice
menu
chestr
▁Frederick
byte
ски
▁Ли
GA
固
▁pill
▁designer
▁Install
🤣
▁opponents
time
results
љ
impl
▁attached
▁edition
▁spett
票
張
▁gab
▁Or
帝
▁Style
때
║
▁Et
▁–,
集
<unk>
▁По
ufficient
respon
▁gardens
▁cette
▁wise
<0x74>
wart
▁stato
▁irr
F
▁Times
▁cracked
▁smooth
▁peer
▁Benef
portun
▁popularity
’
ynam
ד
▁impress
LO
ёр
Execute
Should
▁rou
▁familia
▁privile
Dom
▁sticks
dated
onden
amous
▁constants
▁Ham
getInt
▁increasing
folder
ttp
▁bugs
PP
▁Studios
chedul
application
wor
▁Act
▁Alber
▁gesture
▁strang
▁bought
RM
▁priest
▁Marketing
incipal
br
ruppe
▁Icon
amazon
▁Def
▁universe
SIGN
▁appreciation
▁false
ɾ
▁contract
▁error
▁shop
▁therapy
ose
▁Dou
▁says
▁Horse
direct
▁Button
BN
▁August
▁zwischen
▁Emperor
▁theoretical
▁Ukr
😎
▁​
adel
¼
urance
wid
▁cum
Where
▁offic
န
▁percent
olia
ilities
mers
▁place
iverse
τ
َ
▁Reddit
▁sending
chez
▁sí
Pages
ifying
進
multip
▁Systems
clude
Hist
▁voting
▁bland
ி
А
struct
UTE
ering
▁shouting
▁britann
>&
▁schon
▁Survey
;;
▁Smart
AC
领
▁handling
▁fueron
Es
Stmt
ington
▁Next
Point
INSERT
▁systematic
▁others
▁w
▁pl
▁vul
Sign
▁Euro
sted
▁exhausted
pmatrix
▁rendering
▁eran
▁pol
▁developer
▁Hud
$_{
▁giornata
guid
▁jul
▁mel
тор
▁STAT
▁tact
▁peak
▁Prin
member
▁lanz
▁ownership
▁vocal
▁хра
▁fus
▁Пе
▁ад
;
▁accidentally
▁({
TEMP
▁flowers
▁family
▁Id
▁Connecticut
ölker
▁giv
id
False
▁~~
▁her
▁Selection
津
chnitt
Fun
▁Pass
▁resist
▁amer
▁PUR
▁particularly
ther
requ
▁"--
roll
dims
amine
was
▁Blo
ником
scriber
▁When
▁pets
▁Montreal
ships
~~
▁encoded
▁appeared
Use
▁muj
▁objet
▁Thread
▁killing
▁preventing
loe
及
원
eg
▁'$
▁erhielt
▁hill
)^{-
▁includes
Attr
▁pleasure
▁але
gif
ous
▁Conf
agner
▁bound
******
arely
▁bien
▁covered
<0xDB>
▁тре
printf
Suppress
▁formats
▁dynamic
▁Nel
▁trouble
__);
PATH
▁personnel
▁более
ʷ
ünst
▁GM
▁fear
▁infl
ili
蓝
ometry
▁Dopo
▁lang
rr
▁ann
eron
ulse
▁manera
输
▁dé
▁forgot
detail
▁nelle
amination
▁Server
▁Doctor
▁explained
dashboard
ậ
往
▁Less
▁adm
Post
axis
normal
▁}}
$~
▁United
ль
▁Palace
▁Пи
dag
▁planets
▁heart
стре
▁legally
▁assured
▁fortunate
▁neighbors
▁Justin
asci
ర
▁Ś
ended
Core
том
inet
▁Bernard
NL
▁unusual
▁reinforce
▁pointing
▁pen
initialize
▁Gem
ela
None
trl
enum
гово
▁FC
┃
.)
▁labour
DEX
falls
size
Instruction
▁Write
yp
▁humor
ória
▁Ant
志
packed
Connection
▁NAT
晚
ento
▁sometime
diction
acters
▁insect
▁PH
▁dv
❶
',
oooo
Which
wort
NG
ús
obal
▁hoping
.*
▁)
▁village
▁crowded
▁Short
glob
▁Man
▁sé
▁sull
稿
종
▁Python
ADDRESS
研
ish
ร
total
▁retreat
為
▁perpet
▁Bowl
▁equals
ে
▁inclusive
捷
istically
Series
▁personas
ку
});
clip
▁directions
zerw
▁Entry
▁communes
早
)}{
all
▁event
▁rc
▁Edit
▁ок
色
▁foods
psi
▁clim
<0xCB>
块
▁dabei
ichten
ར
pipe
▁empty
Process
loading
ations
usqu
logo
Ab
▁featured
▁environments
kel
target
ertain
named
Array
▁query
↩
備
ἡ
▁hers
language
▁Elizabeth
▁Warren
ounge
▁fot
▁desp
▁jog
▁forg
tim
▁solely
▁advice
▁Marshal
ivamente
▁cryst
dest
▁Me
Let
∗
aiser
▁Hass
😡
Link
▁pit
ategories
▁haz
));
▁dignity
▁Cross

▁necessary
▁registration
▁rég
▁Why
mo
CESS
▁chuck
вид
☺
ater
▁sobre
xic
ን
▁because
▁Sha
recv
▁compute
reek
ying
▁first
▁Step
ml
▁creativity
ől
▁nodes
ander
/.
ienia
▁each
ns
워
vue
▁im
aty
▁‘
▁ale
▁employment
▁гу
▁loves
angu
福
▁WHE
▁toy
▁Him
uset
▁Main
zh
▁Ak
original
款
eval
▁Familie
?
হ
IES
▁ecc
▁tunnel
дно
항
agnostic
▁Union
resc
Pt
▁steps
▁Hern
▁Eli
FLAG
插
kim
fony
鲁
▁offered
▁realize
▁Spanish
▁yours
<0x1F>
▁dr
Produ
▁Change
Free
kl
构
ª
lia
▁seems
]));
IGN
ג
▁pool
Introduction
eds
▁amateur
Inner
▁rooms
▁Beng
▁fres
▁Licensed
apeut
▁sql
▁Dog
циональ
▁Often
ص
Buf
rows
▁sense
▁parallel
append
▁Pad
enter
▁много
▁clicking
▁skb
pix
SYNC

▁ele
▁Compan
▁along
▁therm
iolet
Horizontal
plements
管
ehicle
uth
親
▁continent
▁Allow
▁illegal
幅
aceut
neur
mut
▁oc
ét
▁victims
▁statistical
ías
})$.
▁male
▁hours
▁targeted
▁hom
▁ho
amos
Dele
▁provinc
▁juris
▁Buck
£
Channel
▁exists
▁Tot
ercise
uese
idi
теля
cpy
ably
▁parents
▁"")
navigation
▁strangers
▁justified
▁Exp
▁?
status
▁Hawai
▁vers
irmed
▁that
▁touch
ationToken
▁piano
▁Ло
LEFT
над
▁fait
chts
▁Kingdom
raft
▁Loc
▁Mum
hora
曹
▁Pod
▁consumption
▁==
athon
▁E
▁small
iza
▁Pi
▁trap
Icon
Syntax
going
མ
hausen
碎
▁Uncle
▁desper
着
Binary
ushed
▁decre
aces
▁three
▁był
ifact
▁tax
▁guide
<0x43>
enti
.~\
directory
ktr
▁tut
▁far
xFE
▁functions
}+
▁dollars
gie
▁ghost
make
▁extension
▁enforce
រ
▁surviving
images
▁frozen
▁forecast

<0x7A>
▁enhance
UT
ENCE
▁alternatives
▁vent
▁conc
<0x52>
mathop
Հ
欢
With
▁ét
▁tells
▁so
bu
bury
▁account
ku
>;
пол
▁requiring
▁Votes
▁packages
▁destruction
▁wat
▁Hong
▁prow
ross
spin
}`
▁elsewhere
▁crowds
암
pen
▁Fo
▁look
Has
▁achieve
左
認
▁penalty
▁containers
▁behavi
Quick
aju
▁fa
pos
▁у
▁Marc
▁antes
▁Di
Other
▁Commander
är
rie
▁Either
Command
▁compiler
▁Chi
Bot
Commit
ower
quir
VER
ське
▁cool
Loaded
▁looked
▁nombre
▁Zwe
pad
▁Iowa
▁ал
fol
▁algorithms
▁ont
타
▁ent
▁developing
▁indoor
usk
 
▁CD
▁grip
͡
istributions
▁internet
▁Click
At
aya
▁math
▁een
▁Quest
▁assass
▁представ
▁pockets
\">
▁cust
▁Historical
▁pres
Who
▁exclus
▁NBA
▁fluct
▁Baker
▁один
▁Hi
▁ich
田
へ
▁smart
liament
ifest
'*
WORK
▁département
▁Edge
▁tall
samples
sp
发
▁integrate
nder
customer
ged
▁V
éta
▁apartments
▁Stadium
▁get
▁pers
CLIENT
▁draw
▁render
▁conclude
ан
azioni
жи
▁throw
、
<0x84>
▁parties
▁mattress
▁Rod
▁heating
期
▁clothes
▁software
▁chop
▁anchor
▁repair
uous
▁optional
日
zn
▁Benj
면
toEqual
ION
▁failing
kfree
tc
括
lint
обра
ăr
').
document
▁champion
▁addr
▁artistic
іб
ast
▁compan
nic
pool
▁rolling
older
▁Security
▁inequ
▁hypothesis
▁franchise
ands
annt
▁Racing
▁God
appen
ș
quad
▁references
▁Notice
▁La
▁ně
▁or
wall
API
▁offices
▁Adv
▁ImGui
FN
열
▁giugno
▁tang
ój
riet
▁CONTRACT
▁assistant
▁virtue
[\
ід
Separator
"></
adora
▁quotes
▁texts
ings
▁magnetic
▁sj
▁switch
▁distinct
▁refused
ர
_[
▁Found
izado
KERNEL
entre
秒
寄
▁ba
男
ocation
▁familie
ゃ
▁workshops
夢
▁venne
Н
▁rit
~$\
Nothing
▁Bug
wood
缓
▁packing
▁anten
▁mayor
▁introduce
irs
plot
▁proportion
▁uw
▁apolog
ран
▁novels
Date
ல
▁letter
▁Round
grades
ал
▁equal
hide
require
▁guest
▁tours
▁diagnostic
pon
Soft
▁advise
▁Bryan
FREE
mn
▁breakfast
▁catalog
▁gods
▁laugh
▁Bot
▁Atl
▁third
▁dish
▁hiring
ation
▁compile
▁east
agues
Navigation
變
owy
▁scientists
Bytes
prop
▁disp
▁vr
▁:
♪
循
ná
▁concept
▁mu
▁того
▁magnet
অ
▁beach
▁rx
▁external
喜
<0x3E>
љу
itten
цу
texttt
▁тем
▁momentum
:%.*]]
inject
▁thermal
▁selection
ExecutionContext
랑
Operator
▁sprint
頭
ké
▁volunteers
▁Memory
andro
ges
termin
▁Scient
▁beste
Dictionary
TagHelpers
▁mond
ние
▁Jes
.}
▁versions
ктив
fixed
apan
▁kiss
dark
sequently
inburgh
alse
\[
jet
kit
▁mess
square
Present
▁Legal
▁outlined
फ
계
▁neuro
▁Esc
endment
▁Stay
UnityEngine
심
kind
▁wherein
inher
▁lin
▁savings
▁travel
spl
content
▁exp
▁merely
нию
▁employee
등
UA
▁according
▁intensity
段
李
▁Mc
▁investigation
▁commands
▁Ship
후
shirt
▁gathering
▁salary
Mapping
Les
▁Buffalo
Messages
▁Must
NN
),
▁образова
▁На
itte
▁parent
ক
▁weitere
important
elle
▁childhood
▁их
▁paid
露
ot
▁Dam
▁europ
▁Document
▁deput
▁Though
atri
▁murder
▁adopt
▁Л
supported
bere
▁blast
아
▁unre
▁allem
GF
¡
antly
▁journey
算
дова
ggi
▁lac
▁Fig
lig
uming
▁StringBuilder
▁send
hemal
▁scen
▁channels
fragment
让
▁Jet
▁books
WN
▁globe
▁Gets
uced
hn
▁Seine
Det
'(
▁melod
▁pobl
ieux
▁mehr
▁capitalism
▁comparison
Redirect
▁Hot
▁bytes
▁True
▁Ren
▁arena
ically
чу
单
▁DES
olves
▁happ
FO
▁chemicals
].
ové
▁advocate
plex
▁than
inger
▁hope
icks
▁kor
另
▁gam
▁españ
frica
▁audience
íl
igh
resent
hba
inge
ounced
ქ
充
客
▁recon
itutional
iges
ollow
▁un
▁ö
▁passionate
乘
▁folder
}})
HasColumn
▁mare
wheel
营
▁Spect
TREE
▁Professor
▁temporary
('#
▁sentences
▁Vas
GLOBAL
invoke
▁pregnancy
▁quando
▁jealous
▁ende
compute
They
фор
▁obviously
CK
▁Cord
밀
▁nu
▁reaching
grid
▁Вла
▁со
olu
seh
▁travers
▁shaft
处
imary
kamp
(/
保
around
▁Wu
▁book
EE
iv
▁є
imeq
ַ
▁Intel
IBUT
▁meta
▁dull
▁Period
SV
複
ฆ
дів
imag
▁auto
itr
▁presc
梦
▁bind
▁AP
▁cursor
Eng
▁Ин
working
▁priv
▁awarded
voice
▁Almost
▁generate
ORM
▁district
bon
▁poetry
▁myster
▁Soon
notes
Par
Arguments
%
KK
ру
▁presence
▁fitted
ٱ
Wait
▁testimony
▁bunk
MENT
<0x3A>
ternal
▁restaurants
itt
▁OS
▁router
esz
cm
()))
亞
plus
Ÿ
▁growth
▁continually
▁immediately
▁conqu
▁Regiment
GENER
public
▁тер
▁Polish
უ
▁mour
<0x1E>
rpc
inted
▁+\
◆
▁alpha
▁});
inters
<0x83>
▁Ridge
▁Ort
▁stake
▁Tes
▁jeho
🟡
▁did
RST
▁Person
orse
▁Kot
чного
tta
▁primera
今
Hel
weg
ic
▁attended
▁Feel
Ro
▁Ez
省
cció
wp
ovember
▁beginnetje
▁деятель
DISABLE
▁програ
▁sends
▁neut
Nodes
scene
columns
▁transaction
Tile
á
▁resign
ato
ierung
▁cave
▁Example
eny
源
▁cases
▁ecosystem
▁onclick
avo
]}
▁estaba
änge
분
oding
▁impacts
AU
ische
▁suppress
ille
▁b
▁django
ɲ
▁hug
▁реки
▁SD
uit
▁disabled
"}
▁boards
Mil
▁Wat
цер
▁prima
typ
operatorname

`.
▁constructor
obi
hou
Ž
▁Parl
▁unlock
TD
Scroll
ilation
▁survive
door
ided
▁factor
▁North
txt
Lambda
life
▁bars
▁bereits
PARAMETER
▁Campaign
blue
irk
leton
▁disse
rypted
▁дан
▁lob
icional
▁bath
ម
르
ira
▁PRO
sterdam
zin
Expr
draft
力
hest
Visual
ців
▁atmosphere
▁rodz
hör
parentNode
स
▁sy
▁Jos
▁abortion
buf
лась
▁Deep
触
hind
hello
\-
ду
ategy
}\
▁impact
ppo
▁theft
▁dop
▁Pres
changed
home
hed
▁sunlight
umber
ор
▁Illinois
塞
▁indices
▁Sean
ailable
▁avoiding
▁conventional
▁Command
▁Crow
▁sites
▁DMA
▁Pri
本
plit
▁*«
能
↑
島
▁characteristics
▁confirmation
▁Rat
▁server
▁soll
ismo
▁над
▁Benjamin
mother
blog
▁disable
ství
子
▁Delhi
active
▁Abraham
мери
Che
值
禁
▁fisher
ensor
▁cri
▁deer
Can
▁virus
▁likewise
▁various
sWith
博
Length
ernel
構
▁reson
Start
%%%%
套
about
:'
▁Coll
▁Argument
profile
▁gear
think
Man
LD
▁casual
▁Ве
▁dawn
element
▁Roth
onso
AUTO
▁Civil
▁rank
₦
访
▁employees
Scheme
aml
<s>
▁containing
▁GFP
▁пер
▁hist
ständ
宗
▁Should
peg
▁Finland
▁Close
ohl
rud
<0x36>
▁smallest
ished
ea
▁университе
lemma
▁orientation
izio
reload
▁utilizing
▁Paul
uri
▁benefit
▁Ta
DAT
она
▁templates
큰
▁ans
▁Ruth
цен
CE
ὁ
▁seen
Height
orer
▁decade
▁rum
▁relieved
ными
▁сов
▁cough
▁Training
▁elő
leg
sy
▁Natal
channels
box
dtype
dit
espec
服
▁holder
▁Note
тво
-------
▁represents
<?
_{
▁prepare
igue
="../
ounters
宏
范
▁staring
ט
▁documentation
▁Jon
▁incorrect
▁Marx
▁affecting

▁Cow
oice
▁zone
▁Legisl
▁marijuana
▁Entre
cole
vee
roup
optional
▁disturb
akes
▁affects
imat
▁tremendous
▁Saturday
▁combination
▁Brasil
▁ranks
▁dest
▁exception
ITEM
▁activ
稱
ague
▁municipal
▁requirement
▁governor
il
}^{-
irt
▁Future
"""
mons
▁Full
▁agents
불
▁Header
▁DO
▁ligne
—"
panic
Insert
▁Transfer
▁tcp
essions
▁threshold
ps
▁existence
▁vo
onto
facebook
▁Matt
▁stared
▁stor
▁qued
ync
();
ino
▁News
Stack
▁rés
▁mondiale
▁AMD
▁NO
▁Universität
▁Whit
mask
▁engaging
SF
▁Brew
chip
Matcher
▁Something
▁Movie
▁был
-$
elson
wiki
uest
ि
▁brands
▁Muse
ono
сті
You
▁trailing
sh
▁competed
▁provides
▁ACTION
+
mbre
<\
▁vl
▁encode
Pyx
▁expose
▁gradu
▁extensions
▁rever
Unable
▁votes
Hook
generic
scriptions
le
▁fin
letter
▁fewer
▁sadly
./
erek
始
▁parte
icket
hui
ة
▁operating
▁profound
▁În
▁attorney
DEV
ionato
▁norte
Ī
▁had
▁governments
ax
▁Francia
▁store
}',
▁M
발
beta
▁flag
qpoint
W
clock
▁museum
lic
▁ceremony
▁долж
▁City
...</
chem
Visible
raising
::_
éral
▁experiments
▁create
▁politicians
▁опера
Comparison
通
lin
ح
▁disadv
ComponentModel
▁mentally
pr
▁wealthy
staff
▁Most
eras
oot
▁não
▁document
▁signed
ל
დ
▁».
▁incident
▁Berlin
▁Cob
atalog
Material
▁Liz
▁resolved
('<
▁civilization
▁sust
▁wreck
▁произ
▁incent
бом
저
Ser
ции
▁deleted
▁Side
Azure
File
▁entrance
osc
▁raison
▁
ց
ス
Te
渡
FX
▁attractive
connect
▁Charlie
iante
▁Chairman
▁Hen
▁Statement
▁cluster
бра
вав
ử
ottom
▁Meanwhile
名
▁zijn
▁esta
lle
თ
▁Diana
▁Module
▁huge
同
avis
onical
MSM
ienne
kwargs
히
ty
ares
▁sealed
'$
ities
▁private
unsigned
▁symbol
▁Rules
▁themes
▁månaden
New
ume
urious
▁k
fer
va
iper
▁restaur
▁soul
▁Georg
builder
▁perspective
templates
igkeit
ović
/>
̥
▁singular
eters
▁Portuguese
polit
ál
θ
prec
ibration
encoder
▁Karl
ani
날
oked
Cred
National
ifiers
▁ihn
▁Month
▁delight
▁stellar
mente
ธ
▁ali
ancial
кта
▁Frau
▁Pour
typename
▁shirt
▁dok
tera
Flags
▁meter
VID
▁typing
Esp
pons
▁Batt
▁tx
▁reality
奈
▁fro
失
▁constitution
redirect
▁copy
uning
stylesheet
omm
▁stre
▁estab
{},
mid
▁Anne
▁Inga
▁ál
▁Experience
word
▁statue
ift
▁Sub
store
▁â
▁bull
▁Angela
▁machine
iro
▁reporting
▁overlap
Search
}}^{
abulary
▁orb
payload
reason
▁сту
▁problems
ワ
▁built
less
Graph
▁wing
¿
óg
ṭ
Ə
▁sculpt
ầ
▁empower
▁teams
▁grat
куп
▁confidential
ční
▁stressed
ц
ink
HOUT
手
ring
vertical
úblic
버
icip
▁Food
Fe
▁Howard
claimed
▁Brother
Spring
▁Coal
asto
▁National
▁repository
kk
<0x29>
양
售
во
▁pd
▁Edinburgh
ospel
ixa
())
ierra
▁AU
▁//
▁Rap
▁grants
▁causing
▁soon
▁Carm
▁trash
▁fif
Priority
lap
oshi
▁pian
rift
▁goals
▁Fore
▁Rail
neo
▁enthusiasm
▁remove
ixer
▁evangel
▁computer
太
Є
▁created
Enc
ines
:%
▁Maur
Pers
warf
array
资
▁photos
vector
▁Bru
崎
LE
MOD
ryption
<0xF0>
offset
▁assumption
Cond
Area
ush
▁Farm
丶
▁hous
▁зі
▁mundo
▁desktop
组
▁morte
ensure
Config
▁breed
Trans
otion
++++
чки
▁runner
▁consideration
Standard
LEMENT
▁terms
▁lighting
▁pentru
LS
▁superior
▁Cro
bbra
▁presents
▁обла
▁hint
hole
Mir
URE
≠
▁Scar
▁internation
▁principal
Many
▁Material
▁Ist
oping
Ј
▁dro
▁hadn
wik
▁crystal
issant
工
usive
▁Pear
Completion
▁fals
제
▁synt
]=
▁tim
exception
▁Clinton
▁dés
▁mű
plicit
▁Herm
▁Resources
Sl
should
▁най
imet
anie
▁Theater
Resources
▁simpler
▁Commit
▁DEF
роб
riend
▁genes
antic
▁proble
▁kr
\,\
StatusCode
arb
Req
FULL
▁individually
ön
▁Theory
entric
▁demo
▁sixty
錯
▁bin
▁somewhat
autres
▁Industry
こ
▁boss
Identifier
▁Golf
▁spec
▁competitors
💯
▁labels
äter
▁marca
brief
aver
▁residents
册
石
Topic
={()
▁owns
▁Dear
؟
▁Analysis
▁Flight
inese
рал
▁primo
boldmath
cor
Theta
initely
Results
▁diff
grund
▁nomin
▁Jap
iver
▁Harbor
▁seeking
phone
руд
▁has
lichen
▁knife
▁SO
▁Russia
▁Nut
journal
avy
▁Async
▁Lors
▁fict
없
ко
▁Nations
ick
К
yr
▁Formula
Dispatch
gery
▁família
}:
bread
ership
)\
Conne
▁rather
▁fluid
▁Orange
stderr
imated
writing
▁opts
yo
RPC
ិ
▁left
极
▁architect
eight
with
ensors
▁beam
▁previous
▁Soc
LETE
PG
Java
Align
Comp
▁capable
▁eating
▁нов
▁Colorado
▁>>>
▁datetime
▁setting
▁sing
})$
<0x55>
ниче
sheet
▁ban
▁WIT
育
ction
nos
▁ov
▁desire
FFFF
rl
▁seeds
keys
▁nine
▁Feature
üh
▁descriptions
Ali
xit
锁
iation
▁To
▁On
avor
▁име
hib
└
nam
▁Buy
▁hosts
twitter
▁authorized
▁evac
⊙
▁respected
Question
▁visibility
▁craft
allel
▁sur
*}
▁eat
nx
▁Scal
oir
▁filtered
um
▁Tig
▁equations
▁N
amt
顯
▁societ
▁question
▁inev
▁stable
▁Santiago
且
jes
▁CV
ège
ife
itan
▁Leop
Character
Emb
摩
érie
▁Hart
▁processing
yers
▁Solutions
▁concert
▁Aud
▁так
▁scatter
▁Leb
nels
▁Esp
}}(
atta
▁depos
Stage
questa
emás
NORMAL
角
▁Oct
INS
▁wife
▁Add
▁upp
ituted
ère
ni
Coll
etti
▁are
▁realized
fail
nabla
▁symbols
ể
▁BA
eh
▁smoking
Output
▁Mundial
aba
KE
▁preg
短
▁counsel
抽
cb
èse
▁Think
😛
▁rural
▁${
▁oblig
▁Protection
▁música
▁resolve
▁rally
▁retire
Fix
駅
elihood
ряд
Follow
parents
bre
▁años
▁medi
nent
▁acid
▁Equipment
histoire
▁caps
▁movie
▁gate
ringe
ries
bp
奇
▁curve
▁moins
ложе
ï
▁divid
▁harm
ńst
business
pher
ි
▁stata
析
<0xB9>
▁backing
▁Tem
▁replacement
include
illion
▁{@
▁ка
▁Kle
▁tends
▁define
Γ
Activity
▁Earth
▁voted
▁guerre
ército
Ready
▁conclusion
▁cry
abstract
聚
▁Pro
▁М
▁musicians
▁managers
▁Yam
▁Over
哥
▁ar
▁una
▁speaking
▁officer
looking
ith
▁Space
Sir
▁cutting
acious
▁absolut
▁CS
▁unc
ling
▁registry
ប
Upload
sil
correct
Ά
▁composite
▁['
vin
login
DTO
GI
▁proposition
▁Bu
▁note
Segment
▁Zag
请
▁Ltd
acles
해
ģ
inois
PE
▁standard
▁cle
▁disc
Ș
urent
▁genius
▁largest
▁choosing
▁taxes
▁kicked
▁dramatically
▁Lost
arator
▁Brook
ecute
▁Conse
patient
목
▁financ
.:
▁Personen
Too
address
額
▁myself
县
PD
▁byl
kw
▁naam
Map
men
▁stom
▁trying
vir
強
▁comprend
reci
ک
tti
▁peg
▁Pil
▁Arkansas
iz
')->
▁advanced
uerto
▁supers
reply
дж
▁Glas
▁tam
Library
."]
▁collision
▁tc
irts
▁procedures
ly
nde
終
▁differences
orsz
▁exagger
▁therefore
ielle
▁dc
GetString
arse
☠
▁blocked
OLD
▁modification
▁Lac
赛
rss
tbody
ře
▁cnt
▁wur
noon
▁src
▁hogy
▁del
сер
得
failed
appe
▁grain
_*
▁Heinrich
",
▁js
▁Larry
Bas
▁diffusion
▁пос
▁JSON
▁FE
да
▁Go
Lower
▁That
xe
fang
ѕ
COL
blem
▁dimin
▁tra
▁SUB
▁instr
пла
气
边
▁к
orn
ey
▁SHA
Stats
Hor
▁Dod
scalar
emetery
never
値
/#
▁Stra
▁marks
▁Obviously
..."
xb
▁Along
Hal
색
▁difficulties
▁consequences
ifts
▁drawings
▁scoring
▁Rate
▁senior
progress
commit
flush
öffent
ISTER
mass
aft
▁psychiat
▁Keith
▁prost
▁También
▁anonymous
ulated
MetaData
itel
št
▁generally
grpc
▁checks
hero
▁Process
iration
achuset
('\
▁Salt
ierz
ский
▁mamm
Signature
▁touched
!_
▁dist
olve
せ
UEST
SO
istrict
▁wie
icher
▁contra
▁fulfill
▁gentle
▁pull
party
▁printed
▁ž
▁Century
uable
▁MY
ць
▁financial
ání
ucket
석
virtual
User
₁
▁à
ZE
ib
协
▁screen
validator
DITION
^-
됩
剪
▁parish
护
▁slid
▁ps
▁instruments
▁воен
孩
▁workplace
▁Covid
▁"",
▁Feder
[$
uations
▁Catalogue
AIN
liferay
ismus
加
▁Were
▁bio
▁пре
▁lines
small
nn
▁Active
▁Kyle
▁Barcel
versions
▁fall
diag
SS
▁consumer
prim
▁Card
mode
▁May
▁suppose
eria
▁august
▁Haw
curs
何
eb
▁Az
の
swap
▁departments
Launch
观
仪
▁prisoners
asticsearch
▁short
▁Aff
Driver
▁Сер
▁sid
▁admin
▁items
▁UTC
heads
▁attr
sizeof
FUNCTION
壁
resolved
lar
attachment
▁Organ
ousel
▁Cann
vern
ರ
[@
▁portable
ception
рі
Parameter
杂
'],
像
atique
▁indicator
▁pause
▁Č
▁exhib
ussia
ugh
ν
'].
cess
▁anal
pages
▁amb
."""
▁stop
нар
unned
egr
cq
▁maint
dh
otal
ishes
Trigger
バ
▁understanding
ischen
arith
▁Gren
uction
cules
▁dels
▁Wars
Inst
▁Bureau
▁gut
▁readily
▁justice
▁rubbed
▁pand
mir
▁Academy
致
▁appreci
▁occurred
▁preparation
▁ob
▁SM
STATUS
▁Division
▁Ek
龙
TY
.");
▁pse
基
▁continues
▁Aunt
Л
wohner
▁gambling
▁Tex
▁Gen
Permissions
Rev
▁окон
▁Those
▁valuable
▁IC
▁Advis
Ш
ো
▁League
umped
**:
ת
uego
▁DE

':
▁pri
<0xA7>
▁realization
ipv
ident
▁где
點
▁regex
▁Vlad
ś
ü
▁тру
▁banned
book
▁recomm
▁este
您
▁bases
▁preference
<0x09>
들
aggio
▁losing
ṛ
▁откры
','
额
LINE
د
hooks
▁февра
oe
iejsc
▁advertis
Write
▁proposal
聖
▁surn
▁madre
路
erry
▁AN
comes
▁Iran
▁predomin
▁Ah
iedad
▁voy
RS
ething
aats
▁FOR
Eval
ceil
진
▁someone
elling
joy
▁seeks
irection
▁Highway
▁Anal
▁Hou
states
▁variance
кото
▁barely
▁CON
ys
▁consum
▁pole
증
▁bezeichnet
▁strange
▁Portland
eenth
öffentlicht
options
pkg
万
▁wer
▁Celt
curr
▁painter
▁PART
▁Mac
=${
____
aging
Lookup
▁precious
мен
а
다
owany
ario
▁softly
onial
▁challenged
die
▁SER
▁nome
▁let
Fr
▁failure
▁emotionally
->_
▁Sym
█
illance
▁tour
▁large
riages
year
▁Argent
▁fore
▁Handle
▁MC
▁spite
contr
▁Register
▁#!/
▁protein
བ
▁Linux
▁entr
▁сві
shadow
▁Consult
▁retro
äng
▁mk
ull
FUN
ill
▁certainly
▁Colomb
▁през
ioc
▁relationship
▁aveva
AMETER
<0x1D>
▁completely
adata
▁sab
aaaa
▁concluded
▁musical
衣
▁Typ
riterion
atem
министратив
▁Hugh
爆
▁Albert
▁Eval
▁Psy
track
्
fter
nown
ious
hdd
ivot
because
▁febbraio
².
班
▁bias
▁credentials
▁passive
uno
ifica
▁wip
pus
lists
ř
ថ
owned
▁expression
▁Trump
max
▁bigger
zel
HashMap
▁Players
ẓ
acl
imeter
▁vid
ília
vised
▁Rogers
ours
▁cheese
stad
贴
▁slaughter
nika
цион
▁Finance
Program
при
▁rat
▁highlights
="-
▁brought
▁spread
▁Prop
▁year
좋
▁administer
▁Sver
ють
production
IDS
inen
▁reasonable
nica
▁Dis
▁&\
現
▁typically
▁Alf
▁synthetic
▁MB
Ṣ
Health
Add
ট
hemat
й
▁promised
google
▁Athlet
▁Thor
▁feared
ANY
,{\
▁blown
▁»,
velope
▁harass
ún
edi
▁trunk
▁teeth
▁nursing
▁thirteen
вя
▁hor
▁invisible
▁▁▁▁▁▁▁▁▁▁
amb
▁deutscher
og
enn
옵
San
orm
castle
▁warm
▁flo
nc
▁drinking
▁Robert
▁Joh
▁Rosen
asted
elve
▁Ter
▁mismo
▁does
▁jQuery
▁stare
▁dependencies
▁profitable
▁Download
▁responding
▁Set
▁padre
EM
▁populations
▁Watson
暂
▁IM
▁volatile
▁Er
ailability
▁Krieg
▁Com
▁rad
▁variety
ways
▁mixed
sure
ゲ
lab
chap
▁!=
▁simulation
▁в
zą
▁altered
▁hel
從
▁Donald
味
über
▁projet
▁'/
styles
▁mat
▁numerous
▁py
ћи
▁дивизи
ǧ
▁bottles
hat
▁Sue
zenie
▁digit
▁realizing
▁struggle
Arm
▁(_
▁Corps
GPL
▁replaced
▁Ac
▁blog
igg
▁anderen
▁Rad
▁billion
ox
getString
▁Marg
▁opportunities
轉
ческого
▁roku
>?[<
anean
ATA
▁Hospital
werken
Release
chie
▁sugg
▁Am
▁Provinc
▁healthy
ʟ
Machine
▁realm
TR
ေ
Scale
▁Ran
amente
▁Vis
scr
ublice
მ
▁expected
︎
<0x91>
Clone
▁Cameron
Zone
iago
▁Baron
<0xE7>
tok
▁foi
▁economic
▁Va
ív
▁heated
▁tastes
▁teaches
≥
▁ed
▁exemple
^{[
ur
antal
▁seine
▁shade
▁share
cookie
▁In
Ident
cdot
▁migrations
Ò
Generic
Turn
CI
葉
▁interpret
▁fun
▁sock
▁сы
iginal
六
diff
▁bei
▁Tony
种
▁Pa
▁porn
渲
chi
▁Opera
LIST
*>(
fall
▁ceremon
じ
▁sequ
▁vég
▁Method
*;
▁Est
▁Besch
▁true
▁wind
▁вико
▁inverse
▁wor
ió
WARN
Comparator
▁Zero
RES
▁lost
osa
▁damage
bad
Pattern
InputStream
▁Musik
▁ages
▁mur
▁Reviews
née
▁capital
▁fantasy
pag
▁vita
idle
▁mount
Rob
yme
ят
▁equation
▁gy
▁penal
▁table
▁Jamie
iker
agr
split
▁widely
aturday
toire
ada
▁Enterprise
FL
▁caso
▁челове
senal
▁ValueError
DataSet
к
▁kilomet
ـ
rooms
▁murm
館
查
▁Josh
addClass
▁Technical
▁crist
aset
▁hover
▁ша
▁shoulders
▁fab
]
{'
▁stark
дина
ygon
atomic
attr
---------
▁arriving
▁convergence
▁locked
ind
▁analyt
▁Despite
▁mystery
既
▁structural
▁critic
X
▁Copyright
<0xA9>
Internal
owo
▁voices
ielt
Dialog
▁Mercedes
care
implement
▁irre
priv
bed
▁Tax
▁Sh
chair
richt
▁vil
ях
▁Camb
ingu
utz
iveness
ск
Cal
▁drivers
▁hecho
▁пе
aret
Take
▁Who
食
한
▁Tay
ke
▁ic
▁provisions
▁Republicans
ope
▁flexible
▁without
▁discovered
rès
itect
▁slowly
▁sept
▁hire
("
▁Turn
▁algorithm
▁Ти
⚠
present
▁allow
жно
▁plac
ASSERT
▁bel
▁Johnny
甲
▁surveillance
Pool
erra
▁вой
eqref
ньо
a
▁уни
▁branch
option
▁bild
▁Created
▁supporters
fun
▁muscle
▁Design
inned
NEW
영
비
ENTRY
▁роди
▁vintage
GB
▁pilot
SOC
anguages
▁guards
▁limit
вана
▁fram
ulu
‐
▁void
▁How
ocratic
▁handles
▁Exper
▁empt
ә
▁:)

doc
▁heavily
별
😬
▁updated
▁Lab
expand
holds
▁perturb
▁bron
▁Especially
abort
▁traveling
allow
▁Pot
Expect

串
մ
▁demonstrated
вича
рович
anc
▁slightly
raham
▁oppon
▁pressed
GS
▁Fif
检
<0x12>
k
umin
▁hij
▁Pointer
Popup
▁Program
irit
ig
heart
▁Premier
▁zusammen
▁tool
argo
▁drank
์
▁walls
超
반
♥
▁zero
▁horrible
▁nous
外
▁dla
轩
▁насеље
▁ey
nh
▁stagger
dl
▁hand
▁products
orage
pected
assert
벤
tesy
junit
▁York
▁IP
sup
¥
▁probably
Callback
scious
ниц
▁degrees
NA
▁История
HA
ʃ
▁whe
BL
![
▁professional
▁facility
agram
ener
områ
▁division
▁express
cias
estly
▁route
Checked
queue
live
💖
▁debate
▁Fail
修
▁hall
▁anger
window
▁Hope
▁Oh
otted
▁</
▁inhabitants
▁pistol
Random
Url
▁devices
▁Dallas
▁extremely
inea
▁perform
ano
uffer
▁defense
rå
Factory
▁runs
▁inherited
▁anything
illo
ACTION
▁into
estra
▁program
isé
Front
▁Craig
olute
▁Cl
▁Gi
ure
transfer
▁committed
stract
▁cada
sylvania
glise
▁incre
▁Hand
▁Indonesia
HTML
art
▁JavaScript
▁É
▁Follow
Creation
▁caller
▁frü
arz
ũ
Њ
stream
▁dre
집
eri
▁Font
▁toward
▁shortly
麻
▁райо
▁comes
ół
bast
ielen
})}
rowning
美
ред
Profile
▁¿
函
▁incidents
▁Frances
XFF
mt
▁system
▁sorry
Ids
▁manip
▁window
▁lucky
wei
ulo
▁mant
ua
рито
▁({\
▁Fel
stud
▁zurück
▁Pays
▁remarked
▁eq
ially
▁miles
ław
oint
day
config
▁va
▁bab
▁heroes
▁Line
▁Several
▁Lucy
▁obten
feat
▁Fine
ὴ
transform
rez
selected
colm
кри
▁Lou
Dynamic
lings
▁legit

▁accommod
MY
iels
лич
▁discussions
▁hass
▁Nature
▁gé
▁SR
间
mathscr
rir
fic
▁ju
formance
▁compte
▁worker
ève
popup
sembly
types
'>
лан
▁dri
▁lol
证
况
▁grand
▁round
then
ancy
bot
▁boxes
endance
▁Ont
▁sour
ħ
▁nog
▁spo
▁guy
【
▁Int
Overlay
super
▁Alliance
ETH
▁febru
▁mem
茶
▁Studies
※
▁Run
▁Christians
cker
▁ple
ysk
▁Wald
‏
▁remem
which
▁Sound
enge
NONE
ultane
Leave
▁subst
strict
▁disrupt
▁studies
substring
delete
▁Credit
▁meditation
work
unknown
▁apartment
▁divine
▁sov
4
Æ
wd
ْ
▁align
▁validation
▁((
AB
ито
也
▁Visual
▁designing
atically
iten
▁Carolina
宜
▁beside
**.
策
▁occasionally
Project
omb
ging
▁Ji
▁resigned
pop
...)
irlines
NO
ishi
👏
▁aren
сій
获取
Ph
▁pupp
mao
գ
▁quality
▁Eric
achel
▁sandwich
▁$(\
OPEN
ului
▁conversations
▁PAR
▁claiming
linked
▁requests
fon
▁Els
개
eves
▁Russell
raction
▁Galaxy
нь
Student
ultur
;</
剑
ська
▁liver
▁giorn
predict
▁Safety
ga
先
▁recipe
🇸
▁Hus
▁Florida
irmingham
▁rb
▁jerk
🌍
▁Woods
პ
▁sal
▁encontr
▁individ
RATE
р
✓
▁Moh
▁stopping
▁które
itet
ität
▁Ern
lector
를
▁essential
ivel
▁Ocean
▁strength
济
▁Beach
▁quot
好
▁forward
▁meas
▁commer
▁infer
▁lect
viously
▁Letter
▁crate
lang
▁PHP
▁towel
‒
▁vessel
▁preferred
dispatch
inherit
▁Still
œuv
managed
▁law
調
▁him
VALUE
пера
棋
▁mush
▁gep
elasticsearch
ordered
▁magnificent
▁Pont
▁set
▁ble
Sep
AIL
▁stored
urop
关
iece
▁prepar
▁Estate
▁hilar
cery
(_
LECT
▁Status
Info
▁allocated
益
ник
ASH
dis
Initialized
▁sein
▁eligible
▁acting
POST
▁least
FILE
▁Beg
STRING
aton
andom
ogether
▁Ca
▁Anything
️
▁pant
iji
ん
▁ub
]
▁Saf
inputs
ATH
▁органи
CUR
▁walked
▁её
▁corrupt
aza
PF
▁motor
▁ancient
▁clinical
▁jam
▁Eventually
▁peers
jk
ษ
agnost
▁alignment
idas
拥
proof
Her
{}
▁intact
▁Du
河
́
▁DT
▁Bernie
▁место
▁Class
▁skilled
刘
▁yellow
usted
javax
very
▁EXPECT
▁bc
▁spawn
enez
<0x9B>
▁tipo
▁minority
▁survival
▁char
@{
▁substance
roz
과
▁Pic
Sql
Ṭ
Nullable
aky
▁nearest
▁facial
IGHT
▁Movement
▁laughed
Claim
▁mail
VA
▁washing
▁Learn
лекс
▁stir
▁Geschichte
▁meals
copyright
detect
▁Eastern
met
ncia
▁vig
▁answer
▁cinema
amma
▁principle
▁Maurice
elde
▁reject
▁Administr
▁·
inus
ició
Context
▁typ
▁They
▁essay
▁publicly
auc
Serialization
▁vendor
▁against
▁mus
▁tous
▁titre
▁attendance
▁actions
▁wagon
GET
HAND
arent
jections
▁swift
amy
▁namespace
▁seconds
▁analyst
▁floors
청
▁term
shaller
君
ү
elm
iffe
Changed
]+
▁witnesses
<0x47>
▁stret
▁parc
▁incon
副
eto
Copyright
ど
NER
sql
▁There
▁sixth
▁Viet
▁bra
▁passengers
abilities
)&
▁cab
abe
▁Ме
Verify
▁sorts
テ
<0x50>
装
▁appearing
▁scored
▁Context
ド
▁wine
▁до
RW
column
esse
γ
коло
from
▁Serial
▁celebrate
▁spray
▁уча
▁pointed
Perm
CA
ссе
▁whenever
ract
▁comed
▁metrics
schedule
侧
▁emp
▁colon
▁saving
lez
▁practically
;/
Bits
ニ
▁defeat
SYS
<0xDE>
III
▁placing
▁Ent
▁Leonard
▁Qual
▁boundary
cpu
▁cuenta
ST
▁proced
Parameters
getNode
▁critique
至
ños
▁Please
▁Claire
▁fade
iors
bye
тан
▁FUN
▁Ot
▁welcomed
▁(!(
料
▁perí
ᴜ
<0x37>
opt
ат
▁commitment
ments
▁yo
▁erre
Value
zeichnet
otes
Ext
▁Up
ibly
▁bounds
agent
▁Dublin
▁lut
urm
▁internacional
ả
▁oppos
▁seized
tm
▁imped
▁Ox
▁nonetheless
▁\,
▁handle
▁impro
▁Congress
▁concentrated
why
ongo
@@
▁Gree
serialize
▁Mens
▁";
▁instructor
,”
¦
▁border
estamp
sleep
▁Services
▁efficiency
▁promot
constructor
커
▁schedule
만
▁Kong
▁vertical
▁d
▁);
▁ку
eurs
▁loose
iform
AMP
▁UE
Auto
▁inclined
▁nort
▁elseif
▁calories
▁responded
<0x14>
네
▁Vic
▁München
bes
uro
▁accommodation
距
花
ession
eqnarray
▁dummy
tid
Color
▁aims
▁Phone
兼
আ
RESS
▁июня
properties
▁Chat
EDIT
ser
xygen
ather
▁Ju
▁whist
▁Mir
▁Bol
▁hun
рия
▁bringing
London
▁relaxing
刷
ŕ
▁Zealand
▁believe
pshire
▁torch
feld
▁sold
JSON
פ
추
▁controller
▁incluy
▁appears
▁Instance
▁recogn
▁instanceof
єю
羽
▁drove
ycz
▁gloves
▁graduated
ervices
лта
碼
utils
▁fe
CORE
ender
▁film
roud
拍
▁pairs
Aut
▁finns
airo
▁Squadron
▁mil
▁aggreg
ば
ocked
▁Michel
▁zones
ensing
оне
lets
▁caract
▁county
.,
ської
ผ
arian
idea
▁followers
▁warn
▁search
▁wall
▁марта
▁pretty
emp
▁refresh
▁NGC
▁principale
▁estud
cule
anel
▁dash
▁thick
та
▁shr
▁Eug
charg
▁rede
Normal
ís
▁Political
~
▁mét
数据
▁Finale
ை
栈
ье
ਾ
attach
Home
▁injection
amba
Vo
argv
тет
';
clone
▁JO
▁Mountain
▁Rom
▁Err
zero
locked
▁ese
▁reprodu
▁rent
beck
أ
ła
iao
▁Metro
ign
▁affected
nych
рон
ʹ
▁snap
胜
▁sty
testing
▁vacuum
使
aff
IE
plac
shot
Raw
▁lors
any
ests
▁lips
▁Ross
otto
textrm
encing
orneys
▁Buff
▁Contract
▁ri
IsNull
Ка
เ
▁attacks
<0x4B>
▁Point
▁not
RESET
jek
Child
▁lane
aimed
би
▁||
мон
▁activated
▁errors
▁russ
vol
вро
▁@
▁Ident
ղ
parsed
照
▁rv
>',
▁sugar
Resolver
▁cours
▁tree
razy
rä
Mer
▁gradually
▁Mo
▁specified
▁silent
ío
unächst
вия
middle
▁Microsoft
▁closest
▁update
▁gaps
▁Opp
UE
▁MOD
Hol
pack
▁ancest
ifting
Proto
hos
▁filename
skiego
)$
✅
tan
▁кар
fab
第
Container
rase
▁auch
Bank
ayout
▁fraction
▁detect
()).
▁territory
ad
▁remaining
ency
▁'.
▁arguing
println
contrib
rying
▁Factory
Split
Level
ній
LAY
Modified
▁Championships
ogs
achen
▁varied
▁tolerance
▁meaning
選
isons
deck
EMP
▁Barbara
▁earning
ibe
Bro
//
ül
Helpers
atic
▁Jordan
encode
en
▁produced
<0xAB>
▁Fisher
▁Sat
丝
▁foundation
▁spoon
▁Don
▁namely
▁україн
subject
▁searched
▁Cr
▁priorities
äß
▁creep
▁defensive
▁ki
hal
▁Harr
▁novel
號
將
íses
約
然
ھ
<0xA6>
Drawable
ião
▁average
忘
▁swung
▁inputs
alties
Count
残
nf
notation
bg
▁enabled
▁venture
eren
▁infrastructure
▁fig
intage
객
ss
ше
INFO
loop
▁fascinating
ails
▁El
evel
agma
Retry
▁manufact
▁guests
Ag
▁S
onymous
<0xB1>
▁fd
▁glo
표
▁Panel
▁Commons
▁sister
▁stain
▁floor
▁Sand
▁barrel
ament
▁ridic
io
▁communications
▁TH
reation
探
by
▁mathemat
DEF
гі
▁ranking
зни

▁Fr
Term
ess
능
▁assessment
▁jumping
▁Make
photo
▁vom
▁Total
season
▁Battle
frastr
▁stalk
결
ered
▁banks
idelines
▁Ok
▁Blues
entials
限
▁Chris
enue
▁destac
ញ
ised
ypes
ulate
▁де
▁puzz
▁Water
▁'')
PEND
わ
▁Top
Ops
idd
▁claims
arest
inn
attrs
▁Jews
▁retail
▁llam
遗
▁stepped
▁nem
▁fantastic
oubt
▁Iss
ubern
▁août
▁Berkeley
idity
listed
hon
▁complic
icals
WAY
▁device
deprecated
▁Ré
yaml
ud
템
iforn
▁ongoing
▁kids
▁rows
▁article
▁defines
PDF
兰
▁music
owner
▁None
▁ins
skich
ior
ager
দ
▁wolf
目
echo
Widget
▁tattoo
▁absorb
Vi
▁этого
▁Word
▁Saudi
▁Eng
batch
▁LO
▁dry
geq
rip
KERN
▁dedic
ourses
thumb
▁Imm
human
orio
址
坐
▁Marian
upport
wr
败
ED
▁pří
▁Brit
▁Model
▁frag
▁outrage
Users
▁Cool
▁ji
▁unexpected
<0x1B>
DIR
▁Brad
params
<0x2A>
▁libraries
▁upon
userId
HANDLE
ices
NotFound
▁nov
▁року
Mill
▁Roman
▁Suz
▁Влади
uer
▁ref
▁regards
▁developed
▁charm
▁e
▁mobile
ça
adem
▁музы
▁further
▁visiting
▁Execut
++)
ês
▁blo
▁df
▁sous
iddleware
cli
▁Trans
pcm
inho
download
▁hum
▁modeling
▁Chicago
▁implemented
validation
融
ience
egy
▁add
▁spiritual
▁excited
拉
ORT
iert
▁Cambridge
мов
efined
▁Cry
dyn
▁resolution
Prev
▁safe
cembre
Pipeline
pha
▁ін
▁Australian
{$\
▁very
▁provide
Keyword
孝
ж
liter
▁bez
arg
ソ
▁•
▁recognition
tal
▁overflow
PRO
bal
▁star
<0x7E>
the
▁took
▁invalid
▁е
▁underground
repo
▁CT
▁Isabel
▁Veg
▁Southern
▁vertices
▁duplicate
▁navig
В
有
▁Herz
论
▁authority
packet
▁weiter
▁was
▁Ш
/${
inc
交
ᴀ
😏
route
▁infinite
▁із
collect
мене
▁архи
ení
ؤ
called
▁že
dirname
长
<0xC0>
subseteq
▁holy
ra
▁secrets
▁models
ICATION
idents
istes
ා
PUT
▁Gray
simple
디
▁adoption
▁nobody
ʋ
▁during
▁labor
TRY
clos
▁Are
parseInt
rotation
Ill
Kit
tl
udd
▁Adult
▁similar
▁confirm
▁#[
rcu
▁dream
▁desert
лен
Some
графи
Paul
oise
▁tex
▁ot
▁wealth
▁Население
几
FF
цю
ouver
aren
ствен
Folder
ival
caption
▁må
defined
▁"";
apon
▁hoof
▁Min
▁Por
▁cual
▁evalu
▁ва
▁over
▁chemistry
▁INFO
▁Mort
▁emails
▁def
天
,_
▁CA
▁bowl
▁годах
▁vess
▁ground
ferences
Registry
судар
ња
▁där
▁ctrl
▁science
nog
ored
▁describing
▁date
▁Load
▁разви
▁frank
▁Andy
urb
▁At
owski
▶
တ
▁bec
anas
liest
▁breathe
lando
▁Later
▁drain
ellers
ін
▁interpretation
▁Cele
행
att
oi
▁Aber
▁screw
▁había
<0x98>
ay
neys
▁syn
ToString
▁December
HTTP
▁gorgeous
▁begun
▁pilots
atter
aro
crement
▁ASS
▁«
▁ма
Shape
▁фон
egin
iana
ancia
oa
него
▁Hav
oj
Loop
▁Comments
Style
▁Peter
▁dual
uuid
▁women
NEXT
Func
▁whisper
▁confused
采
避
▁verified
Th
Grid
aring
▁definit
▁Sor
▁addressed
う
▁Oil
jed
Plugin
▁fond
vy
▁incorporated
▁design
▁sag
無
▁м
▁motion
Workspace
THER
Int
schema
▁Secretary
▁који
<0xB8>
▁insert
itutes
APP
▁смер
▁Pacific
載
Available
bris
▁ю
▁happening
▁guides
▁april
▁Су
▁serves
▁direct
--------
▁invest
▁mud
▁Bog

astern
▁распо
書
▁Ja
▁deployment
project
▁de
kom
Fin
▁rated
▁survivors
▁gene
狂
яв
beans
火
▁tr
▁db
▁Kn
▁spotted
leted
▁interior
')
dead
▁spending
Number
▁nick
▁The
▁trait
数
●
▁rocks
copy
glas
▁km
▁psychological
▁Park
webpack
▁meets
equation
▁papers
▁female
▁targets
TypeInfo
▁preserv
ètres
ár
▁commonly
铁
ek
▁come
зон
링
▁thoughts
▁traffic
è
▁Excell
owe
▁submar
emporary
▁influential
▁Chem
印
amiento
.[
▁disk
builtin
▁Circle
oth
▁bean
yal
Č
▁dess
^{\
pt
▁голо
sequ
▁backpack
▁Manhattan
icker
▁се
▁Italia
▁Mig
▁descriptor
▁knew
▁том
am
Keys
слу
itize
▁at
ља
ribute
▁murdered
▁Sql
inator
▁Jahr
▁Had
▁engineering
CRE
ome
uty
▁Operation
aude
Ant
fold
Criteria
▁attribut
börd
▁Glen
🤷
slave
บ
🟠
▁veterans
win
▁advis
eme
잘
记
Gold
num
▁subscription
▁psychology
▁Science
▁turb
▁SW
▁sword
Pet
̄
▁Owen
▁gan
▁LIABLE
тий
▁Gy
▁Ан
▁EM
Policy
health
SED
hbox
▁Rhe
사
decor
region
▁represented
▁OF
role
▁contributors
▁value
define
alias
ต
▁platform
▁bored
▁missed
за
alle
▁AT
érica
布
▁деревня
ting
▁Phil
▁amazing
Var
érc
▁Hash
=%
<0x58>
colon
▁Planning
expression
▁called
Contains
▁région
▁polit
каз
▁neces
://
▁deze
▁mientras
▁simply
▁лі
▁progressive
▁Sund
勇
▁Things
äd
sembl
▁cir
▁Norweg
ណ
▁Ott
ottage
compat
ilians
▁theater
</s>
white
▁went
그
▁navy
▁mini
")
▁guarantee
omo
▁bewerken
建
▁Master
▁segu
вий
▁invent
▁scal
▁Villa
blank
ára
itated
▁distribute
ˌ
istry
▁lapt
до
mail
URI
▁carrying
▁steam
ôt
▁veter
iffs
LEN
▁claimed
▁Philipp
▁beyond
▁Labour
ícul
icated
enties
ція
NaN
ublic
▁militar
ald
▁figured
ö
▁Abstract
▁Event
▁Sal
却
▁alien
unnel
anked
▁noch
▁colle
▁dign
ger
Я
▁grounds
▁mol
idades
▁housing
▁logging
▁job
▁earn
▁tell
keit
▁dot
▁Thomas
▁pose
/
▁Все
▁appointed
tcx
▁parseInt
▁Gest
verted
<0x13>
▁dive
堂
▁Io
▁IBM
립
ката
▁Р
▁crushing
▁eines
▁sky
tle
▁bott
▁Based
▁threads
▁But
▁comparing
▁Het
abase
▁median
env
▁NET
▁arguments
▁Airport
▁similarly
PRESS
▁Copy
▁ciudad
▁Lar
▁Singles
▁captured
▁Refer
Function
▁să
명
▁Cancer
▁goog
▁об
▁Self
▁lap
reens
▁distribution
▁Build
iny
▁tracking
▁size
adi
▁triple
▁за
▁sovere
▁Мекси
▁Invalid
erst
▁experts
bil
err
▁..
▁Graham
▁ci
irat
rek
uw
Country
צ
▁Claude
ло
▁travels
AspNet
▁demol
▁incorporate
ждения
ши
▁PT
stat
Foundation
ében
ifndef
▁conting
▁Sus
Lo
▁supplier
▁relationships
▁burning
enschapp
ler
▁),
▁less
itched
▁side
subscription
⁠
▁aver
geb
–
ძ
Audio
bel
▁chap
DOT
wrap
dk
idays
▁corn
▁elevator
▁overcome
Arrow
▁PK
slice
apt
Symbol
Constructor
▁Steven
Three
umi
▁Theod
▁PDF
▁Orleans
yll
▁earthqu
<0x80>
▁Dow
și
▁divisions
ACCESS
ข
Download
▁Section
пар
▁curv
yg
Gl
ak
哈
CEPT
жение
▁Whenever
▁call
▁federal
ク
actual
ws
Codec
tv
Plan
wy
▁Ring
="
unique
応
▁Communications
▁"
Gap
H
VICE
faces
▁belt
▁emerged
ENT
▁td
▁wild
▁Mol
▁freed
essa
▁qual
Υ
▁Enter
▁tent
The
▁cameras
▁proper
▁spring
▁warning
▁biologie
▁Fight
▁stars
▁VAL
left
▁TO
▁saison
ifik
aggi
UserId
▁homes
▁Sp
▁Ire
Bar
▁drei
▁pert
▁Una
transport
ado
▁deb
▁households
▁slave
패
ows
▁Democrats
키
▁vibr
onel
oped
Did
▁traged
▁blend
已
▁gross
▁пере
ebug
▁prote
▁Miss
omsnitt
ფ
▁Partner
▁Fall
ups
▁doesn
onic
rate
armed
▁Freedom
▁tags
注
*-
▁cor
MT
▁voice
Room
VENDOR
▁неза
`);
iable
▁Test
▁Integer
▁begin
(\
▁march
intendo
▁Peak
▁snd
▁nei
▁Electric
▁использова
itarian
▁hungry
Tip
vod
▁Schwe
нів
▁Hug
ional
▁throne
rake
▁pagina
▁effort
▁Japanese
ере
▁Constant
▁debut
klahoma
▁Cra
▁coordinate
boost
▁floating
▁bread
테
rons
ust
ǝ
▁hands

plies
Sequ
▁equ
圆
▁doctor
▁varieties
▁annual
reich
▁trou
oirs
▁AM
unlikely
▁Bl
▁exhibition
▁ré
▁asks
▁neuen
SOURCE
็
，
▁Internet
ighter
нием
▁triggered
▁resident
ifiable
▁hung
▁compliment
▁laws
ascade
▁Ver
arc
▁Republic
จ
▁broke
▁tea
ſ
ル
▁dispon
▁govern
getValue
Wr
▁espa
▁accept
▁sua
PR
<0x3B>
ako
instr
extract
Access
▁comb
▁Others
▁мест
necessary
▁Arbe
ग
hing
ើ
ije
iff
▁Ralph
▁Mün
Ann
▁DS
▁implications
|\
▁partnership
填
lst
cciones
Sprite
▁nons
▁altri
след
▁decid
振
<0xF3>
error
▁message
▁intu
▁wom
參
▁became
국
▁FR
ο
▁wedding
▁bench
ins
ке
▁frustr
DataType
xx
Amer
fy
ugins
▁appealing
▁Physical
▁years
▁'',
执
ending
;\
▁trade
igin
▁Bry
ã
▁wear
▁animation
▁Der
猫
▁daughters
}
orph
Final
alert
Men
▁promises
▁introdu
Column
escape
ire
"].
档
▁trip
▁Name
▁civilian
Video
▁General
imum
▁har
графі
▁drops
Vis
▁tanks
条
frac
textwidth
▁siendo
ole
▁ig
▁viagra
斯
Safe
降
▁hack
arry
headed
up
▁Yang
▁row
dm
ël
bc
ister
▁As
от
Done
▁distributions
完
ühr
▁pie
=>
▁cmd
мат
▁org
ancers
▁curves
control
▁generation
row
▁-=
▁military
▁[],
<0x34>
select
▁Theorem
OFFSET
▁Arc
▁чтобы
RI
▁quien
дь
aker
▁Exchange
▁выпу
▁Jorge
▁филь
衛
▁elaborate
▁истори
▁$\
▁Edward
▁historian
changing
seed
▁'"
▁--(
itate
▁whis
▁states
▁aux
▁Ask
ologists
▁харак
▁apart
▁submit
▁Se
染
loc
unch
story
ishop
▁лет
imp
▁converted
▁Baltimore
ique
▁Information
▁absorption
▁conn
render
Reply
Unexpected
grade
ремен
ags
fö
▁unos
╚
▁Director
▁Prest
solete
▁puls
zeug
alter
▁analog
▁secretary
ping
▁sib
▁Brow
▁psych
ificate
▁patterns
▁mole
OPT
▁incor
▁Switch
▁cx
components
▁Sout
ument
ng
rico
▁unfair
▁Roose
Something
▁luxury
▁damages
▁Sophie
ider
▁Dorf
uilder
▁midnight
________________
kill
⋆
▁перио
fulness
лу
▁Bishop
<0x42>
▁Contin
ะ
▁ext
▁Due
タ
IENT
ORD
Й
▁director
▁scheduled
়
gfx
▁Token
did
▁Mun
他
▁}));
▁Operations
▁Display
otos
ią
▁mort
chod
none
▁Ав
▁unlikely
▁uso
▁mai
▁noting
bling
ститу
장
▁According
折
plier
Next
▁przed
ipper
AUT
▁embr
iron
alone
ément
ajax
̈
▁);
▁haven
hall
波
▁GL
▁boolean
▁existed
eps
cu
▁goodness
▁SIG
ara
ondo
▁ti
ref
inta
건
▁Murray
守
▁First
cknow
▁beginning
▁DIS
ują
▁construction
▁informed
▁feelings
ena
▁его
▁beim
백
压
ṅ
rah
▁Place
emony
ización
ista
▁Ric
▁город
▁children
▁Print
▁duties
ం
▁SDValue
《
▁emerging
▁poorly
шли
stra
May
ших
▁Eld
gew
▁beating
惠
▁foreign
▁reasoning
▁worst
▁airport
▁chances
<0xDA>
▁inspiration
▁autre
▁noten
DEC
さ
лект
▁grasp
神
▁companions
веде
<>
ło
▁Down
itational
▁tests
▁cent
wend
▁jeans
RANGE
ᴏ
ʊ
▁Ö
<0xEB>
ето
esome
té
▁memorable
azed
<0x70>
▁Twitter
▁Е
days
▁Karen
WARNING
▁indu
▁finished
▁orden
▁configurations
争
pute
cover
aben
▁Mey
▁bent
Ins
台
▁Ark
erman
▁acted
▁divers
▁arbitr
▁forma
fw
▁Á
ures
▁eigen
▁rot
agna
▁pregn

▁consequence
лён
Typed
▁imagined
▁Tan
▁planning
▁patent
▁Sequ
▁Aur
▁arrest
▁Return
Sigma
▁International
▁passage
▁believed
▁Health
using
model
Photo
▁would
▁kid
▁camp
three
icro
compatible
안
red
words
▁tuple
▁shifts
нее
augh
▁pipeline
▁kon
erk
cluster
bd
▁dwell
IM
Metadata
▁token
▁climb
▁viewing
destroy
output
<0xB5>
🙄
▁kam
卫
ǎ
▁Fire
▁dig
pository
▁Br
___
ặ
gue
▁pré
v
▁vaccine
▁när
ĭ
зя
▁Го
Bet
▁[]
▁modern
Merge
▁hasta
▁err
▁\]
▁aan
▁Song
▁washed
rick
▁Rub
▁ANY
ilarly
paid
▁Mut
itut
emperaturen
▁propag
▁land
pci
▁sole
_
nb
▁Virtual
车
▁flows
▁honestly
inder
ّ
not
▁alter
▁horizontal
Dim
整
▁soc
▁entries
▁receive
aks
▁Cart
onders
ana
▁niveau
▁Charles
▁baseball
▁rage
maps
▁состоя
approx
▁Stewart
rien
▁бри
▁dial
▁fifty
▁ao
▁business
мож
▁bankrupt
da
orious
し
▁extra
alen
▁intel
Price
▁financing
Cor
▁racism
▁dentro
▁intens
ovan
seq
round
tau
lev
acions
RE
▁inaug
▁journalists
▁invån
}}}\
acji
▁Korea
▁idiot
▁publisher
($_
▁Vict
▁cls
▁Military
▁wire
▁copper
▁deutschen
▁Create
auf
ட
dbg
打
▁GR
▁Lond
严
level
ссо
angled
ERY
▁plastic
▁Sort
rias
haust
署
▁MON
indo
{\
▁Commerce
'_
ге
▁Sydney
▁Can
▁swimming
▁eliminate
▁hair
create
▁detection
▁Brian
▁angl
iso
borough
▁nerve
▁Data
▁own
▁rest
▁est
▁inst
clear
inden
▁Map
vet
▁RET
issues
려
agne
▁dont
▁Local
aniu
omin
慢
irst
SON
拟
▁clan
elij
钱
▁beat
▁vec
arily
▁Chair
▁r
▁qui
▁buying
▁rival
▁ferm
tool
▁portfolio
drag
}}$.
▁aument
▁JS
▁filters
action
ody
theta
?(
运
aper
bits
CTRL
▁immigr
oma
▁punt
▁Muham
cz
Edit
ELD
('.
っ
▁and
▁analyze
standing
<0xA3>
▁Urs
▁Foster
▁lowered
IDENT
▁Bright
▁tunn
̪
▁("
igan
umbled
▁CHECK
iri
▁Hon
▁employer
⟩
▁writes
▁improving
frak
▁cob
络
八
oust
▁цер
FW
recht
▁murmured
▁dealing
▁poc
コ
Refresh
▁invol
▁keywords
▁роз
▁deliberately
▁Vec
epper
▁отри
iles
沒
😆
GE
acular
▁shame
會
︙
adelphia
ท
▁naval
森
▁evaluation
▁Mars
Shared
gage
▁Parameter
чи
ỗ
▁AUT
▁Following
▁Cold
▁Airlines
▁immune
Di
must
ビ
▁again
VL
›
▁includ
extra
▁dragon
▁severely
ologia
▁Ber
▁gotten
пад
Bin
樂
▁Get
▁pendant
▁profession
ci
▁ro
▁che
рю
▁stunning
▁Clark
ह
licenses
▁jer
▁Tom
ahr
▁birthday
▁White
Environment
сту
.*;
factor
ности
opts
asts
*,
▁swap
eral
▁advised
▁wiped
▁Ј
▁disg
ʲ
cp
aim
▁Works
▁Wis
ɯ
▁apt
SA
ERS
printStackTrace
▁substitute
<0x90>
▁mp
考
▁Looks
thern
举
force
▁Tow
▁wid
▁Senator
▁Teil
▁academ
ades
ierte
Board
bew
Appro
▁camps
▁conse
lemagne
▁diab
▁gau
LIC
居
Same
▁zam
▁Ferd
▁Hawaii
검
우
'.$
▁!!
▁smoothly
raise
While
設
写
▁Supreme
▁low
▁torn
camera
P
▁Mediterr
▁Hoff
▁CEO
▁tables
▁Daw
raph
▁SE
▁loyal
сти
ashes
Luc
▁needed
################
ERNAL
Rend
▁wh
produ
fprintf
Η
▁Alan
▁residence
who
₃
▁Princess
ro
лаго
▁Machine
ye
▁trains
▁jaar
ez

급
ĕ
频
▁Aw
▁significantly
>';
mutex
isi
EAR
STOP
FP
▁sad
云
▁sud
m
Of
ador
▁rate
▁reign
년
▁mov
▁feet
▁titolo
▁Monitor
▁dirig
▁vý
д
▁wsp
insic
ђ
▁io
second
▁overwhel
▁producing
opy
зи
gov
▁shocked
▁energies
<0x94>
▁PI
▁Pict
▁card
Switch
성

стов
▁пла
▁полити
▁vide
▁grin
igious
▁spokes
лий
▁za
ứ
▁everything
Stop
<0xE8>
▁accom
▁complaining
武
emb
FD
fection
▁collabor
Mon
▁'';
▁TV
nak
▁promotion
ла
colored
ady
Cast
▁MA
Ş
宣
納
▁terrified
▁Page
ней
▁Ori
Html
▁fourth
▁rapport
¢
xi
üng
nesday
▁thy
设
lp
DF
▁Android
마
▁saved
피
-------------
恋
句
arp
▁ore
selection
)**
Std
▁Journal
arness
▁efficiently
▁provoc
▁Peters
▁dom
neum
wind
▁params
▁industries
▁mixture
iones
▁proceed
gebra
▁stru
▁Another
▁pollution
▁slow
compass
枚
▁eng
ا
spi
td
▁struggling
▁bed
<'
'''
ز
陳
isset
"));
▁focusing
▁Railway
ner
▁barriers
fin
▁accepting
othe
▁listed
imir

▁port
▁calcul
Star
ieties
▁therap
yna
astically
ureau
▁symmetry
▁acquis
ried
<0x22>
▁Package
▁Single
静
Depend
Gr
▁sim
▁Gall
나
=*/
▁given
▁Medal
▁southern
▁concl
▁phenomenon
▁losses
?!
▁Pay
mult
▁falls
▁RC
🙂
្
▁CBD
▁furniture
Angle
boot
▁Jac
vid
istas
regex
▁э
">
▁exceptions
▁drop
()]
個
̇
▁advertising
pathy
▁flower
▁compatibility
hell
▁Die
▁component
▁Mai
Per
▁й
character
塔
▁atom
前
wicklung
amar
▁fuel
Press
▁teach
▁appar
▁До
center
xF
▁Ka
bundle
世
orb
▁слу
▁habitants
▁Q
▁това
▁scores
Sender
▁conditions
VE
▁subm
bio
kem
▁hy
direction
怎
кт
uto
Bool
会
appropri
yk
県
VB
▁eu
ớ
olving
▁loc
▁organized
iting
ând
▁Mix
Mont
roit
prof
▁дву
editor
▁fl
▁sele
age
gen
▁cosm
FILTER
楽
▁DB
edes
▁despite
Acc
▁funds
▁CP
pping
ivery
▁practice
ు
▁FILE
▁beneath
▁ben
▁module
Pay
▁shows
helpers
▁lowest
ộ
нан
▁lä
widehat
^{-\
▁wives
▁Dutch
▁Ро
🇺
▁len
orr
니
Matrix
▁above
itori
▁Å
▁femme
▁revenge
▁Everything
▁lust
<0xD5>
弹
сня
imiter
▁дома
VERY
▁depressed
yst
Authorization
WE
▁emphasis
ify
▁не
▁basket
▁finite
Distance
▁heritage
follow
▁indicated
^\
isc
▁Having
▁influence
▁són
▁brit
▁vä
▁Del
▁Jess
ḩ
▁talent
▁ok
▁grim
▁italien
Ob
ILD
Don
riev
▁debt
environment
▁vice
▁XV
▁compassion
▁tires
estr
▁outer
▁pharm
▁комп
▁Fed
▁schemes
Parallel
reshold
▁disease
▁alt
Locale
▁worm
▁eternal
sidebar
▁↘
▁les
▁sempre
▁ritual
▁Tru
aches
rise
limit
Struct
.');
grow
!");
tu
EQ
ctrine
PARAM
mesh
▁bubble
ona
▁Samuel
▁grades
▁они
▁complex
intent
PLAY
aria
ffff
dt
opl
达
станов
ọ
▁this
handle
.\
▁additionally
icle
▁vie
pc
CLK
Allow
");
closure
▁ст
exper
UUID
ништво
trait
▁від
▁NULL
▁Protest
urity
▁Members
)){
共
▁dust
<0x03>
ço
▁encore
▁bras
▁kilometres
▁relax
AG
▁Boston
units
▁allerg
▁Bas
TabIndex
层
▁első
▁product
jem
▁Mittel
ம
Items
pv
▁uint
riter
***
▁rus
▁Nap
প
aly
bars
p
ва
▁NBC
▁Cycl
▁managing
洞
=\
wedge
<0xA5>
arante
▁dalla
▁Kan
隔
▁W
က
'"
o
▁clusters
▁trouve
▁GT
▁dal
ville
structor
▁Darwin
ι
▁gap
ARK
inated
▁ease
▁Ga
▁Kil
▁gmin
▁Dev
ising
ión
▁screening
▁via
iens
ifier
▁grande
aison
▁foo
ै
▁predicted
▁suggesting
▁bags
pers
▁equipo
▁Vari
nings
сі
once
IST
거
媒
▁Graph
到
▁operates
green
zenia
▁institutional
┘
▁PAGE
oro
▁needle
▁cred
▁TR
▁keys
{}{
▁insisted
▁Save
▁approximate
Monitor
Cursor
<0x77>
▁extrem
允
vest
updated
▁кра
unes
ī
▁younger
▁zu
▁==>
ika
▁log
▁needing
!=
Disk
TRUE
archive
▁River
rings
�
▁driving
▁fright
ployee
▁Sciences
▁arriv
▁quale
▁stat
dma
▁congreg
soc
▁Peg
▁прави
▁ha
▁oak
uggest
ars
Str
piece
pires
▁Connection
▁sign
Percent
▁profiles
ень
▁Buffer
▁Ned
▁peoples
шин
▁ambitious
cre
olic
▁amid
hid
▁Jesse
▁Ge
ieg
wich
▁paragraph
▁loudly
umper
礼
▁Description
erialize
äre
▁conten
▁divor
▁entity
▁consolid
sto
ermine
▁Oscar
▁fem
▁highway
▁zm
nat
▁restaurant
▁portions
▁bef
▁collar
пі
▁prest
AUTH
Builder
▁/*!
▁cultiv
):
fte
▁tro
∼
dynamic
zec
▁After
▁degli
>:
▁austral
▁"/
▁assembly
associ
▁Ор
Pin
LEAN
▁priests
°
acter
▁чи
Å
▁Mexican
▁EDIT
Tax
holm
▁neighborhood
▁Hell
▁isolation
cent
ron
hit
▁variant
PA
▁may
ktur
ikk
▁pref
qq
▁doctrine
tes
▁П
MO
▁était
or
parameters
▁Low
uru
mans
ceed
▁clarity
ighth
▁het
▁Best
forward
▁suiv
duration
▁since
▁conscious
BA
CURRENT
MenuItem
▁ker
▁ante
uetooth
▁Deal
ний
▁К
▁mě
▁Ba
authorized
▁biological
▁cam
Preview
rench
pless
▁Drop
光
▁story
sw
istence
▁commit
▁Islands
iglia
▁desarroll
▁Environment
断
▁analy
igt
详
ily
theless
PRIV
umble
▁wp
bootstrap
ție
cken
attro
ingle
iju
light
igung
▁Über
▁Wer
▁rep
▁hits
orous
acs
▁Family
▁reserv
ський
▁**(
💜
▁tub
bat
Timer
▁ні
▁Welcome
▁Motor
キ
▁Avenue
▁Studio
▁Kentucky
▁leaning
¬
<0x53>
▁Account
▁Vice
ступа
▁Roche
▁assure
UNK
▁thoroughly
▁inher
▁dia
▁trem
▁paintings
ike
▁vál
ﬁ
▁Guide
▁exclusive
▁аль
ARG
▁originally
rowned
▁Trail
▁Swedish
▁Complex
▁repairs
▁investments
chet
▁wo
cong
직
linear
▁Story
half
endar
Metrics
hum
▁cris
isterschaft
▁femin
rn
▁Eff
▁answ
▁dealt
▁pubblic
▁String
bf
allet
▁educ
Limit
іс
▁tossed
cción
▁Pray
ilor
▁inc
▁cried
▁travail
康
▁flames
▁Death
▁buzz
_**
标
ٹ
STM
▁up
▁Pom
button
姓
門
ial
▁Safe
▁sank
ἀ
('
kv
▁Storm
ícula
發
▁colours
branch
▁Northern
▁already
▁flying
Base
adém
▁Poly
Uniform
чо
▁Files
▁excl
▁bus
System
tri
▁mechanisms
▲
▁refuse
▁Dim
权
▁Hend
師
末
▁Reserved
▁jokes
▁pepper
▁strings
Du
▁Race
▁follow
esh
cou
łu
迭
▁которы
▁satisfies
▁offense
▁Trust
oking
Username
▁Item
▁accus
ツ
▁Therefore
征
вест
uate
션
▁orth
▁Fun
Props
iple
alls
▁looks
▁started
Boot
ய
▁programming
▁Start
▁Company
Remove
▁tablet
con
<0x23>
▁Jen
▁dip
▁located
zten
▁begins
▁Isaac
▁französ
▁calculation
ogene
▁Mic
bbing
▁marked
▁upset
▁recognised
<0x25>
▁situated
USB
riors
rw
ceiver
▁node
▁kn
▁unt
Bundle
▁Bed
Exper
▁devast
ories
alion
▁shy
担
▁tort
▁Namen
▁persona
▁blowing
▁Present
▁refugees
卷
▁х
Б
Leg
catalog
附
sam
perties
언
▁variable
["
roups
ibile
▁presidential
▁fears
▁instances
Multiple
途
▁voc
▁"(
Email
▁provider
unto

▁Ny
\,
program
Ar
)",
third
propri
▁gun
▁ASSERT
▁$|
▁dialect
▁aur
wen
▁fusion
mbox
闭
quant
▁folk
▁summar
▁його
aría
ają
▁deport
Typ
态
▁tempo
<0xAD>
▁collective
VOL
而
disp
EC
▁Colin
擇
▁dere
▁Disney
vscale
▁seiz
町
戰
운
▁Seg
uerte
ference
ased
▁Duke
e
▁Arr
Signal
osz
▁crew
sburg
▁searching
[]
▁injury
▁Nigeria
『
➤
Servlet
▁withd
▁identify
▁approaches
ು
rifice
▁woke
私
▁dir
OFF
upper
▁AC
▁Zone
)}(
<0x0D>
▁casting
aire
▁kept
▁loud
▁Ivan
▁interesting
ipage
ights
▁Sta
??
bru
洋

Ne
▁haar
oenix
🔥
▁imperial
▁Both
▁'#
riculum

▁msg
▁abril
đ
Information
actions
▁couch
▁Hir
▁Task
Bounds
▁args
apping
mathrm
▁Mom
▁famous
▁Forest
▁Device
codes
Bucket
rib
▁global
Keyboard
▁otros
▁enforcement
▁autonom
▁dominant
▁Исто
▁raises
ison
Po
ikh
▁Pun
▁live
▁Ret
▁Care
▁launch
mapping
assets
▁aston
▁developments
▁Distribution
GBT
▁Januar
String
▁punto
ца
▁regulations
▁CBS
▁signific
▁Ż
▁cap
ners
▁Ward
MS
▁shaking
▁Choose
Fill
開
박
_{{\
足
▁entonces
oser
▁olive
<0x97>
ederal
▁Vik
מ
钥
pression
————
▁Suppose
▁eer
包
▁Perry
▁stands
ec
之
▁Past
amm
더
ieu
▁Army
ste
▁Minn
▁Shah
▁World
▁який
rey
▁Pand
▁ges
INVALID
▁Pete
▁issued
▁Queensland
▁technology
settings
▁entities
Editor
正
▁MIN
there
vard
Slider
▁indicates
Sam
Ok
▁anytime
▁connected
print
▁prot
▁Dance
▁reporters
▁Arabia
▁expert
ibt
▁active
σ
線
▁Rachel
▁profess
▁stick
akers
▁chang
xy
养
▁sulla
TION
MAC
▁arom
▁Social
▁tiempo
illet
▁Alexand
▁any
▁ceiling
▁collaboration
▁wore
▁Songs
Hey
雄
▁quarter
pgfpathlineto
▁More
<0x87>
▁utterly
Face
Non
ently
tered
Feature
Graphics
although
▁embar
▁kissed
Reader
▁injuries
▁quadr
")));
▁reached
▁назва
▁Са
杀
Required
aten
mar
▁Em
▁goes
▁expl
teen
/**
ژ
▁interference
▁полу
▁som
▁curse
eq
▁candidates
▁observ
▁Christianity
▁commercial
Hen
▁toxic
▁reflect
▁Days
ಮ
år
▁Christian
LOB
rightarrow
)}_{
▁Phillips
war
iga
▁sympt
▁*)&
мі
▁expanding
ロ
Could
ution
Direction
▁wrote
rian
medi
aves
▁fel
POWER
Bay
▁déjà
Validation
▁;
▁forgive
ヒ
▁phrase
▁pity
▁cv
▁questioning
ospher
▁Fourth
endl
align
Variables
임
avi
▁improve
▁COVID
)$.
▁Import
ace
乌
orial
lagen
▁amongst
brew
▁Interest
abases
GPU
jor
akt
▁achievements
symbol

email
▁resp
▁lu
▁".
脑
HH
▁challenges
▁mere
orsch
ữ
rayed
提
▁kwargs
::
▁also
gb
▁Во
Images
▁Hay
▁quand
eff
det
▁embarrass
▁hole
▁Associ
▁Mario
▁expr
istributed
ʏ
測
Observer
Handle
▁eyeb
calls
▁Trad
cipe
erei
▁venue
▁admitted
visit
른
▁Lol
▁allies
▁App
▁By
WM
▁Canada
▁Met
际
▁keine
▁tasks
oad
ante
▁Т
ེ
ському
foot
anted
▁exposure
AH
)}}
▁door
Tab
=_
horizontal
▁sacrific
▁firm
м
ict
Clear
в
руп
▁кре
don
cleanup
▁Tib
▁join
Idx
▁relay
(['
)_{
▁clause
Warning
▁Ontario
▁Bulgar
▁DNA
▁IMP
▁occasional
▁long
▁Assembly
▁lég
▁consensus
пре
▁“
▁|=
▁RT
Q
▁notation
ue
atform
чення
พ
Omega
scar
▁neck
▁Above
점
▁swear
indow
MF
～
agi
!\
▁Fellow
caps
▁visit
point
▁shore
▁$-
foo
▁perfect
geometry
视
E
▁Greg
labels
yout
ď
beit
▁naj
▁encouraged
▁lovers
▁escape
▁conducted
▁spont
ി
▁flick
▁constru
▁Kiss
港
▁slight
▁neural
ją
mann
▁fruits
projects
▁Then
<0x19>
elly
▁encuentra
▁approxim
▁sea
öst
▁except
▁Recently
agen
Encoding
VEL
▁properties
▁Index
antes
▁Fleet
▁put
▁circum
ĉ
▁imag
▁parts
Please
ARRAY
▁Into
-->
azu
Change
▁Heavy
▁fac
▁Lady
▁cleaned
▁>=
▁Ł
▁Cat
▁projected
字
fs
▁bom
OR
▁Someone
▁splitting
lections
▁lev
▁ma
▁suspend
▁Israeli
移
reat
▁carb

ond
▁settled
lä
ста
▁agencies
Џ
仅
▁Adam
▁HD
зва
▁mechanics
▁Ald
uster
ánd
▁chemical
▁lose
▁ces
isArray
App
▁visual
stant
▁(+
▁he
MIN
👀
▁criminal
icide
▁assum
<0x4F>
▁dst
▁July
▁'@
▁En
shake
large
▁heav
translation
fake
arguments
ภ
<0xD1>
Dis
▁сто
▁rab
▁EN
idth
thon
▁selbst
AME
▁refuge
▁en
▁Aleks
Serial
▁Land
ór
▁youngest
MED
Errorf
∙
毛
▁Layout
see
▁lobby
▁revers
▁CRC
▁unknown
plication
реди
▁default
▁oraz
갑
âteau
iments
operation
▁Bened
MX
,
Objects
▁Alt
▁eb
тки
▁grabbed
▁legacy
▁Russ
▁SV
넣
▁faç
lear
▁newer
▁WARRAN
▁Solution
▁minimize
ibility
router
▁Burn
Psi
▁Soviet
▁fav
▁democratic
animation
▁alive
▁ersten
лия
And
▁buff
▁nie
Ah
▁Jag
Added
▁Circ
ainted
Break
▁navigation
▁Gram
▁год
flow
auth
bitmap
▁vac
▁Ten
regation
經
▁am
ू
▁detected
▁holds
ata
▁Obama
?:
昌
▁Ibid
ض
▁sist
▁forests
▁fighting
|
由
な
lessly
주
群
padding
${
<0xEE>
mathfrak
tres
▁Mono
MODULE
ходи
▁capture
arten
▁studio
▁distingu
▁optimization
▁aria
OutputStream
bar
illa
▁Costa
▁це
netje
▁Article
▁slide
▁armor
▁opt
пен
ث
裡
▁Customer
▁año
pred
▁deeply
how
▁bump
글
han
UID
▁sul
Assign
▁sau
Slice
rij
vä
asia
▁sixteen
wrapper
▁Parliament
▁fo
▁agrees
▁imprison
board
compare
▁cabinet
▁knowing
andal
ʻ
▁Is
fortunate
incl
▁Aust
sn
reak
before
▁away
mutable
▁Tech
▁Spiel
anded
▁Turkish
ASC
▁discover
▁shine
▁surv
▁course
▁постро
▁Haven
▁Kam
▁legisl
▁margin
dog
nullable
▁Lub
互
skin
▁modifications
while
ོ
▁throws
Async
▁basic
ject
TIME
▁glob
-%
▁▁▁▁▁
▁fires
个
▁returns
▁thousands
Integer
Update
love
委
Lite
▁commune
▁klikken
unal
▁involving
ondon
xt
Sure
▁rt
quis
tn
秘
馆
Mr
land
AM
COND
Controller
▁tested
▁'-
▁changes
▁Now
▁Bush
boards
oment
▁devil
throws
remarks
CLUD
IC
sub
{{
ei
▁simplicity
▁March
▁digital
▁MVT
asper
新
▁guidance
▁pseud
eros
▁pass
▁mac
▁Anton
珠
mer
=\"
skb
▁Sem
ṁ
▁Your
лся
▁tiny
gather
▁Liga
rile
compile
🙌
omas
ム
歌
слі
▁member
TL
▁diagn
transition
▁technique
▁disclaimer
▁submitted
▁assertTrue
<0x5A>
apshot
apes
▁bat
▁Oktober
▁ser
WITH
▁outfit
▁tracing
▁commod
▁Verein
▁army
acre
▁appearances
▁producers
矩
▁Andr
엔
MIT
oun
bin
èrent
tra
▁neighbour
○
▁roads
goto
RD
osti
▁leaving
▁basement
▁Eight
▁Chron
▁Lit
▁дол
itional
hy
▁emergency
Toolbar
追
ART
enden
▁sa
▁Schema
▁buf
void
timeout
▁bur
▁intellig
▁▁▁▁▁▁▁▁
univers
western
<0x8B>
▁Green
ensitive
stroke
umb
operator
▁André
▁forgotten
anda
▁degree
▁promising
▁CR
▁puis
INGS
sys
chg
排
▁buck
▁свои
Conv
▁imposed
sigma
▁scan
XR
мб
[
road
該
CLU
▁roi
arks
▁hate
▁income
▁Oklahoma
ь
loads
flat
ո
▁harmony
gamma
sole
▁helic
ны
▁if
▁diabetes
▁Media
▁free
Handler
oud
flags
▁Rus
works
odd
ione
▁knowledge
▁conne
▁Law
pgfscope
nosti
olean
▁lifting
▁SPI
<0xFB>
圣
CPU
ibles
▁spectrum
▁please
▁Pick
▁guessed
▁din
vs
segment
▁LOG
RGB
Execut
▁PA
duct
aily
stone
\'
▁chocolate
但
▁Mi
*).
anni
๐
DR
▁garlic
rief
▁lightning
▁plate
Art
▁animal
▁juin
AY
SI
阵
仍
each
▁faire
▁wearing
NAME
ský
Put
cer
Depth
bigg
▁good
য
▁poss
<0xCF>
▁spons
▁verl
}^\
▁miejsc
▁Wire
▁conf
▁prop
▁demands
▁DEFAULT
▁works
▁durant
▁hyp
▁constraint
▁helping
▁sections
▁Cal
Then
▁sexual
▁simultane
Bag
▁FIXME
쓰
stadt
Service
▁sha
cat
▁manif
▁vague
mee
升
▁marvel
gun
▁packets
inement
etz
未
ским
声
зе
▁Sever
народ
▁letting
opacity
상
▁Aires
杨
rc
▁Stone
Hot
▁Currently
▁boyfriend
Expected
}$.
▁einem
▁popul
▁Jason
▁stance
▁Episode
▁Television
Φ
▸
azine
UST
ocon
Deleted
▁Seven
▁Gon
▁ag
роди
▁{
▁they
▁convent
ieurs
▁Let
TIM
ใ
玉
팅
▁providers
LAB
▁Hind
▁dell
▁provincia
▁We
▁training
cccc
▁проти
語
▁Intern
九
立
🙃
▁concer
▁LED
▁SL
▁homework
нения
iled
without
▁груп
▁exhibit
COMMAND
☽
Shift
▁ave
▁Пра
▁odd
onna
▁IO
▁hf
▁rid
▁soci
ョ
▁Harvard
j
*>
▁address
▁от
截
enders
Sensor
users
(",
moz
▁compress
олові
REF
▁defaults
▁setTimeout
▁&
station
练
ppen
▁molto
▁fraud
▁FIT
▁line
он
▁types
igr
resse
▁EC
▁ampl
▁живо
▁города
▁janu
ு
ogen
environ
Dem
рои
▁Malaysia
▁dic
hdr
ниш
trfs
英
虎
ffect
▁Geme
▁farmers
▁Les
▁corresponds
▁gratitude
▁PD
▁обще
▁homosexual
iac
▁civil
▁wondered
Cart
▁famille
▁péri
▁either
▁missions
▁"../../
derive
ete
orney
각
)$-
決
ទ
мерикан
．
се
inely
Delegate
turn
▁subsequently
▁сп
▁valley
lung
igi
чёт
▁Lor
contract
framework
▁Indians
▁sne
ть
ounds
stal
▁stesso
³
Mut
ing
iding
Version
gy
▁Eth
▁Career
Strings
decess
▁Power
▁continuing
▁Moz
▁extending
▁kingdom
irth
▁meant
isti
Routing
▁ensures
▁Silver
▁expedition
key
❒
▁princip
つ
▁offensive
▁HP
▁speakers
आ
▁Saud
▁vari
▁prices
▁??
>
▁moon
跟
▁reproduce
▁continuously
▁understood
selling
▁hired
▁earnings
6
adores
▁united
▁manus
▁signals
▁Pierre
itis
▁mint
▁Th
▁le
▁hierarchy
Set
nas
rik
▁anyone
▁Egy
********
writ
acia
ː
▁campaigns
▁subsequ
▁Bat
uffle
Registration
▁grupo
▁wood
▁forcing
▁OK
▁automatically
Pad
STR
free
COM
▁score
▁функ
Right
oute
ograf
▁Jack
▁ax
▁tip
▁communities
▁thous
▁streets
away
тва
ҽ
▁exam
ิ
Platform
hentication
▁fails
ship
▁hey
krieg
▁Pé
▁delen
▁pregnant
▁worrying
Off
▁klik
Math
▁appear
Coord
▁Count
gex
iba
yster
실
▁stone
图
usement
▁los
▁MD
arta
▁kne
person
▁Around
urg
▁Germany
势
▁quatre
ld
街
nico
ervation
▁Kum
tags
▁roce
▁displayed
nick
‚
▁Wes
▁moment
▁urban
ap
ichael
Element
▁Origin
стро
chten
зд
▁noviembre
▁usually
अ
abol
▁Gold
▁tired
▁peque
commands
▁lanç
里
overline
▁silence
Pres
▁Russians
▁recommendation
归
▁pays
▁unm
isson
▁mart
гда
▁fant
space
▁dall
gh
▁experi
▁els
anes
▁Norman
😭
▁champ
▁worth
ャ
вый
▁difer
▁{}
мор
((
tract
▁lover
imately
▁[…]
소
ја
▁también
▁curious
destination
proc
▁pattern
除
▁ours
▁algun
Chunk
▁nord
тора
▁Popular
▁lett
▁fiscal
uffs
lete
ZZ
▁periodo
░
▁fil
hline
NON
Peer
▁tack
Cat
理
▁minist
▁awkward
▁Validate
▁top
▁stairs
▁Comp
▁Settings
▁футбо
▁cerca
▁EXPRESS
▁Є
Ñ
engine
llvm
▁mir
▁funny
嵌
▁Cy
▁angry
▁trunc
ウ
衡
spot
▁blob
検
▁Afghan
ố
▁felt
Entries
TIMEOUT
▁Sugar
▁bush
▁assumes
▁completed
▁motivated
▁api
Structure
PERTY
某
rijk
▁Admin
ght
▁gu
▁pack
▁Š
вала
▁TCP
skill
▁wyd
▁PyObject
ayer
▁quantity
вар
ência
▁attra
ческие
<0xFA>
프
ната
calc
▁compris
▁articles
▁toast
▁casa
igration
▁Draw
业
▁rend
▁co
▁Ev
▁Jah
▁soldiers
▁Hun
u
▁periods
onio
location
▁*)
▁com
Every
HIGH
ascular
са
▁international
▁pier
隐
▁CH
food
jas
activity
Ma
▁possibilities
▁Dad
lé
Unique
▁Tommy
▁français
▁vá
rice
▁aged
▁glimpse
▁picture
▁sales
▁chem
▁FI
нови
▁Unfortunately
▁publi
rai
▁squ
▁accomplished
▁incredibly
rev
▁stronger
ARY
<0x8D>
▁ос
▁moments
eltemperaturen
▁integrated
cheduler
▁talked
Gener
▁juillet
チ
這
peer
山
▁Ste
笑
証
▁Pretty
▁smell
▁sect
ph
IMP
┴
ANK
EXIT
▁consumers
аль
▁those
▁flash
▁Lawrence
▁Tamb
†
▁excellent
asure
storage
▁satell
▁XI
▁password
focus
▁Napoleon
mitted
▁Brun
BG
▁alumin
▁within
▁Crime
▁attachment
som
▁electron
▁additional
▁tense
▁Inst
▁Final
▁ec
URN
uje
ifi
Culture
ril
ede
▁управ
.'
ἰ
▁че
▁Share
‍
ême
ponential
Index
球
eled
На
Battle
▁circul
equiv
▁cover
▁MO
▁vin
▁KEY
Head
▁Work
comb
▁Bio
angular
አ
閉
Active
▁consisted
iers
▁keyword
ḥ
▁Init
▁decided
Ste
▁Required
Inject
eturn
▁Produ
▁dém
▁Remove
▁receiver
▁chunk
▁always
conc
▁Linked
▁Thursday
Move
ۆ
▁annoying
▁noise
▁et
l
agon
▁freely
iffer
▁yoga
▁^
▁better
還
lane
REQUI
rating
▁Also
▁seinen
莉
▁know
▁referenties
▁appetite
▁th
▁Emer
▁half
▁highlight
▁correct
tor
▁ар
难
▁Dr
[<
ined
erves
isen
▁AV
▁possibly
▁stere
ი
남
▁tab
<0x5F>
▁didn
▁molecular
NS
▁годи
itions
▁emerge
div
▁hero
adelph
ት
▁invited
▁codes
▁_"
nitt
오
yond
Address
▁pret
▁dl
▁Federation
▁McK
Views
▁ej
▁Blog
▁vine
û
▁novembre
bum
UTC
Overflow
ǔ
磁
▁scenes
eston
▁conservative
log
（
igen
arts
phony
▁uri
hd
ু
sters
並
HEADER
▁teas
ared
ammen
▁diz
тельно
▁friends
earing
째
▁-\
▁gram
▁Lewis
oustic
▁anticip
▁{\
={'
▁warnings
aded
onal
▁jamais
adget
▁method
hol
dule
▁else
▁Response
▁també
▁bitter
><?
蒙
▁corporations
▁coordinates
▁Г
▁Jenn
Attributes
▁retr
▁während
▁gren
▁telev
xture
許
▁Features
("-
xFC
Time
▁Guy
▁leverage
plo
colo
▁dam
something
▁Solar
▁liquid
anj
ɹ
▁Holly
▁wanting
▁Anti
▁projection
▁Outside
▁Against
▁alcohol
▁Special
▁Hop
ks
▁cot
▁которые
▁conviction
▁girl
▁meer
ǒ
Cir
▁ne
Files
itung
aye
▁као
▁Friends
▁caval
▁rule
▁thesis
▁origins
隊
separ
▁SET
▁regime
sterreich
cols
▁Private
straint
component
nim
ғ
▁behalf
FIL
Here
▁buildings
▁Updated
▁chart
▁piece
▁twice
▁commanded
una
▁holiday
米
▁ak
floor
새
▁av
▁DEBUG
WP
▁pop
▁action
izers
▁radical
ools
processing
▁приня
▁station
show
zas
▁std
hp
▁Drive
ice
Sv
ści
▁Shel
▁honor
▁landing
тон
ced
Metric
Framework
▁/
()
▁depuis
▁XX
)</
▁From
ula
🏼
Comb
iva
▁guess
iques
▁emphas
▁election
▁andra
▁fog
▁abuse
▁worden
?>
等
▁результа
driver
alue
▁Eg
▁permission
▁Z
▁Besides
Mvc
▁reb
▁отно
▁Nag
▁intelligent
▁фе
<0x0E>
ursday
▁Limited
\]
}^{(
▁Niger
▁FITNESS
fty
▁Bh
▁David
▁álbum
▁isn
ase
uter
▁Dry
▁ener
ブ
▁touchdown
▁'
coll
resentation
▁yy
ubernetes
川
els
CCESS
Origin
ality
ellen
▁Prize
issance
▁"__
verso
osp
▁distinguished
浮
▁entertain
▁respon
▁Day
ecycle
drv
滑
▁females
些
▁medical
▁Collins
⣿
抛
Ă
▁№
▁nicht
cite
cio
Times
}}\
来
Now
ї
▁className
ueva
cov
obil
вший
▁Render
诉
ava
lua
▁Primary
ր
▁fuck
ENABLED
▁every
▁acts
▁utilized
▁Define
UD
LT
ems
✨
<0x62>
ella
ursor
▁Revolution
▁Ex
west
Contract
▁ren
Hy
▁figures
▁from
ذ
Rich
▁kw
we
Ḩ
iqu
python
エ
▁boundaries
QL
тов
]{
ple
after
ờ
Fetch
pled
ob
▁Jr
три
Up
rub
PyObject
▁Rights
Kernel
▁bg
variable
▁amounts
▁decision
▁efect
▁Lanc
olation
ال
result
▁Boys
сь
sol
▁podcast
▁ihre
▁Admiral
ety
accept
bor
▁Ec
▁alert
▁ха
Primary
法
▁discipline
▁secre
⟨
▁pag
▁nasty
▁Agent
GN
意
▁hip
▁Township
▁Seth
▁Bud
★
▁ring
▁generator
ippi
▁kur
▁child
▁Jahren
▁sought
▁Trace
fit
▁Jean
▁street
▁telling
▁Book
esc
▁age
▁elder
▁бі
▁Bro
▁fired
^^^^
▁Give
Ps
▁arm
être
▁farms
▁moderate
▁kinda
emper
resource
filter
▁CSS
otti
▁Stack
▁Ernest
▁Vol
jours
xxx
än
▁masks
Gre
schen
▁lit
MMMM
\
▁tf
▁instrumental
CREATE
雅
local
event
▁EV
▁Position
ashing
▁Steam
▁structured
▁rivers
▁gemeente
ention
_\
起
devices
▁New
▁accord
▁abol
範
▁effectiveness
POS
<0x7F>
Primitive
prob
▁pare
▁zip
▁elementary
中
▁actual
올
▁miser
ological
관
▁tmp
Temp
▁jusqu
▁keeping
알
▁boots
身
ceptor
ных
.<
En
de
▁DA
▁sido
▁backend
▁abundance
">
曾
Main
major
Buttons
iew
ске
▁Dark
ས
Timestamp
erde
▁^{
▁series
"><?
供
grad
osen
온
\}
fare
ű
iliary
호
item
▁acceler
▁Nathan
bh
▁Member
wi
As
▁implementation
▁Bild
oren
host
▁stability
▁smoke
โ
▁review
▁okay
▁Neder
рий
▁assistance
(!
▁Corporation
▁dare
▁nit
▁Right
cohol
▁PROVIDED
dirty
▁Politiker
▁believes
Alloc
▁quelques
▁art
▁raised
▁skip
▁Football
▁bay
▁welcome
∪
cf
▁kan
êt
Dit
▁enough
repeat
Prote
▁Sports
▁Бо
▁Foot
From
ния
plet
▁/******/
▁dozens
▁togg
(:
▁поль
▁quella
▁Linda
dv
▁XVII
apsed
▁orig
ฟ
酒
},
▁inject
▁new
====
▁creates
▁Rab
▁aunque
no
▁Sü
▁Bren
мени
UX
▁specialists
▁curriculum
治
EST
need
▁bearing
Aud
▁presentation
▁Her
wide
ADD
▁shot
Into
파
▁craw
ер
▁characteristic
▁portion
bird
▁Mich
υ
vm
▁mouth
oh
▁Billy
anne
▁convicted
▁suspicious
▁mx
lv
äm
▁notify
LIN
ätt
setValue
Œ
▁False
kc
LP
▁grud
▁reprezent
▁Champion
▁foram
"`
Extension
▁contribut
Ы
oted
ṯ
▁abruptly
}$
▁für
ン
▁possible
Speed
형
}>
currency
▁posterior
汇
İ
▁cope
ť

setText
ზ
↵
Web
▁станови
▁morning
▁sink
encoding
abama
▁controversy
Threading
▁Background
针
▁Script
▁typeof
▁gathered
▁farming
BD
MSG

ئ
ホ
ijing
▁dried
Equals
▁loader
▁unsigned
Assembly
▁lesson
son
SET
iano
▁tp
▁Gast
`)
▁sound
tiny
ът
тель
▁ambit
▁tor
▁older
▁membre
ин
▁voegen
ByComparator
▁Би
ном
Pod
▁чемпи
ipart
▁Girl
▁soil
<0x3D>
▁para
▁R
▁closely
▁waves
▁Room
pas
▁tir
▁engl
raj
Consum
▁pc
class
mine
▁alternative
▁Valent
▁beta
▁Skip
▁Specific
scri
▁Male
▁Carn
rier
chied
应
全
ই
▁chron
▁\\
▁seiner
▁proc
ォ
▁aut
刀
▁Emb
Pass
że
▁ik
▁Executive
HAS
▁whites
even
unc
owej
▁pes
<0x2D>
▁Asia
priority
▁anim
bach
quick
▁Core
▁magazine
▁appropri
training
cook
ons
џ
げ
▁ingår
bit
sembled
шо
▁Arn
▁record
'
ovie
▁coin
▁magnitude
Sequence
▁yards
▁alone
сто
▁жен
Pen
_-
▁cons
lease
To
Vertex
▁Leo
▁ohne
uvo
▁representations
External
▁Annie
▁pp
▁Steel
bourg
▁Joan
▁Mall
▁avait
asant
▁faster
ball
▁opacity
Language
anson
▁major
▁bother
▁architecture
▁supplied
▁balanced
▁sost
ская
错
▁reck
▁saw
▁Touch
▁study
ían
Rel
svg
▁frequency
Red
▁Vector
▁pills
▁poco
▁US
助
Year
лев
局
ется
▁Vo
▁accepts
Indices
Apr
GEN
}}}
usher
widget
');
▁help
La
引
FAULT
▁transactions
▁reconc
Schema
▁Ast
▁give
LOCAL
jsp
▁filled
▁plusieurs
▁picked
▁ArrayList
▁param
▁efter
hire
▁comport
▁Animal
DO
['
З
cept
▁lied
▁Gas
ên
▁Bach
ises
▁Nam
▁arqu
▁be
▁lists
č
aux
varphi
▁dynamics
▁Dre
▁kl
avirus
ivas
▁ком
▁Salvador
Ē
!)
▁fru
etry
unity
ння
′
▁prompt
estival
▁hundreds
▁timing
burn
isha
Notification
secondary
NULL
人
▁G
▁Events
uffed
▁movies
ки
▁your
▁quiet
▁Leg
pisode
▁UV
年
临
▁guitar
ギ
▁google
▁Naj
▁throwing
▁made
자
plica
▁attrs
亚
▁Victoria
▁function
sort
ola
LEVEL
▁cited
▁estad
SPI
▁Caribbean
▁urg
pick
▁Pav
ァ
ந
න
▁Ton
▁кла
IVE
unwrap
▁Madrid
▁Bible
endif
▁"""
▁dire
ielte
▁who
EOF
▁Group
萨
()->
▁pione
▁texture
▁seek
)},
eni
▁Looking
▁identical
Proc
💕
aking
DAY
较
berries
бург
op
▁processed
▁wheat
demo
▁dude
▁substantial
Stub
finished
▁Smith
▁cooling
▁Juan
си
oll
Sorry
▁Agreement
▁sweep
▁desen
▁northern
CONST
pdf
▁destruct
)
▁Colombia
▁CPU
▁axis
quiry
Http
▁Tak
▁adopted
▁increased
▁commerce
)',
▁nahm
▁Root
|_{
▁forced
essen
▁habitantes
去
may
▁cars
ë
调
urations
Und
ト
▁wir
▁coalition
▁Auss
▁Alice
▁Syria
▁suitable
▁concern
▁Ind
▁accused
▁Location
▁denomin
SIG
cott
▁т
dai
▁origin
SESSION
▁Mess
height
FIN
AtA
▁ко
▁trapped
▁ensuite
<0x54>
▁иг
reate
▁adults
▁сле
Journal
▁España
handed
▁disgu
ú
▁colony
🎉
▁tickets
▁Росси
$)
😂
▁Gran
설
TP
▁Professional
notations
istribut
')).
下
▁Cost
▁guilt
▁Candidate
▁mong
扩
they
仓
▁peut
였
▁deemed
Is
▁Practice
.~(\
▁Gun
oval
abel
langle
▁sheet
▁Jackson
▁til
acle
▁selected
▁serie
▁centers
▁limitations
But
▁Astr
ookie
ULT
▁lav
st
▁SC
▁Camera
▁исто
▁app
<0xBD>
▁Sl
▁clin
Cent
.;
▁chrom
ilt
sten
්
lor
☉
▁Al
▁cui
)((
▁BS
▁Fol
take
­
gets
ア
prote
▁sprintf
▁colour
NdEx
literal
anchor
DAP
▁post
mot
▁Sets
▁servants
▁juice
▁brave
▁Making
▁recall
android
ospital
ait
▁Lloyd
▁like
▁ago
▁still
▁rect
catch
▁monde
iop
Mount
bek
nal
sample
屏
тем
▁become
stell
allowed
adapter
底
bled
vano
▁À
▁forms
▁{{
rition
aa
sync
Tuple
▁прое
洛
Vec
▁és
common
Compare
▁suggestions
▁tar
прав
▁Got
▁words
▁j
icht
▁cultures
▁outline
购
toString
▁hon
▁Frame
▁knows
▁améric
▁spine
▁COP
赖
校
刚
▁mother
▁buyer
steller
▁clever
herent
ának
효
▁ital
Dest
▁recip
UMN

line
▁Rivers
layout
▁Sebast
▁районе
ADER
▁Tit
▁Dé
▁мат
▁Login
▁backwards
▁mapping
▁governed
▁explaining
▁von
com
▁appro
▁cheaper
에
policy
▁cruel
▁white
ird
▁examination
▁этом
widet
▁touches
ifferent
ӏ
▁Burg
▁хи
▁constructed
бе
broad
配
\+\_\
rem
pret
getName
诸
▁Molly
▁Profile
▁coaches
▁SQL
▁cricket
▁Bag
効
▁Sim
bb
▁parameter
mind
窗
bind
▁Null
sid
oples
▁depress
温
TON
▁Ми
▁Assistant
▁consumed
ReadOnly
▁Testament
Er
Install
▁applications
▁turning
▁sides
За
▁NT
▁inhabit
Local
▁PORT
orable
Middleware
换
ateur
▁realised
▁suits
▁decay
Requ
▁pad
▁scientific
▁designs
device
听
▁betray
▁consultant
▁Station
restore
zym
▁fixed
▁arrange
グ
▁rope
<0x08>
CD
▁enters
Holder
▁masses
▁Writing
background
essages
成
▁disappear
ones
Ё
▁birds
¯
agnostics
coln
▁Magic
▁Mist
ické
View
▁endorse
▁play
ware
)}$
ENOMEM
▁Ich
dbc
pler
ක
▁Arm
▁Eliz
▁infant
则
ນ
▁clay
▁quar
▁О
gio
त
▁Italian
)))
Priv
proxy
▁disaster
▁field
accur
▁що
▁invånare
▁{}",
▁intimid
▁accounts
▁Chain
<0x49>
▁une
▁två
▁Ша
話
Form
▁tales
▁lambda
Quant
▁Ros
plan
LowerCase
Constant
(){
▁Germans
▁nell
NR
▁qualify
▁improvements
wick
CAST
assertEqual
▁tast
▁grab
xml
It
▁ships
ijo
▁volt
tras
▁cuts
▁little
▁change
▁English
▁gev
IZ
▁Finally
touch
▁princess
▁depression
Grad
点
▁Alb
▁theme
▁roots
yles
EN
▁Som
asets
▁peaks
▁nic
ARGET
Cannot
ants
学
BASE
▁ре
▁Same
འ
sburgh
services
uu
▁Auch
▁уче
Os
IND
▁Manager
▁сбор
▁HT
<0x73>
▁Vall
js
eting
dir
screen
NUMBER
ologie
ik
▁invite
▁backed
ָ
uld
▁revision
求
▁ranges
czas
▁signal
Max
▁BE
▁romantic
▁Bei
▁inherit
▁micro
▁Louisiana
лов
▁diss
wan
▁Ly
definition
@
▁timestamp
▁Ass
▁Lav
▁Ang
roe
tagHelper
▁Pars
▁dup
▁###
features
Sk
▁sog
UMENT
▁popped
Host
ACTIVE
▁Similarly
Resolve
亮
ował
▁Vill
expected
ρ
ток
Pos
態
ida
Ι
+=
я
ienen
▁lingu
▁equipment
msg
▁plt
▁wenn
shops
▁высо
existing
連
▁expressions
▁encountered
Catalog
THOD
▁refer
▁ice
itating
------------
▁composed
奖
▁marg
▁generous
▁finale
kers
рів
▁Universidad
ˇ
▁acknow
spring
▁societies
▁Thank
▁della
spe
tikz
_,
峰
▁Harvey
▁Domin
▁Read
▁reach
▁Plant
寶
▁Como
ams
▁Tower
▁Version
▁Дже
▁wa
▁glass
본
▁***
▁Har
▁Orth
CON
▁SOFTWARE
▁Marcel
▁apost
i
▁mechanical
Interface
代
▁threats
▁Initial
▁treat
су
▁boom
col
▁manager
▁lesser
voj
▁Eins
▁overl
õ
文
▁verd
)^{\
▁importante
▁который
CL
▁apply
▁Dub
leen
ellow
示
rieb
Left
~\
▁cod
▁dinner
총
▁changing
Identity
ILITY
▁breasts
zk
tests
▁luck
ogram
ج
angs
▁paper
候
▁recommend
▁personality
adays
▁rod
▁toe
Vector
}/
▁expertise
дера
▁VM
<0xB6>
▁plug
icies
<0x40>
onde
▁deployed
▁activities
Cl
mag
MA
VP
shared
粉
▁shel
▁Vi
sea
▁deserved
▁ways
ด
ixel
▁calculated
üss
乐
▁lifetime
licht
ie
ства
snapshot
ilis
▁earth
▁misunder
▁mos
▁nuc
oter
▁concepts
▁ball
ги
▁pet
▁Website
кро
▁dif
▁worry
вши
▁Bruce
▁redd
▁Sw
▁paying
▁zomb
Ő
▁cort
▁cro
mont
sq
okat
▁Pr
▁primer
▁Birth
ldots
▁personally
▁Nu
▁Challenge
▁OTHER
▁announcement
▁fue
hu
DU
▁don
hyper
▁IE
際
▁Spirit
English
̆
Vert
▁######
ån
▁strengths
▁initialized
▁spirit
ała
anced
▁Atlanta
▁Cook
atures
ording
Script
▁notamment
Multi
▁rejected
Ship
▁count
телем
▁Schedule
▁arg
interpret
▁siblings
place
▁television
efe
▁rich
▁Pan
←
izen
▁having
.-
▁exclusively
тали
▁track
▁Carter
▁Perm
▁-----
▁vectors
▁magaz
isme
▁winds
What
▁Expression
▁breat
▁shield
<0x8E>
▁until
ʌ
^
▁owners
▁anx
▁<
▁TEXT
nil
anos
▁combine
quin
flix
▁decisions
▁**_

▁applicable
stmt
▁money
伤
Secret
illas
▁underneath
achten
rif
対
Select
ka
codec
▁player
encil
▁clo
▁albums
▁float
▁chicken
▁Cell
▁laughing
aciones
∈
ning
▁Einwohner
▁seal
▁bid
}))
ün
basic
LAN
^^
Load
▁schol
▁factory
▁vocals
▁beast
▁Lau
ā
athan
Repo

▁algo
旗
▁Span
Transport
ntil
gram
▁leg
];
blob
▁ch
variant
▁Wales
clam
̌
▁Dal
▁држа
crit
▁observe
abul
$^{-
uther
charge
▁contents
▁Greek
STREAM
▁heard
▁transparent
Report
▁<!--
呢
▁Бер
▁nearby
oux
ása
▁familjen
Old
▁Rose
▁America
▁Muslim
▁reveal
пу
▁junto
▁While
сле
▁съ
frequency
agonal
cription
ativ
▁г
cmp
▁pounds
vez
black
▁haben
▁NOTE
▁focuses
▁folks
💎
▁dav
agog
camp
▁christ
▁CB
▁history
▁laund
▁have
▁centered
š
Show
commons
가
데
ube
▁regular
zeich
☼
▁talk
arios
还
führ
▁uncomfort
Activ
▁match
ely
▁consent
WIDTH
▁США
▁Aqu
appoint
属
▁grid
idal
▁colleagues
▁través
▁Lot
sock
▁keen
TA
anco
files
▁Victor
erme
emplate
▁attitude
)]
▁gra
,*
▁lip
Lib
Properties
DM
▁Brooklyn
▁mise
▁relevant
▁dep
idae
▁menu
MAGE
}_{\
▁Pen
▁equally
ierten
bur
▁suspic
▁bon
gener
:
称
▁returned
toBe
ARB
批
sb
▁triumph
ByName
HasColumnType
ය
One
ledge
▁defect
▁Marshall
dorf
century
▁proposals
tober
▁dent
▁aw
▁supports
▁Individ
▁dar
react
▁finest
▁Society
▁unf
▁whoever
inner
찾
Geometry
▁niet
itary
tar
▁Without
▁performing
▁Emp
raf
ases
isan
▁YOU
▁bos
ensch
▁scarc
oo
▁extend
▁diversity
달
itzer
IFY
ofs
)*
``
▁sharing
▁agenda
Server
▁broad
__,
▁maar
$).
TLS
▁European
<0x95>
iii
▁bureau
kreis
izo
ités
Argument
api
▁supp
▁Insurance
▁Freud
▁сентября
▁Jan
▁timer
▁plat
▁enjo
符
հ
he
friendly
ле
atten
▁robot
▁For
▁trials
▁Island
▁Wikipedia
tegr
loat
▁hopes
command
nte
▁Nad
ĝ
▁credit
▁EX
future
▁scared
specific
▁append
FI
Щ
▁Success
ভ
sg
oven
場
▁dans
LOG
tip
Def
▁liked
▁beaten
▁Papers
icion
▁logical
▁must
▁'</
▁twin
Setting
avity
І
YPE
▁Double
oport
▁matches
▁Beaut
apers
▁Ча
▁ordinary
▁Анд
random
Amaz
cost
▁employed
Ма
▁Zent
▁attempted
待
▁coach
！
'])
һ
▁edific
Getter
▁){
ographie
▁casino
inent
еред
▁label
▁горо
iger
▁carefully
slash
♡
▁Ult
layers
NOT
uso
Jack
▁phase
vis
gest
▁Scottish
Create
▁frequently
though
▁Liver
gr
▁specify
▁км
▁overhead
▁Append
hash
istent
Original
унк
▁sustained
▁shifting
resp
▁Didn
▁contain
▁Rol
▁mistaken
⅓
▁brings
▁être
▁autom
▁awards
AS
▁reputation
▁HE
án
▁mentre
▁Александ
▁mold
▁African
acket
▁Desc
▁alloc
보
標
▁Lip
▁Actually
▁client
逻
EXP
▁hell
画
拒
▁accident
난
ęd
▁kar
vert
ል
▁trial
Screen
▁singing
marker
▁sque
év
uni
▁Crit
ogg
UNUSED
▁Cup
jquery
▁walking
Generation
▁bob
▁br
b
択
▁func
Method
IB
lu
Listeners
▁Economic
玩
▁Rh
льного
▁Focus
▁Fresh
Dao
bytes
▁feat
▁две
▁She
▁priority
jack
▁hanging
ignore
▁involvement
▁metadata
More
ennial
so
nego
▁XIII
ian
▁Dick
▁qué
oks
€

▁Drag
Sync
▁intend
▁Off
ung
▁cer
▁imports
ⵉ
ằ
▁obligation
<0x17>
▁heading
▁den
▁Quant
acked
▁Us
如
で
frastructure
▁night
тин
based
▁shouldn
▁Rog
team
Phone
Cpp
▁planes
reduce
Page
▁challenge
ulum
fee
▁Hughes
▁actor
▁simple
ним
▁ourselves
balance
ದ
▁ethnic
▁jumped
▁Car
atori
rig
▁dense
hen
▁movement
tb
Rad
four
omot
xf
▁Wall
▁lyrics
▁Devel
asi
ize
inar
▁Bomb
▁today
▁surpr
최
stret
▁Copa
HAL
▁Turkey
▁mainly
▁Innov
▁pillow
▁Rel
XT
雪
ARE
ablish
▁Indeed
▁Cyr
▁lead
▁Privacy
bery
▁Sing
主
▁WARRANTY
负
▁Ту
▁spy
▁ви
▁bour
▁sample
ode
▁}{
Since
▁район
▁stage
▁giant
orne
Manager
▁stream
▁lean
indust
对
▁squad
▁Game
▁bombs
▁на
▁I
yside
esota
▁finally
energy
▁wides
▁ISO
▁leaders
onte
▁Area
▁],
▁Bitcoin
▁disability
CSS
▁beg
▁preval
Relative
▁launched
▁Honor
q
cases
圈
▁sig
<0xE5>
adas
▁Fern
庆
▁happy
writer
▁conscience
▁soft
run
django
лли
利
▁peripher
organ
edia
▁Nat
river
ellt
▁Ар
▁INC
▁lab
чество
▁Poss
▁examples
(&
▁racing
▁upstairs
ampa
ambigu
활
え
ISH
ICT
pty
lla
▁shining
})
irtschaft
wn
ktet
▁Lo
▁laug
+\_\
▁heavy
信
▁Gor
▁Alaska
(),
Definition
▁Cos
Scene
":
▁status
▁seit
료
▁materials
▁installed
<0x4E>
▁За
▁á
af
▁Cleveland
YN
映
Alert
▁questioned
chen
oly
藏
▁ло
▁Grace
▁Holmes
▁sweat
▁вы
▁nineteenth
▁approximation
▁=
Record
▁courage
avia
▁rm
▁nederbörd
CTX
レ
seven
飞
▁dominated
‌
▁pray
ptember
▁sp
▁Jer
Protocol
添
▁cloud
▁Ins
Ê
rass
\{
▁REG
pped
▁phil
▁riding
л
nals
▁crop
<0x01>
>>
▁circa
]),
Transform
▁eggs
News
▁water
ITS
▁Oper
akespeare
Cloud
deleted
▁PM
▁Be
ARCH
▁polít
▁Butter
ęż
...
▁citizens
gged
▁listener
ा
idan
▁Multi
번
etime
▁ingredients
ulator
▁Pennsylvania
▁Building
▁ż
▁о
▁mag
▁consistently
z
▁of
ಿ
▁Те
▁protect
▁SF
▁sip
rale
▁struct
}</
uck
▁sera
bitr
▁Tur
▁eyes
▁accessible
zent
이
體
ound
▁Communist
▁depth
Prop
Reg
▁grade
▁worries
ogeneous
▁outs
▁Case
tml
▁Cas
entieth
off
▁path
▁dose
ède
▁inserted
▁quote
play
▁pixel
my
▁liv
草
▁grass
▁stay
▁emotions
Query
▁dancing
consin
▁Floren
▁Character
▁су
unda
aient
▁battle
ща
artment
Utilities
бре
▁breathing
ная
ics
▁sizes
ITH
▁environ
di
↓
Â
BS
▁provincial
ocks
▁garbage
盖
▁joint
▁apparently

scription
▁offering
▁Knight
ictionary
God
▁different
▁patrol
<0xC5>
ao
▁ended
▁veteran
▁ga
Model
util
fl
▁Ul
hover
▁computation
folg
idge
▁father
inton
▁manuscript
ver
▁middle
▁landsc
▁welfare
ropri
▁au
Em
▁conducting
iah
▁tribes
▁stories
▁Africa
ERO
▁clients
ivity
▁USB
vor
▁browser
css
Cut
▁jap
does
▁Joshua
▁disorder
▁register
吗
Button
abs
CLASS
car
▁Village
▁participating
oul
招
▁Lily
sty
ustr
heast
дер
/\
стави
▁Util
repository
▁muy
▁belie
GUID
Sub
▁asked
uk
eries
precated
▁сі
Network
lauf
▁Lam
BR
網
▁can
section
istribution
匹
▁It
\|
▁prod
▁Sea
displaystyle
▁Sak
oves
ر
▁width
dialog
Bul
eqn
▁crash
ushes
▁restricted
▁Edition
QUE
Running
就
RET
▁punch
▁radi
▁deserve
▁Mah
▁initialize
Branch
gomery
ску

▁domain
tainment
▁De
abeth
Dig
▁jacket
THREAD
▁clip
▁kicking
standard
apply
案
▁États
Stud
▁scene
LBL
▁dressed
▁hem
du
AA
▁Exception
▁nodded
▁passion
▁vic
▁Furthermore
▁behaviour
▁wis
▁ke
USED
ítulo
▁Reset
▁Remote
▁nl
dao
▁releasing
千
шения
rotate
Controls
▁remained
恩
▁creative
▁Que
▁reminder
ḍ
come
效
▁Orchestra
itories
▁Wrest
nek
\{\
lm
▁edge
Inv
Formatter
doors
된
▁alike
}}$
▁minds
▁Quick
广
▁rip
▁strat
transl
▁expans
▁property
selector
▁capabilities
uple
▁Wang
filer
▁nam
mem
▁Arena
▁deck
ums
▁normalized
叉
tre
▁::
maker
нии
▁Management
▁manufacturing
▁Nort
背
▁или
▁jack
長
▁repeated
▁innoc
▁President
quer
erre
▁probable
Linq
actory
eur
****************
▁care
ellschaft
сом
<0xB3>
signature
▁Phill
▁experienced
▁bite
ན
▁University
unct
▁Lincoln
▁serv
clk
▁reform
▁Iter
Ac
naio
表
▁truly
Ա
ième
▁predict
▁word
ş
▁though
circ
*{
lay
.).
bud
чат
afi
Layer
▁бли
Rotation
▁Sam
iej
izing
▁inf

ет
Occ
▁renew
▁только
pdev
look
▁advance
ții
▁precision
당
▁dock
▁incap
usch
▁gall
德
▁andere
▁solar
▁Jacob
▁neutr
▁language
▁suff
孙
▁thé
▁Vancouver
▁fle
DL
▁neu
пис
ถ
ask
ä
igu
세
olutely
▁apro
▁Los
nership
newcommand
unting
upload
▁educational
크
權
▁ski
▁Pul
▁idx
covery
igenous
othy
▁Brothers
Parse
TO
▁sym
▁så
▁compiled
However
ength
▁altogether
nem
■
▁once
ropol
mic
illes
▁Georgia
▁regarded
▁dy
▁argued
▁tens
▁view
Target
▁Club
Conf
▁healing
Subscription
˜
ји
ension
Word
ző
▁attacked
arto
hab
▁Illegal
ilio
▁\|
▁ED
benfalls
iders
sections
ydro
▁disgust
▁pile
▁questions
▁Bey
▁Lat
▁Magazine
regular
▁staat
▁жи
▁gang
▁capac
▁Tar
▁Jung
▁painting
<<<<
▁silk
채
rat
▁discussed
▁Ви
ien
▁SP
club
yar
ils
▁лу
▁reven
ската
nr
▁folg
endent
▁##
▁deep
▁toujours
แ
ёл
frame
scheme
▁Sher
▁Austral
prime
▁Diet
Analy
▁pride
신
zen
▁winner
▁courses
update
Build
▁Albums
ulations
arn
▁мая
▁Ground
▁Suite
透
atalogue
olv
assembly
▁drift
▁only
▁Perhaps
ningen
kow
rab
ya
world
î
Cert
▁however
ден
urable
sert
.”
跨
▁compr
prevent
▁Serie
^{
▁decline
▁button
}_{
erson
partial
▁secured
た
ascript
lte
▁shares
рабо
▁temperature
▁routine
▁Pe
▁fragment
Allowed
вано
گ
ometimes
хе
MLE
quest
▁independent
场
isation
ję
▁blev
▁argument
elijk
ted
▁(((
▁pid
lation
▁happens
configure
▁Match
野
itute
▁next
▁administration
▁usage
▁payment
usa
▁object
Self
seen
▁bright
ción
rit
DATE
▁bodies
▁Arizona
▁motiv
ifa
▁GA
▁consider
▁thinking
uren
▁trends
▁Groß
▁urb
▁families
/%
▁often
dam
finite
union
oggle
▁designated
auch
Me
ネ
▁constantly
merce
.~
ut
▁gaming
▁politician
▁huvud
чения
sche
aires
▁opens
▁democracy
ស
primary
mong
buch
мет
strument
::{
cul
▁house
▁council
▁satisfying
ತ
ta
▁ship
rf
▁ле
ifer
pkt
▁continued
scrib
▁effect
▁sinc
▁Otto
▁bekan
▁propaganda
▁като
routes
刪
▁Builder
▁regener
▁uuid
▁}
帮
reference
▁Фран
öß
KEN
FE
ם
▁fils
▁miserable
▁dumb
ców
http
▁pur
OPTION
▁database
ropolitan

턴
GroupName
冷
▁gold
▁collecting
▁Type
인
ème
▁persu
▁DC
▁Dor
▁VII
rup
FLAGS
▁Sou
▁thrust
▁infection
Billboard
ύ
복
😢
▁Parse
▁Types
acing
▁Nich
▁poured
ា
chsel
朝
Absolute
ationship
secut
▁techniques
Los
aru
verage
(`
ɨ
AT
ruct
apache
haps
傳
mac
DOM
▁Construct
Dlg
▁Sweden
ón
expr
▁ticket
▁Bel
销
tuple
▁allows
▁Yet
delay
▁Bronnen
▁тра
浏
众
ਰ
med
▁process
▁academic
▁were
]{\
buttons
rous
:`
ب
√
▁dug
▁initiative
▁Ax
гов
▁Pre
timestamp
▁Govern
▁YO
泰
▁potentially
MP
rial
mb
rezent
▁Pract
▁combinations
ocolate
▁cared
Mc
▁Ru
Any
▁fost
▁file
also
скую
Apply
▁Josef
names
▁Province
▁да
▁fleet
▁aimed
低
CH
redu
Migration
optim
▁\;
▁island
强
Diagnostics
évrier
▁hol
種
lov
Fields
▁levels
▁copied
▁industrial
▁//!
▁really
imation
▁Published
<0xC1>
▁non
Hit
▁Hills
過
▁més
éd
▁Message
жа
unts
pert
▁Morgan
oming
posed
▁finishing
ા
aired
Balance
▁bis
▁§
ussy
спе
▁abrupt
▁belief
toggle
▁sf
Attribute
▁permanent
for
());
nehmen
ilers
伊
sky
сни
ņ
▁Kent
deg
▁fought
odigd
▁$[
controls
ANG
orum
tpl
▁","
closed
想
iveau
▁Naz
▁strugg
系
ber
`
▁siè
лина
村
subsubsection
▁pueden
sey
making
мент
▁deputy
Client
▁BL
창
▁forth
▁suite
vari
▁cut
graph
▁dub
translate
kie
inte
varepsilon
стоя
▁buyers
▁fare
▁there
태
ència
노
enne

itable
▁retired
ogan
élé
▁Soft
▁chronic
phrase
▁George
both
чний
▁cl
▁Hampshire
"];
▁future
▁interrog
▁earliest
dater
ti
lands
备
游
▁Meeting
--
▁tym
⇽
opyright
啟
▁Maryland
▁productivity
Cam
판
▁jew
▁octubre
▁elem
类
aque
▁inspection
▁shorter
Blocks
ų
▁ба
▁noon
$("#
pi
1
▁drama
СР
▁ur
native
imore
ured
▁Nic
▁Mais
▁ain
azy
▁thrown
▁news
线
▁ther
▁Nie
mart
▁mining
parent
▁président
▁Gef
isch
▁attention
▁cultural
shape
Requests
alom
agment
imit
▁people
▁denote
Ψ
▁methods
▁template
▁restrictions
▁Financial
imer
典
teil
dd
̞
abc
▁▁▁▁▁▁▁▁▁
▁Bras
▁havia
▁wages
▁reported
▁See
▁Han
▁pulled
▁department
▁ж
aughters
tabs
pw
▁Payment
▁mot
▁ber
anging
rugu
ண
ître
▁domains
conditions
▁front
umbs
▁sensitive
▁around
▁interested
ał
\+
Make
▁Windows
▁publishing
ouse
▁qualified
▁chaque
zed
▁funded
For
▁Mel
▁modest
▁Such
ête
▁ranch
poly
▁traditional
onne
Vars
免
▁enc
▁Quarter
은
▁capacity
▁relatively
)=\
▁Я
ды
▁expensive
igator
▁tourists
Dot
ouble
▁Ban
ając
▁Blue
學
▁cash
▁Dec
▁tiem
visible
▁routes
택
pat
▁ramp
infl
좌
ʼ
よ
▁parl
mates
.....
▁Sri
smithy
▁кон
threshold
▁figure
▁bu
▁"");
▁Harris
▁coastal
FORE
ANT
▁contributor
О
▁Hamilton
Doc
▁sliding
weet
▁wonder
solid
▁Hey
▁Ireland
牙
CG
SER
▁stops
▁collapse
▁Bahn
▁Does
nett
▁draws
▁folded
艺
▁proposed
京
format
▁establishment
ources
▁gaz
<0xCC>
']);
conn
▁aggregate
▁grave
智
▁increment
兵
Constraint
ntax
▁dependence
alie
▁eliminated
визи
▁handy
▁limited
usc
▁hearing
cedure
Oh
▁vivid
있
딩
▁salt
iq
▁explo
pis
px
▁Cle
▁sensor
▁cold
▁elect
Contact
▁processor
龍
TER
▁hotel
▁Related
erd
================
Received
▁segunda
▁Has
▁rotation
倒
▁excessive
bullet
▁Companies
य
▁población
▁Grade
base
eah
▁Ve
▁tear
ructions
▁somehow
▁s
ø
▁magnific
▁ver
view
ENTER
▁Sel
▁lecture
Factor
ptr
cs
▁dai
icates
enh
▁Rosa
▁Bron
▁Pub
▁ав
▁Santa
▁counted
▁cycl
bras
▁unus
▁McC
▁cute
▁copyright
OST
тре
▁intention
▁evolution
▁encuent
HttpServlet
▁URL
▁ча
posts
amazonaws
ail
xa
實
▁Cent
▁czę
▁partial
▁suffered
лось
bis
▁Identity
▁Co
▁Roll
лин
ocol
▁Budd
▁crap
ADDR
tring
ಲ
▁adjacent
▁municip
▁Lin
ske
▁values
▁▁▁
▁tons
▁Erst
▁lamp
▁holding
▁iz
atted
▁faith
ichi
持
▁upper
國
▁matt
pson
▁connection
▁likes
값
keiten
ruption
мо
▁exploring
▁poz
exc
vers
▁Lay
▁loss
▁MS
Χ
таль
Packet
▁corners
▁stores
▁INT
fly
edish
iw
▁segments
▁polynomial
▁Kunst
▁Cash
deserialize
“
Design
▁body
mad
▁poison
▁Element
éc
ця
機
general
wise
\"
ী
NM
t
▁correspond
氏
▁approximately
company
kes
▁Ari
Pane
▁equality
nob
ned
Sources
>();
향
▁lying
▁op
▁nested
▁Franklin
▁Williams
addEventListener
▁whole
▁woods
▁profit
лена
Cross
osh
Fake
▁deuxième
▁arch
▁medicine
▁Monte
duc
▁tres
▁mirror
▁expectation
▁census
Cmd
<0x85>
▁SU
▁dropped
headers
Na
▁Nacional
▁leadership
ame
mr
ма
▁fing
reverse
bey
▁lasting
▁counter
▁conflic
leq
▁района
▁Diego
sta
če
▁barrier
▁thats
written
▁etern
▁получи
▁PropTypes
raid
▁kilom
▁step
attery
與
▁waar
них
▁Tu
лет
▁viv
cro
▁options
▁February
問
義
▁concentration
ocate
eres
lex
TAG
outs
학
resents
▁directly
▁attracted
▁linear
▁fit
Auth
Enabled
▁winning
pling
▁ged
▁absent
лё
teger
SL
▁reduce
▁lí
▁plugins
▁Gary
▁Ian
xD
▁tale
ම
▁dol
▁directory
▁antib
▁guys
吧
▁Lord
▁Hung
¤
▁Cab
rule
复
▁song
have
halb
▁classified
以
▁shapes
perform
|---
▁daily
ogle
▁Sm
ل
torch
audio
esty
▁opinions
body
▁Universe
orp
▁stem
gar
▁big
▁seg
▁transformed
Fixed
▁devient
▁development
elles
均
▁Generic
모
▁assignment
<0xF2>
includegraphics
lb
icing
▁addition
イ
TI
▁hus
▁fake
ores
nung
▁Че
multiple
pit
▁transfer
HER
▁institut
▁natur
ტ
▁badly
▁diagnosed
alph
▁está
äger
▁Liberty
▁Equ
▁kann
▁afraid
▁"-
▁bre
ört
phy
L
++){
heng
▁©
▁spin
纪
Invoke
imiento
▁ordered
▁unconscious
UR
distance
▁вме
வ
EventArgs
qp
ass
▁Mor
▁geld
獲
lot
ami
ualmente
▁relative
auer
ូ
▁ла
▁identification
Stat
|^
▁->
▁хо
‡
dru
▁barn
▁STR
▁Аль
▁ninete
Emit
▁GET
▁manifest
▁console
.',
▁lieutenant
ény
根
▁tal
ivers
▁temp
▁mand
▁<?
permission
ء
▁Pain
bug
▁Virgin
ología
▁owner
▁resid
▁pow
▁This
▁holes
boldsymbol
▁Fac
▁även
ép
▁Otherwise
Ź
▁corridor
▁rag
arte
▁skull
Entry
stub
ancer
Aggreg
Elements
snap
▁Sleep
rx
▁con
▁enum
oid
は
입
ält
▁Part
▁Eve
▁sail
hel
▁dread
cheduled
comfort
failure
▁radius
imb
▁dan
▁была
▁simulations
▁ville
▁tray
▁time
));
▁luminos
其
▁prom
▁Sergeant
資
rock
▁ds
▁preferences
St
▁released
▁Logan
ision
JECT
Associ
aken
▁subur
ihood
▁afford
▁sensitivity
星
红
▁Daily
Literal
▁oz
rett
▁Shar
▁ze
фо
<0x7B>
Vers
▁Hero
umed
▁artist
Codes
▁sync
▁www
worth
▁wrapped
дель
▁comfortable
▓
▁collected
▁couples
Am
▁компа
whel
▁Key
Only
lymp
▁Invest
snd
▁entrepre
▁hold
▁Different
灰
retry
▁hammer
▁pod
<0xFF>
励
▁trans
pose
▁socks
▁Pero
▁characters
▁loading
▁verk
here
▁removal
amd
Encode
▁CONDITIONS
pointer
Missing
Hex
▁penetr
roc
▁Rug
furt
▁William
▁proxy
▁jud
▁themselves
functions
▁Not
▁bail
FLOAT
▁members
../../
▁drum
▁identity
сия
▁wel
▁img
环
ktion
▁Об
▁span
wright
▁exceptional
▁compound
Interval
▁Stalin
ي
▁frustration
::~
▁ton
头
▁agosto
▁Papa
Each
▁seem
▁sniff
tol
▁particip
defer
itations
▁END
:**
ografía
DC
▁consecutive
▁understand
TS
▁sounded
▁lieu
▁punk
▁vegetables
atur
▁Walk
▁gently
▁Sony
Har
▁countries
SW
tha
cle
▁Hom
olas
anal
appendChild
ό
▁audiences
Ç
conv
▁doing
ite
gebiet
▁Hitler
▁Duncan
▁workspace
<0xC7>
▁gentleman
)-\
▁Train
paper
SEE
global
▁Honestly
ipeline
▁strain
▁here
վ
▁Video
rient
▁puts
▁presum
▁WC
vd
ipher
Med
商
길
▁compet
▁glanced
])
▁ш
pay
alia
▁foreach
▁contributions
integer
тра
icted
getText
iance
Pars
▁districts
▁shelves
释
独
▁febr
▁expect
攻
丽
▁lifted
▁stuff
uma
▁Bark
▁force
BUG
▁tough
sv
hour
▁conversion
elines
Block
▁transform
ῦ
some
ќ
补
report
icas
ư
widetilde
λ
▁abroad
Pro
▁Francis
▁Nancy
▁Дж
▁ir
▁Edwards
▁também
зі
▁испо
▁sits
▁crying
CONNE
▁cannab
▁theories
Meta
ські
idges
US
mercial
▁notes
▁avoided
▁reasonably
▁contempor
▁obvious
park
▁pure
▁selfish
Snapshot
né
ур
ז
wt
(?:
Read
葛
▁utils
▁accompany
agle
▁representative
Over
▁cup
▁immedi
Seq
activ
▁Christmas
Team
▁Fame
▁generic
체
Proof
▁las
<0x46>
ient
▁Из
▁defending
_+
igible
ті
xB
Component
▁dou
▁patch
ação
iest
addle
▁sq
affe
King
▁i
▁Он
imen
▁needs
stan
▁detective
▁—
uce
▁convers
▁bathroom
craft
室
▁rates
try
▁посе
▁NOTICE
atever
▁church
▁newspapers
▁building
**/
▁То
ignment
ļ
▁wireless
áb
Replace
anter
protected
atu
▁modify
▁Pir
▁Apple
▁delivered
▁Süd
▁appe
施
циаль
ств
职
▁Engine
Shadow
▁ripped
▁complet
lj
gency
().
▁equival
Phi
Site
▁vi
ése
ɒ
Ď
eze
▁by
heading
▁telephone
核
DED
prints
apse
ペ
metrics
▁seventh
▁documented
▁Бе
rific
▁plane
▁Anders
▁surgery
кова
жен
ラ
▁college
ipe
ett
▁Piet
▁buried
▁Punk
▁monaster
թ
▁mm
pk
ytics
▁radiation
✦
▁diese
▁balcon
▁с
▁pizza
EY
uid
CHANNEL
∂
Blue
XXXX
▁Bun
ennis
etzt
press
Even
Player
Section
Fat
ད
icios
桃
Choice
▁цент
▁sauce
back
‟
▁în
GroupLayout
控
▁ingen
3
▁slavery
▁Slov
generated
▁gay
▁cost
▁medication
ving
▁innocent
▁technological
phys
门
▁Му
▁Spain
▁Night
་
▁fork
▁volunt
▁Charl
▁spent
▁cells
▁harvest
▁h
RAY
▁carries
▁yelled
Connector
Ty
///
HC
▁juli
▁pe
Addr
▁mind
yard
such
▁Europa
éric
▁Ash
▁apps
页
nice
▁Rob
▁DateTime
▁disput
▁extent
▁mog
Ev
▁praise
<0x44>
If
iate
▁Kont
jos
ige
▁roles
plicate
indices
dash
express
▁besides
ū
▁student
▁insane
ovo
別
▁sung
anzös
ღ
Saint
ノ
再
mathsf
▁institutions
▁nr
▁deciding
ву
림
▁größ
Collection
ieder
classes
ન
thread
call
▁né
▁shops
▁spirits
▁Thompson
ы
ся
await
▁Bal
▁benef
▁numpy
▁smaller
ے
▁locally
▁treatment
Changes
dig
▁iter
dem
áv
helper
▁Project
▁Cub
▁године
▁few
evin
▁coupling
醒
How
Α
пы
aci
serde
OK
近
ames
▁Garc
许
else
oured
▁Inf
empor
▁Roberts
▁Morris
nom
:{
▁GC
毕
▁Nevada
▁Ос
Scan
Land
▁já
▁calendar
▁chief
▁glance
▁Sche
▁Lex
undef
▁geldig
to
ed
▁campaign
tax
true
Our
▁intersection
送
▁gem
submit
▁poi
▁pat
Э
▁Advent
ell
ashi
ployed
By
▁meal
ска
тя
Track
Nd
▁shall
▁absor
▁succ
▁Davis
▁Easter
ů
▁lik
ulative
ali
‘
▁James
▁allocation
too
▁составе
▁refres
rose
eti
❌
▁находи
ques
¹
▁dt
remark
▁Hugo
▁readers
▁ord
BT
Simple
▁Supp
acio
▁verse
译
<0xA2>
reen
▁Enjoy
▁Archives
Cfg
den
▁spr
▁supported
tz
▁является
▁só
EXEC
▁atr
SM
pixel
▁miner
▁quer
乱
▁Tok
cted
лись
音
▁shopping
▁Chrome
ern
Da
}},
▁armed
▁Cru
▁Sales
ु
▁lies
▁Lib
Tag
▁cater
▁stad
erv
▁drink
▁Au
▁efficient
comput
xfe
▁Gust
▁encouraging
TRANS
rodu
▁lemon
WER
▁recipient
▁ends
▁Record
png
Tool
厂
▁Too
▁membr
ef
▁Band
Dataset
▁estate
iele
arms
▁danger
実
▁iPad
▁gre
▁puzzle
▁deaths
▁Rober
▁closure
▁Auth
aglia
Layout
倍
▁membres
▁influences
annot
▁Sud
medium
ites
▁Da
fmt
▁crimes
elf
▁restart
▁inspir
▁about
ory
**,
▁iss
redit
▁'_
ologies
▁Sev
▁фран
rypt
Ed
▁resource
▁sir
▁COPY
RUN
Import
▁oxygen
dummy
▁controlling
▁videos
ommen
<0x11>
▁featuring
management
了
▁under
mysql
്
<0x4A>
ALE
▁toda
▁SND
ime
appings
uts
▁juni
▁aim
on
ற
▁predictions
▁Oracle
▁discour
ב
holder
plane
$}
☃
▁біль
<0x31>
▁были
media
▁Dav
▁oh
▁Melbourne
▁teen
چ
map
▁taken
股
numeric
▁november
▁Ghost
nergy
▁trace
ilton
▁gouver
速
▁Table
;"
누
him
eling
▁hub
▁fine
议
▁husband
▁vehicles
▁кри
载
uring
storm
😀
オ
Open
aut
▁transmission
xpected
▁населения
▁vas
CM
▁imagination
virt
勝
▁dramatic
verse
▁ensuring
ake
▁necess
ág
▁artic
CHANGE
ⴰ
确
▁sway
essed
▁Sur
▁sep
ulos
BB
$-
。
▁Hu
mal
▁reste
하
ف
▁norm
TEST
chunk
▁Pu
報
rence
hm
她
child
miss
▁compliance
ved
GC
ен
▁compens
itsch
▁trat
▁nominated
Pl
omorph
▁Dep
™
▁Api
▁shiver
▁та
Ns
▁chat
▁premier
▁lord
금
aille
than
WARE
爾
▁Great
zone
▁Sul
||
rh
omitempty
чё
lio
▁arrested
▁dis
<0xBF>
room
Ip
▁Mong
▁Do
▁tod
▁Logger
▁cr
boxes
▁Eva
гар
meisterschaft
說
ore
expect
▁Lemma
acking
_);
▁maintained
▁somewhere
▁pricing
WL
рт
▁Vit
▁grace
▁contemporary
▁hes
▁curr
▁celui
uff
ulp
▁Press
▁rely
央
▁submission
Se
ération
comm
▁Resource
▁pir
awt
\",
geo
▁Sv
attributes
extend
azure
▁preview
ша
▁Twenty
？
▁even
▁league
events
oso
▁ware
წ
▁насе
Id
/'
業
▁evening
▁Malays
aughter
▁narrative
▁logged
頁
▁vez
uen
▁Indust
▁extends
▁irrelevant
▁practition
construct
▁VT
apple
aph
▁Miller
▁through
▁override
ְ
▁Kate
池
hom
▁adjust
rtc
äft
Aug
缺
Statement
▁lawyer
▁Bos
external
▁nouveau
▁exh
rop
ental
été
pn
▁Denver
收
▁poems
▁му
▁comprehens
Format
▁ді
HOW
▁representation
▁enjoyable
query
되
▁Gr
▁cad
▁eval
▁zaj
кви
ɣ
<0x27>
Out
随
ር
▁dump
▁Support
▁Voice
▁mill
riven
Been
▁packed
▁achie
▁дере
邮
obby
▁measurement
isting
▁bere
យ
▁Anderson
NING
ucky
▁Some
ctxt
Type
▁hä
▁Vegas
aste
▁spe
ació
reject
ड
stances
▁Ever
▁pulls
▁frustrated
ang
▁recommendations
▁области
▁coffee
▁Lee
▁styled
▁printer
▁root
▁stranger
▁topics
peror
evt
<0x6C>
▁вла
▁improvement
▁marine
▁Belgium
▁Nintendo
▁purchase
Header
▁statt
๏
▁Dru
▁▁▁▁
▁canvas
▁powerful
▁();
pez
▁cotton
mf
▁&(
承
mary
abet
hbar
▁SPE
ption
ε
▁asset
ст
selves
ittel
▁dessen
CASE
'}
▁screens
EEE
ENUM
▁specifically
▁vary
▁побе
端
▁running
▁осо
할
▁mist
▁biggest
▁wounds
▁accompanying
▁|\
】
ⵙ
▁Nik
▁explore
had
▁ду
message
utt
lad
Extra
▁das
▁correspon
Cr
B
▁fid
判
DN
▁FROM
++]
stack
▁cure
▁IMPLIED
▁betting
ls
VERSION
<0xBC>
cí
▁surprisingly
▁Clear
WH
▁form
▁dat
▁current
ช
▁Да
phi
▁+=
▁ask
▁domestic
wl
imedia
▁magn
込
ಕ
▁Hence
дом
▁Unit
▁collection
▁extensive
▁II
};
VAL
▁Roberto
▁consid
る
appa
▁dit
▁solve
▁Kevin
tmp
nonumber
éri
▁Real
▁chapter
▁lib
START
▁partie
▁naked
▁rubber
▁occupation
——
▁behavior
评
▁trump
ually
▁Bak
递
▁early
▁Judge
Hi
AP
Day
Tr
▁teaching
▁furn
▁approval
▁Alfred
▁Cur
▁drag
xtures
▁possess
▁NE
▁Official
ufact
▁tiles
So
Called
▁Filter
▁education
runtime
дон
▁clutch
incing
ioso
hidden
емы
▁End
kon
backup
▁Mouse
"/>
▁enables
▁pressing
Font
▁withdraw
Effect
ában
▁lux
▁develop
▁narr
▁retval
▁bund
▁House

INSTANCE
Image
limited
▁Quinn
推
то
page
▁Writ
covered
quate
iversary
Log
▁surviv
▁adds
volume
華
▁Fer
様
▁annually
▁bonds
▁Sum
ṇ
▁мира
▁tag
sl
}.
achelor
▁spectral
Razor
▁fold
bone
▁WP
▁affordable
ral
Will
alin
▁dort
/"
▁LICENSE
黑
송
▁Tod
▁CF
▁Cette
ержа
eles
monitor
▁wholes
▁manufactured
▁humanity
▁Thom
▁urgent
▁athletes
══
▁ordin
erase
hens
lege
▁javax
'
POINT
re
▁recognize
▁sang
▁naturally
▁participants
▁одна
cip
▁ents
▁куль
ческий
▁indust
chos
▁Kultur
{
stead
"))
▁Neb
▁enormous
olent
ugs
uniform
▁rice
▁eleven
RL
▁none
Named
▁budget
чно
ock
INT
▁explosion
Printf
ふ
▁avant
面
про
▁known
▁ut
▁dataset
Decode
▁Luis
ního
▁Last
▁які
ụ
▁Fuß
▁Fant
▁ост
▁sue
▁Four
▁name
▁Fund
specially
whe
rt
чка
▁bul
▁neutral
▁Yu
▁retry
▁resting
▁cré
▁Chinese
▁обо
cido
▁relativ
▁assets
tab
yman
▁curl
":"
▁modified
▁сезо
▁Fen
zung
Colors
RP
▁restoration
书
]",
▁expend
进
▁mature
너
token
▁Syd
cc
pts
▁clk
ital
an
ota
▁drums
dzie
<0x60>
Columns
▁victim
UC
ummy
터
져
bolds
illon
nio
▁multi
eler
▁compre
<<
Filter
▁windows
▁Сан
uzz
▁ko
▁immigration
▁temporarily
alla
panel
ober
▁Foundation
node
▁edit
Dict
mm
issement
descriptor
Ptr
▁Code
▁mortgage
Describe
Ђ
null
▁troops
制
▁без
noc
8
({
▁gather
▁enthusi
ember
….
▁pens
н
▁miem
Ï
▁basically
inline
출
▁bills
▁respective
Completed
ep
&
publish
間
чна
enci
▁коми
▁rust
▁haber
uration
▁fill
enabled
▁Rebecca
ets
▁features
▁retained
▁observed
▁Krist
변
▁waved
產
▁snapped
▁fragments
▁',
▁spat
▁Snow
▁jed
▁vel
Mask
************
▁nerv
min
skip
▁painful
▁ABC
▁той
▁Bear
▁royal
oxy
▁señ
лове
▁donne
▁comput
א
ა
ជ
▁стру
Params
Functions
ita
Edge
▁соста
Texture
inceton
avg
▁Ut
={{
ala
<0xED>
pdata
▁addresses
ighters
▁dimensional
▁Stuart
树
▁jo
ASS
▁fir
▁social
ivi
▁hook
▁regional
pec
Capacity
▁пр
ื
▁concentr
▁Agr
ement
ipa
dependent
▁embrace
順
▁mistake
Bind
unter
▁Für
▁artikel
Lead
▁nin
▁Choice
̀
▁=\
▁Bast
riz
oor
бря
▁Douglas
ecut
aha
binding
elcome
▁BT
jar
▁fetch
memset
▁userId
題
连
Second
▁shru
and
▁pr
闻
idget
▁verify
wb
OS
▁strikes
▁castle
Google
•
▁toute
▁occ
Li
▁layer
▁favorites
▁ih
<0x6F>
▁meantime
âte
▁Ram
▁Hair
вата
▁Municipal
□
▁släktet
uspend
﻿
chrome
кономи
▁mobility
▁blocks
元
▁Glad
Flag
▁trib
'\
▁nat
incip
andid
java
▁BY
▁deploy
ိ
▁violence
▁теле
▁probability
▁Autom
▁celle
▁Ng
kar
▁Qu
test
details
▁Send
▁shifted
▁caution
▁implement
▁photography
▁management
album
▁weit
Modules
ied
▁Plot
▁Labor
▁thin
Picker
▁born
‭
рая
Seconds
that
га
▁Link
բ
ḷ
▁satellite
▁elle
ires
▁wanna
▁adj
<0xDF>
itzerland
▁anybody
gem
стри
okal
▁Birmingham
ML
aku
got
▁cc
windows
ATE
▁Academ
▁PE
▁Upper
▁Boy
bound
Virtual
gence
▁nerves
ctors
▁Marine
▁onClick
▁escal
(@
▁duty
Sys
rupal
Book
▁engines
▁amaz
▁Fast
lyph
utton
▁absurd
▁whereas
▁requ
тур
Need
▁Peru
))
希
straints
▁shoulder
ž
▁Wayne
ी
cd
Built
カ
)\\
offs
▁actress
usion
▁concerned
▁ultimately
▁sheets
▁shed
▁cha
best
▁prés
▁describes
▁FO
▁headquarters
▁Names
▁mention
сс
LAST
Live
▁");
▁вре
oba
▁Kre
ogo
▁reflects
insula
▁uns
▁haul
orest
Christ
uch
▁indication
▁toget
alpha
▁beautiful
tg
▁streng
▁phen
▁sub
sig
▁dead
oker
▁Marina
▁technologies
▁sciences
▁départ
▁UN
'),
Lines
銀
▁velocity
wards
annon
项
▁Array
iembre
iggers

▁hash
aler
▁ignor
▁especial
jour
▁accommodate
▁Sandy
又
▁center
ù
▁tanto
");
oph
▁hatred
▁conver
▒
ɕ
MEM
▁ment
ný
agers
leased
▁faces
▁Kom
▁eth
▁detector
пози
▁spot
▁amplitude
▁raid
jel
처
▁easy
Som
ub
▁oper
▁safely
▁pushed
▁NA
▁consistency
str
▁recording
▁cancel
absolute
必
<0x72>
bas
*),
▁shooting
º
Π
▁intense
▁Па
▁delta
▁Ä
▁jazz
▁reli
рован
―
▁discussion
▁production
▁comparable
az
▁VER
▁provision
▁versch
▁acquired
▁$(
amp
▁Bar
izer
정
▁bl
nost
▁esc
uy
mount
parameter
be
full
▁Cover
▁consists
Unmar
abei
馬
▁différent
▁Tall
▁fins
ско
▁conce
▁horizon
▁majority
ymbol
actic
▁terra
▁alleg
fre
кор
适
▁usual
▁Flow
Act
5
▁Angel
▁songs
ách
ỉ
VAR
▁cattle
amic
ি
当
username
▁prof
▁Bi
▁Su
ificial
▁Poland
▁episodes
▁firing
fr
ened
方
clusive
轴
MD
aching
▁delle
▁river
▁NV
ị
Partition
Io
少
▁Sr
LI
▁sophistic
Assignment
glied
▁between
нд
▁finds
<0xC4>
▁diary
pend
▁&=&
ття
▁duck
▁office
▁боль
tern
ώ
▁Fu
▁o
}}_{
▁Lucas
▁reset
Super
▁fool
▁declared
ั
▁altern
complex
▁tire
▁hundred
uga
▁lay
”
↔
бы
​
▁hyper
ți
é
▁performs
▁High
ष
▁Dort
▁tarde
щё
▁Love
▁nove
⇒
▁compos
▁tom
▁graphics
methods
value
▁Vere
▁hasn
▁competing
부
满
▁parti
▁SY
▁Scott
want
▁suffering
hedral
▁reun
▁useState
품
▁Medic
▁unple
¨
精
ministr
▁fi
▁gifts
鱼
Yeah
▁Their
Runner
Т
▁Jazz
ho
▁neigh
Res
▁certified
▁TRUE
("#
omic
▁renamed
SRC
▁Mary
▁dirt
▁essence
▁File
Headers
▁pub
▁[`
arium
._
▁proceedings

▁Massachusetts
▁illusion
▁leak
▁obligations
ulus
ME
▁Philippines
enza
😁
▁java
NESS
ends
quote
glass
рь
▁'''
▁helpless
▁EXPORT
▁rushing
wikipedia
dro
▁Laura
coord
vr
▁Bon
▁Town
▁pip
pto
▁sponsored
▁Terms
▁Leben
签
appers
ℓ
▁numerical
tx
spr
▁stra
▁clicked
▁))
<0x9E>
▁Atlantic
plied
fc
yer
▁Forum
pod
oday
▁super
Entities
▁ide
▁agree
▁p
FB
arently
留
="/
irm
ran
▁rough
Un
STAT
▁conference
eree
estro
▁sequences
作
plement
put
▁difference
▁Caption
swing
▁clouds
▁issue
profit
rique
criptions
▁которых
▁opposite
Arch
ត
HD
Ӏ
erta
Animation
▁Yale
Contin
ashington
news
▁rental
ῶ
czy
總
Browser
▁evaluated
rix
лей
country
▁Евро
ica
раль
▁"*
[:,
▁reddit
灯
urer
just
бор
Condition
Đ
死
<0x0A>
▁discipl
师
季
ATION
Json
ß
▁Chelsea
▁mars
length
▁stated
▁Amy
▁limiting
▁Late
▁experimental
registry
▁sudd
▁После
of
▁prend
osto
▁odds
ieren
▁rom
Drawing
▁chez
Cop
▁på
▁Organization
ὰ
▁testing
resources
▁seven
▁summit
▁cheeks
atern
▁peas
▁Hob
ー
▁Similar
Task
▁Hard
Listener
T
ativa
▁Software
列
awa
▁Jose
▁rock
▁Claud
▁Sic
甘
論
▁dishes
▁Jo
»,

rides
--)
ve
jud
)?
Mail
urbed
▁Sir
EXPECT
▁Ti
_{\
▁sender
emperature
▁dévelop
пер
mov
我
display
cé
ancell
▁area
WO
Invalid
▁King
▁beauty
▁plasma
esa
<0x16>
迎
izont
rea
enario
porter
image
▁Sylv
▁segment
**************
lique
▁go
▁Louis
▁Mat
⚭
▁god
▁ER
▁pic
regon
▁oktober
▁kit
▁it
▁hesitated
▁streams
aupt
▁Bachelor
▁improved
▁Cot
▁corrid
Xamarin
▁assert
▁Watch
ylvania
▁encounter
围
▁teachers
▁kom
▁Haupt
кої
ugin
orts
徐
▁Arab
▁slept
▁anti
▁retriev
▁TYPE
▁customs
▁dens
odio
terior
>@
her
▁States
...'
▁lag
▁sever
航
ября
listener
BUT
▁Hil
▁Kel
Y
很
▁mis
▁Select
▁beneficial
cussion
▁compatible
arroll
<0xE1>
▁AS
▁copies
ną
ѝ
▁];
▁Major
*\
≈
▁provin
▁Grant
кі
Management
▁Hat
cke
▁fucked
Ign
begin
icles
▁Catherine
▁equity
▁privilege
gu
▁bridge
▁Ferr
▁medio
{(
▁dialogue
made
▁diamond
orent
▁vale
▁Stream
▁circular
▁Titel
▁INCLUDING
Mo
Operation
▁tan
▁explan
▁Dez
Managed
▁jako
}}_
▁showing
cop
▁dad
tile
▁Reference
add
alous
り
orted
хи
▁vamp
览
ovi
cial
IR
什
▁chapters
fore
▁Merc
▁strategy
▁Hotel
▁décembre
liver
▁орга
er
▁Original
▁comply
ialis
▁need
▁fiber
▁pecul
apped
▁Ц
▁equivalent
▁redirect
▁VIII
iller
▁Hab
夹
finder
▁great
ued
▁авто
▁commander
▁Jin
热
▁avoir
ɵ
▁mass
▁fifteen
Ф
▁вос
十
▁fire
▁così
▁▁▁▁▁▁▁▁▁▁▁▁▁
lt
rios
▁Sohn
大
▁heat
жду
ancouver
▁thunder
configuration
iki
▁faithful
udio
▁schools
▁striking
▁implied
imento
)(
▁Money
ôle
▁ради
▁?></
▁admission
▁sl
▁calc
▁analys
▁depicted
▁printf
.]
־
▁Runtime
▁paus
igten
▁input
Ó
ilibrium
sources
▁Beijing
ZERO
▁most
▁vir
▁include
▁household
测
▁bool
Details
▁Business
▁interact
sep
陈
▁carpet
tele
▁tm
▁scheme
▁sen
▁chairs
'=>'
▁stating
▁favour
ters
▁will
▁por
listen
__.
lean
▁makes
▁recalled
▁spouse
叶
ken
▁enemy
▁населення
CU
▁Rich
Null
azz
vious
род
▁Rio
Supported
äh
▁separation
isine
▁resc
▁rhythm
▁number
▁noble
▁longest
вати
Clause
음
Ħ
uent
▁inline
lav
color
▁ERROR
ACC
▁tamb
▁nutrition
▁shout
TARGET
vent
▁bits
drive
▁builder
▁university
ima
▁compare
▁Imperial
马
ץ
累
▁purely
▁язы
▁pressure
▁prze
团
▁gegen
äch
▁Austria
▁dozen
<0xD9>
Tom
ологи
rogen
PL
claim
FIG
▁advantage
esso
ary
▁scripts
Ë
▁Cour
▁measures
lat
 
▁both
heap
▁él
▁pictures
▁mines
isches
Delete
▁julio
nu
фика
彩
▁der
▁defeated
▁out
ं
go
▁June
SERVICE
▁configuration
hund
▁[-
w
▁Prince
WAR
▁determining
든
Connect
EL
▁ию
▁hear
았
▁PARTICULAR
▁hockey
Music
ซ
vare
▁dynam
Forward
legt
怪
Pub
▁poor
▁accurate
▁Lock
▁vendors
vo
▁mob
▁составля
▁tit
两
».
▁Wr
▁bloody
на
ogue
rowser
▁illustr
Services
▁пі
▁warned
FM
▁physically
olved
▁leap
BER
▁integrity
acion
七
istics
ammed
▁gef
▁Season
▁traff
▁Brand
▁LP
▁squeezed
acht
▁af
elseif
▁reminds
description
▁AND
▁instead
<0x33>
▁Bund
ič
▁Grey
gow
수
▁lazy
▁pal
ব
Ґ
iving
▁Result
edy
▁user
zu
▁Li
aption
YP
ש
株
湖
forced
Unlock
▁тор
▁Ap
▁last
eder
▁}\
<0x9D>
▁▁
▁instant
▁Easy
ция
ceptions
AF
Abs
zs
▁reply
х
▁treatments
uba
pective
gui
▁wrist
connection
▁Roosevelt
▁актив
▁perman
권
▁september
▁recipes
行
位
conom
▁vill
▁What
▁operator
▁u
▁arrival
▁ils
ides
▁atmos
▁Pf
ully
oned
▁plain
IO
LENGTH
--------------
ย
త
▁NEW
▁transportation
ู
▁Kings
▁Diese
density
ively
ей
▁unders
▁religion
▁Roh
Autom
ख
▁Urban
割
▁Ford
utsch
Xml
mouse
佳
писи
▁empire
家
pet
ologically
dst
▁mysql
ź
檔
弟
ało
▁bit
csv
onie
敗
лі
▁saint
fb
aligned
▁Биография
ness
edly
▁Za
▁tt
▁determine
▁weed
▁crack
ły
▁Neil
emi
▁Prim
"]["
бора
Modifier
Tele
чина
ità
▁l
Line
▁exercise
▁currency
RX
▁sharp
ง
▁rushed
▁два
PO
iciency
лек
▁bedroom
▁conven
indexOf
▁man
ulating
tenance
▁Enable
✭
▁cas
зульта
▁gibt
ussian
Ray
▁pronounced
script
▁List
▁Images
dict
▁Entertainment
✪
▁petition
▁remain
▁salad
▁fed
▁beings
reement
▁Val
▁volunte
▁flush
pgf
▁exec
Á
ees
드
▁K
▁Mull
gorith
▁fort
▁Vir
ющи
▁typed
▁Activity
▁ві
▁Tip
▁Ave
▁Window
▁universities
▁structure
▁factors
▁Block
▁Emily
▁він
ब
.(
gpio
▁young
ouw
▁première
▁Tool
OPER
▁служ
▁writ
DEVICE
гля
гом
ach
ormal
}).
▁extr
SELECT
▁stell
ху
▁fatal
▁signature
▁updates
ARGS
сли
▁absolute
▁llev
Ř
Seg
▁train
Compiler
▁Help
▁Armen
▁Cape
▁!(
▁decides
儿
▁Brigade
误
▁general
▁fu
▁patience
mod
塊
U
▁san
▁кни
outh
桥
atz
Margin
▁commut
▁consistent
▁epid
▁till
era
▁quantum
!(
xp
gs
Decoder
▁anymore
▁high
дей
▁Whe
ository
▁rim
го
▁Schl
▁и
▁und
Mode
Click
▁Ris
▁service
▁Ital
▁trabaj
<0xD3>
▁Cam
▁surroundings
ucht
▁box
▁swallowed
▁успе
▁mig
▁Sweet
Anchor
Box
▁tackle
▁happened
olar
▁application
▁befindet
ベ
ched
▁January
erie
Ъ
рат
播
Clip
▁merc
чески
▁sale
quot
▁sto
比
▁fallen
▁appointment
▁Mission
BIT
▁associate
▁про
▁tow
▁_(
anç
Well
।
OM
mitt
oli
▁Bird
FC
oes
ELL
izada
̶
规
▁France
▁cats
安
▁spoke
▁ikke
▁ML
ifacts
ший
▁lo
▁trailer
Anal
seconds
▁Notes
▁Cor
▁vis
▁{
▁asym
▁pela
odes
▁electric
▁computing
віт
故
avelength
mma
fem
▁prevents
▁company
itive
▁„
▁WITHOUT
▁West
▁todos
▁scales
UES
▁speaks
setup
▁YouTube
вая
ま
<0x64>
▁flavor
}{
▁nurse
▁Lag
▁shorts
▁Trib
▁beef
Hom
▁compt
▁influ
▁реги
▁divis
ỏ
▁receiving
用
ря
▁cycle
▁knees
rad
ös
?"
ős
-
ジ
▁Saison
oken
▁Site
▁reflected
objects
▁embod
▁Until
court
oney
KEY
amer
origin
ero
▁entert
▁Ar
▁wheels
▁epis
▁consume
ivos
▁что
ång
vik
▁login
Returns
▁pink
ILL
▁innovative
▁Med
{})
oto
▁locale
anka
akh
Init
區
▁Serv
▁assume
night
▁Summary
Elem
▁kitchen
includes
вом
girl
▁Ron
▁discrim
▁Host
▁lunch
若
ont
uses
券
клю
▁Dale
auto
arrow
▁sight
im
▁клу
MON
lookup
icture
ArrayList
athers
▁nä
▁Describe
▁trails
Que
ча
obe
▁STE
še
oga
at
▁Creat
▁genuinely
▁aunt
ག
▁prevent
▁dil
paces
argument
▁approx
EqualTo
MBOL
▁obj
%,
접
▁carry
▁Norway
IA
▁explicitly
▁unit
GL
▁Kal
gt
▁hunt
▁Ста
ulously
▁Left
▁thought
▁working
▁ста
unused
▁cand
ucker
ounter
▁independence
ctic
<0x4C>
▁Action
SP
nament
▁BM
entr
入
elligence
▁би
▁Anna
%%
raw
▁politics
▁comfort
''
▁neither
Neg
ambda
▁hunting
▁Independent
can
▁withdrawal
jan
Dark
antage
seg
arel
▁religious
me
Case
pur
orld
▁penis
▁cuatro
▁mounted
Alignment
##
HS
▁period
strap
elin
▁cm
▁стар
▁DOM
Power
itution
没
uvud
wallet
见
yd
▁Age
▁Abb
nell
▁Child
▁sat
next
izia
庄
пе
acts
Tests
groups
Path
▁мі
▁ears
Pack
▁когда
illing
▁перед
▁guarante
ў
▁radio
irus
▁été
пло
▁unset
▁preserved
ethod
▁Classic
唐
▁scandal
▁și
About
▁thr
道
points
kernel
]\
▁compass
vision
ventions
▌
▁AR
▁tied
▁posto
索
▁favor
▁Secret
▁Architect
mouth
▁Kamp
读
▁compared
▁UI
▁undert
rm
orna
olence
MOVE
los
INTE
empt
alo
▁happen
Effects
Directory
mathcal
socket
▁Cons
bia
▁Incl
rite
▁appreciated
▁pan
▁artificial
olate
FS
warn
▁glory
▁Speed
▁ones
train
▁automatic
▁classe
▁Reb
engers
acco
()}
▁delete
▁powder
▁human
▁entrepreneur
que
▁María
┐
▁Febru
▁Terry
▁succeed
▁humans
▁ис
▁BBC
ональ
▁по
联
▁Turner
▁чер
esto
controller
agy
▁exem
ním
sf
oler
linewidth
prov
▁Transaction
ahren
tools
тей
▁worse
▁researchers
learning
лова
▁Container
ays
▁direction
pg
▁engage
▁practicing
bucket
▁*"
▁happily
út
▁Tell
▁green
▁Hello
▁flex
❤
▁Query
▁Being
▁się
Scal
▁Ü
▁Ku
▁boats
Si
MARK
dhd
▁overse
▁налази
val
▁*/
▁Mountains
спубли
▁Running
card
▁Kaz
Direct
jection
interrupt
▁numero
▁idi
▁borders
▁execut
友
否
▁Miguel
▁pov
▁DR
=(
▁Post
▁anxiety
üg
┈
▁slammed
lers
▁corrections
gorithm
▁ye
band
&\
▁Dest
Δ
▁natural
ancellationToken
aping
UK
inde
▁dram
TestCase
▁babies
rees
с
▁Фи
▁nuts
ft
pe
Types
▁allocate
▁advances
▁platforms
▁achieved
ɛ
永
▁erh
mark
▁Jimmy
>)
▁alors
ป
chart
視
ips
▁Mid
▁Apr
mat
bean
▁gorge
errno
Fall
고
▁hind
тно
UP
框
{$
ej
мер
▁So
форма
▁Friend
唯
▁има
SETTING
▁Rum
Utility
▁ste
MEDI
Updated
See
>("
DEFAULT
Actor
▁possessed
▁pró
▁worthy
회
ит
▁pap
æ
▁LIABILITY
▁orient
▁ens
▁filed
▁då
airy
▁corps
Binding
▁scholar
▁focus
▁shift
▁Each
▁Europ
▁been
▁staying
KS
ACH
▁whatever
▁Ken
▁energy
ollary
iska
▁Pet
uß
нах
gnu
SH
▁Empire
▁curiosity
▁з
rought
au
▁hybrid
тся
▁compression
▁dimensions
량
ople
▁Си
▁Student
聊
▁Color
eln
▁marble
ною
verify
ęp
▁Bond
ids
ší
▁préc
negative
▁synchron
iores
dn
존
HERE
###
ierno
▁tried
irtual
▁utiliz
▁Strong
odge
▁quantities
▁htt
▁Field
,\
▁footage
완
кола
▁try
ueto
▁desperately
unregister
owie
▁cav
kte
hot
ression
▁indeed
$_
▁theatre
▁atomic
▁SEC
▁actually
น
▁upload
▁organisations
vt
atis
▁emit
▁TX
▁courtesy
▁newly
▁pipe
inkle
⇔
▁Lic
ций
COMP
▁imm
ności
plugin
覆
▁Dennis
▁struck
aus
▁marry
▁Clar
prototype
PC
ген
inging
<0x2C>
ribly
▁wash
icol
▁administr
▁sort
յ
▁ash
▁download
ray
▁Cohen
▁begann
ව
▁determined
ри
চ
твер
於
▁fert
);
▁winter
upid
▁opportunity
掉
▁fur
liga
▁easiest
▁aus
▁eine
_{(
Storage
▁burn
▁Pam
▁afterward
も
▁propri
▁scient
Checker
◼
▁assertEquals
cl
嘉
ialized
ma
Empty
Runtime
Lin
▁Ty
▁это
▁Users
spec
();
는
库
istant
▁lawyers
▁warmth
▁Prec
acional
▁deeper
visor
<0xC3>
PCI
RED
history
▁popula
ত
▁agricultural
▁rape
▁akt
ponse
▁Wo
▁decide
two
ossip
순
)?;
prod
DMA
ear
peonato
▁configured
chat
final
áj
▁vé
▁expense
ご
vv
▁going
▁equilibrium
▁fierce
▁polar
ester
Bit
position
▁ARE
▁imported
▁remains
▁december
▁payload
▁drives
▁positions
▁notably
▁certain
ew
▁avril
▁registr
client
imos
▁them
▁č
▁cou
▁programs
aments
ಗ
▁galax
▁party
▁arms
▁Mart
▁Tal
▁resulted
▁ihren
½
▁formula
лав
attan
imo
install
Play
other
","
▁soph
f
▁zak
▁latter
CTOR
▁Rangers
idding
яви
▁Computer
▁manage
▁twenty
али
shal
¶
▁same
▁cet
getElement
ни
▁Ped
▁trag
س
▁collect
▁proved
▁partially
▁prin
▁tand
초
▁speak
▁té
▁air
▁SH
▁painted
▁télé
-.
amarin
iesa
▁seat
Very
▁operators
bles
<0x0B>
▁real
vl
▁Wor
▁cognitive
<0x81>
▁wanted
Mass
Person
FAILURE
ORK
▁caus
matic
▁punishment
▁amount
administr
Su
▁Magn
“.
perm
sd
▁occup
ACHE
▁arrived
▁wave
ant
▁Sac
east
іль
▁Toronto
ฉ
▁meetings
▁-*-
▁ded
ational
▁został
amped
▁köz
XX
ae
iman
▁assess
Chain
▁strategic
▁nouvelle
▁despair
▁entering
ator
netic
▁mechanism
▁Oz
list
▁dog
isions
▁voltage
▁Application
стве
▁z
},
镇
▁faded
▁planned
▁excess
▁secure
▁me
▁Available
ema
lined
訊
XML
▁leaf
ボ
▁honest
ios
ก
yn
pf
▁Wol
▁alc
▁Thought
▁constr
прави
寻
▁vulner
▁motivation
▁negotiations
zz
pection
▁Palmar
把
mv
周
iner
done
lower
atched
▁responses
▁pay
Ü
ingly
▁mö
Consumer
atte
▁grocery
▁liber
сен
▁Compar
wię
▁*,
▁deadline
▁Bass
▁passes
À
ug
substr
▁Stre
▁toString
▁payments
std
▁affiliates
▁dim
DESCRIP
▁Vietnam
▁Населення
наль
asso
终
iche
▁constitutional
Deep
uelle
World
syn
快
ి
▁fat
▁suddenly
▁demand
ave
ө
ở
▁grad
aze
▁ministry
ionen
Phase
ables
▁Stand
Mal
▁cruise
▁background
▁scholarship
Une
▁Earl
<0xD0>
▁Floor
▁syntax
▁edited
▁Juli
tree
▁aboard
▁navigate
▁sar
<0x07>
ously
mund
▁divorce
▁ta
▁master
werp
▁interactions
▁LE
ící
▁cow
му
Db
▁apr
mx
י
▁Sc
▁inwon
bounds
Iss
liv
Disabled
▁Iv
母
Е
▁Service
▁shelf
▁<<
<0x02>
<0x66>
▁celebr
▁dying
▁Wow
щи
FTWARE
Loader
▁guerra
cean
contains
▁skulle
Tim
▁kö
{"
력
▁prim
▁investigated
盘
▁gains
▁nas
ainer
▁uitgen
LM
▁стра
lbl
ROW
van
▁участи
▁rh
▁sounds
рио
kor
wig
▁ella
),\
)}{\
load
dsi
め
⁣
▁Je
▁nun
▁mer
:%.*
idel
annel
▁obt
Ignore
▁engineer
编
border
Sche
▁experiment
▁CE
▁disappe
द
▁verb
ály
로
▁Char
vé
▁Nether
▁tools
rapper
retval
▁invasion
debug
Selected
▁Setting
غ
}=\
▁chain
▁Sally
iasm
尼
ipt
▁vote
▁horse
FAIL
▁phases
▁Einstein
codegen
▁enemies
▁Rein
所
▁inn
▁interven
▁twee
aden
IDs
▁мет
▁Tam
WA
where
angers
▁beer
▁spectra
▁bew
icense
CHAR
Collections
▁prefer
▁ending
▁klub
hetic
OC
<0x5B>
Total
্
вые
œ
▁Mult
слав
▁momento
▁fourteen
▁fish
か
fff
ician
chester
jen
▁XIV
>",
▁vanished
uild
<0x3F>
▁nervous
äck
▁escaped
aved
▁fishing
▁setup
▁text
▁tv
冰
▁associ
ES
▁convert
abi
ной
<0xD8>
▁blinked
ailed
▁coeff
▁Sci
▁level
▁Travel
▁traded
dp
Gateway
ieb
]])
PROP
▁gel
문
rist
graded
embre
nik
PASS
Login
▁nation
лла
iken
▁dispute
▁operation
▁bast
MESSAGE
▁fitness
미
▁country
leveland
▁Boolean
▁gegründ
pleted
▁Hall
esta
icken
▁roughly
WID
▁isolated
▁jewel
▁Args
ix
▁issues
lc
▁Inv
vendor
▁enero
走
jango
כ
暗
▁DAG
▁%,
▁Thus
▁PO
▁SSL
▁marketing
▁depart
ilib
▁ers
▁станов
pletion
▁Springs
ugu
neg
ibli
▁LI
On
Scope
▁climate
DT
▁CC
▁через
était
ptions
Event
▁intellectual
Integr
▁chall
Append
该
▁Sample
▁hay
▁Kon
▁inflation
▁Cad
幕
ieck
attice
▁representing
▁gained
▁seemingly
▁Track
greg
▁Ре
▁toilet
▁overall
Success
▁founder
风
토
ющие
▁Wel
dim
na
▁Angeles
Control
▁пу
▁abort
▁Sed
▁attending
мента
▁Buenos
▁willing
▁exc
публи
ret
▁shock
width
▁regarding
Arrays
▁pour
MASK
ican
rant
paragraph
▁investment
▁taste
agra
▁aid
▁Democratic
▁tot
Ö
orden
atie
system
▁Prime
ockets
social
▁rectangle
▁off
▁stroke
uda
▁TL
▁spark
▁Pier
▁risks
▁symptoms
oci
ainers
▁delay
kappa
▁custom
poch
▁journalist
unci
nate
lag
▁depend
▁Our
жива
含
vas
,"
player
iser
UNIT
▁liberty
▁tele
iblical
Action
激
izione
Tracker
oles
▁incred
름
iat
▁handful
▁easier
▁city
▁situ
EP
▁q
adow
category
为
▁muttered
▁право
▁ч
▁ac
тен
uffix
▁assumed
▁Cho
ェ
▁justify
▁delet
▁fou
sc
isf
icious
▁Bad
oct
aje
df
▁brush
▁anniversary
▁prevented
RO
▁Appendix
theorem
▁brutal
▁GD
obj
▁Recent
▁policies
▁vet
ٍ
四
form
constant
▁distinction
▁species
质
▁октября
>::
月
being
▁gallery
setminus
WC
▁fr
▁Sil
acci
habil
▁football
IP
essage
▁Austin
▁Tips
▁queries
▁vertex
su
▁ство
▁MI
iced
rizona
ellig
conscious
▁Between
ány
”.
нер
Like
last
▁tradition
attle
▁MR
TDM
CO
▁spaces
<0xCE>
▁perf
▁regard
▁pel
disk
Selection
tem
封
▁cyber
▁sla
adesh
chell
fish
▁One
_;
óm
▁everyone
▁stretch
ょ
▁Medicine
▁unique
▁disappointment
лага
cam
led
▁bar
Gen
цій
ąz
▁enter
▁Menschen
▁countless
version
▁talents
statement
▁back
帖
∑
ual
▁activate
:*
▁charity
▁iteration
unte
▁Stud
▁gol
ery
▁Esta
径
::<
影
▁son
▁jury
cular
▁против
вы
label
Capture
▁Erik
ціональ
bo
kan
▁revolutionary
oen
aca
öm
▁emb
▁charged
▁Jama
▁order
▁observer
ché
▁unlike
cia
orge
mor
အ
▁Stan
▁entropy
▁Nash
flag
▁thickness
ization
mon
▁interview
▁outcome
▁toler
Position
ł
▁fundamental
▁cin
답
▁Rick
▁computers
相
ONLY
▁eastern
▁призна
sing
▁ptr
▁convenient
verter
▁egy
▁recovered
▁Meter
▁occurring
选

actor
▁elev
▁Ple
ickets
Under
HEAD
▁potatoes
int
だ
▁wound
raz
▁canon
▁summon
▁adapted
oc
감
▁Tuesday
Serv
<0x5C>
▁Const
▁szer
▁Fest
keeper
auses
▁участ
▁cached
血
cri
aning
▁functioning
▁AWS
▁athlet
▁serve
▁deal
poses
▁Hockey
ვ
▁temple
▁burden
▁neighb
MBER
▁Klein
▁candid
Comment
▁Sunday
▁drawing
.'"
▁drive
サ
🤦
▁(!
▁explored
ITY
▁writer
allo
▁извест
lij
▁aster
▁patri
Password
каза
▁complicated
▁пол
▁killer
▁adapter
▁Plan
Uri
胡
▁vy
念
▁Castle
▁tid
Linear
cur
forEach
Tooltip
▁O
▁harmful
rio
ého
▁př
That
▁Begin
▁Corn
▁matched
▁scaling
▁diameter
م
章
▁Um
fo
ристо
▁approaching
▁Summer
▁barg
sun
▁Wright
▁beh
▁Learning
▁correl
▁dw
▁supporting
Sample
▁cooperation
占
áz
▁substant
degree
▁crypt
▁geometry
▁Criteria
▁County
educ
▁convince
▁farmer
▁bonus
ω
▁batter
▁Mayor
▁secolo
ket
Score
Ō
aud
▁radial
▁er
▁warriors
rá
ッ
osity
deep
▁befind
шего
▁remarks
▁colonial
known
alloc
▁[
Ch
▁four
▁accurately
Der
~~~~~~~~
eta
▁gone
κ
▁GPS
eter
▁panic
▁Hol
续
▁Broadway
Customer
舞
▁worked
▁duration
ồ
▁Enc
Parts
▁studied
ctions
▁files
▁вклю
iero
Include
▁Fal
▁égal
▁Apparently
utenant
▁Amaz
rd
▁Palestinian
рого
ence
▁delighted
uing
boy
▁dod
▁$$\
▁des
resa
('/
애
▁Oak
▁може
isy
ær
Iterator
▁ноября
will
▁Silva
造
ฝ
▁ESP
▁therapist
率
▁buffer
бер
▁dorm
▁Mil
ategor
})\
▁Bloom
Would
▁presenting
▁surprising
▁involve
lica
▁whilst
Preferences
▁sucked
irl
▁Where
▁Near
▁ruin
▁Confeder
$(
ت
ature
inking
urn
state
Wrapper
Fail
зно
img
title
uly
▁Pac
▁пра
encer
▁item
▁Shell
rys
▁Berg
▁leaned
▁DJ
."_
нов
▁Hier
commerce
▁especially
elijke
▁rude
▁available
▁damn
編
<0x82>
▁Rock
[(
Src
▁Crown
▁Truth
impse
외
▁Ж
об
▁Flash
Û
▁ward
▁prejud
▁conform
▁kind
银
loaded
炮
老
▁Lyn
▁Creates
<0x30>
▁Restaur
ස
suite
ђе
UNT
üll
▁Before
Opcode
▁aggress
▁BR
▁народ
LOCK
Pointer
previous
compress
olo
落
▁invariant
iste
{-
偏
▁inspired
▁обра
apter
▁http
learn
▁accessories
▁stations
▁refr
▁Tyler
ј
Water
▁avoid
removed
▁propos
▁listade
▁based
AspNetCore
▁magazines
Г
夫
▁USE
▁Fem
extension
▁host
▁ras
▁Joe
▁website
▁research
▁trained
▁decomposition
rough
rieg
▁subs
▁decis
keley
▁[\
▁indicating
▁même
▁town
▁reve
▁Ruby
$,
pull
▁belonging
ર
pare
onds
ysz
⁄
▁hopefully
▁nevertheless
личи
ɪ
▁SN
ن
CAP
iblic
▁adventure
▁behav
认
▁space
▁rac
▁cookie
▁latach
akten
adio
▁TD
▁replace
▁reaction
▁late
lope
▁retain
Validate
$.
uv
▁ts
▁USS
getData
®
跳
▁nil
▁Bab
▁profile
▁Back
▁doors
Family
jär
zer
▁soap
cedes
▁complain
pid
ós
ública
itempty
ustral
ais
getItem
▁spé
бур
drop
▁cloth
▁comenz
licher
ân
pul
▁Geoff
)+\
GP
iety
!!!
it
SSL
▁pot
▁Ven
oche
шу
נ
udad
▁state
icode
constraint
산
EINVAL
▁flood
▁opp
▁price
▁curt
▁Вели
▁bore
原
▁classical
ential
lib
▁sin
▁seller
▁Gard
▁sleep
▁eight
ridge
▁asleep
▁clar
▁або
▁relev
▁Auto
циона
"%
▁connections
▁Mon
ori
fif
makers
▁waited
<0xA0>
ceive
▁se
▁fest
process
▁conv
oca
undefined
ำ
▁ident
▁judge
Begin
nan
▁discount
├
▁album
▁username
ournal
▁GP
▁brain
possible
▁shots
COLOR
assem
ogy
▁Vienna
と
▁Once
▁consequ
昭
Logger
▁→
rupt
▁calling
▁,
▁porch
▁pseudo
▁Wednesday
▁conflicts
äst
▁renown
و
▁sv
気
▁constraints
]['
▁synd
END
▁condem
▁attraction
▁Fl
▁spun
转
软
▁impossible
▁controvers
▁personal
}[
▁elderly
▁heap
▁quickly
隆
itably
두
Destroy
ansk
Month
▁ult
▁Vien
<0xFC>
eso
▁Children
▁fut
vals
▁Mann
▁bounded
▁placeholder
▁Youth
▁bil
▁discovery
▁raz
▁aligned
▁secondary
ене
▁Nicholas
():
<0x93>
▁blond
▁drew
▁mt
(
▁Anthony
▁Jay
▁ме
signed
▁Amanda
slider
▁rand
拖
▁все
則
ザ
could
ци
ównie
似
illery
▁ven
▁Commercial
▁luglio
pgfqpoint
onen
▁Philip
wie
▁standing
▁Texas
▁Amazon
▁library
▁paste
▁Rem
▁aggressive
ry
blo
Listen
strlen
▁mas
▁Bibli
https
▁portrait
INDEX
arter
ales
▁ц
▁dollar
▁broken
ield
ви
▁cuando
anon
Low
ври
尺
ocur
▁pulling
▁È
▁před
▁меда
onder
question
內
OP
▁coll
ingo
▁processes
▁rack
略
▁arrang
Tools
▁might
ening
▁peaceful
ück
▁си
ступ
▁elif
▁Mis
▁Vin
olin
Links
▁wurden
▁reput
куль
este
Om
BM
kins
▁assuming
▁около
SCAN
ното
▁health
NV
東
};
romise
[-
pio
▁Grid
▁até
вин
Paint
▁Den
▁following
▁pursue
▁últ
▁Anc
▁arrog
чной
ivo
▁notion
/,
iem
▁premi
IT
BY
iera
=""
▁Forces
急
▁deals
ippet
<0x45>
▁union
igne
сов
▁Kas
試
allen
▁tech
▁contributing
▁chase
▁decorated
Custom
▁debris
▁expos
Param
▁Brist
细
dar
▁appel
▁souvent
icking
▁Asian
▁pb
므
products
ого
▁Report
▁Kids
▁scale
▁DCHECK
▁организа
▁Heritage
続
ai
(%
▁Tibet
▁idea
▁bes
▁три
Jo
▁raw
gan
scal
গ
▁tilt
▁Monday
ClassName
▁boys
작
Ind
▁...
▁dicembre
▁engagement
▁operations
Large
受
▁crime
돌
];
▁те
▁isset
▁Gordon
▁doll
ICS
▁em
GRO
fetch
▁weather
ския
inition
▁zich
ighed
<0x00>
Lean
Sets
▁special
▁ott
▁stages
▁також
ں
▁evident
="<?
▁chance
pte
▁PG
▁rub
▁Extension
警
minus
inx
▁networking
▁herman
·
▁Philippe
asters
cript
}}{
ograp
nar
▁mission
シ
▁laid
‑
oses
▁catching
кий
▁genom
Cluster
▁electricity
▁inferior
тів
BI
sprintf
NP
verts
▁Yan
STEM
ért
展
"]
▁flip
房
幸
▁matter
▁minimal
▁š
▁truth
що
▁Json
scriptstyle
allery
agn
▁Dies
unden
▁spoken
igate
ré
Trace
zw
link
Yes
▁convenience
▁fprintf
kg
▁reward
lit
自
<0x68>
ich
qa
ah
▁spl
▁oct
▁conduct
▁Subject
och
мя
atar
▁disag
acz
<0x6E>
ild
His
▁logs
▁ки
),

pars
inode
topic
▁Iraq
▁wen
▁Kön
▁Ét
rito
egründ
越
▁paras
term
PU
▁fate
Part
reddit
▁rarely
▁entry
▁fn
Throw
ল
▁gepublice
ី
튼
▁mental
oret
▁caught
trigger
▁uncertainty
▁ligger
aho
*)
comments
Fil
钟
來
private
parts
벨
▁UK
▁north
getId
▁$("#
ached
▁Activ
otype
uchar
orth
▁Bür
▁purchases
ры
otive
DB
sur
ilo
苗
▁elite
▁maker
▁mainstream
ут
chain
▁incoming
▁EL
ób
▁employ
actly
qquad
▁Sid
重
▁traces
▁reass
▁writers
VED
edge
Maybe
åg
}]
▁concrete
▁stuffed
wear
▁NFL
▁оста
▁Arist
ari
citep
▁hospital
▁padding
▁Minister
chron
ashboard
▁shaped
fi
ğ
▁GB
Security
▁Mer
▁hurried
по
▁genuine
ucture
anta
▁graduate
ska
texture
taient
▁worldwide
▁Gre
▁problem
▁intervals
LL
Sec
▁related
▁Happy
eken
▁):
▁catch
▁az
▁WHERE
▁був
▁Below
▁calculate
▁five
▁intent
▁lung
▁Additional
text
DI
ὸ
▁wird
▁cal
Full
▁corre
SERVER
▁think
▁Negro
▁READ
▁container
har
▁perd
Mart
FRA
olid
óz
ً
▁uncle
▁seas
acy
▁T
▁gew
優
built
velop
R
▁Ne
PB
▁games
вать
▁points
▁Equip
▁unable
Fn
▁rig
oubtedly
概
觉
▁laptop
የ
▁Braz
▁Franç
▁well
Pending
▁fp
▁Stad
▁practical
▁poker
▁WITH
Errors
▁distinctive
▁Product
▁histor
ateg
▁hot
▁weight
▁Ensure
dw
feed
izarre
▁enjoying
ět
▁releases
▁socket
yan
GIN
▁litt
▁journal
▁complement
▁doctors
äude
idy
^{(
▁participation
▁jug
uns
../
▁Gabriel
▁qualities
jax
ристи
▁'%
,\,\
国
information
▁quietly
vb
!!!!
遇
ina
▁macro
hr
▁Gru
▁now
data
▁identified
[]{
ghai
離
Proxy
▁Patrick
container
▁logger
▁писа
▁stri
▁было
ณ
▁Lion
▁combined
Generate
Obj
▁pace
▁west
▁Lang
extensions
▁secondo
▁Community
arde
Notify
idx
▁demanding
▁garden
▁bout
▁BIT
▁Si
ampton
us
ỳ
py
▁total
▁Bever
▁Portug
岗
rom
▁Hamb
Rules
oded
▁Gesch
▁distinguish
bara
undred
ingham
mob
}(\
youtube
TCP
▁bacteria
▁bulk
▁events
picker
respond
ba
▁shadow
▁Johannes
ter
equal
▁remembering
审
▁tracks
▁Portugal
橋
▁Politics
agger
eda
▁bothered
Initial
не
ych
▁Вер
▁confess
Reb
▁kindness
▁square
▁'[
<0x28>
▁myst
:}
mk
▁restore
ROL
▁arrays
▁Shanghai
▁sufficient
▁horror
ative
ба
running
Dat
▁execution
ynchron
▁há
▁girlfriend
emic
▁healthcare
▁Syn
▁topic
ћ
STRU
ND
arga
arly
▁deliber
№
需
ugar
▁jedoch
ailand
ה
Rom
pread
▁Bart
ads
▁suffix
著
LOBAL
▁rebel
hc
▁Cond
iaz
Env
indent
cin
▁Ві
▁Again
▁junio
▁recent
읽
parse
▁BAS
mé
防
Do
▁towards
ì
▁/>
▁stood
▁records
Product
▁Path
RIP
▁wr
GD
도
ent
CS
إ
殿
▁np
hpp
▁negative
▁lengths
费
Py
▁argc
Optional
▁Struct
cing
▁These
his
bet
▁hans
aka
非
▁auction
▁####
▁roll
▁particular
▁Mass
ској
▁зем
▁car
<0xE4>
mean
▁Rot
utat
}$)
preventDefault
▁gob
gens
pl
▁detailed
▁quad
anca
▁individual
▁po
▁Level
ficie
М
right
▁mean
▁Fried
▁John
вра
▁mar
까
出
▁Release
ieve
▁()
▁Own
▁residential
▁Patri
var
▁également
▁ud
▁Independ
override
▁frame
WORD
CACHE
▁secur
▁refers
▁destroying
▁Jak
folk
mu
range
▁chr
▁bottom
Prefix
▁immediate
relative
folio
▁solutions
▁arte
▁Friedrich
STATE
ño
finish
▁plus
▁components
一
▁AA
▁porque
ratio
▁sport
kre
che
▁inj
entity
vere
▁plenty
▁diagram
Sheet
ilty
Descriptor
▁ve
▁Zu
▁contrary
▁artists
▁discussing
具
▁Points
ಠ
▁hurry
▁($\
ว
мир
,,,,
ishment
洲
▁Francesco
錄
imate
abb
▁movements
Ν
▁considering
▁Harm
).
amerikan
ٓ
▁Bow
ITE
▁rewards
▁links
et
▁Bundes
ansas
▁Bir
eness
▁too
тия
▁struggles
▁prolong
gc
ủ
▁while
attering
▁войны
Ut
▁graphs
▁possession
esser
dy
▁Ana
▁breakdown
▁approached
▁feels
▁audit
ized
emplates
的
▁able
▁Pow
▁italiano
Comm
▁character
▁exponent
azor
▁mast
▁controlled
▁graz
̧
▁samples
ए
gru
rar
▁insult
族
FilePath
▁Institut
▁Wend
▁otto
Paths
▁queue
▁sets
▁occupied
▁pixels
Wallet
▁tug
▁entstand
▁blessing
ream
▁Council
램
Receiver
▁attach
▁Transport
Two
▁Bul
▁Dave
Serialize
▁plays
Or
숫
are
▁anos
кла
fur
▁voters
▁Individual
helm
▁Store
▁tant
▁pron
▁fellow
▁För
shop
▁Пу
TING
rund
ometer
▁"+
▁Study
▁Rain
▁ultimate
ora
▁Ч
▁С
▁(*
▁situation
ciples
▁Fro
谷
▁Chuck
▁earlier
▁"%
lambda
Background
▁Body
Bel
▁kole
-----------
▁Hor
▁över
ORY
pel
object
▁red
▁Eq
▁dp
<0xF7>
▁Trade
▁Online
▁brut
▁board
under
tcp
commun
▁bree
▁caracter
▁servant
▁cannot
▁NY
wm
▁років
▁companion
情
け
▁embarrassed
▁photograph
▁ful
次
▁subsequent
________
▁vision
▁Ext
赞
ATED
Object
ễ
▁Award
▁conced
краї
tyard
▁autor
▁acquire
▁mb
hl
xffff
ване
▁Friday
Ent
Match
TV
▁kinds
▁ib
▁cher
▁script
èce
xl
NY
闲
Zoom
cross
▁Output
못
▁»
▁sessions
geme
▁Memorial
NOP
▁Small
TOP
▁ONE
ves
遠
ír
▁cone
PH
ene
松
▁accuracy
▁spect
▁erst
▁moves
O
itation
金
损
▁consult
anti
ples
▁вер
▁ví
▁Tat
ünd
▁particles
hung
▁prime
arians
▁Ministry
▁heels
yrics
▁enhanced
获
▁drinks
▁fö
▁zá
sbur
textcolor
&#
▁expectations
▁Mot
umeric
▁bzw
▁Curt
▁tank
сть
▁positive
▁compact
Call
▁herself
ми
▁diagonal
SAMP
ead
arono
び
serts
▁Ay
▁invented
▁turno
▁spend
▁Kelly
imes
Exp
▁settle
▁twisted
ibling
拿
▁block
тери
▁Mans
ILED
olut
overy
▁rings
Tick
▁girls
И
suspend
das
▁Biography
typen
ots
▁coord
вня
utch
iler
▁tropical
▁als
▁resources
▁civ
rdev
▁PP
▁excuse
▁свя
▁downt
▁deter
▁esper
<0xA8>
TMP
▁dreams
▁erano
－
▁love
People
SINGLE
йо
havior
▁Mathemat
cod
well
isten
▁presumably
▁option
crate
ren
nodes
tp
▁Michigan
▁Histor
▁one
▁Germ
▁bone
▁Clay
NonNull
agles
▁prayers
▁greed
comment
ków
igation
▁Alban
bss
стер
////
iking
▁as
ge
▁beans
▁Im
idos
...,
Gu
▁Show
宫
▁Eu
▁tok
▁yet
ńsk
margin
▁:=
êm
TOM
▁foster
復
antine
▁storm
isce
后
▁complexity
▁spreading
пня
ALL
Hub
▁como
ama
elen
😩
eden
▁Ira
▁Half
▁School
传
▁marginal
▁Gaz
iNdEx
▁defin
▁flux
erne
▁Wahl
je
}-\
▁listop
官
SEQU
Was
▁conversation
物
▁highly
▁Nas
Label
▁acres
▁optimal
Reason
▁dej
umer
iere
Ć
▁ERR
▁regions
onom
▁buddy
▁solution
▁osc
▁Robinson
еди
▁operand
镜
▁cleared
▁kör
Down
▁Н
▁iron
▁carried
▁busy
Short
zig
Complex
▁шко
▁gele
▁Shaw
▁safer
$
TERN
zione
ції
▁suffer
▁coefficient
Sym
zm
▁world
Order
▁guaranteed
faced
▁Everyone
▁atm
bt
▁distribut
ifdef
hattan
BC
▁teil
▁%
if
▁citiz
▁Hoch
resize
▁catal
etics
javascript
将
▁IS
Range
▁util
▁interest
▁crisis
▁wal
ieri
edit
uf
auge
▁History
▁ll
▁Rs
▁apparent
▁south
▁Market
▁transport
▁mg
send
辑
ylv
격
pa
[];
▁wish
▁then
▁Jug
suit
▁świ
▁(!$
Loc
▁twe
不
▁consecut
ard
▁Stage
']))
▁tête
usammen
цо
▁honour
▁He
▁Info
pending
▁Jackie
▁radar
ляр
▁elabor
▁affili
▁pro
▁auf
▁constitu
▁appl
▁nos
▁Od
要
▁wishes
вым
мом
▁borrow
Fatalf
릭
▁irq
uta
ne
pre
itter
дела
▁die
▁passing
▁regardless
7
規
▁có
▁convinced
▁criteria
▁rescue
ному
▁Human
▁worried
aling
▁fee
hin
▁NL
enu
▁obst
ical
decl
▁daughter
▁another
▁dough
▁Mack
▁fer
bag
▁whisk
inale
▁фев
рей
▁zaw
▁du
▁tin
▁Cant
Records
hi
▁fashion
▁anyway
icult
Utils
añ
鬼
▁merge
▁considerable
▁totally
enumerate
▁Julie
cola
▁invested
vma
▁flav
▁га
Own
ocker
▁msm
▁Roma
velle
▁overs

json
dec
▁loan
gle
<0xEA>
}^
▁details
œur
▁summary
itors
complete
▁CONDITION
▁Ky
▁Leip
anche
▁planted
▁Ph
▁Sar
formed
▁addressing
▁contained
#
▁Julia
▁distances
▁disappeared
ivid
React
▁traveled
avid
▁doc
ric
▁Kinder
▁valor
etection
計

▁keyboard
▁failures
versation
▁mut
▁Visit
ese
ourt
adu
む
дов
▁занима
ż
▁env
▁Von
reno
δ
б
ă
▁progress
▁advers
▁bones
▁Ale
<0x5E>
▁tu
▁tournament
▁anywhere
price
REQUEST
<|pad_0|>
Ä
Est
sensor
▁roman
▁relations
ф
register
xc
))
citet
▁contin
tó
setAttribute
зу
▁coat
Je
▁Course
â
cit
tik
peated
localhost
▁ya
ensuremath
▁Deb
,,
~$
▁conclusions
▁Ze
▁team
▁rif
▁technically
getType
▁Node
▁Jord
▁Lil
▁sei
terday
itu
▁--
▁auss
always
claimer
igua
▁alley
}}(\
Ctx
ज
URL
▁Mur
otic
▁Pol
▁part
▁independ
▁identifying
▁blank
▁GO
char
▁bru
▁ger
▁Toy
▁Gian
▁Assert
节
innen
▁prem
▁públic
Most
Tra
▁Committee
▁flesh
ribu
gel
▁neighbor
reb
Promise
шей
▁rendered
▁nullptr
▁Argentina
▁dictionary
▁drap
´
ière
LANG
}|
Role
▁editing
INK
ators
aul
▁Pap
andon
let
prit
▁Production
▁indent
D
ández
▁IR
▁tend
▁Within
▁Regional
ven
▁Yes
▁turns
▁dated
律
Pref
▁Lan
▁Insp
PI
▁susp
pload
▁cyl
▁requested
▁$,
▁Mus
▁singles
라
键
▁ook
▁mountain
▁September
▁lod
Clock
▁Singh
ensive
ris
▁}),
Summary
enson
ダ
ificates
▁tutorial
▁shrugged
▁VI
zial
▁scalar
▁Ni
mus
▁race
▁rul
▁kommun
▁played
Step
▁bolt
==
obb
cies
▁oldest
▁Kitchen
▁meters
ulent
mil
▁Haus
enz
ар
ром
attered
фа
шта
北
ński
▁voor
kle
ἐ
▁thousand
цы
<=
▁pra
soft
▁Dans
▁ту
▁assignments
rena
san
▁bust
▁августа
iente
▁jego
ケ
PREFIX
▁winners
▁layers
🚀
ем
otta
▁Europe
▁Storage
warning
▁seated
’.
irteen
isEmpty
▁Wisconsin
▁promoting
−
ection
▁act
▁taught
▁model
]]
▁blocking
▁delivery
thing
▁season
MR
⬜
aged
▁Gib
▁durch
▁protest
Fragment
▁Beautiful
▁seus
ele
orient
CFG
REGION
amiliar
rel
▁to
▁Cin
pin
▁Estados
现
▁immigrants
▁Ге
Share
▁seed
urchase
volution
▁nice
execut
(|
▁iv
▁attract
ské
(*
社
ће
yy
lage
product
▁maid
▁jou
curity
Until
рома
▁digging
ny
wake
▁PURPOSE
▁temps
▁Vil
플
Export
▁point
rules
bw
logging
▁assumptions
▁gri
uel
▁ms
ingen
▁ly
▁française
▁Puerto
▁angel
▁sage
▁Use
Dep
▁With
▁blew
▁Gro
齐
adding
랜
Ø
▁All
coming
▁ved
▁behaviors
▁suck
▁très
▁couple
вой
▁showed
IMAGE
ografie
▁сло
▁stove
▁SEO
▁Simply
into
▁analytics
▁Tag
AR
ologist
▁anch
ṣ
▁ret
▁support
roy
uela
▁Schaus
▁Kh
変
"
lick
▁policy
db
▁requirements
▁ink
▁blessed
OT
▁ein
▁nations
▁обе
▁Image
▁Wien
asis
ication
ICENSE
cie
Category
▁campo
▁month
ров
飛
ห
öff
▁Murphy
▁arbitrary
Combo
▁Platz
oard
程
▁metal
▁screamed
▁restrict
▁Barry
шки
ßen
▁import
cember
iph
pgfpath
callback
▁horm
frames
md
▁incorpor
▁committee
radius
Val
staw
ented
▁Metal
▁Haz
耗
▁maggio
packages
mobile
published
▁equipped
▁brill
dire
▁important
uo
▁otras
reg
▁oder
Company
▁Mond
loss
saved
зо
▁compl
core
▁dos
▁Jud
▁Loss
给
inz
▁Pakistan
退
▁Lars
dagger
▁reaches
secure
Љ
▁sol
▁след
▁ли
▁gro
гла
ocz
memory
apol
▁genus
▁onto
▁pin
▁objectives
▁Lev
stellung
₂
▁miracle
▁panels
▁highlighted
Assert
▁Drupal
▁Meet
▁kin
▁request
▁Fox
Void
response
三
岛
▁Spencer
▁Rav
ى
▁memor
▁trigger
即
▁altre
▁Warner
▁parliament
▁fluctuations
▁darkness
UM
▁HA
▁р
including
▁ny
▁stolen
▁Con
▁Nom
▁Dol
Union
▁grown
EventListener
une
▁[[
▁behave
notice
▁operate
▁smelled
▁accur
тро
▁Municip
▁begg
▁ME
umerate
▁HTML
▁title
▁nella
▁nur
ք
Watch
轮
▁Ms
▁Comm
▁strateg
ន
员
▁checking
ENV
▁Evans
roller
史
cope
▁golden
SING
itz
▁suggest
pp
品
▁sampling
<0x04>
▁Like
filename
USER
▁Chel
jQuery
Cur
▁rational
ERE
▁prov
asz
ර
ра
Check
▁region
brid

者
▁ost
▁Gent
▁Michelle
▁terr
▁cancer
awn
".
rated
┆
UNKNOWN
<?>
ပ
▁sidewalk
▁generations
▁circumstances
▁Library
▁reading
aced
▁hace
▁Default
▁shell
▁рай
▁stocks
ply
▁serious
▁alto
aña
▁[...]
回
ín
▁suc
iale
▁countryside
Br
added
▁coast
ferred
'",
▁locations
cycl
▁suoi
最
戳
Disable
ാ
riage
▁ft
▁Parent
Alpha
ere
▁zap
細
▁starting
▁wand
jev
roke
>"
ника
etic
orus
<0xF4>
VT
OUTPUT
▁gioc
叫
▁al
▁bou
license
▁arrangement
배
etes
oup
▁consultation
Tables
bm
rug
▁talks
times
▁Its
ANCE
rim
▁suggests
▁om
▁Winter
▁horn
▁porte
ɴ
mp
▁Î
Print
া
Rec
▁dependency
nail
aurus
▁mom
▁wants
▁randomly
▁weekend
cuss
▁reverse
annotation
generate
▁efforts
▁і
▁guidelines
fileName
footnote
电
uminate
▁transmit
忠
as
▁argue
▁deserves
▁Herr
▁disagree
▁Horn
FROM
кою
paths
natural
▁franç
▁climbing
▁gir
▁Dan
▁frequ
▁feed
▁salv
▁fifth
pieler
▁termin
▁Bennett
Visibility
▁сте
CAM
▁tops
)
aines
▁Olympics
DIP
▁manual
ause
▁Res
ступи
▁MAX
CONTEXT
South
▁aware
itivity
ást
▁Ath
▁diet
티
▁III
▁compete
ponents
src
▁Theme
▁exactly
▁spel
▁más
anden
▁classic
ръ
▁celebration
PRI
▁Minor
aled
utter
aser
▁fighter
▁coron
al
hus
Does
Dan
angen
═
});
▁Universal
uum
fields
▁carriage
file
▁boy
",
<0x0C>
uture
队
▁Andrea
▁utter
▁Eine
▁Led
pragma
anna
cfg
▁Luke
algorithm
▁recently
imal
emon
.),
ura
issenschaft
▁як
fully
Find
▁пода
开
unst
▁Cap
▁adequate
inating
IV
ń
答
Panel
PEG
园
▁Whether
▁Squad
▁Anyway
▁января
▁nightmare
fix
▁grinned
olds
▁expansion
绍
景
клад
network
▁boot
ដ
害
ellan
▁Кар
▁generates
thy
lan
)[
▁workshop
Sal
<>(
▁moy
▁pas
▁immense
emente
ibrary
▁Cass
uli
oose
messages
dz
amount
Warn
IPS
COUNT
▁symmetric
"},
'][
OG
anguage
▁Awards
context
▁recher
▁BB
write
MUL
ე
▁Spot
▁développ
▁Kr
▁task
▁prev
нва
▁stepping
ков
ন
▁riv
Events
▁ADD
▁proves
▁Ke
▁overnight
gi
sr
egu
▁wyn
ψ
▁dies
ney
▁stack
▁moder
▁tie
▁forehead
▁traject
▁shoes
▁editorial
▁reasons
▁Biden
▁elegant
▁waren
▁contributed
▁gaining
rell
▁dark
▁datasets
▁usize
▁turn
▁dressing
]/
▁Port
)|
_->
Special
座
▁ро
▁national
▁acc
okes
▁Facebook
▁permissions
ić
▁carrier
▁make
▁ske
▁vacc
seek
oti
rais
▁makeup
▁Mem
▁seats
▁tier
▁Stories
▁retirement
▁afterwards
omet
▁dow
▁presented
OB
ulpt
({\
▁rode
▁IN
▁linked
вор
▁Leader
▁gradient
<0x61>
▁tears
▁lives
ád
▁Пер
ivia
▁veloc
econom
ancel
▁main
bow
▁attempt
▁Moses
esk
нин
▁controversial
▁ray
='
▁accounting
osta
▁graphic
<0xB4>
Close
拷
御
▁sensors
▁snow
Impl
▁French
atr
▁ни
eve
▁'{
않
▁specialized
谢
▁Acc
ุ
surface
▁Getting
▁skin
▁crim
▁chi
analy
▁Government
ocus
▁Lem
▁forme
▁sec
▁determines
ributes
▁coc
▁ancestors
▁larg
<0xD2>
▁soup
遍
umm
▁reducing
Uint
poser
IAL
multi
▁hen
▁gi
▁Governor
iences
▁inventory
TextBox
▁Jewish
gly
execute
▁Mar
Inter
▁Bre
atom
▁Pra
▁trivial
▁restriction
ју
▁лю
Round
천
▁Bod
宇
▁acknowled
▁crossed
efore
▁Instagram
▁surrounded
善
Space
="${
▁Ces
asing
ATTR
▁mal
▁sectors
+"
▁reconstruction
Code
TIES
▁Welt
ються
▁PL
▁nearly
ље
▁obsc
▁obs
obile
athol
▁scary
▁compelling
_{-
pb
▁props
tere
Spec
NC
rivial
▁ox
▁VA
▁depending

▁Av
develop
icc
▁primitive
icient
cos
anya
Ś
ress
tocol
Ord
igma
ivil
dep
▁meaningful
▁€
▁Samsung
close
Converter
These
▁Utah
ow
▁done
rive
issent
Fi
▁Herbert
sed
dot
▁my
▁Navy
▁lately
Dimension
)}\
keep
▁mån
▁)
▁legis
▁acceptable
ῖ
▁determin
▁Dur
▁phys
▁cards
~~~~
toolbar
oy
▁displ
▁colleg
ustain
▁instruction
pass
qt
강
aven
▁McDonald
▁Whatever
ユ
ро
zip
non
▁Kl
▁lake
hci
éro
▁hex
IOException
<0x63>
▁-
AND
▁performed
odo
ependant
▁può
agem
▁Une
▁something
▁doubt
help
▁wrap
▁"${
PROC
naire
isValid
riv
▁scar
▁protective
bahn
▁assembled
▁electro
话
▁исполь
▁Stanford
민
▁GNU
▁présent
▁Games
▁Road
清
lement
▁Form
ache
iek
West
▁elf
ubre
▁bear
員
iter
▁staff
▁listen
▁Wing
TEXT
manager
in
▁Kennedy
▁nag
▁RE
▁learning
▁warrior
▁CIA
▁mile
▁>
riteria
SSION
";
MAX
▁headers
Ms
▁була
▁febrero
personal
▁Stat
▁comic
▁determ
cha
▁remembered
▁Liberal
▁becomes
orship
MC
▁Butler
emos
▁cél
▁б
ြ
▁Australia
▁Stefan
vi
ult
▁sn
▁operated
answer
▁Imagine
icator
LOAD
textbf
板
esp
ROOT
ោ
▁дей
련
▁ná
Д
▁disco
▁Mississippi
List
▁finger
endor
▁shake
conne
▁parser
▁ego
▁inter
▁internal
ское
áct
▁accompan
▁doub
stringify
▁dass
▁От
▁told
unge
▁enumer
▁Мар
govern
<0x38>
method
▁damp
▁halfway
▁Kö
▁nature
▁Craft
нове
rypto
▁baking
▁WAR
VO
▁Know
▁officially
▁serialized
▁audio
ERR
mals
<0xF6>
片
ね
▁Chap
▁Captain
▁tiene
▁maj
命
▁Margaret
▁shook
▁trop
Windows
winning
▁steht
Bu
▁{})
▁nuevo
▁Martha
▁revol
▁registered
▁représent
▁beloved
Translation
▁Hillary
▁chunks
術
▁lasted
vertex
reated
plicated
Equ
▁Son
▁Mos
вого
ux
)>
techn
▁isol
Ս
▁sie
▁abandon
vement
ndef
▁corresponding
▁promoted
TH
▁году
▁discrimination
▁};
heimer
殊
nées
响
逆
▁Imp
▁applies
▁Kit
▁occasion
任
▁largely
neurs
▁Hy
纳
▁Http
▁ра
▁Maine
▁blame
Source
▁Kir
▁Partial
▁bug
ní
▁aff
Compat
ƒ
▁UnityEngine
摄
庫
▁WIN
stride
▁Nice
▁У
ch
▁Gl
LED
▁prosecut
▁Nederland
uation
▁\"
▁editor
尝
▁Johann
▁abilities
ography
SG
ptic
▁saddle
]<
▁bitch
FA
▁reliable
DBG
▁outstanding
perp
hew
ющий
9
izon
▁laboratory
akte
▁rolled
秋
贵
素
▁appropriate
▁decor
ology
▁Dem
▁живе
▁wildlife
▁få
投
star
▁gets
unately
▁raising
<0x51>
▁legs
▁Sky
▁site
▁persons
CONF
ман
▁unpre
民
▁registers
Suite
▁crossing
arius
▁discrete
▁led
▁Saw
に
ስ
▁person
azar
▁pob
IRQ
▁absorbed
score
▁années
▁print
▁Hannah
rin
▁película
seau
▁Inter
/)
▁migration
▁College
íst
inery
停
▁where
▁everywhere
▁vars
▁unless
▁nast
▁selling
▁referring
▁beaut
os
Car
▁brief
र
<0xE6>
INE
рое
▁customer
rob
ank
▁Ye
▁Optional
深
RECT
▁Luxem
law
раб
▁energet
▁cat
高
otte
DIS
▁minor
бі
/*!

ἄ
ং
Err
req
▁ill
ática
郎
MM
compet
SUB
]))
velt
▁wx
ulous
▁Miche
asion
▁explain
:_
Hard
▁vor
exists
笔
enty
▁higher
▁presid
▁Java
▁placement
滚
plant
▁=>
▁actors
h
▁diplom
▁suscept
语
▁requires
eward
▄
▁sighed
<0x86>
▁rib
URCE
це
▁Nar
▁Swiss
olf
стру
ivals
▁sz
▁م
mos
▁Ign
▁icon
▁Brend
▁Mask
Module
お
viv
▁brushed
▁pursuit
METHOD
向
▁Album
▁purch
▁terrorist
bie
▁aller
▁къ
▁strict
▁Modern
▁Carib
initialized
igo
▁OB
▁sex
