ono
raste
ղ
хов
/**
akh
https
ян
jp
▁contract
ky
▁Font
▁earliest
▁soci
▁Dev
▁Current
请
▁Arts
STAT
▁código
Decimal
ะ
▁ant
▁aspect
▁docs
▁па
nehmen
minipage
▁iphone
ly
ethod
▁прис
<0xF2>
RIG
dens
▁Fourier
▁[:
▁[],
▁cores
View
▁reading
▁pass
yp
▁NAME
»
▁Gan
live
prod
 
document
aret
▁сла
▁по
тература
iai
▁metropol
▁ye
usqu
ló
ance
entes
▁intersect
▁Greg
ated
<0x97>
▁обра
目
▁q
▁observe
▁scop
▁parte
▁remainder
▁имени
—
▁junior
▁Lit
cookie
▁Ukraine
:@
eggi
▁Ell
▁più
ний
▁admitted
žit
▁Dienst
▁observer
в
Α
所
чёт
Mult
uting
univers
▁wise
parator
▁cru
cross
▁gar
▁declaring
▁две
acs
ゴ
igs
▁Cord
▁ди
customer
vol
▁село
iges
▁sculpt
Pierre
 
▁Configuration
▁også
▁wishes
ícul
oro
else
▁apparten
labels
heiten
▁"...
▁af
▁factors
▁:-)
▁arrived
▁allo
▁accepting
fli
青
▁Campion
rios
▁член
▁casa
джа
▁lux
▁дека
▁Nich
看
▁dell
esch
▁appar
RAM
▁Catalunya
▁klass
▁Edward
▁Histor
▁Dep
▁hurried
Ph
▁prem
òria
'-
▁recre
▁disk
▁comune
պ
▁(:
▁London
▁echo
zone
Upper
,
atuur
▁purpose
▁Europ
▁"</
▄
'_
swer
で
▁minist
⁄
sal
ależ
ustr
Foundation
sm
jan
G
cz
riften
ença
അ
mi
▁allocation
ографи
Toggle
altra
▁cycles
frent
▁craft
▁Gut
▁strict
icial
▁regia
▁Michigan
▁electrons
ifying
▁stag
▁cloth
▁lors
▁has
▁enjoy
▁hint
▁seria
▁calcul
▁desired
li
▁części
maste
▁Jahr
▁thirty
▁downloading
<0xF1>
Fe
ologe
▁pain
endre
▁gehör
▁Сове
▁ging
▁wechselte
Public
▁proves
▁Sud
▁constitution
外
scr
umbnail
▁marca
▁tanto
▁période
stüt
▁Hold
▁Orth
ende
▁чемпі
split
Variable
藤
▁paramet
▁physical
agu
▁browsers
▁kallaste
TC
Context
area
▁consists
▁co
циаль
ating
lef
▁ton
▁Демо
xim
▁successfully
▁=~
▁phys
▁intu
▁ар
oving
▁unlike
▁decimal
▁distinguished
▁address
▁które
▁vš
Η
カ
▁¿
Os
di
żs
▁soit
aturen
▁Steph
▁Grand
▁protocol
▁hope
▁mate
ব
▁yo
cles
▁})
▁scal
▁francesa
ể
./
bel
▁census
▁ax
ach
▁tele
ropri
ð
▁border
▁existence
▁nut
Un
▁libre
auth
▁rect
▁however
(_
▁gall
kappa
▁concrete
triangle
chen
▁Odkazy
▁національ
нь
ifiz
▁US
▁garant
▁wish
Lat
▁Provin
ará
▁reboot
Tests
▁argued
шой
Ар
▁difference
▁lower
▁narrow
MC
▁Tokyo
▁Primera
▁suis
▁poj
▁worden
alion
သ
↔
▁Aur
▁tek
▁Health
ands
ℓ
QL
▁verschill
▁Ralph
▁ен
GM
▁Then
▁Jackson
▁termine
HD
▁Indians
oten
▁sty
▁pobla
мін
∧
▁regression
川
sters
γ
нва
▁enh
▁fake
▁sorti
▁historian
ница
▁insp
ủ
▁Sver
▁bore
on
▁referenced
uliar
▁honour
orte
зом
▁closure
umble
yw
▁Гре
▁czę
obierno
row
▁reci
▁ekonom
Cannot
▁effet
▁Він
▁incoming
▁Germ
ом
▁counted
dic
▁Основ
▁clients
▁territoire
>/
▁sistema
▁pressure
▁utwor
▁Set
▁explain
▁intel
▁Edge
▁net
▁вопро
"?
Lar
▁Á
▁replaced
▁somewhat
▁lag
sterd
▁awful
▁faint
▁superior
▁Local
▁apolog
▁fewer
▁Cost
▁=>
▁membership
rinningsområ
省
▁meaning
Random
unächst
▁Vlad
cn
<0xE8>
herr
▁join
▁disabled
▁результате
是
▁});
还
▁upon
▁big
indent
wiąz
▁také
zym
▁hosting
▁Lower
▁hina
▁clust
▁alb
сылки
▁Board
▁ot
platform
htt
記
":{"
uint
cation
▁few
/%
▁arbeitete
▁occ
member
шего
homme
}}_
tritt
▁vois
▁project
icola
▁credentials
▁lem
▁HD
▁causa
acje
只
▁intention
▁Ign
CSS
▁пол
▁CHAR
Donald
▁externe
▁langue
xty
°
▁abs
keley
ħ
rell
lando
ols
presa
▁акт
fram
▁Gallery
▁conquer
▁browser
Class
▁atmosphere
AB
▁многи
fortun
▁batch
integration
ˇ
ָ
▁Null
>>
ate
▁boolean
▁Czech
states
ём
▁con
дар
▁fifteen
▁Mate
}{\
otimes
braio
▁cabinet
Ψ
ich
though
▁sovi
▁medium
▁geometric
uto
una
*(
uvud
Types
▁zur
▁AT
▁entstand
}
▁организа
phabet
ynt
ř
▁hotel
К
▁сы
▁rely
▁Fix
".$
▁Fernández
▁partners
▁economic
▁administrative
vars
▁Mexican
▁Warning
▁півден
▁proto
▁originally
Ρ
odel
ViewHolder
导
érie
▁List
QUEST
▁Gia
RGB
▁String
▁imp
▁HTTP
군
▁faces
cade
▁anth
▁video
▁watched
▁parameters
▁Famil
會
<0xBA>
▁Cro
എ
ності
Radio
▁baron
▁Shaw
inburgh
▁Page
kir
endencies
▁(**
▁que
▁dst
gt
rolle
▁inputs
▁transformed
";
ähl
▁IS
▁Original
ilst
ila
▁Champion
▁requests
▁corner
égl
▁relax
▁му
éricaine
piel
▁districts
▁Person
né
▁nä
ciu
ਸ
▁Бі
▁TE
▁nombre
▁discovered
Customer
ева
▁technology
▁Bug
=$(
▁Pe
▁Nancy
Tr
▁summar
Grad
nothing
wind
}}_{\
autor
ча
▁tego
ც
iero
▁Riv
ARN
ERY
Thread
helper
▁extens
▁tells
▁SET
▁accomplish
icion
▁Krist
iku
cedure
▁cx
▁declaration
ims
▁dw
Culture
দ
GridView
▁heut
<0x5D>
▁Georg
pton
▁soul
▁Bir
▁studierte
▁Lov
▁Antoine
Loader
Scale
▁cow
能
etta
▁spiel
▁proces
▁Gust
AV
▁simulation
èque
Frame
▁postal
ко
▁species
én
▁applied
expected
or
▁develop
▁quickly
▁sollte
▁DC
▁Roland
▁planet
▁Martí
IM
▁cells
▁eller
▁Possible
▁islands
ommes
▁baseball
▁oppos
▁augment
▁фон
▁grant
ر
▁unnecess
Flow
▁`__
▁станов
underline
ále
mel
▁öss
}+
ICATION
▁naar
▁Halle
Ț
джи
Have
maybe
aceae
serial
▁waters
▁arrest
esar
▁profess
▁closer
önig
▁election
од
reate
storage
physics
드
▁NASA
Submit
▁champ
▁Juan
▁candidates
▁neighb
<0xE9>
ums
жда
bow
ength
hardt
<0x45>
Г
▁pointed
▁mount
▁met
Old
rollers
▁infl
▁trabaj
▁Natal
ON
ové
▁Vor
itled
▁pela
▁Dopo
Cal
▁subsequently
▁rabb
Ф
▁Kontrola
玉
▁collision
✔
▁Bres
▁Let
opol
▁Australian
leaf
édération
▁himself
▁guess
▁libro
▁més
ellig
bed
▁stupid
▁commer
ći
▁alternate
пан
▁syst
icked
{%
▁maven
aping
合
оне
▁Zür
▁vul
ови
Italie
▁reached
ŋ
▁Guy
*}
▁aument
ussen
▁Cand
iewer
▁Valid
3
!/
ској
oman
▁'%
▁RA
▁habitantes
▁Pho
qua
▁Identity
▁proceed
emon
picker
tutorial
▁Modern
▁frequ
▁balance
▁title
▁Br
ция
▁NSString
▁immense
дол
▁IL
dob
▁ff
▁full
▁passing
▁vý
▁otherwise
▁entr
▁Studio
▁represent
<0xB9>
▁mort
pha
ША
top
dialog
▁of
Љ
<0x7B>
ток
▁playing
found
Hor
bet
▁boy
▁Lam
▁golden
▁officer
▁Adding
▁Function
▁POST
▁obtained
▁quit
▁гер
▁elev
▁ain
instance
▁impr
▁promises
comments
LM
▁Guinea
▁André
bye
Digital
商
▁Lucas
▁вико
▁вла
ito
▁розта
▁loi
Opt
Memento
педи
migr
▁That
▁NO
▁Mary
<0x08>
uzione
sections
json
遠
▁punto
infty
▁sau
▁Random
▁gobierno
▁outcome
▁Mine
zeta
▁Co
ocia
▁won
})\
▁Param
нар
D
▁Pic
▁Fro
``
(%
▁$|
об
▁terug
▁Angular
uous
▁admit
imately
▁Während
▁Leopold
▁цер
▁strictly
▁femmes
▁illustrate
íst
▁presenta
маль
)^{\
▁educational
svn
ák
▁mujer
▁Officer
properties
ACTION
▁Luis
multicolumn
ǔ
Local
ulté
ck
OD
▁Ri
▁governo
▁radical
▁Parker
entr
noreferrer
building
▁Cec
▁ін
encias
▁links
▁voce
fog
ät
criptor
ie
iegel
="$
▁AC
▁provinces
▁name
Client
▁ак
菜
▁repres
▁мате
▁ep
▁nod
▁carri
▁Prote
ook
▁Light
marine
▁hung
▁lutego
▁nuova
album
ova
▁Rosen
▁profit
fixed
▁Thomas
▁anys
ступил
▁château
▁byly
▁wherever
▁tec
▁musste
ències
▁message
Ά
▁footballer
运
▁современ
▁texts
ał
▁switch
FLA
▁dou
च
▁Net
odon
▁remporte
äst
zetek
xp
ECK
жён
atin
▁progress
▁ві
Vert
▁guns
▁maggior
ué
oire
osing
setState
я
rival
▁Air
ு
emet
▁text
ェ
▁slide
delegate
Status
▁divid
дри
▁находится
▁Sal
▁Cour
唐
▁-
▁públic
▁Web
▁Gustav
▁catch
▁Conserv
▁terror
igten
▁Civil
стан
▁rot
▁ти
▁integrate
ķ
onym
uur
▁servers
▁cole
▁neue
▁Inga
indexPath
firebase
webkit
Save
inc
▁cand
ob
▁gouvernement
kt
▁Fact
▁při
▁før
most
inate
部
▁axis
Preferences
▁contempor
Engine
▁gmin
aaaa
▁experience
▁Malays
▁ноября
良
▁freedom
設
▁listener
▁Verd
▁zast
Mem
ности
Gener
▁referred
ب
▁premi
▁Post
ride
▁municipality
▁Te
▁extension
ient
ý
datetime
▁enjo
▁Mongo
▁Beat
фо
▁грудня
▁prac
ктиче
▁ps
サ
random
handler
▁contrary
▁vérit
Kar
▁out
▁Larry
manual
▁horses
itto
lobal
Edit
▁resolved
portal
▁partir
▁Santa
▁chosen
eland
Def
▁partidos
ouw
riers
د
▁||
▁hence
▁derive
agua
▁Watch
▁includ
Provider
actly
▁CT
▁grows
▁Мак
čen
ственного
图
▁genius
)},
Õ
Wh
▁venne
▁:(
▁Shakespeare
ˠ
▁Emb
schrift
imento
omorphism
▁oh
▁shoot
▁/**
nym
IOException
Lab
▁resources
न
▁inc
▁dí
ї
▁Cast
Unknown
▁полови
▁publish
☉
ว
▁Program
мов
▁billion
年
⟩
simp
▁Soph
▁Papa
сс
по
▁Cold
王
important
▁motor
vm
▼
hin
ultimo
ристи
▁navigation
sqlite
▁meses
▁ER
▁acknowled
▁cerem
going
ഷ
number
▁Hist
▁Something
▁побе
▁Pse
▁princes
nu
▁bir
▁Pf
quest
Some
▁hand
▁ending
pers
eld
▁OP
▁Gründ
▁relacion
▁ring
<0x6D>
ྱ
▁we
yles
цией
grade
ат
≃
America
estra
unta
▁principalmente
▁ej
orig
▁архи
льного
▁goes
▁tcp
▁path
▁finishing
char
bare
▁trif
▁Georgia
▁Fur
▁fon
тисти
Selection
▁Dres
as
▁Wik
rei
▁Herbert
férence
aja
Image
列
hard
▁donne
TM
WP
▁sorts
▁liberty
tery
▁installing
DBC
▁щ
▁date
▁Fahr
latest
▁investig
▁grote
▁layout
▁Red
Update
eness
otion
▁\$
ASE
stab
구
▁vu
oot
Argument
▁subsequent
▁leaf
▁mű
otlin
▁In
лаго
▁Gent
▁Code
AXI
umes
лова
▁Chr
раб
▁três
▁acknow
pid
▁эк
Multi
▁compreh
▁Luigi
▁hizo
urst
▁Anth
ɕ
▁dans
▁pet
▁team
▁plenty
▁hibernate
▁Can
▁Kon
ourt
▁eran
▁game
▁regiment
▁thoroughly
▁Weiter
î
ノ
Cor
ódigo
>`
address
▁F
▁committee
umen
▁println
▁Factory
▁ré
▁Anyone
▁W
;}
▁mas
pson
▁hit
▁Champ
галь
▁criteria
ões
▁Arm
▁addressed
AccessorImpl
▁Cependant
航
reset
▁letting
▁Sommer
udni
դ
');
வ
▁Quando
▁tropical
collect
▁ceremony
▁Calcul
U
▁increment
▁Cross
icator
▁guarantee
ns
▁clone
▁commented
ies
algebra
▁czerwca
▁me
▁satisfying
uerte
▁березня
▁могу
▁Rep
▁proyecto
ativo
kens
reten
▁quality
▁zes
~/
MAP
▁clés
来
liance
mongodb
▁kommun
▁Node
ὴ
▁Hil
▁essere
.`
▁Dal
▁Gas
▁profil
пени
▁AllMovie
▁Api
▁Which
▁elections
ovo
▁Andre
csol
ャ
ITableView
▁veloc
▁Generation
▁separated
ion
archive
▁Master
▁gepubliceerd
gradle
▁nic
▁español
kę
hn
▁short
wood
▁Everything
action
地
ご
nofollow
activ
<0x0E>
▁recens
ove
▁annual
iglia
▁Düsseldorf
▁drama
▁Deutschland
▁FC
▁Mountain
▁%}
▁REST
&\
▁ран
▁slowly
▁след
▁enorm
▁necess
▁fuel
ğ
▁np
Append
▁права
ópez
%)
▁im
▁Спољашње
治
▁senza
UID
pn
operator
()).
któber
<0xDC>
▁expected
iba
▁пов
directory
▁Denkmal
▁раз
▁lazy
▁--
▁ké
ting
▁Your
orden
▁Acc
fect
▁gest
agers
▁$('.
▁grow
inta
▁Ci
▁Anders
▁а
▁configurations
▁fs
▁FILE
▁hem
▁vill
rift
▁СССР
ulas
▁archiválva
중
▁relative
▁Juni
▁posit
▁Explorer
▁TLS
▁lod
▁conse
▁her
estone
▁ин
▁financi
ahu
up
ces
▁tro
▁fen
▁soldier
information
▁installer
▁pan
ília
▁Release
ých
▁aber
tered
gas
▁pun
▁kleine
▁precisely
Employee
▁section
<0x77>
achsen
▁kiss
▁Arn
▁Cas
▁Collegamenti
▁optimized
▁Koh
<0xC7>
illiant
▁Anyway
frame
▁Http
▁AD
eses
érieur
Insert
ichen
▁Sche
▁affect
cent
atz
▁Ils
▁His
▁application
onato
Defaults
▁j
lès
▁ssh
learn
AUT
▁unto
▁Division
▁Né
rd
Support
▁Pala
▁konnte
▁touch
▁sizeof
▁S
Target
ationen
▁carbon
nelle
▁postgresql
Russ
▁miser
admin
▁Rugby
ówn
language
anter
ify
note
anst
▁arriv
]\
▁raison
▁kwam
▁Rol
owa
▁broken
▁gene
▁powers
▁anim
iew
utton
ByVal
▁Saison
▁Michel
Land
aris
▁Wilson
▁crown
urchase
別
avig
▁вместе
ory
Did
chapter
▁cy
▁opportun
lit
riel
▁поч
▁internacional
odes
▁rich
▁профес
▁четы
▁Aven
rial
▁performing
]$
project
iction
ід
▁school
ctic
▁ice
▁tokens
▁Universal
▁$.
▁людя
▁дра
▁paździer
▁тор
▁wat
for
▁vě
▁satisfaction
osis
omo
pply
чные
▁När
kunft
ala
}+\
enburg
▁Variable
schema
▁confused
very
ived
▁fer
árs
▁kier
esia
▁Schloss
folg
Typ
iving
▁lung
▁буде
assembly
▁learning
neh
▁plane
▁dro
Product
▁auc
▁distrito
tb
Pass
▁selector
▁nick
▁result
▁січня
▁pur
▁system
ur
Ge
gs
öff
▁jur
prilis
▁nem
Reader
auc
metro
eft
usb
],
▁obser
ɡ
▁Chapter
▁affair
"))
þ
▁Han
pow
Math
ade
RT
▁iterate
vous
个
▁Salv
us
Simple
simeq
тех
▁Nicholas
▁présent
yaume
WebView
▁&=\
┃
filter
▁Soccer
essage
Desc
schnitt
▁Bry
▁Gregory
▁стать
▁сохра
▁difficulty
▁svg
▁change
▁seem
線
岩
izing
унк
ющий
▁tienen
▁Årsmed
ulen
£
ׁ
▁като
ikan
▁digits
transform
▁presented
▁joint
itzer
Agent
▁kilom
洞
igan
▁circum
.;
▁cla
▁кі
▁распо
braries
center
cil
校
▁приз
ąg
larg
lesh
▁Dies
▁Orts
▁Century
▁RC
jekte
▁Fra
▁presidente
▁py
▁entonces
ds
▁Fab
▁heavily
▁Dallas
▁championship
ової
ouvelles
chus
nero
▁jeweils
▁theory
▁discovery
▁hogy
▁mitt
▁tm
▁República
esség
▁север
口
▁Rou
viv
ɹ
licher
▁research
erme
trim
▁BE
<0xC9>
▁<%
▁ép
▁check
/\
▁@"
ummy
CLA
кими
▁load
ängen
erner
▁gaz
ницы
▁criter
This
REE
ван
branch
ül
кого
Lin
utils
▁attempts
▁Jas
▁soil
className
화
▁dopo
▁Norte
estellt
owski
rikt
odor
ált
▁viele
epen
▁selects
aused
▁explanation
▁Province
▁Software
itut
▁sympathy
▁télé
anje
▁Bey
χ
▁shore
▁Polit
▁exclaimed
über
▁removal
▁ему
affen
ное
Distance
▁history
▁até
Cl
lear
olid
_{
▁evalu
▁Diplom
▁dop
▁possibly
voj
UNT
Plugin
▁Cover
varepsilon
▁Basic
Down
▁Licencia
itution
▁becomes
}}}\
rh
▁Version
uring
▁Mark
can
▁cool
fiddle
atomic
demo
сон
allas
▁Joseph
signed
▁expedition
skim
▁woj
iration
▁Rés
１
▁thorough
汉
▁compiler
▁сентября
Im
▁-->
іб
▁laptop
▁x
Read
unci
▁housing
EV
▁Fal
eben
PF
qual
FX
及
▁ebenfalls
▁designed
analysis
ский
▁race
▁Jacques
▁Ed
▁political
▁exception
▁divis
▁Bow
▁día
▁Computer
甲
▁yesterday
▁Kob
arca
▁director
ortheast
▁statunitense
▁never
▁casos
▁mapped
mlung
▁był
delay
▁welche
твер
▁CA
nog
▁особи
{|
▁developers
▁repe
ecycle
▁connect
▁side
▁Discogs
welt
▁созда
цер
▁Forest
▁Atlas
▁och
▁Archiv
▁peuvent
ы
itud
▁Pie
<0xEB>
▁mě
や
See
▁nur
Portail
wide
bars
рого
▁жовтня
确
▁skip
▁SR
ktr
▁Napoleon
▁EXISTS
GC
Relative
▁about
▁pon
▁coefficients
<0xE4>
▁typical
Header
▁Mey
▁participated
▁question
▁Five
omb
лер
▁Monde
▁equations
▁acceptable
す
▁Johnson
Mess
▁#####

▁totale
▁rok
▁type
″
▁España
▁appart
▁medi
fas
ɪ
chester
>,
andbox
ashington
▁stackoverflow
▁lug
ietnam
▁mart
▁avait
▁iOS
enses
▓
▁Hinweis
▁possessed
▁tête
▁Mag
Associ
en
actory
NULL
cell
rix
▁prediction
Big
▁restriction
▁lon
ím
▁late
IV
▁Prom
Volume
西
∷
▁termin
▁relief
<0x0A>
▁Domain
database
▁definit
}[
▁Oak
▁нача
лександ
general
Document
▁Lü
ned
havior
▁Ö
rek
лист
▁ejec
ifi
▁Any
水
Tab
лений
berg
Allow
▁during
kit
ця
▁involve
▁assist
▁mère
▁let
▁Protest
▁ore
▁molto
ycle
▁Off
▁Windows
▁HT
▁returning
▁discipline
rov
▁Encyclopedia
▁Übers
▁Cy
▁FF
▁durant
Gamma
▁understood
量
▁musée
alom
lemma
pose
онов
▁try
▁Bere
▁зі
▁Forum
đ
▁są
Brush
▁words
▁Prime
centering
波
Serv
⚭
▁transmit
music
▁tör
▁Kü
anze
.(
ieux
▁sat
heten
ritten
polit
▁кафе
<0x5F>
istor
Phys
╠
!!
слі
<0x33>
▁film
▁temperature
▁cul
▁La
medi
ót
▁management
▁Success
▁кур
тных
chten
▁FR
cl
▁Ter
▁López
▁район
▁spec
orph
InputStream
dy
#,
▁exchange
){\
▁пи
▁mean
▁hab
aye
getText
Init
ᴇ
rage
▁Kont
<0x2C>
prec
▁drug
pción
▁Republik
Web
▁production
pio
bud
▁Independ
▁differently
▁plusieurs
tabular
▁між
move
▁signific
▁ul
<0x94>
bereich
▁Из
▁MP
embly
No
▁Tra
▁August
Group
▁cried
wid
ivan
oven
▁Okay
▁Minnesota
▁Це
▁bush
cente
xs
sein
ého
remove
▁Apple
▁destruction
$};
ниц
reduce
▁Ti
▁mar
▁Schrift
apped
▁En
▁politico
▁integer
▁curs
▁assistance
▁job
▁дія
▁Фа
]{\
othèque
▁decom
▁Mou
ów
▁tenir
▁exha
▁inicial
▁UTC
▁Éd
▁Being
override
auer
Wik
Ber
▁eb
▁Ans
setting
▁Sov
▁mv
postgresql
▁Administr
/:
ww
▁ggplot
REG
ій
▁Ho
▁ott
iere
ogy
<0xEF>
▁decision
თ
▁rival
gres
▁cultural
▁further
▁converted
▁мест
类
ствовал
▁listade
%).
▁Gros
ging
судар
▁External
▁pill
olan
▁transport
▁tenia
▁Found
▁analyt
▁secondo
▁kne
VD
▁Normdaten
▁já
ensis
cycle
▁recovery
преде
▁Message
品
▁Visual
▁тради
ництво
▁gewann
▁neg
▁accident
▁differ
()
▁Pick
▁Colorado
luss
▁Else
ṯ
▁checked
▁botan
▁aer
功
idos
ato
pisode
▁foc
ším
▁proph
▁Linked
iele
▁Alg
▁leb
▁...
▁rooms
Cancel
ola
▁increased
▁Brad
▁elli
microsoft
▁seasons
▁scratch
urs
▁focus
zés
leveland
我
▁Pon
▁[];
cademy
нина
component
єдна
▁remarks
▁Germany
мей
親

▁Pam
ả
тки
▁parser
▁narod
▁profesor
yl
▁Polen
▁constant
bid
▁Düsseld
Then
ய
ствии
errors
▁один
rän
ena
Station
";
<0x7C>
▁waiting
ieb
▁readable
bernate
▁Rome
▁backend
▁xx
indow
▁initi
men
нах
▁cover
▁separate
▁celebr
preventDefault
жении
ta
▁meat
ässt
und
dra
▁gates
engelsk
▁представи
▁rec
🌍
▁Dublin
ieren
âce
▁família
▁demonstrate
▁split
asta
egy
++;
Br
hole
!'
nad
装
▁klein
▁Caroline
chi
▁Jerry
▁retre
▁dav
▁lat
ת
ĝ
ktion
▁Hello
▁Wrestling
chy
▁Much
▁reach
▁Feld
▁privile
▁bar
orno
▁Namen
▁Ev
endo
▁Comun
▁studied
▁dress
laravel
▁tar
LETE
▁affected
▁recensement
aff
▁fiddle
▁sho
ario
hab
▁astero
▁incred
限
▁submitted
GR
("/
▁Hope
▁timing
ächs
¼
▁snapshot
rico
▁december
▁Ill
xe
▁Regex
▁возра
ittle
▁coding
▁Army
emberg
agger
','
Acc
▁Flo
▁Фо
<0xE1>
Job
▁parties
Content
▁sentences
▁restricted
Vertical
▁webpack
рит
▁liste
ા
ं
lymp
▁tested
English
po
(-
▁Population
▁Sar
lement
Mode
▁Lyn
▁pyg
ajes
icha
ators
Images
rough
jours
▁'\
▁poco
▁peak
▁FB
▁magnet
▁coach
pts
rund
▁goods
<0xCA>
нан
▁XIX
geben
<0x4E>
▁/
▁Jenn
itch
▁bright
▁ss
_"
лена
节
▁boundary
▁differenti
▁Runtime
▁identific
кал
പ
catal
▁inspired
ursive
chrom
дж
sson
azzo
atoes
▁télévis
▁sing
▁Golden
Stage
▁região
▁grâce
存
▁meeting
▁created
▁програ
▁opport
▁Buffered
VID
▁Федера
cap
Points
áv
▁gateway
▁seq
▁Jr
тро
swing
fragment
Express
rou
▁bomb
oug
Btn
▁devant
iety
▁devient
`.`
acker
₃
acu
т
ズ
▁Mount
▁ster
unge
Environment
▁estar
▁Science
=""
▁numeric
istes
▁sim
itatea
½
▁au
▁zug
▁div
▁ger
▁Symbol
▁News
▁accused
▁donde
▁шко
XY
▁couldn
▁oldal
▁ры
lau
▁sil
▁pas
enberg
▁suivante
▁Для
Cam
▁scroll
etwork
▁decomposition
sharp
ž
shal
zek
venue
▁veg
▁Ча
▁época
▁violence
dru
ignes
textt
Visual
▁praw
▁пло
▁coordinate
TAG
▁longest
▁unos
▁V
BL
cego
(()
fit
▁ugly
gender
▁Tools
Man
anced
iste
▁zum
lament
▁Ludwig
▁Під
▁Amsterdam
liers
显
seh
omen
▁september
▁alto
▁DESC
▁INTO
▁doch
▁estilo
▁batt
▁became
样
▁renov
乡
рии
▁stru
▁Fol
▁decide
лий
▁closing
<0xF6>
geschichte
HE
▁nim
▁nivel
onian
▁commits
}=
обра
▁Süden
hrer
▁wed
ación
arts
▁leading
▁connu
е
$$
▁pop
▁Pol
▁window
owe
thern
Panel
Fin
aland
▁OUT
okal
--
▁recommended
▁oro
▁Association
▁original
▁etwas
cle
varchar
TB
ija
▁geslacht
ées
Buffer
▁Qual
plant
▁IU
scheid
irit
▁villa
лей
▁gemeins
▁versions
▁spectrum
START
▁générale
լ
pin
министратив
▁Националь
다
Max
▁область
▁Ah
versions
▁administrator
ться
▁Ex
indo
▁%)
▁lo
▁Row
dispatch
ひ
▁Pers
Tra
телем
▁пред
fl
Single
▁international
▁actual
ró
▁representation
that
HH
oko
▁Zone
▁édition
organ
右
▁Monday
yed
▁References
entre
ši
▁опера
▁sorry
шов
limat
Times
▁techni
▁forme
▁raised
▁encrypt
uta
catalog
▁natural
Changed
uit
▁commun
▁compare
områ
orphism
áll
лях
FirstName
▁Gen
▁Duc
fac
quent
ard
ias
▁ett
▁мат
▁crashes
сы
anie
ARCHAR
▁semif
osh
igger
ange
▁С
▁Бер
Ident
IMAGE
icional
rost
▁pointers
▁João
▁sudden
Model
▁Storia
▁últ
▁Mang
server
тку
-(
▁копия
▁cook
cial
▁ 
rama
▁település
▁Anal
▁contiene
With
Atlas
▁energ
)--(
▁Som
bad
▁top
▁fur
ridge
▁Table
limp
▁complex
environ
▁Manuel
▁зав
▁block
▁Tele
ем
лат
ativity
▁ocup
reference
▁record
▁tree
Mr
▁sk
▁Jews
)\)
aga
不
parison
ɲ
TextView
ု
▁Of
任
licated
▁послед
▁în
▁Log
rus
▁AF
▁repair
▁partecip
▁andere
inth
▁distinguish
▁mist
amd
▁(
)..
▁Tool
<0x68>
AU
▁Bolog
▁<=
pshire
itter
ritt
life
▁Open
tail
éter
\{
▁бан
orde
AND
○
sym
igos
▁maj
▁Either
▁store
fi
fficient
▁disc
▁masses
▁Bah
音
шен
▁wondering
NU
▁Sort
▁mainly
тера
eed
▁Latin
▁Appro
思
anga
▁fil
▁Culture
png
▁budget
▁"_
▁Q
ois
USER
▁Мо
tag
▁October
▁уез
▁Disney
▁RET
റ
▁Ф
рав
Obj
▁opportunity
serve
▁suspect
nonumber
](/
▁CO
full
拳
▁quote
ала
▁årsnederbörd
hav
▁conver
▁accepts
<0x6E>
▁lip
host
abhäng
}}%
etro
▁старо
▁Spart
'):
▁People
_
tait
▁therefore
ának
For
apache
▁simpler
▁último
lette
▁revista
▁ги
▁zawod
▁Lund
州
empre
ær
▁acht
▁wojew
▁performances
ocus
▁proofs
Nothing
▁properly
▁cort
xmlns
ById
icles
▁та
mapping
▁ratings
ょ
▁mog
=="
ℝ
▁Highway
▁trabal
<0x10>
▁trac
gresql
▁syn
ząt
터
▁diffus
хід
emein
▁vec
▁pierws
isme
win
▲
▁popula
▁któ
racht
COM
▁origen
ziel
▁disapp
вого
▁making
orm
▁conditions
▁loved
punkt
illas
prob
arr
Byte
▁▁▁▁▁▁▁▁▁▁▁▁▁▁▁
▁lets
▁middle
anny
ek
вання
ón
▁Außerdem
Received
мах
generator
ac
▁Gu
▁explains
ǎ
▁rou
▁summer
ATCH
<0x2F>
▁cab
HS
othing
▁Ajax
ому
▁музе
=".
▁Digital
nic
▁május
uj
Cr
empl
resources
zeichnet
▁кре
▁ber
▁ISO
▁appro
▁hum
iga
▁отри
ள
sen
▁Albums
agit
▁сіль
▁Биография
▁uint
▁Instead
研
ONE
片
avi
VO
▁hombres
▁criticism
▁induct
▁presents
szág
ppen
▁wyn
тина
유
▁directive
▁Des
▁perspective
цію
▁Francesco
ョ
▁furono
▁estudios
ĭ
icro
ál
▁consult
▁Му
segment
У
▁k
▁św
дии
▁seized
▁finale
▁округу
ッ
itaire
₹
бю
AML
▁dess
▁companies
▁Email
take
an
▁Append
▁independ
hö
iate
▁Alo
▁FIFA
dzie
▁bât
▁monuments
▁sotto
▁unterschied
▁hom
▁tít
comes
citep
▁fosse
▁команду
▁Maria
nx
▁boot
▁Те
▁consider
▁creature
.
▁pod
▁checkbox
▁em
iano
estore
▁deix
эй
▁Bash
▁Refer
▁Total
ene
▁undefined
▁Netherlands
▁ME
schen
▁t
▁Shakespe
▁dt
▁subtract
▁europé
скус
▁bul
▁Christopher
▁Heimat
트
▁English
藏
▁organis
el
хо
▁її
▁Password
Office
Game
▁Regin
▁cell
Life
▁pse
asse
halb
▁ub
iel
ingers
▁sensor
付
▁unicode
As
єм
▁world
▁Première
▁trap
▁disposition
фициаль
▁miejscowo
▁Schw
set
▁educ
▁Thank
▁pray
alis
▁AWS
ската
▁geom
φ
▁corresponds
▁practices
▁ost
▁Ble
▁under
сту
ected
кому
▁советский
▁millions
▁Franklin
▁titles
▁instrument
▁subject
▁telling
▁sugg
▁IP
▁eingesetzt
uje
▁persist
ären
▁день
▁Verb
opy
▁Vector
▁Vater
aban
▁working
UTE
▁repeatedly
▁Moore
▁Calendar
▁viene
진
▁Marg
▁Cur
Eq
▁passe
▁ox
▁temps
atting
"`
▁století
▁bin
恋
ץ
Supp
xx
▁large
▁их
ད
▁matches
ós
▁Beach
▁поль
▁mucho
▁inherit
▁Rap
othe
▁Louis
thur
forward
▁Camb
െ
▁transaction
▁hopefully
▁Col
▁соста
▁swing
є
Optional
Y
ographical
rain
▁fly
▁Peters
▁newline
oben
▁voir
▁THE
ack
▁temporal
now
usch
assets
▁Woman
▁Об
udem
▁Presidente
hang
▁│
Cat
ędz
ubble
▁подо
ща
Transaction
Completion
)(
ikz
▁все
▁package
▁Alb
▁ami
стя
▁Сте
▁Bij
̯
imeter
▁gentlemen
▁вересня
▁identified
LIST
~\
>&
▁mezi
▁commut
▁Williams
▁Ada
aware
▁serait
abc
▁statist
▁wrest
Holder
ader
▁Дата
zef
▁irrelevant
أ
ification
ikh
▁encore
▁wit
ian
▁zus
engl
fd
▁half
cdn
▁Single
IGHT
enario
kal
▁&
ató
ม
제
"}
artifact
▁stdout
▁toler
ө
▁seit
▁sac
рабо
ца
öß
▁konst
ract
cfg
▁anal
ester
brid
▁integrated
SHA
▁focused
▁François
abile
▁Whit
▁golf
▁vertex
usammen
▁mistaken
▁dinner
ук
▁imm
▁Get
▁suffer
ന
▁conc
▁conject
ável
region
acon
▁зе
▁вид
▁skills
inton
ე
▁towns
▁сельсов
ega
▁liber
cks
▁exem
▁adj
ow
ball
▁ID
▁ampl
})
▁plug
▁perform
▁bien
▁épisode
Q
▁Camp
그
▁Svens
▁elif
ubs
▁western
cref
华
▁кра
▁ву
IABot
ге
▁past
▁lá
▁prob
viron
▁ll
▁UTF
mé
kreis
iversity
▁Genomsnittlig
▁translation
▁gare
...
<0x21>
oris
▁Write
Release
OB
altung
▁Vog
▁Ham
▁dirig
▁java
Tim
▁einem
при
▁bounded
icio
注
<0x17>
▁saying
ición
▁helper
rez
▁points
atures
igu
iteit
▁franch
▁interface
шли
」
▁Ле
ią
▁Cir
▁compet
onymes
▁projects
Build
▁inequality
▁trava
▁Tex
rooms
artifactId
▁kall
▁gut
ね
▁tegen
sel
▁около
▁screens
▁gray
definition
▁Westen
доступ
блі
▁Same
ulated
AX
гу
▁shooting
▁profile
Lo
▁providing
▁Agr
▁est
kon
US
шп
MDb
dash
NUMBER
guer
maven
XML
▁zusammen
▁BEGIN
oct
Cache
adó
sero
Ė
parent
▁O
material
ぐ
▁expose
▁Sue
ര
ListItem
ть
II
Week
▁partner
▁emb
help
ferences
▁slä
▁Familien
▁momento
▁Springer
▁LIM
व
anges
▁Przypisy
▁Coppa
ginx
вала
▁knowledge
▁veröffentlicht
bf
▁Paris
])
▁Marie
▁particle
Mask
▁Genomsnitt
▁excel
He
▁Toul
grid
▁premier
▁flesh
▁foundation
▁posting
▁oktober
▁YouTube
Column
▁Voor
▁Резултати
`?
ря
▁Tem
▁Rich
defn
▁ski
▁Carlo
˚
▁iz
CRE
andom
urr
::
▁Que
lines
Sim
Quant
izations
▁specific
▁earlier
olog
used
▁cig
imming
▁dès
<0x1E>
Ma
Uri
▁suitable
ioned
utable
ɐ
▁Ot
▁theme
▁Ress
▁авто
▁doctrine
▁quelque
emat
▁вре
▁imports
▁acquaint
ave
select
▁\|
fty
▁prz
▁multiple
▁déjà
ISTS
▁Blues
Prop
▁Pu
contains
▁guer
▁Spark
མ
device
▁singular
▁clothes
:{
▁Wür
▁liegt
}"
namespace
▁История
lict
ami
▁Union
▁Game
▁pueblo
▁kilomet
<0x67>
▁pa
▁dare
eme

▁third
iembre
▁Gott
▁historiques
▁plots
▁period
▁paste
▁Ху
ピ
▁beside
erade
▁beam
Change
Failure
▁Luft
ivel
▁Brit
érique
▁мя
Ú
사
▁\)
▁embed
▁Syd
▁cui
etime
▁doors
▁pack
▁sections
▁Between
▁advance
шие
▁milk
car
Len
▁military
▁Système
▁Excel
▁dy
uchs
▁groot
Android
▁characters
putation
zyst
▁(.
▁she
lipse
enia
▁Mic
=>
▁comput
έ
▁пода
▁Define
য
▁press
▁carefully
▁parallel
▁Anto
▁Пи
▁seat
▁Document
▁Ju
▁Но
▁independence
▁ou
▁spac
github
▁soc
▁vs
▁favour
▁Ministry
▁Mail
SC
pb
swap
:/
three
▁окт
府
eral
ёт
ți
▁communicate
▁thread
apper
enç
pres
▁scen
▁sulla
▁отме
Rate
ℚ
`](
lad
▁ere
▁első
NN
机
▁occas
ク
rijk
▁Dia
▁expressions
▁cb
▁Че
▁intr
±
ങ
▁lit
▁consegu
▁courses
▁represents
▁in
▁сель
ром
extension
▁javax
asketball
▁DIS
▁suoi
ários
(.
pués
▁viss
▁uncle
▁spectral
▁tej
otti
меня
▁through
▁estos
bindung
▁simplified
ം
uge
▁Ві
ás
▁orbit
▁elektr
▁Russell
rewrite
lez
▁rapport
ellij
▁correl
Dictionary
▁Nederland
aset
▁Trib
▁beaucoup
▁reprezent
∣
]="
ße
▁vent
▁Mode
Role
kee
▁parameter
obre
을
%=
ھ
▁comments
▁Communic
irks
▁convin
▁delegate
imas
ordnet
бу
Lines
▁rob
도
▁eine
rho
▁depends
áz
▁strange
bras
▁forg
▁mundial
omin
▁único
жі
our
unas
▁vote
▁multip
程
ihe
enu
▁gravity
▁Hong
avier
fter
pl
istra
▁Friend
===
▁encuent
asket
urk
ш
▁Aust
▁Benjamin
▁elementary
riteria
Ť
Default
olk
удо
▁dent
▁claims
典
▁mixing
iler
vin
▁price
bero
▁дей
▁
()"
se
мент
▁NSLog
pection
icrosoft
icity
▁continent
ք
Ign
geme
ivos
▁predictions
▁заслу
▁each
];
▁After
▁бу
▁но
uld
zyma
ּ
▁ek
▁Given
▁PHP
ро
^\
▁Add
喜
▁select
Bal
ollow
Html
би
▁wrong
▁posterior
▁Mari
ські
ově
press
пер
▁Det
Services
iation
▁voj
annte
CONT
▁Fil
comm
items
illing
▁scalar
▁alongside
▁AS
asing
▁finit
▁brave
▁habían
▁Anim
ock
publique
Constraint
▁Internet
ensor
jähr
▁з
рок
igneur
iance
▁logical
▁magnitude
▁встре
isi
▁partido
longrightarrow
▁впер
▁что
▁deze
gc
▁иде
]
▁development
сите
정
▁Marsh
▁magic
▁recognized
Parse
  
▁rivière
▁sit
▁becom
▁lear
▁void
₄
ブ
protocol
▁dép
Di
ція
▁approximation
▁Са
▁rejo
▁although
▁още
.«
ства
▁features
▁Deport
時
▁interven
ги
た
)){
▁ofic
xt
▁provides
▁sierp
legate
▁Milano
▁policies
DataSet
▁veh
▁Ин
记
üs
]`
▁листопада
▁Dog
▁defaults
glass
▁ela
flash
▁kter
рев
▁Olimp
ativa
▁européenne
₈
agen
▁writ
тый
│
▁Marse
heits
History
▁Complex
Serial
▁{:
cellation
este
OP
Sdk
ul
▁mechan
▁(«
away
uce
▁cuer
RES
▁propre
▒
▁coup
▁Storage
uchte
▁Lo
▁aj
▁implementation
▁perí
dh
▁slope
----+
▁expres
▁Rah
co
▁swo
▁'-
inkel
▁pueden
▁améric
茶
amba
▁investigate
▁général
▁universe
vement
▁source
▁Wei
♭
orders
bern
▁estava
﻿
▁жизни
ble
▁issues
▁psych
▁Independent
▁rock
▁deli
daten
ilation
▁curves
▁sal
▁Her
▁Hot
▁sle
▁publi
▁Grad
another
rifice
▁cas
▁distributed
▁putting
▁symmetric
ict
emer
zie
ongo
▁exclusive
▁då
▁util
▁Academia
▁Second
▁scope
▁poem
▁XII
▁Aus
etic
ющей
va
▁exer
▁bro
ド
╦
ord
tac
▁periodo
▁proprio
az
▁compression
▁opts
inci
▁massive
▁hos
▁tex
owana
▁TH
▁Gö
<0xD3>
duino
predict
▁француз
RO
▁pap
First
▁köz
WR
documentation
Ob
▁discussed
▁immedi
▁Neb
▁headers
бли
▁Ul
ulaire
enez
▁Bildern
▁своих
imate
▁wife
sam
▁misma
而
▁{
numbers
▁precise
▁steht
▁alcan
▁mét
서
▁encounter
▁geht
▁как
▁displayed
▁okres
rian
▁llam
▁ст
▁clip
чан
каль
▁shout
▁obs
▁bulk
спорт
лок
će
▁algunas
▁inqu
public
licht
îne
▁which
▁shr
фи
▁ligne
▁Junior
TP
▁neutral
ع
▁song
▁took
▁DR
Э
perform
ക
fm
location
▁Northern
entry
▁descend
VA
▁spre
▁associated
erni
rif
headers
▁candid
▁volte
Ó
ʋ
▁repo
▁Burg
▁první
aren
▁gig
“.
▁erhalten
て
▁status
ფ
ją
your
star
▁ferro
URN
▁zewnętrzne
▁Exchange
▁proportional
▁coat
▁Dic
: 
cod
▁succ
▁Cre
▁Provinz
▁Bew
ursor
bug
▁Dire
Stop
ctrl
necess
uuid
▁element
тика
▁Susan
▁cov
▁Remove
▁younger
▁singer
itute
inus
▁Juli
▁really
▁homes
voir
▁apparently
vole
gem
ální
▁Hamilton
brow
▁llamado
▁polic
({\
▁Schriftsteller
▁commerce
poly
Compat
▁hecho
▁Entre
▁комп
ely
▁smallest
ificación
Espagne
кономі
eter
ult
▁Norden
ち
ћ
▁There
▁Volks
ylvan
▁Today
▁Big
шей
edeut
lication
▁|\
ська
▁rat
▁people
ügel
stru
inda
▁colours
ounding
▁permet
▁hatte
fish
ado
▁dre
▁Depart
work
addy
ガ
▁этом
лли
▁Premier
▁perman
▁Arbeits
▁successful
▁patients
<0xD2>
▁Zo
ány
Using
oł
▁Ib
äre
angel
인
>();
érature
▁затем
▁trunc
▁possible
▁ort
▁haut
▁entrepr
象
On
▁International
▁Alliance
Windows
▁manage
Miss
▁standards
utors
лися
▁rule
▁users
▁new
e
▁castle
Jose
▁justice
▁risult
pull
)).
ющего
▁некоторы
▁Or
▁dels
▁Bundes
ished
▁ben
▁которых
льно
irtual
textit
▁waste
rice
▁$|\
▁mand
ơ
form
ту
stein
▁sow
жения
▁Tang
production
Formatter
nick
kk
gesch
fern
▁cattle
▁Aut
human
▁digit
array
▁coin
зяй
▁Pad
apply
▁Bush
▁gminie
skich
⁴
▁Fred
▁Metro
▁Einzel
▁dov
▁Neben
▁reported
lla
ikus
▁trying
chni
▁Category
▁Кри
▁very
▁Hook
IVE
▁calling
<0x3B>
².
Valid
ớ
ܐ
▁годи
room
▁люди
<0x84>
rm
cki
▁Top
ière
observ
ă
宿
▁mondiale
▁cuales
▁Zürich
▁output
Block
▁Dow
▁оста
▁Oficina
▁Rück
▁oct
▁Sah
▁geometry
▁Dynam
üsseld
msg
atura
▁column
▁Black
▁plants
▁рай
eu
▁threw
▁Trop
▁Fight
▁Perry
▁{\
给
uration
▁же
▁occident
fx
▁around
▁voll
▁Николай
▁all
end
▁aggreg
ampf
▁King
▁aprile
▁зан
▁###
▁click
▁Си
sd
▁pt
▁llev
▁Ly
зд
▁puede
▁errichtet
▁format
▁Municip
xygen
ṃ
▁canonical
ifference
▁Wild
▁rail
▁scenarios
aut
▁Sloven
ě
‾
▁surfaces
▁stati
▁"",
<0x37>
▁linking
▁executed
▁divine
手
ി
lej
▁empty
▁Geography
▁central
▁Sent
▁aliment
▁adjust
▁ter
▁Ast
iemann
Ș
ố
▁pom
atalog
▁Based
<0xDD>
▁haar
▁step
ents
▁(@
ช
англ
guide
▁образова
вания
('\
▁fought
▁zeit
occupation
oted
▁attempt
▁Mir
owi
▁Link
Am
▁Professional
▁varchar
ków
▁Cred
▁заво
▁британ
Updated
▁federal
▁defines
▁puis
raction
issenschaft
▁Ä
refs
▁pero
ি
▁тек
▁alors
');
▁perpet
LD
▁consum
十
Extension
Na
ни
ческих
▁txt
▁општи
pad
▁Мон
』
ulating
▁whitespace
▁nucle
▁songs
▁uncertainty
▁web
zk
ір
▁jump
ال
▁mirror
replace
▁aug
only
▁coverage
ordinary
▁arte
Parent
Integr
▁orig
▁stores
▁auch
▁sie
hline
▁reduces
▁duch
▁Jan
▁према
inese
corr
commons
ive
▁Tre
字
▁depending
PATH
param
пі
▁Learning
▁checkout
▁cost
▁Grande
iral
scheidung
動
▁guarante
▁familjen
hein
ulp
▁servants
ijo
▁Media
nbsp
Pe
▁wereld
ateur
disk
geber
□
▁kdy
sky
mac
ι
▁février
▁formally
ocoa
▁режи
мана
▁Swedish
asant
ensed
▁ceased
▁ха
▁sunt
▁подацима
жде
▁pay
▁Сере
ensional
▁Parliament
▁UE
<0x1B>
万
▁siguiente
}{
▁unless
ℂ
áj
▁Lav
ACT
▁assum
('.
perate
▁hasta
▁nell
attach
▁longer
enter
▁conjunto
▁Paul
ategories
KS
く
▁jul
▁roots
后
flutter
clar
▁devoted
▁ins
▁Cer
▁Ther
▁spare
▁button
▁label
ország
▁setting
ность
▁wsz
▁geldig
лю
enschapp
constraint
▁ADD
ホ
▁wins
suit
évrier
▁persu
cdot
▁Twitter
▁mn
коли
Example
▁games
Auto
ض
▁Angel
▁Entry
▁recip
search
▁Sor
▁..
宮
▁eigen
rások
code
из
▁Ord
▁increases
origine
iro
century
beta
▁Action
г
рук
Attr
ments
eper
SE
▁dise
▁++
Site
▁printf
▁ai
isti
▁Take
reichen
▁XVIII
ië
▁immagini
q
}}\
▁`.
ero
speed
▁horn
ěl
▁Accept
▁Voll
nię
Bit
▁Colombia
▁NAT
▁imperial
▁мы
▁ikke
▁publication
▁Bé
кур
▁lib
VERSION
▁egg
▁Vel
▁Hitler
operatorname
▁siempre
▁falling
kou
조
HOME
ivers
▁europ
Img
})$,
meter
Live
oop
ugg
▁meer
▁dzie
≈
▁gab
▁smile
▁Dir
▁ent
▁exposed
isé
юз
▁пора
▁''
▁ma
yyyy
atem
▁pixels
▁Fig
)),
▁Face
▁men
▁fotograf
arus
▁inner
hner
▁},
▁VIII
▁offered
愛
▁need
NF
Label
ellers
mb
;;;;
▁CNN
ḷ
▁sav
eqnarray
▁Hart
▁confl
▁рас
▁награ
ك
▁З
DL
adding
arters
agine
▁av
icus
├──
RU
▁Parse
von
▁Are
▁owned
сло
▁documented
=\"
▁desen
▁creating
▁gennaio
▁gdzie
▁chemical
\<
flex
ici
▁save
<0x8B>
▁Javascript
▁possess
âge
irie
▁компа
▁quar
▁invoked
oon
header
Objects
▁doll
▁auto
▁ils
機
седа
actions
▁samples
cp
supp
pmod
leep
edic
▁serv
^{+
ysis
udes
inge
ckets
ым
▁Customer
slider
inner
𝕜
▁Indiana
I
▁del
bis
▁dimensions
_.
▁obviously
ḍ
<0xFC>
ہ
={{
ланд
▁purchase
▁Inn
Ľ
street
ум
▁Krie
Values
▁assistant
evalu
.\
ideo
▁Jew
Month
▁safety
alles
▁Republican
},{
ôtel
ὰ
移
▁Front
▁rendering
件
▁ut
▁Gü
▁express
depth
bers
Span
йской
▁Ferr
▁tun
Off
like
▁CHAP
aud
▁separately
▁University
▁moder
▁Elle
म
intent
▁Canal
⁷
▁schließlich
▁mouv
trad
ders
ierto
▁Kil
▁została
▁Sof
▁Nature
▁Happy
ids
Are
question
enig
tableView
▁oper
▁сво
AMP
Player
▁Hud
▁gibt
Ю
▁sempre
Fern
ാ
▁Коро
▁considered
<!--
BU
▁Hun
er
▁гре
▁fixed
management
▁jo
category
▁soll
▁возмож
▁U
Conf
▁cin
▁gradle
ubernetes
chmark
▁toujours
▁campe
zik
▁valuable
van
▁jel
shift
Ś
endet
entation
istic
èmes
▁aveva
zing
へ
кре
рд
𝓝
▁Kh
▁Vin
▁beginning
oring
▁pandas
▁налази
▁concern
ohn
▁Fußball
▁legal
wner
feld
tomcat
զ
▁sizes
EL
adi
лин
ership
rics
▁comenzó
▁Julius
ometer
ütt
Ed
riors
▁approaching
varphi
liv
__.
▁solutions
accept
лян
zej
Projects
▁///
▁Fich
tod
bir
▁debut
▁Besch
上
▁bounds
NEW
▁substitute
six
vised
then
кої
▁Peace
▁opened
▁'#
▁ignored
go
uche
annt
▁Julia
blockquote
▁explos
._
▁subs
`
▁Dorf
▁guaranteed
▁brut
ϵ
well
]/
▁Liberal
▁animate
otos
▁convolution
▁Natural
▁Football
:@"
▁depuis
Views
▁studi
Њ
ITION
▁tak
$),
▁Schul
ย
<\
▁Mont
▁gy
▁apache
erv
«
▁Boh
▁meant
льных
Pointer
▁answering
ux
imb
ін
▁applicable
▁indexed
▁targets
optional
По
▁Пу
▁Heritage
▁const
ュ
▁creates
ύ
沙
⊤
ґ
▁tries
ografia
▁gun
▁Кара
▁corn
▁IV
▁graduated
▁ports
self
▁Fri
▁namespace
ING
▁means
User
▁elles
▁science
▁remember
▁ted
uffer
mpeg
\|
▁nav
▁ctx
istiques
▁workers
▁convention
▁donné
▁Durch
▁worker
▁Роди
////////////////
]"
▁Craig
components
君
▁later
ћа
rinn
▁last
▁Prop
▁Hans
ABASE
▁backup
"],
Speed
▁Ев
▁Wer
▁juin
▁Proof
▁product
culo
third
▁shield
[{
ських
cpu
<0x0B>
▁buy
▁overrid
icana
▁lun
씨
rique
ureau
▁revolution
gradient
▁nov
▁Chan
▁concurrent
▁dim
̃
▁visual
▁década
▁rand
▁situé
▁Family
FD
▁Yet
ő
▁scheduled
▁nyelven
▁talál
位
▁giv
▁Миха
isis
wirtschaft
▁сло
▁transl
▁Best
▁там
▁Seb
▁Carolina
▁relate
uwe
▁mehr
▁Kat
ashed
▁come
▁Pin
reno
▁apare
∃
Setup
mir
▁ru
▁animal
▁As
OH
▁факуль
Act
LI
rop
▁gew
▁осо
▁Quint
▁From
▁přek
▁anglès
rimonio
▁роль
▁Build
▁WPF
▁Не
▁voices
antes
▁continued
▁Charles
DD
álva
zeit
DM
传
ião
▁fingers
extend
▁Chap
▁dependent
▁camera
written
▁Expression
ROR
▁Herzog
édition
▁Gram
▁IBM
weig
DA
ungs
▁Derby
▁typ
ག
vee
▁Phot
Sam
oms
▁why
idor
▁equal
▁optimal
Editor
▁prost
сад
▁чем
asm
kret
▁dé
▁annotation
▁surprised
arith
▁myself
Position
▁Deep
▁Binding
▁Fin
Ben
▁Fir
▁rend
▁марта
▁immediate
▁growing
ária
été
▁gewesen
yr
standard
▁wealth
guard
ER
trz
▁sulle
ị
,...,
▁epo
Ha
▁otro
▁permit
▁satisf
▁mag
▁age
стову
aten
▁Ley
▁mesh
▁revealed
ancer
ren
▁tests
▁Karl
▁KEY
▁implementing
ense
output
sb
▁sem
▁employ
▁nord
Workbook
interno
▁Magn
▁artificial
▁user
▁supre
schaften
CL
▁myster
<0x4F>
数
▁mult
▁bridge
▁delete
▁IN
sock
Az
owania
▁эконо
род
▁Enlaces
avo
▁то
secure
main
▁categories
▁sig
▁Liste
▁Cic
▁language
Ty
▁копи
▁arrangement
autres
platz
lemagne
ί
vi
▁Sky
ouvern
▁Roll
▁efficient
Writer
▁omitted
icki
▁tied
▁IR
veis
channel
▁octubre
Ἐ
▁above
Edge
IG
▁Tová
haps
dart
шње
▁Stanisław
▁Instit
лением
buf
ishment
ář
▁Flora
RY
▁dil
▁jet
▁circuit
lambda
ield
Command
entlich
++){
▁автор
他
creens
след
▁fragments
▁Fue
ades
▁Zwe
▁contradiction
▁декабря
achiv
▁rece
pression
▁lif
uclidean
▁Soci
▁grid
置
▁Rechts
▁Hotel
▁physics
igner
▁Mold
Cert
▁Nat
▁ASC
ellschaft
sq
ä
▁determin
ßer
Matrix
▁Tsch
▁су
▁Osten
▁Names
вед
▁elected
▁Ltd
WT
ouwd
▁живе
▁Dabei
oke
prev
Kit
▁Green
point
▁Dim
▁gram
▁rien
▁Auflage
▁elegant
▁Stars
▁Sax
▁courts
ERT
▁especial
ција
▁Magazine
atal
èrent
▁existe
▁Palest
agy
TEST
ё
hem
min
Student
egung
▁pedig
ender
omorph
▁sea
▁definitely
▁Bib
configuration
rides
▁seva
Num
<0x31>
▁ersch
development
▁Га
ceu
Percent
ount
park
tabs
▁audio
iante
▁wanted
▁реги
庄
border
skih
▁Development
bez
Rout
▁explore
phen
€
юза
▁Ok
color
serie
▁model
▁United
▁per
業
CM
▁cos
▁isn
▁progetti
description
▁Queens
▁wurden
▁ingen
▁luck
▁Bak
▁Must
▁Intern
▁primi
만
▁ули
▁про
新
Any
▁Napole
▁italien
▁landscape
▁steps
▁combining
,.
▁illustr
hof
▁Timer
Title
▁Пет
▁habe
▁Poz
Sch
▁elem
DI
▁accepted
▁advoc
▁lad
▁converting
toire
▁Spirit
▁Kar
▁commanded
▁guard
Canvas
▁daar
▁\\
▁départ
▁feel
▁champions
сти
▁Eg
▁Smith
▁médec
Calcul
nut
ftrag
ття
▁invol
▁Hi
▁dict
*,
▁Dum
preview
▁Ref
▁uri
û
String
gie
▁union
▁Arc
temperaturen
网
บ
iesa
Operation
issen
ер
-.
▁ci
@@
iest
Mich
ließ
лосо
»).
▁Rico
▁klas
¤
▁stead
дом
onto
▁sm
nak
▁exhib
▁pictures
expect
▁Sing
Proxy
Les
▁Temp
стран
ogli
:-
▁Joan
enska
▁formulas
▁Mountains
▁prop
Alignment
신
aine
▁ал
▁strategy
▁EL
민
▁resulting
▁aver
▁raising
▁Al
loat
(),
▁North
▁Fer
▁mari
▁Island
Pers
igare
ited
▁debe
▁departamento
OU
opo
▁While
тво
▁lum
▁specify
▁Chen
▁буду
▁compatibility
owego
Cookie
▁strutt
Occ
▁Render
achine
selected
üh
▁elet
▁swap
Att
ская
dest
рак
ello
▁protect
▁Deb
raint
schließ
▁politique
▁Ligações
vent
ологи
▁(†
то
ço
хра
▁Def
▁envi
▁composer
▁fot
▁operators
вня
▁ide
ägt
♯
▁fill
▁Street
oem
вод
ič
▁político
ье
rimin
едера
.</
▁sé
verso
iast
ör
▁Mad
▁sevent
▁amet
ask
гда
▁simplest
▁Maj
cement
▁München
questa
Code
"},
▁intended
▁Cham
▁queue
isp
▁stell
▁Ital
Validator
two
<0xDA>
CA
‑
Security
▁Information
址
▁Blood
▁Da
<s>
▁Ts
▁textbox
▁{@
▁hace
▁ActiveRecord
▁Ps
▁wounded
▁enfor
▁preserved
▁Congo
edo
elling
once
ibus
▁Gay
nb
elta
▁Exper
▁corre
Power
▁phases
тан
▁esc
▁fate
publish
▁`'
owej
▁mill
<0x3A>
roll
▁dates
▁Rock
▁Indones
▁products
oter
pk
▁Duch
▁mang
▁CURL
以
▁esp
▁tut
▁straight
ríguez
ute
lets
incie
▁Wikimedia
先
▁lider
▁développ
inary
▁поме
mask
▁Need
▁processed
▁limits
▁Ned
▁tim
Mc
ự
phony
ib
Lambda
vel
▁участие
▁Ernest
cancel
élé
▁converts
irus
encode
▁área
ún
▁Under
▁explicitly
▁§
----
▁byl
haus
▁Baby
ɑ
▁gemäß
▁correlation
▁Gonz
Self
球
▁destin
▁nuit
ар
aría
▁stem
pay
▁NFL
▁troisième
wx
#
plots
▁Gill
wt
▁Cet
▁nearly
ный
▁diffusion
ché
führung
▁tasks
▁de
▁arrang
NET
Sal
▁branches
▁NGC
Statement
▁Things
gericht
SEE
▁Harvard
lige
кипеди
န
gang
ном
http
ç
▁Tr
вра
▁dup
▁Thompson
▁Ста
лько
▁rectangle
thick
▁Hamm
▁Bla
λ
▁Catherine
test
бка
▁get
ի
▁matplotlib
▁trouble
▁под
liament
▁Pale
▁rép
▁Pour
method
▁René
▁inches
▁Ass
▁Controller
▁Martín
▁Pla
ходит
▁moi
notin
ourd
vim
ـ
房
▁Con
▁Operation
gest
Са
▁Bal
▁Tar
▁PL
ждение
▁Nic
▁Example
▁ajax
<0x19>
▁works
rotate
▁Геор
▁jazz
▁Stutt
ence
appen
▁measurements
▁Clo
▁Rodríguez
PT
▁confidence
<0x41>
ско
▁Ми
▁main
▁Records
▁nyel
▁onCreate
▁Nathan
овая
▁thr
ending
▁blog
ührung
DateFormat
erne
▁jour
raine
нем
▁visited
ousel
▁listing
tocol
▁Sohn
▁была
mez
▁NC
▁conscience
ʾ
▁electro
主
▁huge
▁пі
▁prüfe
égr
rument
▁Originals
∘
Get
ämp
сни
!
▁Entertainment
▁arbitr
▁keep
partition
aml
▁ucz
▁camp
rams
▁had
sign
▁eg
▁siendo
▁Sele
画
▁Meg
ponder
▁admin
▁padding
▁<!--
▁era
▁dar
▁Encyclop
plements
▁moments
▁bib
▁together
▁Praha
▁matter
Div
дна
▁association
”,
immer
▁sap
▁avoided
▁TR
ombres
▁Mock
称
date
connection
▁мм
▁września
Setter
▁questi
▁falls
lave
▁critics
▁break
▁fin
ocz
.")
▁delayed
▁apparent
▁dry
ous
»)
▁talking
endif
▁muy
▁webpage
yntax
▁sky
▁whe
ltal
({
▁River
▁Arnold
▁inspect
▁passengers
onom
▁McC
▁IMDb
▁anche
ного
▁relations
▁partiellement
▁happy
▁фа
▁tud
te
ILL
▁від
̩
▁High
bib
▁armed
▁mor
▁shop
▁Mond
▁paint
Alt
▁son
opens
verb
▁challeng
▁Bened
▁emails
自
▁одно
▁over
}`
▁Metropol
▁Hollywood
Transport
зу
▁tired
▁fail
▁eben
▁Proposition
▁suggesting
び
▁é
▁Flor
▁yes
▁dtype
esters
▁честь
▁т
▁acceleration
malloc
▁lak
▁costru
ходить
▁Week
▁frente
▁drew
▁Rus
▁pc
▁achiev
▁destruct
▁delivery
▁hard
▁davon
▁lavoro
cko
▁Mis
▁thre
▁familia
▁obj
erd
▁incre
reck
ա
чин
щ
共
dependency
Tools
▁bucket
▁CGRect
▁"`
▁specie
▁surv
▁apps
▁Ha
shot
ged
Collect
▁toss
▁polít
▁edited
pick
куль
oci
体
▁chars
PD
veg
Action
idente
▁Dr
ḫ
命
ottom
▁cred
▁Assuming
▁deve
cue
Create
eding
andid
▁й
▁nested
ォ
▁celebrated
ню
▁язы
iness
▁At
hält
▁carriage
▁анти
▁secretary
▁Sultan
Ref
▁externos
bu
▁Mission
▁Depending
▁Wisconsin
▁sail
actéristiques
▁processing
ed
▁Do
▁blev
schemas
▁Gew
met
▁Wa
Marie
Day
▁restrict
▁spos
▁myst
▁Head
DEX
▁males
▁desenvol
▁Nam
▁representative
▁thrown
▁org
▁ult
▁райо
olin
kh
▁ambient
edia
▁avec
▁Ze
omet
▁entries
Root
▁который
▁resolve
Register
printStackTrace
▁bird
▁consultato
▁territory
П
▁byte
▁Nov
▁Льв
▁Vien
▁контро
▁bo
▁Edwards
\'
roy
▁requires
ruf
▁качестве
\"
•
▁ло
進
▁Food
▁variety
▁Vert
▁incluy
▁ser
▁дов
▁Palmar
itul
append
▁Gol
vu
▁род
▁firewall
▁terrain
▁propos
clean
▁Roberto
▁infin
igned
▁mentions
▁obten
Ap
▁Recht
▁faced
▁Rain
▁ry
▁NEW
解
▁display
▁aircraft
mal
▁haber
▁Nicola
àn
ে
ْ
▁critique
▁sql
▁wieku
ye
oid
paper
start
▁Martin
▁Sied
▁conocido
▁originale
▁trip
▁notify
▁genomsnitt
ệ
▁gek
▁Bab
Program
▁ante
folio
▁цент
HTTP
aterial
ocker
▁можно
令
стана
▁coloc
▁біль
бай
박
textcolor
країн
▁Capital
}&
▁não
ан
▁river
каз
▁cookie
←
ück
ǧ
iour
)))
▁environments
DU
▁Forsch
▁Specifically
▁Term
孝
Port
▁Af
TIME
▁ranges
▁Multiple
ecz
▁trois
▁lose
thy
മ
▁lot
▁Catalogue
▁mise
itative
▁destru
▁другие
版
▁бри
▁tank
▁lim
▁filosof
▁latter
▁ges
▁ла
▁Lok
dec
▁mk
▁Norm
ensus
noindent
зи
rob
▁Mitg
тя
▁powershell
JS
Constraints
▁rhs
▁token
▁jednak
ession
¹
ől
▁Wikipédia
lang
disable
▁Goth
uries
j
▁css
]$.
▁manière
▁};
ground
▁noted
ANCE
▁%),
ician
▁ki
▁organisation
egründ
▁formatt
ium
▁ско
ular
};
▁women
▁donc
▁mely
▁Allow
მ
▁care
rod
▁Ark
clou
rust
▁GNU
Que
EM
.—
isko
▁failing
▁episode
ít
▁Kur
▁teams
▁genannt
▁Ya
▁cual
▁reasoning
ible
▁Alter
ी
estamp
▁seven
▁associations
ern
ätze
Arguments
▁particip
▁Mie
tree
itori
agner
▁zb
ewnę
ов
б
usk
sBy
хан
objects
▁notation
▁beiden
mid
nahm
urity
▁intellig
▁Bitte
选
▁certain
▁Nikol
ськ
▁reviews
erman
istics
▁Fail
▁thrust
ώ
{{
}{(
▁madre
rices
ops
arrison
iddle
▁Griff
oauth
ashion
▁luego
Shape
WIDTH
▁Government
qi
bst
igli
▁march
▁computed
▁Currently
▁Ba
▁expl
▁statue
▁Insel
dern
▁ко
▁бе
▁endeav
nam
▁touched
fers
Έ
▁Education
▁merged
Results
Fail
king
itemize
▁Source
น
YS
▁Deput
▁formula
▁thy
baum
▁namely
╝
▁organ
manager
▁двух
▁loose
▁Bald
▁Oktober
ų
▁оборо
pine
asia
ギ
▁Has
座
▁bless
▁fest
vern
Ї
▁valid
ņ
▁four
>\
Equ
zw
▁między
Mobile
ington
blob
built
transaction
ris
ето
▁unusual
▁charg
▁hasn
▁bi
▁risk
▁subscri
ajax
ธ
IP
▁corners
▁exist
▁kot
áció
▁meter
сков
▁Ziel
▁Pit
▁teil
▁Manh
Ü
▁minutes
▁bare
▁lok
▁jusqu
Bag
▁fired
▁Santo
▁Research
▁county
igung
▁champion
ka
▁chim
▁альбо
arial
▁ranks
displaystyle
▁и
▁Sein
ommun
ithmet
▁outros
▁travel
azi
▁gay
▁height
▁available
ics
edy
▁verk
▁харак
▁Personal
T
erved
▁Mutter
Classes
▁Gesch
▁Para
equality
othek
▁sufficiently
▁Traceback
callback
~
构
▁verbose
hash
▁where
▁Fac
▁vital
▁doesnt
▁fine
hh
▁Profil
▁rond
▁Nachdem
mers
▁Mare
MD
expand
▁Close
Strategy
<0x8F>
▁sib
▁preg
AA
▁Мос
▁giugno
▁officially
▁kept
▁dist
▁PO
êts
▁Betty
abilities
agna
▁accompl
》
▁Time
MP
▁urban
▁Emperor
sn
▁feb
ours
▁dimensional
▁ask
turn
onneur
▁dues
icamente
▁Market
jel
▁```
▁октября
▁ря
*
▁francese
▁fore
▁intersection
input
▁comme
▁Ан
▁Par
utely
▁pad
▁Soc
хівовано
▁такой
▁inf
▁Jack
ce
status
ком
▁England
graphics
wp
▁Nob
pper
▁charact
▁died
villa
▁anc
▁nous
cli
ivamente
▁fus
<0xAB>
▁mines
∼
avas
▁те
іс
▁febbraio
阳
▁document
▁prints
тие
ред
Array
ablo
Pos
Zyg
oden
yter
▁Micro
сте
ниче
▁proget
į
ign
Pair
▁str
▁vice
В
laus
?'
рои
▁tum
▁společ
▁environmental
eren
LL
actual
▁iv
▁list
istique
가
andon
▁saving
▁Interest
▁tribe
autre
▁немец
金
技
▁California
rach
▁exact
▁articles
ivity
▁Compet
▁Nie
possible
▁Hin
Der
▁cent
étique
olds
▁Supp
▁clock
▁Revolution
olation
報
▁nave
Does
▁again
шение
dade
▁Sprache
poses
кою
▁Bishop
ORT
▁republic
▁faire
rivial
▁Rec
▁uma
▁campus
▁Private
Comp
EGIN
Cent
rum
▁argue
SSN
▁innoc
bas
▁société
▁ones
yj
▁Cambridge
como
Sigma
+'
▁зо
ency
▁spel
profile
alin
▁Dru
agli
ций
▁hoping
urable
cursor
▁Coll
▁subsets
éb
▁breaking
eurs
相
ork
▁deel
▁super
▁IE
▁timestamp
?”
▁revis
▁breakfast
Repository
∩
nat
лання
▁zeigt
!");
▁party
▁Sub
▁nominated
▁coming
////
▁zap
ম
▁builds
Main
▁compilation
▁Eb
щая
▁scientific
OnClickListener
bund
▁seed
▁prés
ogn
rive
▁opt
{(
▁ker
nan
▁economy
ictwo
),
▁promotion
▁Neder
▁реа
write
owel
并
urbed
▁bars
▁февра
▁interest
▁place
Actions
ipo
▁molt
ixa
infl
▁pg
stag
▁fiction
▁seg
Mark
ria
▁determ
▁popular
gl
дин
tor
bb
gi
▁Sand
▁allocate
語
rero
elf
Enc
cpy
▁exceed
▁información
cide
ss
multirow
ongs
▁Politiker
vos
Run
oplus
azionale
match
单
Fa
attan
▁websites
▁utilis
<0x6A>
}^{(
▁Anleitung
▁enough
Observable
▁зай
рус
▁representing
anna
▁pac
▁assertion
▁perfect
templates
▁godine
▁Fund
▁christ
▁She
quot
▁Jahrhundert
▁Little
}%
esseur
orem
▁Municipal
▁укра
izi
itat
geordnet
▁bootstrap
▁Bedeut
▁NS
super
ijk
▁environment
▁Beginn
AppData
▁sexual
úl
▁Gar
email
theme
▁demande
▁statements
▁PA
IST
▁y
▁edición
Delay
▁Bürger
河
url
ime
ніципалі
cus
buffer
▁packets
▁MainActivity
▁zas
▁ign
zem
omm
▁cheap
Do
ipage
ulle
▁eren
enne
▁confer
кар
nome
▁né
oston
▁boys
▁galaxies
tri
jąc
▁Hend
▁redis
safe
レ
ritz
▁dost
ical
iff
▁commit
▁food
object
▁spons
Tasks
Phi
Trace
▁input
áct
▁Roth
icons
▁statistics
⁸
▁looked
▁ph
▁scales
▁Cr
бин
▁Chamber
Spe
Π
▁paused
range
▁Wing
BI
▁equilibrium
▁water
<0x43>
▁eas
▁minim
ços
“)
iveness
itten
▁icon
consum
▁Oracle
lem
▁band
IL
IONS
▁ave
mem
▁Stuart
▁Me
▁oracle
▁fib
▁blocked
▁orient
chn
▁Jun
ras
overn
▁module
?}
RED
IMARY
▁concaten
▁==>
▁Reyn
ksam
ṛ
▁stolet
▁lanç
,"
▁sul
─
\|_{
▁Failed
▁Napoli
iß
▁archiv
▁Vue
▁Analysis
▁analog
made
结
▁January
▁realized
bounds
émet
йт
▁VM
▁boxes
datab
éon
LayoutInflater
пен
▁Graham
▁dés
▁smiled
▁straightforward
▁éch
crete
▁fjär
tei
Bl
helm
quipe
▁Pref
▁Connecticut
▁common
DataFrame
▁yields
widget
<0x92>
word
▁lugar
▁its
Lng
/*
uro
ългар
▁complexity
▁der
▁aller
▁strateg
down
▁году
▁fait
▁Mel
Year
<0xCD>
▁élect
▁Graphics
▁Ap
▁être
▁circ
otic
ề
imientos
▁fle
="
▁items
▁Dick
▁possession
Watch
▁influenced
lias
zz
▁гу
▁ещё
Period
esk
uri
▁Msg
▁citiz
ے
▁gilt
ън
rí
ási
▁Balt
ży
▁updates
▁laughed
▁CE
▁memory
avigator
тел
oslav
▁lb
宗
Autow
ℕ
▁awesome
cling
ld
▁Astronom
▁computation
ysz
|$
κ
vre
ower
▁però
▁Volk
▁añ
▁großen
▁tomb
▁ways
enum
tera
▁alap
▁descri
池
ས
▁pén
▁escrit
▁route
▁primer
▁Popular
riere
▁crack
aming
equals
American
wert
▁Совет
irche
▁Agricult
▁kinds
pattern
▁induced
Basic
át
%;
▁dello
▁sub
mobile
dependencies
▁simult
wicklung
ęż
▁unclear
▁Außer
福
▁бра
▁guys
▁err
loading
▁hyper
▁Bell
QU
▁opera
richtung
▁cientí
梅
adt
low
史
ὶ
▁Medal
staden
▁denoted
TI
▁destroy
▁reasons
▁Уи
kafka
uben
▁whis
오
▁chrom
pt
ответ
ził
▁Ж
Throw
buntu
Cur
▁Search
зы
▁Wies
▁hommes
▁Ду
▁dangerous
▁loan
じ
ἰ
▁Student
▁diesen
ью
▁conventional
▁Assume
▁[...]
Allemagne
Par
▁tf
▁Esta
Up
ön
▁IIS
ёл
▁Ne
COL
▁із
rad
chez
▁flo
▁gi
rt
richt
▁laat
▁Gra
▁Americans
ição
▁cars
▁w
▁Ring
Uni
▁државе
▁peint
ся
м
▁Zar
▁deport
▁lanz
▁cra
typen
▁Mi
bro
resol
▁soon
tere
agens
ien
oma
brázky
▁thousand
ța
▁Firebase
▁racc
▁сов
ровой
▁può
▁football
▁abitanti
▁Management
▁CL
serv
▁worse
angs
▁Normal
ymbol
któ
▁Justin
▁disponible
▁Control
Direction
STATUS
She
▁dic
hung
umably
Seg
▁described
▁Claude
œuvres
дан
NG
getString
ptr
вобо
же
nego
choice
нове
łącz
rolled
FilterChain
▁virtual
▁Brun
▁Erz
кова
att
▁cette
orge
▁Plan
▁Hein
сну
▁Singh
▁Fuß
<0x91>
▁Prior
mouse
norm
▁dashed
ZE
▁Cass
▁priest
acles
eg
▁investigation
¸
▁esa
agh
ز
▁fair
▁been
▁kolej
▁Design
▁Medien
▁coal
▁latach
fields
▁сра
▁fare
/-
▁Administration
Ż
▁see
▁Emil
▁reload
museum
▁его
ång
▁matters
▁ше
arlo
▁modern
uis
▁National
▁functional
▁tu
ys
▁looking
ере
▁workaround
aty
Activ
ез
▁trace
▁ion
WOR
ográ
▁Oregon
▁regarding
▁removed
ility
cija
▁extreme
▁Za
****
▁optim
arch
arse
INFO
▁Act
colon
└
ada
▁bodies
ipart
▁Tod
▁sans
▁winner
⠀
ured
▁Request
ordin
ikt
▁reconna
n
fahr
ная
▁\
▁wen
▁Vit
▁alem
js
atio
ською
operation
े
▁developer
▁komt
▁lack
▁Blue
UT
▁Harris
▁Glo
▁reason
Foreign
ithmetic
▁participe
▁лу
▁Layout
AL
▁ag
rer
▁trail
▁dat
Result
פ
FP
system
aching
kw
▁nginx
▁grado
▁EC
"];
▁темпера
▁Glad
▁государ
quip
▁dialog
▁female
И
▁transfer
▁other
▁Masters
Initial
▁teachers
▁deriv
▁flags
рис
ை
boa
ые
mar
▁parts
tr
▁contributions
▁df
────
jö
▁arqu
▁ne
▁ab
▁специаль
▁persons
▁Ré
ForKey
<0x42>
▁ю
▁CHAPTER
kow
tf
▁Mun
}^
ύ
▁Medical
FLAG
▁fue
<0xFD>
▁Ru
▁showed
▁право
details
▁Square
Compiler
ović
▁outside
neg
ucion
elect
▁finalmente
▁_
▁Grund
▁laravel
▁составля
Cursor
▁Alexandre
schluss
abestanden
▁sports
▁vari
ên
anse
▁empres
▁золо
▁aix
▁Fem
ℤ
.: 
▁flex
<0xF3>
▁integrity
▁Бу
uw
▁данным
▁rm
▁cloud
>()
▁/*
▁}\
enable
▁nazionale
▁introduced
▁particularly
еди
wd
▁Mol
kreich
DB
ipping
▁Wes
Region
ko
content
ivil
ental
▁basketball
XXXX
ється
▁Amazon
dn
rend
▁naj
Drawing
▁Byte
<0x4D>
▁capacity
NOT
▁jours
ListView
▁później
anya
▁Options
adrat
bi
▁prepare
ious
коном
▁Hy
ynam
pro
▁diverses
▁ves
ссий
бро
strings
▁motion
▁disappeared
▁remembered
oure
annels
Dr
ﬁ
uky
▁natur
unity
stwa
▁кар
Sc
tikzpicture
▁способ
▁money
▁Украї
config
▁negoti
ństw
▁année
RL
▁vál
▁noreferrer
▁cannot
вид
Two
▁Bureau
energy
▁conoc
▁Arg
▁Bibliographie
▁SI
▁canción
istro
lesia
▁brasile
▁розташ
enced
aph
▁få
с
вшие
fran
▁ancien
loop
▁Size
如
▁sod
anha
▁Pont
▁causing
▁кате
inture
▁June
":
нин
▁kwietnia
小
ツ
▁exercise
▁п
arrow
oks
▁collapse
▁ór
ʼ
he
tbody
▁CS
йм
ę
uen
▁spect
▁Nova
べ
▁arm
▁Philadel
)-
Number
wrapper
▁cam
▁lin
▁ther
▁sar
▁district
▁produced
▁messages
Datos
▁Well
▁teat
vä
▁Ier
▁tips
дий
▁него
▁intermediate
▁espa
▁Seine
▁Marco
łów
▁Roman
▁Ш
ław
Φ
▁Ens
lage
Native
▁moving
gency
▁numpy
Î
▁assemble
▁preced
▁caval
▁поле
▁comport
Store
▁Safari
▁Did
▁sci
▁Mittel
inen
▁metadata
ғ
▁cel
ually
▁rose
▁Chart
▁bedeut
ん
company
ver
ба
▁remarkable
him
time
рина
▁coron
нци
▁serie
点
ње
▁filter
▁organiz
LE
acia
controls
Scroll
▁мен
\\
ня
iqu
éné
ować
levant
_)
▁stating
▁civil
entials
(|
▁юго
omic
▁gold
yst
▁Spain
ых
stronom
spot
jt
')[
▁injured
▁wor
▁часть
roph
onymous
▁Stockholm
▁politics
ט
▁си
▁sni
▁voted
arius
ük
▁patr
▁Looks
▁ded
‚
ettbe
▁Ged
},
ма
рода
▁lots
▁Inform
овано
mc
orum
▁Federation
▁conservation
▸
▁Hugh
enabled
ército
▁Man
rie
▁interactions
$(
?:
▁voting
té
itecture
itats
우
▁arranged
тели
verter
лан
▁scored
info
▁feder
▁tutti
nd
eln
ople
▁end
▁Walker
▁anti
▁glo
зен
▁также
рома
vek
▁Städ
▁refer
Yes
large
áss
cf
coli
<0x64>
▁Th
▁doc
▁eight
▁patch
ск
司
▁canon
▁otto
uset
zenie
▁primera
-------
▁Gab
▁texture
iency
threads
зво
▁rever
▁Cés
▁пів
ljen
oa
▁centered
▁aid
provider
olg
fff
hing
Assembly
̈
bbe
▁fa
<0xF9>
▁anx
azy
ches
Or
arter
filename
Se
▁official
arden
atique
uil
▁тако
ucture
<0x79>
▁mini
▁rodz
َ
▁Vik
▁compos
onk
▁careful
нок
▁Toast
瀬
formed
повід
▁prepar
▁Abstract
▁mapping
▁labor
▁terrible
eting
▁ath
実
▁А
▁ehemaligen
чно
jud
▁frag
chia
▁Für
▁zač
▁solution
▁tack
gart
▁Jane
▁Inside
<0xA7>
▁illegal
▁async
watch
▁power
Series
LC
▁Kub
сона
atte
"/>
▁Princess
osph
▁meteor
▁Ma
▁vers
▁^{
▁British
▁nej
remark
security
ante
berts
emp
ython
▁CF
жений
▁switched
second
▁roy
▁Ted
▁happening
選
▁interpre
▁console
<0x36>
and
ió
gnu
▁Alberto
▁Hus
▁завер
ibility
reci
▁ic
icios
<0xC2>
▁Кур
▁convenience
ש
▁mat
ald
Foo
)$$
▁sacrific
▁террито
▁располо
XX
ipeline
▁поэ
▁inde
VI
▁legit
utor
▁American
▁George
school
器
▁brilliant
стру
▁saison
▁fi
mania
icht
▁–
akult
▁Sab
text
pub
bráz
▁eines
няя
▁Tir
▁bound
▁accept
▁anyway
Mart
ný
charts
▁exclude
▁carrière
▁Daily
▁Grace
▁Dans
▁veröff
▁Centro
essel
▁vba
▁Opera
▁krit
▁pró
y
▁Fl
▁ali
ō
▁Tib
▁econ
▁accompanied
▁ago
▁disput
trans
at
itza
▁kein
▁Care
кси
uel
édé
▁because
▁serious
後
ationale
▁Creative
▁голо
ния
▁Sk
Ь
▁Italien
▁dinast
▁Ces
ppa
▁Consultado
▁Fellow
▁Finale
лла
íos
;\
▁было
▁clear
дія
▁де
▁u
bie
('#
▁J
▁Intel
ок
▁Isabel
▁colle
▁zahl
▁Tro
stmt
▁views
aign
▁két
lek
Ō
▁Kennedy
cost
▁connections
▁Ook
client
oux
gior
рона
ora
conv
▁Prima
▁:)
BIT
arina
Louis
▁gre
Bar
club
▁показа
MIT
antage
rand
lub
▁permett
▁removing
▁чер
▁Einwo
ждён
allel
DT
▁spatial
▁Kle
ef
lint
Om
县
▁reduction
iri
▁produ
сі
⇔
nahme
▁militare
▁везе
ression
▁naam
êt
▁philosophy
fmt
▁Leip
Ù
▁dogs
▁decla
▁paths
▁хо
]];
meno
(['
Messages
ხ
AGE
▁offers
ric
:\
▁ње
(@
öm
▁Moon
▁decay
▁Norwegian
▁DI
µ
ampa
▁Bevölkerung
▁проводи
▁appreci
lot
▁Directory
compiler
❯
▁General
ച
▁Select
Com
()`
matically
▁corpo
▁nuclear
▁sy
▁I
▁zu
▁!=
ector
▁sze
éo
▁Camil
ége
▁szó
▁man
▁assault
▁anger
////////
▁сай
▁simply
▁abandon
▁classic
wick
variable
▁streaming
anch
র
▁potential
YES
▁nicely
▁ios
Che
Git
ér
дь
▁Songs
▁себе
▁rivers
应
ил
amarin
▁plain
▁int
▁visibility
docker
█
▁Town
▁brand
pat
▁teaching
ight
▁largely
▁simplicity
▁Ros
▁only
:)
extensions
▁held
рт
aton
▁denote
▁sag
racy
▁russ
▁mechanism
unct
育
▁linux
Dialog
▁równ
▁laws
▁“
▁Als
▁jú
▁picked
▁*)
▁cout
▁literature
/(
subst
▁giving
▁Stati
▁Saturday
▁Access
$).
▁"")
▁rib
▁So
▁contains
▁Амери
Helper
cep
▁array
yen
MENT
Common
米
▁Kim
▁Савезне
logger
гі
▁dispers
jahr
ведения
▁then
label
aylor
шти
TRAN
▁stopping
▁Writ
A
▁mij
フ
<0x62>
▁×
▁Johannes
▁the
CheckBox
▁alk
▁App
▁Academ
▁окон
▁Commonwealth
▁zweite
▁ran
ternoon
▁TextView
numeric
------
ři
icult
columns
▁K
udi
▁located
ATE
▁containing
▁open
▁Hom
▁från
io
SB
arded
▁Pal
▁уча
born
INST
▁Near
▁gallery
;">
▁ocean
izio
стори
ɵ
reas
▁dig
arget
рій
imir
▁süd
arde
▁österreich
▁Template
げ
che
▁Del
▁driver
El
▁Dé
лим
OT
▁Illustr
▁parti
▁Rey
ether
Application
세
bil
[:
▁vague
жение
▁Polski
sql
▁Muhammad
▁Dictionary
▁№
▁makes
▁prom
▁facilities
Ad
,-
NC
▁bug
▁Mrs
xiv
▁mater
▁AG
▁volume
▁Tier
▁go
▁tact
▁dernière
plane
Mont
<0xD0>
▁work
▁protection
▁quale
▁Joy
▁giant
▁upd
ump
▁changed
▁Service
▁werd
▁statistical
▁bed
▁nog
CK
▁agreed
▁Niger
даго
▁mind
▁eyes
▁suggestions
▁prv
▁отде
("%
FIG
▁deliber
'.$
techn
▁Nicol
▁Esc
▁Python
▁reflection
시
▁responsibility
▁seulement
▁vég
▁pla
ouve
Redirect
Type
лом
▁mais
dim
{$
▁court
UN
▁Offic
руп
▁rewrite
ano
igg
▁Correct
▁towards
▁Haz
checked
▁Heaven
verage
verk
館
ння
due
▁Because
inline
)+
▁virtue
attice
ствова
translate
【
▁EX
ctr
▁Ann
▁involved
similar
etes
▁наи
ng
▁Brand
▁Str
website
▁mak
▁standing
package
species
plorer
▁fell
▁Rel
▁developed
▁correct
elements
Be
\{\
▁Nik
amt
Age
▁місце
▁Texas
▁Sou
ards
▁fun
irst
▁truly
▁Een
grund
▁girls
▁Amb
▁Externí
і
lie
▁assez
▁should
azione
▁produz
edish
efe
Ò
▁figures
Л
秋
„
Р
циона
▁,
теля
.$$
▁everybody
▁become
reader
▁one
BB
▁nam
Comment
eden
;
ierre
ре
▁explicit
▁Eing
commit
ського
▁tags
ige
.]
unk
ké
▁LIN
dataset
Ī
학
▁proven
Dig
чный
ube
drawable
ès
▁Race
▁pick
台
▁round
▁Enter
studio
phas
春
load
▁campaign
▁coordin
▁чи
▁Une
]),
amentos
▁critic
Pa
erten
▁erschien
▁factor
▁Stad
ples
▁Ра
cze
vić
▁string
▁count
ca
earch
vote
LOW
▁dos
Util
INCT
▁dann
▁Zur
▁grey
ований
▁Clar
▁implicitly
▁No
oga
bara
김
▁població
▁Pav
▁Returns
▁Material
nier
▁right
▁since
mock
aget
▁Jean
umbn
▁occurrence
ing
▁emulator
}^{
▁ladies
ster
▁amid
FROM
De
<0x53>
working
plom
▁Swiss
▁францу
ución
▁Mason
▁inglés
Book
▁earned
▁надморској
▁stud
▁Dom
schied
liest
▁terms
ící
▁girl
▁ca
ations
лово
▁content
Memory
▁urb
▁Herz
▁reconoc
▁\{
water
断
错
ję
apes
Flag
ো
nab
▁determined
лось
▁Ce
onda
zd
▁File
▁"@
▁modifications
▁hebben
<0xB2>
▁Распо
нд
▁Тре
▁bass
>)
onte
▁GND
pred
▁Physics
▁matched
istoire
▁findet
▁max
▁Де
nej
istol
▁profiles
apis
▁Wat
▁capitale
œuv
▁optimization
ellen
▁surtout
▁сту
ers
▁hospital
reverse
▁activity
▁Leonard
▁problemas
▁And
unde
кт
▁Fiche
▁alternatives
;"
控
▁roles
▁princip
▁enumer
▁Sales
▁Verkehr
parse
▁Ses
▁première
GEN
▁Río
gestellt
▁tennis
▁IM
▁across
anci
▁Match
▁individual
▁Ten
▁#>
▁announced
timestamp
▁Rewrite
▁ui
▁distingu
▁nach
нова
vers
tax
▁BTW
▁producer
▁département
▁Sarah
▁inclus
▁resol
▁términ
▁Den
ategory
ника
▁да
▁VI
▁sweet
▁classe
Db
squ
▁island
nehmer
uese
tres
Fill
nika
▁sprite
Ј
▁dok
aps
▁написа
む
Try
▁suf
▁філь
▁▁▁▁▁
Token
rance
endes
wed
▁clicking
kele
PRO
Desktop
zyk
ités
▁sister
problem
▁CSS
▁Columb
▁finished
▁повер
hagen
永
▁även
▁Heil
él
itan
▁daughter
▁Estad
bmatrix
▁mehrere
<0x16>
ispecies
ými
ственной
▁Три
▁arc
orithms
JB
З
Done
▁doctor
ḥ
▁mez
▁sides
look
State
▁php
▁attr
blank
igkeit
▁Див
uly
▁west
▁eat
нів
▁calculus
Step
▁ма
平
▁happens
Float
▁values
Directory
▁führt
▁держав
▁conj
цов
▁mongodb
▁national
iony
Μ
▁счита
▁произ
∥
фика
▁alte
<0x89>
▁charges
▁stated
éroï
▁Johann
Height
aturing
ního
Tem
飛
▁bef
ousin
▁aux
iac
▁solve
▁olimp
▁AL
▁false
▁Ocean
▁Pitts
jet
iskt
▁Amt
Settings
ною
▁erg
ça
uda
▁num
▁Comment
▁Pacific
▁tou
sent
Star
▁sl
▁passed
▁Doug
goto
▁benefit
▁indeed
▁funcion
force
symbol
ientí
▁Tochter
▁resultado
deg
▁Bun
▁Mans
Ć
-->
elem
agnost
cussion
ibm
це
▁annotations
食
)\\
▁века
▁després
▁assumes
road
▁июня
▁Gon
scriptstyle
▁која
▁engine
прави
▁Ruth
▁expla
▁votre
▁Regiment
▁генерал
▁Sure
circle
VALID
默
ependant
▁Раз
到
An
▁jelent
▁не
▁contribute
▁Sound
▁accum
atos
ardi
▁cependant
▁Advent
heim
Right
▁eu
<<
stylesheet
Story
▁seconds
▁experiment
rache
▁roku
jd
schaft
▁cav
▁high
▁Corn
▁Нов
END
出
▁Champions
fer
bre
▁epis
▁kal
洋
гор
кан
Process
OFF
▁tinha
▁constraint
▁Ris
ʀ
umi
ступа
Av
isseur
Resol
™
▁like
après
▁SU
▁algorithm
▁sendo
Δ
▁surrender
▁muchos
▁convex
iak

лта
Don
pent
▁revel
vens
▁Ис
▁word
answer
▁zag
▁eliminate
emen
▁*.
▁élections
á
zar
▁ус
▁elder
▁Govern
▁Awards
▁ro
▁Д
▁jedoch
borough
▁quantum
་
嘉
▁Fame
✅
▁render
map
▁aby
unwrap
_{\
unnel
▁március
▁NAS
Keys
gable
▁fel
▁principal
▁Mil
Builder
▁tone
),(
usetts
aling
▁Daar
▁mehrerer
▁Long
▁Turn
▁Leipzig
▁района
enty
▁br
▁cycle
swers
ные
▁acceler
▁snow
▁anci
▁lut
elines
▁Quart
▁Press
▁laten
▁bear
kv
▁business
▁Border
▁обращения
opp
▁toda
▁выпу
того
▁foss
▁Diam
fen
▁grew
alla
▁regularly
红
aar
▁resource
▁dieser
▁Lat
uments
▁Kaiser
izard
▁Mac
▁zem
▁expon
▁chemin
oming
▁Had
▁RE
PY
RelativeLayout
perties
▁неко
ût
▁requested
cut
▁nel
▁ist
▁мо
▁primarily
lib
äsident
blogs
▁"%
<0x1F>
ningen
urban
▁cadre
▁Ko
▁dependency
browser
BASE
▁rég
vod
old
▁Integr
▁instanceof
hom
cych
issa
▁extraordinary
GS
ugen
мії
▁frequency
▁visitors
▁speed
塔
ela
rich
▁До
▁circle
springframework
▁Theory
ić
bij
Organ
ходя
)`.
allen
anal
arf
▁Mobile
▁Identifier
▁Venezuela
vendor
usa
▁Sat
▁Hu
▁families
loped
▁User
▁thinks
gent
Vertex
ĩ
mode
▁населения
werp
▁conseil
ket
section
▁career
▁Bran
▁choose
)})
▁Gé
смо
ocrat
esse
▁autres
rebbe
iop
yrus
ден
ilio
さ
】
▁attacked
rf
vet
▁gr
клад
Þ
geführt
Work
ners
▁crisis
valueOf
onen
▁gh
▁ili
▁for
▁char
vr
Ý
▁mejor
gef
ază
lasse
ა
▁nomin
stad
▁operate
▁Vi
За
电
▁subgroup
▁Lawrence
▁terra
▁forty
▁Out
▁rész
▁vest
▁fiel
▁fá
▁established
▁URI
▁sur
▁rei
▁nazw
▁anno
▁Tok
▁roll
tagon
▁cry
▁regardless
▁Мі
▁Constitution
▁Історія
▁Pack
ю
▁incident
rx
▁keywords
amil
▁implicit
xaml
▁lengths
▁Dam
tensorflow
▁sett
olare
▁Jakob
fte
éch
ino
▁db
fab
dd
rapper
▁hook
▁Label
▁хра
▁Rum
▁vulner
▁milit
indexOf
FOR
ANT
ząd
тори
{{\
▁McG
▁ws
▁серпня
▁Vienna
Ħ
▁ство
ư
vě
ску
umin
craft
ев
Sm
atar
▁Toronto
Router
▁Committee
공
uby
iem
song
posts
ets
▁Хро
fare
ViewById
▁better
ore
while
▁jest
▁vier
▁principales
▁Loren
▁theories
▁ya
▁case
ům
чи
<0x2B>
▁desde
ifications
▁staff
▁regard
▁Вы
quier
▁Zent
ʹ
▁ро
liqu
auf
▁proposal
▁semi
dot
▁fug
tober
GT
demás
ymnasium
▁stepped
ken
▁Sit
emeinde
час
▁appearing
▁besonders
folk
▁ange
ile
Chart
▁eastern
erst
▁относи
▁ATP
▁diagn
<0x06>
ari
▁Greek
▁česk
▁cosa
▁lav
fahrt
Inflater
▁руково
вся
▁mesmo
]:
[\
resource
▁január
▁å
.__
Anchor
IT
sig
▁Monsieur
▁ganz
erta
▁even
ших
athedral
▁fille
esome
▁nev
antry
mile
▁contradict
osc
idé
();`
cription
ete
uvo
▁numer
想
ument
▁Pot
late
▁tableView
annten
puesta
▁incon
雲
ells
▁März
ด
▁hate
item
TeX
島
тор
▁rid
зии
ског
oba
▁Bad
Cost
Username
▁х
expression
раз
▁SA
ewnętrz
▁utf
ribución
Chr
▁fond
▁wants
bourne
▁Films
rout
inea
▁charm
endum
Scope
▁fid
▁Definition
izione
▁dét
{'
▁passwords
▁dur
▁Pil
▁quest
azure
▁"^
白
matrix
ِ
▁ш
gram
adal
▁Ian
ött
hol
▁Alexand
▁PM
▁Father
morrow
java
ement
▁every
ías
▁larger
▁pau
▁well
touch
▁кла
▁která
zott
▁recherche
Ω
▀
ම
ⁿ
ént
field
<0xC0>
did
Paul
▁Scient
▁accessible
▁самы
bles
▁GB
MIN
▁andra
lices
both
onal
▁Sci
▁belang
мор
▁ros
▁historique
▁Mediter
▁lég
▁tourn
▁Sa

zó
stor
index
▁host
▁је
▁firefox
▁Ran
▁pretty
▁demo
Output
▁expects
▁(?
▁dirige
▁sint
acter
▁Prozent
▁approximate
Scal
▁enc
▁AM
Š
Sender
▁ji
▁Nicolas
cción
▁Gordon
percent
untu
▁powiat
май
▁Dist
zza
uan
ird
▁Pet
\}$
VS
слід
uminate
Пе
before
▁Give
Check
武
▁Type
ax
male
创
▁Ар
aria
▁citt
erte
u
eclipse
ouest
▁пункт
▁centre
hyper
▁kindly
▁endl
▁hel
keiten
OIN
unknown
▁Walk
ར
▁Jet
▁Clear
▁тур
ു
▁Wales
▁incl
▁today
▁deleg
Your
istrzost
rugu
Every
▁ba
▁closest
▁муниципа
riction
▁liked
quelle
و
문
▁il
ád
ільки
▁goog
▁IDs
▁purchased
▁inverse
▁церкви
<0x8C>
▁pixel
▁not
▁province
▁poll
▁rejected
)]
mo
▁Otto
▁ly
▁Personen
▁props
▁amounts
▁forces
▁lieu
▁Bag
▁scra
▁motiv
▁Laur
▁Beng
▁selbst
▁sessions
▁expensive
igo
iven
▁Icon
ientes
▁LEFT
oupe
`,
▁Love
ry
▁Aires
▁серед
재
was
▁Аб
▁setTimeout
▁attend
▁Medic
сторія
隊
▁Finland
▁aktiv
augh
legen
▁Mercur
Li
vés
neum
▁${
af
▁Ob
▁Such
清
▁Nä
ince
▁Platz
rene
▁rights
▁Patri
blica
▁engineer
endl
▁possono
▁М
▁регі
**
▁Whether
created
▁commonly
atorio
<0x51>
▁settlement
Und
▁voyage
▁Scot
footer
▁zwe
zych
▁DVD
zeitig
▁dep
HP
▁may
▁interpol
▁contacts
▁које
ip
▁immediately
▁precision
ru
▁intitul
gray
▁Din
▁episodio
ую
▁Place
▁Lehr
▁Writing
▁Véase
結
vity
▁leadership
▁process
Syn
대
▁mobile
рів
▁Menschen
®
anta
▁Sé
implies
テ
rah
▁липня
▁authentication
ী
▁unable
ulation
▁Natur
▁Lieutenant
▁гор
<0x6B>
▁új
▁två
▁»
▁оп
mathsf
▁"";
wealth
▁Performance
界
▁Bird
ifier
fr
▁(\
▁highlight
riv
▁Old
anten
ije
▁stats
agas
▁Mam
安
▁mother
нов
жду
▁jack
").
audi
▁personne
타
blic
deploy
▁pid
街
èt
▁значи
▁mess
▁Starting
▁pull
▁garden
чення
▁Meanwhile
▁pros
▁occurred
pu
▁names
▁Bron
adém
▁Creating
▁instruction
Form
SP
udio
▁toutes
▁червня
гар
tasks
▁StringBuilder
▁Jeux
туре
ota
▁consp
▁nat
▁vis
▁graph
rows
▁mental
ebb
▁igual
▁identification
docs
Layout
▁quatre
▁alcuni
née
light
 
▁distribu
after
iji
▁nobody
▁физи
erves
▁mai
▁para
About
▁Change
izen
мен
lais
Picker
'))
▁van
▁Trad
cono
▁indent
▁▁▁▁▁▁▁
▁zák
▁assembly
▁где
idden
NA
▁Lil
▁log
page
order
Rightarrow
▁erst
▁CP
▁tiem
▁sacr
rat
▁validation
▁treatment
▁ssl
็
▁printed
limit
▁Cleveland
▁Finn
▁interval
▁board
▁Вла
▁hop
'}[
present
жды
ORDER
apt
using
AN
▁tag
▁magyar
龍
▁invert
illé
▁sch
▁Nations
<0x70>
▁pé
▁estadoun
quence
trightarrow
▁comun
▁highly
▁населення
▁zv
ieder
="@+
▁lang
ческой
▁Arbeit
▁opin
)+\
▁Va
opera
step
▁railway
▁fans
kup
▁headquarters
彦
!”
▁regex
▁docker
▁responses
▁moreover
セ
▁%>%
adratkil
rb
▁poz
isions
aggi
itivity
6
By
▁Sm
▁gebied
▁logo
eto
▁planta
updated
tring
▁entity
ů
▁carried
▁Kunst
INF
▁hydro
antal
▁Sam
))]
▁mile
▁**
√
▁Dit
モ
▁sparse
ières
▁Bibli
some
▁ah
▁addition
▁diretto
▁Leb
▁generally
asc
▁_)
▁categor
▁Teil
▁atoms
▁$\{
fred
ouri
Required
▁Thus
ialog
▁svensk
▁narr
zett
▁Magyar
irection
▁employee
▁og
▁wr
▁ú
▁export
▁players
Value
ilar
MR
Binding
ublik
▁veces
才
rano
ienst
▁wal
▁lij
▁twee
води
LOAD
▁ли
―
▁Ferd
iami
▁Therefore
ear
service
▁Dok
reading
bd
gia
baut
}:
洲
findViewById
▁According
▁ří
isser
题
首
▁geboren
▁brother
mv
▁Fu
rn
chain
▁weights
ść
▁Turkish
▁forcing
▁proyect
▁quantity
wy
▁мира
▁Korea
▁interrupt
信
zá
▁Maine
▁affairs
▁Never
▁voet
iei
▁desc
▁#{
нии
▁durch
▁EDIT
▁gard
▁effective
RELEASE
▁в
▁Вол
▁refuge
▁demon
▁Murray
▁scattered
k
▁direction
▁stamp
Excel
▁Mens
▁existed
▁pocket
ル
▁PATH
))$
五
▁conquist
▁Har
▁han
pez
▁irre
trl
cols
*\
Italia
slug
embre
▁[
ral
▁mir
cio
▁remaining
▁architecture
нение
▁widely
Enter
▁holding
ánico
▁Ге
пера
▁",
▁Хронологија
igh
langle
ową
▁dass
ischer
▁consistent
▁file
file
▁land
rgb
ique
▁hash
▁jewe
ama
ką
▁został
visual
▁'"
ael
<0xAD>
▁Import
▁alt
▁Country
▁asset
▁secre
▁Order
▁shock
▁primo
▁викори
ront
~$
▁jaren
▁jaar
reso
▁do
▁fam
▁Swift
Gr
minister
▁loops
esterd
▁спор
numpy
▁bes
▁Bor
▁Wall
зер
▁tail
▁alberga
ECT
▁wa
perp
cluster
should
you
▁För
▁Serge
▁Kais
▁lasci
▁publishing
▁Princi
ixed
▁retrieve
Fran
▁Tol
ENV
style
ἔ
▁пока
▁ecc
▁сле
▁granted
▁wings
ment
▁lig
abgerufen
Equal
atten
[(
▁benchmark
ächt
▁topics
ocation
▁После
▁intervals
kem
is
弘
▁style
▁htt
idd
▁god
enze
$\
ър
▁expert
▁eux
query
ampion
PART
▁Ges
➖
▁Herm
}).
▁observable
▁instantiate
Ћ
Sem
▁genus
bor
чки
Photo
▁mes
▁Zwischen
▁Arthur
▁зда
Sound
▁rise
◄
▁Boolean
}](
▁según
▁axes
▁VS
认
ensive
▁kan
ними
rii
▁Bowl
▁prze
▁ir
elsen
orer
▁cave
▁Ł
nig
▁gem
ђе
got
▁Charlotte
зви
▁antigu
达
ATA
vie
▁train
▁blanc
string
ièrement
сан
стоян
anton
ätt
▁Andrew
chem
pped
arm
<0xBC>
валь
▁sab
acy
Pres
▁på
OS
ifica
hy
▁poly
running
▁If
aster
Plan
зда
▁два
пей
*$
enn
esis
design
acja
plays
▁Bd
▁Back
пада
▁апреля
мене
删
ieving
leb
值
▁Fle
че
교
Normal
▁brid
чная
today
!,
▁Bar
Hel
▁Data
▁позво
▁Sep
่
ص
friend
▁Hinter
Field
canvas
▁ought
sh
▁telt
стров
▁questo
▁Sem
▁Республи
тил
▁objet
?](
▁Cup
▁stycz
true
▁Land
▁Sta
cast
▁History
done
▁Lexikon
anonymous
members
▁indul
▁Works
рела
̀
∑
▁identical
восто
▁vit
▁Pays
bourg
▁guest
ellite
▁Foreign
▁VB
ʲ
速
▁Baltimore
ög
▁Mov
▁houses
▁Bon
▁Loc
▁intens
."
▁print
HERE
▁achieved
▁Algorithm
stackoverflow
▁understanding
▁concent
Days
HA
atum
ਿ
iker
mas
▁estud
ész
release
▁reads
▁proud
▁rapp
liter
국
▁trakten
▁sido
▁Unterscheidung
ogether
it
alu
Bottom
▁=\
▁Świ
▁hers
▁прав
cm
IMA
iella
▁pels
▁position
`:
height
ŝ
▁Hills
HO
▁Cinema
Receive
▁Tried
euw
▁Jess
▁exec
▁YES
лия
grep
laimed
Response
��
▁authors
▁Fon
слу
nih
▁approached
zech
ub
▁elabor
eree
▁dying
▁Geschäft
Prom
idea
ُ
▁observed
▁Georges
isons
▁Major
동
гра
▁Alt
{`
ologist
ARY
▁profes
世
ges
▁wanting
in
▁front
ultur
wing
▁Александр
▁líder
▁consequ
▁твор
elor
Bel
When
closed
cé
▁Urban
其
ño
кой
▁Brandenburg
ς
ि
▁random
lications
zos
lik
▁divers
▁Produ
[@
▁reste
▁something
▁mem
hall
нет
▁mistakes
AW
▁Références
▁teles
▁Germania
▁персона
Boolean
▁territ
▁wave
▁Kelly
▁Florence
▁damals
▁Id
)}{
illa
clone
hw
sch
▁свої
本
▁Offiz
RE
▁SK
▁hijo
▁július
ORD
ilian
▁eigenen
SERT
ter
関
ześ
▁segundo
定
▁kick
lopedia
▁vast
nost
▁clean
▁www
▁Mira
▁Cru
target
▁rif
ulos
▁Organisation
民
ണ
▁città
▁évol
▁писа
▁sol
▁déput
文
<0xFA>
home
ination
▁months
atholic
Has
▁arrow
▁sog
<0x8A>
▁Notice
imos
oud
▁experiences
ляет
▁Mitch
роб
▁thou
▁downloaded
▁Ped
▁Pictures
ynchron
▁measurement
dw
№
▁##
lex
▁Po
ื
▁MA
▁painted
▁Wiener
▁yet
ana
@"
▁delen
▁slot
▁police
▁stock
James
ß
▁condition
▁fas
▁$('#
▁ja
god
ser
▁cause
▁amplit
oom
біль
▁Бело
▁invece
lying
ey
▁Fischer
▁query
▁выпол
gan
▁login
▁ainsi
icina
▁confident
▁ensure
▁Yes
aved
▁свой
market
alus
events
lak
▁mach
算
▁цар
▁Stadium
imen
▁Mechan
▁Jason
▁density
▁recover
▁engag
zenia
▁\"
▁assert
▁Thanks
antly
absolute
▁vector
▁stabil
М
,
鉄
jpg
▁Salvador
ries
▁Warner
athed
▁уз
▁($
Err
▁Training
WI
université
aze
idan
▁century
▁более
extract
iore
▁kró
spect
raft
<0x9E>
rages
▁unsafe
▁issue
▁experimental
ʷ
专
▁бере
ahr
▁sheep
馬
<0xF7>
"></
Ë
▁Ty
▁Gegen
▁sounds
(...)
Blue
<0x82>
▁existing
▁Kn
▁preferred
heure
rieb
ferrer
▁ме
поль
▁preserve
▁conn
▁clicks
▁import
iley
▁platforms
шки
):
▁chap
▁cot
▁переда
▁voz
erve
▁literal
▁Schwe
▁этот
▁Lind
▁emple
▁['
▁Welcome
▁after
▁Its
▁enem
▁ar
▁Begriff
▁erste
atti
元
dx
初
ights
▁special
▁вме
цу
▁турни
▁Einzelnach
ona
ienie
▁wys
双
▁newly
ping
proof
▁kn
esota
▁Mosk
▁keeping
▁here
▁Asia
▁adapt
▁propose
▁Raf
aled
']))
ograph
▁Vertrag
将
▁evaluation
Timer
validate
▁стан
ként
aciones
cha
ору
▁environ
digit
phase
你
ology
▁Insert
▁proposition
▁limitations
▁extracted
▁converges
▁gleich
▁importance
Renderer
▁alta
▁ten
annon
effect
▁является
ingsområ
derr
▁polym
Mil
Â
▁!
▁▁▁▁▁▁▁▁▁▁▁▁
oir
▁Bevölker
。
hus
▁Después
▁BR
▁prohib
▁верну
▁p
Bind
Cook
▁refuse
зан
▁liter
pragma
▁Пар
▁treball
▁distances
='
CE
riminal
teenth
▁strings
ech
▁Cho
▁composition
▁проти
▁convirti
rizona
nsylvan
▁Observable
brit
▁dru
ン
ộ
▁tutorials
wendung
interval
oce
occer
son
Send
real
own
▁hur
Track
▁difficulties
w
▁You
▁les
▁Alex
lieder
Ant
▁factory
▁mit
onnen
▁society
кор
▁SN
ED
▁sorte
<0xDE>
▁Collins
ador
▁Facebook
▁ста
EAR
์
▁schemes
roc
▁orientation
▁società
čka
ा
▁pam
ствует
long
ída
ALSE
▁dominant
rom
▁ped
libs
▁stra
▁cela
usta
ты
ód
asticsearch
atif
▁leur
}
▁Text
oret
Cred
▁смер
ǒ
▁ори
licit
figure
<0x1A>
▁acid
▁Was
mapsto
math
▁manually
ozzáférés
▁appreciated
fix
▁хи
▁fic
oper
▁Default
▁Toy
jav
rv
oreign
▁clarify
▁Brasil
▁!!
▁eventually
ńcz
Dim
▁при
▁reporting
活
▁dated
▁clas
▁länkar
▁`#
▁Ú
ando
у
▁wing
=/
▁just
sc
HOST
▁seinen
Pages
▁обще
▁Wil
▁ору
ieved
kan
▁traverse
▁reuse
ifiable
▁while
▁Kun
▁ayant
bank
лимпий
▁einmal
++,
▁../
.](
ospod
phi
ect
▁broke
always
▁Durante
ону
▁Team
▁recogn
Install
VALUE
▁között
ume
ового
▁craw
▁Tit
▁siè
house
quare
▁verschiedenen
▁mongo
▁infatti
▁EU
▁после
▁agre
ᵉ
aped
▁Pero
み
Tool
edom
▁Ki
▁disease
由
NSString
▁internal
Pub
card
verband
▁gesture
▁residence
▁Fr
ніципа
▁whereas
orial
▁Publications
▁ruolo
nja
▁plus
▁deleted
▁Picture
ale
Static
циали
▁mid
hips
▁Ве
▁Sorry
remote
anson
▁pup
▁analy
▁crist
▁finden
τ
More
oles
вали
schließend
▁Rot
Phone
abord
▁cycl
▁real
Member
gom
▁tempt
rav
itchen
äß
azon
▁affection
ento
<0x11>
▁sever
▁trade
ор
Card
Processor
▁z
▁Ди
ident
▁Types
▁Stewart
ος
ි
pective
因
▁най
▁delivered
Entry
▁bronze
lick
lach
パ
崎
ionario
SA
▁Mer
External
ugh
▁сери
ş
▁xs
▁belongs
}",
entlicht
atted
▁війсь
not
account
▁Debug
await
ftp
Ver
just
▁niet
▁can
▁чемпи
▁vil
agi
▁impress
Gi
▁protagon
▁((
ital
solute
▁ursprüng
あ
▁zat
state
▁slash
▁giorno
▁algebra
чей
▁Short
ญ
▁Дми
▁територ
▁Geschichte
pen
asma
August
▁ST
▁conflic
▁mig
aa
import
exception
▁prices
ways
▁пра
深
лии
▁tip
rael
White
abi
NO
▁expansion
hosts
тета
▁vendor
Id
▁Википедии
▁kraj
▁flor
HashMap
ท
▁Albert
employee
овой
▁Fernando
<0x0F>
Background
▁most
▁Aw
▁Helen
情
▁agent
▁Grid
▁Side
dep
▁defense
▁shut
drive
▁$_
Named
========
▁conne
▁communic
▁singles
▁Statistics
model
LENG
ban
jamin
ag
'+
picture
প
кі
ivement
___
cov
▁России
▁россий
▁Che
Elements
*/
ahoo
▁gev
iał
xml
▁Bay
inter
ABLE
▁heat
▁market
olit
ň
imedia
▁Encyc
▁jed
条
LR
代
▁Chron
eli
lá
▁Special
▁Xcode
▁Number
▁divide
▁sous
▁demsel
ogo
sten
▁abit
▁cad
▁threat
▁lungo
+
igma
▁handled
▁sa
verify
˜
▁hot
▁produces
▁will
▁complement
TO
▁ejemplo
Now
пута
▁gan
orld
▁daß
▁dicembre
mbox
▁Most
ció
▁tout
soci
▁mathematics
Pack
ilia
ätter
▁Russia
ks
▁steam
▁sequ
▁Гри
environment
dro
▁~
င
▁encontr
▁Casa
ไ
define
PO
ぶ
▁ellen
▁meets
selection
il
▁zm
▁wobei
▁Brigade
▁ней
▁cont
▁брига
▁pres
▁superficie
▁magnific
ani
photo
DF
üss
emplo
merce
race
▁öst
cls
itement
<?
ologne
▁crit
mit
Sort
▁pe
.");
▁deploy
elenium
▁movie
)'
subscribe
▁cv
▁ér
▁sufficient
▁l
▁whole
▁condu
▁GC
▁####
▁Config
▁sector
▁month
▁Component
▁gehört
说
MO
▁Ng
▁White
EX
▁ens
▁swift
▁heures

<0x78>
▁necessity
▁nan
▁tib
▁Virtual
▁Venez
▁retro
▁denen
▁игра
▁yield
▁Felix
▁только
▁Due
▁ende
orth
sdl
▁C
script
▁favor
▁ara
▁bonus
▁biggest
▁zam
argo
makeText
ános
▁confirm
马
ńskim
zat
▁Brig
Feature
▁Års
▁integral
мец
▁género
such
▁Pia
гла
▁respectively
▁León
▁фото
alem
▁register
‰
----------------
чни
▁exemple
▁Days
fonts
shadow
▁Í
▁wer
▁Ram
erc
empio
▁König
▁mixed
▁also
ure
▁displaying
▁febru
▁Zie
▁Kit
▁Neue
▁os
▁merc
▁;;
ợ
▁Bobby
▁category
▁grande
▁accom
msdn
lee
▁hundred
party
Timeout
▁promoted
▁Hop
▁Systems
Request
²
ē
▁useful
▁inhab
▁Uniti
▁blank
▁VARCHAR
▁Anton
▁togg
▁score
▁nombr
▁compla
slide
▁background
▁Mc
▁Ep
▁impact
Summary
▁Level
▁c
▁typed
▁networks
▁cit
▁Java
▁ret
Cy
▁un
▁impl
football
▁Tul
▁Medi
Pat
ágina
添
▁prison
kin
forall
San
▁bajo
▁supp
▁ress
▁got
ціаль
itated
antages
ud
<0x5B>
▁вой
jící
▁церков
▁Wolf
▁MC
adel
▁gu
▁Turk
Special
▁soir
ссе
cier
▁supplies
▁Every
宇
heit
▁absor
▁anos
▁Overflow
нцикло
UB
▁API
хе
▁servi
▁Cop
aque
-$
▁desert
LIN
etra
зова
▁Base
'].
▁pp
▁Brown
dar
Factory
▁Влади
夢
ieve
▁virus
▁implemented
fass
ª
▁injury
dfs
ѐ
▁agree
schap
ág
imit
▁spring
義
න
Line
▁awk
▁francés
▁н
display
oires
ufen
▁chain
▁жі
▁understand
▁Kult
▁glob
undefined
amiento
desktop
▁stesso
Jo
до
Co
▁pro
▁reg
▁lí
▁Dj
▁stack
▁hacer
▁easiest
vice
backend
▁occasion
os
▁analyze
▁expos
▁allow
▁Ор
▁arch
aper
variant
▁Irish
▁portion
▁already
▁defeat
reload
para
cker
▁pes
лази
위
▁роз
ouver
▁invoke
▁bast
^
▁Rick
▁submit
****************
▁kun
▁LO
]_
és
СР
▁Gard
giore
prof
équipe
CAA
▁desktop
▁manus
▁quer
êtes
▁restrictions
▁Done
지
▁Franc
jed
▁Region
limits
\]
▁algorithms
▁faut
ское
fach
ones
xls
üst
lista
ają
▁nun
▁appearances
Men
▁wenig
swift
▁frat
▁juillet
▁parmi
究
](#)
ningar
▁dimin
iento
▁including
ស
▁clue
oty
▁Lev
sheet
▁corpor
▁private
▁beho
夫
HC
▁culture
▁creation
macht
▁racing
▁necessarily
▁reaction
à
▁yourself
cke
elihood
▁Heb
▁produit
▁errors
▁luc
ั
require
▁zá
▁Mississippi
vier
From
▁ense
▁powerful
му
▁---
▁Hyp
▁кня
вается
▁сі
CLARE
ће
▁posto
land
Alert
Best
insen
Checked
▁maxim
▁hous
empty
▁rappres
▁имен
chev
▁$
omed
ruits
▁mole
links
▁guid
тин
пли
Қ
ᾶ
▁indic
▁Gold
ı
▁lever
▁our
▁MAC
â
SO
▁(_
▁furn
Hol
▁cogn
▁hanno
bus
▁pitch
▁point
▁synth
▁hosted
umph
▁Werke
ψ
issues
sur
czas
▁прода
гани
idents
▁individ
▁ты
less
▁moyenne
▁zwar
▁meilleur
------------
▁willing
sted
▁yours
▁egy
prote
▁murm
place
E
▁Hir
À
▁primary
▁Edu
amed
▁dag
ya
akers
agues
▁dll
▁Costa
Expression
▁Polsce
ἡ
icol
▁HashMap
▁invisible
镇
exit
▁Meteor
▁vom
▁completed
▁cookies
ajn
ouvel
ament
primary
▁commission
▁depos
ou
▁объек
AK
▁dev
▁Dun
▁lawyer
kop
▁Prof
▁student
▁rs
▁attempting
▁Stream
▁pul
nell
−
став
▁запад
timeout
urn
ђ
▁offici
F
▁volunt
▁Mike
ruguay
read
s
▁cultiv
▁enero
▁numerous
▁arbitrary
DateTime
▁theoret
UTC
▁lex
▁soort
data
;;
▁und
<0x29>
repository
program
▁`$
▁`--
▁Stim
▁sta
▁Sul
Drawer
里
▁exists
▁Я
▁Display
▁decre
кло
mort
▁Moh
▁rails
▁various
BER
int
']
enst
գ
▁Dream
▁catal
▁квіт
inden
▁Ét
▁Over
AP
▁discussion
ssh
ager
▁место
руг
▁То
▁prendre
▁euro
▁Staat
ம
uß
▁how
▁computer
нец
▁appoint
ouble
▁_,
ati
▁house
▁kr
ANG
▁footer
▁fabric
Cell
ick
▁уби
▁equival
▁flav
▁Neu
verein
▁blood
▁Тур
▁étaient
▁cheval
▁CURLOPT
▁Tags
strong
▁San
ological
Shared
▁té
acent
лья
chor
znam
▁versus
cowo
loc
ọ
▁fairly
ји
▁essential
âr
▁Amts
▁горо
▁overhead
▁joy
▁стра
▁primitive
▁Yang
▁Despite
▁Os
ára
▁transparent
ORY
▁clicked
▁Activ
list
▁occasionally
ченко
▁relatively
ugins
▁tab
ém
▁ns
▁CV
ik
quet
)$-
yt
▁fully
▁reply
▁unique
▁Weltkrieg
testing
▁purch
voor
ut
▁previously
▁коло
▁nagy
wart
course
▁bekannt
▁notable
▁median
▁mens
▁duration
érez
checkbox
▁node
arod
elve
▁sites
▁Conf
öglich
‒
▁semb
viously
▁rank
esehen
▁явля
▁manufact
▁tract
train
loor
▁increase
▁насеље
▁ale
▁neuen
▁NK
▁Lew
▁escol
▁дома
▁situations
▁ass
iske
▁kle
father
▁once
REF
▁erano
▁вс
▁Max
士
HttpRequest
lon
▁\,
▁einige
富
麻
getMessage
▁Kentucky
▁idle
Ě
kre
upload
▁tend
Ro
urls
▁ober
▁quarter
▁saint
▁сот
▁atac
Hidden
チ
)
ributed
чной
emu
▁Serv
▁abstract
▁Foi
▁indirect
iforn
▁Edd
▁bald
("<
related
Base
▁slightly
▁Security
ус
ithub
▁overall
leitung
▁Cu
ustom
▁zewnętrz
ève
▁threshold
▁por
Snapshot
▁Issue
olen
bes
ively
named
flow
▁проис
▁Usually
▁Bob
▁Ol
▁widget
▁Cad
▁flat
Oper
ści
▁Bog
▁datos
π
▁bs
▁Centre
element
citet
▁op
▁defining
▁Zweiten
fin
▁permut
▁til
,--
ظ
▁instance
▁Begr
▁Porto
onomie
пода
▁){
È
ppy
▁plugin
classes
}}$,
★
▁pre
ल
▁adopt
▁datasets
角
克
ован
zi
▁passage
bben
intellij
▁accounts
slice
▁Barcel
мости
▁поча
▁"""
序
▁intitulé
▁homme
ण
▁distinction
▁dut
▁discover
▁say
amen
स
▁ред
URE
▁wz
▁trasfer
▁gods
▁freely
izable
▁Since
▁einen
▁bigger
▁solves
▁Input
стви
▁Eng
etr
print
▁CH
hre
ropol
▁
ый
EventListener
▁cre
developer
▁restored
▁SS
▁Column
▁которого
utat
▁Holy
▁Dennis
CharField
▁suggestion
返
▁introduction
жно
▁américaine
▁Bre
alf
▁Pen
▁dynamics
<unk>
bol
odd
agg
▁côté
ément
▁structure
▁Ton
▁dynamically
uelle
Del
iné
ану
¥
▁vectors
▁Adams
▁When
▁Sri
enes
nde
▁throne
▁someone
▁governor
▁ping
▁précéd
▁které
copy
)^{
▁refresh
furt
▁fool
▁entrance
▁sel
Sec
₀
far
avy
▁Census
ή
‍
ず
phy
▁fő
ène
▁handler
hood
♠
▁Situ
Cmd
▁съ
▁mé
▁Pennsylvania
▁images
▁horse
width
▁Maur
▁MM
.“
compute
▁university
▁distrib
kten
▁Éditions
equiv
务
xc
▁fier
▁Say
[,
besondere
rons
▁tribes
compare
▁found
▁vehicle
▁validate
бі
the
▁Enllaços
ým
'>
▁educated
Import
▁Jorge
▁using
▁сторо
好
▁le
SN
socket
olate
ètes
anks
▁toute
▁Wiel
▁Giorg
ры
▁világ
▁уні
ial
Score
ета
emetery
quis
ése
▁sex
▁operations
ITY
▁её
▁Bart
анд
▁році
▁осіб
iday
▁Ingl
wissenschaft
▁Tamb
▁Dialog
▁Все
¯
作
▁ál
(/
▁Frederick
မ
▁Young
▁afternoon
▁variance
▁NUM
▁regnig
▁pub
▁Foo
号
Socket
oslov
ர
length
▁wide
]=
Al
▁undert
▁explan
uf
first
▁forgot
▁electronic
has
▁holds
▁od
▁Labor
▁RewriteRule
skip
▁Miss
pos
amento
eds
Pop
rect
▁августа
<0x58>
▁Europa
▁Medicine
ARD
▁heavy
abb
▁Seattle
▁Deutschen
▁activation
▁Ehr
▁Como
jen
▁Kirk
étés
Fragment
▁cinco
衛
▁sid
▁Prés
张
▁ven
rio
▁obtain
▁semantics
⌘
mathrm
▁Times
aily
cc
▁Beck
▁evening
cards
成
ء
▁Made
▁fün
quez
▁recovered
▁comma
●
idel
▁<-
%;
groupby
това
▁doubles
▁Bus
tikz
理
ölker
せ
▁square
▁),
▁bay
▁Metal
▁symmet
▁zal
Zero
Lower
▁relevant
com
▁musicale
▁Serie
etzung
Orientation
▁Crist
▁miejsce
▁worthy
க
▁pic
▁lequel
前
mp
▁storing
det
▁Tan
ünst
<0xDB>
▁Fußballspieler
▁эта
hely
could
͡
▁equilib
▁presiden
ández
▁schwer
▁models
▁sp
atch
▁king
thm
olu
▁Priv
atia
▁WHEN
=\{
onders
Section
walt
▁places
jör
ération
<0x50>
▁scala
Version
▁MongoDB
▁interpolation
▁bet
▁parents
з
▁TO
▁Tom
ိ
▁plata
▁inheritance
▁ful
▁shot
scribe
▁Ras
▁filling
ъл
nisse
▁positions
bigg
▁ж
▁there
▁On
iture
▁carrera
▁southern
ấ
▁Even
▁отрима
lica
TextField
dictionary
▁escri
('/
rodu
▁versione
}>
vious
▁symmetry
▁Taiwan
Vec
▁Kent
ган
ashi
▁Ghost
spre
ن
管
AG
방
ling
▁Joe
▁schon
▁Eclipse
▁arrib
▁This
pril
мери
bury
▁CSV
fø
ifié
öst
▁Baron
▁Judge
mail
▁Kilometer
ization
▁darauf
kins
林
uming
▁year
Щ
phon
unto
▁subset
modifier
▁téc
▁pairs
▁Cit
▁g
▁dével
ImageView
▁personas
izioni
▁awards
▁software
филь
▁actu
▁reflected
▁tra
▁silly
ES
änd
férences
чил
▁retrieved
ут
ボ
▁neighbour
рі
▁concepts
ateurs
вати
DN
▁кор
("\
éd
▁fois
院
Left
▁unknown
cloudflare
egen
size
▁несколько
жить
("
▁Ald
тет
pecies
atta
oup
▁fem
transition
▁nearby
▁боль
▁Prem
дель
Introduction
▁стре
5
agr
ტ
obi
▁административ
▁второй
▁drie
normal
▁aud
▁csal
lip
▁меся
}\,
Created
ems
天
inue
▁WH
▁Lady
<0x01>
________
łuż
aison
payload
мира
phal
▁beautiful
▁Ана
美
▁Bol
mat
horn
▁triumph
iała
▁My
calcul
тик
iš
uts
ently
ruby
distance
wahl
вар
▁Nom
▁проек
▁midst
▁slow
ék
▁led
bec
матиче
▁overcome
▁Historical
▁kö
▁янва
▁фі
▁Fast
ث
orous
allow
▁talent
▁crew
▁disable
▁adapter
▁ED
riter
▁confront
▁characteristics
▁Int
aux
▁still
▁grouping
viation
▁`
▁reduce
▁Branch
▁Abr
skiego
скому
...]
//
▁happ
ス
best
Axis
▁Additionally
▁=
▁lab
forum
Ê
CUR
▁уров
▁wiel
hello
ssl
▁Nouvelle
ош
▁device
ark
▁formal
lava
irt
Success
▁Tür
usted
▁their
▁rain
ഞ
DOM
ძ
▁Niem
▁wieder
чий
▁terrest
▁asp
ト
်
▁$,
entication
书
jango
▁sq
erde
Ah
▁Night
äch
▁>>
▁Rat
five
▁machine
4
▁caching
▁mere
▁há
ptop
bert
нг
御
▁Inter
fly
<0xFB>
▁ию
lack
▁Six
는
▁člán
▁gir
apps
chrome
▁Isra
▁ruled
▁совер
]{'
▁vac
▁Rena
GER
yc
Dra
▁rag
le
/~
abet
▁anyone
▁president
wen
▁Got
▁China
이
ächst
▁door
▁integr
ദ
▁traject
ích
May
▁upgrade
▁опреде
▁Cultura
ун
▁wider
space
↳
教
ibe
equ
▁agua
tras
osi
}}}
れ
ི
ól
Columns
▁Je
▁efect
OM
▁mellan
"><
hib
▁eigh
▁override
▁Sverige
ład
▁kw
▁Montreal
▁Util
isson
▁remov
private
collection
ivot
▁capac
<0xD6>
▁class
▁retain
▁small
▁Cuando
▁summ
After
▁imag
ћи
draw
author
▁provincie
orted
▁Entwicklung
▁star
íp
Hot
▁пре
penas
▁inclusion
DS
children
▁staat
▁promote
bau
▁Camer
▁Volume
页
▁carre
Length
▁rav
iring
色
▁Итали
▁academic
▁monaster
÷
▁Ein
гом
сле
▁Sitz
▁viz
▁interior
▁dice
▁bas
▁virtuel
ة
ὸ
ishop
▁magn
▁mism
city
↵
team
▁PK
сии
告
lev
▁parliament
▁bread
ляр
▁времени
▁Rh
▁receiving
▁velocity
▁juli
options
voice
▁Employee
▁jej
lections
ordinate
▁robot
▁représ
}$$
▁municipio
щё
teger
▁simple
▁related
»,
confirm
Ъ
▁tall
gens
▁arquitect
username
▁car
者
ęp
▁Jon
何
岡
itation
READ
сини
▁...)
рей
▁altri
ung
▁levels
Ḩ
▁жовт
CG
▁Mik
▁Ott
▁***
▁Return
▁domains
▁случа
▁conflict
icture
цию
▁tri
▁young
aters
folder
▁genre
imer
▁engaged
fox
▁keyboard
fast
hew
пере
▁надмор
▁muz
▁Myst
werke
async
▁hier
▁flash
▁encoding
шка
BR
▁ó
ística
▁Will
▁qual
▁мая
▁schw
бор
EY
▁atom
▁neural
▁rappresent
ή
▁Официаль
▁er
which
▁глав
Plus
fire
писа
▁Bull
▁Wasser
▁African
▁placeholder
ienne
nice
▁haven
тия
Sync
KB
@{
▁USA
▁Woj
က
▁buffer
ffe
▁poor
▁zog
▁angularjs
▁Motor
▁experienced
▁Wohn
ֵ
sko
▁cinemat
▁Save
▁stuff
spe
ood
▁Project
vn
ATION
▁пун
topic
reens
▁выступа
())
▁Among
▁Boot
▁diction
▁Demo
昌
▁debugging
▁firm
“,
ustral
▁stages
▁requirements
▁hex
る
▁Rule
leid
od
▁участи
▁je
▁Core
▁builder
jective
logs
raw
="#
dor
estival
anging
nehm
ccc
▁+
▁timezone
▁resistance
bridge
▁comparing
▁Anderson
▁painter
сть
cluded
▁Common
▁ancient
▁fact
iana
▁chaque
▁Кор
▁követ
▁травня
▁што
▁című
))\
▁parentheses
久
undred
>
ledge
▁Анд
▁які
▁adv
Є
▁Margaret
▁sep
elte
iben
DP
▁polynomial
sdk
▁Beg
▁película
HER
expl
▁spher
ź
All
<0xA4>
Pr
straße
▁Buen
▁driving
▁ie
вы
▁Luke
▁William
▁municipal
ки
▁az
ites
▁Columbia
▁contact
▁transition
textsc
▁priority
▁яка
▁successor
vare
!)
▁rational
▁generated
ased
▁Please
▁lay
`),
▁surve
<0xC3>
▁blind
cas
qa
ку
fall
▁дви
tw
zes
ský
aza
▁sport
nested
Browser
野
▁offer
ppets
unless
INTER
alone
Domain
slant
DAT
brace
K
▁Einzelnachweise
іль
fb
▁computing
▁cluster
▁succession
▁hol
▁synchron
▁regional
rolling
ports
NS
▁Ron
except
modules
▁'.
▁huit
merge
Character
▁conten
rior
▁inline
▁iss
▁depart
▁pis
▁extent
▁apple
Microsoft
ind
prep
istration
dis
ু
▁quando
amples
▁Cab
virt
iae
▁Const
uet
▁febrero
lés
▁País
<0x96>
attend
alen
▁slo
▁центра
▁Berg
奈
▁cols
izzata
▁alpha
▁suas
elde
▁skal
六
▁GR
otted
▁Jay
▁mich
▁stop
▁haben
quer
▁bild
Rad
iennent
▁nombreuses
▁ihr
▁Chine
▁True
▁Address
nos
▁voltage
▁IOException
jak
回
ăr
▁Kreis
▁Bruce
jl
然
isses
▁Архив
♣
▁vary
▁terre
▁effort
▁perce
▁gate
inction
throw
▁Lith
▁року
anning
▁everyone
▁assim
▁Francis
▁farther
indows
lacht
▁Gang
▁jun
▁nature
лович
▁supported
▁pair
ров
▁cart
ło
ступ
sterdam
inv
cart
oka
▁infinite
▁"
ête
▁ste
/"
êque
ieval
▁equ
ципа
ologia
ayout
ourg
bold
ak
DOCTYPE
xl
▁tener
estions
▁Hab
Link
rin
▁ци
▁Sav
▁wouldn
▁fall
cin
},\
▁osób
FC
気
▁як
▁Trans
рая
▁mouse
gio
▁modules
▁Studies
▁(„
кли
▁Labour
안
▁був
▁Cruz
Validation
expr
▁influ
▁Lib
autore
▁pesar
Jean
plotlib
dostęp
▁marque
family
▁gam
▁Stevens
views
▁simultane
▁Sir
▁img
▁hover
bootstrap
▁Lors
▁preview
outh
▁DM
▁All
andy
▁clin
ostream
▁ch
lu
Doc
▁anderem
▁Name
gemeinde
нев
ties
module
▁sechs
romagnet
Ş
▁Parti
▁assass
следова
sub
▁zunächst
Light
▁consumption
roller
▁гене
▁Mitglied
~~~~~~~~
▁everywhere
”
▁km
▁Luci
▁vio
▁Й
▁грома
▁Am
▁пос
▁lä
htm
▁Tomatoes
<0x34>
▁gep
ERR
▁Maybe
ály
rr
▁publié
▁partially
notification
▁Bel
ณ
use
LT
▁utter
▁Death
asz
▁Coupe
▁Stone
шёл
▁data
▁Ні
▁Rib
}^\
▁homonymes
▁P
<0xB4>
▁Album
▁td
ORS
multi
$:
Method
▁sed
▁Authentication
▁#
Theorem
▁fitted
iente
pg
▁gas
lea
poss
кин
▁apar
chter
▁fab
naio
▁Mau
▁віці
▁wird
iams
▁cheer
Á
▁mont
▁single
ightarrow
▁вра
2
▁Verlag
▁SSH
▁Ryan
ющи
clusion
nr
▁captured
BeanFactory
iftung
▁CON
osof
ogonal
Effect
▁Brian
cience
▁electric
wan
▁surface
▁allen
▁coh
▁verf
▁against
dire
收
▁voor
▁critical
▁Ulrich
types
rror
iels
igte
▁mon
usion
▁Rab
▁Furthermore
▁Foot
év
▁End
▁través
[^
мирова
▁dispar
argument
uff
▁Kommun
▁Nan
▁plat
ospital
▁batter
▁Intent
▁compile
yz
<0x3F>
▁double
▁vir
▁activities
▁assets
▁обо
['
▁membre
ialize
nę
▁bother
pole
▁average
▁Audiodateien
wal
▁medio
▁revision
נ
FO
/`
▁Ад
▁FO
ank
▁depois
▁Washington
▁важ
▁aws
▁UNION
▁shell
▁Bank
)--
зар
File
oph
"].
▁DNA
▁otros
▁dealing
anim
stroke
cej
▁Atlanta
้
土
▁Upper
▁Sieg
▁Friedrich
icious
▁Desde
ities
▁retired
UNCTION
▁stars
▁Cel
èn
collections
class
Fre
▁Xml
▁Marx
################
▁Json
ców
▁befindet
▁Eq
ė
▁Cin
▁étr
▁nouvelle
Ш
▁similar
fection
▁amount
▁Religion
▁mathematical
online
<0xDF>
▁manipulate
fasst
ὺ
▁inte
▁окру
▁teeth
фе
ニ
橋
▁interrupted
ish
Comple
erei
▁Mit
ifiers
▁mus
▁Biography
▁laugh
▁Piet
▁rela
▁fixing
save
▁orb
▁ucc
itore
nom
ansion
fal
■
▁deeper
▁comand
은
▁gesch
▁inhabitants
Sub
ml
зя
Color
▁Kriegs
gcc
起
▁Wieder
rais
ней
owed
▁Свя
ist
▁PRIMARY
ican
{
activity
▁opp
ший
▁â
▁Dokument
uent
▁február
井
曲
▁XXX
̣
▁{}
▁Titel
▁Jahre
сок
▁XV
▁`|
▁Sony
▁measure
<0x75>
raf
ust
яви
osas
However
▁trick
▁your
▁typescript
▁runner
▁Result
▁migr
▁aurait
edor
ambda
▁By
▁соб
▁ár
licity
▁gave
▁Maz
äler
ractor
сен
SW
Qual
▁oder
▁Comput
期
esser
istence
▁Next
}})
▁started
:`
▁Process
▁Round
▁ce
oteca
▁populations
Est
rench
▁Gast
san
н
execute
omon
▁Premio
▁forte
港
▁draft
▁Datenbank
undert
rera
▁состав
რ
北
ammer
▁Sh
▁Track
▁trop
▁known
▁resolution
二
▁School
▁stopped
▁health
▁dus
ahn
▁geen
▁женщи
▁Fernseh
▁Bahnhof
locked
▁Comp
ésie
irc
と
▁integration
▁ABC
ourses
ー
軍
▁drawing
histor
미
▁zou
iver
▁DECLARE
▁network
▁often
users
atie
flag
▁achieve
▁анг
▁trabajo
End
alloc
factory
▁reality
▁Tai
▁offering
avan
eground
лено
▁huvud
▁bid
▁gepublic
▁times
Each
axis
ircraft
BS
вропей
▁charge
uted
▁associ
▁member
owym
▁цього
▁old
BO
google
aby
ково
▁insc
yclerView
▁Forces
FF
container
enso
Con
entity
integr
▁holy
<0xB1>
ления
dig
▁Vari
':
▁сим
▁stup
ju
▁sending
Execute
IAB
greg
Stat
fact
chos
▁propor
▁media
▁GitHub
▁Grey
ell
germeister
лся
était
рах
кто
angles
▁size
ftware
▁mér
▁`[
▁hes
Я
▁Kreuz
▁nú
structure
neq
vid
▁capt
▁begun
▁Pat
clojure
▁additional
▁mond
anych
▁diferentes
=(
▁называ
stwo
▁runt
Mapp
▁Claud
▁END
▁Fou
▁weer
▁routing
▁figlio
包
▁curl
▁с
▁дво
кие
▁Pedro
gr
▁Estados
Logger
cji
RECT
▁Johan
Execution
▁plut
mos
äft
除
▁IF
▁Auß
▁oppon
▁law
▁sist
▁qui
šč
▁possib
▁współ
exist
▁ourselves
les
osos
▁mi
▁demi
▁Res
refresh
ASS
ктор
▁zd
▁lifted
▁pred
failed
ével
strip
▁his
enti
空
▁continue
▁Problem
▁part
pont
▁street
▁edges
jar
==
▁sang
统
▁Prin
▁await
Dispatch
▁ham
▁Conseil
▁Geme
▁Aleks
▁Nevertheless
о
▁underarter
▁fundamental
erek
ched
▁former
▁CLI
antics
xic
「
▁Stock
Pay
variables
▁handlers
"=>
лм
▁temporary
INDEX
▁Nar
ierten
шта
▁Pérez
Override
enie
▁разли
чне
▁peque
falls
ughing
isen
▁Key
ało
шая
ká
asha
▁goal
村
жа
▁alloc
runtime
мина
▁dbo
wand
ри
▁schema
▁begg
aug
▁Afghan
▁fre
▁Half
么
▁Mult
рий
articles
▁Wein
ли
▁involves
_;
▁CD
▁onClick
ein
▁leng
▁married
mund
context
fort
▁rolling
^(
SQL
▁public
▁T
/)
Found
reflect
▁ба
▁BB
▁Hob
▁ком
▁poder
ác
▁Magic
タ
▁TCP
▁fork
пы
сподар
emed
▁VAL
向
▁Jer
▁million
ides
ored
▁quartier
▁perd
▁transferred
install
AF
▁living
▁Minn
▁sind
▁Schaus
atra
WN
cont
▁Cot
Unit
via
ried
.~\
▁scenario
▁dummy
▁Чи
▁erh
▁Ye
▁affili
▁stran
жной
("@
▁Neg
▁Detroit
Σ
ll
zione
▁reverse
логи
▁reflect
▁failure
▁academ
weak
мом
▁Ber
▁XIII
nych
mus
▁län
▁Wal
tuple
▁??
▁zie
Exists
Return
▁spraw
▁het
▁shoulder
▁Ara
Source
».
Drop
coln
cra
▁Frankfurt
▶
▁Touch
ка
▁des
▁clar
tan
($(
share
herit
)
▁November
▁disco
("#
must
▁села
▁пози
<0xC8>
ih
▁habitat
▁samt
▁систе
aille
igua
cuador
▁rå
ose
вый
ansas
ound
▁ann
▁ана
▁repeated
▁caused
▁encountered
▁Terry
▁throw
elsk
metadata
▁Harry
iffe
▁kl
▁sorted
curl
stdio
cor
▁Isaac
Groups
▁fet
▁Politik
▁Bru
loyee
quad
rike
▁Алек
ен
<0xBD>
▁Nacional
ographique
▁Mys
▁réal
ovi
▁ehemal
्
простра
▁souvent
▁Guillaume
▁bezeichneter
▁duc
▁";
▁Azure
▁alles
▁reports
▁compagnie
ā
▁Моск
trace
dump
setminus
▁diff
ued
LOCK
зне
▁Seven
ologische
vl
▁Parlament
▁repositories
hibernate
▁pleased
assa
▁энциклопеди
▁organizations
err
Push
flat
▁executable
▁Lista
pes
ficos
rait
<0x30>
ichten
▁USB
▁`<
▁Liv
ک
▁Chrome
ocal
ct
▁air
▁ec
út
▁истори
▁зу
eval
▁aa
acion
▁caus
▁notre
▁tea
▁null
▁hinter
▁reception
▁auth
▁Iz
dark
▁triple
unte
▁malloc
▁trouv
▁val
cola
▁supply
Aff
▁Belgique
{.
imi
мон
================
vo
▁provincial
archivi
▁melhor
link
▁maison
ständ
▁trom
tv
optera
▁Rö
▁Author
""
askell
Close
▁have
widehat
▁tussen
izza
ά
▁\(\
mathbf
intro
ro
▁elaborate
▁Chiesa
chr
screen
ither
H
ql
▁worked
▁Catalog
TEXT
)*
cout
писи
poque
₉
▁го
Integer
▁singing
▁ti
▁trib
▁ge
esa
▁another
▁miss
)}\
çais
Mouse
串
leted
TL
▁Gl
▁Bernard
▁Gla
New
itor
▁stays
▁человек
ako
хва
▁minds
▁dec
are
Chain
▁estudio
și
beit
▁Still
source
ibrary
ським
oi
Red
▁ohne
́
loss
нім
▁Становништво
сті
zak
▁si
▁bron
▁Пе
▁crowd
▁IB
Dep
zs
▁Резу
▁shall
▁nieder
▁at
Rem
▁dispose
жет
atically
olas
boost
▁шта
tał
sound
▁ду
▁painting
▁meg
▁exam
▁Kos
▁vas
Current
▁III
▁poss
IX
ographic
▁Pom
.
忠
Footnote
▁entities
ups
Mapping
▁Mal
▁nations
News
phone
ב
▁corte
elled
ych
ünstler
▁koji
ozzá
▁Secretary
textarea
ST
▁nj
led
▁Duke
▁Arbe
cible
▁discrete
▁Philippines
'.
onsieur
apa
Dynamic
▁Sept
▁percentage
ierno
▁Illinois
▁Е
▁spoke
▁Se
▁classific
▁Reichs
▁conce
▁preference
▁Verl
▁longitude
▁Spect
▁Nas
вин
▁warnings
▁surrounded
▁allerdings
ospel
nea
▁bring
enders
ähr
uesto
arias
▁avail
Button
ep
_\
▁\<
handle
̲
ref
▁unfortunately
UES
▁création
+\
includ
▁Ligue
▁Elisabeth
▁Ergeb
▁till
ování
▁pri
▁erstmals
▁Roc
▁reve
Only
▁Fen
▁ranking
▁Should
тно
arian
▁loro
SOUR
▁Missouri
eline
mean
▁dri
zung
▁parad
▁contr
tau
≡
ski
atan
▁sont
▁други
▁Stefan
ние
▁miles
Mock
бя
▁bank
▁ach
▁.
itle
OR
тен
▁identifier
▁Crit
▁proble
면
▁Gre
Radius
><
,’
▁Mur
▁obras
आ
▁url
▁commune
Graphics
щих
▁underlying
每
ó
zy
▁Anthony
▁Sac
over
soft
<
▁И
▁being
▁activ
例
▁Mar
▁quadratic
▁reproduce
Runtime
íd
▁juni
"+
<0xFE>
▁sharp
$?
волю
anguage
▁liberal
▁except
┈
atore
▁само
▁Ac
▁Româ
▁Law
loader
ăt
ні
▁Beispiel
▁>>>
▁kid
▁hero
编
ните
ec
midt
▁Cant
▁patron
▁donn
▁`"
▁regions
▁Ба
▁precip
illon
če
▁Ссылки
▁jog
▁slower
ὀ
API
▁attach
alg
▁sus
▁owner
▁esta
▁datas
▁huvudstaden
Since
so
station
▁pół
DAY
▁Hill
pie
▁Lud
▁Frauen
▁indexes
iffs
▁threads
▁къ
hmen
▁derivative
▁primeira
werb
▁Use
▁abort
<0xCB>
▁ES
choose
▁aligned
Ñ
>";
▁ls
Oh
below
▁Ray
▁Гер
▁Autor
Select
)».
▁ed
мы
гер
▁personnel
fc
▁Pract
≠
▁Sur
nah
▁opacity
▁Gó
▁dirty
esti
桥
ual
▁send
▁Mak
Long
▁autonom
том
▁Ressource
‹
▁else
▁programa
bell
▁complet
▁shouldn
ury
▁гла
▁quelle
дні
▁parse
nl
R
▁condado
éli
▁Hyper
awn
▁course
▁wir
Circ
▁setContentView
atural
左
▁Gazette
pa
rä
▁extended
▁кино
▁Non
接
бе
▁меда
▁prakt
big
▁AP
OST
Shift
▁vor
▁ze
b
▁pages
▁dropdown
ział
▁faster
▁Le
ative
continue
vano
utenant
▁Staaten
▁":
바
frika
'`
yard
▁lands
ũ
ativos
ei
▁SP
▁monitor
▁губер
слов
ague
onc
abel
protected
▁terme
tip
<0x2D>
cook
▁compét
lán
brains
▁quick
▁overlay
urrency
▁ASCII
бар
▁'_
▁pose
▁prevent
▁aw
Names
gew
ogeneous
▁n
▁bylo
▁Tree
▁pił
zyż
▁?
iras
=\
<0x4B>
aking
▁Rub
▁important
ission
▁locate
▁rates
▁Width
▁watching
▁B
▁boundaries
▁Mitt
▁princi
ress
▁nationale
▁vess
▁Gir
▁caps
▁ple
▁Les
gså
▁cub
▁keine
ździer
▁línea
▁deployment
FILE
although
▁satellite
尾
모
▁Philipp
▁Ant
edu
▁Kel
ji
▁Majesty
▁mano
iso
week
▁first
;&
▁cultura
cd
▁See
▁Sie
ücke
▁aston
Click
▁`\
▁slice
▁exponent
내
鳥
дент
ន
lika
▁д
▁create
ную
▁generic
ay
▁Catholic
▁argument
ongodb
▁equipment
Components
夜
uropa
▁bataille
▁р
⁰
▁Jak
any
▁consec
▁хозяй
▁grounds
änn
▁rotation
stra
▁ignore
▁future
ativas
▁alleg
▁Many
imin
▁html
英
▁far
▁были
Dir
▁Sid
▁drawn
紀
atabase
▁présence
▁Style
rir
▁Valle
▁Festival
▁within
.[
Filter
зиден
Brainz
▁Ole
above
jna
全
▁absolv
▁ha
ológ
▁Tun
▁degree
▁perhaps
Die
ite
mul
embers
▁ehem
라
▁promised
ර
▁verte
slow
▁cond
Exception
▁spoken
Ц
Device
▁somewhere
lr
▁leave
▁please
▁Nad
▁seule
▁Glas
▁restaur
▁tät
▁Html
wave
▁Look
▁strugg
▁États
▁supporting
▁proposed
Stand
imgur
erg
▁Inst
▁consulté
AC
▁Perl
▁~[
失
istance
▁Fest
<>();
指
▁Tas
▁Asp
▁drives
itudes
kih
▁filename
▁recall
visible
ős
▁Сер
<0x86>
iter
р
▁arab
tags
▁references
%
▁mutable
omini
▁СП
andr
amin
onie
▁сооб
▁Renaissance
Ç
atively
▁hypothesis
bone
©
▁fat
arth
▁briefly
ese
ao
▁секре
▁Seit
▁blah
▁Electron
part
ez
orith
▁ww
taient
▁cant
дат
comp
▁Haus
рами
versary
rane
▁Naz
▁prize
：
▁cer
:]
▁wars
него
▁particular
бран
▁replace
та
qu
ORM
▁Aer
<0xE5>
▁knowing
foo
▁standard
▁matrices
▁candidate
▁$-
ą
lius
▁Boliv
BY
closure
▁segments
node
until
▁Beth
▁landing
cases
?.
▁см
&
थ
kter
▁Mex
▁optional
▁sierpnia
circ
button
irable
▁Diese
▁основа
тон
▁Leon
▁fro
lichkeit
▁polynomials
Invocation
▁`/
enta
чё
LINE
▁twenty
rical
WIN
anger
▁series
▁Marine
▁substantial
▁accurate
ন
▁yeah
▁sentence
hören
o
úblic
▁dataframe
ott
▁feelings
ört
▁Sel
dependent
outs
▁repet
▁жена
▁iframe
Zygote
東
що
▁recomm
▁enqu
▁une
▁licz
étr
▁checks
aller
▁chez
▁Cry
édie
filters
ęd
ened
▁wyst
syntax
云
▁monde
▁AB
catalina
had
▁стату
cular
▁bez
▁Josh
cir
Re
▁derived
▁queen
▁Р
ading
bat
▁Greece
▁connexes
onas
We
What
▁surprising
▁mos
▁grup
▁older
um
hes
▁subm
rar
▁Math
▁cc
▁название
cla
▁Wass
idth
ir
­
itors
▁symbol
▁Deze
▁составляет
▁Oriental
▁author
▁sob
▁Bahn
Database
▁inj
abl
貴
▁vr
backgroundColor
▁Lou
▁Agu
ogle
нием
Λ
物
))))
elm
▁planned
ר
▁Cub
Fernseh
▁Norweg
changes
subset
▁besides
▁defence
常
▁UP
eca
▁кон
▁firing
sqrt
▁fran
asp
イ
his
_,
ним
▁pret
▁règ
O
exchange
LEASE
tatywna
▁Infantry
<0x2A>
Θ
▁SL
▁manager
Ṣ
进
mann
▁Evangel
▁челов
notify
▁minister
▁thus
readsheet
▁skulle
▁muerte
aval
▁Indeed
▁ver
▁suite
they
static
▁Х
소
▁attempted
▁Internacional
p
▁::
▁Unicode
gré
▁surely
▁Alexander
▁Mexico
非
CLI
DR
lé
otta
▁gouvern
)}}
▁asympt
plain
▁Fichier
Hy
▁decent
▁Broad
ienn
▁principles
wich
상
green
▁Med
министра
тем
?>
▁margin
even
▁kol
▁Peg
▁registers
Pane
▁Ay
ogs
▁эти
▁viewed
xa
▁Lucy
we
▁México
▁param
▁routine
▁SD
ход
▁generate
isch
atr
quin
Tri
▁wirk
▁El
wie
▁L
wiki
▁Muham
usztus
▁Answer
▁risp
bew
ild
▁Notable
gin
^*
▁Kore
▁plans
akter
▁obec
ynamic
流
uch

illo
edes
▁shown
)_{
isse
▁fif
rs
N
urg
previous
pecially
лав
▁with
▁внут
▁molti
rá
▁Ach
▁Holz
<0xC5>
Cart
adow
▁Thom
IN
▁Like
}}$
än
▁thinking
Schema
edule
▁Regional
▁Dre
kord
тельно
▁MY
delete
▁Kost
▁Events
就
▁prefer
▁seeking
halten
Under
▁written
setopt
▁usual
▁hoch
▁ét
▁Lad
▁données
▁Schweiz
▁keys
▁Africa
ulations
getting
▁FM
▁Архивная
udad
<0x9C>
owan
▁Replace
▁synd
Մ
▁invalid
▁inser
▁distant
▁Survey
oti
▁weiteren
▁Pfarr
▁fix
ído
▁Владимир
▁remains
▁Victor
].
▁Download
▁Hal
▁tiene
▁föl
clos
▁wil
unda
près
▁Sachsen
afen
υ
<0xD8>
buff
▁года
▁groß
▁noticed
since
ти
▁smooth
Timestamp
Qu
▁paid
▁Гра
▁iPhone
ző
iedenis
▁klub
âtre
rent
osta
bt
▁week
▁tick
▁veget
▁inve
▁Beau
▁вели
▁Er
▁settembre
▁arrive
▁conced
ätten
▁reun
Rece
▁Gef
tab
ウ
▁estim
▁marks
amp
оло
▁tv
lär
▁burg
与
▁das
▁Bian
iez
lime
Constructor
▁asynchronous
<0x0D>
▁Having
encing
üng
▁no
чь
▁acon
▁Liter
тери
▁комму
am
▁eing
igi
istas
destination
||
▁nu
∉
▁colored
ște
ста
▁seguito
们
<0xF5>
▁somet
▁foreach
▁Kenneth
Net
manifest
▁Brook
Template
▁green
yond
ף
面
▁government
▁panel
▁Wir
bean
ville
audio
▁Room
geb
▁implies
short
kommen
▁матери
arna
▁performs
▁Arizona
▁к
▁until
ʒ
▁Lee
▁legisl
▁Channel
▁autorytatywna
▁струк
▁Tak
newcommand
ských
▁Yeah
tal
IAL
▁Бы
▁bell
▁companion
localhost
▁probable
▁circul
▁Partido
▁disappear
!}
▁tw
ště
希
Ori
phia
ional
▁cres
termin
ber
▁своей
▁на
▁crime
▁северо
datas
Enabled
ská
Transform
▁highest
brand
▁geprüft
▁pleasure
▁Orange
▁digital
áb
▁vé
Wikimedia
▁improved
)",
▁letech
▁Werk
▁piece
▁alter
▁Director
▁alle
стрі
gy
▁gets
▁best
▁drei
▁puts
ви
шлен
pis
ighter
cock
▁conhe
▁Perform
▁Class
datei
ison
sieme
ū
▁featured
▁Att
äck
issant
▁университе
zan
init
чен
▁Moscow
▁sum
頭
ters
▁porque
▁Nobel
▁Constant
plates
属
Servlet
ait
▁movement
xxxx
▁Luxemb
roduction
▁deal
angle
▁pob
▁год
uc
┌
ф
laces
virtual
▁folder
▁value
clude
Ő
raj
вав
onna
▁memb
▁García
原
рен
▁buf
sime
▁Hier
▁&\
┤
Ret
util
▁ny
Hand
▁intent
▁li
abs
*{
▁dob
▁an
अ
▁Elli
ass
▁chairman
<0xD4>
▁la
<0xB7>
▁Pap
▁Relig
▁Third
ulsion
{:
▁ни
Sil
amenti
venir
▁te
ula
▁неза
状
▁requiring
="{
ң
CAT
Completed
lers
owane
▁facility
▁ol
▁dalle
▁Bed
adata
comput
▁Hub
▁Он
▁compose
▁skład
ت
мир
ead
rade
▁Deux
志
рення
▁prospect
ICE
▁correctly
nou
цького
▁det
гласно
▁climate
▁však
mon
oso
▁excellent
▁áll
▁elements
▁shows
▁Фран
SET
▁Jordan
▁школа
Path
▁Sea
schein
nake
ν
和
▁Се
▁foot
▁stored
bü
舞
imp
▁Externe
^{(
▁journal
▁local
UI
▁Однако
respond
▁drums
ữ
▁pak
▁Middle
scope
hör
ier
▁colour
▁reducing
▁Wind
▁señ
sweise
Zip
▁doi
oute
▁guessing
～
▁spr
▁tiny
enza
▁improvements
▁équip
per
▁während
ience
▁crossed
▁chose
ه
;</
Gen
▁Бра
usage
▁Mississ
無
▁vessels
acyj
▁Maryland
▁Wikiped
▁var
book
▁indust
iously
湖
没
Split
ori
▁Jegyzetek
▁Represent
щение
▁particulier
ז
▁Bil
名
▁tous
лез
▁Garden
▁studio
скую
▁poi
▁Верхов
isset
irty
ран
ゃ
hpp
▁ALL
▁Stud
▁entferne
▁hé
▁prosper
hr
ane
▁issu
▁zak
▁Дже
Constra
Illustration
▁encou
▁управ
▁helping
▁pushed
rained
▁Ta
ony
▁roi
▁vä
bal
▁Ven
x
uster
▁guerra
▁актив
ór
▁unus
▁Eugen
▁вер
▁kilometer
call
ates
▁than
再
▁Pologne
ice
ribution
age
▁ancora
engono
▁работы
ẓ
▁up
ellow
▁aspects
BC
▁anni
ann
thread
▁Ana
oru
▁JS
img
Extensions
▁ske
▁miasta
ennes
▁ки
taire
вает
фри
tick
▁économ
⊙
▁Rail
›
Vector
ragment
-%
▁Similarly
▁campo
▁retour
CHAR
▁bila
wei
agini
▁fert
▁szer
ROUP
▁thermal
arten
Info
▁vb
▁fee
▁Cond
erem
ijd
reich
arga
▁Bibliothèque
▁Hard
▁ESP
Mo
▁disturb
illet
▁utility
智
▁Steve
▁Organ
fahren
]}
▁*/
анта
ror
Su
▁Sank
suite
+$
▁kernel
>(
colors
eni
▁▁▁
vc
iger
▁topic
▁Jug
▁erf
▁Nazionale
ase
▁stories
▁prend
ních
licates
▁кото
nit
lung
berga
endar
prü
chart
Studio
▁університе
Methods
ally
osti
▁villages
▁дире
▁thous
dale
istik
▁pelos
生
▁estimation
▁%).
▁ships
▁leads
▁overlap
цев
etter
▁adm
▁Equ
▁związ
▁dollars
▁dej
▁Su
▁anom
multip
steps
▁Angeles
▁propriet
▁Phone
ben
unnable
▁Lor
▁alignment
put
sce
▁груп
▁прави
▁свет
▁college
▁calc
▁tedes
frica
ering
▁Transport
France
▁processor
▁http
▁odkazy
ext
▁next
▁Prov
}\\
▁measures
żyn
▁battle
.»
wod
dent
▁aust
▁temper
▁defend
ู
assert
ymi
선
▁Hann
èle
▁помощ
▁Джон
യ
enden
yan
seen
▁mobil
cen
express
▁Bei
▁ship
▁Commander
▁Austria
อ
▁сбор
BA
Resources
▁rel
▁Sug
▁options
▁limited
appe
▁\(
ool
googleapis
▁attachment
Attributes
pert
чня
DATE
▁interests
▁twe
▁European
ata
izia
`}
рез
VICE
Fri
etz
▁Our
▁raggi
▁tabs
kar
arct
▁Led
▁altogether
▁Colomb
▁Stra
els
ству
роди
▁XVI
ober
▁rev
asi
▁icons
▁augusztus
▁proceeded
Like
、
training
▁slave
aligned
▁duty
ה
▁finds
ൽ
cht
ök
▁similarly
▁mesure
▁$$\
▁York
asy
EQ
ku
otes
łu
▁linker
Full
▁Насе
__(
▁';
ס
▁Di
▁Hugo
bound
fore
▁ně
ividual
▁Пари
spec
▁Erst
▁dream
▁recurs
▁hub
▁Tour
onder
uz
▁suggested
▁Zw
▁uit
aves
isce
ioni
▁descript
▁username
▁slov
森
mier
▁CHECK
▁í
▁hoog
▁("
xture
си
▁США
▁more
footnote
▁writer
irse
▁establishment
▁апре
▁dirett
﹕
▁quotes
̌
▁norte
▁program
keys
▁reck
▁remove
▁imagine
▁але
▁Arch
Find
▁Argument
▁specification
jön
▁programming
ames
▁templates
utzt
zas
actér
vest
Deb
▁Socket
lijke
头
stvo
▁loud
▁provision
▁Manchester
▁wurde
MainActivity
▁Seg
▁Philippe
lua
adratkilometer
▁films
sup
rien
enas
roid
pler
iv
▁Step
Intent
▁Altern
ә
uv
▁reader
▁pron
▁comm
ring
▁gesam
⇒
api
▁nouve
▁första
▁silver
▁sensible
▁findViewById
edge
`'
保
▁så
▁inform
▁sums
urrent
▁witness
▁samen
▁delta
appy
fe
皇
▁loop
▁States
▁дан
▁Village
LY
▁evil
dots
▁disse
facebook
▁fit
tml
▁espèce
▁kult
VE
клю
duct
▁onderwerp
م
curity
nel
egin
▁causes
▁controls
imiter
▁lead
eso
)"
▁hole
wedge
}$,
usr
▁Ż
generic
sci
▁Living
because
▁they
▁lista
ram
▁године
آ
▁azon
ctors
getValue
▁navigate
SY
▁achter
categories
▁authorization
ugel
▁Task
árt
▁resid
▁Dezember
rible
▁cet
▁Retrieved
▁uses
▁као
maker
ف
ヴ
▁Nue
▁examine
▁Дж
▁rate
USE
▁dign
Visible
▁Estado
iod
▁instructions
▁começ
▁Virginia
▁exports
▁dor
▁équipe
about
utive
▁Screen
ச
iros
▁клуб
login
тара
iginal
▁minimal
änder
Iter
textrm
orney
▁sah
ʌ
▁deprecated
▁kole
лен
social
ystycz
▁collabor
ClassLoader
▁knock
Pol
▁battery
UG
う
нача
Range
лле
▁traditional
ERE
▁mysql
bos
kom
ined
▁Жи
▁appear
Wil
<0x48>
conom
chat
ръ
дови
▁screen
▁Мексика
nof
▁sand
▁hay
关
消
▁vo
▁programme
ancia
S
дён
something
▁Matt
▁Libert
▁binding
正
持
▁alias
[]{
pkg
charg
▁'
regular
▁`@
▁nova
▁разви
iam
▁début
泰
▁inglês
<0xF0>
▁тро
▁st
мерикан
▁BC
▁implementations
cias
ícula
▁Ehren
▁trem
cop
▁Script
▁Update
▁▁▁▁▁▁▁▁▁▁
▁Archite
▁Bundle
▁simulate
inho
▁Ferdinand
▁Sample
yle
jm
лад
bytes
▁Hij
proxy
▁Sammlung
ducation
▁splend
▁Abraham
BD
▁arise
nen
▁Re
ля
Hi
baz
île
▁action
hide
lose
▁calculated
<0xB6>
▁center
▁Another
处
▁Gel
▁świata
▁Ivan
memory
▁toe
tl
▁Store
▁formation
▁benef
▁má
▁accompan
cho
nder
▁dressed
▁места
▁operating
lei
▁Василь
éta
▁ruby
▁television
oll
(".
▁Vere
▁lett
▁Tennessee
ley
▁dest
ја
▁Frankreich
▁switching
Ε
制
Min
▁grouped
ąz
▁going
▁identify
▁va
alph
rid
chron
avor
द
active
▁só
нут
Message
▁Lap
▁Wille
▁fallen
ление
unst
▁EventArgs
▁Kan
▁граф
abeled
▁aur
▁indicates
▁элект
$.
▁start
Stats
ུ
inar
acters
▁månaden
pend
Once
த
▁Although
▁squ
sudo
▁Tim
▁compte
▁пр
▁Question
▁repub
▁bit
jà
▁invariant
woord
ält
▁costa
isted
▁License
});
∈
ską
tek
zą
▁rotate
▁sure
▁Contact
▁kyr
▁port
▁considerable
astr
▁consume
▁tax
▁thats
Ν
all
▁hits
▁авиа
pr
ی
▁Ont
▁cron
▁inse
▁_{
▁DATE
iza
valid
▁trained
▁Sainte
▁referencing
▁Age
ξ
ovan
силання
lease
ność
dl
▁online
▁varias
ån
▁Сов
▁Pro
▁aut
žen
agon
▁Solution
▁camb
▁verl
▁Western
IGN
▁Oliver
▁dai
ler
connect
ighth
▁Gén
▁Sus
▁mis
▁Tu
CCE
▁feu
▁Conse
▁Бе
▁Mitchell
iber
▁quanto
여
О
logo
()}
▁make
▁WorldCat
▁reliable
ані
\}\
▁renew
нат
Hub
ética
▁аль
Term
menu
leich
ounter
▁feas
▁Aqu
stock
PM
▁merchant
▁selon
▁]
▁Kal
▁були
щее
▁Meister
een
perl
▁français
▁Haupt
▁Рус
▁placed
▁Water
▁patterns
▁Mu
▁американ
▁junt
▁contrast
ель
Coll
JAX
▁Rails
ERS
erie
ши
▁juris
▁sacrifice
телей
EE
atory
EP
Ital
守
▁kurz
▁Wit
Ē
modal
ків
▁entertain
▁uso
▁Musée
ür
▁Familie
raz
▁Billy
ücken
▁infinitely
▁Office
仁
▁Bef
▁currently
▁Consider
EC
▁handles
mn
▁IT
hadoop
▁Mem
▁столі
ancouver
œur
še
▁Bulg
sprach
▁redundant
▁Mitglieder
▁Mais
ू
▁doub
▁dropped
emph
▁nit
clock
▁park
кла
▁jak
gue
чник
▁вз
ь
¶
aka
▁gior
▁gehörte
<0x22>
▁Buffer
▁Mars
▁werk
Famil
▁brain
cted
?"
▁Wo
▁favorite
últ
▁tomcat
▁harder
▁Reference
ugby
▁Bild
比
▁"(
▁propri
▁proved
▁whisper
aines
про
▁claimed
ط
isting
▁otra
▁fileName
▁shape
▁Mass
▁wait
▁absolute
▁Ern
▁Fun
Url
parameter
▁edit
pass
ocket
▁comes
kc
hel
▁equip
▁raise
▁rating
TextBox
▁long
▁perturb
ńst
▁народ
▁needs
▁seines
bach
aspx
emos
краї
Ā
▁Political
▁several
始
身
andas
▁following
igen
▁Buenos
▁struggling
ppings
▁smaller
ION
▁vehicles
▁bem
▁рів
тив
▁Kirche
('
▁отли
▁Getting
▁Budapest
harm
▁Fox
▁Array
▁Who
unes
▁final
css
▁letters
▁pause
▁students
iev
GA
èces
▁road
▁earth
Me
Complete
▁databases
ỳ
ứ
UIView
лё
▁weeks
▁hid
▁quot
ské
დ
客
▁▁▁▁
zysk
pom
widetilde
padding
▁rendered
▁behavior
▁urls
cole
wikipedia
THE
▁ML
history
rome
value
last
駅
▁atmos
▁fancy
cloud
scala
<0x90>
:$
▁done
▁título
▁dalla
ische
[])
▁póź
▁Language
izado
uper
▁flexible
▁tecn
sort
▁obra
dropdown
ordre
葉
▁Abd
▁ListView
￼
highlight
constant
▁Eug
ima
▁embargo
▁Unable
ill
▁Freder
lm
ῦ
imal
▁taking
▁који
▁analyz
▁habit
⁶
valu
Var
▁victim
▁Société
Children
▁Тер
occ
▁сти
hbar
▁estre
ț
▁trad
▁maintenance
▁vertical
▁оби
questions
▁Fine
▁ці
▁from
▁quart
▁mostly
组
odb
cel
▁council
ads
including
ends
▁Econom
▁bog
Help
▁alphabet
Other
órico
ested
✓
▁нав
▁Roberts
ason
▁Put
soap
▁photos
▁perché
atica
▁Ren
float
UST
л
mind
▁athlet
▁конце
ático
尔
ibil
之
ME
Remove
)>
vil
[_
ắ
<0xA2>
▁trust
jquery
▁$('
▁сте
bum
quantity
▁mieszkań
ort
▁Schles
Sequence
▁norm
▁lists
▁Argent
▁tons
▁boats
lo
inental
▁client
▁September
▁costs
▁forall
▁calculate
bolds
▁Filip
elij
▁Iter
bucket
akov
хода
nodes
▁blocking
ulative
▁accommod
Sw
Team
adémie
▁received
▁scheme
argv
non
vá
▁powiecie
▁league
▁Prix
▁División
ungsseite
зин
тами
Address
▁Schön
▁со
ire
▁круп
▁leurs
▁Super
▁instit
abeth
ouv
▁BO
heimer
▁зем
▁modo
▁b
ása
▁room
▁Services
raum
▁amery
ші
condition
▁mail
▁край
:%
ograf
omething
ensch
▁Chicago
▁Od
fund
╚
ículo
▁usar
esso
▁rey
▁algunos
Vor
▁structures
Empty
▁serve
SER
bres
▁expressed
▁Bud
▁concerns
▁Would
▁Uri
▁різ
▁Ubuntu
▁suggest
registr
▁instruct
ythm
writer
▁Setting
▁merge
execution
▁Oper
aucoup
OUR
zeum
archiv
mente
▁kur
▁préc
▁engines
▁Db
▁famille
▁cone
Null
▁Sig
граф
há
▁blan
▁Univers
EventArgs
Adapter
push
▁nouveau
Super
gleich
ánd
▁entra
*"
▁cour
lide
uter
Before
▁circumst
itos
▁dense
▁s
▁lap
bishop
▁Meter
▁industrial
чита
▁limit
▁django
▁sign
▁universitaire
▁turn
▁conven
▁Schwar
▁play
станов
Fixed
ència
edi
Menu
vard
chin
adin
▁карь
▁sender
IA
dimen
<0x56>
▁Custom
<0xEC>
ifer
▁livres
enz
▁jug
▁zn
▁hat
esen
▁base
▁он
ürgen
mary
▁ade
▁caller
core
ost
irk
ained
TR
>.
▁Drop
▁range
▁Berl
▁presently
gar
▁Ober
▁blob
Uns
▁neut
ĕ
▁Force
Grid
term
▁Ult
▁boat
▁či
▁says
▁områ
模
▁acab
▁Lars
▁lemma
▁improv
▁Folge
▁oblig
bay
▁April
▁LI
δ
▁might
itive
annot
▁év
▁înt
itte
▁Jeff
хом
NSURL
TRUE
▁difer
works
ennen
geo
▁течение
▁Auf
Alex
▁XIV
Expr
▁Memorial
option
黄
▁Sun
▁sym
%%%%
ached
▁Auto
Ptr
▁Plant
nginx
▁suppose
ening
cious
WF
ပ
rita
▁Italian
Direct
′
zig
eria
▁served
▁prü
▁·
▁когда
aterra
▁gat
ى
bject
▁Literatur
Sign
äm
▁latitude
▁Kra
▁zdoby
▁maps
Hint
чай
CR
ရ
▁prototype
fo
▁Firefox
mov
Det
sim
▁„
▁februari
▁Хронологи
▁guitar
▁compiling
ieurs
▁arrival
ized
Part
▁knows
compose
▁поя
жива
▁mode
ying
▁Minister
sk
▁mm
▁під
▁Context
zę
▁Audiod
iden
▁two
▁direct
▁Fire
aging
processor
操
▁Could
<0x25>
▁cleaner
%%
Documents
yi
要
ifs
eless
▁Click
скими
▁German
<0xCF>
▁innerhalb
▁Comité
▁Schiff
icher
<0xAC>
▁Early
aki
ifts
rib
fic
߬
▁Marcel
▁UIView
aj
▁работа
yó
ingly
 
чний
angular
▁teatro
▁cambio
ynie
POS
▁Madame
▁supplied
▁sic
▁занима
▁institutions
▁Pitt
▁brick
FIX
▁onder
▁December
▁tid
▁evident
spr
Inst
▁Nep
▁kam
▁було
▁deutscher
▁deven
▁cím
aco
▁pressed
▁már
ohen
ной
Gui
▁Voir
▁Path
ientos
▁consideration
ril
▁Song
></
)`,
▁cantante
tt
orio
▁diagram
SK
hat
▁fils
ój
▁ren
ska
Platform
▁glad
ures
▁ј
хі
ality
▁added
<0x35>
▁mu
▁фор
Ġ
Total
AndroidRuntime
▁consequences
iors
▁Isn
m
▁marzo
▁manip
▁dark
▁Appar
arte
▁представ
▁durante
▁стал
▁force
▁Promise
ú
▁className
▁apart
写
▁stan
▁punt
▁"/
rès
ven
▁ticket
unsigned
Col
ické
linux
CI
▁которые
▁людях
ectors
Namespace
▁don
Û
▁II
▁Nella
ytics
uncia
▁itself
造
iss
▁priv
▁liquid
▁voice
▁flower
lined
ლ
au
▁arg
▁COVID
▁gestion
▁lect
▁Miguel
▁dub
ege
古
▁Inv
reen
right
ждения
マ
▁seats
▁Ontario
oca
ails
>\<^
clam
idense
ồ
▁generator
<0xBB>
▁erre
▁Animal
▁South
▁advantage
▁них
▁searches
offs
▁dieses
igne
AtIndex
▁Pl
enf
Seconds
ético
<0xAF>
над
NB
▁Sans
▁talk
▁Januar
()
▁abril
nabla
▁share
▁Madrid
▁salv
▁Mai
▁Hessen
istema
names
▁znajdu
▁friends
esian
▁институ
▁raw
▁MyClass
ství
▁тер
▁debate
<0xE3>
▁Editor
▁Bass
▁forming
theory
▁przeci
ously
der
▁prod
▁invasion
(__
▁ру
▁whilst
が
ɾ
ствие
kbd
Lock
ctl
▁among
Inter
ulf
▁upgrad
▁lire
▁Switzerland
▁Vol
▁run
▁spread
union
Cho
▁Veg
▁fluid
▁explained
flush
▁context
▁devices
▁payload
LayoutParams
engen
▁sr
若
▁fuera
业
ま
▁proxy
зик
▁presentation
decl
宝
败
édia
گ
ather
ainer
▁framework
▁Santos
▁components
型
ência
').
▁ihm
Marker
▁Eur
aba
(*)
▁Clay
▁queries
▁takes
▁either
▁tor
▁sich
▁quindi
▁dah
▁Stein
bine
▁coffee
isher
▁attra
discussion
comment
▁Pas
▁Within
▁ev
▁mex
▁Krit
⥤
<0x3E>
YPE
▁ellos
стра
▁copies
▁dentro
tcp
Board
indi
越
▁constitu
лов
enk
öll
▁However
psum
dz
usement
▁войны
са
▁орган
▁opposed
▁composite
onCreate
System
▁valle
ives
ühle
▁least
icano
▁confusing
▁instinct
▁Sher
ǫ
▁@
▁sor
▁denied
adapter
▁estadounidense
cert
Hrsg
max
▁искус
ba
▁назна
ith
▁na
okrat
▁Review
▁observations
theta
▁release
▁randomly
▁typedef
Serializer
nas
▁ні
▁Kate
certain
amour
男
Diff
where
бле
во
alpha
▁striking
▁Campbell
oda
▁ASP
burgh
ן
▁Ind
▁Format
▁helped
▁URL
anged
raid
▁sout
HR
▁poł
▁component
▁este
▁ban
▁dismiss
▁Mut
▁reaching
帝
<0xAA>
▁Apache
pet
グ
▁Станов
▁Nak
inct
▁metal
enci
▁Cl
zony
cat
hook
▁referring
TE
Rec
oker
▁Butler
▁interess
▁besta
▁Clara
▁испол
keep
▁отно
▁buried
 
cnt
▁kir
ânt
untime
▁iteration
iken
sche
Password
чных
▁Rak
▁antes
▁również
erton
РСР
reducible
▁Stan
▁siècle
▁distance
▁XML
▁lance
▁compared
▁novembre
▁Male
▁квітня
ians
▁Bast
▁Russian
▁quadr
▁filters
ebook
▁;)
▁Lob
enth
▁Kör
▁custom
chan
.=
rightarrow
▁basis
▁Dor
▁Py
Why
▁behave
一
ⴰ
▁одного
кол
▁declare
▁tort
▁damit
▁recursion
tra
▁disag
AAAA
▁vij
▁Hmm
言
▁waited
)")
)}(
▁Body
yth
hai
ív
▁torn
One
▁Dark
山
▁discipl
кра
▁directly
▁у
▁я
▁fast
▁celle
break
aving
▁"#
terra
by
Ă
▁fri
oting
niejs
▁Après
▁cpu
ѣ
iling
no
arda
ouch
windows
▁notifications
cite
eton
TH
ε
▁machines
escape
▁ideas
▁ге
▁particul
ggi
▁inherited
▁condem
äng
ients
▁phrase
>;
▁bos
:\\
▁primeros
▁Florida
▁hombre
▁More
▁száz
▁Sl
router
▁monarch
tem
▁jav
▁également
▁Ž
▁Pope
此
▁efficiently
▁symbols
▁didnt
ufe
perty
vera
wohl
aran
▁lé
<0x88>
optim
▁appears
▁Å
structor
frac
▁Council
Linear
complex
▁пробле
ALL
▁Police
▁Пер
▁leader
▁flight
dc
▁Haut
そ
diff
heid
constructor
olta
▁MS
广
▁Wilhelm
▁Diet
▁ви
Cons
Loop
▁числе
测
▁музи
▁міста
embed
esc
atol
ropy
▁alive
▁pol
Tree
repeat
▁Marshall
vere
╩
▁sujet
▁sole
▁Specific
шення
在
▁listopada
asis
▁Cal
GV
$,
▁proc
sklär
▁duplicate
oups
cow
▁musical
▁higher
▁области
▁pie
▁js
▁деятель
does
▁Charlie
官
ennessee
▁Tommy
▁thumb
▁distint
▁Parad
▁SW
▁siehe
<0x4C>
▁init
▁Sil
rating
ла
▁jar
itting
▁Pass
▁Burn
▁anten
umption
▁Fore
▁materials
▁trov
jší
ючи
eler
cv
agraph
▁+=
<0x52>
▁second
▁Install
▁v
▁Chinese
bot
▁iterations
olo
▁npm
▁phot
▁Sin
<0x49>
▁actions
▁signs
▁Tage
▁effect
Sum
▁ainda
ʻ
ほ
▁platform
ième
▁Rica
marks
ior
▁wall
jQuery
▁све
rack
▁notes
▁dedicated
▁cada
vention
ike
▁explic
‏
sect
▁Carter
▁crypt
▁Arena
▁Andrea
▁permissions
key
ounded
'''
兵
▁PR
onio
out
encies
▁President
▁ram
Else
ネ
▁intend
ят
▁следу
┬
η
▁Jó
▁provincia
▁méd
нциклопеди
&#
view
You
ted
vé
▁notification
гии
▁Lauf
▁dátummal
High
▁людей
FM
▁tématu
▁CI
тися
▁Fern
▁continuous
M
()`,
itet
icum
ifik
False
prototype
ventory
▁фи
table
▁guerre
▁amplitude
▁magazine
▁pd
<0x71>
entic
▁solved
▁founded
▁Aug
туа
▁část
oss
▁connected
Endpoint
ätz
еру
@",
▁wür
ѝ
▁zweiten
▁success
▁sam
▁surprise
fatt
▁проф
▁todo
SESSION
▁warm
тиче
▁artific
▁instru
runner
▁eer
▁quattro
▁сент
▁Александ
keit
▁Seite
complete
▁influen
▁persones
▁persistent
▁rud
external
▁relev
▁submission
|^
▁Krieg
▁locations
▁little
idal
meister
▁born
rey
Draw
fail
▁composed
compile
▁padre
xxx
▁Bod
icted
ULT
▁partly
▁}
▁поли
▁pert
ponent
▁consecutive
▁inten
vironment
▁assumptions
olia
onial
▁overflow
▁flu
sert
rió
▁lloc
ништво
∪
▁Root
▁passion
▁сам
▁relac
ὁ
▁Архи
▁ning
▁continues
▁winning
',
gesamt
▁refactor
▁Joh
∂
▁Ka
ki
gebaut
ording
GE
▁ground
графи
esh
BE
glise
wer
▁trouve
▁ф
▁муж
▁statunit
ney
▁Alfonso
▁Phili
Indicator
▁premiers
▁Pseud
▁chef
rière
▁criminal
skog
▁Portuguese
vat
rup
▁Main
▁він
Sur
▁VALUES
▁Apost
▁pr
def
пня
▁Children
▁./
al
ldots
▁Leben
超
itionally
INIT
▁Nelson
▁appointment
联
▁дру
▁construction
▁Miller
ific
itime
▁\[\
▁chiam
`)
wrap
▁Jed
▁approved
Fl
double
ново
ждан
▁se
▁’
▁horizontal
函
▁они
▁pris
}^{-
▁legend
▁wsp
Ids
▁Хо
▁Guard
PRE
▁vesc
▁rules
exp
<0xD9>
▁maggio
沢
▁Febru
uate
▁damage
▁streets
ensoort
▁Solo
uren
amount
мож
▁Фе
▁pode
▁prest
fun
functions
▁services
▁absol
Je
息
▁account
jer
▁Wissenschaft
▁compens
ș
Export
必
▁profession
▁Staats
▁Olympedia
\,
▁había
▁layer
unft
ichts
▁duplicates
icos
▁territorial
▁wooden
alias
▁Rog
Op
}))
▁Esp
лиза
▁Avenue
iali
vider
pmatrix
lein
▁response
▁sv
▁claim
▁None
▁mock
exists
▁niem
}_{
▁Hamb
▁negro
Resource
▁juego
雄
▁respect
▁bor
▁DJ
▁varios
▁Conc
register
lag
Martin
▁onto
▁Ir
сут
comple
Fiddle
▁Edition
▁revert
▁devi
cre
▁Källor
{}
Christ
▁ő
▁recon
▁Following
rà
га
▁technique
estig
▁bras
▁etapa
нала
ش
ník
▁Spring
▁trailing
Ig
▁xml
无
ection
▁transform
face
dan
лении
bian
▁diag
▁Ро
▁truth
)));
mysqli
ový
dri
▁quietly
Fr
▁h
Java
▁""
▁și
▁lud
ل
MAN
▁Cor
join
▁Diego
▁[-
▁vorg
auté
▁Bitmap
▁func
érica
=[
▁municip
ász
▁Glen
var
<0xA6>
Data
▁brig
▁Kill
ität
▁busy
ство
Description
▁pounds
▁januari
▁members
enen
⊕
reb
yar
Scene
▁segment
▁remained
▁Hem
Ø
ivas
}^{\
št
vb
Stack
▁weak
bere
▁Кра
ignment
都
pag
▁Bra
bash
amps
span
ochastic
authentic
下
article
▁policy
шим
bon
▁loads
xter
▁lei
▁Shin
氏
▁volont
act
Case
}-\
ère
what
▁Art
▁operator
▁col
▁Sain
▁fort
▁unfold
장
West
oto
▁Fo
ant
▁manifold
▁Jin
ség
▁Multi
ิ
ions
▁copied
ร
ox
}}
Ch
lished
▁callback
▁Pay
▁siège
▁literary
▁");
adu
▁MAX
ieß
▁Harrison
osten
▁build
roe
হ
▁ihre
ды
▁apo
шого
ら
▁readonly
lan
eign
ione
PU
adesh
▁Building
▁low
▁décembre
illy
▁sphere
▁hell
▁király
▁бро
▁Taylor
▁Ker
heet
▁einges
▁detect
oust
▁preceding
▁Prize
▁exit
URL
▁tournament
Exp
omány
▁dram
▁ч
akespe
▁repla
▁Pul
▁arts
▁bits
▁Castle
▁Details
▁Selbst
amsung
∇
▁VIAF
ifferent
▁variation
▁світ
feed
意
တ
vas
Gesture
▁cat
values
▁nome
Qt
▁plate
▁containers
▁деся
▁opening
▁];
itie
actor
SON
▁expand
Parser
learning
▁foo
ACK
umber
Ac
▁thé
mals
▁Palace
▁pin
▁gathered
▁Rand
╗
▁fram
▁countries
▁mare
▁occupied
Events
▁Ch
▁экс
▁$(".
▁commercial
session
▁Leg
▁(+
▁stim
Style
urname
ския
▁gg
regon
▁Hon
▁Train
▁animals
▁мето
▁sche
▁Testament
▁returns
▁manif
uk
▁Kingdom
▁majority
▁character
ov
ismo
Google
▁th
adas
▁Mack
▁Kl
▁read
－
▁Era
añ
╬
дор
▁embar
▁signed
ables
vor
amy
(.*
▁install
зе
▁Part
़
▁Mig
▁reconst
cer
▁trova
ettings
tech
▁arithmetic
ovie
********
ts
<0x6F>
gruppe
▁link
▁spl
etch
▁Nr
▁baz
▁learn
▁reson
чке
▁aantal
▁пе
unal
oge
Exit
äischen
▁emer
▁рік
реди
▁origin
▁practical
ctrine
▁cleared
▁forth
▁seriously
▁relativ
▁Kevin
▁Stop
ikal
acji
python
atom
They
▁Go
iting
▁Speed
posta
▁serves
▁Ср
ului
days
▁поддер
бург
▁cri
ябре
<0xA1>
▁believe
urance
▁Selon
рёх
uale
assador
ّ
¾
▁wordt
▁cache
▁Hum
Tag
▁genom
inds
AR
▁radio
пад
▁sheets
▁tamb
▁IX
▁pract
▁curiosity
▁£
▁listed
▁loader
position
ituto
void
py
▁або
▁deliver
▁Bool
▁Direct
▁a
▁addresses
bur
▁использова
▁jego
êm
▁kön
▁octobre
queue
▁Circ
▁hardly
▁contents
ollar
hod
▁producing
anni
alo
achment
▁es
▁wore
▁map
nek
Sto
▁Ab
major
▁Environment
original
▁erreichte
▁stir
Mod
eries
▁dici
льта
сько
uther
▁hack
bing
▁ERROR
▁chron
▁zp
mil
▁routes
▁quiet
▁ersten
▁mine
▁topological
▁particles
ournal
▁Daw
rile
}),
nex
Nav
▁Ak
englisch
▁Associ
▁Vors
terne
▁Chair
▁jobs
▁unf
▁weapons
èg
▁story
▁applies
Κ
▁Mother
▁Div
apk
ja
▁otten
issement
rol
www
▁OF
▁esto
tout
▁Vall
))
▁allemand
▁town
нами
рист
្
丸
▁Notre
achi
zil
ingt
▁metros
จ
uclide
▁expression
üb
SSL
▁estimates
android
omena
▁free
opro
▁prix
▁Els
▁Site
源
tele
▁Bedeutung
▁__
▁Zach
▁Home
▁kor
▁Iron
▁Great
▁three
▁els
▁Por
pip
▁Č
▁pointer
Property
asons
▁classification
Box
▁Roma
rsg
rew
▁Library
tiny
ང
doc
mis
▁Louisiana
ods
Virtual
ח
.)
Hozzáférés
▁XX
ología
▁Richtung
▁arrested
ented
▁pip
▁ride
▁hus
▁manifest
▁signature
cam
▁SM
▁italiana
▁Sto
▁mixture
▁Academy
ラ
agn
▁moins
▁ال
érieure
uture
▁updating
oking
]{
▁Movie
]$,
ansen
▁March
▁Olímp
kol
цент
▁resto
▁Marian
▁verwendet
▁X
гне
▁sons
▁dazu
)}$
velop
Time
pol
▁robust
substr
▁password
▁std
▁Real
▁gez
▁[`
internal
▁пер
▁Gree
loyment
▁ihnen
oz
▁moon
▁Count
▁Sch
eded
▁Howard
▁dove
estro
val
westen
sef
▁César
▁pare
₆
ovy
ruption
▁greater
▁hills
ote
Language
ves
qquad
▁\[
▁listen
▁Castro
format
▁flask
=-
чина
區
ast
▁styles
助
ру
änner
ţ
Po
rypted
▁pia
▁answered
ában
▁eager
Container
---------+
▁Av
▁през
ymnas
izzazione
▁continu
odot
]))
ga
▁historical
undo
▁senior
▁published
▁Exp
ider
enten
пара
▁Украи
rac
▁Status
IE
개
pc
同
▁on
ך
▁Buck
Ar
required
ске
itä
▁pays
▁imper
pool
▁zoo
lą
▁scrit
irmingham
uls
lio
▁Cons
▁gather
eff
Si
\<^
▁nouvelles
ῖ
╌
▁besch
▁whenever
ifique
CTION
▁Zahl
▁cup
▁occup
▁bij
▁Load
▁servant
▁gauge
▁maximal
thing
but
making
chunk
ambigu
▁good
tp
lean
▁interact
▁transactions
return
▁felt
bitr
▁après
sto
▁lub
▁Campeonato
▁friendly
asset
 
▁Not
stellung
▁estab
▁remain
anda
▁Donald
ற
▁git
▁sept
▁деревня
▁tutto
▁Orleans
▁advers
▁?>
log
▁»,
▁aquest
лек
Rect
▁Konst
▁sequences
▁amazon
▁Year
▁northern
▁Items
lait
▁po
▁impro
wordpress
▁Film
▁periods
}}_{
▁fires
▁Event
pack
ody
pto
ₗ
▁inglese
▁latin
ifa
▁fourth
▁effectively
▁dich
▁networking
▁calciatore
▁navig
horizontal
мб
▁ling
maps
강
++)
▁peace
aly
ритор
ategor
▁scarc
▁moy
▁están
▁pouv
vari
▁Notices
alling
ots
Active
jection
▁Begriffsklär
▁clever
▁energy
ator
ci
▁viol
▁Central
MI
писан
▁sometimes
▁При
ISBN
idi
groupId
unit
▁obsc
▁Jen
мя
Information
▁violent
Fun
thesis
,%
▁download
▁task
▁youth
▁columns
▁inwon
iot
▁га
▁sacred
▁Character
Deleg
▁DO
⊗
▁Um
▁ak
cong
▁float
ould
▁present
hire
ty
писок
▁charts
aken
она
ements
▁telep
▁storm
▁Также
些
▁Tot
̪
NotFound
▁Kol
▁Rund
meisterschaft
idad
▁forma
wo
▁ras
correct
▁PMID
urt
Next
▁Twe
▁zde
my
yer
▁Hr
▁readily
木
Level
▁follows
auch
afka
▁армии
)}.
▁education
дена
cred
ха
theless
▁privileges
post
▁ва
▁grandes
▁Rolle
рова
▁Scroll
▁свобо
де
▁skup
▁typeof
ω
▁TV
局
▁objective
fif
ischen
용
▁Southern
▁имеет
MY
那
▁hosp
ו
▁fl
▁set
░
lin
▁polar
dagger
bildung
lane
▁nahe
spaces
őd
))`
Something
▁som
▁cruel
┴
▁zwei
▁капи
Vol
▁den
▁herself
stud
▁RAM
▁Ре
ais
〜
ielle
▁aqu
近
identity
▁modification
▁CR
▁vitt
####
▁spécial
based
token
MM
▁Marvel
▁derni
▁realize
▁JVM
▁advent
compos
onds
┼
LES
ئ
▁managed
▁még
▁Серг
▁genu
▁fal
▁elim
▁состоя
unique
▁elő
▁radi
frames
▁França
▁bla
▁marc
▁lac
▁initialize
伊
▁Bac
ex
▁Mitte
rees
▁hun
дели
ats
">
▁Belg
ній
inale
)_
oder
▁situ
elijk
▁substring
Rich
▁Heinrich
ASC
ана
Route
▁om
eno
Ţ
special
▁literally
▁Club
olt
▁führte
▁Unfortunately
Standard
仮
▁К
²).
연
▁such
▁Galerie
▁hunting
▁Engine
že
▁hundreds
‭
yal
allowed
asa
icans
▁turning
▁э
astern
▁fills
▁Klaus
▁throwing
▁gained
▁publications
[]
▁Alfred
▁центр
▁Article
ட
โ
▁Republic
Arr
Secret
黃
ente
▁bind
▁gros
▁Zug
▁Hell
▁effects
▁dez
▁Suppose
▁Record
process
▁loaded
ln
network
▁followed
▁rund
▁Sciences
▁las
▁Ал
ді
▁complete
▁Referências
issance
iar
▁states
▁populate
▁вос
▁verb
Note
LinearLayout
athan
▁manera
▁deg
▁schools
▁bat
ync
▁фе
▁stress
sey
▁Occ
user
Bool
▁ast
deck
▁Herr
▁Client
▁получи
тер
▁Polish
▁begin
▁rear
aders
igt
thes
Hold
▁invest
red
than
xi
ások
▁anchor
isa
▁dynam
ilers
includegraphics
hp
jo
<0x15>
▁binary
▁тран
ryption
фі
▁listview
▁dokument
▁Portug
▁if
过
▁vale
▁Pres
▁Aless
ake
^{-\
lass
▁Simon
мі
▁Double
▁wij
VP
▁Raw
гато
▁réseau
Ctrl
▁fuer
▁Wie
▁archive
uso
▁rozp
ins
PP
▁Хар
▁Pur
▁study
▁heads
lac
record
embl
ष
lov
ק
▁d
elo
▁exhibition
株
umer
property
sizeof
▁IC
▁*/
▁MTV
character
▁Reino
imore
gre
▁Youth
AM
äter
Inf
▁crít
base
▁mentre
▁checking
▁deployed
ház
▁liga
▁self
▁selenium
▁importing
napshot
ustration
▁utilisé
asser
▁turno
▁septiembre
());
▁February
▁personally
▁Group
▁Fland
nosti
语
▁Gate
▁складі
ethe
▁bod
isat
▁ле
бур
attro
▁Hog
▁subt
Union
▁Ver
С
▁Num
▁Cook
twitter
coded
▁hide
менталь
ffen
▁smart
ippi
▁ora
ichtet
▁ric
▁Gi
▁ases
▁Admin
ondo
▁Ox
▁description
elligence
лы
IndexPath
▁ip
\}$,
▁murder
}$-
▁Apol
▁Com
CES
▁role
lant
▁Stanley
increment
▁Dutch
▁version
cip
▁Hat
]);
▁seus
▁Бо
▁surrounding
sty
alty
▁cube
▁torraste
▁derivatives
glob
▁exempl
载
▁Hit
▁Cuba
="@
lou
态
▁тра
True
game
▁Society
anto
▁eerst
▁вклю
Val
▁clo
Trans
ロ
▁Curt
▁json
mathop
<0xD5>
▁galax
▁thank
▁pride
App
па
annes
▁ka
iert
>=
zten
Accessor
▁historia
▁Sic
▁Business
▁Ext
ві
▁Dol
]])
cules
▁Rost
▁-\
disambiguation
Where
▁Robinson
(\
▁amp
ник
()->
.),
ких
osa
▁Weblinks
▁Españ
Sing
zer
▁Virgin
▁turned
▁collections
Temp
▁professional
zent
▁is
bit
Β
managed
ruck
▁Mundial
eres
▁releases
输
▁Unternehmen
oemd
▁invån
市
org
oy
▁AJAX
▁pil
▁Garc
▁auxili
Wikispecies
VB
aru
Art
▁constit
UserName
ൾ
iec
LENGTH
ত
Double
amente
éma
▁roman
▁bow
▁rounded
‘
aint
empt
).
ita
bits
▁sf
▁nice
дян
▁prez
ymen
▁Douglas
писко
▁judgment
<0xBE>
Counter
ходи
pieler
oned
ин
arante
kazy
▁colon
▁%,
▁rein
<0x5E>
▁Anna
▁tried
ego
ény
omial
▁absolutely
▁Baker
▁comment
ʃ
≥
▁Audio
▁gemeente
Managed
Sequ
▁template
▁exerc
▁Play
▁Л
▁variant
▁newspaper
▁prefix
Ignore
▁incomplete
▁What
▁losses
▁card
▁perm
▁Österreich
▁ital
▁univers
▁probl
්
версите
jor
▁breaks
▁figure
ê
klär
▁duas
`.
음
▁Deutsche
▁expect
▁werden
▁Dak
них
innerHTML
š
En
alia
▁wonderful
▁prayer
▁Sr
льный
unter
cri
▁Bul
ポ
iti
▁висини
▁theatre
▁Small
▁combinations
ret
law
dek
gression
ueil
光
▁vorm
▁år
asure
tensor
▁Cla
▁chem
▁travaux
▁Award
▁международ
GROUP
rick
▁editing
▁Pok
buch
▁franc
▁inside
uerto
車
staat
Key
▁ered
▁nueva
▁дела
▁Geographic
ذ
▁fir
▁primeiro
▁ON
▁szerint
▁мене
▁human
ushed
Go
▁useless
▁Navigation
кро
idenote
▁vid
▁Unter
render
ေ
▁Orient
ст
▁austral
▁Rosa
魔
Date
▁incons
▁réalisé
▁flush
nov
▁appreciate
adj
ského
<0x20>
▁amer
▁familie
addClass
ל
das
[
▁stehen
bey
（
usepackage
▁controvers
▁сред
som
undial
izo
▁Kr
ミ
▁ча
ə
nie
▁deutsch
'"
ʎ
求
▁HMS
matches
odia
▁Fa
▁Terra
rap
▁Activity
▁params
▁saves
▁remarked
osci
▁ос
로
▁wire
гов
sorted
Interceptor
äg
▁sink
ped
iat
▁citizens
▁adult
▁Поль
▁total
њ
▁Hoff
▁inv
▁jako
▁bg
Rob
³
▁translated
texttt
▁}{
▁strike
Copy
▁ambigu
▁rh
Es
cipe
istiche
▁Maven
tim
▁cancel
▁Dem
Bre
тали
jos
▁проце
次
▁proced
▁Нор
▁Tony
▁первы
ní
binom
ition
▁valu
▁+\
chas
Json
═
▁repository
Contents
▁Tras
txt
▁Да
!=
▁szeptember
ADD
▁grep
drag
uras
▁станови
adores
рь
pages
▁sought
tol
▁inferior
▁combatt
▁Gene
▁przew
▁none
▁MVC
▁===
eta
▁entre
▁live
▁carry
play
▁advis
local
ühr
▁teacher
▁Aud
aries
enser
<0x9D>
▁hello
conda
кта
une
▁wie
▁atte
▁См
▁vic
▁FALSE
Fact
redu
▁призна
▁pierw
▁dialect
▁rolled
он
▁commander
zin
l
andal
ERROR
▁covered
▁Isa
Ä
oment
र
gn
▁altres
▁bec
To
▁commence
▁opinion
▁matching
▁joins
▁"+
▁Bruno
uzz
ouss
zeichnis
▁setup
ôle
<0x40>
қ
Ex
форма
фек
▁domain
候
ert
▁threaten
`;
▁placing
տ
ply
▁памя
▁tang
▁Catal
▁larg
▁gradu
стор
▁alone
▁caratter
ड
▁pou
<0xB0>
▁Hel
▁Philip
▁vocals
إ
▁Ge
▁wont
ieg
su
PE
berry
▁bio
▁apply
▁directeur
ју
▁meta
▁paragraph
avano
ASH
`-
▁hill
▁Gray
▁Pool
▁ace
项
anterie
▁DES
▁журна
▁González
▁ша
▁anticip
sl
▁computational
ierz
Wait
▁помо
▁okrę
▁Using
umn
alement
▁littérature
prüng
Ս
ног
љашње
▁consumer
介
▁Ке
▁свою
▁Confeder
ierung
▁Mär
▁'';
▁welcome
utsch
▁weird
obil
ских
ygon
ľ
▁pi
arguments
dem
ardin
▁alarm
▁роман
▁bata
texte
▁CBS
ง
被
▁permanent
▁voc
▁solar
Ord
TS
▁withdraw
▁eng
lia
lop
inson
^^
blog
▁conditional
▁Alc
▁light
lied
▁amely
.@
▁stranger
▁дву
▁treated
▁Види
▁bitmap
▁die
▁him
gems
Pal
')->
apor
anh
▁Neil
ख
aggreg
iner
▁rod
▁tale
▁sop
▁чолові
▁працю
amerikanischer
▁Вар
чень
▁(-
DE
asures
▁decor
▁ISSN
nten
▁Musical
▁cuenta
ografie
▁Wort
osoph
▁probabil
arring
▁datab
:=
Ô
▁Imp
ällor
▁invent
нії
▁Down
▁Wis
▁pipe
mark
Ca
▁pygame
▁UEFA
▁hearts
subsubsection
▁Property
▁испо
торы
sets
▁мор
concat
jourd
▁mí
▁phen
ors
antin
▁Cow
현
▁zar
народ
▁Landkreis
▁book
▁line
▁rout
.,
ude
▁running
alls
hidden
statement
cmp
APP
▁ay
inst
▁estat
ا
▁seeing
▁assess
älle
▁Tru
▁verse
▁videa
▁Ј
coming
त
mutable
IME
▁esper
'
▁succeeded
rable
lig
Controller
▁ble
▁Lux
▁ши
oor
ydro
rayed
▁назва
perimental
mans
▁Gest
▁Terr
Ang
src
iende
▁runat
iones
gal
▁sad
kie
勝
Dict
▁interpretation
ÿ
▁Lemma
▁Dra
▁orden
▁Show
▁specifying
uest
▁valor
▁группы
▁корпу
General
aties
▁kar
▁для
volution
rank
▁Geb
▁gminy
▁Bez
▁Bomb
▁nab
▁Grab
▁militar
▁Christoph
iments
▁україн
▁gol
▁hitting
dbc
▁rugby
▁emot
шь
▁Wait
▁wine
rz
▁других
▁building
▁ту
World
▁cerca
▁COM
▁Break
тре
▁surpr
▁Zeitung
hostname
aho
▁G
▁Area
▁Application
oline
▁ac
ператор
bla
▁holder
▁collection
▁Rio
▁ella
agnostic
fault
elif
▁région
▁maar
placeholder
▁Sydney
▁Struct
ette
Middle
▁ibn
▁Soviet
la
icket
▁Лу
▁travail
ceae
▁aufgrund
ciente
▁neat
▁compart
Sa
▁Adel
ダ
clo
∅
▁filesystem
etal
▁Jord
łoż
▁definite
▁Amerika
ziale
époque
Syntax
▁Christmas
▁fatal
▁Nick
▁Braun
▁Fair
ovis
▁design
riage
зидент
èse
installed
цы
▁f
▁rocks
ús
▁információ
▁Convention
▁een
ismiss
PH
video
▁inserted
supported
▁Classification
ież
人
▁drove
▁numero
ush
▁UK
▁collaboration
vanced
yme
mathbb
▁We
ɯ
▁convent
bild
▁Vitt
кий
▁tempor
env
▁purely
ject
writing
▁apresent
▁refused
avoir
oded
isc
▁nederbörd
▁execut
examples
@
ppel
rose
▁Foundation
gemein
▁beginner
▁Verm
▁Road
▁gener
▁occasions
▁chamber
​
▁key
▁competition
jq
gly
",
мой
▁aussi
п
ok
▁sec
▁}
urope
▁Wikip
▁kör
archiviato
▁Arten
▁nommé
odu
igny
track
▁neighborhood
ӏ
do
ë
▁Wy
▁тан
quote
자
▁vagy
вши
izers
пису
f
ної
▁records
▁MAR
▁cal
▁First
▁Lem
ért
▁тру
resize
inal
▁ang
▁altro
▁Lot
++
▁miejs
pse
▁significa
▁semantic
յ
iellement
▁erw
▁predict
▁vue
comb
▁lowest
krie
äger
▁Yu
Items
▁Nederlandse
arium
▁hypoth
▁Nau

ху
rupted
жил
▁Senate
ouse
update
çois
▁pers
Med
▁"<
jou
oby
cr
▁Bibliografía
Press
▁sorting
mee
oki
▁stad
▁Thor
▁speaker
Dom
Side
▁'',
▁Роб
▁Maurice
X
▁()
▁Cent
ilo
ribute
▁mass
ali
▁before
▁Кар
▁easily
▁Jones
▁Valent
▁seems
▁likely
zor
▁Parameter
isecond
真
occup
chte
▁Edmund
▁he
icago
exports
▁Bro
▁inaug
Prefix
leqslant
▁svol
ae
esper
vey
▁occurr
▁mur
ën
支
▁pó
▁Carol
▁diese
hov
樹
embro
que
unning
†
▁meist
Replace
▁Sum
▁looping
▁peri
▁mint
▁Batt
+(
лище
▁Ori
ʁ
syn
Original
▁Knight
essen
orie
quarters
rict
▁Notes
▁tears
▁š
anth
root
▁stro
▁incorrectly
▁перед
adoop
ande
▁RUN
♥
sible
ビ
▁vall
jekt
phe
PAR
samples
▁titolo
TW
ბ
▁Poly
▁lives
▁group
▁Май
▁Crown
ヤ
▁adds
seite
mer
▁correspond
▁seconda
apat
▁listened
▁Liens
Cloud
ientras
CONFIG
▁troops
▁Syntax
▁Jar
▁rare
PDF
▁wid
èce
лл
ibration
▁did
▁wind
▁países
▁paper
same
▁rug
▁sequence
ám
▁ville
▁Reserve
éra
▁vie
▁kunst
subseteq
вом
▁performed
arp
▁circumstances
▁Massachusetts
conne
▁marry
▁Ха
astro
▁white
Env
шее
▁Hudson
tm
▁vär
▁Schl
▁tin
raham
▁jou
Verlag
рите
▁Canadian
Failed
ifies
▁Representatives
oracle
▁searching
лее
▁constantly
▁запа
дон
▁Last
ClickListener
et
▁Franz
▁Guide
▁comte
OL
▁React
Subject
▁solic
▁Rout
année
Pixel
uals
hen
▁Bl
▁quand
movie
▁först
▁Graf
▁luglio
Arch
imes
rl
▁brought
▁время
пис
px
</
oli
▁give
▁représent
óp
unix
▁Bibliografia
▁angle
▁Christian
);`
City
fest
FAULT
Over
▁wild
циональ
▁Vers
▁Way
▁número
▁dere
▁cases
Europe
▁season
▁Ever
auff
UITableView
▁Parent
opher
ères
▁AN
uits
AST
ī
▁controlled
"
▁form
▁exper
▁mediante
hrte
pher
Le
▁answer
▁fruit
gat
▁Elect
exe
▁almost
▁ц
lege
ü
ommen
scri
▁Welt
▁neighbourhood
▁avril
defined
acz
atori
▁GL
}_
▁située
▁uninstall
▁LIMIT
▁Australia
▁apenas
??
hor
etc
Pred
▁rende
oun
▁Native
▁inne
▁ihrem
SERVER
方
achim
▁Cette
▁Müller
osed
▁SF
▁tr
▁eind
▁drag
천
▁pointing
Focus
YY
}}$.
▁Sau
ハ
▁artists
єю
iao
ellt
▁дивизи
rails
▁Hockey
▁extremely
▁Mes
▁millimeter
▁Empire
▁infinity
▁polit
▁Formula
▁}`
▁воен
▁Jugend
▁steel
ggreg
ники
нию
▁dér
▁Су
ały
ises
нер
▁handed
ἐ
▁диа
vspace
рож
▁neigh
▁security
▁compar
Private
▁bibli
▁lavor
Parameters
▁happiness
▁econom
▁Források
lder
▁Cob
ędzy
▁multimedia
ме
▁Cos
come
▁Jahrh
sens
▁cinema
▁spirits
▁dip
▁führ
ʐ
▁usage
yll
cro
▁menor
binding
nection
▁combine
▁Women
단
▁TypeError
▁míst
▁God
%'
▁Дру
▁Airlines
will
ributes
charge
▁Unidos
Bra
<0xC4>
event
fficiale
の
▁transmission
▁comer
resh
▁Britann
inks
hm
▁Джерела
▁configuration
▁Ritter
ttp
▁writes
Mapper
▁вне
ypes
<0xCE>
stone
▁toen
▁germ
▁Rece
▁Eli
▁article
racle
▁О
▁agosto
▁:
сто
framework
▁що
cia
▁Argentina
antine
getElementsBy
▁especially
guez
▁Janu
listen
olis
▁conducted
azz
▁sols
▁ii
äd
▁offic
▁заня
ungen
outer
Smith
¨
Boot
SG
▁nos
servable
陈
▁Rad
lies
▁cours
▁Externa
▁inwoners
▁Television
>';
▁тео
ў
ings
아
öv
▁Liber
▁pag
▁есть
▁avant
▁Moz
▁že
▁bezeichnet
▁świ
essor
▁reputation
▁solemn
▁qualified
▁par
OUT
тирова
atis
▁east
▁Bund
Џ
weg
rep
▁enter
сты
mvc
▁Bin
▁Про
▁amateur
attributes
▁associate
▁Object
väst
▁compr
▁Hash
▁notamment
focus
▁Stat
ч
▁wrapper
▁google
navbar
香
▁internet
▁dz
<%=
▁encuentra
▁curve
▁Note
▁vy
paths
ович
▁Ear
пи
Folder
tes
▁sight
▁prevents
▁enumerate
unos
▁inject
WHERE
▁deux
▁iter
▁phase
▁OK
▁кан
abil
▁sott
▁polygon
COMP
Will
▁distinct
iono
Print
▁mars
▁adopted
isl
->
АН
colog
chsel
▁той
▁nin
▁East
▁edific
Cont
▁vous
▁Ca
aal
gate
・
phan
▁quant
▁autom
Mill
ccion
▁performance
▁mol
▁church
bool
ogram
▁Рес
▁нау
mond
▁detail
▁concentr
▁viel
▁target
noc
▁quien
Launch
▁batal
▁Scala
▁State
alleng
anc
▁toggle
▁multiplication
▁divs
▁Colors
WRITE
示
▁segunda
ˈ
▁rough
▁Liverpool
▁moż
iseconds
mina
Arg
▁komm
df
▁interpreted
}_\
▁bus
▁capable
▁tub
chod
animate
▁Hamburg
нал
iese
₁
ensuremath
▁Cle
▁Basically
ctu
×
<>
ocracy
SU
finite
direction
▁vel
▁seen
▁Hof
▁роди
жу
antic
伝
▁noviembre
▁daily
edit
steller
shell
▁pubblic
▁instanti
▁rural
▁canvas
▁cord
onyme
▁customers
ri
nc
<0x9B>
▁публи
▁tools
▁Герма
title
▁JavaScript
ninger
tools
?
▁compon
DidLoad
▁backing
▁site
stage
▁worry
atisf
▁$("
SH
風
irl
▁Below
▁importantes
generate
}-
▁Transfermarkt
▁Verwalt
Admin
▁voix
oved
vis
수
ner
▁applications
▁Alf
▁constru
▁volt
▁afin
▁milieu
vir
amilton
▁importante
PS
▁describes
)](
∗
eder
▁gra
▁rap
amos
amerikan
▁financial
бере
▁lassen
▁bur
▁foreign
▁verg
Forms
Her
schule
cribed
▁ich
▁że
roke
istan
uez
▁Mayor
▁monument
▁en
dup
hoff
▁Sz
▁Jes
,[
▁Henry
▁kingdom
uteur
okes
▁-(
Den
▁wo
ження
▁получил
Seq
гля
вя
▁sitt
<0x57>
.$
▁Men
sv
▁полу
▁formatted
▁dél
ціональ
▁imprison
CV
itas
▁пу
▁killed
▁spot
▁Evans
▁country
Set
▁Descri
▁kv
фере
estaur
▁pat
afé
▁apro
▁Morris
▁pra
uning
提
津
▁splendid
news
ография
cida
zero
▁configured
▁fu
▁совет
▁sede
codes
▁maintained
幸
▁totally
▁petit
▁GET
ências
riz
▁Riemann
▁etc
▁isolated
рес
▁formats
segu
même
▁bitter
▁bör
▁изу
▁struct
▁Airl
inu
▁Governor
ях
▁Limited
▁directories
▁entering
illaume
со
sample
EXT
ację
empor
▁Comm
ception
博
ichter
▁Files
Leg
Observer
▁fut
▁calcio
abase
▁gal
ờ
world
▁executes
▁vert
▁automatically
iesz
tex
anned
▁flutter
▁Ess
니
<0xA8>
чі
▁spole
ynast
▁Steven
▁borrow
ческая
}/
▁Kirchen
дра
▁inst
<0x63>
▁П
Er
▁arguments
oni
▁obvious
▁trait
▁складу
▁Guer
stop
▁моло
▁себя
мат
Func
Univers
▁havet
sem
<0xBF>
ensk
▁bereits
istica
)=\
▁shortcut
▁principale
▁whites
geh
сор
▁assign
▁Québec
▁chat
.*;
▁classical
▁où
ten
▁Party
Start
ensions
▁info
▁phil
▁rename
▁AUT
▁Kurz
metric
▁los
▁conf
▁gen
и
\}
交
▁avoid
▁Gian
▁twitter
▁Zeit
▁android
▁pot
▁коман
Turn
rown
Fi
▁exceptions
образ
▁Born
zA
ScrollView
izz
tat
▁pure
legal
rote
%"
▁пя
associ
▁контра
▁Sister
스
密
望
RS
▁Tob
▁tres
▁table
▁declarations
ace
çon
符
ably
▁nau
stre
prepare
illi
.}
▁Frank
ährend
вор
adors
▁pav
ligen
▁Dan
▁pover
▁insect
▁negative
开
▁Gemeins
▁Bek
Proc
send
itsch
∀
▁receive
▁`-
▁who
▁française
▁Char
▁oc
folge
▁Gand
amental
▁Petersburg
се
▁oldest
<0x72>
り
▁certainly
▁VBA
▁Gaussian
▁pressing
▁Sach
ue
▁Git
▁OCLC
ზ
itions
▁août
Drag
▁(!
▁Pra
");
Just
phys
Duration
%%%%%%%%
età
▁Through
▁sz
Owner
▁azure
▁wy
▁där
arqu
▁Islam
▁éditions
▁measured
▁Giov
▁echter
ал
ções
▁frequently
▁Think
тар
▁Pascal
▁STR
▁bl
ITH
،
▁exclus
ո
▁variations
▁Cole
umbled
EMA
ytu
▁тем
▁implements
▁Lorenzo
)=
ква
itar
inek
▁detailed
▁authorities
भ
ос
▁coordinates
Load
▁learned
▁Ша
Convert
љи
vision
Ма
ordinates
▁svo
▁opere
-+
tk
agan
▁Fitz
▁приня
agin
▁Республики
▁variable
rule
▁Silva
irect
▁gau
▁FOR
▁Container
leased
▁gradient
}}^
▁leaves
nt
SION
▁zoals
▁LE
▁quan
▁bean
acht
SF
▁Ши
Package
nius
▁Read
▁Sü
▁Loop
anden
anka
овий
▁thereby
▁sin
Produ
▁debido
---
igent
▁Cz
▁comprom
▁Wood
abei
Msg
amar
iom
▁Free
dfrac
si
fg
ogene
▁mighty
auss
illed
թ
/{
ographie
▁Summer
userId
▁Lang
▁mom
leq
ederbörd
contre
▁ref
击
bind
häng
cot
▁convergence
▁linked
▁ју
放
▁Durant
gh
▁Ressources
▁assuming
гро
▁eeuw
▁abgerufen
▁броја
ruit
тель
EF
epsilon
▁Elis
▁muse
lapsed
▁issued
▁easier
▁areas
"])
aw
▁Fort
▁counts
集
▁improvement
ゼ
▁canton
吉
▁Villa
ják
▁suggests
▁escaped
тва
▁град
▁Three
image
女
▁</
iciones
phantom
変
▁англий
▁width
Identity
▁attribute
▁Воло
anska
WM
redirect
▁Shang
▁Straße
getElementById
▁Rég
▁too
▁Italy
▁Wars
multiple
Changes
Maybe
▁Anfang
▁vrij
atel
▁signals
▁Населення
сов
▁Bat
ghan
▁despite
▁corps
changed
▁intern
।
dr
▁Mand
markt
▁declared
abled
Registry
дела
ベ
県
reven
Back
TD
▁Marina
▁}}
їв
ССР
lient
ében
▁Вер
▁nas
▁happen
▁satisfy
catch
ственный
oured
▁Además
▁stability
ń
▁estimate
</s>
Here
▁estable
▁concerning
Loc
▁seiner
omer
▁Roger
URI
▁bill
▁convenient
▁embedding
▁Lost
▁степени
alse
зов
▁toolbar
▁ned
▁conjug
eties
▁droit
▁normal
▁jan
▁episodes
concurrent

了
ah
▁gle
dk
▁Jam
▁domestic
œ
▁át
programming
▁Censo
initialize
▁filme
▁Card
Could
▁birds
▁Friday
Metadata
Come
ión
}|
дя
за
cache
_{-
Problem
нима
复
▁brackets
"?>
debug
uerdo
▁Luc
▁Ut
▁Rect
custom
ნ
草
ỹ
km
▁obt
stable
▁Vas
▁concerned
href
]->
▁households
▁Tennis
v
Options
▁voy
▁Dieu
▁abbre
▁Prim
kań
arma
lbl
мо
erea
▁unw
▁Ś
▁'{
보
▁solid
ским
lywood
imiento
▁общи
▁wood
▁unlikely
seed
花
隆
▁extr
ígen
lare
▁aware
▁burn
▁officers
Point
боль
▁Corpor
▁res
▁hardware
rog
▁Dup
score
[-
anel
zález
Da
|}{
ワ
dp
▁tram
վ
▁dust
▁uniqu
ἀ
iers
Movie
uetooth
μ
▁calls
月
▁сайті
▁титу
lijk
▁acres
▁nörd
▁elle
▁bath
merk
▁Cont
Z
▁javafx
▁восто
▁tongue
▁dem
consulté
▁amen
▁Ál
▁app
seg
▁this
▁Laurent
▁forum
font
eman
negative
▁reprodu
enix
▁wx
ények
elin
▁tight
ars
▁cached
ír
uffle
▁begins
ltre
▁sw
▁Ч
▁Lie
▁Docker
CLC
lation
▁zona
pla
▁Schmidt
▁Stre
▁fashion
xis
ske
▁item
▁zelf
▁container
▁vessel
▁markers
▁lying
)$,
▁math
▁gründ
▁mant
▁dif
");
loyd
ided
itt
▁into
▁também
▁Ira
▁probably
▁flag
'\
![
▁DAT
ooth
▁burst
▁ży
mu
WE
▁Pos
▁фрон
assign
Fig
▁которы
▁loc
og
Place
&&
рал
example
▁Tw
itung
reu
▁recording
▁invas
ohl
▁attached
func
iframe
▁Oklahoma
<0x74>
öl
▁segu
▁repeat
ヒ
形
▁Hur
▁nieuwe
▁Till
нения
▁capture
EG
▁Según
▁Beaut
▁répond
agem
▁Eliz
▁Us
▁comfortable
▁liqu
▁Copy
합
aft
▁Raum
▁tarde
▁enabled
▁Hero
pgf
dal
Thanks
head
▁Kant
bage
巴
▁thing
▁asym
▁SE
iques
▁imported
э
lichen
▁#!/
otte
▁воло
ales
▁humans
may
▁зада
▁Pierre
essions
In
▁shares
useum
useppe
ശ
▁Item
vert
athers
▁Star
Arm
uela
▁spielte
UK
▁Ric
▁idea
▁suit
addle
▁Kru
場
Media
▁Arist
ios
▁Li
Can
▁ordinary
imet
ym
▁Quellen
▁Years
ɫ
ד
TY
wa
▁toward
.*
▁complicated
lect
▁nahm
configure
▁Filter
Upload
▁septembre
ване
agnet
ță
▁periodic
▁tracking
▁Bet
▁remote
▁piłkar
▁visto
ي
фа
ников
▁sug
▁Ez
umeric
ческого
ultan
Mount
▁réalis
html
<0x99>
▁gone
]]
▁Au
▁allem
ise
cies
▁tit
aggio
RI
зо
خ
▁Bu
ocr
Framework
▁'./
ája
nant
വ
ifen
Core
ionales
scription
frique
DEF
▁numbers
...)
▁Planet
side
▁sull
▁Після
its
　
аль
▁сайт
▁beide
▁président
iks
▁ре
ми
izontal
▁Initialize
▁gravit
POST
▁Image
▁бо
▁dash
сса
bah
▁Jersey
äh
uo
witz
化
▁LINQ
▁Dean
<0xEA>
▁imped
▁Iowa
▁League
fon
স
▁guilty
selector
{[
▁Ernst
▁Distribution
LECT
▁hu
▁ś
ymn
Models
해
stack
лект
mediate
▁shook
"),
▁niemieck
products
stringify
▁Senior
шло
elt
▁minimum
▁bran
MB
▁traces
black
md
~~
estr
▁éx
▁du
▁tard
▁död
▁museum
י
▁Optional
ouvert
▁Singap
▁Win
▁vá
пу
ată
altern
▁largo
▁Support
NER
▁pian
xsl
▁'/
elter
▁grudnia
oin
fang
▁Anne
istische
слен
▁darkness
ográfica
ël
▁fo
▁Carl
▁Wel
▁floor
dll
▁!==
▁indicated
calendar
▁rarely
endency
▁Mot
▁expectation
ornal
proto
▁сви
已
gerufen
ersion
Bad
式
▁wrap
avait
▁револю
通
▁mountain
▁Android
▁Koch
▁sto
有
▁posted
bose
▁Async
alog
▁…
▁bon
plex
▁drivers
▁Straßen
▁находи
▁Dí
▁To
{"
secret
得
John
ісля
▁entered
Feed
▁Ful
mbH
aler
▁diversos
▁интер
▁cors
▁flows
▁erneut
ai
▁soldiers
▁enum
▁----
▁cm
▁lips
▁Gal
▁helpful
Headers
▁Music
▁czas
師
trigger
bundle
▁fresh
control
yellow
▁theorem
▁wetenschapp
▁prep
▁їх
；
▁cidade
▁Athletics
▁Drag
tta
▁vl
ea
ický
『
完
▁usually
ҡ
erer
шения
▁cust
§
yml
▁Tab
Repos
gabe
း
▁Laura
PI
▁Dest
Amount
▁royale
っ
ци
▁socket
▁Kab
box
▁Andy
▁domin
Batch
ener
▁ford
▁tower
inflate
ilty
▁stata
▁AR
baar
▁saf
▁ricon
▁possibilities
d
▁Este
Look
▁anybody
▁Button
▁Männer
/
rypto
inois
▁civ
▁przez
▁Domin
▁Help
�
бер
▁verd
бір
▁Miami
itié
phr
SBN
ски
▁ill
rea
▁Laz
review
▁pleasant
▁виде
rg
▁Gren
iből
unker
да
▁<<
キ
▁Statist
version
▁Follow
ivent
▁Erik
▁mientras
▁dont
▁flux
▁".
onces
вез
▁concert
▁beach
▁mil
oly
▁би
▁squares
▁Games
▁technical
▁rol
▁Header
▁grands
≤
江
ede
▁sir
▁Ü
▁moderne
▁strik
▁sono
▁knew
hed
▁Gebäude
▁Ст
▁Mon
selves
тей
пет
▁req
organisation
cdnjs
▁Ново
▁photograph
✿
anchor
▁courage
▁Democr
▁dom
▁captain
▁dozen
▁reign
ays
бой
▁pov
zahl
▁kwiet
cyk
ází
▁papers
▁newsp
▁income
lett
▁to
Lond
▁needed
უ
ahlen
axy
icians
TABLE
floor
▁competed
▁Bill
▁tricky
▁conversion
▁trigger
▁стали
▁Höhe
▁kül
▁theoretical
▁TABLE
▁appel
▁conte
▁Plot
間
▁dall
▁eq
▁tradu
site
heb
mt
▁isol
▁свои
▁Mat
ܝ
▁Rahmen
Sp
▁Ort
▁wł
▁одним
domain
ered
laration
ITable
▁Sak
▁Referencias
▁san
Bo
Bounds
ей
=${
рон
▁helps
▁testing
▁option
▁Begin
hind
▁teach
▁политиче
▁OR
▁VII
ła
umed
nes
▁stör
landa
міні
leben
▁Harm
▁Tax
▁Sen
▁categorie
aes
/).
Ð
▁Mid
ella
▁mathemat
▁wyd
cler
▁significance
adv
window
lower
ced
▁différentes
▁Archive
▁fick
wers
▁collected
Generator
ção
ра
▁near
ownik
▁Kaz
Errors
▁ess
DOC
▁Y
▁está
▁rode
mx
▁resta
▁объ
▁€
▁shame
▁извест
▁Milan
▁al
▁Linux
nett
And
▁kitchen
▁binnen
Screen
▁FA
<0x02>
Met
▁salt
▁Cannot
avam
ุ
▁tod
ction
▁Spe
pur
▁channels
▁neu
ViewModel
toString
▁plan
▁arr
▁Lomb
▁Mean
Har
▁equation
▁gel
GET
onden
ienia
▁”
ComboBox
Worker
ത
▁lid
<0x0C>
pret
▁event
column
esz
▁stern
sa
ighed
/.
endencia
种
anno
essed
every
▁uploaded
▁nello
▁logging
lookup
▁apt
gebracht
▁vot
▁роках
▁protein
▁term
west
эн
ível
聖
▁В
вест
vidia
psilon
▁normally
current
<0x9F>
▁Theater
▁Copa
Parameter
▁circular
orrow
▁fund
leur
iz
agt
ultado
▁prime
▁$("#
▁filled
aste
лась
ailable
от
миче
▁этого
▁geg
lahoma
▁anymore
▁Also
irm
mass
▁temporada
▁extern
ulate
ást
▁guide
ologique
▁potentially
▁strip
▁things
▁With
▁away
<0x03>
▁valley
leading
▁Nav
▁muit
್
▁Pred
▁Kö
▁disp
▁GROUP
▁через
▁projet
NaN
acing
⸮
'=>
div
▁Uruguay
▁officials
เ
▁Port
▁pdf
▁Der
osition
▁communication
▁исследова
▁Bind
▁indu
ṣ
ศ
▁Saf
▁Norway
▁args
ône
▁sh
▁proof
borg
ettes
▁Arag
▁воз
či
▁justify
▁EN
hs
▁SUM
Ok
▁tutorial
▁Colleg
Module
▁Lis
offset
ень
öh
kern
ählt
blah
▁contrib
▁Settings
pal
ი
izer
▁walk
▁sei
▁mainten
▁wc
intrag
 
crement
worth
▁Democratic
ције
▁heard
▁äl
▁висо
convert
▁")
zh
▁голов
▁compiled
atu
▁weap
summary
▁reset
services
▁Walter
бри
naire
astic
▁finger
▁eerste
Nodes
ABC
__
▁contin
Dis
▁eig
▁espec
wh
▁DB
Collections
▁failed
▁°
阿
features
ifting
时
enant
▁accordingly
▁diagonal
▁další
ention
▁fö
▁blieb
atter
▁cura
▁LL
sigma
▁Station
eras
▁Ny
yect
mill
amazon
password
▁could
Mag
▁traffic
heck
▁lecture
▁mois
▁stone
".
▁sen
▁programs
alet
зна
django
orry
fold
▁très
▁каче
▁Roy
athon
Event
₂
sep
error
Inject
▁ingles
▁packages
Name
react
▁assumption
▁prima
▁finish
▁dead
Char
▁Congress
мини
dit
fetch
aturday
<0x1C>
▁tam
<0x07>
▁trim
мет
▁kin
ibr
urent
▁(=
▁membres
fs
▁demol
Service
UD
▁tém
emit
Post
▁harm
équ
▁guidance
▁stroke
kn
▁Gilbert
war
▁Bayer
iwers
ixon
▁foi
ação
response
▁Resource
DC
const
owner
▁Lamb
▁Resources
conf
NE
▁papa
▁inoltre
▁Mediabestanden
ervation
▁районе
▁Naj
",
airs
ibt
▁Ja
▁Sozial
▁Emer
▁fled
zess
ctions
older
▁consequence
▁bisher
ws
encia
▁chr
db
▁chart
sprech
索
niej
▁thousands
▁vertices
▁ng
ico
Generic
▁упо
ља
▁waar
ná
▁closely
▁Transfer
▁öff
▁aff
☆
▁portug
Internal
warning
▁Données
ã
cca
Reg
▁recom
веде
peat
▁Vé
aining
▁glance
▁https
atre
▁NOT
til
Per
▁ipsum
▁external
▁feature
▁parent
▁Оте
▁Silver
▁troubles
▁fonts
▁significant
olar
用
▁morph
▁Company
▁resort
▁Ком
▁Ky
▁Guerre
▁IEnumerable
▁моря
も
▁mundo
umann
Good
plus
老
anti
pit
nal
ových
则
Auth
ampio
ätte
▁Від
ery
▁kost
▁instances
▁defeated
▁Kath
nez
Use
$)
wię
▁fig
ixel
▁offset
edly
дов
▁депута
'),
▁upp
▁Andreas
STRING
▁farm
▁problema
eh
ke
cie
▁pog
▁Thé
стри
ну
ит
iclopedia
術
anner
osz
▁always
▁Some
▁folk
▁Route
▁maior
▁connecting
)!
itzen
▁(`
▁ident
▁fellow
▁dies
aught
ounced
Paint
success
▁speaking
rai
▁Ama
▁pity
▁generation
▁Исто
▁junto
emo
▁нор
сия
.):
mk
avid
CESS
渡
stal
near
radius
▁seconde
itional
dating
▁dog
▁î
▁drop
▁Hern
lists
▁situation
office
▁ве
чка
▁[_
appendChild
▁replacing
▁%
undes
icken
▁drum
մ
iy
配
▁così
хи
ане
▁Trade
Proof
airo
macro
UR
▁из
icker
faces
▁време
▁smoke
ge
▁пор
ships
wards
usalem
▁io
▁mad
▁contro
▁Military
▁entry
▁cli
▁möglich
ckså
▁Pir
ceil
hanced
素
Enum
▁equality
tz
▁Mod
▁years
Inner
Des
▁administr
<0x95>
▁negli
▁calm
сли
rant
itzerland
▁Pak
├
▁scan
▁tal
ess
Async
▁Classic
▁Zeitschrift
▁Sym
ode
film
ensa
prog
編
irth
psi
ara
▁mascul
▁ra
Æ
implementation
▁raz
season
▁famous
▁Championships
▁parish
<0x47>
.<
фр
▁Navar
▁Dioc
를
strap
▁winter
▁'$
張
kotlin
layer
प
▁Gru
▁AA
▁brings
▁ihrer
▁Oxford
▁Wor
sum
urer
▁Ek
▁Singapore
к
block
录
ții
Sheet
substring
wor
∨
▁pit
▁Mas
▁kra
SSION
▁quello
skiej
Ł
明
▁Š
▁dort
▁Austral
▁modified
▁N
uka
▁Auth
▁House
▁Kom
▁rather
▁peer
▁Power
▁replied
▁hö
▁apost
▁о
▁пси
Intern
жи
switch
▁identity
▁Perú
▁bias
sender
icación
▁techniques
▁mention
▁sorrow
▁Publish
aient
▁lattice
▁medical
▁Advanced
support
▁kre
Products
ações
▁für
▁mètres
javax
▁Montr
⁹
⊆
▁ty
zm
▁menu
▁Ehe
計
▁WITH
acional
▁supposed
▁persone
student
(`
▁shift
dev
ified
▁pilot
curr
▁sword
legend
setText
▁warn
łą
aven
▁Engineering
▁"\<
role
gg
▁request
▁six
▁combination
multicol
architecture
▁estruct
town
▁ł
extra
*.
Vorlage
▁Hey
Ḫ
调
aws
▁prev
cx
east
getInstance
ar
make
▁pens
▁Mario
▁син
்
sed
▁Áng
▁figured
▁files
▁previous
▁joined
Ə
▁does
▁intensity
lic
▁Err
▁assured
▁"*
▁Unity
▁att
역
uler
cluding
without
▁Their
▁modific
ць
onia
Center
▁Atl
äll
don
▁County
▁vig
orgen
▁Edit
ett
Identifier
▁reserve
ː
éré
호
▁служ
▁swe
▁hatten
Pager
を
可
wij
udent
<0x3C>
unc
UP
▁Hence
----------
▁‘
▁fra
▁Billboard
ł
)$
▁corrected
=%
aska
▁pouvoir
▁че
{-
ції
▁Wol
▁strat
é
community
▁дости
Infl
▁Publishing
▁havia
David
服
▁Nur
▁вы
Input
▁functions
▁newer
^{-
fil
▁estaven
▁Adv
uss
▁Zu
han
▁остан
▁Eric
unque
8
太
conde
▁Jos
▁terminal
+"
PHP
Car
▁Ц
▁aos
▁minus
atern
aces
ikor
▁philosoph
ule
pipe
}}{\
лові
▁trees
▁substant
nete
▁be
▁Cam
▁Trump
▁Hed
ö
▁wol
▁told
▁Sol
▁plugins
▁Méd
partial
▁missed
▁zijn
▁суще
▁Places
▁personn
▁stor
akte
MQ
staw
▁concentration
利
▁Между
ases
▁Davis
▁capit
zed
clus
▁Slo
Xml
▁Ellen
▁defect
animation
ünd
urus
▁фло
with
prüft
▁deck
溪
▁Other
periment
yaml
▁HO
orn
▁`%
iders
▁applying
▁tur
▁visible
▁beim
▁ná
▁pseudo
▁streams
▁COL
atrice
itable
▁fixes
nest
▁ließ
▁funkc
selenium
▁hadn
Choice
Pre
!--
▁Цент
▁losing
sites
?,
ách
▁uz
пра
znik
▁showing
ikel
オ
single
ñ
ĉ
▁forgotten
แ
▁ud
▁typing
▁Syn
▁його
LED
▁ele
Library
Move
▁fac
ROOT
Lu
oshi
▁има
нен
invoke
▁assigned
▁Bilder
........
▁работал
▁Develop
ユ
▁coast
scar
▁studying
▁realiz
visor
heel
▁nah
А
▁Torre
onne
▁ciutat
Anal
行
wehr
▁nor
ческий
▁servlet
Mail
▁jquery
hoz
▁Portugal
ignon
▁Dro
▁struck
exec
▁retained
ел
inking
▁erfolg
бен
▁Projekt
性
ható
▁dawn
▁lu
▁puzz
▁HTML
anche
会
atile
▁Sign
▁тя
velope
▁non
osen
ubre
▁bou
ugust
▁wur
▁лютого
▁Module
▁It
ference
▁lady
▁stable
opus
സ
▁comparison
▁rum
webpack
▁carrying
opter
大
▁†
ouverneur
ho
anon
▁Tourn
egu
▁Ost
ieri
▁sympath
iser
egr
▁basically
▁FROM
forsch
Lib
"\
▁hist
▁Так
石
▁cop
▁object
▁length
▁живело
cedes
▁необ
き
ros
▁assigning
▁мар
▁ksi
園
ma
ismus
▁зв
▁packet
▁regards
▁Stadt
clipse
estre
fah
▁spaces
ส
▁many
▁Send
▁EM
idence
▁XIXe
▁MD
▁Frid
▁varmaste
)^{-
ď
indu
切
▁LP
▁awarded
Pad
▁étant
▁Mind
subfigure
▁starts
▁ik
▁RO
▁bringing
▁exponential
line
▁Bootstrap
ierte
პ
▁строи
更
imo
▁what
asion
▁Val
▁Vis
▁Ej
▁Nap
imm
cipl
▁nac
plate
▁System
ines
▁stretch
▁És

▁comercial
eten
華
th
▁ids
▁Vict
Let
ému
iada
事
kehr
'];
ycz
shire
▁Komm
GP
▁Broadcast
ichi
▁pent
adem
icate
ation
▁Title
▁dependencies
▁Sports
ными
▁Barbara
ToList
riority
ome
bibli
▁stones
dog
▁sehen
ancement
doFilter
▁studies
вич
ката
̂
▁Gesellschaft
▁През
Storage
кая
▁Luther
gui
▁wieś
▁autour
ernel
▁Werner
▁forced
cs
тури
☺
haft
Tu
▁ray
rés
▁Spieler
кви
know
▁picture
ZygoteInit
▁sold
▁prisoner
▁Box
▁chunk
стем
aha
Ind
▁Value
anos
▁Fly
rangle
▁positive
ør
▁\;
▁Nice
▁часто
ine
▁UN
jdbc
▁altern
цена
obe
готов
▁Ukrain
▁Vo
▁dispos
▁servir
Cap
▁grass
▁repro
▁sehr
▁oft
▁analysis
npm
parseInt
今
ray
;
ilog
ida
▁bol
▁Lar
▁Desp
▁gegründet
olean
▁Санкт
▁legs
▁wob
apan
▁uniformly
arks
▁Его
rut
▁keyword
▁Kam
▁angles
▁Wonder
▁Stanis
esi
▁доро
▁that
▁нај
▁behav
▁się
бов
uca
▁Buddh
▁сотруд
коло
destroy
Controls
bl
ρ
▁Commun
▁Vladimir
patch
▁constructor
▁références
▁ausge
---+
unn
DK
▁terminate
My
▁$(
emb
otr
▁majd
ť
Accept
▁fav
izin
▁następ
ature
▁inference
agog
iostream
未
align
Limit
▁Robert
▁hosts
rias
▁Similar
查
ман
▁geomet
▁französischen
кін
▁modes
ynomial
▁дол
software
▁renamed
▁stronger
Machine
ometric
▁Queen
▁politician
▁Київ
eken
Dev
mouth
▁был
▁throws
▁Lu
▁whatever
berta
▁робо
notes
▁seis
▁первый
▁rez
▁service
¡
▁debug
▁stayed
uru
ข
▁Period
othy
▁efter
▁Hö
Hz
DATA
гре
OPT
CollectionView
▁Contempor
zug
▁impression
▁initialization
▁metres
▁Sec
ART
Mal
ough
▁zw
区
year
▁shapes
▁Kong
CH
▁Cs
▁Rom
fois
agram
▁internally
요
td
▁divent
Brain
ografi
Meta
▁beneath
gesellschaft
▁dens
▁beskre
vy
строй
ifie
ภ
▁муніципалі
▁ve
▁Institution
FFFF
idget
Ne
▁radius
Contract
▁color
▁Colonel
▁Athlet
agle
▁LOG
saved
>",
ète
▁allowing
▁introdu
▁Snow
*`
рито
burgo
▁gent
onn
町
annotation
▁Ra
▁тех
imum
omega
net
tersuch
어
▁Dou
バ
utt
▁conclusion
▁determine
-,
▁rit
▁eff
▁choices
lob
▁orders
▁successo
▁library
кры
ове
AI
ardon
äu
ift
▁także
ļ
▁drive
MenuItem
▁curv
▁Kirch
Capt
zeichnung
▁linea
▁actress
▁entitled
har
чко
LA
門
▁junio
▁Cart
▁todas
▁sketch
i
▁Ос
rott
utlich
dj
river
▁confusion
▁receiver
iced
:#
▁истории
▁orch
▁ultimately
▁rig
▁Hawai
сь
().
▁warning
▁відо
▁instantly
▁objects
▁interested
▁sitting
ół
▁tandis
▁Нью

或
▁global
attung
](#
▁IO
▁accus
AVA
▁Bond
▁Pub
▁однако
▁Kloster
▁Imper
ceptor
▁anything
plement
amo
utto
UND
▁Paolo
▁City
▁sost
ो
▁suppress
▁Zel
▁bool
▁having
uti
শ
▁sleep
ham
▁volta
▁tudi
▁Norman
ña
Delete
onnes
ache
ilt
ol
tero
uing
appro
<0x2E>
Three
▁von
▁olymp
▁installed
▁frames
lera
⊥
▁tell
ve
iled
Sample
ists
▁notion
None
▁',
Em
▁Son
▁below
lg
▁своего
Sidenote
▁Jahren
ónica
ók
▁Fed
ocy
▁против
ེ
▁ді
▁Berliner
▁Daten
少
urop
itaine
▁Lan
Pressed
ormal
ND
▁чо
▁pushing
▁Gemeinden
hd
试
▁ensemble
$_
terior
▁degli
rem
subject
▁Assert
IES
ễ
▁conversation
▁држа
▁Ve
prevent
more
▁ogni
▁initWith
engu
вели
lst
lyph
removeClass
達
etu
▁Affairs
▁unity
ія
Ď
Ÿ
效
ina
jal
▁formatting
▁passer
▁París
▁Historic
▁коли
▁Bang
тка
▁forms
ple
▁ví
но
▁Manager
群
▁пове
пло
▁localhost
▁station
▁Indep
▁националь
Mar
▁CG
シ
▁sends
comot
⟶
icon
重
tre
▁artifact
▁Quebec
▁verso
▁lorsque
▁Пре
<0x7E>
▁Report
▁publicada
格
weet
dex
create
kernel
(@"
ñas
Bob
▁chrome
▁Township
▁startup
▁дея
▁Sql
\",
XT
店
<0x3D>
▁Gemeinde
▁notice
svg
▁Convert
gry
Conne
▁Росси
▁tel
Authorization
▁sale
Shell
fur
▁possibil
ム
楽
两
影
▁evangel
▁appropriate
▁&=
▁practice
▁Gruppe
▁similarity
▁elsewhere
พ
▁Indust
zeg
▁rep
▁nuc
Write
마
▁punk
radio
▁loyal
▁<
azu
▁Warszawa
▁Сан
▁lock
ii
)^
▁Login
▁regime
▁morning
▁інших
▁Cha
▁gegen
Ա
ees
ff
▁quite
Join
дже
▁Nor
▁turns
hi
ників
ría
▁broadcast
▁cable
temps
▁abstra
▁listening
▁deput
▁fis
▁міс
ゆ
▁Run
mozilla
▁stations
▁pentru
▁Констан
FALSE
aus
▁рус
ryty
▁regret
▁Sw
rium
▁vm
цо
ide
▁computers
under
▁Start
▁uns
▁sb
▁mer
~$\
▁replacement
fade
▁verify
omy
▁ju
▁tables
▁Dub
osto
▁Ball
▁fais
▁ing
▁parl
anza
▁menos
▁wrześ
け
▁finite
rę
▁compress
▁hacia
ieur
other
▁named
▁că
▁bishop
▁Москва
▁grad
}$.
▁DDR
▁operation
▁equivalent
Ã
ister
发
▁Rein
▁spent
▁Berlin
▁которая
▁Ni
uck
łod
ƒ
▁Radio
É
️
▁ост
dated
VIS
▁bra
adamente
▁уже
Sl
LP
why
▁prior
)\,
тором
paragraph
▁gauche
agement
▁internationale
▁demonstrated
▁включа
eltemperaturen
▁Ent
▁має
ociación
▁am
▁A
SD
▁också
javascript
▁fame
▁Feuer
jon
Connection
▁Ste
="${
▁finns
▁власти
▁rom
ET
FT
▁excited
▁Geg
‬
▁attacks
▁Го
ROW
▁protagonista
▁Пав
▁дет
mys
holds
▁Unit
wr
▁csv
▁xcode
ClassName
▁województ
▁fost
ershell
лі
▁fifty
▁Peter
▁fault
▁pied
▁enthus
▁tradicional
▁spawn
ϕ
ifest
▁${\
gov
eller
estion
▁sample
rim
.~
▁afraid
▁fitting
ackage
▁satisfied
▁Clark
ulpt
dat
▁grab
▁droite
田
Account
▁help
uve
▁Temple
▁actor
▁Sometimes
▁сре
Autres
▁temple
왕
▁Book
▁Über
IDE
emia
((
available
▁yards
▁Flash
▁odd
leg
▁growth
▁enf
▁Express
▁Secret
job
дного
▁children
▁tot
uba
▁bis
eszt
▁sov
▁Bern
▁denomin
reason
▁concept
▁Min
otto
设
orus
Console
▁спи
▁над
kil
ками
▁/\
क
▁printing
▁постро
▁migli
USA
▁több
▁contemporary
pressed
▁compl
▁Frame
bullet
)-\
вей
▁це
cion
▁<%=
▁feet
▁prompt
▁Collection
▁Hand
awk
impl
▁pir
¬
▁Linear
utes
▁elect
export
bru
▁Un
▁flying
▁casi
orage
▁bands
▁vend
▁свя
プ
▁álbum
▁modify
▁beta
▁prominent
flug
▁titled
▁prolong
}}=
submit
▁woman
CT
▁од
ród
▁fade
▁Justice
▁Official
ヨ
arc
...,
ni
▁examples
ア
▁chanson
ail
▁Qu
État
1
▁остров
щен
▁essentially
tembre
atherine
▁před
▁these
fried
Ο
cano
▁\]
▁jam
ermann
ître
FR
porte
▁unter
dbo
▁donner
прия
odo
Node
KEY
▁mayo
icole
▁fres
лася
eared
▁dia
ником
▁hor
▁relationship
Top
\.
的
ues
La
▁Meyer
asts
ulse
specific
▁Ohio
--"
ivi
reg
гли
▁hang
▁restore
door
▁denotes
▁bapt
ware
▁e
▁Liga
aniu
щі
▁mostra
▁require
▁`{
▁github
▁meille
ème
ores
▁вій
▁applic
▁nost
мер
лён
xelles
θ
▁автомо
▁trat
▁show
}_{\
▁ingår
Project
Т
▁draw
enc
чної
owo
动
otal
▁ord
▁Obviously
So
detail
エ
Institut
▁recorded
jär
▁fighting
player
Param
▁aim
esto
▁gentleman
▁landet
▁rest
▁Со
unch
ebol
▁była
Item
emark
schutz
ент
▁conserv
virti
ген
▁tradition
ires
▁comenz
▁behaviour
ból
▁скла
Debug
eks
կ
▁approach
政
üt
▁adaptation
$
ically
ciones
▁посе
▁équipes
▁nou
ḩ
▁Newton
়
▁Indian
▁edificio
▁think
лина
<0x13>
▁mask
result
awa
iii
jin
amer
▁called
▁MR
▁znaj
▁trou
▁Ross
▁compatible
▁czerw
▁gcc
▁executive
▁Чем
▁kom
ját
▁Gun
▁participants
▁"${
▁svě
tbl
urd
▁image
▁injection
etzt
▁reward
▁Lond
demic
▁greatest
▁ново
▁Two
▁Die
Ґ
▁Figure
▁vision
▁Гу
▁left
▁Mo
▁glass
ilen
▁inserting
▁unit
útbol
▁suffered
zia
▁enjoyed
陽
)}
▁concluded
obar
▁Executive
▁ner
▁The
▁moth
▁Remember
ning
▁rent
ulty
▁selection
▁області
}(
gment
▁stat
▁zich
▁Books
okat
▁hr
CASE
}{|
stats
▁Zusammen
utorial
▁stycznia
letter
LOB
▁Clement
Encoding
ocs
▁Queensland
▁convey
▁Territ
ften
▁feels
▁образ
▁г
ffect
?)
Hello
ués
Report
▁diesem
цион
▁primit
Е
uses
erva
âte
▁лет
▁take
▁Lear
bibliothek
ême
▁ordin
AD
▁perfectly
▁mondo
signal
▁forb
▁Ти
obj
▁agli
ucci
front
▁livre
▁sqlite
LO
-}
interface
▁tér
=`
fony
ське
ély
▁powst
⁠
▁approximately
urch
現
▁conflicts
me
ქ
▁Rem
▁Lac
locale
Sk
<0x05>
▁aus
ardo
ibile
Sito
▁zaw
ath
▁чемпиона
->{
▁launch
▁тре
▁ved
identifier
ụ
▁водо
▁Error
▁Jur
▁announ
stand
▁одна
▁details
▁Wright
▁един
▁Institut
発
reib
бра
CTYPE
arbeit
▁hopes
▁New
,$
)&
▁agricult
Jack
▁bru
▁Dis
▁Squadron
ôme
clic
▁emit
HL
aneous
▁suo
Server
odn
rieben
▁encode
▁major
‡
▁Ist
▁Corporation
▁колле
CF
▁grupo
produ
▁Francisco
fri
▁invari
▁Reform
▁Wu
ura
千
▁röm
▁others
▁SH
▁src
▁strength
essa
▁років
рин
▁Epis
átum
boards
章
▁use
mate
▁oraz
>
▁Gran
▁lies
▁später
tain
zeich
▁долж
¿
▁labels
▁Each
idx
▁recht
╣
▁Christ
▁informed
enson
▁nebo
ต
̥
▁Wagner
▁number
)/
SI
▁signal
▁released
back
atro
▁Og
лн
▁safely
▁обу
▁principe
▁commands
пон
━
▁extending
äufig
NI
ité
messages
▁арти
izon
▁pione
▁lean
▁fleet
▁jap
▁zna
ври
====
ource
bc
editor
ps
▁быть
▁scoring
Front
COUNT
его
ந
~~~~
►
ull
talet
▁properties
Comm
INE
▁videos
▁соответ
▁forget
▁spirit
notation
▁exterior
ɨ
▁demselben
vt
ńskiego
▁Einzeln
жан
▁you
zerw
▁много
ometimes
▁después
,'
bn
▁Julian
▁части
сно
▁акаде
ふ
▁returned
▁І
▁рос
earance
▁cic
Match
роз
▁grave
navigation
▁diversi
▁rang
▁mismo
▁GmbH
olf
бира
gren
zna
《
inos
▁groupe
ounce
GO
▁enemy
▁lyr
Put
▁Sob
▁Don
▁desarrollo
▁news
▁Wahl
ζ
вших
<0xE2>
══
white
▁laid
itations
ན
▁based
▁included
▁ž
▁walked
packages
hour
ppers
ended
▁Dragon
Fn
▁flow
▁cur
▁Option
sheets
▁држави
▁río
B
▁Peru
▁Caval
▁reaches
▁declar
▁"{
▁выше
▁häufig
▁directed
Page
Connect
▁couple
▁days
prime
marker
▁greatly
ppe
wort
sett
▁Kompon
schau
chant
お
▁partici
▁independently
ști
▁predicted
Il
Music
İ
etten
▁phone
▁sera
▁characteristic
▁are
oped
▁Ville
yci
▁roof
▁Milit
▁Biographie
▁wenn
њу
ondissement
▁Element
ample
burg
рови
middle
▁Weltkrie
▁externes
rec
▁crow
▁▁▁▁▁▁▁▁▁
▁Mouse
xsd
▁badly
lah
▁éd
▁chief
▁seinem
基
▁Christians
▁equals
▁(/
repo
▁tender
▁Sund
cita
▁нап
▁so
番
▁accuracy
▁stay
▁Span
▁mel
obs
gro
elle
▁Alle
ulture
▁père
▁otras
ferred
Nil
▁литера
▁Switch
▁Erd
▁za
按
!.
▁assemb
aya
▁De
▁layers
▁Аль
rel
▁Amy
stackexchange
▁ease
omas
▁calculating
▁Scottish
▁Liver
▁Ruby
RESS
▁Capt
▁лі
▁storia
▁night
ictionary
▁Bür
Sql
ű
ší
Args
ever
▁до
▁Ри
Expand
▁Gall
TV
▁дере
<0x5A>
umerate
▁Khan
▁Description
▁Sold
ought
▁Ask
▁divor
фор
▁appointed
Mutable
cape
ansk
bled
▁Bos
▁attention
énd
fér
▁Ва
дів
UE
▁musica
▁ancest
▁head
▁channel
ArrayList
▁Broadway
lv
▁walking
▁Plus
现
▁Fe
▁reserved
Bus
sil
Pod
Cla
Γ

CCESS
ifecycle
Ass
▁indices
▁Akt
▁Лю
istant
▁ese
Tw
arg
éri
ubuntu
▁implement
▁micro
fert
лог
usz
▁extensions
▁Where
Progress
t
cup
▁biz
▁dan
▁kann
layers
lessly
Record
qué
▁Trying
▁fla
▁moved
▁Es
▁Ни
Dist
▁thee
говор
▁Collect
▁heading
ucha
▁rad
unicí
body
ENT
▁legacy
▁post
ша
ności
▁Север
▁longitud
widet
emor
▁error
▁handle
cdots
▁accomp
▁puesto
▁gang
▁{
STATE
▁incorrect
прав
▁мини
▁heart
lain
▁Est
neo
ktionen
Reset
pping
▁Stu
▁frame
▁julio
rys
▁насеља
ens
▁Sib
arsi
▁Islands
yna
▁evol
Enable
upper
:'
тв
amma
▁mysqli
▁Met
Interface
▁suddenly
igue
▁пара
▁porta
direct
▁graf
▁beskrevs
子
urz
Dan
sz
ent
▁bý
▁cha
<0x7D>
ánchez
oh
erk
issent
ând
Python
▁aren
PER
ський
▁seizoen
ソ
▁pos
boldsymbol
lor
▁ferm
▁sli
▁["
▁tensor
нитель
▁famiglia
І
ова
library
ural
▁spir
▁logic
Person
Mer
▁tong
anja
▁fémin
▁nuevo
legraph
rivate
meck
àt
jax
▁feedback
=
printf
▁Phys
jure
▁imagination
able
▁simulations
▁anxious
ſ
ström
母
reet
▁Background
lande
▁став
▁OS
kov
чик
▁Conference
ran
▁match
▁Gener
▁any
▁region
ateien
▁follow
▁stood
▁LCCN
▁fusion
▁Day
▁GPU
▁holes
▁href
▁kommt
漢
état
▁Afr
▁transm
ecause
relative
▁lieutenant
<0x12>
▁sent
compatible
▁grown
▁Mundo
ward
▁Nil
ophe
цима
▁Cav
jus
შ
▁debugger
▁Scanner
▁яких
▁chip
:--
inding
зько
▁loading
▁frequent
▁stream
relation
▁covering
▁habitants
▁grace
▁%>
g
▁probability
Switch
▁brown
one
▁argent
quia
фици
▁versch
▁scar
yman
▁Ax
▁('
ometry
▁Universidad
东
IS
▁everything
为
ienen
國
▁Нау
▁между
▁dernier
Struct
▁Lanc
▁jud
▁Psych
lade
elles
${
Jan
ných
ils
▁populated
▁produce
need
▁font
▁Reb
inx
▁Пів
▁дерев
ított
▁aged
IR
▁Kenn
▁customer
▁Bü
Author
▁Botan
ються
▁About
prom
⊂
Tex
ду
isf
▁neglect
вана
dawn
ственно
▁sezon
driver
atial
▁ciel
▁chance
ват
<0x7F>
':'
results
parts
ne
▁separ
ictures
ROP
params
aman
▁logged
▁automatic
istischen
▁Mich
endance
CN
▁appeal
unt
▁Jose
▁spell
aded
▁embedded
ția
ὲ
alt
▁dimension
▁burning
itmap
ht
str
▁Cell
avel
)?
achusetts
▁Compar
sf
sing
Pi
▁Attribute
心
▁some
▁Alternatively
ULL
주
▁`(
ety
▁Eu
▁développement
▁Senator
▁retir
▁oko
▁Inc
illeurs
innen
▁thor
Bitmap
▁Britannica
▁gradually
▁konnten
ис
inity
jas
▁order
scriptsize
Price
nn
ше
▁marg
▁qu
таль
▁Arr
▁страны
▁el
шо
▁бі
oint
▁gelang
▁Ken
▁treat
leases
никами
styles
ccess
▁Schweizer
▁span
lands
▁Legisl
▁myth
▁govern
ого
▁Kop
board
▁dod
good
▁tart
▁Sho
▁Zak
NR
▁января
ichtung
application
uid
▁rá
Ö
▁Cert
ńska
pp
halt
▁Institute
▁contribution
→
▁уни
ż
▁weit
dimensional
Constants
▁Hibernate
▁DEFAULT
▁opinions
to
▁ani
im
▁tema
▁przy
▁distributions
▁fase
skap
acks
▁Вели
▁Jul
<0x93>
▁XI
kirche
▁encrypted
▁Self
▁cod
▁última
▁advantages
}")
ै
unicip
康
<0x87>
▁same
ppo
▁eredetiből
צ
ografía
Material
▁откры
▁Mathemat
▁Auch
currency
aver
ɛ
ajo
opt
payment
▁Ash
iw
▁hans
Τ
Well
пре
Navigation
priv
▁macro
▁comuna
▁yard
▁len
▁groups
CODE
▁Michael
▁weil
▁silence
▁Bras
▁Platform
бо
▁DLL
▁triggered
ү
anted
unya
▁modifying
▁requ
avia
▁consent
▁costitu
attle
That
ITE
▁Fish
▁elimin
ició
ктив
ming
ién
▁Church
▁NY
▁substitution
▁themselves
MAX
▁jeho
ло
▁pix
aks
she
blo
▁Nied
▁Soul
énario
Alpha
▁Tournament
▁ends
зах
grad
▁gruppo
▁respond
ֹ
arning
ậ
egn
lique
irs
▁efficiency
▁exhaust
▁Eth
ança
haupt
Add
Http
▁Response
▁zip
▁partition
inaire
▁Minor
▁всех
includes
Psi
<0xA5>
▁Marcus
▁допо
TX
ῶ
хів
知
غ
▁использу
▁gla
▁decided
report
▁current
▁tracks
%.
▁Jahrhunderts
:
▁Trace
▁Spiel
Д
Vari
indust
▁Profile
▁procedure
hou
▁Teams
▁Fam
лимпи
called
▁comedy
▁Pr
▁Wien
▁%{
▁ufficiale
▁>=
Face
▁спо
üller
ibli
ilis
▁disappoint
拉
▁choice
iszt
Multimedia
▁tijd
▁viv
▁provided
▁skin
<0xA0>
▁built
▁precis
▁perl
sin
▁Buc
iera
ób
▁fünf
▁perf
▁palace
▁Barb
Protocol
▁mov
ingo
▁mou
тов
▁o
▁начале
▁Flow
<0x69>
ibly
▁problems
џ
▁folg
▁apr
>[
▁política
Symbol
idae
▁bearing
의
▁britannique
▁Никола
вля
▁gef
uling
▁Imperial
apest
▁writers
▁chapter
▁Serial
dirname
▁consisted
▁blo
▁face
ewrite
▁систем
▁fan
ispiel
rado
▁Gh
ʂ
ilder
▁gewählt
▁wię
▁органі
ɔ
▁lange
▁коми
▁:=
▁spite
▁father
inas
là
▁Hay
▁buff
laz
▁rising
▁peu
Executor
sr
▁væ
aum
▁outras
▁inher
▁row
▁demonstr
].[
▁find
ве
colo
▁ISBN
oggle
web
▁hen
▁Madonna
▁neighbor
▁nine
-)
▁Orchestra
▁meas
▁Far
+)
去
▁Community
shop
▁destac
▁expecting
ís
ರ
wise
▁Puerto
▁Cloud
calc
pf
<=
ями
ἱ
▁Zealand
imat
▁полі
lapse
▁torneo
ті
▁marked
cul
▁По
▁Tri
▁"'
▁Mus
▁sake
imper
auto
め
<0xB8>
▁Jo
▁wel
▁hour
)[
iformes
ution
▁social
▁Las
Usage
▁attract
mes
▁bottom
<0xFF>
azioni
▁Houston
lire
▁пові
ć
lection
▁satisfies
▁sick
▁Gebiet
▁innov
liver
pandas
▁SSL
ream
▁października
ponse
Font
eduler
cios
>::
▁Щ
▁ratio
clk
▁Википеди
ár
▁Comple
ionen
▁decis
uth
<0x61>
▁relay
▁functionality
▁off
ellett
åk
ipt
▁proport
returns
try
ischof
▁asi
▁bil
Ко
종
建
ств
▁Мар
▁sched
jk
nav
olph
Esp
▁upper
▁Cher
▁INT
▁pier
▁especie
▁Date
cala
▁fetch
▁generates
▁bazie
▁soft
лага
legt
▁Melbourne
▁Per
▁Dynamic
ített
zt
▁equally
eqn
▁Reich
,\,
\)
тики
eri
入
▁sedan
œuvre
pository
▁administ
▁нов
▁occur
▁Carlos
äche
approx
sourceforge
▁push
▁intellect
▁SELECT
burger
▁roz
их
Overflow
▁Historia
▁bash
Who
▁lambda
▁approaches
▁Fach
▁jeune
onomy
bei
emann
Recogn
▁осу
▁benefits
▁website
▁nom
IB
grand
▁Lied
();
------+
ilde
prit
йн
▁города
▁avaient
▁clim
▁Kinder
▁Better
▁Units
▁contre
PORT
▁`_
ња
neur
Vis
▁Bulgar
TF
▁Millionen
া
ingu
▁Ó
▁et
▁était
кон
anstalt
▁back
▁Mul
:[
être
[[
д
ʰ
цій
akt
mande
▁intellectual
lyn
▁stick
▁configure
ɣ
▁information
a
▁Tell
▁заме
▁mix
▁Santi
▁това
лемен
ської
чних
▁reject
Bu
▁Mos
▁results
▁tyl
оні
▁Japan
▁Nothing
GN
uario
▁leak
<0xE6>
Asset
ulk
natural
▁colleg
▁Dios
ouc
Non
བ
hal
▁Sup
▁Raj
▁спе
TYPE
▁Enc
ingham
▁lookup
дро
▁Creek
ە
్
AtIndexPath
▁depend
iet
Icon
▁poet
▁Kraft
▁Studien
원
▁allows
▁Come
▁nodes
&=
▁artist
stan
▁grasp
▁až
Hom
▁honest
▁pec
C
ŏ
计
▁'''
ragma
▁attended
ædia
▁cuatro
▁minor
▁bud
▁неско
omi
▁Cris
ensure
beeld
▁nil
▁appearance
ti
▁rör
ственных
AE
▁Dur
▁act
шу
’
JECT
▁rapide
Real
▁бор
ского
▁outline
issions
hé
ánt
inde
▁Map
mission
ualmente
caught
вен
്
atever
ary
▁twice
Pro
▁graphs
▁close
ywna
▁presso
₇
度
ာ
▁demand
▁evidence
▁editor
▁Dy
ене
▁Maps
ória
▁installation
boot
▁fed
''
▁Глав
чного
▁Alban
▁Отече
▁Kultur
▁мож
sleep
вые
▁Test
ival
app
▁Make
▁филь
Many
▁keeps
▁музы
▁belief
该
struct
▁Logger
▁went
▁belonged
reshold
▁Lima
▁markup
▁Sy
NL
▁person
▁во
▁verw
ġ
Handler
öt
▁those
▁Hen
.:
▁Regarding
ix
▁inn
▁"$
inals
▁repeating
ർ
▁От
EB
▁Palmarès
ό
▁già
▁monitoring
▁search
mathscr
▁redu
giv
power
nik
ools
rw
initely
▁regul
º
▁oltre
ants
▁fmt
▁tijdens
▁encourag
decode
▁Philadelphia
na
▁sentiment
▁danger
▁mest
WORD
aires
eqref
quit
▁marqu
▁Geoff
ńskiej
▁Syst
res
▁partie
▁pow
lles
nement
?(
Peter
<0x59>
▁gain
▁buildings
▁engineering
무
▁company
nap
kiem
▁Чер
▁hockey
annel
ranch
▁Guerra
тому
tables
▁gebru
▁Try
eth
lauf
ford
▁Pietro
▁gover
ží
üg
eor
▁Euro
шин
outube
eteor
▁України
▁Harr
▁dio
gun
▁Is
▁Matthew
▁appropri
eping
emy
▁Crow
▁Gabriel
▁curios
▁tweede
connected
ste
▁orn
▁dioc
keeper
Users
Prim
▁parfois
нологи
▁[[
▁годов
urger
jest
Н
▁tätig
ザ
\":
Border
nect
▁polity
▁avo
▁Francia
iful
ح
hspace
)\
▁dém
▁cardinal
ській
oning
⋅
ivid
incipal
ugo
▁cs
ans
▁городе
Gest
▁november
Oct
▁Preis
▁din
▁tran
excel
ię
blast
ϊ
▁geld
Comput
▁(*
▁approxim
▁ook
▁Dez
▁marine
▁THEN
▁становника
oken
mathchar
▁PDF
▁festiv
▁Eins
а
▁poste
▁considering
SDK
sole
^-
Cond
↓
▁Rudolf
obile
linear
ност
▁Horn
▁Lip
▁región
▁inter
▁Ry
Œ
▁доку
▁У
ential
▁пла
HI
▁both
问
ags
als
Bbb
rc
▁emphas
▁vern
им
▁desarroll
mot
▁verlor
spring
▁deviation
▁sup
ieu
▁aplic
ж
▁given
▁Antonio
▁puntos
▁cl
▁repr
^+
ċ
vd
▁plant
ário
▁operated
▁Fel
holm
▁sino
▁Verein
wad
looking
▁`:
Permission
Pool
Query
▁hy
▁Pi
endra
nth
ia
▁USS
▁way
▁secolo
ffff
goal
▁Canada
ำ
iane
echo
▁Jules
month
▁Line
▁Это
▁Vie
distribution
Liter
ée
IC
▁decode
工
▁belonging
7
▁respective
▁anch
▁ga
▁brit
engo
Inv
▁stam
▁Center
hell
▁syd
▁nad
▁tap
▁workflow
▁Vil
Play
▁{$
oses
▁eleven
odio
▁худож
▁Global
inject
irls
unction
fficial
▁banda
ogen
▁presente
▁vars
▁Dave
länd
LIC
▁Valley
▁Egypt
tte
ø
deep
)$.
▁Hä
<0x54>
▁Several
▁five
Policy
ně
▁Bour
▁Philosoph
actic
▁меди
实
onica
▁rapidly
lis
isy
asted
fico
▁Initial
▁;
gaben
dess
▁constructed
oj
▁formed
<0x7A>
ль
bo
▁purs
足
DataSource
▁keen
тора
▁Package
pas
▁perten
hren
▁ged
▁инте
▁scholar
▁geme
▁secured
▁sortie
rag
SUM
▁estate
Black
Manager
cem
encer
▁readers
▁Präsident
aso
ystem
tis
itage
▁насе
雅
III
nica
▁Vic
▁grud
orter
om
той
▁Graph
▁GP
hill
▁JOIN
="/
▁parsed
▁index
}=\
чу
과
ública
▁Jesus
▁Giovanni
¦
background
CREATE
iech
▁уче
pring
Perm
aged
ík
umar
itel
▁Grant
▁gap
processing
▁bott
▁nep
nederbörd
():
]).
abor
\%
▁taken
▁cens
urre
▁females
▁За
inside
▁gives
Api
verse
▁ash
▁phr
▁receives
▁bent
builder
▁allowed
▁живо
▁Spider
▁Ту
illes
▁oil
führt
▁È
▁tier
▁Heart
▁ont
orsz
▁engl
tons
cond
▁lar
ares
▁Cape
▁control
▁Teatro
jub
▁dependence
▁Doc
евич
▁Cou
▁visit
communic
▁familiar
▁Pre
overline
▁Bien
mut
▁royal
▁EP
▁problem
▁fight
юще
iendo
▁sieben
▁расположен
▁beaut
мента
ם
▁sheet
persistence
RA
zew
olly
INT
▁Tat
Test
▁Warren
▁)
Fields
▁dal
▁scrolling
[$
▁ptr
people
▁afterwards
▁Bible
兴
ί
▁cousin
▁taught
佐
ября
▁drink
тура
-----
isto
ępu
戸
▁true
holder
teck
▁circa
KE
likely
cou
▁etwa
▁проте
▁tym
▁aan
zet
Ž
▁Cov
▁Viv
▁продол
▁Stage
▁wp
iform
▁Amer
▁May
▁études
▁comb
▁Chris
▁($\
▁Fran
ideos
ief
▁describe
wi
pot
руд
▁indicate
▁Paulo
ToString
▁redirects
laim
Loaded
hum
▁along
▁ELSE
}}^{
ving
▁gioc
öld
▁army
▁NaN
limited
Is
▁Location
▁fields
зыва
}},
▁altre
▁Saint
▁programmer
ikes
▁locked
dia
▁Techn
▁eth
▁solving
▁`&
▁Martínez
▁sess
ṭ
▁Turner
addr
家
▁Hav
▁belle
collapse
ibles
▁północ
stelle
gence
air
▁wszyst
tid
▁indep
▁Rose
▁tedesco
policy
cmd
▁челове
▁acqu
▁World
▁directions
цем
Ét
лет
default
▁Ben
▁logger
entin
▁попу
▁гру
▁Framework
üd
voy
zburg
reh
рое
warn
▁sc
lam
пе
ishing
▁alternative
▁Bas
▁tiempo
▁années
hens
▁então
义
▁Przyp
ân
▁á
../
▁goals
виа
Global
ǐ
command
▁concl
▁Nieder
▁happened
igin
itants
▁¡
▁insieme
·
展
▁escape
ена
pointer
▁Pa
weis
genommen
hez
▁colonial
▁Agency
打
Props
▁erm
isz
agar
◦
lassen
}\
▁Fot
▁revers
temp
essional
Sym
景
▁GT
ouses
▁Keep
Autom
▁przed
▁nécessaire
de
▁lamp
▁bytes
paces
ниципа
ペ
mq
:"
▁root
Bas
Ste
▁neither
boolean
▁cuando
yes
пози
▁verschied
▁Energy
▁permission
▁też
▁wicht
▁Via
Refresh
inch
"]
▁изда
%,
▁Series
▁Cultural
▁filtered
aser
Win
▁Lub
▁\({\
<0xED>
▁quella
<0x38>
▁Sad
Tube
▁converter
plan
RIPT
▁sugar
▁worn
ammed
▁Squad
▁niveau
▁bond
null
▁Бри
▁Abb
▁via
▁zvuky
stell
iczn
员
kill
rett
▁Литература
▁Spo
National
▁rip
PN
Å
oc
▁Би
▁facebook
南
arab
);
▁adapted
连
▁restart
▁Introduction
▁combined
nim
▁Paz
▁producción
▁lived
▁zero
▁copying
Also
MAIN
con
▁Ма
aupt
_*
▁hög
count
ньо
preis
▁Од
▁accomplished
▁%%
▁mechanical
▁influence
▁noch
ugs
▁Bau
iani
Cells
requests
tfrac
▁RewriteCond
▁Uncle
ще
▁част
HEAD
▁всего
▁fict
/),
▁were
▁wis
дах
br
▁må
▁Inner
▁parenthes
creen
▁institution
▁мет
▁Alert
ater
arios
presentation
پ
▁Robin
dienst
▁kap
али
▁trans
orton
▁estado
getElement
open
iek
▁delle
▁Ur
бан
ellan
▁generale
roz
lace
▁But
▁famil
▁tenía
capt
▁lan
▁ext
▁orth
prim
access
▁Fall
Order
function
▁Player
▁которой
海
ug
юр
Ï
▁Good
▁TODO
▁leg
aram
eil
▁tmp
▁Украины
კ
▁war
esp
▁Nag
▁sociale
вал
▁Ви
▁entwick
▁Gy
▁Case
▁желез
–
ії
ELD
▁alten
▁elementos
ic
▁figur
▁certains
▁университета
endi
▁giov
▁anterior
IOS
长
▁учи
▁consisting
▁Chi
recht
▁anglais
▁dispute
▁válto
▁MO
▁Gem
▁Ру
▁During
▁French
▁Jung
aci
▁talked
▁ob
relax
PR
郎
▁prot
isée
icing
▁ready
▁vere
мар
PRI
▁kon
tu
contact
нее
▁Selection
श
▁advanced
вър
ナ
▁grade
etto
qq
▁scaling
▁diss
ilus
agrant
На
に
▁inspir
▁organized
▁URLs
▁indexing
▁labour
ules
▁Terminal
▁Here
▁écrit
atience
▁fins
"
▁balls
numer
ր
des
▁opens
wait
settings
▁backwards
▁statement
op
▁▁▁▁▁▁
Offset
▁wra
▁pm
ichte
▁ад
▁jeden
▁weg
▁mountains
▁слова
лів
▁conna
▁Notification
▁resulted
▁Prince
Michael
▁bold
▁ще
▁timeout
▁bei
▁лю
▁Référence
▁pipeline
▁subclass
▁mounted
▁Ide
▁establish
mont
geometry
contrib
Texture
leans
ким
Tom
ederb
<0x9A>
dam
▁discuss
▁ho
uno
▁brief
▁jeu
роме
▁том
пла
zeti
щий
honneur
▁fifth
isu
▁Syl
NUM
▁Work
▁Van
ряд
Final
▁initial
Foot
▁була
posa
    
anz
▁veter
▁кам
▁ez
▁ds
▁Band
opsis
▁proper
Ke
▁abroad
TAC
words
▁DEBUG
▁población
▁годах
▁squad
▁Fried
prise
▁Евро
gets
▁Dance
▁Сред
▁alcune
Υ
lish
oration
▁naz
▁пере
▁obst
▁Du
Open
▁autor
▁secret
▁desar
▁soup
mic
▁DA
▁Kre
)|
▁timer
high
port
▁разрабо
▁Lim
▁amb
ucker
▁Season
odox
ioso
▁Mah
Available
kadem
▁superfic
▁ig
▁M
▁nacional
abling
▁cut
ername
▁europe
▁area
тра
forms
tom
launch
▁Qt
tha
▁appe
▁plt
cii
ąż
azine
▁Monument
wik
▁Cra
Ἀ
寺
▁fecha
trat
śc
Handle
▁Lock
du
▁sou
ctx
ек
▁charset
▁invited
Ze
ují
▁Йо
idia
lt
bag
▁Full
mannschaft
▁участ
▁використову
mine
▁down
ट
▁throughout
ams
▁ke
ῥ
AS
▁def
<0xD1>
▁July
kl
▁vez
▁Delete
ното
▁Pennsylvan
bbi
ls
▁Capit
修
▁она
▁sla
▁assume
ipes
beck
▁город
▁album
sex
▁lines
▁основ
▁Canad
▁fatto
follow
чо
hape
▁popup
▁assumed
atto
ната
▁Reading
▁ries
Picture
Ы
▁electron
х
▁Rhein
▁rus
arding
乐
▁com
они
▁resident
тря
Configuration
▁Zero
▁horizon
udo
্
▁segle
тур
zec
▁е
qui
▁Eine
ா
pm
док
▁Krak
▁requirement
Mac
enium
▁Draw
▁$\
▁Михай
▁«
Mon
won
▁waves
ес
len
▁Lake
▁Session
▁contributed
▁resist
řed
▁Ortste
kende
▁time
▁Guardian
berto
▁extend
hon
▁dot
xtart
▁beg
Str
▁Wh
▁Anti
▁bout
需
burn
)->
▁Cong
orientation
GG
▁mistrzost
“
▁Расподела
▁Entity
▁Split
.--
för
▁Lab
▁Kir
▁NA
▁induction
▁kleinen
posed
▁Fragment
▁impos
gypt
▁zwischen
Ἰ
сом
▁without
Linux
ciendo
run
Calendar
▁degrees
▁{},
▁translate
▁questions
'$
be
▁Regierung
▁авгу
alm
▁developing
▁lipca
▁consid
▁Nether
▁пря
Please
ermo
Management
cur
♂
▁Parte
rica
art
▁indexPath
▁programma
through
▁yeux
▁hours
▁ell
parser
▁travers
▁Hol
▁enable
▁peut
zial
Ђ
▁déc
fp
▁Naval
Weight
caption
fw
▁Rest
/,
▁−
▁Крас
ROM
поло
▁safe
▁cél
▁Late
メ
¢
▁SC
ступи
thead
▁año
▁teor
blue
mense
▁musique
▁производ
▁core
▁dei
Thank
▁enables
▁religios
▁thanks
itz
edad
▁slight
ică
▁nerv
ன
▁sources
LAB
▁modal
▁combat
▁bland
'},
▁crim
xyz
▁hip
din
J
▁Oh
verte
▁buttons
▁Akadem
()))
▁Atlantic
click
▁cosm
▁bre
▁годы
▁импе
八
temper
▁prove
▁'@
чна
▁Ari
▁review
斯
oney
▁трав
▁Het
rito
ění
istrz
▁dir
indre
▁friendship
▁Hannover
▁lingu
▁жен
▁Das
▁Life
acions
▁herm
▁Baseball
▁residents
nungen
UC
▁canad
▁boost
▁decrease
▁сп
ческие
.).
▁floating
▁CASE
▁Armen
▁deb
▁asked
▁pour
▁universal
elijke
Warning
histoire
▁surg
▁coff
▁aproxim
starts
chs
itude
Ab
▁Op
Element
dag
pta
Entity
▁delimiter
stdout
delta
tit
")
▁consist
Pattern
▁Captain
Custom
кови
anne
▁conclus
▁жи
!\
<0x09>
LS
игра
▁ever
▁descent
Take
▁è
atable
▁Jimmy
▁été
▁rim
▁grat
ré
▁территории
▁basket
Width
▁gering
▁Zam
ouvelle
▁stops
lingen
▁Progress
})$.
▁fog
▁ener
▁remp
▁Monte
▁древ
itories
óż
inition
▁succès
teilung
cije
▁retra
▁város
engine
▁Fritz
берг
բ
PA
batch
▁Zob
▁españ
pport
▁astronom
▁Ins
▁registration
oo
лев
▁John
ktiv
▁проду
か
え
▁rés
вер
erca
aro
▁radial
from
})^
▁Public
▁algebraic
нення
▁Gib
▁sets
ках
Access
gress
▁erfolgte
ვ
ała
án
▁Попис
ོ
▁unexpected
▁gender
itate
бря
▁advice
Te
▁env
▁ку
▁Ende
▁{'
▁cham
awt
List
ün
apolis
into
acle
Emp
vec
▁Nem
▁redirect
▁Cache
일
▁prote
▁execute
▁processes
abad
miss
wür
ron
pe
Rest
▁procedures
rp
▁festival
чні
▁Wald
xico
▁javascript
▁семей
▁Quick
▁Bes
경
zeichnungen
inent
▁Во
▁interfaces
emes
лося
owała
жен
▁Ла
(*
▁intelligence
▁distribution
▁frameworks
▁Autom
し
▁vuel
▁brow
▁Laravel
周
mm
▁connection
лекс
▁evaluate
dorf
ensen
▁enfants
▁În
▁sciences
\;
▁predicate
ɒ
adora
kim
тай
▁Active
egyzetek
тая
zeug
▁fútbol
▁community
▁ex
esty
iman
▁coord
▁vin
retto
▁marker
parameters
▁visitor
Ζ
▁exactly
elli
▁significantly
백
▁Member
lay
▁гра
▁prepared
▁adding
▁SER
▁victory
▁CPU
istent
▁kg
ising
nm
domin
раль
\).
▁пописа
books
ared
▁высо
rig
▁Uk
Remote
▁prav
怪
▁PS
▁кни
▁....
alter
▁установ
▁Ain
▁кораб
MA
▁Mart
ipped
iare
▁».
▁hal
▁hely
ському
▁life
elivery
▁Architecture
WD
丁
addEventListener
▁фран
▁sees
▁doesn
▁Machine
▁Blo
▁poster
▁fraction
▁specifically
▁Gemeinsame
▁Perm
▁hair
Butt
▁veel
▁diciembre
▁didn
екси
por
▁dire
▁Vill
▁Cat
дова
▁MB
▁fasc
стей
▁forec
つ
ogne
▁програм
▁email
Fetch
inte
▁María
▁tom
▁клу
▁simplify
わ
▁ка
uola
ability
▁resp
stract
▁donna
▁Kot
pace
▁Honor
ють
▁severe
▁award
▁стар
Selector
▁Лон
Fil
дина
porter
▁writing
acher
▁född
▁är
▁less
+=
▁child
Rows
▁doit
rola
▁neben
▁utiliz
▁albums
Webachiv
.'
latex
<0x65>
istry
▁також
OW
bp
▁({
▁фами
jev
▁Az
Include
oe
▁să
оз
▁mayor
▁článku
▁authority
коно
▁Barcelona
▁Mé
disabled
登
CON
▁amongst
знача
stoff
▁bag
▁рі
fre
ains
▁Gaz
PG
▁$[
lä
▁abc
비
▁Italia
fn
▁level
∫
▁Social
▁ihren
▁).
▁Bi
hausen
typ
屋
▁default
ouwen
apping
Condition
▁kont
▁forever
▁nada
permission
anu
Theme
Modal
azar
▁corso
WA
▁cursor
▁fire
▁sudo
setup
Kind
_(
▁sense
ध
▁jsou
стве
free
▁ис
цю
▁journ
▁Raymond
▁кри
▁zab
▁spiritual
не
▁choosing
ி
сер
cí
kiej
▁Lloyd
med
methods
▁Лі
▁mentioned
Display
▁art
▁nast
зь
iles
Download
▁направ
▁extract
onde
lich
▁quali
从
▁spacing
ault
dg
월
▁hast
achen
▁launched
ührt
▁includes
▁api
▁religious
вое
▁tuvo
▁Mort
▁Fre
▁tool
▁höch
▁Regie
▁Il
▁déf
каза
▁Von
ً
<0xE7>
Log
anzen
XXX
▁rub
↑
Loading
▁Tor
▁Coun
izont
▁Gor
▁libraries
▁stessa
▁repos
efined
▁it
jem
boBox
▁facing
▁certific
▁fish
▁hearing
▁wireless
Th
acco
blatt
▁Pel
totype
,,
lax
istre
în
▁Archivlink
▁blocks
egos
▁als
мия
▁Less
ra
ล
!"
ह
▁documentation
▁Pent
StackTrace
ḏ
>\<
▁executing
^{\
▁respons
▁Kap
▁ор
▁coefficient
ством
▁between
▁Oscar
▁Biografia
ński
▁Klein
▁система
▁handling
lost
▁Barry
cy
▁Working
ch
agne
▁Stato
.”
separ
▁rescue
idas
MT
ilib
ização
▁chante
▁Avec
eling
ame
ista
▁sect
<0xB5>
ANGE
esten
coordinate
▁Ав
▁cré
▁med
cover
стов
▁fos
▁ans
▁maximum
cuss
▁nich
Location
castle
산
▁ім
legte
▁particolare
lecht
▁país
▁Stand
▁propi
▁Interface
▁tends
mult
▁sue
▁Musik
▁Sebast
▁historic
scene
=$
▁exped
▁фамили
հ
▁Bis
▁Ward
▁individuals
▁WCF
Assert
println
▁An
▁anderen
clip
oster
!!!
ἄ
▁PDO
▁Entertain
<-
sg
opf
▁%.
▁native
▁COUNT
-\
▁stand
▁Hall
▁kommen
icale
'}
▁stal
uga
▁mystery
▁Kay
ब
▁territorio
UTF
▁weather
▁eval
▁represented
▁Российской
▁Ciudad
▁Narod
ándose
▁begann
hand
▁scenes
▁пар
▁Louise
▁одной
ษ
EditText
engers
Develop
▁confirmed
經
▁Deutsch
▁Hunter
▁жов
▁recommendation
If
GB
central
opacity
rupt
▁extrem
▁Price
onnées
▁Ele
ilon
▁BY
▁aunque
▁ignor
$-
▁reactjs
ionic
▁Под
Map
▁Lag
ôt
▁radiation
wär
веро
▁outer
itu
▁militaire
cid
▁Jac
▁<>
▁Var
▁hiding
▁Glasgow
շ
▁Journal
foreach
▁dissol
▁Without
▁different
lungen
inha
▁scient
▁denn
▁calculations
fra
andro
iesen
▁empir
sync
▁rings
Window
zte
fluss
▁sync
pan
paste
▁femin
ό
St
--------
CB
emptyset
Hash
▁accessing
▁miembros
už
dotnet
▁simp
▁clearer
osp
спо
▁shortly
apy
▁Hamiltonian
bably
▁capabilities
▁Иван
▁HE
▁audience
▁retr
▁Block
ests
дно
▁grand
▁Ph
utos
▁Ю
shared
▁Phill
▁eredet
▁maybe
▁filtering
▁volunte
ế
zu
eau
iten
▁stark
lings
ption
▁Samuel
▁→
kor
pair
ল
▁Allen
тельной
▁Н
iedz
(&
▁dam
▁caso
дей
enda
documentclass
▁NR
([
식
▁Nueva
▁▁▁▁▁▁▁▁▁▁▁▁▁▁▁▁
▁cold
рово
▁Sebastian
▁city
theorem
omorphic
▁gmina
ḳ
illery
alle
.’
ised
▁lev
▁Assembly
SUB
verkehr
rip
▁Федерации
▁America
▁magistr
果
Clear
▁Jim
mod
basic
pod
лем
▁Harold
ְ
лу
▁construct
学
▁instal
▁dix
rong
▁położ
ulator
enumerate
▁contrad
だ
ierungs
isches
ny
▁como
▁сві
▁timp
rij
apple
<0xC1>
▁naming
etailed
▁Spr
▁Stef
otrop
There
<0x8D>
begin
∙
▁Range
ças
ailand
rás
▁nunca
▁fe
ourn
();
▁große
ční
izzato
NP
‎
▁acting
idades
▁driv
▁Sweden
▁location
ù
Config
▁Рас
▁Kor
id
ordo
->_
▁colors
odore
▁▁▁▁▁▁▁▁▁▁▁
autom
▁▁▁▁▁▁▁▁▁▁▁▁▁▁
armée
<0x73>
kwargs
<0xCC>
ween
▁revol
Contains
▁enters
тный
▁body
get
shape
▁becoming
▁október
▁lifetime
▁Oct
▁Mong
ì
▁бы
▁Ku
Ì
▁differential
}(\
drop
commands
тельства
▁designated
Profile
▁poetry
tc
eros
nico
▁tem
▁Bach
ным
▁inclu
,‎
ână
▁hyp
▁теа
▁Seq
▁compact
▁much
(?
▁reb
▁conception
等
DEBUG
▁="
▁Edinburgh
geg
▁weitere
▁ahead
cially
none
textwidth
REATE
特
▁Scotland
▁wechsel
▁-=
ons
equation
▁grav
##
▁hear
李
社
▁Staff
stat
Channel
▁[]
▁gegründ
sec
▁hierarchy
▁poč
vic
▁occupation
дер
▁dictionary
▁Properties
media
▁stri
egov
ViewController
▁оконча
▁Complete
bra
zen
hold
äl
▁cancer
▁ligger
flu
<0xF4>
ateful
assen
▁Storm
▁infant
▁terminated
▁cert
四
▁Sc
▁surr
лон
..."
Resolver
▁Пред
故
▁as
цький
ordered
▁се
angen
öffentlich
▁entropy
joint
▁Video
▁delight
iche
arono
ately
▁whom
▁taste
？
icia
▁Sim
▁cou
ain
▁Einwohner
▁NBA
▁ég
akes
ῆ
kr
▁mån
▁Lane
▁betre
öder
▁moment
▁Upon
<0x44>
ttemberg
gz
▁novel
▁держа
▁integers
Annotation
秀
▁asse
▁spin
],[
ج
âteau
▁catt
▁trig
▁Jewish
care
▁succeed
▁diferen
▁ages
▁NCAA
否
▁canal
▁Keith
健
see
rier
▁box
утбо
times
▁oficial
▁кіль
▁són
▁bugs
▁clusters
▁che
ad
▁när
▁pseud
ini
▁soap
tty
appa
orb
▁topology
▁black
▁ciudad
▁judge
▁empresa
Tags
лін
▁relatives
▁Tig
чер
▁Italiana
▁có
0
tern
так
▁lui
lar
global
ján
fik
ジ
Instance
▁ih
(!
▁Bo
scripts
▁furent
ände
▁britann
▁вто
▁illustrated
cyc
▁bund
weit
'));
▁daher
Queue
cord
▁мало
FI
nor
▁coll
▁north
▁magnetic
▁definitions
enis
▁ubic
Dat
▁attack
utch
▁cher
羅
▁committed
▁Supreme
abe
▇
ющим
േ
▁pattern
这
EN
ど
▁#[
фіцій
äs
▁Eastern
pon
cis
▁delay
ahren
▁somebody
▁decir
▁стала
▁suic
gru
ContentView
▁polski
hnen
▁зна
▁shared
iny
▁czy
▁Austin
▁fr
город
直
▁Rav
da
rame
▁France
TagName
▁nei
uman
▁changes
xes
Архівовано
▁gegenüber
ática
ются
▁Championship
▁District
Mor
▁communauté
昭
▁ft
бы
▁Prag
▁Gam
▁finally
deb
htaccess
odge
▁quel
▁Frei
Flags
▁define
▁bere
▁Archives
NAME
▁Sint
▁branch
зі
▁maintain
Video
laps
ammen
}</
▁cap
▁proportion
公
]`.
學
Dec
▁Jud
▁currency
▁re
▁coun
aqu
▁вере
>"
▁male
iveau
▁FI
▁tan
▁kis
iene
▁.=
EDIT
▁Belle
▁Militär
▁command
神
jack
┐
▁után
z
Tables
st
▁threatened
obb
▁ownership
weise
▁mic
▁da
线
▁recent
▁también
▁Policy
#{
▁nicht
▁Augen
ս
ques
()`](
Widget
uchar
▁Battalion
<0x24>
hlen
话
▁advert
▁auteurs
▁Navy
▁certificate
ories
IF
мого
gers
UL
kap
▁dr
▁reform
ivo
ugin
▁encryption
ML
\/
▁без
ej
▁прове
▁finales
лись
▁$(\
(...
WS
▁Bom
▁slaves
utf
▁име
▁diam
▁gift
▁чу
|_{
izes
▁Call
lock
ции
▁dátum
⅓
▁ein
▁rust
!(
▁eclipse
wald
▁splitting
estanden
________________
▁Роз
▁wohl
▁Arab
intendo
▁Фи
▁mayoría
▁compute
eq
ście
▁Charlot
eing
Country
Reference
話
▁Pod
ribu
▁latest
▁Und
Count
'],
▁Theorem
зни
▁``
▁können
▁worst
▁quasi
送
Setting
ikai
Delta
margin
par
▁gru
▁conference
▁joueur
▁configur
routes
▁Patrick
night
▁Lewis
cgi
▁Brasile
▁tre
orp
▁Gött
▁absence
▁journey
▁iterator
foot
▁Ich
sun
(',
ниш
puis
jets
▁versión
▁explaining
scale
∆
▁Salt
▁'<
▁folders
▁cinq
lês
agent
▁janvier
▁effic
▁після
▁Ang
ês
▁deprec
▁religion
etry
éal
ostał
▁printer
▁m
istory
abama
見
▁palab
stav
▁фамилией
▁tens
acc
▁Londres
▁atomic
变
lice
▁ensuite
▁fino
nitz
rite
quisition
▁St
▁note
▁још
▁listop
▁separation
()),
▁beat
RENT
▁estaba
▁correction
▁április
ermeister
▁cler
▁ces
▁mistake
alert
abstract
ía
Authentication
"));
▁bullet
▁rin
▁watch
));
urale
roit
´
ivatal
▁cast
TER
Const
new
▁difficult
▁Ка
▁Console
▁classes
▁zone
▁dispon
▁чтобы
inf
▁industry
aje
▁ць
▁onde
ción
BOOL
jes
▁seizo
eda
▁constraints
▁ers
▁Commons
How
▁Fut
oth
▁dual
▁савезној
▁bal
wend
bar
▁hade
][
▁Heidel
▁erhielt
ragen
round
isk
Delegate
amment
▁cyl
icks
чив
aur
▁официаль
▁purposes
▁ment
▁id
ному
ativ
▁estad
▁nasc
▁сезо
▁hyd
▁Schauspieler
ionali
▁Wang
▁pubblicato
▁música
<0xB3>
gel
▁Ги
▁Tal
▁Info
encoded
ば
▁chant
▁clouds
igkeiten
▁interpreter
ក
▁improve
▁nelle
▁observ
▁deren
änge
next
CS
who
scop
▁trains
MODE
▁medicine
ivalent
präsident
ired
▁mac
isten
▁IDE
▁Hermann
ev
yo
▁earnest
iale
hui
ountry
▁LaTeX
цин
リ
▁č
Behavior
ThreadPool
▁fits
iu
transport
<0xAE>
▁Method
▁regarded
▁responsible
▁kde
▁Zh
▁idx
▁arose
images
▁snap
▁Wed
▁Query
:(
▁ради
▁dedic
▁Sed
angol
ке
▁projekt
adr
▁traduc
reek
ingen
scroll
ilor
▁leaders
istr
▁relation
▁Repub
efficient
▁oscill
▁Насеље
▁Segunda
rets
дения
ւ
ahl
шко
ph
▁Jah
▁Lincoln
InstanceState
ype
unks
▁registry
▁woods
立
Out
typeof
....
<0x85>
▁thoughts
▁|
owych
▁Укра
▁среди
]],
▁provin
▁É
▁Nev
中
▁Ку
▁^
Word
▁szere
▁Vent
ension
▁Гор
Operator
inet
éral
PUT
▁lake
mun
̱
▁medal
reiche
▁impossible
är
▁letter
▁btn
▁Past
▁Na
contra
▁spend
▁Further
▁июля
зва
ipedia
{$\
▁Cooper
route
quency
oral
▁bom
▁md
▁Rang
camp
VAR
▁dział
▁missing
cknow
vue
dt
ename
▁strong
▁')
▁nuovo
feature
rules
ових
zel
▁ubuntu
▁відбу
era
ře
ג
üll
▁Kin
▁Prz
▁kilometres
▁ris
▁lleg
DER
▁uniform
yn
missing
лії
slash
▁Adolf
▁bekend
▁Sang
▁pendant
нице
▁hect
▁сез
▁учё
▁shoulders
▁Schule
▁Cheers
▁hvor
Format
су
ˌ
▁Instituto
▁площа
<0x55>
▁protected
堂
Dispatcher
▁Haw
xspace
Plot
▁Nell
▁кли
Definition
!("
aca
amm
▁]]
Origin
▁datetime
lb
erb
Demo
éső
▁carte
FA
▁lie
▁trial
sers
">
▁unders
▁metric
銀
Size
▁Tower
▁principle
▁code
▁svil
ющие
mix
▁zurück
▁eggs
▁Ke
▁strongly
▁schließ
▁restaurant
uma
▁Gr
вший
▁sell
▁powie
▁said
▁suffering
orious
($
▁slider
ły
ishes
▁prince
bg
▁morte
filled
quel
▁sn
entially
Files
▁kop
▁Once
ulu
Aut
ів
enger
▁связи
▁onclick
ización
ords
▁dol
▁гово
lier
iry
य
▁suc
ua
cient
▁bew
tests
判
▁cir
▁gross
▁Compos
▁насељу
стер
▁depth
▁ан
WID
textbf
ví
spiel
▁слу
▁теле
лтати
▁#(
ép
▁millones
|\
▁detection
▁статьи
▁View
tilde
ms
endor
▁access
Js
▁thick
ander
alous
ont
▁forest
▁dwell
▁seu
▁футбо
▁passes
▁resize
▁config
▁rôle
▁basic
▁три
▁nose
▁War
eny
ot
ID
▁adjacent
▁made
▁Seiten
▁irregular
recogn
łow
▁integra
leton
陳
▁scores
setAttribute
ु
▁généra
ness
crit
▁histor
▁gén
▁sier
城
▁пес
▁Daniel
endorf
▁Congrès
zon
▁contain
quired
▁whose
▁active
▁typo
hover
tok
▁prowad
▁Leop
build
▁convert
VAL
朱
▁Product
▁compt
asto
agyar
▁linear
▁CREATE
▁Buff
files
kur
▁starb
▁Retrie
▁Jefferson
▁quantities
It
▁localidad
слав
▁Chor
▁own
▁seine
▁Though
ufact
▁Yam
allo
ematic
Animation
▁incor
ィ
icul
▁noble
▁einer
groups
uli
argin
▁accur
Rep
デ
off
▁infer
ával
法
inners
▁Poss
webdriver
▁größ
▁фо
▁SUB
▁Typ
мии
▁Moreover
▁and
▁Pop
▁Ar
▁allocated
▁joue
♦
▁Model
пол
▁bev
кер
▁suffix
▁provoc
omp
iens
ց
▁Human
▁Pattern
▁Leo
ков
▁woll
mag
▁tbl
▁syntax
▁([
▁Пере
▁dynast
‐
コ
▁AND
▁unix
▁Find
сей
▁fand
▁pale
▁sympt
▁update
▁protest
manuel
ika
▁patri
ά
▁Until
each
▁sare
▁Rights
rvm
dir
▁sant
aussian
▁dessin
aches
führ
▁aria
▁was
▁berg
Make
多
gele
▁audi
▁weight
▁noise
▁Articles
▁blow
▁Мекси
formance
git
lij
▁Story
berger
flags
▁curr
▁Token
▁mouvement
▁Abgerufen
duration
Jul
yd
FFER
compat
▁doing
viders
▁hij
}}.
fica
▁decid
>{
keyword
ISO
▁час
resp
▁Ad
▁compan
▁execution
ful
▁"-
▁reli
ados
▁pole
ゲ
▁José
第
▁centro
▁Москов
▁expr
▁Jahres
▁curious
Obrázky
▁zij
▁Zobacz
▁esempio
many
▁property
▁stagione
▁anv
▁home
▁redund
▁Géographie
▁Ки
Ill
▁є
ს
Х
▁Users
▁Have
hart
ímp
vertical
▁evolution
▁Perhaps
▁Betrieb
▁Tur
V
nung
▁Exec
nats
tto
ruction
▁Lig
fir
emas
ayer
▁об
upp
▁estimated
▁Dresden
▁counting
Dest
:}
Generated
imenti
овин
▁Cult
DIR
pling
▁E
▁recuper
▁Racing
chk
iller
▁théâtre
resse
영
inned
▁sales
пор
üge
<0xA3>
▁gli
▁day
▁команди
▁early
ked
cal
argent
ők
<0x81>
ther
▁animation
▁Bot
()));
assoc
▁реда
▁Admir
rze
▁листо
▁rows
▁logs
Trigger
▁району
▁Rev
▁Output
▁савез
iah
▁Olympics
▁ung
▁advise
анг
ज
▁capital
▁include
frastr
▁header
▁heeft
cess
▁Mess
松
ifolia
Option
▁seek
▁subsequ
▁Oliv
▁Савез
▁permitted
▁Una
▁supports
ając
дії
▁защи
▁posible
▁reasonable
▁diver
当
赤
story
kaf
表
▁зали
яв
▁repre
▁cô
▁Abs
Recognizer
よ
)`
▁entirely
Austral
▁Lex
▁categ
▁closed
ago
gif
Subview
PropertyChanged
▁Watson
hu
▁campagne
ൻ
▁Linki
OK
▁Ін
her
туры
ili
Azure
Error
▁communes
▁emission
▁UITableView
▁Одна
Index
▁starting
▁cele
▁clearly
▁június
▁Mix
▁hoof
▁cp
\
uden
mysql
▁joining
▁Olymp
▁piano
)];
Mus
тек
õ
CC
▁department
L
Layer
icode
hora
gener
▁Februar
ultats
show
ʊ
▁Frau
▁dear
тт
ross
▁entire
▁kil
▁televis
тий
▁là
▁fright
від
bm
▁journalist
arin
ieron
▁organization
▁hav
▁Park
insert
▁DOM
kind
▁femme
▁WHERE
▁Giuseppe
ера
▁tir
egeben
▁може
мена
▁Rob
▁Einsatz
▁Railway
▁Init
▁according
odi
▁migration
hot
áš
门
$}
<0x66>
▁cd
/_
ui
道
Angle
▁align
brie
▁Revol
▁appeared
▁getting
aña
ège
vex
▁збір
WriteLine
▁horror
▁SQLite
▁Cort
▁increasing
▁fol
▁tile
▁реки
▁comfort
▁XP
▁support
issue
▁tunnel
Ř
▁stato
TA
据
▁caught
ximo
，
▁settings
▁ката
geq
ism
▁storage
▁insgesamt
ligt
llaços
容
name
▁prue
▁hoofd
▁Nach
uten
▁brothers
heart
uttavia
ා
ruct
ucky
носи
▁bundle
▁detected
зма
▁folgender
SV
▁BBC
}\,\
▁{%
acity
bek
س
way
▁rg
icip
▁acts
▁Always
(
▁behind
▁Ro
▁voit
▁looks
dates
tn
▁due
(:
SL
▁пров
vs
▁Ple
গ
irat
ved
▁LA
itare
▁поло
inder
Text
▁grateful
ificate
）
<0x76>
▁cor
▁singleton
Հ
▁Professor
{
gebiet
наль
zioni
▁lik
ował
▁Metropolitan
╔
▁Matrix
▁Hels
erset
…
Converter
▁<!
▁Marc
雪
▁Airport
▁війни
è
ordnung
embros
▁Department
ție
Py
église
▁Nord
▁aute
getName
参
ertain
▁AV
IO
ños
рё
▁actors
mathfrak
\,\
▁Both
pd
▁conscious
nings
▁sharing
▁aggi
,]
when
cit
▁want
▁hrab
▁contained
Outlet
▁Список
hit
▁vita
▁того
▁Jap
▁cu
经
$}}%
▁Egy
▁categoría
consin
▁Hospital
çoit
▁Browser
▁différ
▁scarcely
▁Device
▁arms
Body
▁churches
▁iron
gra
▁för
Int
▁Et
ices
clud
elen
▁además
aring
SR
▁observation
▁nombreux
▁asc
▁How
▁population
▁INFO
oit
vector
▁Î
▁hin
▁uk
▁method
▁près
▁główn
csv
▁пери
̶
▁резу
дав
▁{-
▁општини
bia
▁shorter
lat
▁Cap
ips
ining
▁Boy
sp
▁}).
▁краї
▁dread
дия
▁Karriere
▁aper
▁Ser
▁agr
nil
▁Josef
<0x98>
гово
▁pel
▁Bayern
▁College
▁arbeit
Bi
тся
▁Online
▁wrapping
▁NULL
▁Z
utter
▁Ath
STR
▁Website
retch
▁nob
▁Bert
于
场
▁breath
▁Depuis
▁α
ächen
▁codes
▁Server
▁mot
ography
▁Museum
лежа
}.
▁quoted
▁poison
▁pending
▁Mannschaft
sono
quick
▁papel
layout
store
▁tent
▁neck
iju
▁relationships
百
éro
▁doubt
arel
▁fortune
square
▁interesting
▁nobles
partment
▁Рос
▁Gul
▁R
▁wegen
▁podczas
▁presence
esta
▁Beit
rak
하
▁folgenden
hex
vez
▁Punk
зм
emble
ACE
▁Effect
Theta
antom
▁externas
▁ideal
wall
uns
▁regular
▁présente
▁cutting
▁Künstler
▁recently
hbox
aden
▁projection
▁nar
▁пись
ној
▁quad
▁heutigen
▁Vid
▁calculation
Wel
љу
▁Exception
ébec
Pan
Properties
onso
rowser
кет
Script
construct
ací
▁leta
▁rem
▁surname
▁call
ittel
................
sterreich
loaded
cco
▁Federal
rot
cb
▁anywhere
Sol
▁ts
▁windows
▁variants
は
arbe
‌
istrict
户
<0xE0>
tegr
▁Bou
tool
ondere
▁msg
▁substr
▁varying
P
ope
bird
<0xC6>
▁sys
reland
▁love
peror
▁comp
▁statt
▁Begriffe
▁alguns
uni
ี
umb
aire
站
aments
▁Stuttgart
▁architect
▁Handle
▁osob
▁ended
▁pool
gravity
▁▁▁▁▁▁▁▁▁▁▁▁▁
around
▁rapid
▁mie
éric
рован
▁Connect
▁automatisch
▁Є
▁Jonathan
дами
Collection
▁TRUE
струк
▁space
emente
quality
▁Widget
▁India
▁clubs
▁Korean
▁heter
▁dois
located
▁ORDER
▁Ident
kö
change
Č
quant
▁afford
ething
▁byla
message
adows
▁server
false
▁ambos
lab
▁Portály
|
▁&&
▁Len
▁cargo
▁i
<0x46>
Render
▁serialize
mess
ha
beans
▁pelo
劉
W
irtschaft
urm
Fire
▁Ло
▁miesz
ond
▁intuit
对
”.
parallel
Task
▁Arte
▁Alabama
▁Opt
cu
PC
▁charged
▁obliged
码
▁hath
mitt
▁shelter
▁Ли
CO
usable
,\
SS
▁besteht
▁—
▁death
____
нього
gebras
ína
here
▁diverse
≫
换
держа
▁excitement
▁Seems
জ
visibility
ült
▁Borg
▁Jerusalem
▁blue
▁ouv
uki
▁uncertain
▁Io
▁Ing
▁Voci
▁км
desc
>:
▁championnat
▁cabe
▁prisoners
Los
▁Dec
▁Weit
/$
▁Santiago
nis
Touch
▁possibility
Ё
▁designs
izada
▁forward
▁able
▁tales
▁variables
▁eleg
▁comprend
<0x00>
price
▁Ga
▁cities
▁wh
▁nå
medium
zo
▁cualquier
▁même
jboss
PASS
ání
▁independent
▁tren
▁sort
▁trag
▁Resol
ട
rollo
GL
έ
▁jamais
acci
▁varied
нос
▁participation
▁Gro
▁Account
▁Europe
Mad
▁Form
equal
▁master
▁ministre
▁і
loads
▁database
▁FK
..
del
\_
ceed
dm
▁muss
▁","
▁Histoire
neut
props
éc
▁Lin
▁Boston
ierra
oreferrer
▁др
▁Tag
▁monot
▁Production
▁meters
▁scene
▁describing
avigation
logging
\}$.
▁firebase
continu
▁Janeiro
▁intro
▁gens
▁();
integer
▁move
ítás
вет
trees
▁Б
根
▁fails
stadt
▁fé
SError
imon
转
▁établ
tmp
▁secondary
▁Sn
三
<0x80>
▁Quant
▁еди
FORM
frak
ycler
▁DNS
▁heraus
år
▁know
lap
btn
▁zach
Horizontal
▁percent
▁результа
▁imply
▁vide
▁Nation
▁Jazz
内
▁della
gle
9
MS
authentication
hip
ision
▁excell
щения
defin
▁portrait
Ser
prov
cribe
▁hi
мель
íz
▁asks
kund
▁departure
▁frü
kte
arie
▁lic
▁Lion
▁gentle
unted
▁daughters
▁patient
]*
▁Frances
▁votes
書
▁Eisen
▁pint
Gu
▁planning
lö
▁okay
inand
▁Sant
▁minute
gu
Master
▁Э
etti
▁LED
Family
Category
ět
▁alla
▁Color
series
▁Hung
▁vista
▁Bit
▁/>
▁shed
лка
▁har
MON
ActivityThread
▁nella
▁Technology
▁frère
stood
▁прод
▁diameter
std
Head
fileName
ica
▁ern
▁neur
enschaft
居
▁Car
Ж
Mat
ash
▁февраля
aju
í
num
▁jsf
(){
cido
cciones
▁Ig
ologies
iko
▁ordering
┘
▁triangle
elly
scal
▁Besides
At
▁metrics
▁Ung
▁music
▁recommend
▁reduced
igration
▁append
Cre
▁trivial
ąd
▁incorpor
▁phenomen
icy
boldmath
▁script
owanie
▁methods
uniform
▁zaj
ernal
▁petite
▁grund
奇
▁vi
▁Wend
sob
JavaScript
ṅ
▁seemed
']);
ppet
រ
ât
ffic
▁They
endent
But
eti
▁transformations
▁insbesondere
▁SQL
▁Iran
qt
▁Та
▁Connection
dict
orr
▁ano
▁sondern
chts
▁when
▁släktet
Email
diction
▁Mill
▁japon
▁Standard
▁Beruf
mathcal
kg
тии
зей
logic
▁Maxim
▁abol
夏
也
▁unnecessary
ife
▁Tam
кам
fan
.....
▁Orig
▁controller
worker
ක
▁updated
▁actually
}\)
▁beyond
▁Mach
▁Bent
▁прово
▁años
Contact
▁bel
ew
cons
koz
let
➜
▁conv
军
hos
atoire
▁Adri
▁sd
▁ur
▁would
▁может
Wrapper
▁Bischof
▁collect
Sh
▁verz
▁locomot
▁Suisse
▁thro
Omega
▁deleting
court
▁Aber
ão
sys
▁displays
andis
aglia
ersch
▁agreement
▁idő
ὑ
Zone
lp
▁fear
oser
════
▁Dav
acre
▁nie
рос
Spec
▁una
ín
pected
▁dynamic
▁clos
▁aujourd
▁remark
andra
Short
eb
pus
sta
▁Kansas
▁ta
raise
▁tö
▁Comics
/>
▁partic
еде
▁reven
▁tierra
▁Archivado
cito
plit
amb
ger
▁estas
важа
jih
▁Share
seconds
byte
isión
ole
querySelector
▁designer
Begin
lav
ള
▁Bh
₅
▁dv
://
np
ido
▁Court
▁Johnny
▁обы
▁Crime
ijn
▁{};
servlet
▁Ji
视
▁deuxième
▁differences
▁Siehe
▁Česk
▁naval
<0x04>
там
▁Emma
▁frances
Jac
)):
ctor
SELECT
ènes
models
▁Doctor
ienza
ił
▁Google
рой
orten
▁scr
tion
mana
▁ko
archy
▁laquelle
▁зву
▁Study
▁мона
Function
/@
ִ
▁aside
пас
▁wear
▁Height
▁Jacob
▁благо
")`
Drawable
phere
▁тому
▁fung
▁Пор
▁poc
▁Wi
ują
хар
developers
autorité
alk
download
▁мно
▁bought
onic
▁ears
adic
boy
▁penalty
chio
zeuge
type
▁Corps
Green
▁ри
გ
sequ
▁zespo
▁silent
▁Before
▁lost
)}{\
mittel
▁Dob
algorithm
▁);
▁finding
allenge
ounds
▁insert
鬼
Answer
▁ottobre
IK
***
▁extends
ptember
朝
▁->
▁momentum
▁],
▁min
▁gran
▁també
FileName
▁nr
idade
▁contra
jb
▁fonction
▁kB
▁stuck
▁figura
▁Akademie
▁deep
▁decl
▁sí
▁zeros
▁seul
ikon
力
▁cons
▁Baud
▁husband
▁beste
apsed
▁entfer
▁settled
Iterator
anus
▁szám
day
rypt
ktet
iffer
inación
▁Future
avant
ptions
▁взя
Should
▁solem
▁rius
▁куль
▁steady
▁Wayback
▁ind
▁agents
dynamic
kb
Stream
▁információk
▁frequencies
вать
--+
=&
▁libert
▁tant
▁hinaus
▁porte
стоя
▁Pablo
▁PRO
CD
▁optical
alth
there
▁dock
▁Normdatei
▁Why
▁mkdir
こ
тал
former
ʿ
기
ause
▁For
Ṭ
▁Chile
тельство
ily
beg
","
▁Gil
竹
▁Shah
BF
七
▁UI
▁office
▁algo
find
▁Wikipedia
uder
ァ
щи
град
▁alc
▁calci
▁employees
▁rac
obox
▁Om
ність
▁session
pre
▁club
▁Royal
Amer
▁urs
Object
){
za
▁Alan
gende
▁orthogonal
чения
▁Pfl
völker
▁involving
cept
▁Studios
å
archar
bin
liga
▁JQuery
rare
▁intér
▁efforts
ton
atorial
mysq
▁maggiore
zn
itory
cken
мп
<0x27>
віт
▁skill
insic
▁Bright
▁trav
▁clause
intern
Raw
い
ètres
路
▁signing
ieves
ciale
▁absent
▁beh
▁opposite
▁neces
▁weiter
▁abb
Extra
isie
▁mouth
▁Bereich
iding
▁campionato
⁵
▁Stern
▁centuries
▁bene
icas
▁Register
▁diplom
ugno
тного
▁ses
umm
▁UPDATE
Spring
▁Float
origin
▁defined
▁Inf
iennes
bling
▁propag
▁deser
▁Running
ían
▁Later
▁Ме
ape
ille
▁endpoint
▁ad
Во
▁Void
band
▁"\
▁Groß
▁él
▁prof
▁provider
ровано
▁prede
▁alg
▁sain
▁NE
▁aggregate
▁tog
▁roughly
▁cross
▁hall
<0x8E>
conn
▁wrapped
▁róż
кри
▁fragment
▁dit
▁Vietnam
дой
▁ну
',
яз
▁popol
uy
京
▁началь
▁иг
▁nécess
▁Singles
友
▁Dead
▁mieszkańców
generated
▁Microsoft
▁Four
▁EF
▁Spanish
gegeben
task
▁Blan
▁hon
<0x28>
▁São
зня
ateg
check
;`
ostęp
ска
▁pří
ulus
}$
▁период
▁challenge
▁triggers
▁lov
谷
ení
▁são
▁Thread
Anim
fortunately
стю
▁Just
▁su
(",
fig
▁Elizabeth
▁grupos
▁Freund
▁recher
Ξ
▁befind
▁Disk
▁accord
▁Unix
▁especies
template
ancy
▁Field
▁edition
▁litt
▁nest
▁wordpress
ല
▁deeply
jsfiddle
布
▁trab
▁Ban
ś
▁mús
▁ми
'(
path
<0x18>
ills
▁ranked
▁win
▁attributed
Detail
onel
ろ
writ
={\
pic
▁Job
FB
▁Kid
nitt
▁Спо
▁Vir
▁heaven
▁zoom
▁République
arily
▁r
wagen
▁års
▁vict
het
eus
andenburg
▁occurs
oria
▁These
▁graphics
▁friend
▁À
▁cards
▁ERR
▁hoped
▁portal
rass
چ
▁ż
▁generating
∞
▁Leist
▁loss
})$
=.
ício
▁exc
<0x26>
itted
QUE
ieck
▁vou
▁фев
onaut
▁Hor
▁Basketball
ONG
▁обла
▁Observ
▁deutschen
Free
▁Agent
▁driven
▁track
["
▁industri
abol
▁Lyon
▁Farm
▁solit
ize
ле
The
ён
▁Lau
▁router
цен
orf
▁yellow
▁französ
▁bunch
icky
dflare
▁Exit
arta
uh
▁Whe
Imp
▁must
<0xEE>
▁Content
▁broad
]+
ijst
▁cí
rest
▁defe
▁ow
מ
Second
owie
▁searched
ublic
▁comple
성
letin
стр
gow
▁acquired
erna
aku
ва
imation
Invalid
LOG
änger
▁Lisa
Component
▁stands
bul
Bytes
/?
ifice
prés
▁beauty
▁Morgan
▁relig
▁DE
}}{
ös
▁He
▁Updated
▁pu
▁kat
▁write
isms
nem
▁sixth
this
▁cabin
liches
▁бли
criv
OutputStream
▁screenshot
ied
ńczy
']['
Search
aszt
ishi
▁react
▁système
itis
athol
FS
▁Ford
▁информа
▁Fant
▁easy
▁therm
cos
asso
пов
scan
resolve
UMN
ক
liche
▁Государ
▁flowers
OF
▁initially
▁heap
sak
▁suff
Interval
▁Host
▁Vec
▁movements
▁pů
ди
▁books
Ent
▁са
▁APIs
▁Pri
▁wasn
▁interview
endpoint
▁changing
▁Ale
ссии
PK
▁Bur
▁experiments
linewidth
▁dolor
cza
ío
atur
▁Ali
▁walls
▁mp
▁halt
회
▁//
▁removes
▁administration
▁Im
iterator
pios
▁selecting
▁photo
▁division
Network
▁Russ
skie
▁saw
ze
ancing
▁played
raph
ֶ
icle
ker
▁Према
<0x14>
gb
<0x6C>
▁nap
Area
half
youtube
apter
▁recognition
icane
α
▁Theatre
에
▁Ela
alled
Ű
ATH
▁humor
esent
▁ü
▁sobre
▁Challenge
ն
▁matrix
toggle
▁began
▁devil
▁dispatch
▁pł
ште
spieler
▁Flug
▁bande
ema
ab
ponents
▁James
科
▁Stack
ubern
createElement
tar
▁defin
äude
utz
▁Check
▁medic
sw
▁angular
▁attributes
▁худо
Space
▁scène
ï
forge
ális
▁orange
▁asking
▁Emp
":"
▁by
▁numerical
▁italiano
▁naturally
Aus
▁required
idge
▁counter
▁campion
isation
▁mark
▁Wirtschaft
LOC
▁konn
="<?
cera
▁Stephen
止
▁richt
▁serial
stream
▁serving
▁sowie
▁pré
ignation
▁[{
ե
yy
Internet
▁Up
▁plays
inae
ét
▁sampling
⟨
▁riv
▁totalité
▁completion
▁Nin
戦
upt
gmail
▁now
▁Dar
Table
▁sj
▁Artikel
⍵
ît
▁recognize
ap
▁Baden
Running
▁PC
▁casting
ele
dom
▁avoir
ius
▁ups
▁insight
stellen
▁Phoenix
▁player
▁professor
.-
ván
▁Zum
▁CC
▁amaz
▁от
▁vol
igr
▁pivot
▁Т
em
▁calendar
火
▁cro
стре
▁events
▁csak
cian
料
▁въ
▁мі
▁Californ
loy
使
öd
▁También
apers
graph
oked
TT
pty
▁indicating
bahn
```
ལ
▁Live
jections
▁театра
▁muito
▁Unless
▁исто
▁Extern
▁instead
间
ří
▁dra
▁Muse
ο
▁H
▁alert
▁година
▁initialized
owano
рю
▁lst
geon
Bro
▁simultaneously
▁annot
▁contribu
/#
"/
Attribute
wig
▁Israel
factor
три
ны
cers
▁Matth
że
▁family
Đ
▁conduct
▁Nash
je
⁻
▁todos
▁regnigaste
▁Mall
▁extensive
▁addr
Bound
坂
lus
加
▁waren
▁Menu
▁sust
Scan
bs
ြ
cope
▁fueron
ется
Rel
郡
Strings
zip
ʑ
▁Aff
▁representations
▁thought
▁enemies
MW
边
▁gro
▁tras
▁außer
érer
Last
ionale
▁borders
▁ок
}}(
▁covers
▁static
▁Species
▁'')
▁Ice
pect
▁SV
ulla
▁•
kes
uct
▁spé
▁faithful
▁di
seau
▁Section
оте
▁био
▁▁▁▁▁▁▁▁
▁tensorflow
western
тах
▁bad
ições
▁multiply
族
년
▁WM
▁pont
論
usto
▁ni
rev
Ź
angu
Graph
▁über
ствен
▁Pear
星
FL
▁hold
▁saved
▁sele
ísticas
▁crossing
▁virt
Rot
<0xF8>
}}(\
▁transformation
▁широ
▁Bath
日
oltre
▁stre
反
xhtml
▁autory
cher
▁amerik
▁persona
▁Earl
▁field
pond
axi
▁introduce
▁настоя
projects
▁Ski
imoine
ship
VC
▁Index
▁hors
four
▁ра
▁put
AME
▁исполь
▁look
▁um
ници
Í
▁daugh
FE
пример
дня
coll
clear
ilities
sha
ья
▁Disc
have
зем
refer
▁Wolfgang
▁verm
Listener
▁Added
las
▁змі
atives
▁poeta
▁Him
▁april
▁inici
/'
ј
controller
hä
огра
▁és
▁parc
▁Weg
timer
gamma
metros
zien
maxim
▁ear
명
тник
allery
▁півні
wn
те
▁$$
▁tk
▁éc
LEFT
respons
▁Probably
ere
▁ok
col
orient
commerce
nia
▁Final
▁Население
▁kill

▁lado
ạ
▁memor
▁great
▁credit
########
▁function
▁eye
▁kunnen
walk
лки
▁tie
рем
moz
▁confir
▁unsigned
LAY
ég
▁gl
визи
щу
▁Pier
▁instruments
▁ihn
man
▁zdob
ців
▁Point
console
UPDATE
DIS
▁roads
дви
▁Rod
ints
▁==
▁Ger
CP
cript
{\
▁tour
▁posts
▁wonder
кс
▁übernahm
▁Binary
jdk
Of
cret
Audio
▁Kurt
kaz
mount
say
▁abandoned
мати
▁amor
listener
▁instant
▁});
ilda
eduled
▁Sunday
weight
Binary
ifact
▁David
▁América
points
simple
▁Camera
ремен
▁general
▁Again
▁heute
▁Alice
ének
▁sein
ances
▁somehow
▁equipo
ynchronous
hl
UIImage
▁Ген
ப
ல
h
▁ball
▁Sex
mai
heast
▁Jup
▁races
ocity
▁série
irement
erving
▁proxim
Hen
▁май
▁сто
bió
▁nothing
▁liv
▁Actually
▁struggle
▁Ret
▁cle
▁Kind
▁Circle
▁interpret
▁CGFloat
▁Hass
▁Ag
ità
Петер
ink
▁enfer
rå
ющих
VF
▁př
▁optimize
▁действи
^{
▁pace
unkt
▁MySQL
남
c
XV
bottom
person
licate
prowad
ním
ностью
atform
ὐ
inger
▁Ко
▁dataset
▁составе
▁rue
Saint
▁opposition
▁"[
plugins
♀
jsp
örd
ском
▁Mih
attr
ività
▁dabei
voke
▁conclude
ห
▁Only
known
rab
atype
ע
]['
<0x39>
atge
ktor
refix
▁ced
FILES
▁Create
$;
regex
▁Rotten
⊢
▁angry
usc
▁им
blem
rug
▁Sp
поді
arn
▁ability
emento
umps
Notification
▁correlate
nown
anas
sequently
thers
atri
ită
▁simpl
Us
▁duties
iona
▁Drive
▁Fif
ститу
▁ö
▁Tow
Params
ická
ühl
uszt
master
▁parsing
▁individually
panel
ennis
scher
▁sensitive
dst
yg
▁SY
Nov
nar
чение
product
alette
teil
▁сайте
▁Looking
▁facil
bio
▁sens
▁Jenkins
ft
▁outputs
̍
▁Girls
rok
▁limitation
▁Пра
lle
▁Finally
▁immer
INSERT
▁verified
Ḥ
▁Köln
▁glory
elian
ulo
imar
reibung
▁Chal
Gre
sku
мени
▁funds
歌
eters
▁Mr
бре
ambiguation
▁Django
▁período
高
▁controllers
▁add
▁ap
fu
▁Giul
zös
▁pen
czy
terre
들
▁Richard
▁Winter
HTML
für
ग
overy
▁Raz
德
.",
pop
сня
▁sigu
▁[\
▁combin
▁caracter
改
▁público
▁kW
RAY
<0x4A>
▁constants
);
fa
Primary
yk
▁honor
▁Window
ო
▁sound
▁númer
initial
▁Мексику
▁susp
▁titre
▁definition
▁Child
获
avascript
вро
ielt
çu
ity
тів
▁Richmond
rence
▁desire
▁expanded
ady
▁russe
esterday
ipe
▁Los
▁Feb
final
reme
▁august
▁types
九
kmal
uber
Credentials
och
▁temp
Login
▁hints
▁Earth
▁stage
бора
й
▁б
ternal
њи
▁worship
NT
aben
▁dx
æ
▁sun
nahmen
iej
nio
дій
gon
урна
▁exp
▁authentic
▁JSON
▁dla
xpath
entries
▁Commission
▁stub
▁registr
나
▁divisions
▁Bridge
estic
▁espe
▁encoded
引
utions
▁nation
▁cmd
▁isomorphism
▁report
▁který
Callback
▁promise
▁fís
▁dessen
▁survey
▁Target
▁demanded
▁Adam
▁Very
famil
den
▁payment
▁emp
Bean
between
▁ä
Camera
▁sud
▁mujeres
▁vida
▁red
DO
Control
је
▁my
▁though
▁över
ѫ
ebru
▁einz
oren
▁auf
▁founder
▁acted
▁Ireland
ittest
▁directory
▁успе
▁zones
死
▁Flag
ordon
wire
▁medieval
č
▁interactive
formation
ategy
фер
also
▁Kas
rate
▁*
▁ao
▁Sever
▁Г
odos
▁[(
▁Dieser
decor
ossen
▁ї
▁Know
▁На
perm
Future
small
▁explo
▁pieces
▁Lage
ʔ
Й
▁python
enkins
▁garbage
av
Res
▁worth
▁convinced
▁Olympic
库
▁longue
eston
chestra
▁Pan
pel
▁Plat
owy
es
elia
▁largest
urrence
льной
系
▁Videos
▁человека
▁shadow
country
ational
xy
ц
ق
▁Kings
σ
▁gł
▁Turkey
▁SO
aron
▁direkt
▁secure
VM
ktur
▁D
▁selected
куп
pdf
▁Mant
ську
▁Hou
close
▁Iss
║
Ι
▁Coast
▁grammar
▁derrot
SM
*)
▁сер
▁convers
▁dow
>'
виси
ava
oused
▁Gün
▁training
▁Position
▁belong
▁Kauf
▁informations
counter
IND
▁situated
▁offices
▁astr
wel
Numbers
ossa
`).
???
ケ
▁Low
▁Britain
▁siglo
▁Rank
▁Rafael
oport
ных
▁Wayne
▁Print
iment
Selected
osex
▁Phil
ixen
ъ
▁assignment
ṇ
Call
▁hands
▁plot
plot
▁Urs
▁destination
period
çaise
▁license
▁Slov
▁mob
<0x5C>
▁misunder
▁celui
最
ną
▁material
微
β
strij
▁Nu
▁ceux
atus
▁Sv
▁Chem
icut
▁Brazil
▁obey
▁scatter
▁fn
▁Henri
▁externs
ded
▁overwrite
▁False
▁uno
▁Scott
▁qued
▁manuscript
▁questa
龙
junit
▁scri
▁provide
endant
<0x60>
전
▁Wrest
▁Boys
▁ArrayList
iego
re
common
///
ˆ
ariat
▁así
▁scale
▁regres
un
numerable
▁weapon
▁compañ
los
native
ang
Ext
стом
▁Does
▁vocal
unden
▁należ
▁rice
▁наук
▁Investig
▁pue
how
▁lle
▁separator
▁OpenGL
';
像
▁cz
▁sooner
▁ordered
UM
▁spark
Ag
icile
▁scripts
▁GO
Ч
▁destroyed
▁Invalid
pi
▁esterni
req
стро
▁employed
▁Ль
ania
▁bois
left
▁typically
▁czł
▁Simple
uer
▁más
Runner
▁spe
ember
▁passenger
▁civile
▁Jag
▁sua
▁bases
Χ
▁früher
▁tempo
▁округа
contents
attribute
го
고
owany
ee
ò
▁Poland
▁Left
lacement
▁conform
▁Lak
develop
▁Lebens
ig
▁tipo
▁abund
BUG
fill
ът
▁inaugur
spl
▁partial
▁augusti
include
▁dance
▁hurt
../../
erdings
▁guests
▁гг
публи
źdz
▁>
fol
▁após
ittee
▁breast
▁return
▁finan
▁speech
deutsch
ёр
Daniel
gex
▁xmlns
▁Кон
Lou
▁feed
xf
▁Vier
stelling
▁arrays
')`
▁перио
電
plugin
리
▁arist
'])
Equals
Details
quire
标
▁Süd
▁Tout
▁or
ур
fel
▁vain
')
cció
▁Bio
Mvc
ово
ской
ppi
ództ
ová
▁bot
▁Japon
tel
▁Schutz
icular
▁Space
proj
est
▁whether
▁plaats
if
args
rale
黒
▁ř
Abstract
▁Dat
▁squadra
▁Yan
▁attitude
gen
▁siguientes
aker
Session
▁fou
▁subst
▁рабо
Host
pois
,(
▁Muslim
ree
▁schedule
▁ms
▁corresponding
läu
▁Vern
!...
▁tx
üssen
▁Buch
пар
▁Vincent
▁subjects
▁interaction
▁за
▁Pac
▁dece
▁{"
поли
▁уда
Impl
▁nak
bounded
ŭ
volume
▁mo
ources
▁Па
сла
_+
א
CCN
ieben
ira
▁{{
▁Chief
▁officiel
な
ַ
erson
eps
óg
ці
<0x83>
▁wished
▁cult
▁Nel
fully
▁Right
▁McK
analy
sol
на
▁south
▁snippet
teen
{#
▁dis
▁lift
REQUEST
ushing
љ
request
▁roce
▁cinéma
▁mal
isEmpty
die
wol
▁evaluated
ąc
▁summary
▁Mün
▁pok
▁mod
▁faith
ву
▁manual
iva
▁bord
Descriptor
sequence
▁birth
typename
▁Move
prop
▁Lé
lossen
mor
ntil
▁Lö
▁mysq
prefix
▁deutsche
icz
▁testim
▁conqu
▁documents
Alg
ourse
▁systems
={
subsection
▁example
Unis
▁Dort
ovat
ђу
▁Brow
▁twelve
▁thin
▁baby
Row
meta
▁evidently
▁chang
▁moves
▁wet
▁personnes
▁ov
▁facts
▁Einz
SIZE
DEFAULT
adre
▁autre
ikk
▁Museo
▁Bav
anes
▁Universität
lagen
Б
gebra
▁Primary
▁Integer
бом
ਾ
uellement
▁circles
bě
▁Zag
▁dd
WH
▁animated
IZ
mart
▁generalized
▁Vice
▁Memory
eerd
Utils
차
▁функ
case
▁necessary
tot
▁Girl
▁Bear
ears
▁Lord
▁suiv
▁Selected
▁rgba
▁wisdom
▁units
▁Мор
tó
取
▁test
▁languages
cket
▁mission
▁Month
Not
AT
](
Driver
▁refers
standing
▁Ener
▁peculiar
▁Engel
JSON
▁feeling
▁crash
ready
гле
▁featuring
orithm
ació
▁pochod
▁Command
contr
▁Database
kel
▁manten
▁banks
()`.
▁dedu
ป
ет
izar
ologie
▁unh
▁geb
jpeg
▁Bapt
каде
_{(
▁highway
rit
▁pitt
▁INNER
▁ав
▁recursive
▁LIKE
loster
▁pesso
▁registered
ages
▁excess
▁One
▁heav
▁Asian
▁Victoria
cadem
Pl
▁Warsza
<0x23>
▁dump
▁centrale
▁Бар
arz
כ
▁Tel
▁органи
▁completely
erno
▁ocas
▁partitions
長
▁gé
▁edge
▁mul
▁tutte
Question
▁Pere
eles
javase
▁reference
▁jQuery
▁cum
Eng
Rule
}'
▁kao
▁Schne
of
ầ
cludes
▁zo
ij
▁killing
oding
▁used
²,
▁Боль
<0x32>
лены
лови
▁Brothers
▁Мексичка
Bundle
omsnitt
▁intercept
iums
▁chair
▁foram
▁formerly
wach
eur
cing
level
▁personal
▁Sport
▁janu
▁Franco
▁Origin
чество
anguages
парта
▁coupling
ональ
ержа
▁XVII
babel
_{{\
atic
▁nearest
▁bu
▁sia
▁specified
▁indicator
▁pulling
Receiver
▁household
bove
seq
▁Bonn
спе
▁Driver
▁faz
▁Pakistan
Longrightarrow
ąpi
oku
лення
▁katol
group
ong
▁chi
вой
▁desp
▁alco
Show
iska
rece
ipp
Activity
ston
maz
▁techn
Cast
oco
ô
▁м
données
lete
▁bek
ület
▁tuple
▁компози
▁moral
▁but
ocument
ют
vik
▁chiesa
orch
▁kamen
OC
рия
▁coinc
мест
▁them
▁Mann
▁Васи
▁intros
вало
▁Landes
──
▁divided
▁automat
▁який
dział
лій
▁Sierra
▁▁
ktop
連
▁hidden
binary
uria
▁sjö
▁mismatch
proc
▁ri
ensemble
▁días
camera
▁это
overflow
itect
urb
progress
▁inizi
▁eigenvalues
▁rencontre
férés
▁believed
▁друго
ктора
▁compat
▁или
▁prim
▁extra
ARNING
Ка
arto
▁<?
ា
▁Electric
段
▁INSERT
▁jeunes
<0xD7>
▁Bret
▁Battle
ivari
▁Hoch
▁West
▁Dig
▁corr
ango
▁infrastr
added
стави
forEach
cean
▁runs
▁catalog
ows
ව
measure
̄
encoding
▁Gli
▁maja
rock
▁lights
inn
▁Em
oul
า
▁ат
▁compag
▁equivalence
oval
▁SDK
▁prin
iki
($_
вая
▁delet
▁us
▁który
мин
▁akt
opts
▁spo
泉
▁Constantin
UILD
▁cr
ucht
werk
соб
▁parlament
irectory
▁quelques
angers
‖
▁этой
пр
▁speak
validation
▁copy
ences
emi
▁Efter
▁pulled
rik
▁Those
ßen
ские
▁так
▁:-
unic
<'
▁Spec
cpp
mad
<0x1D>
▁Holland
▁Rach
▁läng
▁wrote
▁came
ограф
dist
한
▁marriage
lj
ље
invalid
ést
▁pal
▁Ster
▁mud
▁locally
々
isan
▁Shared
spark
жена
ockey
国
▁(\<
▁experien
owned
▁multi
lim
rist
▁state
▁locale
▁Word
gor
▁accessed
<0xA9>
▁GUI
шла
▁луч
▁Reg
▁DateTime
▁fant
minus
▁Trust
aked
ก
부
▁Lic
ług
▁view
ülés
),\
▁świat
child
▁invånare
RC
▁Rud
erm
Visibility
▁answers
▁Kno
▁Beautiful
▁Partei
▁Portal
-
▁runtime
Home
Ready
plementation
▁wheel
▁letzten
eng
▁popul
開
▁page
,”
分
кола
ptic
▁volumes
▁modelo
▁upload
iverse
▁manner
▁merely
esses
PL
▁bzw
VER
▁pl
▁Feder
ұ
▁subscription
▁Gary
iencia
Company
ding
▁Si
▁péri
▁Be
▁Otherwise
ค
▁conser
machine
HT
nach
▁Now
tx
▁cho
atiques
▁Altri
▁всі
▁kind
Child
▁prec
ignore
▁Mor
add
▁Japanese
▁Career
")]
▁Campe
r
▁nag
▁communities
cius
}]
Exec
▁коро
▁Network
Invoke
▁solo
▁сем
total
niu
ollary
▁à
▁leaving
▁nue
▁osc
сси
óm
agnostics
▁anonymous
undle
▁mut
cile
▁Pow
▁village
！
▁Maler
▁acc
▁Посилання
▁meet
▁prov
▁américain
▁Results
bour
ére
▁Eva
ède
▁contest
▁Meta
php
кти
▁wand
▁lord
pec
brary
ਰ
