daughter
所有
iro
处女座
進一步
▁obstruct
▁daught
▁economically
▁pandas
▁miles
操控
警
▁Directory
eful
wolf
▁legislative
nmagnetic
▁ethical
原文
關注
▁dying
dule
▁mixes
)*
\\@
将军
▁Amazon
^{-\\
的力量
发生变化
就是个
imals
观测
▁candidates
土壤
▁publications
率先
ographics
▁draft
Mx
por
▁heir
celain
口碑
耕地
的信号
▁Chapter
▁JS
▁gum
▁Send
ger
輪
▁elit
更为
·
seen
玛丽
体外
NER
少年的
无限的
PCR
▁SM
▁duel
深刻的
案外人
cube
机制
▁WA
▁button
RE
Util
电动汽车
calc
区块链
gar
+”
▁Doctors
▁eagle
陸
▁ansatz
▁Indy
Robert
实地
▁instruct
<|unused107|>
自愿
那位
▁retirement
辙
妨
production
nLe
inspired
▁assortment
孜
♥
悼
助攻
anche
▁numpy
得起
AWS
▁telescope
▁youngest
敛
▁Cath
FIX
fluid
局副局长
讨论
▁devoted
▁sheets
▁FC
病
▁всички
而且
XXXX
uled
nx
чен
▁vault
知識
)}{(
不在
▁trump
▁stock
ford
特定的
Signature
▁classics
鬆
▁redist
板块
慎重
▁Julian
▁forces
的机会
的我
nBel
Doc
▁liberation
前夕
build
▁expense
亲友
难得
无一
коло
▁En
Socket
▁sponsored
忙
豆瓣
▁crises
▁minima
祷告
▁raining
▁peace
感知
第二次
▁EOS
宁愿
inja
▁misf
wire
意义
Back
▁\\:
▁humanity
▁artif
這樣的
的信息
namese
下雨
▁Romans
▁Haus
								
文旅
遍
還
调节
急需
並且
omin
▁Enough
出道
▁criticisms
擅
>&
不着
alism
回答
某种
game
▁recruited
nCustomer
份额
▁Beginning
茸
▁enthusiast
▁Pompe
▁tok
豪宅
煤
▁balcony
Selector
深深
销售
▁child
船舶
▁seller
design
▁Easter
fuel
▁specialist
▁stabil
仿真
婷
auc
从轻
▁undermine
会造成
畜牧
车位
忠诚
▁Iv
ی
心事
掷
木耳
nhigh
▁Hyp
飞的
:)\
▁alignment
清澈
▁multipl
赚钱
▁middle
▁Either
▁all
Iterator
我知道
while
游乐
热闹
▁Convention
四川
('
週
▁cp
sea
吾
bedroom
▁another
僚
control
▁SC
▁southeast
福特
炎症
▁arm
▁Adm
ANU
甚
棺
▁medicine
支持
heter
ivari
Mzk
М
▁emotion
ickness
▁colors
VALUE
很不
▁infin
▁lines
▁Bul
▁literature
▁neighbouring
的工作
客场
地带
anged
拼接
nGovernment
第三
▁Production
强迫
Further
yer
▁enc
表扬
▁Trace
uni
▁bapt
reversible
姚
jupytext
坏
▁Event
▁Lay
传感器
海淀
一直到
▁crate
▁Border
▁January
最深
运动
▁instruction
▁rob
汰
▁P
港澳
TH
▁displayed
从不
Drop
▁stayed
▁Compl
极易
iefs
稳
culus
了一场
▁ham
дата
~~
washer
廷
ocial
▁electrodes
▁govern
▁challenged
损害赔偿
予以支持
善于
chel
▁Press
▁unusual
有条
时而
▁Delta
nInterestingly
让他们
▁retarded
self
▁Congressional
▁heterosexual
▁heel
nCreate
▁templates
powered
▁barred
icators
辦
verb
powers
oren
ито
▁Rack
ri
更重要的是
{\\\"
oters
▁singular
▁parity
战中
▁rc
lod
gin
wyn
纪律
▁avenues
歌声
把你
经开区
▁pubs
当然是
良心
总工会
开机
mercial
的想法
sy
番
昆虫
兴起
钢材
党建工作
叠加
nWhich
不想
间的
ше
=\"
Rend
▁instructor
引发
保守
▁Blair
可不是
▁iterative
}\\\\\
▁pieces
Ob
▁sle
▁imprint
工作机制
▁Fruit
baby
VEL
▁Mama
▁crisp
辩解
的她
▁receipts
▁ascertain
服
▁subscribe
监测
▁customized
ko
忍不住
▁simultaneous
碘
吟
提起诉讼
体现
良好
▁qualifications
ä
▁mel
▁airport
cre
▁sodium
▁ot
方向
hens
▁drained
了解
green
▁algae
▁presenting
称之为
zt
▁Gam
▁едно
▁seniors
npub
现阶段
▁dissolved
开发区
▁sick
<|unused140|>
表达
▁sentiments
▁expensive
branes
would
复习
rivers
Bytes
和工作
▁Cay
第一大
▁premise
▁resolving
▁poems
belief
傍晚
出生的
▁principal
其他
▁floats
nine
naments
踝
都没有
▁steer
google
▁solitary
死角
▁Exercise
盔
nSh
品牌的
▁monster
成型
▁sights
financial
▁Northern
电梯
▁weeds
▁excitement
学堂
▁Mr
Major
▁professionals
▁rud
齡
核心价值观
必有
▁nationals
安全的
▁remem
▁hill
▁assist
CU
▁venture
)/(-
▁shimmer
▁Ive
郡
nvalue
▁vig
▁Laplacian
降幅
▁Bab
▁sustainable
副会长
轼
▁clarification
全程
盟
rolet
战斗
通用
▁CMB
Frank
▁Ash
▁corpse
OX
ril
mis
▁wax
ncirc
调侃
当作
枉
Del
可怕
▁Sant
枕
berries
oders
▁whereas
▁Spark
nTip
whe
上海
▁holdings
OU
批评
▁dementia
eloc
afa
PAN
▁blew
歐洲
层级
白糖
▁Low
ined
▁thermal
▁sampling
▁sciences
▁slowdown
▁Lud
ants
選舉
▁Strategies
只有
▁belong
▁tasting
▁spokesperson
icy
psilon
在一
|>
Bi
主要用于
▁warm
\\(
ddd
▁fruitful
▁adrenaline
▁proofs
▁discriminator
如下
指着
fff
居然
plex
失踪
县委书记
гава
<0x0D>
动力
▁Treat
毕
▁storm
▁Sunset
虔
市中级人民法院
▁delegates
腰部
▁张
難
▁Etsy
▁Photos
food
proxy
命名为
奈何
▁pump
▁hyperparameters
ordan
ernandez
ortune
Warning
▁Jak
▁fence
－
angu
性与
文中
高科技
▁severe
SR
题材
委員會
▁semi
slug
>>>
elsius
oft
▁Bear
plier
已在
可以帮助
Controller
Girl
欧冠
▁clips
杆菌
▁Edition
奥
nWhy
▁vendor
调制
心病
走去
N
▁strong
▁educator
供应
▁GC
Prov
市委常委
帮助孩子
▁col
backed
不仅要
▁theatrical
▁sparse
小学生
▁Artists
▁gallons
ymoon
年均
专项
▁<
elve
▁ri
hered
策划
**“
▁rebounds
Wednesday
对的
▁hands
額
开启
谢谢
质感
▁ensuing
ación
cientists
▁Jews
▁accelerated
的气质
adaptive
onda
在所述
▁butter
ucl
更何况
立即
subsec
Liu
Member
▁Desktop
看我
PC
▁Mem
UST
\"\"
▁type
连接的
oga
^^^^
内容
▁generations
工人
▁legitim
▁evalu
孵化
纪委
很小
▁clin
▁grip
总能
▁conducted
▁gig
▁borders
tre
缩小
懂事
▁aut
檐
获悉
'})
状态
Position
rations
▁sage
cells
▁envelopes
讲究
Component
动漫
clusters
完整的
▁spirituality
▁Hire
MzIz
集团公司
掺
George
done
umeric
▁pressures
▁Bart
acht
打扫
ibu
NTk
▁masturb
泥土
▁possible
▁graduating
▁resignation
▁hard
ARD
的自然
eV
过敏
▁Sund
的家
ancell
▁killers
▁Pearl
了一条
我从
reet
感官
mol
▁AdS
劇
▁alloc
Dy
新规定
条例
mer
▁questions
▁bets
ugs
▁slug
wd
找不到
ooter
▁window
▁Rid
一贯
▁rearrange
桂林
▁flowers
▁pl
nr
最高人民法院
▁Ship
你去
▁Including
▁teasing
造
▁progressing
克里斯
stub
▁Stand
▁PS
一支
冲动
▁evaporation
适度
羅
sda
▁prog
还真
}~\\
choose
做题
DOS
izophren
当年的
\"];\
梳
anchor
nBrad
组分
▁blu
▁zu
袋子
▁There
塑
▁obstruction
▁Railroad
ings
▁metals
▁opioid
联
▁someday
▁pile
大楼
▁disks
Soft
▁milestones
▁CLASS
nSenior
▁Lemon
target
▁squat
▁fm
屡
大山
phanie
▁longing
▁equip
沉
度的
▁INFORMATION
音乐会
猴
▁Sail
hyper
helpful
им
VAL
leftarrow
下方
立项
的外
toEqual
<|unused076|>
▁unw
▁Stra
▁schematic
▁chronic
ル
族群
Username
且
nDeep
record
▁considerable
▁Base
披露
▁protesters
▁construct
全场
assumption
_->
▁inf
LIB
▁topological
▁eaten
▁Techn
▁period
心灵
单位的
▁envision
▁писа
▁AE
maz
Wat
mapping
帧
籌
▁IQ
lake
得到了
uci
▁targeted
guided
恕
很长时间
▁argue
▁seating
▁whatever
使我们
objects
交警
▁stylish
]);\
▁track
width
主任
▁absor
▁surf
bach
▁кръ
▁mushrooms
▁Willie
萃
▁drives
签约
災
碳酸
nGiven
<0x5D>
ред
▁occupying
礼
elf
apers
打电话
medical
▁prophets
NDg
eny
▁Certificate
assin
Sl
▁weaken
▁predefined
▁opa
$}\
▁tossing
▁Comm
一向
▁IDE
▁Milton
姐妹
casting
▁Horizon
der
已于
時代
▁OT
CONT
▁\\|
▁permissions
▁diffusion
▁plaque
eddy
affe
▁Built
▁concealed
▁readonly
就可以
▁breaks
Axis
▁regularization
标
▁script
ция
cz
创作
sg
▁suspicious
▁:-)
Next
也会有
▁profil
MT
▁Imm
▁exponent
AJ
▁Cele
annon
胸
扎根
▁remind
▁matter
▁CM
]^
▁~
▁impressed
▁го
▁grocery
珊
▁outcome
▁accumulation
枢
▁Hate
iana
nequations
phan
別人
芬兰
<|unused062|>
pense
='
▁sorted
▁Housing
▁Structure
▁postseason
Both
EDIT
▁Collections
istered
社团
aurus
recogn
vider
▁milk
▁Tutorial
Р
akers
Figure
异议
四是
npotential
ninto
▁Officials
▁swift
堂
峭
▁Stat
▁moon
租赁合同
用实际行动
责任人
結合
▁across
section
▁shortcomings
的运动
▁tempo
▁cogn
了一把
mans
半
▁suic
▁BJP
脫
▁Robot
plementary
媳妇
带
▁those
specific
在线
差别
rtimes
▁tw
转化
▁Bee
▁inst
▁oscillator
▁truths
▁involve
▁Sir
▁aspiring
pse
▁everybody
▁Mir
▁takes
nObama
DoxyCompact
一举
Map
细菌
投影
▁achievements
▁uh
凋
Data
▁具体实施方式
家门口
ASP
commit
UTHOR
痘痘
▁wob
▁galactic
alin
▁Sp
nApparently
▁builder
事实上
终究
二手房
堵塞
卜
噬
▁deploy
Pop
efore
實現

▁strive
▁avoidance
狂
▁tries
ousy
发放
вата
另一种
▁Mega
▁neo
意图
▁keynote
的孩子
Hard
时效
▁stare
坟
不好
更多信息
很
anyon
▁explo
▁standards
送达
▁lasts
污水
▁cous
▁Complex
生产基地
▁moral
的工作人员
DOM
从我
一个大
ifully
▁paths
▁lun
constructor
writer
pressure
▁histor
▁stash
▁ла
▁Katrina
的内容
尔夫
乔
尬
<|unused030|>
▁changing
doi
▁collaborative
▁arena
伸
制造
▁packages
▁vanilla
存放
listen
comput
ayers
▁duty
就知道
▁fluctuation
nmark
習
▁spray
▁somewhere
▁icon
sk
三天
等地
处于
nu
劫
ani
全力
爱的人
▁educate
ection
▁scholarships
新规定影响
不同意
▁blown
▁warmth
▁cascade
▁inadvertently
▁Soccer
<0xA5>
▁phone
我们能
均为
irty
等
play
Store
▁fulfilling
▁decentralized
ymes
tained
▁waterproof
phe
<|unused081|>
▁realistic
交通安全
▁month
自然而
nJoin
▁fading
▁voter
▁für
Exists
tret
生鲜
出名
▁importantly
nil
妇联
▁nuisance
invalid
<|unused075|>
▁−
纪录片
▁monarch
供暖
休假
▁(=
还在
▁trad
▁Kings
▁heroes
nTips
▁kil
▁record
nStudents
▁ghosts
吉
上赛季
website
▁Ia
應用
▁extra
▁contents
rang
aries
制定
▁Bat
土木
取消
▁overwhelming
▁cell
▁MW
职业技能
然大
▁fiery
区分
▁subsystem
▁Len
▁ко
▁careg
接班
万股
▁vigil
纳
ected
还好
书籍
▁reception
消息称
气势
总的来说
后果
door
Patter
▁thirty
▁bindings
unknown
暴
valid
期间的
哈佛
对孩子
▁babys
检修
Short
▁wors
nRob
不光
organization
▁Natalie
竞争对手
▁Va
▲
nProb
节气
必须在
▁feasible
papers
Spin
趾
▁screenshot
format
mel
NjQ
▁swiftly
nPR
这场
的同学
写出
nable
冻
之后
▁Ш
learly
仪式上
动机
科技有限公司
▁FD
其间
Lay
▁blogging
既往
OLED
截止
pread
生产
等证据
八年
▁isolate
TABLE
成果
引导学生
▁Thompson
▁M
Load
eld
ayne
auer
▁intentionally
▁spa
起点
Posts
▁Cos
訓
跟鞋
▁games
▁Ident
人才培养
git
努
▁MAG
aternity
▁lick
氛围
他们都
暗示
Advanced
宝宝的
▁terrific
nLocated
rystal
我还
更喜欢
范围的
奉
nes
▁difficulty
▁stopping
低调
noticed
▁talked
▁accommodations
▁ва
ument
▁animals
邯
▁quests
▁plus
ل
▁prejud
▁compelled
运维
▁Jan
▁CE
▁chassis
▁chocol
fc
▁Christopher
颁发
▁philanth
▁unexpected
TextView
▁Reuters
▁canal
▁Thoughts
承
▁Share
free
早日
）；
seed
折射
▁dry
OG
▁sorting
▁намира
▁metic
▁mas
无人
▁speedy
					
focused
他們
expr
bie
origin
regulated
▁opt
而导致
ncd
天气
刘某
▁Raz
FT
тори
tok
fd
▁aloud
▁Gun
翠
lene
主播
▁员
▁upright
不该
ny
▁measurable
▁vacuum
▁slew
维护
▁forecast
还是有
▁accomplishment
izon
在这一
▁Desk
▁orthogonal
nFacebook
能把
▁ages
reson
pty
▁Hawaiian
▁c
ea
olutions
hentication
的中心
攻击
技术创新
URI
▁Michigan
还有
一头
今生
优化
nBuy
螃
tset
▁producing
审批
▁paused
遗产
删
▁group
适合
▁Census
nset
▁CEO
argv
▁Window
知道
▁extracting
▁protests
▁capped
▁Triangle
ployed
lessness
▁tortured
老师在
orney
▁categories
▁progressively
navbar
▁porn
▁McM
construction
许可证
▁vow
▁productive
输出
特勒
▁Despite
ousing
入手
▁medal
▁lesser
/(
的经历
▁celebrity
▁quitting
beq
柜
burgh
扣除
PHP
IB
▁Bud
垫付
▁Surface
ison
nfree
▁Scandinav
▁profanity
驾驶员
arb
▁bears
CDM
威海
▁host
▁spatially
▁It
▁committees
▁Kos
stmt
当我们
住院治疗
▁Output
▁programs
Five
ensure
飛
融合
`\
缓缓
条规定
迭代
uez
avorite
▁determine
▁Basketball
▁indictment
▁Keller
ieve
▁Fee
安逸
晚
▁craftsm
▁Ze
<|unused087|>
▁Nos
^{'
▁provin
VERSION
擊
▁deficiencies
▁Bone
传感
▁drunken
磊
▁causes
万千
KE
黑白
gui
▁gateway
▁garlic
艇
▁comprising
word
)}\
告
没人
▁favorite
▁Fully
▁gained
并将
;<
绸
▁given
▁graphs
▁Em
itely
▁Sciences
根本没有
饥饿
▁Libraries
承诺书
プ
▁blanket
▁arc
上帝
财经
座位
failed
快速
产区
oshi
话剧
翡
▁pirates
膜
▁plan
成功的
领导干部
feeding
▁merchants
▁terr
▁resultant
跨越
master
名誉
目的在于
了他
}{|
▁modifier
▁menu
▁baseman
ciples
▁NH
沐
▁pending
内
▁Birth
▁Answer
▁Foot
ocular
▁Aviv
▁мо
Delete
canvas
ience
arrings
▁psychological
预备
特别
Object
nSte
▁sup
人大代表
uddenly
▁Pap
ODU
volved
ESCO
晓
▁relie
asc
▁invitation
管理和
授权
秸
agine
▁hacks
▁employed
歼
asks
Wave
亲朋
Balance
▁Threat
▁twitter
▁medicinal
跟他
▁Subscribe
▁ty
证人
齿轮
▁paintings
▁Diane
的眼神
▁workspace
副市长
curl
▁paradise
▁Mexican
病变
OTE
▁Integ
MH
不下
▁notor
省内
forms
压迫
▁paraphr
inv
▁Via
少了
JM
▁storage
▁pairs
▁political
▁nominated
▁applic
jud
vasive
找回
管理局
补充
Sets
▁override
'_{
茫
die
自然资源
‍
▁bitter
weights
EEK
岳
▁MERCHANTABILITY
alph
地看着
subscribe
我们不能
giene
二是
▁NE
necho
infect
增生
▁corruption
▁gradually
iracles
nUp
▁tun
▁statewide
getId
Primary
▁compet
政治站位
两次
往下
为我
wild
▁Muk
▁decide
▁$-
▁maxim
uction
了自己
可以用
ivic
低估
ulent
▁Manning
▁internet
表述
vc
新春
▁accomplished
▁reputation
▁either
ithe
▁login
▁Sit
▁exits
▁carrot
ifference
*;\
防腐
宜
成熟
內容
erences
▁pose
viewport
汾
reb
prototype
和她
eep
安娜
▁wound
燃料
▁Rouge
▁Economic
ixon
▁Bow
NASA
Jul
▁drum
iamond
DEFA
ensions
▁ensemble
paragraph
Feature
nassoc
▁Pa
▁faced
▁safegu
维生素
最长
菁
▁historic
喜爱
草
▁visual
▁consume
dv
IMIT
▁insurers
▁witness
上升
assertThat
任性
▁Hon
▁strengths
▁venues
고
废物
look
另外一个
java
准入
asty
▁cultivated
▁Update
▁CJ
▁Polit
破解
发达国家
RH
nPay
▁integer
听到了
rued
Rank
▁sweetness
演艺
▁Neb
▁DM
透明
▁divergence
▁PU
▁Band
VD
cool
▁Chocolate
除尘
yalty
▁М
dg
▁reporting
ven
▁wires
開始
Fore
借口
kw
algo
▁placement
▁Spart
▁instr
▁unexpectedly
▁版的赞赏功能
crew
▁hardware
biggr
周围的
▁remain
pmod
▁rap
问题是
▁je
▁External
澎
▁Gent
nIron
▁vocal
▁departments
的其他
已
滿
▁wife
腺
执政
▁aqu
▁RC
▁scoop
)^{-
▁JUST
▁Hold
中国经济
revers
消失了
可以看出
结石
▁economics
手套
▁中
ript
▁cuts
▁pursuing
▁diagnosed
巩固
established
uccess
▁contradiction
%%
▁equival
nApart
就餐
▁hourly
▁Muslims
共建
▁liberty
ource
糖尿病
▁Savannah
▁substrates
nAge
榮
马斯
邵
▁ah
但是对于
▁vigorous
▁spots
^-$
謂
DR
面對
▁altering
年轻
cr
hk
▁Troy
不论
directed
drawn
▁accredited
私立
众
unningham
▁granting
笑道
兜
▁Drive
▁drawing
exact
GH
▁semicon
▁pave
下
▁Cambod
▁quadrup
▁ръ
▁im
('<
腰
的因素
旦
ASH
ound
血清
▁Celebration
交易
▁om
▁learning
▁socket
Advisor
仍旧
GRAM
<|unused115|>
▁kin
完了
的时代
pets
请
确立
istration
▁wall
unctions
sto
武帝
或者其他
▁btn
▁Dogs
patial
▁trainers
▁referr
▁comput
健脾
▁revised
Condition
)|^
particularly
CAN
▁mines
▁poss
再
Conclusion
衬
搶
▁Я
hover
责任的
▁synchronization
Segment
Omega
▁soap
减灾
▁Parade
сна
多地
▁leaders
▁Ав
成语
▁Killer
▁я
不禁
日均
warm
▁defending
multirow
nFigure
times
模糊
▁Tweet
ONE
ngreat
adv
▁lifestyle
▁Linda
▁pric
▁recon
Prec
普遍
世的
nIns
洲
ifa
nstd
▁competent
▁Academic
索引
>();\
▁spontaneous
nPort
鬥
▁failure
宁德
整体
partition
connections
听取了
▁Howard
Mate
昏
orm
▁Es
SERVER
proc
nMusic
▁feminine
霖
oton
▁tokens
nPal
▁Hammer
itecture
▁Sing
而言
Very
▁researcher
nWeight
批
▁retros
▁rights
车的
副教授
▁riot
矿物质
敏锐
了一声
激
用量
猎
畏
▁challenge
▁Agriculture
▁refuge
release
poke
尽责
without
}}/
nless
人体的
▁frequ
▁seed
GI
▁prayed
biz
often
称呼
мпи
gged
▁mapping
ncalcul
▁filename
▁why
▁Nex
▁UW
▁relieved
▁wheat
dt
▁pronounce
強
他认为
tml
以及在
蓬勃
▁desirable
▁awhile
rath
换乘
▁aerial
办公室
▁quarterly
▁Burl
股指
很重要的
生态文明
保证金
汁
▁intake
约占
给你的
isa
是要
▁Brig
YES
hop
==&
▁reloc
▁unrel
▁gamb
▁Division
▁Notice
▁Bir
虽然没有
琢磨
ificent
婴幼儿
▁wins
▁epic
執行
生活中的
[-
出來
修正
prob
iang
法制
▁potatoes
ware
English
摄入
▁Chandler
的人格
餘
接
同樣
patterns
▁proceeding
▁intra
ane
df
▁cash
road
nThird
伦理
不宜
ucas
nem
rupts
element
▁Clean
pe
AC
▁viable
门口
▁males
▁Blue
olics
ARR
坏了
川普
▁Jung
rien
▁cylinders
Don
▁subsets
不适
____________
hum
安卓
▁Crazy
▁factor
▁ranking
风采
skirts
灿
▁Browns
▁conclusions
笔录
▁спо
▁intrigued
辗
▁board
formance
▁dot
rum
▁holders
▁Wild
arus
▁MAN
esville
▁Tools
▁buttons
bounded
reward
机床
di
走路
橋
chan
unior
风景区
工信部
陈某
的女
aps
——“
漏洞
▁capability
nusername
▁proced
测算
▁guidelines
▁Id
你还
▁$%\
)}}\
▁mic
备受
▁Bean
▁Marina
▁Cain
折叠
▁Sony
▁jeopard
nHis
▁drones
V
loud
▁funk
其次
掌控
ificant
wheel
DVD
探测
▁injured
▁pear
党的
团结
纪念
强大
spectrum
▁dial
▁Medicare
黑客
▁Taste
債
▁Francisco
г
▁exp
Owner
首家
▁discovery
▁treat
match
模式的
pix
nOriginally
▁dismissed
▁tide
▁rolling
▁MC
与其
报记者
的电话
向西
▁enjoying
高水平
})\\\\\
orb
▁sons
梦见
▁basil
拖拉
¢
创建
sect
世人
lander
▁ин
大声
<0x60>
一样
公里
▁impair
▁kids
时候
▁от
▁techniques
▁empty
▁laughter
意义的
▁drug
▁IMF
Marc
~*
▁hail
太后
▁suspension
vious
▁Sud
▁scenery
nHopefully
邢
▁uncomfortable
▁simplified
▁Resort
partner
CTYPE
的正
天蝎座
Dom
▁Things
也对
▁specialists
作案
生孩子
utter
console
景
itations
找一个
▁Accordingly
▁apologize
到来的
万美元
許
时常
▁shopping
▁Daw
线程
BT
▁volley
▁advers
明顯
asket
使用了
▁Alert
本能
▁troop
е
nFeatures
https
項目
k
Pic
stone
▁disabilities
扮
hetics
▁\"\";\
bia
历经
溃
均已
▁idle
▁bart
si
loving
▁scanning
校区
▁Bos
▁denominator
侥
)}(\\
yers
▁Mickey
nQuestion
style
hh
▁pant
▁luminous
▁projection
▁PURPOSE
igeon
▁arrived
unci
ape
血栓
params
演的
商业
厦门
美金
的名字
试行
▁compiler
▁confronted
请您
▁Liberty
也越来越
碑
▁other
▁Leader
▁directories
她还
甲状腺
善良
挡
机构的
ometown
▁labeled
▁rid
own
cdfa
决定书
設
▁citizenship
常住
拥堵
▁staggering
▁sellers
▁pitch
欧洲
thing
▁spotlight
会不会
▁[[
謝
middle
从业人员
漆
▁Demand
ishop
nmost
▁perf
iversal
发明
裙子
nCombining
▁Jul
▁Those
Shape
▁Bert
▁semant
▁deterior
athetic
猜测
好消息
Class
▁disput
ney
评比
Aw
▁SAM
nScience
密封
▁PF
handed
Preferences
lucky
▁election
vag
▁whistle
approxim
▁nutritional
▁borrowers
bigoplus
▁export
▁голя
▁debts
㎡
炎
▁battling
ables
佼
相比之下
▁Happ
類
水量
▁extract
azed
css
专
慈
Algorithm
▁Cluster
dz
▁photometric
▁span
▁deferred
_
▁Cou
▁normal
▁stages
▁ле
τ
事实
CHAR
ть
一步
晶体
^*\\
:)
托管
INGS
▁Suite
房地产
弥
exam
▁bum
▁Nolan
▁Signal
意见
▁proximity
毛利率
治疗的
За
anity
▁arrival
金融科技
一起去
博览
▁qubits
组建
っ
化妆品
rying
此刻
像
CE
再现
olphins
▁Ра
}_{{\\
制宜
▁corpor
▁rolled
工作站
_{+
人士
▁bags
▁Cu
версите
▁site
▁reportedly
扩大
庚
▁panels
室友
Last
hyth
▁COUNT
文档
enberg
ebra
▁his
▁tens
▁Go
过来的
电竞
迫
況
▁th
疏散
加息
oven
▁HVAC
VP
▁trium
▁withdrew
▁passport
$('
▁Copy
▁image
村里的
庭
▁infinites
渐
<0xE5>
▁docs
e
ono
国务院
▁Character
icals
運
其实在
济南
\\\":\\\"
导入
ewater
▁MMO
oscill
▁unity
bank
against
▁()\
cfc
▁bank
▁culp
<issue_comment>
▁Practice
▁stumbled
March
倾向于
滩
▁Tro
ст
▁disadvantage
▁affinity
在工作中
天上
iev
trained
收藏
活动
Dict
▁Freddie
Z
gences
收据
▁Porsche
▁Disneyland
乞
▁thwart
想过
▁isot
▁robbery
▁piss
逃避
aster
女孩子
▁contam
▁上
nNotes
雲
yml
▁civilian
▁Bruno
▁programmers
定性
ا
ignment
bestos
▁Yesterday
政府和
▁acquiring
nDesign
ncross
itch
$\
emic
比较好
vely
▁matches
▁stupid
ffffffff
▁ripping
cw
part
剪纸
▁Italian
retched
teous
▁eliminate
eliness
▁gate
学者
▁mail
▁worries
▁date
▁PN
▁aggregate
metal
装机
▁casually
AX
的东西
觉悟
穿透
nMean
▁exempl
然后用
]{\\
▁sexually
▁noticing
▁McN
甩
ractor
▁rew
eno
▁questioning
的场景
▁indication
在其他
▁organism
won
是自己
▁infring
essed
Relative
▁boring
重温
▁arrested
▁anest
<0x87>
成年人
Forms
oS
到底是
▁baths
▁husbands
八个
ouds
走来
勾
時候
晾
▁++
这件
就行了
omy
conda
vez
凤凰
▁vou
rist
<0x72>
shift
发动
▁combinations
着力
▁тери
▁Males
▁Warriors
排骨
篇
▁Doesn
▁tensions
▁multil
▁Luxury
▁Secondly
都喜欢
▁reasoning
第一批
▁inquiry
各方面
Sports
orp
▁Oregon
和新
≤
<|unused150|>
▁ske
стра
▁prevents
▁Kingston
'];\
ids
塑造
▁Mush
▁annihilation
▁retained
分之一
海上
ablation
配方
功能
umb
奖励
alks
▁stainless
theta
遣
佩
nEveryone
甘草
教會
umer
▁mapped
minor
▁rust
▁фа
throws
nate
▁superconduct
舒适
地下
▁anthrop
Transition
▁Fourth
▁VO
С
itutions
俗话说
跟随
iji
Simulation
ocaust
▁das
太难
▁explores
issance
вно
▁Discover
亲
▁tidal
▁Beijing
该怎么办
▁unpaid
佬
做个
共鸣
▁Or
▁Bush
身的
rank
的就
aro
形的
Бележки
▁streamlined
▁clut
▁lonely
截
栓
nOkay
忽略
区别
▁redd
听取
他把
keep
巴士
<b>
":"
ech
itus
▁slider
▁length
Big
成效
▁commission
hosted
▁narrowly
▁fidelity
用药
爽
▁Byte
▁median
▁SY
idav
▁албу
ICK
▁Beautiful
我市
ophren
▁architect
▁FOR
▁intermedi
融
的局面
在此之前
tk
有益
▁guided
▁shrink
▁restore
▁yelling
原始
转运
▁probes
▁Underground
▁exercised
▁където
▁consisting
▁hesitate
inue
CAD
海南省
姿势
▁fil
▁Graphics
▁Saints
额度
+}$
essel
AdS
▁aest
能力
▁VA
essa
鞋子
相比于
▁director
犹豫
olecular
楼盘
▁Farmer
ALLY
▁quark
henomen
▁whim
FET
localhost
受害
▁chips
两种
开通
High
▁kingdom
iews
};\\
▁const
▁promot
▁tracking
▁thousand
大了
缓慢
盯着
mosp
▁Water
▁plain
▁page
当我
臀
▁call
▁largest
iciary
的小伙伴
隋
头像
щите
TCP
terminal
▁quantitatively
▁Kom
)):\
▁squir
▁travellers
时代
minimal
Pal
了一张
▁LTS
▁APIs
商
Exception
嘴巴
▁Seek
fair
萬元
nScott
便秘
▁erg
▁Session
trade
精髓
())
▁MLS
而出
戏剧
▁experiment
▁transferring
▁someone
riter
Cache
提案
▁HU
manship
推测
▁arranged
unique
0
月底
岁的时候
▁self
nfound
胜利
文本
▁Assistance
igrants
读书
▁utilize
iner
▁Tort
▁stress
一家人
nThree
▁vampire
Le
nNor
orsion
methods
刚
▁plastics
shields
nBoth
内心的
古镇
奖
村子
ility
nCard
補
▁Commit
ubuntu
把他们
▁derivatives
▁Ку
▁ю
伙伴
顾问
非遗
References
皇帝
▁Password
▁ма
▁quicker
导致的
▁Glenn
最少
elia
▁':
▁cameras
选择
▁circulation
▁cousins
那样的
大概是
具体情况
▁volleyball
delay
▁thinking
alo
▁Sweden
說明
展厅
▁Greene
training
▁Fridays
Support
十四
nDep
经开
▁Lightning
▁Conservatives
的一家
倍的
▁Reform
FileName
西方
好几
▁hone
▁viewer
emetery
新华社
ч
学员
ión
▁Welsh
获批
▁Midwest
熙
iob
▁stopped
▁Ja
router
衍生
▁coronal
istas
▁Ole
▁тех
nAlthough
不顾
▁taxes
著名的
▁lawsuit
jar
▁unavoidable
验
月中
简要
▁covers
use
▁campus
编制
▁jumps
存在的
浇
契
给他
chars
ради
也开始
equilibrium
uties
搁
▁scales
Used
▁seismic
▁appetite
筆
器材
稽
和文化
ruled
觸
▁red
生病
cart
▁Floyd
植入
杯
考生
违法行为
CHANTABILITY
▁html
PL
忘记
加拿大
▁seasoned
上图
Without
Steve
孤单
制造商
第一个
父亲的
业内
之类
死者
Planck
hor
▁coordinates
unc
nthey
却是
newline
高点
▁Day
\"<
▁wiki
Hey
al
刹车
奋斗
台词
顷
▁valuation
弘扬
风力
estial
cue
птември
听了
三层
EF
▁scare
container
采
IF
pm
commended
阻塞
chat
▁misuse
▁symbolic
▁Atlanta
宣传资料
给的
=(\\
披
▁feasibility
▁boosting
▁Ge
▁rugs
▁somebody
▁residential
下的
vertex
▁cartoons
空气质量
▁qui
▁Combined
寂
忽视
EA
▁LD
▁caves
▁grandchildren
▁DEC
▁dome
nTra
▁Arg
夯
应由
定的
▁hazards
琐
▁upstream
明显
▁meme
▁publish
▁cooling
情绪
▁Trust
Arrays
胡
开水
杂质
广州
申请
▁store
并无
▁unconst
length
tmov
为了避免
κ
問
▁labels
atory
$('#
Compare
捂
▁\\(\\
毒
艰苦
▁OF
伟
▁neat
▁Stefan
▁enthusiastic
保持着
▁utter
▁possess
ixel
zos
<0xBA>
▁ordinance
旭
茜
的核心
▁tears
ned
这也
Appro
aturdays
▁medication
譬
Statistics
▁condoms
我的
▁papers
▁^{
▁HI
▁focusing
▁ninet
Simple
▁timer
nINS
War
夏
帮助
▁enhance
告訴
▁weekend
▁Rad
▁Fly
一致
▁CC
默默
▁pan
)}_{\\
莫
医疗器械
MjI
館
}{}
开展了
anne
second
▁TF
ithic
当地时间
▁metast
……”\
▁Exam
刘邦
适时
gorithms
潮湿
▁shake
的表情
▁handy
torch
▁tax
ultane
▁prefers
耳机
．\
▁Shir
到庭
▁com
辖区
漾
屏蔽
▁Motion
▁richness
▁Cal
▁boys
争做
极端
防空
跳水
ora
早年
▁softer
Operator
路段
は
债务人
措施
▁physically
到最后
位居
▁inactive
pri
pendicular
▁optimizing
广东省
▁lows
▁carbohydrates
▁Jal
▁Bor
Python
皇
也正是
▁goal
避孕
▁rates
▁irregular
Jon
ist
ajax
言论
和完善
ump
seeing
哮喘
▁detox
▁advance
▁reaches
▁defective
排在
ves
akin
欲望
▁rede
得住
识别
▁LED
▁defeated
clude
щата
▁plasma
捣
攒
кт
ense
审理
婴
Video
igators
Find
▁couldn
setcounter
nge
▁play
▁stern
參
农场
▁harmony
)^{
▁boot
片子
nadd
几位
cream
▁smart
▁Montgomery
<|unused057|>
ETHOD
▁repeated
▁insights
▁horizon
▁social
十里
腿部
开放
ntemperature
▁gadget
▁promoted
▁recipient
cluded
ndescription
德斯
▁Reynolds
渭
nOpen
▁invisible
容
分解
动摇
签订了
pared
八月
▁pencils
ingale
击败
▁Corinth
确诊
icion
足迹
Proc
等相关
景象
▁Territ
不听
nService
multline
▁awards
完全没有
▁Dick
▁fantasies
je
elling
rian
▁unanimously
▁modelled
insured
▁新
ippi
shan
liers
仑
cele
遍地
捕捉
但由于
中国特色
▁Symbol
▁resign
▁incentive
nFinal
▁avoiding
▁Centre
▁Exc
視
▁wearing
ressive
机动
Pad
▁sparkling
本发明
MR
咬牙
▁girls
ween
污水处理
▁neural
▁Graduate
▁environment
▁mimic
肝癌
女方
社会责任
▁Joel
的老人
▁Registered
▁officially
赵
▁bug
抬
achel
▁cref
朔
听从
▁irrelevant
confirm
ifiers
algia
▁Charity
属
循
ü
▁Kash
人数
nQuestions
▁blat
限额内
approved
都能够
▁Shape
States
沈阳
在国外
艰
少数民族
不错的
▁DV
▁broker
▁Parenthood
灌溉
战争的
信息公开
argument
▁slice
dam
▁contribut
▁hospit
▁Norm
nBob
识
▁significantly
<|unused034|>
Handle
aspoon
▁taller
第一
oll
▁suck
感情
arith
stituting
的小朋友
▁той
тера
▁facets
▁apps
▁Construct
▁taking
个月的
▁diplom
▁dependable
网络
▁Code
bit
▁gras
)</
▁labour
}&=
岗
▁disagree
虛
增至
▁umb
中秋
comp
Row
sunami
нг
fbox
▁monop
▁)
位置的
▁redshift
▁voy
▁flies
▁npm
后面
matically
底下
▁Sig
nper
▁advancement
▁freaking
▁approximations
Pre
▁confirming
mob
紅
需要的
eston
▁${\\
▁encounters
uating
颐
Phys
荡
rupted
▁raises
▁Element
▁импе
▁sharp
滨
▁torsion
▁Hawai
▁ч
空气
amento
他们将
▁government
有可能
▁safely
院的
agg
Green
第三次
coded
懒
▁student
国企
惊人
▁inertial
slant
▁occasional
▁Rights
▁reason
▁Oakland
▁Environment
▁spy
常见的
商务
笑着
互通
constraints
屏幕
法律规定
ouston
▁Rays
ems
kins
document
mers
全员
▁Ads
▁Shelby
▁Songs
▁sophomore
绘
▁Background
▁Celtics
生前
离不开
▁###
陷
高度
拉升
npar
就能
plify
会议室
▁governmental
模样
encer
▁parliament
們
UR
减肥
▁shareholders
▁KL
ninclude
▁exquisite
▁housing
▁confuse
盛世
大专
▁colonial
分担
▁cas
▁Deep
切割
drop
▁failing
ignty
property
ILE
▁gates
▁Bund
nden
无愧
▁density
裁定如下
奋
describe
是小
▁innovations
已被
▁reconstruct
那年
&=&
合适的
Submit
remove
▁LG
主治
▁interferometer
nWithin
故
▁socks
网址
姥
▁houses
ه
▁Tehran
StackTrace
ostic
圆形
▁decline
Theorem
arded
接地
▁lover
edge
全国
bearing
▁El
▁checked
▁directions
▁responsive
大臣
ont
数据
Validation
实战
jury
安排
▁Yo
腳
所得税
階段
input
▁nature
▁delightful
▁Nixon
在前
运算
▁Madrid
▁stole
▁пла
▁apprent
盤
各种各
astro
▁inev
plemented
▁jury
▁teachings
▁tweak
pec
▁Stories
▁Med
▁hallway
mie
處
swap
ogeneous
▁phil
▁Frozen
▁pointing
▁WANT
$(\\
▁livelihood
▁misunderstood
integ
copyright
裡
▁tim
jpg
aml
▁Grass
政府
▁tire
pire
興
ombre
岩
▁disob
зира
的动作
除此
▁Coke
▁containers
▁Ferguson
午
▁haunt
前途
actly
oud
▁photos
щи
cuts
▁respectively
▁impacted
醫療
▁repetition
税
▁filmmakers
nPage
Mor
种植
▁sensors
▁theatre
乖乖
▁intervention
虚
自卑
評
▁unforgettable
不行
Scott
收取
▁examine
▁practices
▁jan
农产品
议院
gages
▁qu
新闻
▁Snow
▁Toronto
了个
ETS
友善
Sub
测量
▁junior
▁Chart
nwh
▁Islanders
▁ups
湿润
▁ounce
侨
fully
▁DEF
说不
icans
年
▁configuration
▁'\"
zier
重点
▁GR
仍然
▁Roy
nRobert
odynam
▁blended
▁▁▁▁▁▁▁
助手
▁CITY
愿望
▁Gur
▁ATP
敢
▁factorization
▁alerts
quote
Vis
意的
礼仪
▁no
agers
▁Euclidean
▁Rap
▁ки
olphin
▁Equal
ordinates
nLight
现金
egie
▁Tank
▁che
▁intent
necessarily
分鐘
▁midfield
▁Voice
caling
CMD
斗争
念
杀害
肺炎
战线
▁sne
▁fragr
nPlease
agu
▁Gem
▁immensely
▁grad
关
])\
▁traveler
mu
▁capacity
▁diamond
▁sincerely
▁Near
bn
回升
▁comes
▁syrup
raisebox
▁BMW
▁conditional
▁Gang
zes
▁divid
重要
大衣
_\\
到期
社会实践
)--
▁tutor
<|unused094|>
鸦
▁interception
▁project
hc
▁flavours
▁produ
▁Saturn
生活会
be
▁internally
nYes
色列
▁Examples
▁\";\
如下图
涉嫌
▁infiltr
出口
养育
▁[\\
vue
▁knit
▁machinery
▁plate
▁уни
▁beginnings
判决书送达之日起十五日内
▁ال
巴巴
杜绝
猜
hydr
让你的
专业课
沮丧
以来
overing
▁Mother
charging
举办的
同时也
下达
irez
▁Lib
▁pt
▁greater
她们
和第二
▁Agricultural
▁music
▁decl
▁sunset
寒
▁Vienna
iate
▁Knicks
hydro
('\\
陣
不停地
▁cannot
▁cheated
fram
挪
和学生
教室
▁traditionally
华尔街
▁muscle
▁alternative
言语
指定
ometry
▁cruising
无锡
ć
△
▁Policy
豪华
厂商
蚂蚁
Njk
erala
nOK
沫
预防
简洁
▁fortunes
老师的
枯燥
袁
听见
▁Minutes
▁assembly
引起的
▁FO
nJuly
▁scrap
一切都
山脉
nselect
让你
inally
▁cv
▁Elementary
中华人民共和国
but
**（
▁ig
タ
α
盡
uted
冲锋
rs
▁Cere
決定
▁bible
vit
▁indent
▁uphill
僧
▁whiskey
anni
▁sounding
▁info
游戏的
▁pulling
December
歷史
OUGH
<|unused006|>
)>
▁School
ocratic
介
Unfortunately
▁dipping
奪
瓦
双重
▁downstairs
actions
▁Fox
nMarch
Ax
▁abundances
▁controlled
生活习惯
▁captain
KY
研讨
儿子的
▁portable
▁Sol
▁monol
▁wagon
▁Partner
▁Charlotte
居委会
▁sunrise
地道
警戒
病例
browser
旧
禮
本案
▁Principal
▁thankfully
较量
形体
在于
发挥
全日制
▁Bengal
▁thinks
项
▁officers
▁crossed
讲话
/}
肯定的
ental
$]
▁terms
▁Comparison
而我
▁Netflix
ну
ebruary
slide
商量
▁hovering
}=
rr
访
▁Always
▁Sanders
发掘
兽
也不用
▁Fall
▁Unable
▁watch
turn
▁further
bias
形成
nresult
uilt
▁shedding
GPU
防火
受害人
ende
▁Birds
azines
othe
heat
ploy
督导
我们就
顺势
朗
alt
颜值
▁Twilight
▁WR
维斯
夏日
Serializer
债
▁cattle
评分
▁Joh
▁redeem
路过
йки
nImportant
(-\\
荫
没问题
cccccccc
▁Orleans
就近
▁berries
▁Wins
▁revers
残联
滔
以上
要做
逝
设定
▁mayor
作出
物联网
套装
▁flipping
▁Ос
emph
数据分析
}$\
Buf
nFin
orth
▁scen
▁deaths
▁constitution
founder
▁specs
▁tribes
ouns
箭
图表
一起来
Prefix
Good
▁pesticides
▁taken
攻坚
▁results
▁Madd
▁erad
怎能
坚
天津
▁marched
▁spacious
▁portal
▁chuck
邹
nBy
▁suicide
▁tofu
▁implement
channel
goto
aws
出
Lock
骚扰
胃
阀
痕
苏联
卑
MDA
品类
▁Lon
▁Marco
▁stack
▁Classical
June
▁Hebrew
дова
▁Acc
▁награ
Plane
▁subreddit
▁At
点头
▁mortal
于一
▁conferences
国债
为一体的
}}=\\
执行
▁meantime
▁merging
Auth
▁Transaction
起床
utch
leys
eway
▁respecting
▁caution
借条
▁hatred
也會
▁hypocrisy
▁elevate
▁psychiat
▁Plans
atterns
Chen
ANA
▁unsett
▁shall
忍
ativ
▁gast
▁entered
nSingle
▁grid
笼罩
nPS
outh
▁Syria
roduced
▁experimenting
傲
是大
▁ventilation
▁communist
itored
▁crunch
ometimes
▁tightening
▁observing
术语
▁starting
▁motion
nmuch
сил
nMuch
location
▁interl
Sa
生涯
▁defensive
不乏
▁magnesium
大队
lywood
▁Verizon
sever
▁horny
▁Documents
▁gotten
義
黎明
▁Upon
▁cab
▁finance
▁inher
举行的
ullen
зика
殷
相处
超高
▁heter
臺灣
感染
Anal
iour
▁Sov
especially
▁super
▁Say
▁manual
чна
正当理由
Literal
例如
占
加盟
ifle
idency
rican
▁Lifetime
rill
▁responding
什么都
nCharles
iblical
▁Bl
▁*/
胎儿
▁finals
反之
了很多
畢業
▁Highland
▁Court
▁chilling
▁performed
运作
▁emphas
▁umbrella
▁cuz
譯
rangle
▁prohibited
唱
回到家
映
▁calculates
只需
▁grind
snap
▁obstacles
淋漓尽
送
nAn
中介
▁reconstructed
▁sur
лото
▁decoding
ammers
▁wrestling
dimension
不被
▁Fran
▁supplemental
▁FWHM
▁lobby
禹
ARP
▁intentional
▁proposes
hosts
▁centr
▁whis
钥
ingu
雏
郊
▁heuristic
學習
scriptstyle
▁Throughout
▁OL
duc
▁condition
}}{\\
▁credit
▁joining
vitational
▁rope
lings
外国
nPr
▁contexts
将达到
培
发现自己
venient
时光
▁moments
▁Conference
▁chores
外星
求助
▁dataset
▁Egg
és
▁approval
▁occupied
▁Cycle
正向
狠抓
政策
▁PG
▁daughters
Pres
fam
▁pret
[
▁anxiety
▁misdem
▁fab
▁logical
ndiff
干旱
▁Hermitian
▁quantitative
▁Wrap
minster
▁Wiki
冲洗
bfseries
ettle
sequence
▁cu
血液循环
▁perturbed
長
zed
仔
老了
ledon
CD
nconsidered
经济增长
▁hue
▁greens
逼迫
<0x98>
lbrace
nChina
pes
▁JO
灭
ession
recated
最有
▁curiosity
▁reunion
不曾
帮助下
ierarch
惕
但是
typed
nants
VG
ロ
сно
蝴蝶
bucket
仪
的名义
▁mortar
▁alongside
航空公司
▁enacted
▁Samsung
racing
契机
得更
接近
mits
▁ERA
是一项
不用担心
听力
▁Message
▁Ng
种种
穆斯
ndensity
有关规定
坊
▁cock
textsubscript
我便
▁vocabulary
dong
扎实
Pattern
咽
调动
+-+-+-+-
▁migr
▁manageable
▁source
昨天
▁Brain
▁picking
▁configured
专心
ckets
trl
mathtt
丈
导航
落到
▁mit
compute
▁finite
过节
增进
眼科
ft
体上
▁реги
colsep
迁移
Apply
合伙人
沉浸
dat
▁Tip
~
nTwitter
耀
澄
rect
提供的证据
▁rods
虽然是
思政
▁Designs
CLA
平整
拾
Menu
▁provisions
上来
nLa
Observ
基礎
▁precipitation
疑似
吓
ale
vect
▁mentality
旺盛
们都
window
安全性
va
▁detrimental
HB
xxx
蜜蜂
}~
▁instances
▁wip
▁refreshing
▁following
sembles
中国共产党
的根本
评议
ADA
散文
的小
文明实践
sole
▁hab
制的
<|unused074|>
纽
));\
▁prominently
两位
实实在
enn
-\\
ouse
help
BE
道歉
▁TEST
織
resistant
iat
以下简称
就连
▁even
cut
道路交通
▁Rest
▁Ath
▁paradox
组的
小龙虾
▁similarly
▁uploaded
董事
进行检查
▁face
automatic
ividually
▁seeking
停车场
▁interrog
adapter
納
型的
▁Mod
▁Marathon
▁tradem
对着
Unique
▁ir
<tr>
sw
configure
▁dead
权重
They
▁summ
纠
enko
▁Somal
▁Download
Mark
春季
▁elo
▁skirts
▁pace
啡
sed
▁kilometres
ulating
抑
香港
emark
一笔
▁indirectly
裏
ilingual
▁lethal
▁mats
▁Yang
多少钱
uario
▁Kerala
▁μ
明年
会同
▁Chapman
requency
aves
其在
但她
大家可以
▁Limit
▁Hamiltonian
▁themed
▁Center
▁arrangements
却没有
▁Gra
▁openness
▁reaching
+\\+
试用
Task
ies
▁mud
▁ми
積極
▁exercise
厂家
紀錄
▁rang
)}^
Everything
nesty
▁Crist
交集
指挥部
andal
的情形
▁monitored
电脑
▁spectra
nCr
Disk
symmetry
在美国
基督
▁technologies
进
挺
堆
aints
▁LIN
过多
大城市
学姐
蜡
▁fifth
喝了
▁aunt
▁Position
我也不
▁Durham
整个
cone
九龙
JR
▁Cur
▁Twitter
已经
Center
ecome
▁селото
▁driven
engers
人心
\\+
积极开展
气管
Fixed
nStart
逃生
谈判
仇
▁enforcement
流程
耽
达尔
duate
restricted
她
的治疗
<0xD5>
▁Awesome
陰
統
為什麼
譬如
权利
▁illumination
ncomment
夺
億美元
类似于
▁gear
金融机构
Repository
▁using
较好
antom
▁Astron
ol
的李
▁start
谁的
首发
▁prejudice
▁arte
多月
nNe
泼
nQu
▁parties
PDF
大便
▁pursue
▁CBS
▁Loop
▁Calendar
arf
錄
脱贫
=~
▁Walt
唯独
VERT
食品安全
▁Behind
▁Days
ancellor
thus
不满
Cod
你说
大概
总局
件事
araoh
动画
achi
nLastly
▁Fitness
▁detective
▁an
ARI
產生
港
▁beliefs
降临
数十
遭到了
Tele
▁psyched
aley
▁promising
▁honour
▁laptops
▁woo
replace
匪
<0x6C>
談
医科
enario
无力
打动
緒
▁scorer
▁MAX
▁resources
WAR
结束
number
自然而然
wau
\"]\
pecified
ohn
▁Sample
valueOf
征求
▁pastry
开办
▁recalling
nConsider
▁segregation
手柄
的结果
品味
▁adequ
認
▁Pauli
就去
养分
▁neighb
▁MO
雖然
<jupyter_code>
▁requesting
根基
▁ambient
▁insulation
▁Boltzmann
酬
搅
曾经的
▁reciprocal
▁>=
▁governed
gd
▁After
nce
▁rivers
▁семейство
stylesheet
три
Four
strings
▁thesis
秘书
硬的
形势
▁Team
nSpe
氯化
▁careers
拉近
根據
Post
▁inflation
▁moderate
▁millenn
▁COPY
▁compar
▁clever
▁Earn
出租
智库
jet
现将
)=-\\
家里的
▁Gonzalez
▁advisable
hibit
一词
Alert
Author
ustrial
ncoll
接送
ambda
▁Links
▁infamous
▁Grab
discussion
现今
▁enemy
根源
的那个
相识
▁grandma
▁repet
▁intervals
到场
starter
没啥
override
center
▁Instagram
▁habitats
opes
▁nebula
同比
▁originated
}}=
这是
▁sharks
▁bisexual
▁Dawson
––
▁talk
首先
isons
回落
Initial
beb
副总裁
자
的品牌
一年级
变
$-$
投保
▁orientation
▁entrance
{[
▁wrink
▁victims
ao
分工
▁creative
▁principle
▁ROM
为自己的
ngiven
真题
▁Treaty
▁rooms
顺序
报到
公益
一带一路
▁Facility
acity
▁warns
富
飞机
▁▁▁▁▁▁▁▁▁▁
▁Israel
▁magazine
▁Site
▁Larry
看书
化
▁condens
乌
自定义
▁Fah
▁fool
主营
升华

UID
农业农村
门前
▁Lite
能否
违约
热潮
nAverage
方程
落实好
nTen
▁scraps
▁bread
▁coloring
▁felony
▁Sterling
宁静
分娩
▁pros
▁pend
▁Class
}=(\\
▁visuals
ventions
朱元
▁judges
camp
▁teeth
▁recycling
ioxide
农业生产
▁served
▁bal
▁specialty
▁mentioned
kh
响应
bringing
const
码
added
NG
▁shocking
\\&
干事
▁beaut
▁Opportun
owitz
kx
▁speaker
烤
APH
就不能
脸色
ungen
▁Laplace
]+
insert
mem
▁pussy
▁representation
▁software
auto
nic
▁Summer
▁cialis
nextern
感触
\\%
EPS
分为
处长
尚
▁Personal
然后
一本
组成
知识点
▁chased
节省
板
▁clashes
break
▁resolve
ara
神仙
▁Pioneer
<0x10>
▁Wrong
遥控
▁piled
學
usal
钩
▁colours
里面的
嵌
▁Borel
ank
▁gun
这时候
过去的
苛
ylum
朝
拍
▁stored
是好
哮
▁classes
kim
木质
uri
abor
▁flags
▁dusty
者和
▁technical
(/
▁Pb
ulum
網路
traditional
<0xC8>
瑜
变了
▁unite
宗
丘
ntyped
组合物
war
结果显示
▁technology
STM
ervation
мет
钰
tim
昌
▁bland
▁heard
roe
▁epist
▁parabolic
ogram
二醇
▁Dennis
制
<p>
}'$
駕
unction
促进
bits
▁therein
▁spelling
▁investigative
▁leveraged
带宽
▁beam
лу
лага
ODM
▁cottage
$}
认识的
龙江
▁tissue
intent
分別
ch
变更
▁protections
▁repaired
vents
nStep
▁fin
▁fitted
▁really
老太太
Align
tuple
▁fragmentation
受损
Voice
虚拟
▁older
搅拌均匀
可以考虑
▁Dominican
|\
dn
没必要
▁wishing
取向
保费
之後
▁Rec
▁quite
的意思
▁albeit
田间
制订
▁African
▁blow
springframework
▁arch
实
疑难
疑
LINE
▁disrupted
▁suspend
和高
的内
trust
odox
▁Nu
iness
大神
大陆
CA
▁език
▁dedicated
领导小组
Front
请你
苦
magic
▁Real
isp
]=
于所述
▁overdue
BU
魁
占领
▁erosion
攻
<|unused007|>
begin
ECTION
让他
syn
▁exponential
bis
豪门
▁neighbour
▁Machine
}{
利益的
▁cross
&$
à
▁Го
Gi
fps
▁chain
▁trapped
消息
▁teenage
▁turt
▁dismant
NonNull
clusion
idden
▁Your
▁acceler
光的
▁lifelong
▁Merr
写
itutes
▁gain
▁corrupted
▁jets
tprivate
▁combined
觉得很
扫黑
歹
▁Theme
▁Ralph
Tx
车主
iop
痛风
▁holidays
参谋
▁BR
icator
▁inde
tn
▁enact
oppler
口语
发展和
nMan
prite
categories
▁affirm
▁inheritance
建立了
ODc
声中
▁franch
▁helpless
足了
▁saved
辩护
▁Mint
би
▁dealt
teen
举动
wow
SN
走势
媽媽
▁integra
人民群众
无情
ira
nered
胳
▁Animal
▁offer
▁Bern
来实现
的那样
▁possessing
Round
▁bedding
▁clich
我不是
▁Burn
EB
▁Hollow
▁cutter
耳边
無
财报
▁fals
▁cre
▁nonlinear
泗
▁Miller
▁suspect
▁question
▁Puerto
▁tasks
▁concer
▁Earlier
侥幸
报警
▁Carnegie
▁whore
眶
的前
▁lav
▁google
河流
riad
都是在
▁grapes
▁bowel
art
老公
America
多云
▁haird
citealt
词语
減少
▁Ser
▁Regulations
rolled
nTheir
▁masters
oup
一步一步
shell
olog
вер
靶
▁palette
▁disciplined
▁relaxation
nwhich
reaching
结算
nWas
▁ride
▁traditions
=%
折扣
▁sediment
▁Kerry
公积金
zbollah
小板
nMal
防火墙
ancouver
uro
▁стра
较少
▁още
山村
▁Only
白羊
▁arg
项规定
nab
等同
但你
▁Platinum
宰
health
▁trek
▁Wood
▁commentators
▁gloves
都不会
nyear
▁reviews
▁Silva
▁Fal
▁Guid
▁SMS
▁tenure
▁dough
coming
▁eleven
装的
-{
横向
nle
革
▁NOT
蕾
当她
▁competing
nTitle
上部
av
▁Starbucks
ство
*-
勒
direct
东南
▁iconic
▁Jeff
▁Danny
Uns
▁invertible
军团
▁Return
▁impose
▁bailout
▁authored
▁stuffed
▁errors
▁Word
mir
////////
Autow
EVER
▁exactly
▁album
答辩
▁popped
nMr
其一
不予支持
ST
beta
途
所以我们
(@
▁christian
▁Humans
你是
▁IA
条约
▁spaces
▁steps
nred
andy
初步
封装
▁Ent
exchange
кия
nBefore
就会被
又被
arms
▁Audi
▁imp
Carl
gae
▁Natural
ardi
到底
лови
Handler
exp
typ
佈
__":
分公司
▁hi
穿上
航母
是什么呢
时间
防治
▁mercy
▁pervasive
▁vort
清代
▁regrett
▁Choice
▁How
▁abused
速度
</td>
飯
Jesus
irteen
阐
▁prohibits
<|unused146|>
眼看
▁decidedly
▁wellbeing
風
▁remedy
ntz
中国特色社会主义
▁ferm
去找
研发
ree
COM
▁phases
▁Owens
也有一些
婉
幅
IOR
▁Fun
▁process
▁come
▁poll
稀土
▁conc
iox
▁Warning
▁sm
cons
外来
▁meetings
▁manifest
scalebox
Anim
і
▁encompasses
不败
视频
▁Б
mil
▁closes
▁Victorian
developer
作为一个
▁Cons
▁worlds
发烧
liber
▁teachers
的电影
▁Break
ijk
饮料
的技术
实现
▁Blues
]*
▁testim
}$)
▁transistor
嘿
▁Div
▁duck
▁sunny
▁debates
特殊的
▁offending
▁фил
///
▁fore
<0xF7>
udi
欲
▁realities
▁grand
这在
{%\
▁armour
”)
▁systematically
一事
科
▁ѝ
▁xxx
▁humor
mathbf
为人
教育的
停下
成品
▁genetics
▁Janet
▁earns
时限
▁ag
支气管
银河
▁coincidence
tro
老板
▁fix
▁algebraic
一张
影
▁mediation
▁Бо
应用于
▁fle
nSo
▁stra
▁Cultural
惰
向往
▁superb
▁antib
▁efficiencies
读懂
手中的
隐
approx
街道
需要在
UDE
▁Mas
nfl
▁plas
▁FTP
}+\\
▁—\
▁brave
′
增加
▁ft
看上去
容纳
▁hundred
跨国
▁Offers
房价
▁phy
echo
▁Valentine
hedral
财运
▁twins
变速
Connell
▁corrid
能看到
本次活动
▁Saturday
桥梁
▁proving
推出
▁styled
▁…\
▁dubious
已成为
nconditions
$};\
▁malicious
▁originates
prefix
ired
▁segment
Authentication
的一个重要
弃
▁IOException
将
za
Board
聪明的
▁Bridge
attery
第一名
粘
Toggle
ailure
istan
▁fats
李某
巴黎
书本
▁SSL
季节
lb
女孩
/)
▁analytics
retty
▁emphasized
vehicle
uka
▁Fear
VIS
县域
▁Fraser
▁sending
您好
▁honoring
▁dispar
кти
boldsymbol
子上
implicit
FROM
砚
ampionship
第二个
影子
巨额
崛
▁uploading
應
百年
nHam
▁Adv
核算
▁directed
与企业
橙
pectives
▁spons
商品房
▁unreal
hoot
▁vertex
▁tmp
nHol
ideal
颜色的
牢记
ATT
呼吸
敞
▁pic
**(
提升
athi
ihad
Im
}$$\
rop
▁The
本科
▁Alien
▁def
ashing
▁squad
nLater
▁Rail
▁raise
▁Capital
▁actors
IGH
呈现
nReal
随着
公立
▁highs
▁история
疫
▁Finish
▁Pav
nDecember
▁elders
External
▁WAR
▁Sessions
▁Buddy
想知道
тър
▁McDonald
就是一个
November
▁Supplement
oting
可持续
▁Marcus
Endpoint
ventory
money
ifts
▁renov
优惠政策
開
下课
annie
PIO
由此可见
上路
cutting
▁Map
▁dudes
orate
在后
的组织
▁Richard
▁primarily
▁beams
高空
▁skew
三个月
Include
觉
果
nCongratulations
dff
▁man
▁discipline
▁WHAT
主导
▁awa
aji
镁
hesive
显示
凝聚
中方
▁Poland
omers
▁Bless
Icon
制动
沙滩
▁removable
▁Authors
illed
卒中
景色
▁washed
▁hurts
一如
▁tomb
做完
▁км
official
racking
总理
也更
方便
▁praised
tdefault
增添
▁Rate
心
得益
还是会
Console
mathds
▁conting
coins
相较
▁mut
▁feedback
旨在
]/
▁Gandhi
收视
里程碑
ospice
ality
▁Conduct
AE
([\
频频
▁drawback
fx
▁Shoot
辽宁省
同年
抚慰
预先
清算
▁exposures
谈话
▁statute
ading
ordinate
isman
▁electrostatic
与你
creation
并不多
Su
▁radio
小红
culture
alf
在不同
…"
昭
适用简易程序
帶
▁tapping
▁possession
tti
ynamics
tstruct
客厅
预防和
▁Ment
價格
提到
ractice
▁shakes
島
该怎么
▁Rogers
▁Poor
three
▁electrode
不起
ecess
fine
▁servant
Donald
▁streak
egal
actual
rangian
快乐的
我将
▁corona
调整为
机身
VALID
▁abandoned
健康
ials
▁Market
▁Authority
}-\\
бра
ntemplate
突变
敦煌
诊疗
▁django
傷
业有限公司
俗称
▁Age
▁Blank
▁па
▁laptop
▁electroly
全县
wifi
Internet
▁Lip
▁ye
沧
▁cartoon
新冠
hematic
紧张
就用
▁patriot
MW
▁hex
oment
▁DEBUG
加了
街上
dimensional
oil
▁markers
地为
ty
ixin
Bigl
▁racial
▁endurance
ieved
你没有
他们的
▁Anthony
▁sisters
▁tragedy
▁equivalent
nMembers
JB
违法
宣称
▁testimon
理论
自由的
山地
挂
北
每人
▁spouses
▁–\
▁Often
▁Orioles
什么事
康
▁colour
高新区
Clone
sock
心里
itivity
▁crib
Type
▁visc
');
▁natural
▁elaborate
xton
▁pipeline
升至
花样
▁himself
寿命
sheet
те
▁prost
▁unpre
▁sock
NE
▁institutional
▁Simon
▁earliest
лно
就说
一朵
舌头
▁slot
▁dwar
▁Salv
▁crow
攀
rens
nshe
quiries
但
▁Present
▁taught
▁Osw
▁administration
▁prototype
不给
you
▁bc
生活
比上年
自学
猪
▁Blanc
Eq
挚
他们对
越来越大
呼
En
上课
才华
▁около
▁Shell
raphics
eor
ndet
Learn
nTable
▁verb
后面的
原告的
开幕式
income
▁didn
Note
意义上
▁parametrization
▁nap
▁Interview
phants
▁treaty
照料
▁going
端
▁inverse
▁Te
▁texture
云计算
nipeg
▁Angela
nan
▁▁▁▁▁▁
EXT
vature
▁ect
▁quadrupole
费的
▁downloadable
管理人员
▁prest
电视
▁Starting
授
功夫
data
{}\\
transaction
▁Istanbul
计时
uing
due
新中国
Exper
ran
下半年
▁triplet
$^{\\
▁Maid
▁drag
休息
会导致
寺庙
▁hearts
短暂
sexual
▁Polar
薦
亦有
▁thanks
是国内
era
艾
▁stones
▁pooling
▁meant
改编
▁Jewel
▁UNC
▁stir
隐形
▁EP
▁gram
▁|\\
此时的
▁let
月的
▁Sea
野生动物
▁Cob
packet
合影
ailable
大有
▁archaeological
▁analytical
▁root
CAC
Limit
▁programmed
依据
任何一个
▁Sex
故事
▁additions
unes
▁Tennessee
▁rain
<0x8B>
▁brid
▁cushion
物件
card
▁restaurants
Dto
ments
矢
▁Wear
挠
▁shared
▁locus
osher
实用的
主体的
可笑
一期
]\
▁discouraged
▁realization
segment
▁Kong
▁downhill
Book
boat
▁Approach
▁tem
slot
dp
nJo
诉求
▁ny
▁cart
nLog
▁imprison
我国的
惶
振奋
]"
保险人
▁combinator
docker
▁theoretically
Canvas
▁guideline
▁raid
Window
▁Release
▁Rally
创新能力
▁benefits
▁Crit
感
ehicle
我们还
▁pulsar
登场
▁any
selected
▁outlook
▁upfront
▁X
▁infantry
▁monk
畫
昼
▁fundamental
▁Sometimes
▁Continue
Question
取了
rw
抗菌
伏
shal
▁sensor
▁Scholarship
落后
的那一刻
parse
▁fiction
▁wafer
nHigh
леми
新闻发布会
▁deployed
夫
▁protesting
▁club
从一开始
取决
<0x68>
污染
sina
nLife
nOr
▁contains
好像
▁cake
<0x8E>
深知
▁长
▁Pel
▁Leaf
义乌
▁mass
entity
nAppl
邀
――
款式
uchs
ype
owned
消毒
&&\
▁grace
▁mund
Package
ensities
▁cosm
涉及到
▁crashing
▁motorcycles
品格
▁useless
超出
▁Celt
shadow
▁precious
▁immersive
techn
overed
▁Mun
nMatt
▁comb
无量
wb
的开
counts
虚构
ili
誌
MASK
▁brill
腹
哈哈哈
▁ignored
逝世
▁Central
▁employers
▁hand
▁след
随处可见
讲座
抵押
讶
仪表
了大
射
ema
Rv
sor
队伍建设
学生的
kswagen
的画面
是没有
▁unanimous
го
生动的
▁Crow
▁alive
▁Bon
本届
▁exceed
▁Democr
Language
是一部
湖北
辩
ROOT
▁bothers
▁engaged
▁Half
tik
Bell
靠
▁torch
創作
person
购买的
大约
认识
▁erroneous
▁pessim
bor
▁protected
老大
maximum
▁significance
端部
武汉市
▁Fi
老伴
月二十
▁ministry
▁describe
安慰
抵抗力
ick
否认
▁Ras
译
▁\\#
▁Latest
dated
▁Prin
nRemove
ross
▁command
▁athlet
▁entropy
▁Vitamin
女的
摄像头
不确定性
再审
egative
但我们
▁tribal
過程中
▁open
posed
▁fu
▁delicate
▁relied
掀起
赁
雞
plots
默契
原来是
心想
騎
soon
▁Kick
▁questionable
定制
&&
的儿子
行業
▁Win
那次
服饰
<0xCB>
▁Stress
intel
▁began
▁Senator
雇
沼
▁Works
▁rocky
▁extraction
將
PB
一说
更
坐
▁awarded
▁Mind
曰
▁tip
▁про
▁deterg
▁White
▁plaintiffs
▁bias
correlated
爱情的
了一系列
想让
饼干
▁DNS
墨
▁Kenya
充当
酷
尽快
網
做法
urst
OUP
▁proves
▁bay
possibly
lace
▁Rac
▁THEM
换成
arriers
▁friendships
卫健委
王
��
谛
stit
实施例
▁storytelling
▁stamp
▁Shan
▁Nor
ichael
屁股
▁disgrace
但他们
▁nightmares
▁promotions
其中一个
▁Managing
传
cially
_{(\\
野生
而成的
斩
旁边的
▁unsupported
党委
右边
ARM
QR
versions
▁Ten
视线
绳
锅里
▁rockets
贯彻
amel
道路交通事故
RT
這種
bm
▁IRS
Mzc
▁Minister
▁alt
　
▁Hindu
着重
期限内
$
▁metabolic
|}
component
旅游
的习惯
nEnter
ices
校友
atche
▁;
▁pressed
▁encrypted
向我
▁saves
▁share
▁bakery
▁theorems
nSimple
▁planners
▁kicked
▁Moon
week
▁фон
▁Sustainable
must
悟
Font
itts
arts
「
變化
<0x51>
println
血液
角的
▁Indians
▁Scene
jsp
akistan
本院认为
ivo
究
有趣
▁probe
▁Opp
writers
明知
雨
ished
▁Until
白血
▁sip
清新
▁север
▁specific
▁informative
温暖
▁collaps
依照
acting
不放
refore
圈
▁Vlad
②
nmod
▁incl
▁worker
一再
ather
▁introdu
▁Def
说话
▁stakeholders
▁Nuclear
伊斯
引发了
▁cause
兒
▁et
意见和建议
薩
全心全
棕
该公司
容器
台账
▁modifications
消化
玩家
▁GPA
irror
▁sides
▁ADHD
▁growers
电极
▁parenting
▁Shortly
▁fork
nNon
▁hydraulic
流行
nopen
横
金钱
▁peers
atisfaction
Functions
▁pathetic
▁Seattle
▁padd
▁Carr
death
几十
Net
tThe
marked
▁Ubuntu
▁craving
京
▁Queens
▁Saturdays
ended
ulture
但是在
▁standard
──
HT
URN
Distribution
盖
扫
高层次
会议上
OFF
▁Hubbard
人到
▁seminar
▁modem
碗
▁inspired
我一直
asp
esque
▁suggested
тели
▁scatter
撤
双子座
高性能
▁Westminster
喷雾
不少
▁flew
▁baptism
▁Columb
▁Yellow
bey
nMoreover
phi
化妆
▁loads
玛
▁cc
是我们
认真学习
Rs
▁Biology
楼市
nSur
圣
bytes
▁abroad
▁multiple
▁malign
Index
发酵
草莓
可以把
热线
的成本
▁suits
范畴
ograph
睡着
orts
▁fro
nLondon
多种
▁това
Mpc
往
新冠肺炎疫情
迄
按
不长
会比
ocoa
▁Multi
arab
sensor
<|unused025|>
全过程
1
▁nice
▁Smart
▁returns
▁referee
补偿
▁Alan
为确保
〕
▁Average
午餐
送上
anel
懂
万亿
▁tension
▁SGD
整齐
redients
attributes
▁transforms
What
长三角
nAc
slow
▁semiconductor
问了
nparameter
▁valid
▁irreducible
Manager
▁Birmingham
▁contention
平米
四方
▁operation
周三
]{@{}
明月
quad
▁wit
▁June
▁през
Sol
defense
▁Values
还挺
compare
▁newly
周末
▁Gel
▁MacBook
６
nRel
▁bath
可以达到
▁yogurt
征集
▁anisot
aker
far
主演的
erm
ifax
Working
▁annually
▁resin
限于
result
工作中的
淋
こ
keeper
▁feather
鸭
匆
▁Boss
▁XV
相当
Pet
马来西亚
▁presumed
短的
尿
桌面
生产的
cap
straight
appropri
▁Therapy
▁lace
必须是
脑海
▁(((
▁COMM
▁encomp
学生会
灭火
数量
县委
irection
holds
▁stool
textbf
nSuch
了许多
▁irony
▁Users
极其
▁Sym
颜色
色的
▁aggressively
Word
▁misogyn
不久
<|unused111|>
nHere
之为
飘
上门
▁Stokes
▁waste
Om
▁breaches
离婚
均衡
色
背
▁failures
{$
▁opener
▁pee
之于
ismatic
字
杆
dialog
<0x63>
提醒
躲
农历
▁authority
▁person
▁consumption
誰
了一句
道教
texttt
自主
消灭
yan
usc
泳
)$)
典范
▁Cities
▁championships
▁Edgar
▁functioning
▁imaginary
不合
▁Miles
着的
▁idea
楼上
▁toes
拉丁
obl
▁Card
▁feet
ictory
酒
▁worked
▁gluc
▁victories
▁Forex
舞台上
liest
elcome
领取
arning
临时
▁polic
▁trillion
▁Emily
电压
▁Easy
▁retreat
vep
▁drilled
▁predominantly
转
的费用
惨
▁Disney
▁pumping
来之
\"/
PR
崎
](
attices
▁climbing
creens
maybe
▁STR
▁grav
▁brushes
SHA
去世
▁morality
掩盖
nFore
霸气
hetamine
▁Host
;)
许
indsay
▁pitched
▁centrally
xml
最后一
无需
▁wide
▁Pal
icester
出现
units
processed
题为
▁spinor
▁movement
FILE
▁perturb
庆
eron
Check
半夜
▁bi
appa
shut
WT
▁awakening
之日起
第
sky
racket
▁subtle
utors
精美
lec
为重点
<|unused159|>
高压
损坏
的要求
(\"[
▁Package
▁Videos
的一方
modules
▁Table
stacle
万
ighborhood
谓
落的
▁valuable
isen
нен
申报
华南
{$\\
GPS
nnew
蔬
兴业
▁cope
typedef
▁Manager
梦
名人
Ext
但对于
命运
ords
▁Mississippi
staff
党组
股东
网约
与该
▁update
\\%$
▁Grey
招募
onestly
全体
мо
▁cust
▁discovering
▁train
合法
航空
教育局
▁primordial
▁others
head
;\\;
▁overview
▁refinement
欺诈
的思想
中专
第三方
meV
直至
▁classy
包含了
示意
▁central
▁resistance
▁critique
电影
▁lenders
ulner
显然
▁obvious
▁hockey
▁objectives
▁Coming
▁ба
DM
设在
nOrder
可以看到
▁fierce
▁pants
▁insulting
▁jam
▁Katie
十万
萨克
__":"
怎麼
ockey
EL
disciplinary
bs
▁pillar
▁Chest
nAw
▁budgets
uple
经
km
▁magnitude
▁Transfer
郑州市
孔
мно
之人
▁effort
Program
naut
突出
推广
▁thrive
umbo
▁bundle
“\
Contents
▁==
▁amaz
▁loops
固化
模
▁ic
手表
acking
给
漢
▁Clos
篮
要进一步
瑜伽
cellcolor
///\
▁permut
淤
kil
olution
▁Advance
ic
文件的
currency
nYou
lette
▁WAS
▁ser
高一
▁Cats
No
困惑
(\\{
Actor
RF
约定
circle
▁Category
的全部
属实
欣喜
的营养
▁stationed
关联性
名气
uren
мен
CB
就让
中文
实施方案
shirt
▁changes
▁depict
resource
paths
被捕
▁Bishop
品牌
▁spoken
▁eng
▁data
▁Include
osa
不断提高
计算
小麦
DG
经济发展
胜
▁gran
▁Emp
ustralia
碧
▁accret
▁settlement
萬
▁systematic
▁cryptocur
切
▁months
▁Adjust
▁leaf
有毒
语文
葉
▁moms
▁new
▁stranger
拜访
eman
stones
▁relying
步行
向他
FONT
一个
跑到
▁digestive
苹果
▁Seed
教学
费用
百
clean
鄂
▁solo
羯
opol
▁structure
被他
▁Wake
用地
本田
▁experts
These
▁winning
Cancel
的最佳
▁deletion
GB
▁housed
Made
炬
heses
不负
▁cricket
gal
构成
▁directional
台的
Three
gi
政府部门
<0x5F>
▁generating
ε
ENCE
was
Failed
几种
▁urges
▁chore
关门
对付
要做到
▁symp
霉素
▁Catholics
▁disgu
▁weary
asmine
曾是
▁incre
parquet
▁Pun
▁Airways
▁Spirit
级别的
时段
▁surrendered
▁hipp
▁gives
▁estimating
formed
▁Tampa
▁designer
▁freshly
Spec
▁leaves
半个小时
▁sklearn
▁repeat
四级
其他人
▁decomposition
▁handmade
众所周
▁starts
名的
ros
Please
人力
辛辣
▁WOR
▁every
aires
镜子
ahawks
▁Warrior
minist
上有
意识和
assing
▁big
▁Activity
locale
▁insider
alach
▁leisure
Abb
枕头
idan
悄然
Kernel
这样一个
▁guides
(\"<
适宜
起到
PLIED
ends
nList
bdc
电容
▁compliant
最重要的是
三年的
▁and
nh
gel
anches
▁jur
Free
母親
担保
云
▁£
▁pure
▁pulse
▁abundance
▁Fan
▁perpet
害怕
plication
iesel
▁bracelet
▁arrogant
ENT
▁notices
ardless
▁accomplish
<|unused133|>
祝愿
大道
▁clauses
PASSWORD
从根本上
BP
雨水
狠狠
nrec
久之
▁der
誉
▁translate
肺部
▁imposing
▁incumbent
反转
最适合
請
▁may
▁tot
▁Raleigh
的方法
生根
认定为
每个人的
▁freezing
核对
▁Fund
Pane
十月
▁EF
▁fewer
ocker
双方当事人
▁abund
poon
noc
脱离
Also
利好
дена
folk
原则
draulic
纯净
会引起
сто
coff
ett
受伤
nterms
▁rank
]$
一点的
留守儿童
长度
corr
▁treats
си
&&&&
涨价
(\\
队列
对你
nActually
传出
养护
▁lightweight
inely
▁goats
nSelf
▁Lik
龍
▁simultaneously
▁trilogy
▁glue
肾
搭档
зиден
les
气血
▁Schema
明日
hero
地狱
一点都不
人社
后排
ries
des
問題
ifiable
▁your
ports
良好的
▁champ
ice
Cam
▁subway
mmm
cout
rc
▁stag
▁Parkway
▁crab
绘制
秘诀
政协
邓
▁Index
▁Furniture
India
取
▁Salem
党组织
▁SU
▁administer
▁indications
info
ush
▁Cad
实的
猪肉
较小
每逢
务工
aux
▁warrior
Space
▁supernova
cling
▁compiling
сия
山药
局势
都必须
Acknowledgements
慈悲
▁furn
atham
▁royal
nOrig
机油
▁tracing
▁Neal
outs
介入
▁ал
▁corrected
▁LHC
口中
nItem
前沿
sizeof
amoto
CAP
破损
kill
▁glut
iddle
作為
dle
▁Ec
报纸
课文
▁Dean
且有
<0x37>
本站
Party
als
▁fever
ubl
pretrain
▁Guru
▁Must
tP
地对
▁paint
convert
fruit
▁remains
▁split
device
super
▁Vintage
generic
道路上
▁Louis
工作了
▁transformed
Join
flags
▁sad
ground
好
iesta
广大市民
▁receipt
▁Allah
▁necklace
徐
▁flashing
liferation
长大后
▁apartments
nown
▁tasked
俱乐
hooting
也从
▁STATE
autom
纳入
输入端
▁Liberals
comed
nostic
▁Jupiter
abol
▁teenager
▁diabetes
技术问题
的小孩
槐
<0x1D>
param
▁cancel
网站
領域
▁Parkinson
сни
Trans
ata
lad
删除
崩溃
我才
▁Reddit
▁torus
▁Selection
通知书
尿酸
++;\
▁outgoing
il
ainer
▁Bath
▁wolves
▁нача
上市的
江山
入境
nmoment
▁indicated
▁widths
▁Term
两国
OO
所需
▁Scroll
生气
综合治理
▁unknown
▁INC
闺
▁Morrison
▁bang
我这
ьо
▁crew
陌生的
▁Bad
▁capitalize
animate
▁prevention
▁calcium
▁Daniels
▁Sor
收敛
meaning
商铺
▁Luther
羊
因為
生子
)^{-\\
被告刘
▁cl
韭菜
▁landscaping
▁Cut
溺水
▁bathrooms
▁contain
▁Classification
▁enclosed
hi
收获
付出
世界
我们去
Lin
stick
▁backup
MeV
nmsg
▁characteristics
▁pillow
▁copyright
手游
ification
▁monot
九年
ppings
~~~\
秋天
▁colder
hyp
各自
▁Mode
▁sacrifices
四周
毋
wing
hbar
][]{
▁designation
reduced
▁mac
仿佛
事务所
▁ebook
村集体
▁Bour
E
umatic
▁inad
▁me
項
▁beh
▁NEW
袭击
▁dtype
▁Disclosure
Then
eli
参赛
▁Op
▁balls
习惯了
ess
不停的
地把
▁market
▁Dent
▁Alt
时
▁commissions
▁momenta
=|
肠胃
护照
▁cooking
▁Wash
▁independent
▁Quinn
<|unused154|>
})}
发言
ynchron
▁axial
韩国
▁Dolphins
oust
指导意见
▁Commun
tout
积极的
ablishment
并通过
▁Commander
风电
lli
盘中
agination
乡
界面
还需
铬
▁conver
Other
странен
很容易
ushing
nUsers
▁brushing
▁loses
▁ос
辛勤
固定在
▁lands
ascular
ro
▁Elli
▁Using
nocc
▁ruins
▁rec
▁cheat
▁fall
optim
▁dashed
▁fasting
的分析
▁<<
我校
巡逻
ré
十七条
▁Areas
▁Krist
atures
▁Est
▁privile
ulsion
amping
Student
留
▁Spencer
Inv
iter
复发
典型
事业发展
igen
总经理
▁journalist
▁rubbish
nBill
是需要
▁spilled
选自
ppling
红十字
▁cancellation
Numerical
▁kHz
abl
▁enthus
婚礼
▁Mob
nox
▁havoc
▁thieves
都比较
nop
假的
ersen
▁Powered
下一个
▁behaves
了一名
▁River
eat
▁atomic
浓度
▁一
rums
chief
自从
▁chocolate
共产
idia
下来的
志愿
ortal
▁answers
▁Male
unsigned
▁Hawking
bul
显得
▁boiler
追问
衰竭
▁incompet
的人来说
ibles
▁strand
nUser
▁advertisements
▁SP
晚会
▁tips
scill
▁bl
}}$\
并
鞠
湖南省
▁spectacle
<0xAA>
主题
Team
gtr
Tra
丝
ля
▁journal
▁Hack
可以将
媛
随着时间的
••
▁absolute
http
ITY
▁Skype
inarily
▁told
Helper
▁exclusion
Panel
nAnswer
▁ashes
}^{-\\
npol
arm
更容易
tawa
rimination
象
ntwo
者们
辦法
▁Silk
▁relates
ifest
几个月
ighty
ead
ios
▁panic
▁Barnes
▁endless
irms
paced
本轮
电流
真人
枯
▁Short
▁simulate
也希望
fro
ats
招
中毒
▁discontin
ec
▁misconduct
▁Calculate
▁fermions
因为你
▁workflow
Ip
▁La
▁boundaries
ername
损失
▁ancest
▁chron
▁microscopic
▁Silicon
assemb
通过此次
▁Women
▁toss
orks
▁correspondence
ivated
▁burial
▁calculated
ipsch
倩
▁къ
▁有
▁AWS
一辈子
▁Best
ik
▁normalization
服役
仅有
躬
▁hug
transport
恍
ser
▁nause
对外开放
的比例
▁morals
▁PowerShell
▁wides
▁moderation
nGuest
哲
果树
nPass
的老
江苏
▁gaming
▁influential
▁Exp
rats
ased
▁zomb
▁Rica
▁Heart
▁cultural
▁breasts
周刊
▁everyday
的背后
nIll
themed
值得注意的是
▁deposited
чев
▁comprehensive
nimpl
▁scholarship
怡
lig
中国队
▁damage
▁Duncan
▁altar
r
合肥
▁dans
▁spont
нти
南北
纵向
▁spoke
▁ranch
▁disgust
▁romance
列表
▁entrepreneurial
▁lists
那个时候
gw
▁tunnel
一心
罰
ьор
▁caut
商人
都是为了
比方
nomial
winning
▁书
Io
gether
蚂
random
suits
▁dance
▁slowing
▁sometime
▁Shield
光彩
增
履
beck
人来
序
▁Geneva
洛杉
要及时
▁instability
土地
▁genuinely
申请人
有个
▁forthcoming
▁Beatles
▁upgrad
▁inert
▁背景技术
二字
▁explicitly
sep
上报
可分为
早晨
aside
专家组
鲜明
▁Arkansas
Right
▁Reach
▁biodiversity
第二百
Ann
▁Judaism
acteria
▁molecules
ninteg
▁twisted
▁stressed
лни
ademic
子的
囤
nHave
离开
upper
▁explanation
▁utilization
▁grading
▁emissions
▁lecture
$\\\\\
小儿
▁detailed
lfloor
之作
▁Replace
▁competitors
▁Lak
▁smo
▁welding
▁reminder
RESU
▁Iter
▁subjected
能在
experienced
cylinder
團隊
▁presently
▁corrosion
▁Scha
异常
▁aid
▁NBC
keywords
▁cor
不断完善
▁downs
</h1>
Level
同居
▁Ге
And
DEN
▁advice
心灵的
在面对
叹息
▁This
爸
家的
要想
每日
▁ladder
nOffic
在某
irds
日報
遇见
heavy
mount
後來
▁Switch
冷水
nOur
▁Pacific
▁percept
▁Burke
issues
▁thermodynamic
▁tradition
▁between
▁Except
ibus
學生
▁NOW
nJim
赛
▁Cit
▁Mobile
凳
小幅
柬埔寨
展现
途径
▁”
▁propagation
▁sensit
▁wars
▁particularly
关键词
缝
▁server
抗战
腔
叶片
▁Amer
endo
▁Paris
▁cowork
crypto
▁става
这可能
MAC
掌声
Reply
nSan
MRI
swing
鹏
水中
缅
▁puck
ello
但从
今天就
pplication
劈
困难
утбо
▁disconnected
卧
▁Count
這些
▁paints
ivel
▁Syrian
同时还
▁prediction
▁dick
花
▁Associated
蔡
▁treated
高达
命中
redited
▁outskirts
贿
技艺
洱
▁headed
ylan
▁Date
▁Cir
cmd
▁reclaim
riteria
▁offset
inaries
ummy
デ
约翰
nTake
洗衣
▁Lead
▁drone
▁stereo
抱怨
▁lineback
▁snacks
严防
的特
▁giveaways
▁reign
unwrap
SQL
不远
▁Honda
▁Га
racell
MIN
▁complementary
▁veins
▁deduced
哭了
▁debugging
▁gle
▁permit
▁CDs
▁blo
別
节日
▁deriv
makebox
zza
▁result
▁mystical
应当按照
▁inhibit
抉择
▁familiar
iron
西南
企图
运动会
▁Royals
▁needles
▁valued
计划的
▁THEIR
_{\\
▁foss
mobile
杉
\\]
▁tab
minecraft
roll
今日
DEFAULT
zheimer
▁inbox
▁Led
pite
ugging
真实
▁vibe
brand
▁substitution
Det
▁complexes
固醇
▁interns
▁Lamp
▁Mt
▁Fried
▁Rag
▁Solo
组织
不算
▁low
ependent
reciation
vity
Chain
▁inn
救命
要学会
building
组合
Sequence
▁tours
▁developments
▁innovative
eanor
nAdditionally
专题
▁ticks
chnical
是这样的
还有人
▁mom
potential
你就会
▁resistant
小哥
▁използва
第一百
▁Hole
▁pharmaceutical
Month
itic
▁succeeds
相撞
奕
进出口
гия
▁hurricane
▁enumer
▁HOT
▁className
▁surplus
constants
▁actress
准备的
清楚的
nCompany
▁austerity
START
▁adventurous
ocre
▁constrained
▁prospect
▁loosely
▁compare
状况
高端
▁Halo
▁wondered
ious
▁depressing
公诉
])$
▁Initialize
法律的
的一个
empt
uclide
沪深
中午
ifications
results
RANT
lectric
▁backward
題
纵横
<0xE8>
▁recruiting
終
变动
▁tack
子公司
▁correlation
Location
第二百五
phase
▁Murray
▁swipe
rotate
奥斯卡
Filter
▁shaping
History
藝術
▁wording
religious
▁injected
▁price
▁{<
▁Call
▁пред
<|unused114|>
▁tf
搭载
▁sufficient
ellers
mediate
▁antibody
▁Active
▁години
creat
▁READ
▁leaned
培训机构
down
▁Speech
ots
евру
hetto
M
<0x47>
earned
<|unused130|>
nPop
▁tyres
▁population
▁inclusive
▁Collaboration
感冒
捞出
max
▁Eye
▁snipp
在国际
▁lefto
处处
▁webinar
乍
<0x07>
离合
腐
▁consumed
细化
▁archive
種
bus
etermined
而成
▁staring
即将
▁mant
remote
基督徒
nLess
▁Cooking
宛
调研
歌曲
umen
▁Settings
roducing
AreEqual
REG
疾病
dess
西藏
nWebsite
▁Newman
▁laund
历史文化
数百
olidays
chrome
▁phrase
▁  
捡
▁Ultra
嘴唇
资本
kk
<0xAD>
喜庆
ighed
山上
色素
stein
▁prepared
投資
演奏
ー
突然
▁grave
▁prisons
Holder
popular
g
SON
idences
<0xF5>
Generate
蹈
ile
▁line
lm
▁shook
▁GA
▁SDSS
津津
都不是
故乡
▁Movie
显现
▁bedroom
进行分析
s
虹
bigg
nExpl
▁undes
NAME
再看
▁kernel
▁sprinkle
遷
▁Vill
bola
態度
rup
▁insurer
固定
住所地
我很
▁soon
氧化物
▁alternate
zi
材质
Foundation
首次
準備
fing
▁straw
▁inspect
▁sher
▁affiliates
▁savvy
▁stim
ilty
download
▁Teh
Mu
LE
）\
▁Election
信息和
织
▁interactions
▁postponed
信誉
▁Nas
▁screenplay
观看了
等情况
▁antioxid
ometer
分钟左右
Un
第十九
没有一个
SS
<h5>
土耳
▁Hugo
ivals
▁Sans
maxim
手脚
響
▁Co
▁favors
刚才
泡沫
bee
▁Camera
▁glad
▁Trade
羽
庇
ridge
▁faculty
付出了
健
▁frozen
aud
▁achie
Й
▁Sons
甲基
▁lifetimes
▁beat
▁formations
pages
▁Mos
场景
市场份额
▁formulas
▁desks
管理系统
FN
▁ра
loading
▁ambassador
弓
▁renewable
▁shifted
▁shoes
moil
brance
▁queer
朵
▁Bu
▁anyway
▁fitting
不会有
▁Einstein
▁brains
等候
梅
辖
曙
山西
▁disappointing
勋
String
协议
▁Week
▁bridges
ей
湾区
▁ul
▁matters
▁piano
▁healed
▁distingu
▁edge
ishers
眼界
▁crown
進行
)}^{
▁Kat
理想
顶尖
▁coupling
与此
甚至
changing
失误
看守
########
Calendar
值守
快
▁â
▁winners
romise
市委
▁risk
分辨
apanese
传统的
▁Gar
说实话
▁Stall
fill
▁defining
起来了
ypically
▁without
▁NSF
企事业单位
主观
即时
▁ABC
▁learns
用以
mission
▁hil
ational
▁vegan
的形象
nident
▁rescued
ninterface
▁Chef
不耐
▁Massachusetts
▁Reference
▁entangled
ndue
警示教育
▁personal
把它
对证据
dig
▁MI
MAG
廣
信任
maker
nMedia
签
▁satisfaction
▁SEO
留学
Sect
声音
Ts
\\*
少不了
ogon
▁Goddess
九
▁Mic
▁disadvant
真是
脑
quet
components
vin
推迟
miss
▁home
▁ethnic
▁lasted
女星
write
▁preceded
ucus
▁insisting
▁screen
▁scored
)+\\
▁festivals
电线
市场规模
scalar
倒在
月亮
statistics
▁Depend
▁adverse
Platform
always
mur
gor
▁Erd
▁Hyper
老人的
regation
▁denied
▁mobile
▁Lieutenant
最小的
▁outsourcing
summary
quel
▁Garden
▁appearing
手术
▁forensic
新中国成立
实务
▁sheriff
无效
▁Reid
▁globally
guid
iao
▁debate
指
arez
▁Les
事物的
▁Boo
自己的孩子
Stars
factor
▁coated
媒體
▁Aval
enable
▁neg
第二季
uns
宝贵
我再
starc
ifferent
aration
提倡
贬值
spa
nda
icer
助理
▁Dis
Common
▁Hezbollah
▁();\
▁Ukraine
漫步
Such
▁hired
力学
cov
съ
▁triangular
预期的
gom
<|unused058|>
MED
机构和
的第一
玻
稳定的
\""
▁wellness
}<\\
▁tossed
彼
elson
▁violates
没钱
nBlue
▁liked
▁striking
▁Trip
▁carbs
▁Population
▁secretly
▁drunk
bum
noreply
文化交流
]]
▁GAN
▁resurrection
▁topping
▁tram
▁asses
▁tame
日
球队的
upted
▁plac
朴实
中的
家庄
▁Phot
就读
阁
安装
▁gastro
'\"\
好莱坞
笔记本
▁Pu
▁regulator
nprov
的理解
▁embodiments
用作
▁allied
oli
▁avoc
关节
▁Vector
展会
绅
▁Johnny
hav
▁round
▁ate
太多的
▁Sew
Sys
▁HAD
老百姓
▁rails
▁oversee
都在
▁Shift
jk
Л
▁messenger
▁deceased
†
sime
rates
▁envisioned
公子
▁waved
起身
疡
明智
Way
驻
nSum
河北
▁GW
▁outreach
打压
otton
▁approx
<0xFB>
enzie
肿
byte
)}}\\
волю
imir
▁base
nCity
▁refugees
ingo
▁plea
勞
▁inventory
逾期
▁SB
▁gen
▁experimental
▁precise
也不
▁provinces
▁воен
▁characteristic
认为自己
現
忌
裙
▁Korean
olar
▁destruction
▁ResNet
arch
▁regions
▁sharply
nClass
丰收
大棚
Virtual
uces
unciation
add
▁sandy
▁Aqu
芙
▁Arbor
▁indu
анд
▁Cookie
锅中
▁wavelengths
认可
治療
▁scout
▁Jays
责令
杀人
膳
▁Prad
即便是
发病
逮
▁encounter
nsub
ussion
tasks
nProject
好朋友
Hy
Messages
▁McKin
ев
▁Corinthians
▁Activities
\"/>\
elman
▁total
产地
▁===
矿产
▁bullying
设立了
elled
pand
内容为
ulence
有三
智慧
▁Earl
▁selling
▁shave
值
衰
調
潇
▁partic
▁Organic
第五
▁loved
皇家
HTTP
家人的
AIN
▁dispersion
▁pleasing
房贷
wy
办事处
modern
不要太
利亚
MA
互相
ki
cular
▁approximate
bulk
LR
▁noises
earth
ча
Having
▁QCD
▁съ
bugs
啟
▁PhD
metadata
▁incorporate
▁domain
▁patrons
test
▁afternoon
NTI
▁Faculty
▁instead
美国
nabla
为人民
▁Sally
arlier
▁la
fficiency
▁kings
▁composer
伟大
▁spin
Ser
prison
情感
辆
▁charset
▁missiles
Paper
▁purse
▁cases
Wall
核酸检测
▁nicer
Flash
处的
▁improvements
▁QB
▁Ф
ructures
});
▁Television
▁tattoos
nds
▁persona
恩爱
没有了
▁Certain
<|unused027|>
ondon
jen
▁copied
▁Become
graduate
▁Roberts
<|unused083|>
▁Aid
侵略
深圳
某乙
有问题
帮他
nMarc
empl
▁Wealth
合格
Ш
▁scrut
▁Carolina
athlon
总
电池
▁Eston
gener
▁Hugh
相约
▁lone
▁ка
▁homogeneous
▁ballet
Rows
工作领导小组
排斥
▁Technologies
以南
▁Budget
▁Kay
穿
▁manufacturing
▁lat
late
▁if
ester
▁bikes
广州市
▁bosons
小孩子
bras
ibling
Obviously
和他的
fusion
至
Suite
浪漫
usa
把
▁diagrams
▁flour
的几
▁decreasing
▁monkey
讽
sey
comparison
▁supreme
reck
▁Ridge
Only
nSm
eeks
何以
果断
species
nEducation
resp
▁lump
▁creditors
▁mistaken
gam
▁unrest
▁HDMI
▁Opportunity
▁vanity
匿
▁Ottawa
▁dual
滚动
▁като
гат
eddit
▁Title
家常
nPlan
来自
印象深刻
与发展
你以为
乖
▁cheeks
投
▁preview
赛季
促使
释放
再去
老婆
阻力
▁Friedman
了一点
表面上
Instead
▁advant
▁ALL
▁simple
▁sender
▁ebay
▁Distribution
岔
▁founded
▁probabilities
▁ru
owards
著作
▁pin
下令
щер
▁abruptly
fashion
workers
▁cram
<0xBF>
▁engineers
赶
▁ie
▁Ded
王某某
時期
有望
▁Brown
nBlack
atories
▁implications
▁Monica
paper
▁accessed
兩岸
侧
lah
更高
catalog
▁strengthening
也只有
▁Sources
中说
<0x7C>
lang
否则
▁paste
▁searc
▁mish
ncont
丰富多彩
涉及
iteration
▁margins
▁yelled
▁Loan
谱
如愿
第三人
▁factors
▁assuming
nMet
是个
院
最终
wall
民警
科学技术
uset
nwill
▁longer
开阔
路透
▁Sach
adas
omew
早晚
▁differe
▁dec
▁dam
Config
Visible
\"\\
▁stimulation
力和
Direction
▁Vietnamese
流产
▁Vampire
nbest
listener
Autom
危
基石
从此
▁Czech
数千
大选
面
▁enterprise
features
灿烂
纺织
聚集
▁compose
▁blah
▁transporting
тата
▁Death
▁crafting
▁diplomacy
关系的
▁marching
annel
齐聚
▁rogue
下游
家庭的
朝廷
▁Amber
▁optimal
产生了
晋
▁rom
仗
alls
堪称
不息
溅
商品
▁Ray
itled
▁floods
▁acting
▁memo
戴口罩
頁
▁Heath
ilda
服务中心
icable
▁dimensionless
▁wrt
说服
egan
nIn
▁=\
警惕
▁newcom
%）
sort
暖暖
▁seminal
▁Gnome
机械
一经
▁cyclic
▁online
▁orbitals
▁Econom
▁Pur
nyour
θ
NI
经贸
assembly
▁Guard
▁golf
渤
<0x2D>
телите
▁careful
的传统
ा
事迹
▁Spain
▁right
配套
cfg
量的
央视
赛中
▁Forrest
▁Region
vice
Ru
留下了
LES
▁injustice
em
正式启动
▁soldiers
磅
▁Privacy
玻璃
▁bio
▁Port
创业者
▁cardio
▁directing
rift
▁classify
burn
▁quality
Statement
Commerce
电信
▁ep
可以在
▁Evil
▁BUT
▁Life
▁contra
涡
▁prepa
▁preschool
▁Captain
▁Cel
Cr
▁forged
的资金
▁Bi
和张
<0x78>
carbon
▁week
hab
▁emit
▁traded
外
ndo
敬请
пространение
▁supermarkets
等领域
nCommon
▁bands
umm
}+{\\
Friend
▁stroll
含量
▁Abu
ica
▁UAE
▁conven
▁outer
orne
流动
地球上
湖北省
晚饭
一间
工作效率
▁група
▁lungs
▁Read
在工作
AND
▁Cancer
gerald
▁burg
rog
▁citing
IK
hon
anely
▁projections
Ac
jack
ributable
aurants
▁Flight
▁gh
▁Wedding
atters
▁Shore
▁blender
▁wash
根
▁serv
innie
▁ol

ensuremath
bbox
取暖
огра
eren
转移
▁Pers
▁startling
主持
lymp
▁dest
returns
gary
因其
igration
nMany
perty
事了
站立
▁Lesson
▁inches
<|unused019|>
后方
missions
nMat
Wait
▁Vern
xu
nas
自如
▁HAR
▁jumped
▁GRB
▁_
”—
cca
Continue
这几个
▁blamed
duino
▁bunny
防范
Security
建材
倡
Amazon
Percent
湾
▁Rut
采用
MC
▁Majorana
光阴
otte
暮
Sort
▁corre
高位
▁toggle
足
Code
▁чрез
穿过
▁initially
▁preaching
概况
Dev
▁gesture
本院于
ology
复苏
▁involved
狱
ASSERT
▁epit
▁По
社会
▁smartphone
▁halfway
▁Hidden
航线
▁biod
▁TYPE
umbers
lete
▁power
ships
rupal
戚
学校的
春天
▁Steven
>>
▁tub
▁reject
愿景
▁deform
拌
越南
▁catcher
▁mathematic
改
▁Bur
}\"
nMajor
▁Kondo
ryan
流
▁GitHub
城中
萌芽
▁reflected
▁Ms
quit
irtual
歸
▁Tay
amma
聪明
urger
▁motherboard
▁watched
▁crave
nmany
▁need
than
Station
经典的
呼应
▁dean
时就
遥远
　　
▁Building
▁Alberta
och
▁enforce
在不
}=\\
<|unused103|>
four
tint
膨
Pointer
▁noteworthy
jav
中医院
▁strategies
▁отно
▁singing
antis
ariju
同步
▁Whole
▁произ
▁Rhode
代理人
▁gallery
▁monoch
▁watches
▁timber
该方法
▁NFL
▁Beta
=\"#\"
XM
又是
oji
为你
backend
控股
nwork
▁Located
▁psychologist
泄漏
▁Hels
Lee
纷呈
体系的
▁conclusion
▁semester
Match
▁remake
▁prioritize
▁Hogan
utable
▁accus
会产生
▁Stew
▁important
▁blueprint
nsel
▁inflict
wig
▁System
▁Argument
ehicles
ham
itud
可能有
▁Alternative
▁hospitality
补贴
▁disg
小伙伴
▁PLEASE
▁Experiment
單
LET
▁OSX
shirts
▁temp
隧道
三项
▁photographer
门户
▁Louisiana
▁Rising
▁helicity
订阅
局的
step
▁Lipschitz
不由
▁unbiased
公主
mann
NP
红灯
useum
Act
▁applicant
▁fortune
日讯
肢
▁opponents
▁Waters
▁lookout
nsatisf
保养
▁Oracle
▁judgement
In
node
▁Good
monary
esting
hedron
規模
etter
>>\
亲眼
髮
入
的合作
▁Ocean
来得及
force
versation
gy
▁sticky
▁Roosevelt
▁announce
▁inject
▁competitor
▁words
▁almost
越
▁astrophysical
新型
nLearn
最后的
传说
nCol
▁arbitrary
▁originating
海的
oubtedly
▁Looks
▁fools
报销
▁Christine
onna
听的
duction
▁tapes
证明原告
选
estyle
ncould
EU
▁stood
should
iken
▁feelings
▁arrogance
▁cleaning
▁road
visit
nFinding
▁announces
谁都
▁paddle
urned
cpp
girl
我一
bast
我们都知道
▁flame
▁bass
▁region
陶瓷
<0x93>
nLead
加強
的同时
的功能
实时
omp
Rev
续航
设
▁distribut
贩卖
財
▁bestselling
宵
采信
itial
撤回
▁NASA
)}=
▁disclosed
nmodule
『
高尚
考慮
收费
ention
▁Respond
讲故事
ши
pard
▁citiz
oti
▁Rocky
群体的
▁Moder
▁Restaurant
社交媒体
res
▁loose
行业的
▁denote
▁activation
community
最优
▁Scientific
赌博
又在
▁inward
isease
nreg
▁posing
▁experien
纯洁
▁Bottom
hs
行動
▁Minkowski
也可以
▁stocking
▁prescription
culation
nCREATE
he
冶
▁activities
priority
BY
实效
Tools
必不可少的
四人
${\\
便可
▁Scheme
塑料
▁bat
▁spectroscopy
▁would
▁most
人都
manual
▁not
nAlways
人社局
▁Guitar
heard
这段时间
▁valence
历史
化合物
▁advocated
▁flexibility
攻略
))^
▁Ike
Button
場
紧固
▁conducting
▁Bryan
▁Lighting
▁Between
权
Pacific
▁bios
施工
▁moisture
\\%}
<0x05>
▁fet
LV
援助
▁Devil
reject
▁Grand
▁melted
▁intim
▁part
生意
表情
▁cong
是谁
▁Default
folder
▁Und
nJosh
较
ibbean
支持的
igate
露出
▁Star
\\>
isor
哪个
SIZE
anth
▁studio
ccer
midt
同一个
是世界
露
▁unions
淡
arcel
allowed
▁waist
贴心
▁Bristol
obil
UPDATE
▁deer
▁microscope
▁dye
HAND
▁bab
睐
▁Cov
▁penalty
bomb
KF
config
convolution
bas
次会议
态度
▁hint
ерма
\"));\
但他
妳
▁firewall
▁steroids
▁affine
раз
保证了
▁batter
▁Care
gregated
▁northern
▁categorical
领先的
▁Bj
匯
activated
embed
的非
▁phenomenon
environment
▁heap
干活
数组
▁CMS
▁sector
▁exciting
att
Writer
BOOL
而来
業務
▁Eqs
Upper
▁knitting
可以使用
相邻
大利
classes
▁stitching
要用
NM
storage
▁NRA
►
tered
二级
▁hybrid
▁arrows
束缚
临床
▁writ
幾乎
OTS
pp
tops
▁stitch
rared
starcoder
参数
Grid
▁ashamed
只是在
area
▁socialist
▁Growing
film
nMonday
uced
▁shitty
▁dispers
containing
皮肤
温水
▁art
mic
PU
消費
鄙
▁вклю
$)\
▁Trail
nmatrix
赛前
▁Mumbai
过多的
existence
瘟
tit
eries
uitive
cientific
Up
י
▁falls
apply
▁дъ
／
▁stom
aur
▁flyer
▁les
工序
▁DDR
reload
▁products
▁adaptation
▁court
▁Gren
米饭
atts
▁undocumented
Cas
▁supports
遵循
▁launcher
▁stri
▁grant
ounded
顶部
▁projector
▁kitchens
▁Benefits
firm
<0x9A>
郑州
▁있
数字货币
}&=&
nbecause
▁AFTER
▁crafts
inspect
麻醉
运动员
▁passengers
▁Vote
宗教
▁lest
周期
▁stranded
▁marg
形式的
截至目前
iterate
▁speaking
nShow
▁tele
ъл
国土
人了
态势
下面的
ове
ROW
妒
▁Album
信托
▁ret
Bean
▁Companies
▁supervisor
▁Grill
解
вре
建議
忽略了
本金
最为
进球
会比较
Baby
▁bipart
▁ribs
朦
▁Im
▁external
▁ME
▁Gods
顺利完成
不去
积累
▁single
▁disastrous
▁coverage
添加剂
实体
watch
▁icing
alking
▁forg
shops
▁Edd
▁adjusting
清水
nPart
▁pots
民事
▁miners
▁struggling
▁universe
dependent
▁Celebr
▁Lounge
▁Sky
平台上
iety
和企业
▁olive
Rightarrow
的办法
無法
▁pg
uary
vec
▁immense
▁oun
▁judgment
星
爸爸妈妈
▁Mine
▁physical
配件
切成
▁swing
▁FX
usable
做好了
▁Theore
▁High
▁satisfactory
讲
▁totals
嫌
亮的
▁evolving
伍
▁diary
▁Mo
▁eliminates
禁毒
绿色的
▁AX
▁javascript
nLin
动手
Remark
▁sunk
人居环境
agara
▁cure
EX
▁Usage
杞
ain
inent
▁gluon
提高了
▁after
▁Cache
OM
ollar
▁Providence
errick
▁Publ
现有的
▁*/\
▁often
▁Thailand
▁grow
ergarten
综合性
已經
bull
情况和
anc
▁army
▁Template
▁sizable
喜迎
▁Application
▁stadium
▁sliding
链
趕
▁express
宽
javascript
gp
kpc
Ex
▁bolts
Interval
▁tempted
卿
VI
汉族
▁shops
▁Spider
第十四
▁alternatively
尊严
▁conversations
擦
▁Bachelor
消炎
▁Tact
▁happiness
▁(†
吴
▁IN
公布的
If
将继续
救治
▁viability
▁creamy
▁Â
呼和浩特
的脸
▁PCs
显
争吵
▁dissemin
▁occasions
Den
牵引
Kim
咒
这样
三月
▁Agent
▁noisy
▁oils
tbl
▁inequality
透露
计划
加剧
▁wicked
意义上的
有人在
▁logistics
Emb
rarian
Mo
▁Round
清晰的
▁Considering
uart
五十
KN
Vector
惡
容易被
了一份
男生
▁wings
▁пъ
▁eigenvalue
蹭
月
烘干
▁clear
▁tangent
怎么看
▁css
▁reversed
ш
移交
压器
▁Mann
nOct
▁Purpose
或者
中的一
▁Martinez
张某
留学生
ufact
▁cra
China
政
▁timeout
HOST
▁Boys
财物
朋友圈
尽可能
avg
poll
▁Hess
thood
nia
▁Reports
▁Wheel
▁intrig
▁→
slash
finding
▁adiab
repeat
阿拉伯
多大
▁upon
▁Park
▁effic
bundle
▁colourful
aleb
Initialize
▁revelation
确保
的可能
系統
pull
▁validated
unched
可见
▁ne
不容
▁beneath
脑海里
cursor
出水
SER
yles
窗户
▁Regardless
▁Filipino
ular
▁scarce
日报道
▁Rodgers
▁glimpse
▁Once
驰
▁endpoint
▁%\
ructuring
▁olds
肉
建华
除去
盛宴
hist
条
罗拉
因为没有
风景
谢
▁graphics
山大
fr
▁employer
在全国
▁nu
依法
▁surgeon
▁Kurt
vertisement
就越
▁Wolver
▁Kurd
▁bathing
射手
amine
呼叫
▁tune
▁comment
供电
▁HTML
TA
▁Advertising
宁县
旗帜
春运
science
▁Dong
▁soaking
下沉
utor
民法典
来回
USD
检疫
nArticle
▁NPC
▁orphan
院校
esteem
活塞
infrared
LEY
mp
吸烟
▁както
萱
大学校
▁baked
我用
▁pine
精致
▁cherished
底蕴
sh
Runtime
▁consciously
▁stalled
Iss
imensions
把孩子
此事
ран
▁revelations
现货
▁referring
odic
oxy
这意味着
▁PARTIC
▁interior
▁productivity
会有
就
▁fair
rogate
▁Res
▁sporting
assets
卵巢
nHel
槽
▁shocked
▁Required
eeper
网民
<0x56>
introduction
环绕
▁Lily
nEst
wrap
▁AFC
ertain
hel
向本院
▁siege
▁realistically
里
只见
ske
induced
DIG
名列
ensable
▁metaph
▁Protestant
病理
▁obscene
一人
▁би
的人口
如不服本判决
▁initiation
▁CPS
氧化
大赛
美好
nCont
▁funnel
加入到
▁firing
amet
apons
sec
rf
▁disturbing
蓝天
Introduction
fits
itten
▁Resource
▁RES
损失的
祺
群众的
刘海
▁ON
▁addr
▁surfaced
在进行
PRO
nOver
▁Rachel
▁Keith
肝
并发
常规
tap
▁vol
Lat
▁electrical
▁SNe
▁Netherlands
▁mana
解决
灰尘
▁Chick
开设
▁Career
位置
池
▁Ran
▁strings
ousands
<h2/>
舜
腹泻
Ма
isions
他
来看看
harm
简历
ulatory
懈
▁cluster
▁flux
▁depos
haul
这项
▁scrambling
后代
置于
▁scripts
▁allowance
fts
不再
的另一
▁ml
▁liquor
使用的
▁beating
杨幂
▁coales
▁diagnose
:%
▁smashed
促
螺栓
nW
▁once
▁Kot
AZ
ream
带给
})-(\\
▁re
mmmm
▁excludes
瑾
焰
▁те
▁enhancing
因为有
较长
▁pouch
▁Evolution
/*
have
abilities
…”\
▁WARRANT
nNet
▁weighing
quired
▁Tucson
▁narratives
你们
At
<|unused117|>
▁Pokémon
▁iCloud
▁geo
▁discrepancy
封
▁hon
separ
▁Ez
:<
▁Bayesian
atical
般的
`)
▁ultimately
抓住
▁poster
哪些
▁justified
防控
lder
▁tandem
▁sour
opy
radle
aye
▁Guidelines
并按对方当事人的人数
▁Sections
Law
▁refers
arriage
连日
nWelcome
台北
▁Commercial
▁Sic
脸上
▁congrat
▁Malaysia
市场竞争
▁moment
▁justify
ör
▁costing
nCompared
▁Navy
modal
▁poke
enumerate
diss
碾
nexport
快速的
))
上一
nDepending
厂
也不想
從
▁sizes
Clean
Size
▁Dig
▁constructs
hythms
nGeorge
nSame
Cat
▁disaster
▁tooth
紧紧围绕
▁buy
Definition
时不
五官
誠
ERE
▁susp
都会有
的目光
▁protect
Registration
父
▁prescriptions
毕业于
hydrate
▁crystalline
▁fixtures
人情
▁wildlife
▁mph
二氧化碳
nFederal
▁Tel
都有
▁hungry
发热
▁tariff
▁feat
gx
everal
onse
nTh
财政
ladesh
Num
▁oak
▁bloom
▁attacked
nSaturday
▁shifting
▁Dream
ograms
为进一步
特别是
▁Catal
aska
}|
▁documented
好转
▁Bernie
▁cabinet
▁Customs
▁Do
函
▁legally
一流
BD
uddy
▁ISBN
(_
毕业生
▁However
nSchool
▁сре
我问
кло
▁synthesis
aaaa
▁carbo
的基础
▁sedan
opard
年报
▁knight
▁theore
▁capturing
市政府
van
演唱会
▁categorized
nSomeone
▁Finals
▁mods
▁disguise
lag
▁obtain
▁generate
▁Catherine
hours
nmin
零食
Bl
▁Oliver
saving
▁pa
▁Matthew
amation
▁collectors
▁financially
▁prepares
▁knows
▁Reb
jac
trend
След
Sel
▁ringing
▁Kate
▁pounds
▁chromos
⑤
神经
▁funny
不吃
Fit
river
用自己的
在你的
着自己的
nRed
MG
▁nod
▁substantive
在家里
\\\
▁orbit
Blocks
的企业
路边
STEM
敏感
就像
San
▁understand
opening
实验室
加强对
如果要
受不了
果实
▁kidney
年龄段
▁Bris
化管理
bai
查明
不利于
bos
▁warp
总计
变现
orgia
拙
mort
十二
cler
▁heritage
▁crappy
▁caffeine
酶
▁roller
▁regimes
▁Diaz
亿美元
擇
▁FL
▁pathway
拣
▁expire
麓
rin
剑
扩张
美股
▁Parameters
dash
ASA
Where
▁URLs
之日
▁Schol
wp
Ball
重度
▁Dress
▁thoughtful
iquette
▁Front
▁Fighter
corn
認為
▁MIT
UUID
▁Leslie
▁stated
orphism
∶
制作的
疾控中心
PROP
▁exam
分别为
文明的
也因此
▁refreshed
▁pitches
▁Push
第一百四
▁compromise
CODE
的古
规则
卖给
▁Guide
▁narrower
{
车企
在下
▁kidn
安全和
uities
▁hig
▁sou
▁inflam
▁polar
▁advocating
格式
▁Angeles
要到
推动
状态的
▁patiently
▁communicate
USINESS
搞定
傳統
并不会
也算是
▁hairy
▁Claus
仅供参考
eyer
▁outputId
inding
▁Healthcare
▁mornings
intend
刚好
▁Ker
的他
▁concepts
hyperlink
并与
▁bis
▁replicate
矶
▁pixel
日出生
多吃
▁Occup
▁Gir
▁Model
▁significant
▁defend
ASS
ndata
nwho
ография
nuse
▁Pride
积
Inst
丝毫
山顶
墟
cedes
智能手机
小小的
厚重
▁transcend
iated
)**
美国的
▁Hello
rite
并向
▁multit
ushima
有些
▁mouse
▁directly
浑
▁cumbers
jump
▁Devon
到大
保全
▁accountant
關係
規定
magnetic
sing
oted
遴
nice
nRoom
▁sail
说他
▁player
▁sells
uw
dain
实验
▁UFO
▁staging
ña
怎么会
▁Clint
原料
ener
克里
▁Price
▁foremost
nAB
赔偿金
▁sale
vskip
nLand
▁Hair
▁shy
▁therapies
▁plastic
umped
主义者
职权
ten
重复
▁heaven
ET
心疼
▁learned
<|Assistant|>
napproxim
▁payments
oppy
澎湃
iliar
眼前
公司在
forth
ama
南京
幫
pleted
▁Levi
Corollary
▁chicks
vo
▁Acknow
▁Victor
nme
▁modern
作家
size
全民
▁mesmer
▁opin
被誉为
▁Ur
▁пло
▁Console
的一
麥
▁poised
img
жа
ask
▁Japan
▁fridge
杂志
人权
▁identities
▁CBC
▁Ky
▁hyper
▁wherever
沿海
▁Nan
有时
回忆
▁enhanced
▁Tob
处女
社会保险
▁Outdoor
▁overall
▁playoff
下山
增长的
▁nesting
▁Jama
Union
front
nThanks
▁Coulomb
摸
蛋白
▁border
All
百分之
許多
lease
区域内
uters
还想
}$}\
▁presume
股的
▁motivate
▁preferably
▁can
天秤
nEqu
荣
▁PO
母亲
rep
▁maintaining
晋级
LINK
caption
祝贺
CC
▁Thinking
ските
后就
▁daylight
vertis
andum
▁GB
±
oner
▁Hang
▁smaller
▁license
▁Along
▁peel
omnia
▁Shot
振荡
亏
▁receiver
akespe
▁Mountain
inside
▁Public
▁illum
性强
ERA
▁cavity
acial
▁fans
附着
▁dread
▁bodies
碰到
▁hotter
nFri
▁digital
不见
▁instrument
rance
▁Tales
▁intermittent
▁officer
▁Agreement
剧院
▁stable
baij
▁coupons
▁how
ollah
奴隶
六
声明
intro
using
▁Gate
▁weighs
更高的
▁vodka
▁mounting
vil
瞬
举办
板材
▁corrupt
▁AC
▁centers
▁below
▁intercourse
▁Rural
采集
的总
二十
▁unpopular
odium
uer
上海市
之地
人死亡
枪
▁Soft
渴
键盘
}}}\\
iv
▁text
从事
▁teacher
urpose
慰
▁fortun
题型
分化
nUpdated
很大
inator
Access
新高
▁slept
貧
NU
merged
$&
谷歌
底部
阶段
nsim
过往
管理制度
▁elegance
近
<|unused098|>
▁supplies
▁AW
Vertex
wiki
roy
depending
▁surgical
对我
微观
明确
owler
未知
ise
▁performance
咳
每当
▁tie
會議
做成
▁commut
▁degenerate
冰糖
绍兴
蔬菜
nBuild
AL
拓
源于
▁III
情况下
archar
vant
▁hero
nEl
起初
▁equilib
▁indigenous
同龄
usiness
ndown
scene
▁Windows
image
陌生人
tthis
的了
▁charitable
Operation
▁Scot
▁Emm
an
Effect
▁spill
遭受
裁定
起码
pac
Ц
庫
▁表
螺旋
ipt
education
ETER
无数
boot
▁contextual
})^{-
uncher
IU
стран
^{*
TRUE
▁Laf
icates
第一条
▁mens
nlow
置
oks
▁opp
责任
▁recommended
▁suppressed
培养
预案
nSun
▁Evidence
心态
▁abs
▁adolescents
获得
adjoint
▁atom
floor
irl
▁L
初三
钙
ipp
证明
合议庭
嗓子
岚
中药
▁hunter
лната
独角
▁spread
回
▁Program
打开
▁fingers
滤波
рата
▁Phillips
▁modulation
全心
conom
▁sneak
因为他们
▁harmful
场比赛
▁founder
二次
比如
nax
▁crus
溯
▁two
▁Sask
▁philosophy
的日子里
什么
每次
农家
▁NON
▁prosec
Compile
览
Helpers
传输
銷
▁Upload
▁Abraham
mx
grad
▁ut
▁bag
电器
▁propose
▁threw
ninte
▁civilization
ooks
oyle
▁iterate
反复
Rep
▁flee
可以通过
▁lighter
▁Speaker
议会
落下
▁hasn
▁Ticket
▁padding
▁awk
上下游
▁paid
▁scheduled
兑现
▁courts
<0x92>
LU
▁insured
scription
专注
大多
临近
▁reference
asons
back
熟
}$&
哪一个
▁belonged
链接
日在
Commun
nthis
欧盟
▁cares
▁cond
少的
学业
atial
几率
的评价
|\\
细胞
nar
▁somet
nfollowing
Mon
creased
人和
▁запа
▁somew
HO
nRemember
Rect
onso
范文
SK
▁Neil
潮流
▁LO
粉碎
▁vaginal
▁und
ia
▁weekends
▁weighed
▁relating
▁Enh
η
▁forehead
▁convictions
▁strongest
▁без
标本
▁Tail
不懂
医科大学
上半年
船
灣
▁ginger
▁Serial
combined
Ph
最早
特定
▁dispos
设备
Agg
高等
▁diameter
Easy
▁Auto
ivery
▁publicly
▁endorse
▁tendencies
▁covert
▁augmented
明
ann
nPhoto
▁зе
极具
harma
▁We
▁tiny
mys
▁unpleasant
▁MAT
facebook
养老保险
而对
▁double
oba
以后的
叠
Cons
同学
<filename>
ains
▁negative
ал
▁vulgar
▁silence
危机
▁gauge
▁amazed
小米
junit
創業
容积
nIntroduction
购物
喜悦
heck
排毒
▁Any
選
涛
attention
▁Demo
into
Quick
▁mechanic
而且是
很少
反省
▁trailer
▁Trib
▁afford
▁legend
还不是
▁ACTION
AAAA
▁config
▁networking
可通过
▁be
▁black
会让
黄山
導致
岛屿
▁dinosaur
zhu
▁Burton
▁prelim
▁Leon
▁тур
第二条
supported
宠物
阳台
可能是
▁scalar
时刻
分裂
▁restraint
▁additional
伙食补助费
ocument
慷
▁Mongo
▁conjugate
回来
dump
唯
▁C
▁cloudy
国家安全
J
)$
母
idian
诱惑
日起至
▁installations
▁states
▁Alliance
▁prisoners
）（
nAlso
▁deliveries
▁stigma
ielded
verett
派遣
▁Select
▁released
vens
▁understandable
▁treating
老头
nUpon
ria
▁eagerly
uations
Bro
▁bend
▁Shanghai
▁detected
▁territory
▁tru
▁Chair
一无
▁Contract
table
該
▁eyel
工作进行
▁deliver
▁Gone
▁€
▁Potential
actors
那时
直流
▁inspiring
▁multip
激发
见识
elesc
usions
▁disadvantages
劑
▁destination
明朝
债务利息
▁Bible
uisine
indows
无疑是
秋冬
在小
▁rainfall
astings
dee
▁threads
aporation
也不敢
▁Wouldn
buntu
▁Drugs
▁level
定居
Collection
½
▁sweeping
整车
하
▁armor
▁CB
独
▁mold
▁operate
▁Pil
▁Inform
严格执行
▁Un
inner
WHM
▁Orche
厄
电台
佔
▁coping
诸
南市
MTY
▁Search
很大的
美术馆
phil
▁CCD
牢牢
▁capital
itement
就不会
同
▁technique
▁rad
ghai
nB
▁Cleveland
▁Ravens
▁VII
谐
nore
existent
在地
vm
本书
▁penetrate
Final
▁Ta
绝大部分
▁die
▁sorry
iOS
▁demonstrate
▁deprived
▁susceptible
qw
▁conditioned
<0xE4>
▁Moscow
VERTIS
低的
▁malware
▁bastard
的很
▁albums
▁Full
队长
▁Vik
愿你
希
▁supervised
age
▁Berry
热带
quartered
抽烟
inois
进化
独自
▁Um
기
▁craft
▁companions
mesh
我们没有
nLeave
侧面
是被
▁cement
system
Links
▁proposition
远处
据统计
inals
adem
▁Reagan
▁relax
ent
一案
▁IO
triangleq
寄
▁dog
shifts
淄
▁stray
▁attaching
citet
▁strangely
ръ
▁Laws
lean
▁vivid
有了
张某某
▁desires
师范大学
▁cardboard
听完
五
锤
一等奖
<|im_sep|>
涵盖
*{-
▁Dipl
执
▁upwards
omen
的天
▁crime
病历
▁don
lc
▁THIS
▁fal
▁(\\
▁cleanup
nequation
荧光
try
▁quickly
播种
зова
逾
▁enriched
▁adds
▁consum
▁fact
▁handled
▁Point
multi
▁partitioning
nP
▁Nav
▁still
nRes
▁nerve
Chunk
配备
▁space
心的
▁matrix
uis
ater
▁pain
很多人
这些都是
Jet
增长率
Interest
						
▁Asian
KR
▁EW
▁shoulders
▁convicted
▁Second
▁object
年年
▁travelling
外形
▁Grants
authent
柱
▁Gul
▁soup
▁reimb
▁Asc
害
部分
领导和
son
记忆
▁allevi
单车
▁engra
▁conco
部部长
▁Fisher
▁bulk
痕迹
▁dt
▁\\]\
▁little
对我的
碳水
米
去看
弗
While
oser
asma
常识
花椒
Kind
▁Hands
came
▁Several
▁Feynman
友
的作用
塘
istic
organ
說
▁ric
dedup
大三
▁halls
▁photographic
柿
唯一
лява
ysical
Success
▁comprehend
ymbol
▁classifiers
▁omega
▁Individuals
第二年
▁obsess
▁educating
十个
qu
▁successful
▁Patrol
给付
疫情影响
劳动关系
Supported
nTeam
更是
East
▁NM
▁Fargo
我们的生活
▁ac
▁advising
heta
李小
▁locals
▁age
▁Hopefully
▁Dr
盖章
晒
▁recursion
是非常
byter
〈
给别人
焉
押金
温暖的
▁BC
:`
▁choir
▁robotics
達到
▁exacerb
]}\
▁NAS
Many
振
▁ex
▁news
inos
市长
悉尼
▁islands
是非
orders
▁finger
nDescription
soft
另有
▁strugg
live
ruby
性感
irting
▁initiate
发展规划
▁spikes
看点
qc
通用领域
敢于
▁Cindy
▁nailed
▁adaptive
▁underwear
手里
社保
我曾经
▁targeting
Saturday
▁freezer
▁Dunn
霄
待
yaml
岛上
▁revis
Params
Am
▁Spl
nWe
姓名
计量
产业发展
▁Sorry
▁dude
▁NN
梗
▁cf
▁clust
认定
faster
加倍
ynman
江市
回头
▁Over
▁arises
▁endpoints
▁fundament
▁publishers
▁Tibetan
跨
▁fe
转换
resources
▁policym
考点
parbox
irgin
itian
优惠
notification
蓝图
pacing
七个
企稳
sql
rote
▁entry
▁Lan
▁scratch
alam
酪
aeda
▁hotel
▁Creation
Martin
涌现
；\
ooth
偏好
脾胃
考试
▁tempt
▁inline
▁HK
▁ctx
之大
arried
okia
出入
stdout
nik
▁negligible
▁compounds
QE
│  
account
ase
inking
upt
network
▁Bib
Path
▁Shop
▁chefs
▁Boris
▁collapse
▁determining
▁critics
▁sole
▁embrac
▁Dave
▁版的
▁posted
阴性
继
▁visa
车内
决定
諾
work
▁steering
用好
▁husband
但是却
▁calculating
乾隆
生活中
▁Previous
unicip
mares
▁quadratic
ncount
产业的
▁exhibitions
外交部
▁moderately
puts
ard
功能的
'+
▁$$
▁pointer
▁get
的神
▁onwards
秉承
▁rele
天赋
▁global
Decimal
within
▁Rab
sched
▁Car
每股
站
▁lore
▁Theory
UP
▁assigns
erek
▁expl
▁larg
UE
▁Cass
敲门
球
▁reconciliation
庶
bg
nobtained
▁Spy
<0xB5>
中国
会儿
▁legacy
fect
uther
oki
競爭
▁Raj
压力
▁shutting
悬浮
lecting
nL
▁ash
象征
png
sis
▁Material
财产
限度
负载
edo
万台
▁dimensions
ivas
▁affiliate
真情
目前
▁mask
▁testosterone
▁Redd
在路上
加拿
designed
▁atrocities
▁asteroid
▁curious
nSouth
▁pad
liter
而下
学习和
▁Lah
▁attachment
欠
下班
▁deeply
▁imper
▁California
▁Cher
moment
▁stark
▁propri
▁deals
▁wind
DAQ
▁cane
▁crypto
这部电影
rey
▁Hindi
▁axe
锰
▁ult
ottenham
haus
心理
▁veloc
巴菲特
▁Nest
▁confirm
▁sushi
▁agencies
你会发现
安宁
▁TS
▁il
資源
奔驰
▁Shen
▁sever
inging
▁logger
diamond
驴
▁fit
空间
▁Brandon
heating
bys
точници
▁regulators
▁fluorescent
nTherefore
romagnet
ascus
国家和地区
▁Justice
▁Err
▁methane
atching
arXiv
▁Status
张家
Sex
nforcement
ção
await
▁Iraqi
信访
▁emerges
▁Sharp
一体化
后续
俗
<|unused127|>
窘
▁arr
▁replica
▁LOC
Allow
口腔
▁Analy
▁accessory
}{*}{\\
ROM
固
▁overcome
▁indulge
事情
▁Kam
来说是
▁Liu
▁Brow
乎
停电
conditional
▁ceiling
vp
▁从
▁criterion
▁undesirable
names
不难
拓宽
▁ally
▁incremental
▁chlor
▁auction
tax
但要
因为这个
▁steak
另一半
▁calibrated
ographer
设备和
nWeb
驾车
▁VT
atom
冬季
过头
North
\"=>
bac
<0x9E>
▁replacing
▁Knox
▁js
GUI
设置有
loc
▁PARTICULAR
粽
修订
县的
▁iso
▁Late
amps
▁dissip
的出现
bb
▁Escape
▁procure
▁extend
▁spreads
▁trademark
omon
也只能
浪潮
▁sho
你想
nlo
cipl
Device
▁vacancies
直升
▁fathers
nInformation
▁Perform
▁本发明的
Folder
▁empowered
改變
we
ussed
▁бо
vertical
cales
备考
▁dysfunction
放到
仅次于
う
▁concessions
▁worst
▁Orthodox
曾
▁TP
特别是在
▁Nintendo
封信
至关
▁Most
opacity
二中
birds
Ce
作用
加密
Begin
▁Maker
Street
▁spins
odka
pup
nf
hopefully
完全是
一名
ousand
医护人员
▁night
蔽
阵阵
▁cig
大厦
▁mar
治
原先
▁LL
用工
▁injuries
DATE
▁\\
▁designated
NOW
▁folks
<|unused014|>
DER
▁intensity
绒
▁requirement
▁cod
▁applicable
▁contemplating
▁labor
老人们
散发
wash
并根据
时代的
passed
原生
ations
河南省
▁shoppers
▁fabulous
nEverything
身心健康
设计
每隔
▁Beyond
衣物
工作人员
▁marri
Ur
▁affidav
準
atie
ature
纲要
▁ad
▁visited
景观
处罚
rait
现实的
菲
阵容
膳食
▁Hardy
ocalyptic
▁Ro
▁Simmons
rans
treturn
▁Bast
draw
)}_
金刚
▁haz
quer
▁splash
▁inh
Hor
▁[…]\
▁competed
要强化
elines
▁controll
▁pilots
▁negotiated
<0xC9>
▁Cameron
geometric
nFast
▁Homes
▁NS
unch
更大
··
卧室
peer
▁Montana
raded
▁Manhattan
▁Bill
eea
▁Brendan
风
▁Buddhism
增长
口袋
scriber
▁conventional
<0x88>
典礼
▁tell
ising
▁McG
▁stacking
utes
onts
▁BACK
Sunday
▁inner
nwall
贪
▁improves
重磅
这都是
~(\\
踊
▁gradu
替换
uke
istance
psy
▁Years
保护区
個月
进一步提升
iatric
▁giving
一审判决
▁encouraging
\">[
▁varieties
持平
<|unused069|>
▁Bod
▁northwest
的花
办的
▁$\
数额
名下
▁resemb
▁Christianity
▁Warm
nHowever
located
他已经
ру
应当在
▁H
ler
董事长
prec
▁Batt
的创新
nProcess
充足
angle
▁lia
▁divided
▁Mario
▁Garcia
▁dinosaurs
▁third
▁Tan
一遍
▁communities
▁Advice
哼
▁tool
用途
渤海
▁achieves
各乡镇
▁estimate
visor
是对
calculate
▁notice
▁improvement
▁encryption
▁abortions
审判
▁Copyright
Fi
mation
▁името
機構
▁maintain
enses
napp
are
Generic
itive
经审理
▁appropri
▁warehouse
▁boy
▁came
ulpt
感染的
方方面
传言
▁narrative
othered
Sk
<<<<
iast
▁index
▁annual
首先是
cyl
控制的
▁daily
Url
▁seal
这个名字
Serial
考虑到
第二百五十三条
▁lean
handler
▁align
Bottom
▁Riemannian
▁wooden
的说
▁know
底层
▁aside
▁customers
苏州
这座
nChar
▁Nepal
极大
fork
就得
nBased
ges
▁profitable
孝顺
aption
uggle
爆竹
▁overload
▁correlations
协同
▁Nearly
依
▁thereof
▁Scar
爷爷
ctrl
偏离
▁widget
期刊
▁accum
ateg
▁prohibition
}{(
ето
▁scam
▁Jerusalem
relax
前任
同仁
▁DO
浸泡
nRather
aut
cmp
nprobability
CH
▁BM
==\
▁swelling
灵感
意思
▁authorization
▁exchanges
妇女
反思
annah
FG
atch
上诉于
▁consistency
nFirstly
叨
▁Timber
▁Rain
電
mediately
评选
不断提升
Pe
全力以赴
ята
ania
othy
为一个
”\
▁therapist
饮用
irst
纤维
憬
为主
的建议
▁Finance
玩游戏
▁Treatment
▁retail
nlarge
let
▁Make
▁purely
他们
bnb
▁Florida
▁Array
▁Boehner
ESSAGE
▁series
ç
Desc
盗窃
职员
连接到
走过
▁dashboard
沿途
idual
▁accusing
IONS
▁Long
终于
catch
ione
直到
▁Brooks
▁sadd
WN
▁streng
acle
convex
▁
▁filters
給
irates
▁Due
GeV
Profile
▁tragic
▁thanked
袋
upid
树枝
宏伟
▁е
nproduct
cold
械
чени
中风
▁Clo
▁throwing
▁Flash
▁Mini
追求
▁рай
▁united
各自的
▁prosper
拥有
▁styling
活跃
▁splendid
▁card
NzA
▁depicts
诞
增高
uten
nThere
带孩子
▁sends
▁questionnaire
▁compensation
crement
&+
▁frequencies
Group
券商
浙江省
overn
▁ubiqu
nMost
)'
tat
Comment
▁LORD
]:\
北上
▁midst
▁second
▁CD
odi
俱乐部
威力
▁comforting
为啥
引人
reng
▁няко
families
}:\
<jupyter_start>
ghost
▁equity
ITS
▁happier
▁garage
▁sounded
场面
))\\
ropical
工作时
▁library
vb
epsi
nIf
▁jurisdict
铸
waves
▁Catch
▁greatly
道的
▁use
与其他
合作协议
关键时刻
application
高新技术
\"]
▁loader
所用
ś
expansion
▁deliber
岁了
▁obl
▁senators
Test
▁Boulder
制成的
BC
▁ampl
level
告诉我们
yss
▁pecul
▁violin
缓和
)-(
MOD
pip
▁meg
长大
urved
Mouse
igers
▁casual
▁curb
ismiss
iors
无法
AR
这样的人
нгли
▁Pretty
▁Rock
~~~~
当下
APP
aday
▁major
▁Vol
▁articles
▁mosaic
反过来
Ab
▁indefinitely
澳大利
▁Dra
▁iteration
▁日
nBut
▁figures
感受到了
马达
ricane
]_{
▁Hospit
▁Francis
UTF
关系到
▁Dec
见证
投放
dag
书的
▁warranties
精力
ncondition
▁Chronicle
oxel
▁…
йто
▁Note
eing
▁surg
随处
德尔
公诉机关指控
Mer
沒
▁scr
孤独
官网
年来
▁CAS
Benz
▁ugly
motion
session
facts
▁lesson
DO
uggish
取胜
▁confisc
verbose
▁bounds
Hol
▁forwarding
▁volunteer
▁RF
ulas
年起
MDE
▁confused
日活动
▁Halloween
ampions
▁Cod
reens
▁rural
太过
▁clues
velt
▁idiots
▁redistribute
异味
▁Kore
blow
itude
不但
▁defic
因涉嫌
isans
orial
▁Ж
飙
▁Studies
▁merged
▁passion
▁likewise
nother
交接
▁nut
▁\\{
▁bolster
Ю
sigma
Po
▁behold
▁raging
▁Glass
相
nman
▁bid
▁drill
在南
exit
的质量
/{\\
▁human
▁Install
眼中
osition
nJack
▁drugs
nDetails
▁Bound
bibitem
▁coach
▁investors
▁announcement
低位
罐
烹饪
▁healthcare
▁thighs
打底裤
Wild
▁lowers
经查
orbit
hemat
OTI
旋转
▁warning
▁Process
ighb
aining
▁evidence
Enc
▁Shock
长沙
uffy
askell
cribing
▁Philly
▁approach
$:\
手续
atility
中日
yl
这个词
▁illustrating
西班牙
▁arter
▁Dubai
▁servants
▁participated
恶意
▁John
edding
ffic
上班
赔偿原告
▁Santa
过年
▁NET
▁Applying
▁tentative
俘
gb
网友
wide
学院的
▁vegetation
贵人
ip
稚
▁skate
▁stride
▁Fantasy
▁adjoint
▁Editor
fig
izzy
搜狐
irus
非机动车
▁Wars
guy
commend
▁positions
发动机
涉及的
▁weaknesses
▁searched
相见
都想
nGlobal
IDENT
nms
太阳能
▁Likewise
新鲜的
▁Ricky
})}{\\
派的
有利于
▁worth
<br/>
▁MID
▁vast
▁exported
▁община
就有
Instance
▁reluct
▁Eli
aling
▁apt
意料
asers
▁Schw
▁Registry
焊接
ollow
overs
▁WWII
序列
不一
▁mechanisms
秘书长
usterity
桂花
CG
▁Type
教育整顿
曾在
pots
了这个
电商
▁nine
▁Boy
▁TE
眠
投降
▁menstru
▁projected
红包
勿
irlines
盒
outing
лъ
▁lies
nmet
)|
在这样的
届中国
▁participating
ISE
cancel
casters
▁scientist
反抗
▁bubbles
fashioned
▁Leban
漸
猝
▁ear
▁EM
▁del
了
▁Far
nBetween
claim
▁Child
burst
▁task
季后赛
韓國
<0x2C>
▁revealing
};
屋顶
▁photon
履行
Press
年限
避开
▁broch
igible
stakes
▁tomat
处境
陆军
趨
urther
MODULE
题主
装
дра
▁hesitation
造成了
▁mommy
▁remotely
▁TRUE
放
还有什么
Sigma
▁halos
充电
高效的
晓明
的功效
魔鬼
县级
▁dwelling
为什么不
的時候
▁occas
填写
neural
▁wary
▁Perhaps
▁welcomes
process
那么多
▁telesc
wx
▁boutique
▁Brent
▁$\\{
oco
▁keV
<|unused047|>
Well
innamon
asets
▁commissioned
▁bacteria
职业
我能
▁scattered
ifer
善
▁centralized
坠
fix
生生
百度
抱着
徐州
▁graphene
复盘
造成
▁motors
▁Info
按键
▁finely
igmoid
思维方式
▁startups
▁decays
▁commodities
▁chess
nSuppose
▁Spotify
▁tape
高兴
nBusiness
▁Lou
▁pig
超级
productive
activate
牵手
Х
合法性
\"])\
▁transmitting
rics
▁chasing
又一次
Their
ALSE
看他
榜样
骑行
<0x79>
nFormer
но
▁Light
养猪
ught
▁writes
也是一种
▁Jong
integral
intendo
▁Spons
咧
▁diversity
\\[\\
▁Maya
</li>
~~~~~~~~~~~~~~~~
看了
成为了
tri
▁Snap
特效
national
Ant
▁Thread
设置的
▁eliminating
党委副书记
▁original
不上
胆固醇
城镇化
され
▁cann
▁Failed
ount
▁Holidays
创业板
▁Trek
▁attracted
▁Standing
胎
зда
十八条
换了
▁indisp
镀
秋
▁Employ
胱
▁squeezing
▁Billion
▁pizza
IX
▁Course
nThursday
raco
▁inequ
▁全球
rels
懒得
▁compatibility
经济社会
▁spontaneously
▁oat
西班
▁erection
▁unhappy
跟她
▁Viet
冯
▁native
▁Support
屆
针对
醒了
iche
ournal
camera
Reference
ipes
ospheric
▁Си
▁Comedy
年间
听众
总结
Night
事业
Lem
▁explan
的关注
▁Tests
▁Rainbow
▁°
▁ти
Ban
▁widow
▁sat
ths
情境
▁creativity
\\|
дин
▁Fu
plan
supset
这场比赛
做到
ides
styles
受到了
服务和
▁begins
▁detr
▁comments
就算是
andra
hg
就将
的真实性
农贸市场
▁Islamist
者的
▁expand
辨认
▁downtime
莅
工作会议
icken
▁RAW
几次
要对
▁Markov
glass
NEW
▁affection
Selected
人员
寒冬
▁Wed
vectors
▁cooperation
ket
长寿
的好处
etal
▁hacked
千人
▁SME
ú
▁exper
anting
不那么
李嘉
▁slaves
uj
▁official
年和
▁parsed
▁Caps
了一些
更好
▁reliably
▁comedy
▁doc
▁efforts
原有
促进了
umni
▁Rapid
▁paragraphs
▁Healthy
▁obliged
▁secondary
环比
NF
〔
oidal
▁heed
rection
▁Tap
▁органи
临床试验
▁remarkable
向被告
▁horrible
consistent
Ill
环境和
nSpons
▁AST
是不会
▁heroin
▁extensive
▁Kevin
AH
▁compromised
▁objects
▁gent
当了
ledgments
▁steam
拥有了
nnow
▁energetic
▁transforming
▁luxurious
rivacy
▁cryptocurrency
Ev
▁Athe
▁ka
苟
店的
伊拉克
rieving
▁wondering
IND
自带
atomic
ramework
plain
▁Dinner
=\\{
▁modified
人员的
▁establishments
的小说
<0x34>
▁Wallace
赐
▁mug
▁troubleshooting
▁empowering
想起
妖
揭牌
ō
ISION
尝
▁instabilities
▁endorsement
烈的
systems
找准
arium
▁limitation
▁household
▁pocket
Bundle
的重点
Again
▁castle
稱
参与者
安保
ionic
玩耍
環
navailable
作为
年华
油菜
▁fund
▁lending
▁civil
吨
EqualTo
▁sustainability
DL
匹
▁particle
值得
ymphony
二极管
cci
yrs
▁birth
▁euros
▁fee
▁uniquely
▁nick
▁wherein
▁Accuracy
bean
沪
тура
填补
nInternet
atically
▁mist
fmt
ported
umes
nesota
fav
▁wh
百货
▁SOME
woman
▁dash
探险
自我的
瞬间
част
▁Inspect
inning
是一位
nDue
之声
▁J
白色的
身边的人
▁illegal
▁furthermore
走的
证据证明
▁canonical
Argument
▁identification
▁ner
期间履行
▁Ax
▁NEC
第三者
▁adoption
大腿
▁Sar
▁Мо
де
有余
溪
士兵
▁circumstances
ateurs
小人
touch
▁straight
▁$>$
▁investigators
nsudo
NzE
▁Noah
设施
得知
一直是
▁spine
▁Ow
彬
▁entail
nbsp
卉
普通的
SDK
▁permitting
」\
▁resistivity
▁interceptions
▁clash
产量
▁enabled
▁allow
subtitle
就应该
必要的
▁surrender
inet
▁REST
▁full
可能会有
说法
▁lyric
▁Lee
Off
感的
泉
▁wa
▁logging
▁retro
为主题的
仍在
研究会
ODA
▁parallels
……
▁gentleman
▁organisms
聚合
经历了
ittest
▁eats
纪元
▁geographic
闲
iaz
▁psycho
凭
房源
nonym
▁photo
istingu
樱
▁прев
这种
sensitive
▁canopy
ivering
;&#
▁shrimp
三板
▁ге
形成的
机的
见的
NV
▁citation
一路上
▁maternity
我都会
主
▁SEE
人在
▁puppies
▁pilot
比亚迪
热爱
队在
ause
相當
▁superintendent
接头
绞
授课
▁unstable
空调
Cu
▁kidd
▁Grad
▁assisted
我最
▁education
返乡
▁screamed
rig
▁sore
▁Gear
▁Tur
▁reduces
陈列
nproblem
部位
urns
PCA
}^{+
ignon
逼
再有
nDigital
'));\
Form
pipeline
比例
▁optically
帐
▁Vander
细致
▁args
▁HO
Output
itively
▁components
yn
Happy
▁direction
▁party
lists
▁Klein
▁telescopes
button
;-
▁stability
▁lights
ourse
arten
PhysRev
汽油
ramer
▁Blow
closes
追随
败
贡
被执行人
▁Chad
住院伙食补助费
▁Understanding
▁breeding
matter
▁DJ
土耳其
<0xEC>
▁bub
linewidth
企業
rophic
hem
}}}}
▁ownership
▁Revenue
于是
ribe
表演
▁Tunis
▁Seal
▁mathemat
▁provincial
great
不斷
全体党员
簡單
IJ
▁От
对美国
▁bouncing
判断
跟
离心
Problem
▁meteor
▁friendly
▁atheism
▁surviving
calib
▁myths
迷
▁drawer
規劃
▁перио
MTk
建设
};\
▁celebrated
诗句
当庭
：
栽培
nColl
bigcap
退出
宝石
Беле
放眼
▁BTC
料
type
▁Mur
▁frustr
<0x6A>
▁succeed
▁order
一线城市
▁format
▁produce
▁ST
▁ESP
政权
▁suspended
工作的通知
}{\\
▁emphasis
](#
這一
▁Bright
▁кри
去
物
ually
▁fluid
什么时候
udson
•
教师资格
做的事情
▁Through
生产经营
干的
士
一次次
▁Pre
how
▁Miss
Widget
ELS
QL
标签
▁Gaming
嬉
▁discretion
创造性
sampled
由
进入
▁technically
。
фициал
单位
地向
▁des
骨架
摩羯座
全家
▁Richardson
感兴趣
争论
neck
归
采购
adan
Ah
OT
<0x4B>
▁Greens
平安
▁bro
▁improved
发布会
摆放
▁aim
inverse
▁contractors
的存在
脑子
▁Sites
nHouse
馏
采取
entials
▁perimeter
管控
农村
印记
望
▁Premier
未來
▁correl
eling
ubs
▁Athlet
▁hosted
encing
芜
称
aching
)_
漂浮
GHz
▁List
▁newspapers
%
**\
{{\\
▁relatively
▁Gin
鲸
STATUS
记者
living
楼主
▁attack
})^{\\
▁touches
召开
▁Specifically
oshop
illion
▁Worth
▁overs
哇
▁VL
▁aimed
他家
▁flavor
mcitedefault
▁crushed
nForm
如果您
true
<0x4C>
▁racism
Zone
nTest
▁lacking
▁fo
讲解
看作
▁located
韭
万分
夺得
▁:(\
饰
▁ET
nUpdate
▁harbour
▁flo
nEn
展
勇
孫
andel
▁slaught
ately
▁vibrations
新
▁Uber
oron
驳回原告
脱
▁Flor
EEP
▁foreigners
散户
▁Cert
▁enrichment
▁Sc
▁Sand
orneys
ioxid
年初
启用
水温
▁darkest
▁affili
▁namely
进行
▁Japanese
▁fountain
'):\
这话
俄罗斯的
肺癌
Push
握
Vec
跑
▁declaring
acency
轻
挽
烦躁
加坡
ju
独立的
的交易
▁Credit
冷却
urations
▁Creative
頓
▁blogs
烙
▁knees
逐一
▁survivors
setting
▁eternity
ilies
▁Chavez
▁achievement
asant
▁storing
已经开始
▁printing
▁cream
▁accompany
normal
nlp
nOwn
轨迹
'''
▁motions
椅子
BLOCK
公诉机关
新三板
▁N
搭
ricing
дето
aston
▁replacement
顯示
Modified
)}=\\
▁Ev
犯规
▁fixture
▁representatives
▁Su
车队
itors
▁traveling
旅行
OOK
提及
这些东西
肪
▁Apart
ablished
ills
nDownload
▁FF
职责
▁payment
collapse
Di
▁Circle
大家对
▁PA
▁copy
▁smoked
▁lays
nperson
▁theorem
azine
▁tick
usercontent
▁'<
▁Pack
▁Sher
_{{
亿元
ushes
(\"\\
▁cheaper
()))
▁fleeing
ту
▁encode
ю
▁Hunt
▁silhouette
上证
utm
clusive
l
static
▁bore
促销
▁fulfill
可供
ymmet
▁snakes
▁ende
▁Carpenter
▁deterministic
headers
盈利
▁Cyprus
pancies
▁exited
more
~~\
clud
nTurn
▁CRE
ictured
睡眠
SPI
印花
▁Enable
▁два
儀
▁else
▁capitalist
▁optical
)]$
▁dedication
▁няколко
▁preserved
征求意见
$-
▁CAL
Gall
▁scalp
SY
无非
▁diction
ful
etic
公路
BS
微信群
kappa
▁cakes
AU
LLOW
$=
▁temple
虚假
姜
▁gravit
▁takeover
和服务
nass
怀里
我们
akov
保护和
▁ladies
Ratio
content
arrhea
月经
▁Runtime
于本判决生效
▁pillars
ANGE
▁prevalent
妙
拉开
▁estimator
▁postal
ived
ativity
erton
▁Producer
的收入
创投
▁rehabilitation
QA
▁disparate
▁chewing
▁corresponding
成長
POST
▁Ло
嚴
▁definitive
莱
▁accelerator
的现象
▁Owen
FX
踏实
水电
▁Й
▁warranted
)&=&\\
有所
▁Agric
放手
bler
otta
穴位
▁defence
憧憬
非凡
公共
展示
恐怕
▁freelance
ogenous
圈的
▁U
bibliography
repository
博士后
ute
▁falsely
▁athe
▁SHOW
赚
▁input
iments
市场经济
strength
Rad
▁oven
团长
▁bounce
▁Fro
ensus
伴随
ances
全省
rar
ncon
nConsidering
论证
▁astron
饺子
▁putting
ressed
▁aspect
二被告
(\
答案
Example
市场价格
ities
玉
▁-
GW
boundary
CT
▁immediately
区委
▁ranked
ika
emy
组装
▁superconducting
stat
▁Pow
十五
▁noon
mabaochang
▁Finding
andem
actively
nzo
山的
oltz
半径
放射
▁rainbow
▁nomination
▁Wayne
zzo
MNB
一会
润滑
▁continents
▁articulate
▁WW
▁Virt
▁Chern
太大
三位
移动
仍是
身穿
bcb
▁🙂
nSoft
安
▁strikes
巢
▁parallel
▁ranging
▁utilizes
▁syndrome
▁legends
plays
吵
身体
▁triple
otor
acon
瘫痪
盘面
▁само
▁Af
▁Yankees
▁slopes
业务的
ialis
▁landlord
Love
▁thumbs
突发事件
升学
▁Sophie
nShe
persistence
每年
加州
nHistor
切的
▁Thanksgiving
楼房
▁solver
行动计划
usan
携带
Management
卫视
▁felt
tag
在全球
otive
▁rabb
nSource
Cause
Sche
▁drops
▁Cla
动物
又说
^-
还是比较
▁County
nThose
▁trust
认识到
anic
务实
扁
▁scient
verage
他还是
理想信念
的选择
▁Pin
▁artillery
▁sparsity
LI
sons
nWhenever
流的
江南
▁map
了吧
quant
▁progress
舰队
ninteraction
雀
▁haw
亚洲
raced
idy
▁ASAP
▁Al
的过程中
Wid
▁Auth
aternal
cknow
▁Future
▁Springfield
看见了
AM
More
lon
二者
▁attackers
▁bear
▁proactive
▁funds
Ew
▁BT
历史的
修改
汶
ването
Track
finger
城管
▁instanceof
然而
▁natives
固然
вин
学习了
grant
永恒
itals
相声
早已
ustration
▁presentation
tains
論
▁File
莫名
msg
▁{\
翼翼
分析和
pose
矫
nThis
分局
earance
((\\
istory
▁Improve
▁neighbor
)|\\
▁condensed
甄
▁Dynamics
▁plaint
▁beef
的土地
印发
▁National
▁logos
一批
中队
▁complained
<|unused000|>
ording
▁overwhelmingly
▁extreme
▁masks
▁interviewing
sender
▁KNOW
▁Дими
資訊
救援
▁yeah
Generator
杜兰特
特征
抖音
烟台
▁Yukawa
▁signal
语
nElect
一百
潭
▁PvP
文化遗产
撰写
▁grams
這是
甘肃省
▁placing
▁premier
▁ideological
吵架
佛
optimal
針對
igenous
▁scholarly
狼
▁retailer
confirmed
代表人
改革
▁Charge
负责同志
告诫
外国语
▁Texas
开庭
去了
▁Lex
▁mushroom
▁bush
周某
variance
中华
tenance
Ready
▁Civic
clair
铲
餐馆
ust
▁Sci
人民医院
:-
maid
希望能够
not
▁professionally
ACE
也
emale
▁trout
脚下
istinguishable
▁charact
olean
▁Juan
▁accounted
▁българ
arity
term
▁glorious
▁Hybrid
一波
忙着
April
挤压
▁Head
▁float
▁ISO
nConsequently
isenberg
也不是
教材
▁immersed
接到
说的
▁struggle
Bbb
▁happening
▁Grove
黏膜
勇气
raits
▁Dep
▁Nigeria
的温度
▁skating
▁pred
unt
▁Jack
▁Prob
▁frameworks
俄罗斯
▁differences
正处于
秒
在地上
▁implemented
▁Lemma
▁metabolism
ully
的大
走上
▁Would
和教育
▁\"+
给人
▁township
nHead
▁Dual
承诺
朝阳
在学习
▁side
areth
标杆
Lib
剧情
缤
万家
vs
formation
努力
▁firm
既然
关怀
▁Accept
亚军
▁disappear
Root
说起
ss
錢
很多的
▁w
▁Journal
Dec
▁Trou
］
莊
UES
至上
條
的速度
conscious
三千
▁Spike
▁Norwegian
▁firefight
笼
▁District
unders
▁Karl
until
的情況
拆除
等多
▁Polic
▁decom
▁notable
▁Calvin
的游戏
▁drain
余
▁repo
二季度
<|unused143|>
▁lo
▁wage
▁Tickets
union
▁painter
▁land
方案
▁introduced
▁balanced
无处
禽
ach
▁titanium
▁elbow
▁incon
遭到
▁thereby
衔
成为一名
ë
响
较快
大夫
▁Talent
蠢
boards
还有一个
▁prox
逛街
歐
建
▁feathers
▁seeing
▁CALL
美丽
eqn
ylabel
威
olve
peated
▁Philippines
▁заедно
我心
長期
Geometry
▁starter
▁PAC
收入的
高品质
ident
azy
巷
六个
▁request
分布
读者
neut
▁Kel
▁selections
<0xEB>
有趣的
ov
▁certification
更有
介紹
▁Conversely
不如
laim
约定的
▁persons
不影响
<0x35>
无辜
女子
▁Turk
若
由此
缸
KT
某的
andidates
推理
▁weaker
▁shaded
century
诱导
芙蓉
聞
clusions
▁partition
▁scientists
ceil
封面
▁smarter
▁athletics
чки
毯
人们对
Snapshot
不知所
nEach
文
不理
▁cups
nSec
接触到
生产线
smith
骨骼
RR
▁Business
磕
▁oscillators
nAL
办理
$\\%
▁ost
▁revisit
yle
家乡
$'
renewcommand
▁Ambassador
后天
定量
nContact
▁chrome
▁calming
▁Research
老人家
iggle
▁cycles
▁pro
▁bizarre
▁Acts
重要的作用
▁perceive
STR
巡查
一如既往
SW
ourced
▁loop
\\;
▁tenant
我真的
事先
arget
umed
▁jupyter
▁tight
▁Dat
▁Odd
ucle
▁dd
▁frankly
页
油
▁Jefferson
各种各样的
volent
▁safety
rowser
▁slash
did
▁Private
全长
▁go
elo
一度
干扰
自己也
▁circ
NTc
建造
模具
▁misunder
▁Rodriguez
merce
▁Pv
▁pent
▁against
▁diarrhea
▁rampant
宙
=-
当代
▁War
count
队
蕴
經濟
激素
▁Harper
▁cris
才能够
\\_
nMart
▁QA
仲裁
▁tremendously
在香港
jm
▁Advisory
▁Sunshine
我们对
▁Chairman
nU
LowerCase
但如果
优点
Ubuntu
▁aluminium
政务
▁dotted
urers
▁Promise
nQuote
生产和
人員
▁covari
线路
▁demonstrating
);\
bsolutely
▁BY
ilia
▁BEC
nMethod
icular
▁physics
师资
的白
▁Video
▁Belgian
章程
Reg
▁hopeful
;;
extensions
follow
接下来的
▁Ree
olving
ume
日志
▁coord
▁в
border
scan
偏见
▁lur
崇拜
ivating
▁GO
runtime
ubernetes
▁obligations
▁Limited
]\\\\\
同事
進入
當時
称号
校内
▁Unknown
协商
▁historian
▁Skip
进门
▁analyze
病原
本院予以确认
dim
砥
身
nClean
舍不得
▁所述的
icode
风机
▁ecosystems
pon
▁intric
庞大的
Default
的动力
▁injective
nLow
+|
photos
户型
ULL
前来
中华民族
น
期末
nUn
nalso
Bay
▁attended
aughter
▁Million
ERT
iseconds
和谐
али
▁”\
走在
超过
conc
▁decorated
闪烁
uctions
▁EVERY
Float
RETURN
上去
后勤
远了
▁jerk
建立健全
▁blank
relativistic
让孩子们
▁helping
经验和
Chat
硬化
听证
懵
調查
SEC
程序员
▁decrease
▁Pose
▁females
nWhatever
公司将
▁Con
讨厌
ubernet
ngeneral
中西
dec
宅基地
▁Dot
▁halftime
▁intersections
效果
▁('
▁mast
▁followed
▁attempted
▁/\\
▁subscribers
▁Edmonton
村民们
战国
二年
Xi
质证
溶解
所谓
neq
认证
▁RBI
=\"${
▁Caval
innerHTML
早盘
一万
赶快
▁sevent
窗外
宣布
▁weddings
非常大
嗯
Table
National
枸杞
心里的
▁storyt
▁truncation
一季度
)
▁decorations
▁consequ
based
▁relic
鲜明的
▁Mate
PN
▁tolerance
ountain
練
▁Walking
中国科学院
▁credibility
抗拒
資產
qed
▁aide
▁impairment
nPlace
拜登
▁hazardous
=}
欧
oo
的理由
{+
Options
洗涤
sequ
anna
ninvest
attrs
ivil
抒
▁navy
ner
位于
忙碌
▁\"$
ient
群
▁dramatic
绰
▁Innovation
工匠
處理
▁amen
ymatrix
▁sidew
▁Terminal
▁Clement
▁honeymoon
貝
▁shouted
保護
uggling
samples
▁benign
▁museum
▁Goals
车上
▁footing
regate
}_
▁Tommy
流水
▁cinnamon
起的
将所述
赖
应该
树的
стори
`);\
▁Willis
▁bound
▁stalk
▁theat
goo
▁rating
▁perspectives
nprocess
STE
要
▁Lang
near
few
▁try
璨
▁posit
▁scars
数据显示
牟
有多少
▁playground
全村
ang
independent
▁sqrt
field
xt
随即
将自己
nEd
▁react
)}-
▁Ages
医生
▁engineer
▁bil
rink
▁Kirk
▁Systems
дел
▁cigar
检查组
nthony
ulated
▁fundraiser
falls
Former
▁Clients
观摩
验证
▁parade
▁PL
▁famously
▁slides
▁Mor
▁spark
ber
爸妈
▁modulus
建于
nir
峡
太大的
外援
自由
▁Hart
Skip
▁measure
need
OPEN
▁SN
oute
福田
▁Ali
▁ASP
▁LM
ambig
不喜欢
▁transitions
毛病
nFinally
骚
▁enzymes
}]\\
nRight
邀请了
NBA
BG
chemical
nSure
冀
纷纷表示
yellow
▁clutter
▁хи
生态
▁CONDITIONS
▁tropical
亦是
心脏
icture
▁страната
航班
▁few
▁Coverage
igi
sa
east
▁inserted
▁Possible
alone
谴责
▁inputs
▁probation
不以
馈
团体
▁book
▁infrared
okemon
▁Free
amie
▁mad
▁substituting
nEvent
钛
▁load
▁Foreign
▁precautions
▁Rico
▁popcorn
历时
▁symptom
▁appointments
也要


碎片
▁casualties
ogen
避险
建的
争
▁averaged
▁aband
▁Spanish
在未来
你不能
放假
▁prospective
eddings
<|unused132|>
频率
спо
ambers
▁parse
了解了
▁somehow
雙
ANT
▁December
atican
▁Partial
▁Fuck
spe
utation
为企业
Required
▁kind
可持续发展
▁micro
IO
▁iphone
▁plunge
]}\\
立马
疏忽
nChoose
▁observed
тия
▁Randy
▁capsules
nAss
育人
hetic
精通
itching
Mod
▁depths
▁plugged
▁Lynch
Examples
▁remove
乡村
▁Midd
▁Ethereum
Getting
廳
的心
主义
祈祷
自身
ador
▁affiliation
▁Yan
racted
▁stickers
ържа
乒乓
痒
par
▁Comput
总觉得
▁engaging
▁helped
化了
FTWARE
▁VI
or
ulates
量和
▁Pand
▁});\
理科
超越
nif
▁Financial
▁slate
▁beta
yx
回复
男朋友
凭什么
尺度
人民的
Addr
▁Investors
▁accompl
▁sandwic
这是一个
五个
欧元
▁kick
▁missed
澳洲
▁evapor
VR
▁submission
▁TRAN
持股
ega
诊断
IG
brown
▁privately
好看
对方
▁libert
Machine
heastern
潘
accuracy
着她
端口
相传
单纯的
迅
ил
Double
中国人的
Valid
大家都知道
鐵
▁bureauc
finite
▁gay
气温
FIELD
个月
▁periodically
办公
▁IE
▁Anglo
打包
▁sentence
Create
nTim
可知
를
▁Pepper
Fre
剩
▁Griff
主要由
▁>\
▁Dell
prises
▁seconds
▁stretches
这也是
▁needing
ousel
电网
▁Suz
▁duplicate
▁divergent
pher
▁converge
VENT
▁rev
通过
▁quotation
nSam
始终
enic
▁Peter
▁fert
▁quantify
▁ruby
地域
你的
▁har
不会再
▁exiting
▁wrongly
nAdding
▁brace
▁lar
▁Missouri
▁Bak
金色
恶魔
道路
▁hold
▁discre
eals
acks
▁Era
闪光
老实
▁lam
▁mirrors
phalt
和无
▁hum
成都市
aking
▁inexperienced
THE
▁Bomb
技巧
政法委
▁tongue
疗
uc
还将
合规
▁enjoyed
余名
▁madness
onium
人意
▁least
悦
phrase
▁recovered
門
痞
人选
isely
▁smells
acious
抗议
▁Mpc
atar
contains
▁spans
特色的
可以做
▁delicious
▁stiffness
▁Named
▁gift
▁handles
▁waited
▁RL
▁awaiting
百强
村村民
▁Vernon
请问
向后
▁Spurs
拨打
exual
▁horm
EventListener
;->
人民网
边界
asse
▁appl
▁Hans
▁Why
）"
好事
▁Sid
▁function
对我来说
黑人
构筑
▁Bella
所带来的
一步步
▁може
大力
▁ceremony
儿的
ffe
rowse
uration
的基础上
碼
点击
proof
sel
账户
<0xC6>
吉祥
Files
背诵
▁summation
擔任
▁hottest
hearted
▁explosions
▁developing
有一定
专辑
▁Quite
писа
▁legendary
Pajama
联动
子和
oref
^*(\\
多点
意義
肴
▁shell
▁Highway
先生的
Converter
您的
长期的
▁SPD
失
▁equal
▁evaluation
▁calib
▁polymer
MDM
▁Lac
發現
的爱
obi
▁exclud
Mg
▁Self
▁joint
加重
▁qualities
ACS
cipline
▁dipole
案件受理费
ooo
display
▁grill
大脑
▁EPS
underbrace
ifying
▁irritating
idi
otechnology
dic
世界杯
▁cleared
▁comprises
npossible
nObviously
侦
nLevel
▁Lauren
美女
▁files
iles
charge
立足
▁dB
iscopal
ermi
何必
Agent
要去
logo
▁DATA
amus
▁promote
nEv
是否存在
▁CAR
▁Gregory
resents
都有着
▁whale
photon
ava
閱
▁desc
▁accused
ave
andid
▁lift
▁contribute
二的
▁Freedom
▁O
▁railroad
grained
<0xB1>
两点
”:
▁Craft
▁Fo
赛场
这儿
▁warmer
<!--
<0x3C>
▁cultivation
▁payday
arth
适合自己的
怀疑
艺术家
вро
为
inates
rise
fulness
▁launch
▁EUR
▁ferromagnetic
▁continent
瑞士
▁parole
▁Naturally
学习教育
▁Andrews
▁advancements
银川
Bigr
我们有
umably
▁HT
炼
▁Powers
▁table
平方米
▁Language
tick
噪声
▁spect
仍
IFT
wright
alty
的工具
▁Relief
向北
inery
ographical
麻木
▁Historical
▁Македония
▁crypt
▁Baptist
宽度
比率
nRead
▁buses
rainian
▁newsp
printStackTrace
commut
阻击
遗嘱
▁live
▁Alber
▁uncertainties
信用
▁Pond
▁stamps
top
▁consider
地质
▁MOS
落幕
往往
AA
▁doubts
壮大
再说
▁AD
イ
▁qualification
azz
▁saving
▁establishing
ilarly
eur
▁contin
FS
▁Jam
nare
毒品
nyou
海报
▁Denmark
▁illustr
▁Л
体力
conductor
▁applying
▁Ida
▁conced
▁nursery
▁F
弹性
传媒
▁Cleaning
nHistory
▁acet
orse
▁volcano
▁POST
入党
much
langle
success
ertility
other
相比
▁toler
▁kinematic
addEventListener
为实现
是人类
跋
▁troph
<|im_start|>
▁artist
印证
▁hike
说到
号召
Mjc
▁reconcile
▁drastically
▁TN
▁IPO
▁fiance
▁subscriber
芹
▁MEM
隐藏
能的
omorphisms
需要
制约
遇到的
arrison
▁Bolton
Put
Shot
notations
'
IN
整改
herent
nt
失落
▁applies
▁subsidy
usage
不可思议
erialize
毫
并未
我却
▁sluts
▁Stir
▁arrive
工程的
acies
▁Sav
▁Memory
<0xFD>
▁passionate
新鲜
游览
允许
nChange
▁Anna
▁revert
superscript
▁forcing
認識
Running
吸取
▁Prop
ynamic
▁accessories
▁pere
的主人
▁highest
卷
５
www
tvar
▁Fri
▁pinned
▁password
围观
全覆盖
▁rush
宝
▁culturally
成绩
▁Sketch
▁treatment
PT
▁Kenneth
ен
▁hospitals
comings
▁Issues
ushi
ussian
ITT
的战略
quire
現代
与他人
休
擔
橡胶
▁Somehow
stage
力
suite
▁\\)
铸造
县人民法院
▁enough
▁avatar
ried
Call
宝贵的
▁Luna
iency
huang
composition
爆料
icker
ел
立的
聯盟
“‘
探
陪
▁President
▁Kaw
response
▁Province
▁trailing
▁forums
Clip
▁pushes
承办
noff
▁);\
改变
▁recommendations
oger
认
<issue_closed>
▁smiled
<|unused041|>
▁Charter
▁stereotype
▁wood
▁downstream
Av
三四
超过了
▁acts
▁orbits
还不错
往年
hill
istors
▁Clin
olas
su
▁Affairs
北京的
aith
):=
腹痛
inth
陪审员
":"#
guide
istics
郑爽
省长
bows
boxes
▁curriculum
▁drinks
▁webcam
受众
络
▁Sense
clerosis
不住了
Being
相近
▁Dev
▁tremendous
▁IND
strate
anson
▁adversarial
▁|\
絲
chn
▁bitch
▁pretending
onded
就如同
酒吧
▁dri
▁disclaimer
层
郸
QUI
▁이
ibe
parser
腻
哉
釋
组委会
飞行员
▁competitiveness
高峰
library
hook
摄
乐队
恼
▁=
▁bulky
▁borrow
▁Flying
view
很高的
Deb
豚
▁signature
很有
上市公司
剖析
▁Add
璀
▁Louise
长效
纪检监察
rains
杂草
技術
教职工
▁analysed
▁thankful
身上的
<jupyter_output>
▁Bench
迅猛
▁mus
阶梯
▁logarithmic
带的
透
▁ou
预警
事物
gging
▁firmly
▁filler
硫酸
thora
▁biology
储备
交响
▁throughout
mt
los
全班
工程款
▁Method
白宫
醫
▁traverse
football
ability
▁differs
▁lengthy
炒
提名
打架
imb
▁suppliers
Photo
行情
钓
да
▁disrupt
nModern
▁gaps
uit
nRecent
藩
▁Micro
”-
赌
▁Den
dm
Address
semin
▁teens
▁taxed
▁especially
一脸
▁us
nThese
amin
osity
nit
arak
▁irrigation
感謝
拉开了
家
▁Information
▁charges
▁socialism
和王
nhand
iciaries
lvert
▁tournament
程度上
▁Magic
▁Coach
▁episode
Github
▁cer
▁viagra
uthor
问题和
定位
▁CTR
PP
灵
bc
▁Favorite
etup
num
球队
▁vet
▁Hurricane
erential
▁prod
花的
析
Sec
始于
休闲
reg
▁range
纳税
收回
▁designing
▁Nature
葡萄
ati
解析
Hs
integrated
amar
▁pokemon
▁commanding
还要
測
的事件
▁sche
避免了
几个
leep
Append
▁polarity
▁cut
Picker
▁afore
▁mirror
▁oversight
进行了审理
nPersonally
relative
瑕疵
▁Simpson
▁module
也不知道
overflow
asive
顶
堪
▁-\
<|unused090|>
航天
▁Tier
▁SW
▁broke
nmult
math
▁employees
向好
四面
nFamily
▁genocide
起源
▁discount
Sem
▁prisoner
挑战
可达
▁Vas
刑
Save
孙子
▁receptor
aligned
日记
▁Mercy
总量
▁innate
▁Honey
▁trib
<0xC2>
▁WHEN
DEs
▁Mayor
本实用新型的
结晶
客户
▁bond
牧
▁mach
--
好久
动静
▁“
降息
registry
与原告
}}+\\
同學
nInstall
▁considerations
avez
asy
语言
建设和
圈子
agne
▁headset
ierre
美
婴儿
上加
MENTS
付清
▁qual
▁specification
？
▁dominated
jobs
▁novelty
▁attend
无论是
的主要原因
疫情防控
ankind
▁Tong
nPublished
棠
John
辣椒
[]{
躯
内容的
……………………
违规
USE
▁Slot
ustry
▁reasonable
▁textbook
▁Zen
已经在
▁akin
望着
村干部
}>\
▁Allison
▁pulled
▁Penny
汀
老兵
autiful
娥
nX
▁headquartered
概括
基础上
▁tally
▁gangs
NDQ
筋
▁McD
焙
▁frag
贷款
▁bast
▁tonnes
介绍
aft
▁г
垢
▁username
半年
▁Democrat
褐色
oleon
enterprise
幽默
cession
▁breed
之战
▁Sage
俱
特有的
ts
▁stunning
▁NBA
▁garden
▁Lost
行驶至
▁communicated
右
蓬
这种方式
▁TED
}):\
们
▁promotional
焦虑
▁underm
留在
nol
▁investigation
煤矿
nVol
▁abbrevi
жда
nDeb
给他们
bfs
ncase
▁\"(
energies
▁rebuilt
":"[
▁Merc
*{\\
▁Rosen
▁Me
▁discovered
rylic
▁决
拨款
motor
subscript
克尔
选用
清晰
▁kpc
vik
pecting
詩
老鼠
opl
ynchronous
血糖
▁chrom
▁^{\\
▁cancers
驿
砥砺
▁informal
移
撑
hart
▁reminiscent
几年的
\"\"\"\
▁Run
▁TIME
▁Die
▁increasing
▁Yet
aid
▁published
▁Imper
▁Whis
▁addition
自制
logger
▁coefficient
▁offences
发了
colone
通過
у
nDan
成績
其特征在于
▁Ethics
nbetween
shared
nSk
▁HR
想念
▁Rele
▁container
render
▁sav
▁Davies
ajo
薄
▁suitable
▁teammates
逐渐
▁Morocc
输
atoes
▁assume
WISE
則
帮我
人说
▁Prior
布拉
短暂的
短视频
回了
铁路
inating
▁blast
每个人都
一律
nCRE
naccording
▁velocity
▁gravity
nRock
街
identity
IFY
▁predictable
髓
▁pays
▁colle
▁legitimate
asm
▁dispro
出动
是全国
一滴
概
▁slack
的变化
▁leaning
麻痹
体育
ourtesy
世俗
▁advantageous
▁investment
▁approached
出版的
▁frequency
▁Norton
▁Nak
мор
]<
Tax
▁lifespan
▁atoms
shot
▁Lie
▁Sebastian
四大
nPress
Rules
enge
▁tribute
栋
▁reconsider
nPhone
▁trafficking
▁funding
焚
▁suppor
'}\
溃疡
ifter
ovah
▁debut
▁component
▁crops
squ
▁prevented
▁interpreting
竣工
也可能
追捧
找工作
rele
REAK
▁worm
▁quantities
▁painted
▁aster
OC
blem
parametric
绝缘
▁nominations
Day
avern
多年
▁participate
淋漓尽致
前瞻
▁shipment
▁massive
▁corro
▁adapted
▁Need
nWho
上也
勝
▁interval
heads
助力
eous
▁rifle
▁получава
hw
upstream
▁corollary
ITED
举行
▁partnerships
tec
表白
▁Fuj
▁donor
▁fi
▁digitally
▁circle
诫
▁required
▁advis
▁angel
▁backend
ize
geq
iza
▁emb
nWednesday
座谈
▁irritation
▁kisses
▁immersion
刚刚
素
▁homemade
画的
电子商务
▁Opening
iver
天秤座
▁Plaza
什么东西
▁meets
▁}{
▁SOFTWARE
很好
es
don
posium
▁pyramid
就有了
成本的
▁Bayes
pit
▁conceived
semi
▁realm
发布
▁Ott
单词
uru
▁exists
▁Rs
▁ав
进取
itially
▁lives
▁все
<|unused055|>
^^
流通
▁diagn
tlet
▁rock
periodic
切除
汇集
交往
userId
水泥
tB
FW
▁successor
的父亲
salm
▁Hir
akery
三维
optic
得不到
▁advert
不敢
<0x30>
筑牢
柔软
▁Capitol
▁research
▁dramatically
▁decode
▁Ka
▁Immigration
ibility
事儿
▁ant
▁combat
▁Kim
▁Deputy
▁spring
<unk>
▁vitamins
anging
清洁
LB
uracy
▁Coffee
▁Others
поред
在哪里
▁reliable
廠
嘉宾
▁EL
给我的
ders
献血
舉行
▁gadgets
▁ignorant
▁wow
从前
▁she
endy
▁catastrophe
tName
ocks
花草
宠
温柔
▁Re
复旦
▁drop
▁disorder
步步
iolet
ник
▁cher
▁nonsense
杨某
克
student
nRe
▁excluding
▁FAR
年度
▁profession
olls
li
caster
npred
直言
排查
ocy
▁Republicans
Reddit
碍
同时
cipe
Ask
纸质
▁suff
製
扼
▁exemplary
着我们
壮族
▁survival
▁viruses
▁Marsh
综艺
这个人
▁segmentation
至於
掩饰
▁User
▁dangerous
▁utilities
comment
▁Raymond
WW
褪
▁Equity
老子
views
▁Amb
未婚
▁Ul
astics
nthus
▁paired
乱的
issa
▁tablespoon
▁seen
classification
▁Crown
▁enhancements
III
ILITY
红楼
nflu
 –
清洗
圆满完成
▁Zamb
篷
▁arguing
ikers
ANS
▁hops
饭
的气氛
第二
▁hours
共同
宣告
组成的
神奇
ERR
亚太
测评
前端
<|reserved003|>
++++
pires
nM
Matrix
教你
也是
lu
▁hoping
nChristian
▁neglig
合议
单
的一项
▁avoid
▁Unc
关于
▁PPC
▁illumin
lip
▁rpm
的情感
儒家
订单
▁desperate
一组
▁три
▁earthquakes
Bas
extension
探测器
▁comparisons
▁son
▁compatible
订立
▁Fitzgerald
抽
▁Costa
▁Draft
%%%%%%%%
树叶
阴
曾经
▁ML
oman
▁twist
chnology
姑
▁Murphy
ial
cco
▁airports
|}\
▁Cotton
▁ancestors
▁eyes
▁consolidated
遮挡
名
高考
eds
▁Reason
建设工程
庐
mor
▁ratios
▁institution
课外
NO
▁Berkeley
菩提
要提高
使
▁innovation
柯
体会到
ристо
Ut
阳县
▁$$\
short
▁сто
▁core
主持会议
ajor
▁coupon
mw
被
裁判文书
▁wonderful
ък
团委
家长
喝
한
滤
plugins
开展的
网上
iston
法律
▁courtroom
orld
<li/>
▁swim
aving
▁decorative
洋洋
▁inaugural
优雅
▁societies
▁services
▁}\\
因子
▁Brock
▁experiencing
▁vis
罢了
違
公司和
ellen
▁cinema
Under
hu
假期
▁кра
网页
xspace
偏偏
毛主席
反而是
在校
價
春风
分享了
落实到
▁obj
聚焦
▁traffic
UU
泊
▁ARE
nInstead
竿
賢
▁mismatch
▁assault
▁pursu
▁turbine
▁culture
nMore
良性
▁ме
▁renown
评判
的人才
▁dum
blood
likes
被关闭
▁sensational
▁ann
清净
Frame
*}\
kl
▁Eastern
拉
▁ultra
站着
都不敢
▁obser
▁JSON
侵害
励志
ighest
nonumber
弟子
avery
▁cheap
vertible
nLittle
total
▁dynamical
▁optimized
▁electroweak
▁Casey
影片
▁exploited
探索
ulo
▁South
升高
▁SOL
commerce
捍
voice
▁trajectory
iture
ographers
日至
護
nBrand
▁pole
Turn
矿石
▁reader
浪
臺
质量的
▁funded
▁Dem
处分
偶然
相关信息
普洱
elligent
▁via
closure
▁explain
Once
▁dressed
eros
微型
▁Vel
▁О
会觉得
▁recreate
家风
的处理
View
▁Brazilian
▁banking
▁chambers
ndeterm
▁pam
xff
收款
弟弟
▁becomes
乐于
批判
▁Contents
WL
刺
\":{\"
▁fastest
签订
▁де
▁dent
▁lucky
Chart
BOX
脸上的
疏通
聊天
▁Click
转移到
ристи
▁env
话
import
美术
▁Tournament
▁sa
*\"
茫茫
▁disturbance
▁Prec
▁Not
肠道
马
ер
▁lets
饮水
陋
itates
闫
flip
positories
****
▁Goods
▁Stuff
BA
▁век
:**
$/
Margin
到处
及以上
▁compensated
▁penn
以太
双
Pair
Based
民族团结
devices
辖区内
▁descendants
背影
教育基地
听着
揪
▁hrs
手指
▁Que
▁boo
otypes
MER
reply
▁Development
核桃
时期
比如说
耳朵
ropractic
▁foot
▁fuse
▁holy
专业的
claration
三角
是一个
▁finishing
历
▁pap
▁'_
adam
vance
往来
致
▁Bedroom
▁derived
的平台
了一定的
RX
▁protagon
▁expected
▁appreciation
▁'#
敬业
▁plenty
▁OWN
多余
vered
phia
▁Maj
▁ok
ixture
赔付
Bounds
▁derive
证
respect
ola
▁proble
▁celebrations
Views
手機
阶级
▁Formula
▁jihad
秉持
▁mentors
Descriptor
▁Controller
代码
itsu
派出
AVE
▁Parse
▁handlers
敲
诚信
▁inelastic
ircraft
舆
▁PART
▁(\
▁HC
▁descend
ucket
本息
пе
▁Door
三轮
計畫
▁formulae
不明白
大陸
flat
变压器
三大
▁drew
▁Control
leave
nwidth
▁Ricci
輛
<|unused037|>
Driver
最大的
illon
司
ators
水的
常委会
▁naming
ophers
▁Mayo
▁distinctly
▁Sharks
▁lend
connected
影响的
▁THEY
的都是
ate
勺
虑
积极响应
两轮
▁solely
健康管理
found
▁manners
▁Kn
粗
▁predators
riving
▁neurological
升本
▁sampler
gay
▁auxiliary
医疗费用
乘车
▁rehe
構
xe
▁received
保障
调整
avelength
ify
▁incorporating
▁fighting
hao
▁salty
▁elephant
▁motif
▁Mills
▁Philipp
ICENSE
论坛
▁combining
▁Winston
mathsf
▁manga
▁findings
▁GMT
▁bureaucracy
优
€™
ENER
▁homotopy
师父
股票
▁\\\\\
▁demanded
▁descended
nsw
ratic
新闻网
書
江苏省
cer
ceans
坎
冊
慑
监督管理局
▁prices
<|unused015|>
设有
▁Hob
anking
西红柿
edges
ITLE
不符
状态下
▁inspected
cox
▁climbed
懿
战队
Ро
可谓是
▁cemetery
rv
coordinate
▁legislature
erence
▁Validation
▁dislike
其后
ortion
IBLE
▁watching
在大
Public
Scroll
nEvery
就没有
geon
启蒙
▁porch
nofollow
▁ff
▁carefully
訴
▁belly
拥抱
就是我们
变异
▁formulated
社会主义
▁selecting
出众
痘
▁turbulent
▁televised
愤
更多的是
▁Electronic
比较高
▁Collection
艰难
▁weighted
一个问题
薇
付
▁Materials
▁lessons
▁specifies
▁Repeat
▁Nicole
构建
▁ER
aced
新技术
▁marry
▁Ri
▁spectators
warf
疾病的
之道
entia
逆行
▁Being
portfolio
Bu
▁Platform
过程中
类的
Building
▁fictional
ults
DoxyCodeLine
nSeriously
每一个人
▁Recognition
▁mult
циал
踪
若干问题的解释
HW
烁
▁broadcast
▁surprises
d
▁except
ku
▁Netanyahu
跨界
▁embedding
纷纷
▁consultants
一丝
▁tutoring
▁Year
ffffff
烈士
▁counters
▁Johann
侦查
idering
▁CAM
fade
微生物
▁Finnish
illes
队员们
▁Hartford
还记得
恩
稳定
▁ultimate
▁nations
▁Missing
▁completes
overview
库
▁heck
ToString
();\
更深
热点
▁Oper
)*(-
▁conspiracy
▁constructive
▁spending
Pro
周年
ogy
▁biblical
erent
▁depending
▁(<
obiles
▁AA
requests
只是一个
▁kidnapping
ament
▁chemical
▁chapters
锌
▁illustrated
并举
森林
▁identify
undle
▁Thank
▁senior
▁Rick
▁thresholds
部落
▁searching
▁inclined
********
诠释
▁caught
ров
▁serves
而过
▁FP
▁beer
▁declares
向
▁complet
▁fiscal
▁originally
hidden
<|unused123|>
▁vacant
▁measuring
▁faint
工作报告
▁Kris
▁insert
海域
的模式
的发生
两
blind
▁encoder
▁feeds
place
▁acoustic
▁figur
孤立
她也
▁superposition
▁merge
▁Lion
尹
arp
▁illustrate
Vertical
▁tat
contract
▁mindful
鲜活
{-
领先
▁Close
将该
heap
▁correlate
▁gene
ruption
叭
也叫
体制改革
▁horse
轴
Perm
▁MED
▁Trent
occupied
▁VALUES
▁Applications
姓
▁overtime
abb
發表
▁Casino
igma
jour
悍
%=
pus
計劃
ormal
难以
product
▁Jason
$^\\
汉字
power
一座
▁Absolutely
大都
垂
逢
寥
▁ambitions
fs
▁tail
▁dos
▁successfully
<|unused089|>
▁Prepare
天主
uclidean
▁Rah
▁lion
細
▁resist
江
芝
▁steep
▁interact
筛
▁accord
▁prospects
▁fail
▁dealing
▁Pred
osit
不像
<|unused024|>
alker
欠缺
izability
▁Hait
▁GE
neath
▁conceded
rotron
合计
ced
去做
鼠标
rol
imension
ху
checks
jy
enez
朗诵
遗憾的是
宣讲
nINT
USY
心肌
neven
p
自己去
▁chance
二〇一七年
海拔
自考
scr
Work
▁naughty
▁risky
▁program
ism
笑脸
袍
土豆
▁когато
ple
nat
energy
要素
}}^{
▁pian
新车
附
á
tj
onlinecite
▁Lego
▁nightly
▁codec
级的
▁stimulating
▁Mustang
已是
▁trash
▁Rugby
nlocal
▁theaters
皇后
▁unique
plies
OTHER
controls
男孩
小女孩
▁throws
组织部
哥伦
▁Ranger
串
ins
▁flash
▁De
)$}
转型
▁opaque
ples
counter
▁Delete
明星
▁riding
▁USA
▁ruled
外出
▁handle
赋能
];\
▁coin
▁ns
▁Monitoring
▁Vine
_+
▁violating
洁净
▁provides
局长
杀手
sm
<0xA1>
油的
▁Conditions
aways
xm
竞价
▁sedu
村里
▁athlete
的最大
缺
▁translation
dE
PRE
▁laps
碩
▁compact
We
reshold
▁Century
cribed
My
qa
意味
▁disagreed
uffed
垃圾
ounce
▁（
终
▁thrilled
▁freight
umerical
利的
▁П
▁As
opts
▁acceleration
Occ
返校
▁owed
▁cargo
中新
▁rebo
cnt
▁consult
▁HashMap
关联
▁SSH
▁beach
宝贝
▁Buff
都不
从中
observ
abin
rip
▁final
转账
▁Went
合同的
▁lensing
▁imprisoned
ndis
结合起来
▁increment
网球
缴
贯通
绿豆
para
ially
在一个
Lead
MDk
打
▁tree
▁candidate
▁duo
xp
更好的
▁Chinese
HPV
uality
革命
反倒
▁fashionable
▁militant
▁Want
▁unlaw
_{*
白云
战斗机
▁Danish
aja
prem
elle
hton
gamma
aver
Must
Ar
variable
go
▁Caucas
浙
到的
▁Review
submit
▁bookmark
▁reinstall
该如何
▁twenty
universal
深化
▁($
<h1>
<0xF3>
Follow
▁Virtual
▁Cuban
▁GREAT
Illuminate
相同的
Cy
锐
cle
宽容
一带
來看
所以说
▁Ill
一两
▁Tre
▁cheek
按摩
▁publishes
▁thank
▁\\\\[
▁compressor
本是
脖子
CPI
▁legislation
同性
粉末
依赖于
▁frost
▁shallow
女排
NS
不了的
zing
委托代理人
是完全
mitter
新城
芝加哥
▁rese
▁hats
文化
水管
洋溢
足以
▁dispatched
Area
days
▁swallow
▁Motor
▁Prof
▁Darkness
ə
导游
Full
参与到
BO
esian
以来的
▁tile
▁keen
嘛
rypto
態
念头
vari
鹤
тни
▁Gy
▁spoil
童年
出一个
earing
▁overse
加强了
$)
相亲
▁annou
相连
▁caval
Tell
▁minim
▁surveyed
▁imposes
这一次
千
▁antifer
▁inefficient
皱
开启了
管委会
utils
牛市
▁deposits
<0x9C>
%\\
▁bedtime
riv
▁pun
mmas
nces
▁harmon
▁standout
▁invaded
Trump
ignore
racuse
五彩
▁Ensure
▁Costs
道理
dbc
oura
班主任
对标
投身
▁lent
▁су
ortex
WB
這裡
▁occasion
bag
▁America
▁Doctor
喜欢的
▁Morris
順
▁Cornell
rivial
▁Vac
君
▁soci
nBe
对抗
▁emergencies
cgi
aff
▁tort
律师事务所
▁Пе
▁cached
▁influences
nth
Bon
▁Sent
▁остро
▁Reserv
▁happened
尽情
▁staple
的政治
El
Pix
▁Strike
走了
▁MIL
准备工作
清明
甲状
▁stops
agues
花钱
▁country
表格
▁tent
住在
▁weap
▁Dru
兰
nSimplify
在海
hsize
這個
Energy
▁grease
进水
▁routing
沾
▁lymph
▁Added
ornings
enta
武器
sac
▁credible
\
isco
▁mandate
在网上
Own
'\
捞
按月
▁Whenever
substring
拉动
irectional
血流
▁creators
定点
For
A
减少
▁connections
дри
▁pivotal
以求
schema
▁embodiment
wedge
▁affirmative
这个小
榆
减小
Expr
▁bin
▁magnitudes
▁Corn
曹
反击
党政
版本
▁tweeted
ърт
推向
这种方法
▁DX
▁brake
▁respective
{|
ERSON
orean
pound
色泽
ViewById
充分
ifies
▁fauc
▁vaccine
select
▁Now
King
前辈
▁capacitor
民
妹
INA
sided
▁ethic
ibernate
Dash
▁deep
▁Amanda
掉的
白衣
helper
COVID
▁specimen
▁plots
▁Swedish
天下
nint
主角
层的
在上
华盛顿
坐着
achelor
▁Rust
kp
▁ori
那种
▁transmissions
纪
▁bathroom
筷
Cho
▁deemed
▁Cathedral
琅
cor
▁Anton
▁Bloom
的空间
内分泌
年份
▁Himal
▁retrieval
micro
与他
▁Atom
恐怖
ucing
ри
radiation
兼容
▁fits
的文章
▁«
和国际
GA
▁reminders
includegraphics
▁Website
iliation
保驾护航
负面影响
Fix
▁fain
nsum
这篇
▁Bott
nhowever
希望能
有这样的
▁Sherlock
Errorf
▁Той
protobuf
Year
皮的
▁maintains
冠状病毒
alys
▁did
></
▁neuron
▁Democracy
儒
▁Creek
年头
terday
小
学长
Pac
展现出
nbackground
▁protection
管的
渡
nSection
earning
鸡蛋
假日
▁protons
verify
▁noted
▁AGN
▁supermarket
▁ubiquitous
▁Skills
战士
▁loss
▁stretched
▁straps
▁fist
比较大
▁Counsel
維
oth
高校
▁dem
深入
Fill
€
ONT
延期
▁convolution
ishing
▁SAF
▁lettuce
▁Ratio
▁proposed
rst
恢复
Mill
铃
▁Cube
众多
不断地
Paul
冠
ن
▁shipped
ö
是用
▁politicians
眼的
\"></
arge
打球
nmay
▁Poly
bigl
鹅
少儿
疵
无形
▁sequel
▁__
|}{\\
年被
▁bit
章节
▁Glory
nup
▁depart
动车
早餐
释
砖
eslint
elp
评委
▁две
博弈
海底
<0xB2>
JavaScript
▁sections
▁deprecated
▁unchanged
微博
ike
▁asc
经历的
)=
hew
▁WORK
▁NT
gray
attered
▁sports
克服
口
▁detailing
porters
ups
▁impe
从来
▁knot
irable
legend
▁&-
XR
▁Actual
▁Students
▁doesn
对她
bars
▁Fac
▁equivalence
plus
Circ
▁import
社会保障
河
omet
▁Lebanon
▁bells
SNR
▁NASCAR
acher
final
▁intimid
iced
▁dozens
▁Alexand
进的
▁errone
▁Takes
▁finalists
▁Http
▁ferv
▁Waste
▁\\}
[$
▁Parts
萝卜
round
發生
athy
{"__
BUG
ritional
Client
▁-\\
比的
▁spite
油脂
▁secretary
舟
胆
▁voices
的重
▁crossover
▁execut
extract
▁MOT
▁ре
▁discretization
enges
Parameter
想来
▁grass
▁phonon
▁Valve
ход
Ignore
▁made
和其他
▁pne
▁gaining
crafted
脑袋
▁prol
▁Mah
api
施工现场
▁Sur
▁Aware
виси
比特币
odot
▁Stats
nLocal
▁commitment
▁DON
▁toughest
▁headphone
<tbody>
oured
▁critically
▁outside
因而
主要的
▁attacks
马克思主义
▁marriage
研究
▁boosted
一提
▁attention
ます
▁insurg
▁solve
▁sums
▁annex
吃苦
tikz
lect
▁stretching
бург
科学研究
▁posts
百家
▁trolling
IPS
复工复产
▁struct
」（
\\{
▁exceeded
使我
amily
WH
▁Stars
OVE
-%
剩下
ritis
契合
▁swollen
▁Ear
这本
▁Evans
B
▁His
▁Dav
在自己
量产
▁amph
在孩子
NQ
生殖
▁keyboard
▁Disk
响起
▁cough
性的
腑
ety
斯基
个性化
han
▁impatient
▁Mid
扳
▁по
社
invariant
▁dug
看电视
Attribute
加大
▁WHERE
OULD
▁Ru
symmetric
atively
京津
▁fatigue
消費者
construct
ensional
必将
清
▁realised
▁miscon
iam
和社会保障
等待
▁hot
▁Neut
uplicate
▁ca
驱动
给你
▁hypothesis
▁exceptional
▁Brussels
▁accompanying
roduction
▁Lastly
▁Pennsylvania
事项
Logger
衝
中国传统
用品
减速
黃
asted
bered
▁quant
医疗保险
日期
чина
▁refrain
询问
report
▁bounced
iterator
ove
▁bun
▁incidents
▁pick
▁bary
ellar
}\"\
▁particip
irmingham
重叠
raham
idea
Consumer
捐
添加
▁monotone
▁thermodynamics
们的
bourne
淘宝
亿的
ългария
苍
▁lung
号的
▁Hour
min
琦
▁jealous
KL
▁haven
加哥
ustain
▁tower
▁visas
▁silent
才
深刻
知识
nonymous
▁zinc
对新
itions
▁yellow
理論
<|unused155|>
将会
▁votes
▁styl
▁kw
从头
▁lectures
我看
oter
▁petition
▁REC
▁surviv
边缘
intensity
▁lightning
车型的
乐趣
isers
贤
▁seasonal
▁Vict
等项目
▁prevent
球星
▁Tigers
▁Serbia
\">{{
▁Rey
三国
▁Figure
计较
together
form
▁stance
钱的
事事
oz
▁Knowledge
一夜
▁Preferences
也成为
▁dominates
共用
找个
▁hacking
▁Concept
AAAAAAAA
▁FALSE
板和
突
经验的
陳
切换
▁scary
的光
鲜
казва
endment
▁hosting
州区
mat
给原告
▁studios
▁documentaries
▁MAC
▁Wings
registered
牌子
Model
▁hepat
ee
▁Grow
тру
▁hits
票
▁Hawk
bes
▁dividends
中型
▁intend
▁cylinder
▁café
狭
就在于
in
▁ratt
▁shr
争取
向前
▁Branch
lev
▁LC
ureth
lines
▁lbs
不应该
▁setups
Text
▁Artist
光线
▁\"\
▁manifestation
▁applause
▁Ч
kern
vised
宫颈
bod
▁Giving
性格
oir
▁genetic
之子
▁directs
▁denim
hex
▁limit
elihood
▁THE
midrule
推行
光源
▁)\\
▁coordinating
智商
▁WHY
degenerate
alities
▁ring
管道
岁的
▁Vent
复
叫做
不代表
有助于
书写
热烈
县委常委
▁comprehension
▁branded
▁comm
erville
鲁
bp
了一家
是我的
utely
▁Katherine
▁rocks
值为
SF
司法
v
nSat
▁Ske
ското
pril
▁UL
▁Poetry
▁withdrawn
欧美
▁Mol
notify
▁Ban
被困
二零
agus
NjY
溢
ilde
胖子
▁Camb
DNA
享受
▁convincing
▁appra
▁essays
▁physiological
美国政府
io
reviews
榄
▁Brook
乌克兰
oyal
▁dab
▁compiled
Demo
▁Heaven
▁Bake
bish
也能够
上级
▁chang
在内的
▁Sept
ruly
▁admiration
▁comparable
ernational
▁covariant
atum
两者
荷花
Thursday
hawks
vantages
dst
▁RN
▁forming
却
▁playlist
ninline
urg
嘎
▁cries
如果你的
▁routine
▁benchmarks
▁website
有力
ird
Learning
哨
▁feas
▁INST
aky
人事
nFour
one
▁STM
▁Ministry
▁exc
干细胞
人力资源
riger
▁Else
前所未
兢兢
▁knowledgeable
重心
从未
的压力
Promise
群岛
▁sprink
▁conformal
▁cruelty
来说
▁max
爱的
▁priorities
▁diapers
locks
ace
▁
About
枸
一位
会计
▁specialized
aine
骤
Part
雌
sdk
▁eigen
expl
STD
豆腐
念佛
cls
▁idiot
ell
▁glam
consumer
▁\"%
游泳
▁durable
条件下
摩擦
作为一名
戏曲
▁freely
▁beet
STRU
▁proficiency
畅销
见过
呗
行政
社区
rade
创始人
▁earrings
▁antit
毫不犹豫
抽查
戴着
▁waves
误解
▁Ste
▁companion
nEmail
很长
subseteq
▁bully
水上
▁Early
▁acrylic
Server
vor
▁skipping
付费
anned
▁appropriate
▁Making
工资
npoint

评论
allas
▁screwed
▁presents
▁village
德华
紐
intell
stock
的艺术
の
Eu
▁together
▁large
▁overt
▁closing
▁high
▁assistant
更多的
尽心
周岁
ourses
asing
▁или
要求的
▁gamble
appear
夫妻
意识到
虾
▁apolog
开展
Interface
▁masc
迈
cury
▁разли
like
▁Might
______
▁decision
即是
nFebruary
▁landscape
▁whole
annotation
▁crust
umping
▁planetary
毅然
▁Swed
在很多
炙
▁while
,
nOk
▁fucked
oy
▁LE
基础设施
两大
▁Ц
工作中
旗舰
切尔西
演绎
adata
^\\
▁Judy
icon
▁agreements
▁Debt
▁completely
nCom
▁bucket
▁Series
▁suc
rab
ry
▁uint
▁torrent
▁NW
images
▁remot
▁Flat
▁wanna
▁exceeds
tical
▁conductor
自称
▁Marketplace
有几
▁Har
自己的
▁holid
▁Labs
导致了
▁behaviors
强险
带上
有色
▁Listen
▁unbelie
▁constitute
ission
改变了
长沙市
West
▁declared
▁oppos
[]\
施
拥
<0x7B>
▁majors
▁stepped
▁Divine
<|unused044|>
这个
▁ille
致力
▁coats
信心
▁surreal
email
▁declare
▁Cable
▁prom
lement
▁generalize
不复
枣
资源
coin
performing
喇
ArrayList
"}
排队
istical
▁pancakes
坐落
▁current
的就是
爱
▁Reg
▁Pent
▁Johannes
电子
▁minimum
▁operates
▁Anth
UF
itorium
查阅
最主要
的眼睛
教程
imates
Keep
▁excitation
的成功
私募
▁quadr
▁shorten
▁mb
Block
做一些
也不会
鸟
ECH
上车
▁painfully
▁li
▁owing
rer
▁Hospital
抚慰金
▁smokers
played
在我
低点
▁unrelated
Jan
所在的
selector
善意
Buffer
ged
气息
▁camera
潜能
跌破
Standard
▁cousin
sociation
nPrivate
上年
Bst
▁av
▁Another
▁Past
_)
终结
演员
樱桃
泽
▁hast
体现在
▁Scripture
了呢
中性
rystall
metrics
低迷
^@
▁festivities
▁installing
arette
校
采访
▁Bed
跳
<$
urs
▁repulsive
叉
ул
JO
肿瘤
发生
授予
呈现出
鼓
美化
▁premiums
▁Wine
▁heroine
▁scent
履职
▁underestimate
▁disappearing
id
▁seemingly
nse
户外
▁daddy
不足
tprint
▁flagged
▁butterflies
})]
财产保险
科技大学
示
▁depletion
Health
▁invariably
▁Combine
вър
▁plurality
▁skepticism
棋
rl
▁End
million
ver
▁hiding
▁shooter
▁mother
▁Wrest
皇上
nhttps
性疾病
▁center
青春
垃圾桶
不是说
▁again
可靠性
▁pizz
▁forecasting
ATS
▁res
亮度
▁nem
<0xD7>
奸
▁transfers
▁breeze
nJoined
▁embrace
▁sort
vas
岗位
▁limiting
延迟
听
▁reinforce
▁rest
▁recurring
小三
▁Advisor
▁colorful
努力学习
▁accounting
▁draw
都是有
jiang
均线
事故发生
▁defeat
urbs
▁Consumer
▁pirate
属性
▁performing
▁epoch
▁disappro
hfill
▁oriented
▁prohibit
鞋
收盘
暑假
高管
▁everywhere
云南
▁Ke
utt
▁Par
困扰
近距离
▁edible
▁Power
Setting
訂
▁}
)”
价格
批准
Each
▁Meg
楼道
胚
▁reass
▁Views
如不服
▁Lucy
▁lesbian
▁Zelda
▁enjoyment
適
▁commuting
▁meanings
承担
'(\\
寞
二人
▁signs
▁chick
ymmetries
你觉得
ivate
enz
到医院
nusing
▁discrepancies
▁bring
合同约定
切片
▁walks
gorithm
▁listening
ald
发电
▁quantum
Never
▁LAN
▁Pitts
▁pair
▁MTV
这其中
X
差不多
的話
▁replace
蘑菇
>\
ctx
▁lining
不符合
▁cooperative
Dep
ogenic
雷霆
lar
osy
nMax
▁Galaxy
兔子
▁pict
受过
▁top
▁Knight
IE
立体
▁Articles
没法
▁Maine
▁Scre
▁racist
henever
▁Topics
rom
▁temperatures
PARAM
▁pitcher
专门
达成
好的
至少一个
该项
mul
contents
乃
▁coc
▁Fur
▁agricultural
▁在
▁Arrow
▁Azer
佐
<|unused001|>
▁Joseph
▁Carey
发脾气
nJul
NH
本场比赛
▁Monte
нието
整合
政府的
▁deserves
▁translated
planned
<0x39>
酒驾
▁creator
▁Give
▁Serge
▁Song
室的
广播
ée
▁evaluating
▁Paint
ittens
▁ocean
Tube
▁Duke
Age
▁Precision
▁Phase
▁Mets
eting
offs
▁horr
解码
▁doors
▁stupidity
非洲
光盘
▁Funding
面试
▁to
勉强
▁distillation
▁marvelous
})+\\
▁survivor
driven
nTur
ange
安全隐患
▁Claire
▁sponsorship
的大型
▁prophet
一个男人
▁Made
nModel
▁keeper
麻烦
Point
魔术
▁Si
rel
妹子
▁pharmacy
▁Poll
过着
nMeanwhile
旁边
▁numer
▁excell
每天的
▁But
▁alone
▁vowed
划分
非法
ncol
企业在
▁Gordon
发展趋势
阿里巴巴
▁web
razy
人大
的部分
)}}{
▁contributing
▁equipment
真的
遵
軍
替
onia
只能说
▁automation
两地
▁thinner
▁While
itzerland
cra
[\\
连忙
square
简直是
▁demons
agents
本草
病的
算
哺乳
oxide
стъ
▁contemporary
察
蚕
▁eventually
分配
忍受
▁Local
▁blob
紧紧
回到
▁PDF
留下
SSL
▁Gree
▁plight
▁publication
▁practition
绿化
():\
▁ICO
nRom
▁Mountains
optical
阔
physics
冬奥
雕刻
▁admire
nRecommended
▁possibility
重疾
▁Ot
的氛围
▁Rare
各国
大象
▁hailed
葛
requent
fact
法定代表人
加班
orge
▁beneficiaries
人员在
▁commanded
蛋糕
▁Steps
ilated
▁neutron
ceptions
▁researc
engine
▁sum
iel
▁branding
▁(%
制备
超标
Discussion
▁във
▁hazard
▁private
▁influence
帳
阿根
ector
icing
▁contempt
Depth
超
初心
backs
mail
饮食
▁urged
保罗
errors
固体
医学院
的味道
▁melodies
portion
撩
变形
音乐
开关
▁IS
Flo
▁Morgan
伸出
魅力
时期的
▁perturbations
的安全
▁feeding
大国
▁chunk
Mut
▁Hond
▁persuaded
▁Maggie
mart
nBeing
▁OUR
再一次
社会的
flux
粉
试
ncor
风暴
▁unseen
states
仙
pat
achment
alax
▁Okay
▁coordinator
經過
山东
暇
凰
▁slope
▁lodge
▁exhausted
房租
▁Ghana
mov
▁Hil
主动
erg
▁puppet
市長
=\"<
弯曲
▁yet
▁ops
的父母
▁Tech
▁hierarchical
▁kidding
制定的
克拉
工作上
▁Said
pend
在现场
职
▁vamp
▁Viol
▁повече
地图
)|$
▁approximation
▁▁▁▁▁▁▁▁▁▁▁▁▁
▁une
▁soldier
Prop
害羞
马斯克
family
屑
nCON
▁cent
▁permission
リ
▁Hansen
时间的
▁replaces
nPrim
的五
rx
>=
▁Communities
▁leader
▁introductory
伊斯兰
中路
ptic
很多
如期
held
Cur
▁DOS
▁кул
▁Das
▁net
nCor
<0xD2>
pine
僻
adows
▁intel
▁descriptors
枚
孩子在
▁inverted
▁SG
Moreover
颓
Lite
▁balcon
叫我
稳健
赞赏功能
▁Pierce
ACTION
▁marc
LAB
▁ram
▁Cold
▁podium
▁challeng
gments
)]{
▁Defence
score
ando
细腻
聪
nMon
民航
hl
▁Golden
▁Resolution
▁Mormon
encoding
▁milestone
▁Murder
▁Municipal
做大
leans
执行人
璃
<0x15>
▁surrounding
▁racks
青山
药业
考验
attach
▁HIS
Testing
nNov
是什么意思
有一条
让它
的关键
▁„
▁demonstration
▁shots
药店
▁stumble
▁withdraw
云端
ctors
▁match
▁refuses
´
▁arrays
▁cybersecurity
▁Route
自动
Google
▁Squad
<0xA7>
▁Panel
二胎
Stub
gc
查看
的操作
共青团
▁Dating
eches
pple
Pref
▁modification
nSocial
rical
▁considered
基因
Wi
▁flourish
有關
和精神
▁Across
等多种
▁shields
xygen
▁starters
研究人员
新型冠状病毒
▁Hydro
▁Stern
搞
Vi
▁Global
▁af
▁scaling
assy
hat
whatever
▁fringe
aurant
:'
uran
appiness
жава
▁frustrating
overlay
Parameters
▁dielectric
▁purposes
Linux
演示
γ
▁everything
Pl
▁March
▁unfortunate
▁incarn
▁К
中国人民
集结
рин
▁Members
诺贝尔
罪名
浆
怜
▁substr
了一眼
urban
▁striker
▁smoking
iw
usepackage
▁buying
的金
▁Additional
▁temporal
▁thous
beit
計
▁Ram
▁waterfront
\":\"
▁shuffle
抓获
aby
reading
────
<h1/>
文学
新生
idad
▁doping
▁ха
诉至
▁SMT
▁bipartite
要认真
▁pest
adding
作业
nDes
▁lawyer
xw
是不能
▁slots
底线
enabled
▁NULL
▁metab
股
▁quoted
▁epid
论文
▁Sto
▁Large
▁Forbes
诊所
的钱
意见建议
ophone
nphot
▁everytime
eka
▁Reds
▁Domestic
文學
致辞
▁gladly
linear
locked
知识产权
▁beats
▁Veg
<0x86>
▁imagery
鲁迅
的事物
▁Arms
▁gross
▁none
adelphia
▁diagram
▁Ready
▁cooks
auge
▁Prosec
学生
▁Museum
ul
nAdvertisement
外汇
沃尔
▁captures
nforce
<h4/>
rounded
▁summer
Psi
pain
其为
props
▁Inspector
arious
▁rational
较大的
但还是
nbut
一趟
▁brief
adjust
好评
▁surround
洗礼
方法的
檢
▁Wire
▁seizures
错的
▁fmt
一九
社会治理
▁lapt
▁Aut
义工
▁Net
▁embry
▁Emb
基层
▁fellow
▁hes
瑞典
▁experiences
▁blocks
nAl
▁ancient
▁Parents
样子
▁topic
nUnfortunately
也比较
▁jurisdiction
mes
一些人
itect
及利息
▁Rh
}}^
锁
持續
▁Some
奠定了
职业技术学院
url
achusetts
perturbative
▁french
▁PER
▁supervision
<|unused059|>
之前
▁perman
红军
全國
taking
野心
以其
ony
share
▁Diet
▁bunch
导电
▁Podcast
norm
▁issu
▁CONDIT
▁Pic
alsa
班子
inqu
经济
author
мати
▁redundancy
оне
▁potato
>
▁downturn
nHaving
▁professors
▁assim
招聘
▁generative
第三届
▁comics
▁Walsh
向本院提起
▁Clinic
▁expenditures
▁paramount
通过了
▁atheists
▁faux
▁win
▁FITNESS
llama
隐隐
▁quiet
▁Optim
ници
▁burden
回报
日晚上
决策部署
▁merchand
▁Rog
▁src
锯
▁sexuality
作为一种
罗斯
▁armed
就直接
难怪
▁reactions
usted
▁delays
iotic
▁labelled
Children
每年的
nAlex
了一位
iti
统战
varphi
▁yoga
解決
peace
说明
▁Bruins
video
aste
勇士
▁spec
onal
▁trends
▁Mack
aire
粪便
Sim
rizona
东西
ofer
nMenu
▁aria
▁FB
▁descript
▁advertisers
▁treasures
选择的
chen
中去
朱元璋
▁Employees
▁Claud
▁rivalry
尽头
ically
◆
nCalculate
▁NZ
▁surv
▁molecule
以及对
停产
urgy
▁Subst
_{\\{
ARK
两家
科学家
自理
县城
Dest
余万元
Meta
你和
▁News
▁eighth
古
▁unconventional
買
▁Up
四海
▁copper
▁temporarily
▁Ronald
山镇
▁stealing
efined
Memory
▁COM
▁the
宇宙
▁divorce
fail
versarial
茄
▁subgroup
associated
子里
▁DL
疯狂
▁rep
对你的
的话题
auth
▁cardiac
才开始
▁iii
▁Develop
▁amplitude
nwhat
▁Programs
▁Behavior
Ell
百日
unter
路口
▁installation
鲜艳
▁MAY
合法权益
不移
调剂
é
eers
▁Const
目标的
限额
stru
▁our
bw
器的
人所
dense
备份
▁Promotion
layer
瑰
理解
温和
▁Gospel
mean
娱
名校
▁Dragons
▁accumulate
的对
塌
▁demol
antan
fessional
寄托
▁chew
抬头
▁Protest
▁skeptical
向你
▁became
icient
病情
}/
▁Jud
贵的
ortunate
▁isnt
▁orb
点半
▁traits
车厢
▁Tours
nTL
忧伤
▁indispensable
时报
<|unused054|>
法律责任
眉头
▁grilled
演技
▁Planck
▁clinic
▁sales
温室
▁disciples
▁consulting
▁canceled
庭审中
Key
▁Provide
发展
▁Cros
ERV
▁opportunity
▁Hawks
ible
▁join
nPerson
pers
▁scheme
▁crystal
▁Le
gic
的建筑
▁Exper
▁paragraph
▁tying
▁next
▁alle
淮
此处
份
▁FIFA
faces
研学
feedback
▁\"
▁Dob
rames
PART
▁inflammatory
核查
超市
▁advises
MDc
一天
▁killing
▁miniature
rather
rem
男人的
▁Brands
▁obtains
可以选择
幸福感
我把
受苹果公司
不高
▁scattering
大家一起
周二
网格
任命
▁truck
▁proto
个国家
ishly
▁XY
({\\
▁By
▁mim
的增长
Office
高低
cuda
寧
▁utilizing
▁omitted
▁Fin
▁Sign
diff
贪婪
▁researchers
▁Customer
▁fruits
最美
hour
▁Channel
▁optimization
的个人
ellery
告诉大家
IGN
▁juvenile
Customer
bled
win
的分
▁Poincar
appen
inki
<0x7A>
▁auth
comes
直观
OWS
▁kay
蛙
에
▁reload
▁Jenny
▁hol
uation
▁unf
较大
是一家
粤港澳
污
▁reconnect
▁acne
商业银行
orations
府
五花
相对应
羊肉
imag
之前的
Market
provided
措
的城市
原件
spl
R
▁report
NBC
none
▁homage
stairs
▁DOES
俄
喂养
fox
常年
▁intro
▁interest
交替
bsp
GM
西洋
生活费
妊
customer
舞台
吸收
▁emergency
istically
▁chairman
别的
▁simulation
▁Occ
▁liking
tvoid
▁venue
具有
乌鲁
im
▁manipulate
市民
playing
▁из
hoo
alpha
Expression
放进
▁Garage
▁automatically
VS
修复
~~~~~~~~
▁flexible
uning
coll
▁taxpayer
wr
▁filesystem
▁cd
cessions
owers
reating
▁Recent
avirus
办法
▁spinach
cha
丽的
Course
事故
的人生
▁sings
anti
CM
ory
<0xE3>
▁sign
fighting
办
领导
带你
▁Damage
▁Pentagon
HOME
发展战略
▁studying
Date
都能
Ben
RY
▁Armed
AVA
伽
▁upward
European
▁terminology
alez
▁goalie
tz
▁Faith
约合
parents
▁Alban
▁welcomed
▁neon
顾虑
▁operator
统筹
牵
▁specializing
’\
repreneur
注意
ever
microsoft
▁uncover
一出
▁Lights
imore
提供了
▁所述
应当依照
nParticip
▁Mira
oney
首届
转身
▁Blvd
▁accessible
MNRAS
▁gal
之外
▁reaff
▁catalyst
weak
▁attent
▁coconut
轮融资
下发
▁Snapchat
▁revolution
▁buyer
<0xDC>
nend
▁rocket
▁»\
其行为
Imp
▁recently
▁bol
▁Mix
佐证
nLength
你已经
▁Hutch
▁Mexico
eping
马克
▁interacting
獲得
▁incidence
▁observes
售
▁substantial
▁musicians
不管是
淡淡
分析
Def
▁belongs
ali
\\\"{
北方
OE
为单位
nAlong
vd
▁STAR
隱
痛
▁validation
nUse
迄今
mmet
▁Euro
▁exchange
▁chairs
▁integrals
▁funky
體
▁written
thur
▁honored
▁wrap
▁mini
Colum
Arch
服务于
不仅仅是
城墙
▁Shipping
否定
观望
讲的
也都
▁tee
Раз
stery
AUT
▁George
asting
▁Exit
线城市
▁ellipt
▁Highlights
Width
谎言
▁Rw
elon
umption
minutes
失去
ън
相思
rived
有你
的长
▁Unity
生抽
在国家
arian
▁sigh
答题
第十八
uned
usp
▁recognise
指南
erring
▁magically
На
nTuesday
nap
问题上
<0xEF>
▁Turkish
usually
各行各
▁couples
веро
\\\"
▁Russ
▁hypothes
▁termination
▁locked
▁chamber
▁psychiatric
▁Daniel
olerant
菲律宾
外科
会很
nPlus
<0x9F>
▁incred
▁character
isite
мер
缓刑
nIndia
▁shredded
▁dod
issy
types
nNews
IVER
▁signific
缪
纠结
▁exceeding
rera
误导
visible
▁nested
▁hikes
▁Munich
undai
借此
▁Disc
▁goat
图
\\
▁retrieved
失望
具体的
降至
▁Track
他们也
▁Java
ACC
指的是
cles
▁numerical
▁authorized
▁supern
▁pissed
pherd
▁elections
▁Broad
▁consecutive
▁sor
iant
凝
我感觉
Flags
napproach
▁Learning
▁javax
mac
的男人
▁Technical
回顾
nStay
▁Till
油田
法律援助
}}\\
▁nicely
▁carriage
说出
蒲
▁colonies
成就感
cence
nAf
gls
比较好的
多是
▁company
衣服
▁cert
▁sulfur
▁expressive
▁lawsuits
▁Town
▁Collective
▁az
uture
▁genre
▁divine
惩
▁Perl
▁Celtic
五六
stores
▁BlackBerry
▁transition
喇叭
▁reflection
Shift
▁toilets
▁within
CRIPTION
初恋
▁contag
▁baby
▁answering
▁Pharmaceutical
预期
动了
在里面
▁Visual
述
bones
cedure
▁ro
▁axi
uding
▁Rib
ceptor
completed
小于
agh
clips
indent
OD
▁disk
▁padded
五千
▁sl
中国人民银行
Fall
拎
教研
▁shooting
质的
▁observational
▁Powell
▁WITH
联手
▁Evangel
▁settlers
调配
nOn
成都
TIME
▁proficient
▁Premium
▁anchor
Setup
▁ROS
bolds
▁measurements
▁expression
urdue
▁Relationship
Side
▁downloading
▁classmates
poss
tai
ions
▁Wy
prov
伙食
大法
Trace
够
提交了
amples
反而
ORD
<0x94>
▁contemplate
oulder
耗
ду
步伐
▁five
▁boat
▁IPS
agon
__&
itiveness
ynn
独特的
了我
▁ones
▁stars
解决的
迷人
▁$_
ции
故宫
▁optim
nDi
仙女
ributing
▁robber
妊娠
▁Joan
nstart
电力
Accept
▁friends
晚上
▁hyd
▁unreasonable
狐
▁Fire
token
分离
}}\"
往事
▁Лу
ELY
重量
编写
▁Parliament
▁Driver
ApJ
妥协
掌握
▁recru
▁occur
dr
八
farm
AML
苹
中南
neys
▁Money
▁fabrication
過程
▁Jail
热量
同样是
FF
▁Soc
▁reprodu
▁navigate
▁adj
来源
▁grat
然后在
▁indic
Bra
drag
ipper
報導
▁overseas
▁кла
一来
/**
口水
DX
▁await
的人数
iltonian
南部
▁Watch
▁eff
工业
▁anger
▁manifold
nWH
▁classrooms
runs
而易
▁drawbacks
▁contenders
似乎
签名
却在
▁Hend
一本书
▁Popular
YM
▁telling
化为
og
▁Wh
iemann
amente
▁timestamp
元素
▁thicker
▁appeal
血脂
▁Published
sphere
▁underway
饿
hire
▁packets
formal
捏
批复
行政处罚
和时间
wagon
itudinal
几点
冲刺
自救
▁noticeable
Thu
修理
理所
zb
ogens
周围
運動
▁Brady
F
prot
▁小
rou
不需要
这里有
购
▁dismiss
主持人
像个
层面的
▁QR
itute
所有人都
贸
▁Words
Cross
▁credited
▁Concert
谈谈
同比增长
▁buf
▁зна
▁Fra
By
busters
創
厌
▁Total
派出所
+)
成龙
▁council
▁cata
奖金
实在是
▁cancelled
佛教
理事会
▁Clinical
<0x74>
akespeare
▁anarch
REL
▁YOU
▁Ron
▁must
Windows
ing
oubt
▁highways
▁flows
▁sins
翻炒
不同的是
unn
▁abandon
▁empire
▁Tue
rinsic
刑罚
▁concentrating
任
frames
▁Malays
水产
Fan
geons
▁Haiti
大风
▁decreases
乡村振兴
协定
▁slave
▁unsigned
▁yog
复古
rones
het
她在
的作品
▁initiated
一
碌
ERO
5
еди
尘
multiple
lane
▁force
止痛
Et
figure
新华
чни
没过
月中旬
▁truncated
困难的
▁Monday
Connect
▁progression
<0x6E>
▁Sup
温泉
▁elites
root
▁disposition
PES
▁outward
щ
hou
所述的
\\[
mont
nPro
iano
▁grac
▁retailers
▁protective
lr
▁Bass
nAbstract
裕
omo
nDoes
驾驶
▁Operator
▁univers
LED
ssh
▁stressful
改动
QUE
▁Cam
▁epile
▁sim
▁infinite
▁funeral
的原
▁Jin
▁Three
nthat
▁salsa
】
衷
栖
▁gradient
公共场所
▁Strength
<0x50>
陈
″
记得
直播
▁Serve
拉着
▁Saw
bye
院长
oit
▁unplug
开来
Hence
差的
麦
古人
做出了
▁Confeder
▁cupcakes
▁suit
那你
▁keyp
▁standardized
hee
Cong
搞得
▁Barber
▁Morning
▁computationally
三十
师傅
Social
nAsked
▁welcome
olt
▁playing
ften
<0x85>
▁Oak
DIR
文人
偿
▁slipp
▁Legacy
看了看
▁interplay
▁Georgetown
强者
交易的
过度
yrus
▁gardens
nExpand
▁sampled
风俗
日电
▁observation
▁rounded
安居
Scalar
▁lived
Directory
▁initialize
▁germ
timately
控制在
▁additionally
祝福
发生在
jam
uzzy
尔德
▁disbelief
AST
▁resize
▁raw
▁questioned
运会
CREATE
<|unused020|>
▁tow
usr
ques
怎么能
▁tur
plectic
▁reckless
等等
▁choices
这样一来
▁Cro
ugust
▁преди
高分
▁runtime
成熟的
▁amounts
创新的
logged
▁key
▁Раз
arrior
forcement
▁Rend
怎么可能
▁crit
▁led
▁datasets
解除
▁част
Parse
答复
落实情况
勢
▁murders
的风
梦中
▁rhythms
④
and
按下
ar
有大
▁SS
▁пар
God
nAd
在那
_(
again
helpers
葡萄糖
具
inas
owntown
建筑工程
大力发展
Sn
▁sun
▁Irving
▁SPE
评论区
news
▁maximum
▁cheapest
观赏
专业人士
▁Kumar
▁blankets
▁MD
NA
原审法院
外媒
illet
▁escaping
发芽
▁make
受到
Unknown
馒
不经
拔
oseph
▁dictated
lav
▁assum
的成长
▁No
▁deriving
成员国
▁между
实业
ateur
▁whe
▁advertis
成立于
antiago
<0x42>
inem
效应
possible
流转
ERC
▁dish
)&=
nNever
鑫
▁Suff
如实供述
的文化
打响
主要以
sal
▁cutoff
▁unexpl
提供了一种
scripts
抬起
kT
▁responded
▁environmentally
imuth
er
转动
▁wrapper
升温
▁recovery
▁involving
ntotal
▁Human
ublished
engu
▁identifies
him
apps
▁rises
类型
▁combine
Character
▁picnic
出炉
的业务
产后
▁simmer
▁dishes
万人次
窃
的家庭
▁conductivity
▁rocked
</h2>
▁echo
▁downside
▁Rubio
收
儿科
ringe
▁booting
网红
▁extinction
头顶
大妈
▁scarc
芒果
qr
凤
▁NCAA
报名
▁Hussein
麼
▁над
▁NGC
走高
咪
▁Avoid
▁Vari
烫
▁TL
▁paycheck
▁href
釉
一所
▁Teresa
希望大家
▁Post
▁pund
atal
事業
▁Exchange
az
agent
门外
istro
opened
▁Stones
▁Clinton
▁bills
ounced
OST
▁Ellen
▁vacancy
▁varchar
没办法
register
线条
▁decorating
<|unused126|>
▁visitor
C
▁spl
▁August
成立了
巨头
uously
▁visits
nLong
丞
kara
▁Implementation
華
▁territories
thead
pecially
工作者
▁paranormal
appe
^@^@
Employee
薪
azi
Region
Pers
See
▁rip
▁posture
永
ingly
▁clusters
内外
突破
啤
两千
搅拌
决定的
前列
=>
・
▁converter
▁content
▁surgeons
▁frequent
转让
▁infected
造假
提供一种
的需要
疆
初衷
▁rook
▁ins
otes
rase
尽力
DI
Mom
初次
成的
HH
act
nBest
▁flick
战友
tis
nspec
心头
峨
▁farms
▁Ideas
icks
▁Swiss
▁Needs
滚滚
▁metadata
退
++)\
在任何
继承
uparrow
▁settle
蚀
▁aluminum
bridge
▁scanned
过后
▁Britain
▁ana
Player
起步
▁Gr
资助
农民工
▁reiter
想
Sam
的不同
▁beaches
nCap
在对
ewidth
下车
▁Ring
熱
乙肝
▁prevail
▁begging
arri
▁congestion
▁deg
▁Clearly
▁Publishing
ét
研究发现
▁interven
细分
烧烤
____
BASE
▁toured
▁GI
▁Kod
背景
▁whopping
▁Expert
的还是
▁spirit
oscow
資
amen
金融市场
根本
▁greedy
▁commits
調整
▁quarters
▁squee
sein
commun
both
▁chorus
▁parameterized
▁Bali
支持公众号
Nothing
聊聊
▁Incorpor
产妇
导轨
arn
^-\\
▁Dark
▁nude
ivities
▁charged
▁ribbon
情报
▁mitigate
ednes
沒有
只要你
▁perfume
ussions
认定书
orange
▁conject
undefined
▁enem
学区
接连
▁Cause
此类
▁retrieve
▁Since
monton
tha
▁minimizes
grass
▁census
萎
▁harmonic
工伤保险
▁prosperity
activity
以色列
ADC
▁mysql
洗澡
▁trial
▁contrast
比亚
Е
reduc
)}_{
感恩
icket
cosity
赞叹
Acc
▁decou
م
▁liberals
的可能性
nIndeed
▁volunteers
价值观
lahoma
seek
▁laboratories
跟你
▁insisted
sty
▁Rooms
▁lin
打败
▁Wang
shop
▁chord
glob
▁referend
面膜
▁daytime
▁couch
▁advisory
Online
▁authoritative
分别
nPresident
▁overl
▁explosive
▁Hungary
▁cooperate
▁bed
isation
insic
监事
Room
▁penny
▁SHOULD
LL
如果是
學校
ray
nsure
不觉
▁lemon
音樂
維持
▁GPUs
▁fascination
阜
npre
查获
壞
▁radically
▁drought
lst
ndoes
▁seams
▁alum
混乱
患有
提速
▁London
/**\
多彩
笑话
庄园
ipy
glas
暴跌
}}_
izational
南宋
▁…"
▁unfold
ieu
而在
▁deeper
utf
▁regret
不好意思
|{\\
最喜欢
ith
航行
redd
●
凿
ni
fonts
nOne
Anch
迹
▁Drake
下部
enguins
▁Astronomy
▁somewhat
OA
erd
Seq
Process
▁poorly
▁conversation
▁faster
吸引了
▁precip
的支持
ph
▁boxing
▁smile
重的
Park
iked
▁insanity
税收
顶端
▁Sharon
не
▁latest
aneously
了一段
▁Academ
建档
魂
亲近
▁they
▁representing
得太
tie
残忍
嘴
期货
▁cosmic
enos
▁Receipt
gard
▁celeb
教师
riterion
▁office
党支部书记
▁Heck
受了
rne
▁actively
羞
▁remembered
▁hat
smooth
▁Vers
食物
▁fifteen
内向
▁Cab
icate
辨
▁fug
▁equations
<0xFE>
而行
▁Didn
▁League
▁MON
管理办法
▁punched
%)\
▁май
万物
一中
农户
列
▁game
的一部分
▁Criminal
▁Sox
美洲
▁worry
UG
called
riters
▁twists
▁matplotlib
▁populations
▁divers
elected
▁tough
▁(#
额外
魔
leigh
<0xA2>
▁$\\|
▁Sweet
入围
▁работи
▁malaria
nUl
事宜
Payment
征
华夏
CLUS
表彰
▁secure
tend
蹲
users
重新
承担赔偿责任
Flag
生了
pollo
▁sperm
▁Baker
conditioned
▁talents
驯
▁BD
▁bru
分会
▁exhibiting
oooo
EQ
▁Australians
操场
Nav
▁advertising
▁chose
和
nlet
▁pursued
低头
▁Tom
▁interchange
专班
；
倪
上调
<0x48>
ي
nMark
▁romantic
<|unused093|>
▁socially
流畅
▁repent
sex
以及
▁relocation
法人
▁sandwiches
pillar
▁Of
的对象
▁clinically
▁Bot
▁Partners
eline
oric
相互作用
validation
▁composing
▁agrees
增幅
}}}
中学生
申请书
▁blur
nPrice
▁automated
▁increasingly
的自己
(){
▁responds
сле
还是
赴
漱
▁души
▁journals
牵挂
▁exceptions
▁cran
▁Tol
nNice
Sun
criptions
nNOTE
)^
▁coloured
融入
▁devast
▁Sax
日内
vendor
▁Meh
高楼
琐事
油气
Hash
▁Cliff
缩
▁nowhere
<|unused145|>
cious
注定
的那种
ssl
厥
雙方
颠
calendar
准则
▁pornography
▁Again
停车
那些
▁journey
Ol
副总经理
▁plans
传达
光电
-(
▁timing
xb
nnop
nsee
办实事
ль
essential
)}(
oyer
▁Extreme
▁sermon
人与
SB
mot
並
▁Wow
buf
<0x95>
▁yesterday
迦
$;
▁lac
▁Recommend
▁variant
出来
▁REL
转弯
有两种
nMade
▁Called
双子
石
ilbert
元旦
嘟
▁correctness
▁Creed
的证据
后期
跟踪
的路
▁by
瞒
不过
/\\
▁giant
ulin
特别的
壹
▁verses
▁java
hin
▁leaking
▁Alabama
日本人
nwithin
其特征
食用油
▁Operations
fy
生源
cycl
Self
中兴
▁radi
▁translates
那
irling
▁Zion
nAssume
▁Hers
尔的
求是
▁escort
全
screen
eff
▁diving
saved
Altern
▁etern
friendly
MM
Break
蓮
';
RESS
ogical
管理者
▁attempting
insider
斯卡
暑期
▁optimistic
极
nThrough
ancial
要不
▁WordPress
贫困户
arker
▁Roof
很多事情
ritic
尤其是
千年
'{
▁buddies
党支部
未有
营销
▁carts
▁checkpoint
рите
亂
▁customize
▁tuned
conserv
▁Person
▁Memphis
茶的
上大学
怎么做
Tor
防护
▁Tiffany
用手
徊
LC
emphis
号楼
ers
mented
WS
assert
loom
路由
ues
▁mysteries
能量的
WARNING
oles
博览会
▁risen
information
PE
ATTR
倘若
体系建设
江县
▁Eff
pro
氨酸
<0xB6>
则
台
▁Planet
称为
▁undertaken
▁analysis
复议
和华
▁mentor
oot
▁Volunteer
Colors
audi
▁arrives
大小
nYear
他们会
vi
▁pound
我与
整整
<0x19>
▁accelerate
日线
о
▁Period
网站上
Pack
▁Cambridge
雄
▁fish
^+\\
▁Hungarian
ř
▁outdoors
Donnell
▁entries
进气
>-
nits
▁iv
▁Intent
彻底
进展
才知道
▁pier
新冠病毒
▁BS
游记
ze
eeq
卓
炸弹
come
French
竭
控制
▁coined
利息
)=(
shtml
▁stellar
常
▁ec
环境中
td
式的
所示
ellington
▁fined
分许
▁traff
坐在
▁route
▁apply
▁Histor
望去
▁spook
▁sand
庄
oplan
佩戴口罩
uition
骨折
$\\%$
甘
渣
So
taff
独家
变迁
Mac
让孩子
кто
▁Maxwell
入驻
▁сред
两名
▁bail
只剩下
▁dimer
————
Mode
贡献
▁genius
▁turned
▁cycling
隐私
▁Done
▁RO
▁colleges
▁$-$
聚合物
ays
一定的
▁bootstrap
看向
▁account
}-{\\
一新
azers
Pick
修剪
班的
nFollowing
rocities
MNBVC
Ro
▁nickel
tf
'''\
lost
导弹
▁Eagle
▁Name
▁November
▁packing
满意的
有机
▁newbie
国土资源
▁contender
Ч
▁constantly
▁burst
temperature
债权人
龙的
▁princip
▁Championship
UB
▁hitter
之类的
nH
move
掉了
▁ho
热度
多位
▁amp
onential
城区
开幕
和小
danger
大批
Small
调
给学生
cook
了我的
▁supersymmetric
▁tilted
部門
▁stomach
equ
面临的
▁respectful
其
▁titles
达到
▁cats
▁Network
这就是
要把
▁vegetable
而生
▁unfortunately
▁bonded
公
▁Brooklyn
▁economist
ermany
头痛
存在的问题
identifier
▁Dar
pool
▁du
▁Mn
▁Someone
ilogy
▁гра
随便
▁dehyd
▁properly
还是很
▁pumpkin
▁Jessica
几句
涉
肯定会
高等教育
步
▁Greeks
▁marginally
尔
▁RIGHT
nright
▁та
▁enemies
的两个
念念
▁wrench
逆袭
there
▁Argentina
体重
▁summar
性质
▁wasting
previous
▁»
▁LCD
▁schizophren
bart
让学生
科学与
淡淡的
Session
campaign
吃着
▁vendors
▁feminist
Ps
▁danger
ses
▁()
生活在
WA
奶
▁substantially
不超过
portation
触及
▁repair
▁negativity
關於
诡
家庭
不然
bins
诞生
▁([
<0x82>
\"}
▁revival
▁AUT
ed
nRecently
▁airplane
apparent
rix
▁difference
▁gamers
兹
nBack
uki
tip
▁'@
▁elevated
vg
襄
scope
▁PVC
亡
▁altered
▁unit
▁Running
▁Paradise
▁pioneer
征地
nSounds
▁brutal
▁Ethiopia
蝎
▁Ess
达不到
▁anymore
▁associate
▁Flowers
▁Nazi
ILY
Ко
▁Marg
roads
rides
ig
ill
once
Factor
engineering
▁points
传承
▁aggress
兵力
急性
▁Neural
勉
鸡汤
pmb
負
▁dancing
之际
Claim
悠久
▁conviction
▁procurement
▁Given
}]\
资源的
在中国
愤怒
▁Brief
▁absent
▁Actions
柔和
原来
hern
tb
Property
也让
▁hob
邻
NET
春晚
ret
▁school
过的
alaxies
icts
▁Rex
▁Sadly
的症状
独特
▁buildings
拦截
Maximum
▁Belarus
Objects
correct
夸
▁Betty
请求
▁infinitely
▁hypotheses
是从
在山
▁exhib
Impl
闯
KEY
Sup
豐
blr
▁Baghdad
全会
位
Alignment
▁Gather
historic
vertices
jl
▁surve
每个月
▁memoir
▁permitted
糯
▁encoded
▁measured
拥有的
▁imagine
uon
嗅
▁worms
双鱼
nNEW
叮嘱
ъз
quist
制服
打了
▁arrog
<|Human|>
就会有
employment
免疫
▁следва
砍
的努力
irate
生的
甲醛
Queen
斯的
▁exclude
▁delivered
拆卸
願
▁dist
▁resumes
▁deposition
ymptoms
▁Liam
≥
ulative
那边
▁amazon
LAND
placeholder
▁Ex
垃圾分类
installed
Reilly
一次性
教导
BM
▁compliments
rez
往前
Title
爱吃
phy
家园
▁equ
Field
了他的
OS
Se
▁Jake
▁Jenkins
▁grate
iability
arming
nMag
▁Suzuki
聖
这里是
Mart
▁Vo
▁derivation
▁Bennett
代表团
Scale
▁Minneapolis
▁appeals
nesium
▁perfectly
▁Balk
刊
sequences
打造的
▁Sunday
coma
▁Administrator
ZING
▁ground
▁Amsterdam
一路
疫苗
stringify
Encoding
死刑
▁Bruce
enix
nApplication
ente
▁Birthday
▁tsunami
▁Be
大同
<0xA0>
▁tipping
交通运输
<|unused091|>
yuchi
proved
▁stab
Http
properties
▁bee
inee
ributes
itism
等信息
Joe
<0xED>
▁usb
▁Weiss
folio
ube
玲
▁submit
浏览器
ungle
不成
▁ruthless
eered
▁pleasantly
▁buff
给付金钱义务
训
▁search
关系
inety
积水
▁annot
▁triggers
▁ergon
MzU
违法违规
▁notify
ela
消
▁Afric
▁floral
▁STE
▁LT
▁circuits
我不想
抄袭
咱
▁AGA
eda
▁Feel
▁Electric
▁screams
▁tourists
▁Henderson
也有人
一对
心思
缓
<|unused149|>
▁Definition
atable
<0x5E>
做起
相位
匈
斯顿
取名
的黑
▁tennis
▁minimal
治病
political
AG
▁diss
到现在
dark
精选
oscopic
▁TEXT
andering
▁detections
時間
▁Vehicle
▁parent
Log
此次
Err
Tunes
▁Jere
means
他被
拼
▁attracting
给出
}</
的情绪
nphase
矩阵
▁Ста
▁DT
mble
bk
▁era
▁writings
attack
▁Maxim
ermanent
出现在
this
▁Clay
IVE
igan
倾听
情愿
▁Chop
▁PATH
▁deputies
Sy
▁inhab
天内
▁Daisy
▁Small
kids
▁strokes
ruitment
▁ENT
BF
▁conflict
▁seaf
рак
rp
+}
死去
菠
位数
Doxy
互联网
▁immedi
▁Sue
文创
oa
outhern
有限责任公司
)(\\
KM
演讲
执教
丝毫不
禅
▁doubt
獨
▁"/
▁practitioners
嘱
▁wrist
ODQ
mber
po
screens
products
以來
▁lod
uli
样式
▁Europe
▁businesses
看清
▁cardinality
刻画
▁believed
▁училище
确定的
▁Lars
脱落
▁contradicts
Mem
▁oscill
ags
ounds
出售
安县
constant
TERN
▁fren
@\
▁grade
▁schedule
riday
抑郁
ugg
Stop
ности
应用的
▁lobbying
的教学
JPG
▁bas
nwe
▁Rhodes
常态
в
▁Bang
我对
▁Meeting
理事长
▁kittens
algebra
tration
▁Horse
▁McK
▁goof
不住
bble
▁Won
nLet
针对性
陷入了
▁Masters
▁Depot
▁records
vent
▁typename
遗
▁/>\
oping
储存
Land
▁palace
▁plur
▁Gan
==============
fax
还得
nRet
▁fel
小姐
foreach
named
观众的
呐
▁answ
▁годи
辅
EEE
▁Crime
▁Cookies
▁channels
中国人
价为
▁dialog
Channel
效
▁Dept
rians
办学
▁requires
tee
eration
前往
▁Lowe
▁visualize
和大家
▁Meaning
▁esp
▁E
▁scope
▁inspiration
憾
▁environmental
basic
па
borne
▁Every
公安局
ngra
nSeptember
难受
拿起
本身就是
▁Ori
异性
▁MMA
▁pushing
频
Qw
党建
▁execution
/$
辞职
▁lead
mounted
形成一个
alloc
本地
▁Throw
▁Twins
社区居民
debug
{"
▁anthem
▁winters
同志
直属
脂肪酸
▁Stockholm
亭
(:
\\}\
nExcellent
示威
基督教
itutional
▁partial
eu
too
▁Je
氓
das
.
JV
expected
▁gard
▁Walter
▁Especially
'}
和非
微博上
如来
▁impaired
бли
上述事实
艘
拧
计生
长途
▁Mitt
brace
着他
Grant
▁rugged
sz
Външни
政治
▁Pharm
▁sheet
▁manually
基板
▁Minimum
▁aval
▁legislators
▁residence
估
▁loc
开花
osed
Comparison
是这样
▁undertaking
dir
iny
▁inertia
后来
nspe
▁ethnicity
▁perspective
udes
这里面
自己所
▁DAC
▁wholesale
nLine
第三季度
▁incomplete
▁VW
各区
▁Stephen
▁Gut
不得
议论
▁То
rich
▁contributor
▁Khan
aked
tprintf
伟大的
▁for
ь
▁ub
▁sustain
▁Aug
息
支付
ij
▁apart
▁back
exist
▁terminated
过分
^*$
▁horizontal
functional
estead
宿舍
icz
举止
上学
lstlisting
▁celebration
▁manipulation
▁launching
▁messing
nio
ufficient
▁gracious
单一
▁Optimization
Arguments
萄
▁iTunes
▁livestock
建构
▁coached
ites
第一位
估值
▁abstraction
投资者
钦
失眠
拱
▁folk
相互
约束
▁weighting
*}
过上
cycle
供需
每到
馅
家中
▁registered
▁expedition
▁breathe
▁Length
▁Quart
▁Jordan
ZE
nStud
nWashington
貿易
yon
▁Canad
rsquo
division
▁determ
▁shaped
▁fort
PEG
抗癌
urchase
Plus
▁Кон
发生过
▁Appeals
▁thumb
▁blessed
▁celebrates
▁eligible
▁Lat
▁Commissioner
▁appell
专业化
虽然说
维尔
▁unlabeled
▁doctr
▁acquisitions
对面
制裁
dis
城市的
委員
▁noticed
生活的
淹
ocrats
▁effect
▁convey
降
ularity
gang
REN
▁национа
顿
的真
▁committee
▁working
cers
nparticular
}''
氣
about
footnote
▁Craw
▁вър
▁hostage
格林
▁Coord
他就
▁bodily
覽
▁detained
参保
Scal
nApr
▁quad
半岛
▁SNR
mutation
▁Integration
▁Palestinians
▁i
▁ph
见到
▁OVER
Renderer
▁deserving
思索
nstandard
quis
npublished
▁mine
This
▁opens
▁mu
▁respects
usement
▁cited
▁scaled
▁chopped
新浪
▁capable
▁Isa
着自己
▁extensions
Chris
updates
区间
中发现
▁Milwaukee
▁probing
它们的
warning
耗费
▁catching
hall
而且在
mcite
▁rested
▁earning
氨基酸
KD
装配
这对
庆幸
印
帖
ength
Aut
<0x83>
▁lifetime
▁masking
ната
▁Flag
jo
▁Pokemon
▁Pitt
▁Breakfast
永久
▁disproportion
▁enchant
凸
abcd
氟
▁Has
pile
▁Ethernet
▁scalability
作品
柄
▁network
贴
ngood
|$
▁lamp
过于
配角
藻
ifi
tString
words
Microsoft
pecifically
▁Bird
第八
say
瑕
宿
燕
▁Rabbit
而他
发
inventory
方向盘
穆
▁Martin
▁opened
▁За
全球
▁met
年级
▁undoubtedly
若干
市区
▁Primary
▁fragrance
ския
hard
▁Perry
▁Tar
▁receive
的人物
FUN
nDist
持有的
何
kind
獻
▁referral
称作
▁According
紛
▁teamed
企业的
▁acquisition
experiment
虞
▁bones
合唱
泪
▁Dock
不怕
道具
▁gl
▁Quebec
▁perpendicular
吏
混合
cm
aniel
抢险
uggested
哒
▁maker
▁focal
aleigh
nPaul
▁burger
Document
▁offline
▁Context
▁bacon
osc
▁При
%%%%
譽
▁fixing
nEDIT
Qz
▁failed
持有
▁squeeze
▁swo
▁iterations
pk
申诉
霍
Train
完美
pez
▁Complete
nFriday
▁matchup
▁Chief
贵州省
▁autonomy
找
间隙
▁confined
动荡
ста
batch
贯彻落实
▁MF
Coord
本的
取出
▁Avengers
nConst
▁nest
xim
▁cylind
asketball
▁pac
篇文章
写的
nfe
操作系统
ters
Fe
▁У
▁achieving
<|unused120|>
的人们
▁observe
wordpress
ността
ele
roduct
▁shooters
”……
FilePath
分子
йт
▁decade
▁maximally
nThroughout
四年
塞尔
合成
▁softly
会发现
ño
<0x16>
▁horn
▁edited
顶级
俺
terror
WORK
▁roaming
杖
投入
▁direct
▁event
▁;)\
umbling
▁removes
这些问题
sheets
▁z
▁names
nelse
acter
左边
部件
▁camping
module
;\\
▁variations
predict
▁batt
▁styles
新时代
DES
俭
▁fragments
pler
Ti
▁ore
alon
宣传教育
unky
引力
Δ
▁gentlemen
erview
▁Com
nVisit
validator
▁enjoyable
Metadata
▁speck
在中
uda
▁основа
▁TOP
phones
▁conceal
▁stunned
▁reps
unting
▁RE
▁reality
sinh
等服务
▁property
日渐
▁blonde
斯科
ksw
毕竟
▁caps
堰
neffect
▁constructing
nparameters
nBrian
體驗
▁budget
apolis
备
Lu
▁ridiculous
▁pops
▁NC
court
▁synd
license
▁Ped
在与
这些
兮
尊重
茬
acs
lict
▁denying
化解
▁erotic
▁Google
beat
▁permanent
▁Erik
建模
▁muddy
▁ii
启示
书记
▁silently
Detail
¬
县政府
大学
olitan
也已经
▁PET
▁viscosity
SL
ctory
摔
▁село
ā
ague
interpret
▁Burns
安定
的事业
lish
▁plumbing
▁behavior
▁proport
Ка
淋巴
inate
'<
▁puzzle
▁Citizen
第一次
OWER
▁Shadow
flush
▁asymmetry
尼斯
Kit
stra
▁Hubble
▁genome
lex
▁BTW
可以被
精
textsc
нали
▁Ideally
▁月
首先要
dro
pres
lash
▁knowing
lection
▁Dub
ichigan
加
▁helmet
绷
柏林
▁Iss
▁Imperial
当事人的
▁Petersburg
>[
irical
▁regimen
金融危机
▁absolutely
操
asury
ima
感受
▁Angel
amac
生产企业
▁thigh
oke
▁vel
指控
码头
父亲
▁rhet
▁vers
uated
▁pitchers
ORY
平民
▁AV
<|unused157|>
▁asshole
▁Weight
op
共享
清华
两侧
关闭
▁Enc
▁panties
Refresh
UAL
gm
▁About
祖国
▁pedal
曦
体
▁apprehens
▁bankers
peria
鞍
poly
▁tracked
麟
替代
▁determinant
▁Reviews
▁rooted
深深的
▁instantaneous
▁Lindsay
▁tried
</table>
lee
фор
▁hometown
往后
智
ably
cheon
▁Mental
bour
▁members
▁Ferr
▁Teacher
索
广
成交量
OY
▁Brett
▁Patients
ine
omedical
compact
nJames
▁Prom
\")\
留言
ric
回事
Okay
歪
piece
一定会
Ba
发改委
▁dreaming
▁Cool
▁''\
▁eBook
逻辑
等的
原
杰
_{
▁catast
▁Battery
已经有
▁да
exter
倒
Style
说自己
黑
vanced
氨基
坏人
▁Super
群里
部分的
▁churches
<\\
▁Measure
▁infl
▁Apost
▁saf
мента
SUCCESS
icides
科学
▁shortest
▁shel
▁extrem
▁synch
quently
津贴
原审
长得
渍
还可以
和解
even
▁coerc
ovic
除此之外
复印件
Optional
exception
其中的
▁Communist
apes
▁exploitation
并列
листи
组织开展
clone
nJason
sburg
▁NY
index
▁bure
verty
▁leaked
▁hoped
▁construction
▁Music
▁бъде
大幅
mL
signed
枝
吻
▁quint
gre
另一方面
奠
▁IL
ците
师德
cup
book
▁Straw
Database
▁ener
长期
标准
矿
▁gorgeous
▁into
▁reversible
回想
▁blessing
antly
spot
自动驾驶
▁voltages
▁escape
▁nour
inar
偏差
perature
所属
<0xD4>
▁positively
▁gloss
said
erald
央
业内人士
桐
Tuesday
夏令
▁calibration
▁Evaluation
▁itinerary
▁Tottenham
致的
Border
ген
副作用
nOld
▁-=
体内
ochastic
▁stationary
▁Resources
nHot
▁flown
▁въ
▁nano
十六条
▁podcasts
加倍支付迟延
感受到
телно
乓
alleled
节奏
携
保险公司
衍
▁contracted
臂
▁turmoil
Разпространение
过了
▁completeness
▁covered
銀行
▁railway
▁cosmology
▁prohib
crib
▁turn
rate
▁Titan
▁visions
卫生院
吐槽
比赛
▁resting
这么多年
▁throughput
轮
片区
ometric
uta
пу
爱好者
编剧
Irefn
孵
atches
▁pit
▁neutral
ynam
nInvest
潍
▁Charlie
▁simplicity
地毯
▁Hearts
▁tastes
============
▁Volkswagen
重伤
Why
二手
▁trusted
南昌
▁Films
不对
usk
不属于
▁breakthrough
注入
不愿意
以至于
▁цен
▁tou
▁Kids
有何
nNow
Sen
易于
目的地
umann
栈
▁Presbyter
▁trav
▁digestion
支持下
改装
影视
在这个
Story
系数
▁Expected
uffer
▁Log
▁depends
存活
ODI
责任感
nWork
转折
▁buds
一味
▁sno
……\
PPP
▁Athens
▁detectors
嘿嘿
▁tabs
nSorry
<
忽
▁Off
▁Gener
▁Nets
▁Time
实事
蒋
慌
▁replaced
▁pies
nton
▁indoor
三分
顧
诗意
▁otherwise
ched
年是
拍了
民主
在我看来
▁asymptotically
▁sul
fib
他也
▁damp
▁disabled
▁fixes
▁bookings
Travel
▁commit
▁wra
幼稚
合理
奥运
described
▁lost
▁sh
它是
收录
就不是
▁pp
nSupport
联网
momentum
▁diabetic
atta
▁cord
菲律
谦
究竟
racting
县
из
▁String
▁controller
healthy
▁Xbox
啦
Go
总监
的同
这次的
感慨
心目
before
▁slowed
的身份
▁пу
6
用户
还不
ucc
離開
ръща
▁=&
▁Yale
▁Worker
大豆
一代
▁Jur
:$
▁False
▁variance
▁invent
ision
▁morning
▁handler
组织和
▁BF
▁opposite
止损
警官
abi
communication
最喜欢的
nWriting
▁aggression
orde
除非
ast
差距
▁word
▁Bulls
abase
摊
▁denomin
▁appreciated
听课
转变为
▁tolerate
answered
seys
绍
▁rated
felt
spatial
▁Dataset
UD
▁Kon
▁add
▁Profess
▁DLC
开后
发表了
▁corporate
QCD
知的
lat
▁voyage
nDespite
▁lect
▁instinct
老師
▁scams
▁)$
▁distributions
▁coronary
▁Director
适用
▁dram
▁anim
rained
▁poses
▁corresponds
▁troops
oval
eme
▁First
最大限度
▁English
▁wire
ogg
年輕
QP
IMA
intosh
单位和
演唱
▁turb
mi
丽江
手腕
▁feel
莫斯科
baum
伦
▁navigation
几个小时
纳税人
遏
自然科学
▁actions
IBM
固定的
▁cartridges
耻
▁receiving
▁clearly
▁splits
jecture
▁headquarters
▁Wid
▁professor
过渡
应注意
▁Creates
同時
带来
gage
如此
分布在
▁recognized
▁certificates
quarter
tM
ionization
}}_\\
包
鸡
直线
向外
MVP
▁Ла
<0xF2>
▁exterior
▁touched
kexchange
盒子
pare
<0xA4>
出差
溶
球场
▁MP
etsy
bio
Overall
▁kicking
还说
▁Operating
布莱
专业
盲目
台风
▁anomalies
▁Drug
BLE
实力的
▁authentic
日本
nTime
jee
▁Cory
安东
▁pork
彩虹
阳区
情怀
▁Participants
ieval
实例
便捷
▁fem
nMary
私下
▁seriously
ance
▁libertarian
nTwo
▁stochastic
▁reform
▁marginal
▁lear
▁vag
华人
▁ent
▁fuzzy
nshown
ди
柠檬
建立在
无声
日出
=__
Que
vepfs
同心
与
載
生动
▁Associ
▁Simple
▁lug
坯
▁handling
能有
买车
endas
▁maximal
前行
不可或缺
▁Actually
▁bans
▁bind
+{\\
▁livest
▁When
细
▁Stevens
夫妻感情
ма
▁spinning
▁stuff
谈及
▁agent
imm
izes
▁adapting
▁Principles
uracies
▁acceptable
▁Former
▁ending
批次
▁evaluated
该院
▁preferred
()->
nProfessor
▁fatty
nperform
▁Educ
该车
HAHA
tuning
teenth
▁CONTR
岁以上
环境的
视察
▁strives
埃及
nmade
▁affordable
rowned
▁dealer
▁joked
不仅有
▁flat
单品
▁seeds
▁regarding
▁aff
dream
▁ethics
就像是
很低
才会
推崇
▁ha
▁degeneracy
▁simplistic
陆
hib
▁abortion
▁ignorance
海鲜
行政诉讼
▁Universities
cier
lived
他人
再度
QM
▁Available
进步
省份
assador
▁stores
煎
▁alarming
BODY
tfloat
▁recovering
可能
=(
▁Employee
▁和
mathscr
办好
損
▁port
自然
的法律
占有
rodu
ister
由于
▁availability
▁accent
制度
▁Yu
services
▁blacks
动着
widetext
ablish
支行
usetts
According
▁confessed
▁daemon
伪造
烟花
social
▁cells
发扬
-}
END
高出
下降了
▁radiative
共产党
pass
His
是她
汝
▁bowling
來說
▁review
▁systems
stderr
ATURE
蘭
斤
过错
▁employ
修行
ま
▁Jo
project
toBe
▁Column
▁advocate
▁refined
▁продъл
那是
▁Extended
▁DR
移植
信念
红色的
▁GF
没有那么
▁gamer
考场
隐患
▁assemb
ем
▁grit
▁Generator
柬埔
▁Rew
serving
}^{(
][\"
▁imports
合并
дар
呢
鳞
tage
▁hurt
Snap
▁rooft
▁retired
Gamma
▁Register
▁activist
ant
之家
▁sonic
▁paras
面板
▁CHAR
法兰
▁these
引导
Camp
喜欢的人
Commit
▁compa
eps
ami
▁respondents
iph
▁ES
护
▁improve
▁Colorado
到达
▁enforced
纪念馆
wh
▁incredible
Long
ffle
一瓶
▁heads
president
▁utf
haps
▁tied
▁COVID
▁hints
复查
▁informational
冬
▁Breaking
essions
维持
主流
▁achieve
zen
澳大利亚
▁explosion
▁gods
▁Essay
Buy
▁broad
▁Mirror
上百
~(
nposted
▁cron
nAut
离家
▁s
因为
设备的
▁students
▁unpredictable
▁LSU
reasonable
▁suburb
▁disturb
▁Fernando
▁importance
▁SPEC
▁Pilot
魯
召开的
<|unused032|>
交界
來的
六条
▁whilst
gnome
▁peanuts
▁tang
Logic
▁Android
情的
▁happily
▁householder
矩
snow
我都
注意事项
▁thresh
▁Taylor
rolog
Decoder
▁mild
nrem
mv
▁Recall
▁conf
){
▁randomly
émon
▁negotiate
▁salvation
▁medals
都得
<0x70>
▁proposals
BL
波动
受理
▁cars
research
国家和
nunc
▁Persian
▁RPG
长达
Proxy
nind
edar
相信
专项行动
社会组织
tools
ttd
淫
出轨
嫂
igations
▁Sundays
承包
▁Jedi
=\"#
▁refresh
愿意
▁similarity
▁Sha
NNs
lic
cloud
联储
▁Idea
▁misc
▁puzzles
▁>
▁km
edi
ra
}(\\
▁Sharing
quiet
的血
▁Menu
professional
;\
长期以来
与美国
▁airline
ikes
瓷器
大一
修
aj
结婚了
▁intimate
IENT
密码
▁p
▁stresses
▁searches
▁kinda
ample
nWait
isl
nYet
▁tested
▁Festival
这就
▁bottom
▁powerful
诸葛亮
▁economical
▁specifying
埔
▁Worldwide
的热情
SET
assium
核酸
抢救
▁organization
嫌疑
Earth
Color
air
▁depicting
甜甜
学生在
越过
捕
▁facilitated
Shader
晗
最初
企业发展
▁displacement
imming
▁hello
▁inmates
▁Cat
▁oxide
▁lattice
▁stair
无机
▁trusts
▁sz
objective
垫
odge
ONS
▁Slo
行列
uy
▁Mom
scale
▁ingred
▁administ
▁rule
▁score
▁layered
orget
▁highlights
州
▁Cole
▁forgiven
▁synthesized
▁simplest
ads
原来的
DD
icative
nApplying
<0x58>
▁Algorithm
ordable
安抚
中长期
▁pri
姨
forcing
aha
▁Nig
▁neurons
没有办法
→
语音
榨
▁Secret
ISTR
▁Sherman
乌鲁木齐
▁minister
严重
▁breakup
z
▁Squ
▁Associates
用户的
ã
▁entertain
▁towels
连
群众
▁interiors
▁cur
▁formally
pq
▁understands
谈到
▁timest
nSpring
纸
▁burnt
▁wisdom
WR
▁wealth
amas
制冷
的头
▁cleansing
▁Buzz
▁Create
false
ranked
™
▁professionalism
▁Server
Methods
▁football
▁Lew
▁patri
奋力
之星
▁Detroit
Dataset
留住
▁Hard
之后的
pond
安稳
部
纳德
因为我
▁Focus
rosse
atterson
▁Germ
老师
山东省
给予
umat
一台
▁damned
▁Tit
边境
越野
▁Barack
othes
之一
imbabwe
▁Cycl
去除
nMike
Radio
tself
宏
▁Vir
標準
指令
交汇
antine
红
▁substrate
▁Alfred
牡丹
▁agility
oultry
购买了
▁electromagnetic
Christian
▁alleg
▁Champions
▁Taliban
▁dat
addy
learning
只能是
}}^{\\
▁conference
bursts
文化艺术
ogs
available
Show
aceutical
()}
▁enjoys
▁additive
▁happ
▁pointers
irie
三八
xin
▁Demon
▁perpetual
</strong>
▁SER
releases
医生的
粥
▁antique
▁dilemma
再用
Scene
▁Methodist
▁към
树脂
symbol
nMartin
Empty
▁genes
▁bare
aten
▁induction
▁supernatural
青春期
▁minute
adin
USH
nKey
▁lasers
▁carried
技
ncur
<0x17>
要么
▁defendant
搬运
磋
etable
nReally
nStop
▁judging
调试
战略性
紧急
▁ASS
▁spacing
▁belts
他就是
ulf
▁Essays
▁discret
▁proudly
警察
▁HAVE
▁Sab
probability
球的
▁succeeding
Query
othing
▁foc
以内
▁fermentation
会议精神
▁superf
▁Mystery
人大常委会
和你
乘坐
电磁
悬挂
}$=
▁projective
ahah
将对
Mz
▁Tw
纠正
_\
兑换
供应商
▁bool
gtrsim
闲置
▁sympath
cx
▁fare
▁peripher
反驳
▁tra
nJune
拿到
同胞
乏
converted
Js
壓力
自尊
▁distortions
▁Fore
L
▁Committee
those
多大的
▁readings
SC
工程项目
村
Tracker
经费
ther
楼的
急忙
▁briefing
▁surrogate
▁rapidly
▁elsewhere
omi
▁skipped
стру
chain
出行
醛
Special
斷
▁donate
records
▁THC
▁Knowing
▁adorable
▁TCP
▁oneself
这个问题
芥
▁tourism
Identity
▁random
▁along
正面
格尔
▁trustworthy
\";\
▁therm
▁Number
▁\\&
▁magnification
uerto
iners
▁你
<0x66>
NING
minute
▁Constitution
\">&
龚
lambda
▁Kansas
亞
▁snippets
订
ras
▁Peninsula
▁memories
▁crude
▁Bo
▁evaluations
不在乎
arking
▁compositions
▁penet
sts
详细的
急于
▁Vince
▁Detective
ednesday
单个
bed
<0xBD>
edd
▁campaign
▁Its
▁imaginative
協會
▁interconnected
▁Bach
▁voiced
离子
更需要
\"
▁prec
▁midnight
奶粉
utory
fter
地形
Exit
▁batches
▁Input
grey
RAW
▁options
患者
三分之一
脂肪
▁orthonormal
绥
漓
▁GT
▁barrel
扭矩
▁mall
▁flight
▁intercept
化学
互补
精准扶贫
▁repairing
▁proportion
unity
再生
stars
▁believers
实在
nMer
心力
▁sed
^{-(
inher
▁Minecraft
nDe
▁alias
]_
注射
nSpecifically
直觉
<|unused029|>
华
lemen
扣押
▁administrative
砌
преки
堅持
酒店
▁template
▁adequately
会议
拉的
两周
▁Working
▁raising
个子
天堂
产值
▁Myers
CEO
▁Wing
晋升
▁reel
酱
一种
体内的
▁cons
dot
人群
▁Back
▁Different
lead
}_{(
▁seriousness
真诚
▁Brazil
铭记
来解决
▁footage
During
新娘
▁nucleus
▁immers
▁VAL
ims
▁whist
▁PT
inte
мерикански
▁landscapes
读
▁seam
\\+\\_\\
▁saints
▁mould
优于
▁Natal
▁features
SA
igger
▁actually
▁generated
▁tails
受限
乔治
腌制
▁Assistant
▁nit
yang
iances
Know
目前在
multicolumn
的有效
bolt
▁situated
所有权
理想的
ued
Son
▁nonlinearity
▁Therefore
哲学
anton
dw
▁systemic
igar
▁CONT
▁collateral
東
阳
▁Dart
﻿\
▁existential
成為
nTR
桌子
▁Font
vary
到一个
▁waiver
也不错
▁autobi
反感
保温
ighbors
▁Lithuan
hesis
▁voted
得
nonly
nprodu
惠民
itars
▁}(
入户
▁opts
▁anyways
▁Pastor
▁newcomers
nDid
▁geometries
capture
external
三人
ф
▁frightened
权限
▁por
▁края
▁claims
▁examining
我们已经
Protocol
起着
▁enrolled
▁hunger
▁Lap
聽
▁prayer
▁jo
有机会
amer
assoc
cg
日和
设立
▁profile
▁politically
pak
▁Tower
Works
阶层
▁babies
巩
▁invention
amb
uto
▁pipelines
祁
entric
aspx
Download
主題
=\"\">\
ochemistry
表态
れ
▁Normal
▁Empire
不公平
▁ignores
acre
▁vaguely
nama
▁queue
▁powered
▁featuring
控制系统
急救
▁disabling
党总支
來自
)&
▁POV
c
▁banned
开始的
▁view
ï
出台
▁excel
＂
▁perturbative
当他
▁Flyers
toggle
urse
measure
推销
cover
崛起
▁ont
▁adviser
防晒
▁simulator
规程
nBed
二战
起了
oug
▁Logo
延长
中之
▁Increasing
give
balance
▁Ny
PDATE
▁youngsters
專
cul
nSer
▁migration
otypical
▁kit
附近
查找
嘴里
▁symmetry
乐园
*(
八字
过户
安区
★
get
关心
▁aims
ít
▁concentrate
▁fuck
сите
]\\
centerline
现如今
编辑
nabove
半导体
▁Somalia
▁bursting
nlast
幣
nGeneral
穿搭
世紀
的一段
▁Gaza
▁persists
▁costly
NOT
▁thee
▁captive
▁jewellery
jia
岁时
}}{{\\
也很
▁harness
▁ti
天空
iary
man
▁Morm
▁Out
好好
px
▁drawers
kas
ocytes
进出
▁wines
▁tilt
▁relieve
▁Government
urches
默认
spoken
ori
无忌
之间的关系
和中
nFire
缺失
▁volumes
▁indoors
ce
▁fertility
職業
iry
▁upside
人行
":{"
ieving
▁readily
)/
多项
kan
悉
▁percol
nMake
本案现已审理终结
铂
Const
'\\
紧缺
抱
▁logarith
▁novice
极高
alis
▁punches
▁religion
兄弟
бе
nDave
▁Hide
▁My
▁hip
▁bud
▁disputed
ncomp
一般是
标识
▁smoke
酋
给我们
Loader
技能
▁Hus
同盟
调度
ovsky
▁residual
做过
▁frame
iov
Qx
客户端
▁Member
Collections
▁excellence
▁enters
▁fragile
▁grandson
绘本
每月
▁dies
nJesus
帕
▁repository
▁Son
ilar
做了
针灸
▁soil
▁until
▁Pine
来临
▁Cort
▁emotional
▁Writer
▁offender
▁robots
ZZ
应急处置
ntrans
▁Roc
差
▁Liter
▁ants
changed
▁trainer
和他们
nWow
唐代
强力
gio
基本都是
牛肉
survey
梓
nOnce
区域的
▁prerequ
▁consists
ogo
就好
工作方案
夯实
<|unused053|>
▁refused
打造
图案
▁Wednesday
布鲁
出具的
▁solves
▁policies
owski
▁encouragement
illions
一切
正确
▁forgive
▁burgers
```
新产品
nRepublic
的日子
umbled
▁RV
▁chip
$:
出的
▁dots
▁Brit
▁strict
▁proper
kom
鎮
▁декември
在一些
写入
positions
▁echoes
Variable
▁Independent
还可
Hi
▁walls
的活动
▁Turkey
亨
);
▁humorous
▁membrane
▁localization
}}}\
▁eighteen
旅客
Fig
pajama
<0x14>
▁presidents
或有
multicol
很多人都
▁chase
▁safe
▁strang
themes
▁pleaded
leted
amely
▁nationwide
▁bulbs
▁JavaScript
▁sacrificing
▁pand
nStarting
ndra
▁homes
严格落实
)<
▁pragmatic
▁Panama
加油
;\\;\\
▁timescale
▁greenhouse
夏季
▁Calling
姐
▁sliced
▁shut
藏着
oha
▁laid
collect
▁doubly
sound
tra
Ret
Spect
销量
тория
<|reserved005|>
▁collaboration
pawn
情况的
▁Nevada
Through
▁Cheese
▁miss
▁'-
第二步
▁ug
皓
▁Men
▁exempt
老旧
▁this
运
Cost
▁personality
医务人员
▁TT
把我
▁genital
▁traditional
▁PCI
手足
切实
▁attached
前段时间
▁kn
▁deed
悠
听听
▁editions
▁investigations
宝马
▁fut
App
战场
ascade
▁simplification
志愿者们
閱讀
沮
▁cities
段时间
PUT
▁ninth
▁Triple
▁cynical
沸腾
ster
▁supported
洋葱
чно
▁shoots
anced
陷入
XML
Inf
agraph
我喜欢
等一系列
▁team
endant
通路
▁could
itary
ais
▁Liv
+(\\
Human
村庄
欺
▁Peg
▁Kab
▁resort
▁early
▁curse
ubble
的魅力
变化
泰
▁Place
肠
本文
▁Boeh
普及
enders
▁framework
散步
▁DG
▁horsepower
樓
▁prepare
试验
▁analysts
两款
進
辰
stri
治安
▁вла
uga
кедо
本质上
▁Comfort
▁Laur
sidebar
一方面
textcolor
改成
▁recipro
用于
▁Baby
没关系
<0xEA>
矛盾
she
问道
的联系
ARA
)^\\
中国的
ind
▁diverse
▁Abbey
ток
求生
▁occupation
$+$
历史上
▁Ал
告别
▁accountable
▁violent
这支
▁fueled
Processor
辜
ire
优异
生產
▁interpretations
▁brass
Биография
▁catches
▁artifact
长大的
▁Mich
为大
三名
▁coins
▁proclaimed
EO
▁embarrassing
▁microbi
正是
产生的
Whether
▁loans
itches
产业链
peat
王者
▁wine
▁Brad
▁backers
的天空
▁meaningful
astically
xf
▁Marriage
▁rubbing
amous
加水
▁commander
▁executives
人多
闸
nection
remember
交道
roke
existing
▁cb
▁dive
▁behavioral
▁Franco
角落
探寻
oto
formerly
kip
▁vortices
▁weakness
投入使用
wm
反响
西湖
的时候就
现行
适当的
▁symmetries
▁tier
考虑
▁pigs
不是
}{$\\
礼品
▁souls
化疗
▁rotated
▁temptation
▁randomized
格拉
▁navigating
▁suffering
中小学
inch
▁thus
▁recycled
зо
point
▁Elliott
度
得罪
车型
uds
单元
鉴定意见
▁Facebook
▁governing
▁Records
▁Together
▁tet
aughs
琳
▁Inc
分辨率
▁header
ensors
秩序
镍
▁hardness
ervised
▁parton
▁consec
see
points
▁marvel
退休
▁wheel
▁pleas
饰演
爱护
量化
和支持
纪录
碰撞
管家
<h3>
集体
nick
乐视
不尽
ards
领军
▁Superv
人际关系
float
師
什么都不
acy
媒体
说了
系
▁eth
联合国
▁Thom
▁gover
▁constant
确定
nfirst
▁tendency
ENTER
▁poured
的人
solid
nspace
▁Biblical
▁nar
▁realise
<<\"
时间长
itime
政策的
▁hemisphere
棚
▁purge
################
▁Niger
是最好的
人与人
十二条
嗽
纠纷一案
我们不
Missing
▁Which
▁mg
commutative
ir
的生活
奔
又开始
▁Drop
秘
▁人
▁unified
▁prominent
nV
使用寿命
notch
thews
▁Tus
介绍说
洛
这篇文章
ар
药物
▁fingertips
RedPajama
其实是
bard
rbrace
▁Sep
▁parameters
就是
uge
▁Brian
conclusion
產
que
▁materials
▁previously
esides
▁Were
▁popping
▁Ord
call
garia
()\
mazon
毁
pl
▁Fame
▁freshman
工业化
住宅
▁headlines
sell
趴
▁multiply
forces
偏
aments
極
▁Statistical
▁Mandela
▁pasta
▁Pere
在这
▁entrepreneurs
inated
▁Pix
▁с
////////////////
ypical
town
▁lasting
udden
解剖
click
SYS
跃
的中
▁cost
flight
▁factions
实践
到你
borg
削
▁Quick
ises
国民
处以
▁away
召唤
▁Boot
不得已
▁Lots
otential
▁nuclear
▁peaceful
要从
▁essence
市场上
▁priori
开会
▁tablespoons
▁linewidth
▁conditioning
会更
市场监督管理局
<|unused158|>
黑暗
balanced
Theme
耸
紀
▁advisor
▁bicycles
一般
夹
▁broth
CN
这段
▁expect
▁congreg
▁evidently
上的
空气中
▁shipping
ated
▁creat
▁letters
线索
sta
两会
ложе
bea
等问题
Bot
感人
▁crosses
▁homosex
wal
自己在
上是
▁m
▁registers
itan
sym
outside
涩
▁NG
▁handset
nFIG
犀
▁Ph
ncharacter
渔业
明显的
▁Miami
吃亏
ga
▁circumst
点评
情況
▁testing
▁deserv
▁Ext
threshold
▁recurs
▁forgiveness
change
路人
有时候
徒步
▁newer
▁Jeh
▁graduate
)](
孢
拒绝了
▁microwave
ARGET
RA
拳
▁parcel
▁subscriptions
has
四肢
plied
iratory
三级
nFurthermore
nName
连接
cri
▁typeof
)));\
▁satisfies
▁Schmidt
就是这个
获
hent
▁blues
entropy
<|unused097|>
anguage
▁perplex
▁compliance
▁Shin
▁toxicity
▁embod
Dig
ye
▁weakly
фа
才可以
▁Webb
只要是
▁AN
了几
▁numbered
Record
▁seafood
▁emailed
迎来了
▁casino
肋
▁convert
▁playable
屠杀
AI
▁backdrop
长假
足球
iquid
▁граф
鱼的
▁simultane
()
▁ord
ked
селе
模型的
▁Watts
INTER
izard
nColor
▁sprayed
}})
oused
干货
▁forge
Async
杀了
▁clients
▁strengthened
▁Hy
ergus
▁wavelength
об
tering
▁Se
用了
响了
uitively
▁Handle
▁Sil
gauge
内存
▁acknowledges
wine
acted
▁vicinity
来访
▁concerning
▁star
▁път
▁groceries
书院
▁schooling
镇长
omics
▁fantas
火爆
点和
▁embarrassment
▁Khal
比对
ulu
天地
platform
老年
ката
})^{
он
enson
讓
unning
нската
系统的
豆
▁tract
▁dermat
＝
吃药
技术的
报导
程式
nen
<|unused153|>
同样的
▁{}
主教练
▁kid
要多
▁polling
||
dropdown
▁Already
觀眾
▁Illinois
材料
▁resolved
▁abuses
▁creep
▁priests
efficient
ntil
▁modeling
▁cloth
价
聆
之日止
arl
▁completing
▁Knights
不再是
▁prev
一部分
▁advantage
紹
██
ure
▁attacking
▁DIY
▁Lloyd
并以
nYour
▁Scal
▁Rams
流传
金牌
▁uneven
外的
nTo
▁establishment
Close
▁independently
▁perform
illation
penter
nEss
你对
▁ascending
threatening
▁Dynamic
ivier
▁smooth
▁formula
对这些
不一致
终审
彼此
初级
医疗
用人
▁arising
лия
馨
chell
放宽
回流
per
鼎
less
▁redesign
▁кон
▁Abe
▁advent
different
▁Chel
icus
植树
产品的
▁clerk
▁Moss
`;\
▁broadcaster
blems
调查
想了
地方政府
▁Parker
▁heels
消极
村委会
nCH
转到
镇
Pod
Status
导致
▁PK
木材
neutral
强势
得好
经济损失
▁футбо
▁Sens
mite
▁proverb
她对
iral
▁workshops
rams
▁avoided
angular
fo
▁mp
ropolis
犯了
▁hundreds
蓋
▁Isaac
还
▁strike
imen
折腾
nbeen
源自
祀
与之
rag
▁biomass
tname
大型
诉称
两份
绽放
▁Administ
igator
through
REQUEST
▁appreciate
▁accompan
▁filed
▁historically
助于
参照
▁Cabinet
领略
霾
weg
▁meeting
nAng
或将
typescript
▁Lam
让人们
至此
▁afraid
▁payload
被申请人
nNevertheless
ologies
▁Energy
腕
▁revenge
苔
Contin
utical
itics
箱
Rod
▁fellowship
ering
▁Effective
单身
Complete
国足
今
占地
▁inception
▁Cord
▁върху
PM
▁saga
仍未
诸葛
nINSERT
eterm
MSG
纷
▁pedest
▁course
玉米
▁ba
孔雀
▁quote
\"`\
他表示
▁Size
<|unused003|>
▁Q
换个
资讯
▁episodes
along
▁ed
▁wiped
这时
ta
闷
▁Johns
爪
▁freedoms
▁destructive
▁terrace
便于
▁Kurdish
注意力
Friday
want
qquad
TEXT
+'
▁hitting
▁HP
红外
诚实
发音
▁negotiating
▁listener
监管
本着
▁Metropolitan
iPad
tc
Second
炳
▁skim
人类的
▁Rash
mad
atted
nChris
▁richest
cms
会使
因地
▁Granted
▁undersc
queue
▁Zhang
微软
公园
高效
▁intr
▁commands
▁harsh
返还
▁wandering
扯
ermost
Trigger
▁clothes
▁traces
▁transc
stere
看
奢
▁Manufacturing
▁atmospheric
▁½
了一套
引资
mates
▁yield
摩
的大部分
全面推进
質
▁ruin
knowledge
仅仅
nTheorem
▁onboard
NotFound
醫學
河北省
的这个
efe
在我国
大师
nWhite
▁Queensland
▁spelled
奔波
睡
绪
滇
EMBER
Kh
bib
▁Grade
nSp
高三
Account
lected
Convert
太原
▁CRM
routes
光大
捷
nProm
▁allergies
汗水
\\]\
标准化
ep
endor
foo
anguard
▁caller
上次
▁formatted
▁mailed
登录
結
那个
▁strengthe
▁testament
全面的
<|unused072|>
▁Access
的人类
不妨
问题
伤亡
收割
最好的
frak
tab
($
失业
stackrel
集群
疏导
▁arguably
严格要求
铝
▁vend
▁dictates
weather
▁columnist
minim
出海
鼓勵
Do
无私
▁Hotel
▁Fig
kers
友谊
▁crews
▁circulating
▁temps
cules
稳定性
▁electronic
Global
年至
学分
明确的
多家
▁Mig
▁playoffs
▁acre
繼
代表了
公交车
欠款
废
却被
afia
tif
▁advances
represented
▁silk
▁Azure
▁ch
▁meas
命令
▁Dir
觀
▁debit
该国
说来
ENC
了一大
白菜
深度融合
▁edit
时间内
▁Bened
不會
简单
&\
二〇一
▁Bernard
▁guidance
▁LONG
▁fragment
诉讼请求
的语言
朦胧
车间
▁feature
▁internationally
shield
▁Ore
▁complexity
ateral
<|unused092|>
栩
巡回
逛
头脑
▁missions
简化
加密货币
▁ditch
直
gr
badge
▁Пи
atic
erness
nsystem
一的
chie
▁shells
abis
Lang
nReturn
▁Leafs
logic
%；
▁farmers
车展
Length
皆是
▁юни
以下是
垣
羡慕
▁grep
摆
Hyper
tight
oulli
▁Finder
▁dazz
▁reflex
▁ever
▁integral
本题
partial
歷
▁speed
形成了
▁Normally
▁Hav
nPrint
▁Waiting
nome
的呢
ammatory
▁certainly
secret
▁publicity
▁Schwar
▁upgrading
▁Current
Sw
不太好
▁encourage
▁nation
▁gravitational
▁very
▁During
▁comp
▁Los
窟
<0xDB>
人才的
▁вре
▁Tri
药
▁Unfortunately
▁ended
▁Did
Max
▁fertil
▁showers
传播
但是如果
角度
民国
})\
中枢
总值
结
script
薛
entities
弧
▁balloons
汕
▁Ising
▁Rank
▁Ret
无论
unal
胳膊
底座
构成的
▁Hills
waukee
K
▁departed
到庭参加诉讼
的控制
▁compulsory
房间里
*{
▁filter
▁overlapping
▁forbidden
▁Jer
凡是
总会
游戏中
offee
放量
Hot
▁theoretical
▁women
▁jelly
sci
▁valleys
dispatch
早点
▁gri
头皮
最重要
▁finer
▁cha
smallskip
VC
集合
▁dwarfs
▁Audit
ertainly
бер
▁leverage
ivor
一口
虐
貢
plant
▁sphere
▁fict
▁brows
▁Дж
iy
▁expansions
Monitor
▁~~
zel
▁economy
▁mature
另一
服务业
▁tunnels
▁allowing
▁Salmon
▁dietary
▁awake
检查
▁plagued
▁Som
简易程序
<|unused002|>
just
▁grandfather
电
瞳
轨道交通
pless
vote
▁sought
▁scenic
你应该
▁cinem
send
▁defects
▁Posted
<0xA6>
tan
醫生
▁contem
isive
nHi
之下
URE
▁devote
保
▁feels
医药
▁MUCH
最后一个
mach
伊始
▁dictators
runt
博士学位
複
▁YE
经常会
EW
迟迟
唇
妄
▁escaped
▁cloud
专利
代价
把自己
露天
One
▁freeze
box
oi
印章
▁from
清晨
我叫
hadoop
▁beads
备用
看一下
营地
不相信
rib
{<
▁psych
家住
首席
▁novel
▁categor
周
▁React
▁workshop
霸
乳
的水平
▁enthusiasts
▁Drama
▁Thursday
query
葱
知名的
合作社
really
▁panc
▁bon
▁Dal
当前的
▁primary
▁elite
▁Legislature
獎
娄
ogeneity
file
////
领
({\
煌
law
▁underest
lob
支配
▁recommends
▁ow
<reponame>
案例
▁Io
▁Perfect
impl
renal
深夜
▁Heat
字符
▁Meyer
▁Lad
<0x5A>
▁ratings
▁arrange
星球
arius
▁di
里斯
▁buzz
pow
▁pause
лов
unks
UTC
pn
▁analogy
仪式
▁griev
好奇心
中小
▁Ana
▁Tourism
▁alloy
▁>>
SZ
▁pleasure
clk
inks
rape
==
尤其
▁guests
▁astounding
▁repe
妥
oltzmann
▁deco
榜首
ncontin
年上半年
▁Ferrari
合作
减弱
裝
▁Island
字节
▁scientifically
轨道
nSpec
▁necessary
ND
▁Adding
新生儿
▁NSA
olded
▁Butler
<0xA9>
▁macroscopic
nProgram
绿
FI
病因
ixed
▁scanner
LAS
飞跃
割
_;\
▁injection
▁residing
idge
nDepartment
幽
破裂
冒
▁co
BV
lay
▁Himself
▁dess
uls
ncurrent
马来
▁Би
多为
osities
owt
rought
绑定
▁''
EFORE
▁Eve
gressive
埋
▁▁▁▁▁▁▁▁
▁percent
▁HBO
是其
please
要先
▁Programming
ambo
reflect
':\
最容易
▁Rose
▁skill
itcher
ор
托
nGreen
yz
▁allergic
atsu
avity
按规定
izar
▁pens
▁Gaz
公开
anye
的条件
termin
▁encoura
恋人
▁Highly
▁Motors
Mar
~$
nEm
Real
▁interim
违约金
ging
iblings
<h4>
*\\
繼續
▁Pont
WRITE
▁Carrie
我相信
▁braking
阴谋
发展到
rescent
缴纳
昆明
▁Fram
▁mess
SESSION
▁poultry
▁loser
zig
MTM
融资
▁unve
卤
▁governments
coord
MI
面部
▁isotopes
▁puzz
<jupyter_text>
有效
▁oz
▁submissions
То
compressed
mith
ific
硬盘
public
文化产业
反映出
sqrt
▁thirteen
拼命
实施
眼光
▁apology
▁humid
作用的
▁uncomfort
鮮
加深
作了
quantity
cium
Enter
▁beautifully
▁tas
▁healthier
节目
▁Yemen
言
nlink
ovies
▁resident
轴向
▁reflecting
▁sus
▁around
通告
mania
统一的
Bucket
prove
不应
集团
▁pH
语句
貌
untime
交易所
痛苦的
▁efficiently
▁whenever
Dan
▁bar
nett
nblack
珍惜
當中
对话
▁plethora
▁Movement
最近
Module
employee
蚊
Ns
▁flaw
二十大
那段
▁vice
自家
各大
▁/><
回家的
elta
予以
▁Cru
况且
gest
▁judge
nJanuary
threat
▁cites
▁luminosities
离去
▁utilized
大面积
InputStream
ORK
▁malf
▁Safe
▁hed
▁слу
▁Hell
▁Calif
refresh
quisition
纺
差异
口径
ACH
rastructure
quiry
征收
Reader
万余
▁Direct
▁Interactive
的气息
▁bird
▁Sport
商店
些
▁пре
isitions
▁pricey
▁fermion
ร
ation
ply
electron
CCESS
之中的
等方面
vironment
加上
artment
▁dile
询
▁objections
ringing
ва
nMaybe
anka
耦
▁alien
▁Cl
ões
sr
rities
地去
▁quo
ustr
▁Data
一片
自己是
说着
接力
asily
巨蟹座
▁{};\
寒冷
▁Teach
▁cleaned
▁END
present
▁тя
▁Allan
文书
former
喜
OLOG
▁Palestine
absor
▁dst
方向的
平原
▁shred
phen
叔
agi
勤
▁al
romagnetic
下图
▁Manuel
nBasically
▁Shirley
tAssert
:
▁cour
學院
▁harvest
mon
▁king
▁Donald
高中
下一步
▁Utility
有不
屋子
ks
nQ
value
▁Standards
门票
▁customization
▁lingering
惬意
小伙子
自私
该
▁Carol
合适
ъм
▁draws
世间
▁defendants
▁roast
▁FOX
▁subgroups
bd
▁Payment
datasets
菩
athan
也将
정
Rob
utz
苷
干
esc
▁slightly
▁downloaded
▁goes
系列的
hint
水平的
用戶
wear
▁scar
▁Wildlife
operator
▁And
▁decomposed
crit
▁***
<|unused080|>
▁Johnson
▁multitude
finished
斌
动物园
▁Appl
▁изпол
nBesides
▁ele
▁XXX
率达
rapped
adj
inx
婪
家企业
/)\
▁started
▁late
▁Without
▁happens
umble
▁LeBron
▁Law
▁Chevy
nA
regular
strom
的保护
▁Var
ickers
在一起
nsc
кола
erman
▁matched
nMs
有种
一想
海口
西北
▁percentage
房产
嫌疑人
earchers
grade
Org
▁hormone
动作
▁deadline
<|unused134|>
Timestamp
ought
▁become
▁newsletters
▁kindergarten
一點
▁eight
ivirus
抛
▁head
▁indexed
精神
▁Mg
的吗
▁curated
会把
优美的
▁phantom
▁manage
过去了
usters
▁sensory
▁фи
Alt
岁
平等
дът
ams
不仅是
应急
▁work
▁hang
tx
iding
priced
睡觉
她说
▁Beth
硬币
▁Nik
▁ahead
▁ecosystem
▁shelves
▁nitrogen
严重影响
▁volcanic
了出来
▁grabbed
榆林
叙
▁Nic
nPost
再来
加入了
▁Pas
Mj
Fields
▁happy
▁athletes
将于
▁submitting
▁grocer
▁intensive
▁example
▁demographics
表现在
MDQ
▁leftover
▁ra
实施方式
▁money
芬
▁patter
hand
▁[\"
癌
<|unused095|>
▁PP
▁Stadium
▁Na
rational
件事情
▁SMB
深耕
分校
岛
医用
▁Act
Я
一种是
之规定
reads
con
viron
iler
▁screws
▁Trend
▁probably
udo
一段
▁Rim
▁sync
▁Israeli
▁juice
范围
▁metall
сен
ト
HG
kes
boy
克制
▁interaction
▁acknowled
▁BO
分钟后
▁stereotypes
▁PSP
rowave
器械
arent
▁fulfillment
pixel
▁separable
▁година
▁Finally
ado
喜爱的
伴
▁film
▁counseling
▁code
}\\\\
健康成长
来往
pled
照亮
Che
onest
宽带
理财
▁polarized
和生活
旅遊
▁serum
▁strateg
Cref
amm
尔多
nAll
nstructure
▁mildly
arding
▁emerge
没什么
在心里
ndistribution
fake
燃烧
▁virus
极限
预售
震荡
▁villagers
▁Storage
ord
硕士研究生
▁weed
▁duality
<0x20>
▁FAA
▁ceilings
▁width
▁Huffington
▁Hub
重庆市
▁impress
见了
▁Dash
▁distributed
新能源汽车
▁hobby
我可以
大街
▁testify
莫过于
友们
<0xCC>
▁cortex
ancel
▁Kyle
ationally
▁devices
只剩
▁Drupal
无人机
▁cant
也不要
立法
▁decimal
pop
重庆
的气
}_{\\
enry
注重
жки
GIN
存储器
jah
ART
▁spiritually
依然
▁binding
所以在
Performance
ibl
体温
抓
▁merc
▁columns
▁closure
越大
▁Buying
▁tailor
ath
▁prone
▁installment
筒
运营
▁nerv
zilla
▁floating
客户的
>`
▁RR
nch
▁estimation
买了
ould
▁ETF
Strip
雷达
enum
▁seize
pect
经验
haven
布置
当你
++)
requires
▁releasing
otomy
LA
▁patrol
▁filthy
<0xA3>
▁Gonz
Java
▁Surve
疾
叔叔
红豆
▁trophy
的主题
▁retention
▁That
Studio
暖
Picture
学费
answers
自
LS
PHONE
▁Ish
弟
▁old
党组书记
▁ven
▁four
首要
』
punct
▁veterinary
▁NA
广场
淇
高手
▁consumers
大多是
位的
bigskip
▁Lanka
▁speculative
▁resembling
發
ull
工作
QUEST
pert
的一致
selling
resses
▁stub
▁opted
▁Spect
npart
usive
▁minority
absol
哦
媳
kernelspec
姿
${
▁connects
▁energy
compat
▁Exception
▁figure
终生
▁giveaway
▁denial
▁R
Inject
的是
溶液
вни
▁cholesterol
人脸
Tem
▁leash
▁ritual
▁issues
rating
vol
大地
▁rustic
▁cont
nterm
<|unused124|>
ches
nergy
▁support
▁не
▁dil
nIm
▁courtyard
▁EA
diagonal
▁parser
▁hamm
olves
erry
▁Anything
▁$<$
▁naval
▁rhe
▁invalid
prof
▁Thanks
▁ця
舌
ndisc
采访时
'_
▁attitude
日生
擁有
不够
▁disputes
心动
▁entertaining
▁};\
▁softmax
nintegral
塔尔
P
▁visitors
愚蠢
)}+\\
ictionary
▁disorders
sidered
氧气
adi
uild
护士
▁detention
苦恼
▁Finland
▁Jew
ingle
得的
▁peanut
▁excess
居民
▁fronts
▁dad
tar
▁ramp
ella
▁exercising
▁handful
前线
▁differentiation
▁Musk
▁Clear
onz
▁cage
nFirst
肢体
among
/~
▁viewers
对立
▁init
▁agon
大部分人
Any
▁picture
▁hem
▁Trin
担当
原判
▁Discount
▁comple
提供
显示器
artner
▁Austral
了一个
invest
背部
escape
hline
▁esc
▁VR
有
出生
▁Х
▁dimin
template
剧本
▁changed
pable
ME
一下子
▁consultancy
最好不要
点点滴滴
量大
美國
nAnal
乡镇
民進黨
获得了
▁zero
▁societal
▁nonnegative
指数
▁Final
mapsto
的身影
为此
▁collections
で
会长
▁legisl
▁cards
▁protocol
▁composers
奖项
groupId
甚至是
内地
▁wounded
▁keywords
▁horses
archive
ront
▁superficial
▁mining
▁appliances
▁Ultimately
如果不
▁hath
▁raids
▁Roll
transfer
亿元的
▁levels
灌
зон
loss
▁thousands
全世界
头晕
▁Plot
▁renovated
ests
军训
▁infection
▁neglecting
▁reopen
不平
access
▁presum
job
▁Reporting
果园
约为
▁commem
▁distress
▁muff
艺人
总支
▁blinds
▁terminate
昼夜
iac
▁outs
▁strains
antes
療
▁Ann
▁responses
▁Ри
kok
▁photons
▁defeats
▁Warner
ties
▁Mink
▁promotion
▁glance
apore
▁EC
▁enzyme
▁Americ
otimes
改革的
▁hesitant
▁concludes
nlook
▁EDIT
will
standard
残酷
▁Kap
▁secured
年开始
真切
Coin
做什么
拂
毫米
▁rookie
▁precisely
▁entertained
▁Veter
clos
脑血管
试探
▁emerged
Dead
subset
▁logo
▁Fashion
ą
мент
▁lifted
▁eman
skin
indow
nK
":"\\
图书
▁condensation
Ref
Bit
▁organisations
我们都
祭祀
oper
▁convolutional
峥
个小时
职场
nSize
ccoli
▁transmission
COUNT
字体
budget
ernand
nsup
城的
医疗服务
▁sang
mathfrak
birth
中華
擬
▁customizable
▁Jennings
}_{
▁Eq
▁slip
▁Lot
这本书
▁Each
着急
得上
eri
zx
▁studies
也可
葡萄酒
▁Destiny
▁origin
▁Palace
▁Paula
dfrac
▁glowing
▁College
▁embarrass
句话说
轴承
解锁
nRichard
start
▁starred
atin
vx
▁lawful
npres
uggets
produ
▁Rio
▁strat
▁β
瑞
▁static
▁leadership
任职
▁Sudan
▁chop
▁Oh
▁polished
▁grounds
ilateral
()));\
房子
▁cents
自身的
iring
▁Syd
▁webpage
▁MAR
▁dz
结束了
▁heading
▁initial
▁dx
▁Salt
Af
▁guild
lifting
精神和
▁trades
吸入
正经
blogs
▁None
▁form
来越
▁pseudos
ward
无视
▁combo
害人
▁helicop
Raw
的角色
▁Uncle
▁AP
占用
▁allows
仆
欢迎
▁say
<0x18>
▁left
▁recent
ститу
结构和
▁concern
Em
aba
afs
▁outlaw
负面
▁overlooking
▁referencing
垦
heid
nassociated
▁CLI
▁demonstr
delete
nRE
诉讼费
my
▁Matt
天鹅
▁City
acc
nec
VERTISEMENT
▁indef
▁Rou
▁Crawford
带动
▁Pant
▁body
▁exist
jupyter
liness
的衣服
estival
▁$[
护卫
plets
▁Friendly
▁sources
isson
▁ще
t
<|unused105|>
非常多
参
扭
▁clones
卫生间
▁Breast
small
▁Represent
基准
比賽
卖家
ussing
资产
▁Interesting
赶紧
设计的
训练
▁discomfort
▁ward
▁Austrian
▁motorcycle
▁persistence
▁Afghanistan
▁Runner
棒的
oggle
▁individual
公证
▁Banks
▁[
▁evening
信息化
'}(
也非常
Mag
diag
▁furious
▁`${
name
▁гла
gent
具体
ronic
▁average
切断
▁DI
▁murderer
▁booming
anish
▁altogether
不必
花开
精湛
uggest
宁
傑
tol
缉
自己对
中原
▁Cer
▁nurs
utions
▁virtually
用电
物资
libs
ailed
环保
bath
▁endowed
}|$
▁attempts
▁International
profits
▁multim
Th
▁desktop
▁gears
一堆
▁msg
Pixel
镜
▁);
▁wanted
处置
▁ta
我们认为
和家长
國民
Body
▁tense
年代
igital
改正
費
先生
^*_{
省委
▁fast
▁exposure
nhow
密的
只要有
覆
TX
我认为
Power
人居
▁connector
确
▁layer
nchange
劝
と
emade
▁evident
▁живо
uits
止
更改
mph
▁thing
主帅
候
趁着
▁petty
澄清
zzi
epend
峰会
积极配合
▁modal
▁disposal
学年
Integer
current
▁turkey
▁obligated
allocate
cord
nCould
textsf
十分
▁comfy
政协委员
nNO
ved
▁Dutch
▁terrified
▁shit
选举
▁Foundation
▁extension
▁generosity
内的
在此
翅膀
▁Maver
▁clarity
priv
学家
alse
开工
your
▁Email
▁tho
▁atten
▁skeleton
缓存
▁Sof
nConse
臉
▁requ
▁typ
YC
radius
terior
黑龙江
筑
▁JD
铁
主管
▁Similarly
量刑
ardon
▁Poin
raft
▁If
▁crush
DELETE
那麼
招收
▁blood
新风
tas
▁acted
▁Unlike
ORN
進黨
大姐
▁Geo
▁immigrant
ito
▁Pelosi
▁medieval
创造
天然
经济效益
▁serve
中最
▁bricks
▁inlet
俊
▁nons
Op
san
detection
yal
周日
瞩
时间是
▁properties
▁Products
▁having
▁hates
打通
▁wait
▁messages
▁grey
feat
比特
已经是
数据的
▁xen
接触
束
▁circular
▁decent
Stage
raf
▁counter
重生
евруари
掘
嚼
訊
▁\\{\\
▁put
马上
▁elegant
▁Barbara
▁element
oscope
▁maritime
惊叹
服務
解读
▁penalties
▁‘
阿里
ек
▁Bulgaria
rt
▁fetish
▁рабо
lantic
辨识
▁Yose
▁filming
渺
▁sky
严重的
лаго
▁veggies
科幻
▁Mour
沦
nthetic
▁Broadway
小镇
▁Maryland
mutex
▁vein
gies
梦里
▁Contact
OMA
大跌
不到
回首
▁Fact
▁slogan
rid
OUS
蓝
▁counts
明的
▁Consulting
nEventually
说出来
了一批
<!DOCTYPE>
▁Really
▁Attorney
ilings
▁ll
mentation
▁feed
▁IBM
▁humanitarian
▁sympathy
<0x75>
很明显
▁Labour
Req
我个人
机能
井
小区
▁Str
草地
专业知识
孩子的
uble
自驾
▁iP
gone
ipient
▁Lav
旬
一听
排名第
将与
▁kindness
precision
tthrow
▁Turn
iem
forum
轰炸
@@
ussia
▁Parks
Comments
▁vot
ref
上了一
▁Expo
olds
作战
aming
▁TeV
lation
▁Poss
INK
▁Billy
▁Cape
言之
nfunc
▁rotating
英镑
▁endured
▁tact
郝
▁luck
六年
adors
▁PlayStation
increasing
isset
nauthor
▁Compton
▁unfinished
提出
▁bottle
dit
▁Celeb
▁Found
▁extraordinarily
▁writer
規
系列活动
▁synchrotron
▁remix
polar
▁Topic
瞎
权利要求
practice
舉辦
▁obedience
▁Eating
▁monitors
uese
幸福
强度
防
▁SATA
▁remov
▁DEFAULT
▁Economics
reement
▁Nit
早早
ABLE
通往
▁stripe
▁villain
plugin
Print
▁desper
；“
▁displ
你所
▁dodge
▁ripped
▁training
能使
待遇
▁covenant
职务
quite
一项
▁overest
▁French
Sample
华北
isites
▁Lodge
▁finding
prime
▁Punjab
BN
вет
▁processing
▁hence
▁Wisconsin
奎
▁ImageNet
▁Hillary
proposition
万亩
Cart
▁Wade
▁innov
就好像
对接
▁Dod
▁verification
公布了
邀请
cdot
▁}}\"
走出去
hang
▁hardcore
我们来
▁eternal
花了
是无
享有
她的
▁Legisl
izers
▁pitc
狠
▁margin
active
▁Rails
}$
Middle
▁Line
了起来
bil
倒是
问卷
▁Athletic
bsol
acters
▁reply
}}
继续
你我
▁surpassed
膊
风味
忘了
第十
▁trustees
▁RGB
curities
链条
▁singers
▁yarn
depend
小腿
widehat
渴望
▁unemployed
▁carriers
的范围
和使用
Research
<|unused046|>
意味着
▁energet
大气
疚
内心
рабо
itant
itles
nError
ractions
▁Weekend
▁incub
▁fingert
▁alter
▁microsc
行星
▁facility
▁Fans
ampion
可再生能源
▁condom
自负
社会科学
类似
ocket
▁inhabitants
activation
▁homosexual
蹦
▁coral
nRep
▁anomaly
▁manufact
loads
不舒服
chester
cery
▁inform
紫外线
影响到
▁根据
>)\
▁unveiled
误
椰
▁law
不分
恰当
bone
唠
▁towards
く
тур
▁article
inite
plitude
这类
惬
转子
Which
eted
▁satisfying
itted
▁interfering
▁Съ
▁Turner
诗词
▁notebook
▁programmer
▁Strange
ns
Registry
▁linked
▁SAS
▁absurd
▁default
ieg
厕
小微
nHop
emi
▁heating
▁А
▁teaching
又能
这个是
\\'{
属于
▁children
▁German
侵权
illance
jective
succ
成功举办
▁gallon
▁AT
▁facing
践行
Password
▁replen
▁breakfast
▁intellectual
▁Cherry
nform
▁~\\
▁ends
▁Pon
身份证
▁Aviation
▁Grace
ands
жен
▁hooks
mnt
牵头
▁decoration
麒麟
死于
apper
出品
返
敷
小子
▁burning
▁returning
年代的
W
sports
▁treatments
▁Floor
▁leads
admin
▁cocaine
▁Philos
nSubscribe
long
机关
阅
▁sket
用的
董事会
apa
▁Mex
审查
▁productions
▁end
▁Solve
▁wee
they
太空
▁implication
▁earnings
▁custody
▁[]\
▁predator
▁turtles
▁categ
那就是
hot
小的
▁tactics
认购
增长了
▁cuisine
eering
ausible
▁Blood
▁Away
ench
Msg
▁Renew
▁functional
的特殊
▁CPU
建設
irect
▁relocate
捐赠
▁ox
=\"/
eller
東西
恶化
<0x5C>
陷阱
▁ongoing
心地
有这么
▁referendum
辩护人
AGE
fil
lers
▁Da
隆
<0x71>
▁Dur
▁excav
这款
二楼
廉
▁Arlington
identally
▁liber
▁SF
▁baskets
英文
▁tidy
Broad
据了解
栏目
伴随着
衛
街区
Ms
pick
nResults
溢价
▁alike
▁emperor
creational
脉冲
飞扬
ulumi
采取了
ners
append
]))\
▁hostility
от
▁mem
家务
一脚
nApril
ression
▁Gray
▁Gas
MY
nPolice
?
▁criminals
▁au
▁taxation
▁Bren
odynamic
某
戰
▁inconsist
они
▁waving
poser
▁Ти
了不起
▁Pole
<0x29>
▁amendments
张
▁conflicting
npm
常有
▁capture
枢纽
包容
▁Registration
▁Fol
挫折
▁Membership
▁cheesy
ome
▁complain
rror
阻止
hock
第二百零
▁messaging
的国
BBC
▁backwards
argon
▁Networks
优越
的水
暴力
▁partisan
Intent
▁intolerance
▁Gran
가
definition
infty
article
▁portion
▁smoothly
▁sure
nIng
▁sterile
看起来
能
▁good
川县
赢得
▁inte
▁Min
拖延
▁able
Red
▁maximize
▁Lucas
▁Ink
ien
千瓦
▁caramel
▁runner
衅
▁worthwhile
▁Lar
kv
still
散热
▁remnants
▁diagnostics
▁Quarter
▁continual
▁followers
\\#
ската
司法鉴定
之
nstates
▁Ju
脚
物料
熟练
那一刻
的美
ulty
▁reserv
sampling
▁stretch
▁dollars
rivia
▁wx
发泄
▁sacks
特的
▁Use
▁Barcelona
卦
▁Archives
▁horribly
▁smallest
▁Caribbean
▁Spread
▁supporter
▁vortex
▁Ger
ermed
uba
▁antagon
orters
▁endeavor
▁Weekly
▁model
男孩子
游玩
▁Ва
▁legs
GU
都要
nOrgan
nPros
require
ahn
▁inventor
台灣
例外
老虎
▁Atlantic
的在
град
▁confusion
首位
if
利于
这块
与众
aghetti
▁faults
registration
的宣传
urally
名为
▁coordinated
regon
▁cooked
▁monument
▁phen
Article
不可避免
▁Thu
inberg
的前提
而你
漫长
歌词
关心的
年产
的美国
untu
iya
复合材料
▁shortly
诉讼代理人
▁island
上诉
oday
Future
党委书记
ULT
▁Emmy
滅
平庸
▁thy
洞察
▁Harry
▁Chang
esse
\
ecc
期徒刑
▁flare
人性
▁crushing
▁quen
▁作为
十四五
<|unused110|>
itative
others
▁ego
ＸＸ
波
faith
istant
翼
attribute
rotation
▁traged
大部分
▁female
▁anc
三星
dummy
姆斯
yo
医师
▁irrespective
de
的意义
不等
▁Ha
▁jail
affle
测定
▁choke
难题
comments
dc
和水
▁garnered
fas
立德
高
▁Spin
▁ecc
▁amusing
▁predecessors
hspace
'')
要将
iful
▁Wor
▁Americans
这一
建筑面积
▁nutrition
▁Hence
nafter
nstill
nJob
归纳
MOS
▁concert
▁fir
rm
一手
赞美
▁Hotels
normalized
国家的
党校
vare
OCO
▁Shut
系统和
我局
初始
ocide
abit
没收
镇政府
▁TOD
既能
veh
赣
geometry
佩服
包裹
路上的
黄河
淌
▁stro
烧
動作
OOOO
永远不会
imonials
later
▁Ma
愉快
▁hips
▁Joe
▁poker
▁Ry
▁learners
▁identifying
thal
uish
▁lad
▁Besides
踊跃
▁mutations
怎样
扶
▁Farm
TPS
▁IEEE
▁ignore
Bur
设置了
▁Tin
核心
ython
▁slower
大人
兼
history
套
cio
为主的
和我们
Ty
大学毕业
▁puls
zon
\"+
饮酒
▁joy
▁Heisenberg
orgeous
思想和
▁supervisors
▁priority
穩
i
▁survived
保卫
-$\\
Res
Large
ek
▁University
withstanding
在医院
脚本
▁Lif
Mobile
女
营业
故障
▁unwilling
白
▁pharm
文凭
▁Walker
▁gonna
总统
ife
▁occup
▁进一步
▁iPad
▁Nikon
land
稍
▁fluids
particle
▁vari
anga
窗
▁pioneering
原审被告
▁Scotland
quark
icycle
实用新型
Theta
的心情
不懈
absolute
▁giv
都被
▁tons
▁torque
<p/>
水源
WIND
就这样
▁synt
▁organic
打破
▁dried
andard
▁spider
_{|
▁rate
嘘
={\\
领导的
被害
消耗
▁introduce
▁adopted
心理健康
ncan
on
▁mark
▁Generate
defaults
вото
▁Ep
▁guitar
多头
▁UX
flu
鬼
将从
關
neg
▁perks
管理的
赞助
棵
andi
▁bre
▁OD
jp
▁farm
▁graphic
▁sty
nPrivacy
对人体
劉
▁posting
dor
投产
干部职工
▁eigenvectors
roles
▁check
herical
情节
今晚
nback
双方的
▁Neighborhood
html
MTg
脸
梁
发布会上
performance
generation
广泛的
短板
▁medicines
major
胡椒
流失
▁Publisher
有的是
▁Christ
有小
RU
▁appendix
Texture
<0x46>
▁ways
之多
includ
▁btw
▁grinding
QD
*/\
Newton
▁military
▁dé
sudo
▁sanctions
Return
▁massively
▁bacterial
<|reserved004|>
▁affected
祠
▁grew
▁connectors
▁accompanied
▁underlying
卓越
CAT
就没
Al
outheastern
ight
▁MBA
▁mount
▁myst
动人
Of
本来
▁continue
tcase
素的
▁babe
▁различни
apple
MzM
▁Cash
▁expanding
▁🙂\
列为
▁supporting
FFFF
▁variety
可选
user
▁fetch
▁Holiday
colors
ntypedef
rail
▁coup
▁existed
itable
科的
刚开始
感覺
严禁
▁вси
ца
▁Prem
oples
哥们
▁adul
nrequire
jin
Qual
World
联合
period
▁glossy
试验区
curve
Done
报告显示
产权
之以
画卷
即便
奖学金
▁Frontier
消防
都以
▁lith
尽全力
足协
▁KC
▁Tax
▁diffraction
游客
▁stations
▁recovers
挑
椒
->
VE
▁Mile
独具
fitting
学习贯彻
組
毅
▁needed
洛杉矶
▁cliff
▁
▁Collins
一站式
what
▁finalized
utive
卫健
dollar
\"\
不通
理解和
蛇
的过程
▁propaganda
▁Yourself
▁nephew
的手机
放学
重建
▁\\\\\\
▁chief
yahoo
面包
▁meth
▁purpose
▁associates
▁Rover
羁
渝
▁Auburn
龟
▁Parish
元的
▁renamed
MV
缚
Dam
全部
要做好
驾
▁charger
发改
也无
▁Income
Rx
不已
fh
Nodes
▁subsection
和一个
的生产
东北
生效
两天
▁gang
二十年
汛
optional
oped
Graph
▁Molly
ottle
或缺
Fail
nut
▁milit
Ops
iri
水质
就可以了
seg
(<
▁Community
nHand
▁rewards
丛
▁Cock
▁cautious
ael
无穷
Training
丫
▁compress
发布了
nExternal
走廊
荣耀
栅
方法和
Trust
日止
notin
▁Conservative
twhile
責
瞭
▁trough
脉
▁rat
nEnglish
▁Mul
▁subtracted
▁placeholder
zschild
▁inherited
▁reside
直面
▁cs
})}{
speed
Click
ulp
Extra
▁Interstate
Cs
metry
▁Willow
祂
来了
▁mechanics
▁bipolar
▁mission
▁fruit
erson
▁determined
▁forgot
▁bypass
third
▁Youth
并对
)`
<|unused022|>
▁BEFORE
▁Ба
▁eBay
仅
来袭
▁chi
桑
builder
olis
尋
PV
天文
觀察
▁Box
fields
lies
也不例外
▁Storm
Lif
▁intended
在这里
▁declaration
▁garments
揭
▁advisers
▁dys
▁payable
噩
和我
▁Turt
环
nExperience
▁perception
▁IX
囊
nSch
cedented
Har
▁superhero
▁higher
▁marking
▁angels
ef
ips
VPN
iasm
破产
蜀
▁Britt
▁unsafe
▁reproduce
異
▁Trophy
Ap
簿
▁Statistics
▁Wong
▁appe
▁succession
这点
▁platforms
Compat
▁develop
要比
▁legitimacy
ork
lando
▁desperately
之余
瘫
▁phr
▁reservations
甚至在
▁AMA
▁almond
projection
Tensor
aco
顺便
示例
][
▁installer
博
▁async
▁downt
红线
does
join
裁员
少量
几百
▁CAD
▁\"#
▁Nursing
车身
▁intelligent
agle
数码
不出
▁greet
)-
raq
▁priors
烛
又有
▁Illustr
圣地
党风
▁exert
ialog
▁glitter
兵
將會
▁faces
两委
一站
▁fashion
完善
最快
▁licensing
诉请
clin
▁Abstract
band
古装
相关负责人
▁Crew
hardt
reme
▁um
▁Qaeda
Delta
atisf
太子
下一
▁Nissan
Stock
Try
给了
▁abilities
▁poles
浦
▁Liver
随手
▁plugs
以为
bert
打工
▁reviewers
▁transport
ра
▁preference
下午
▁author
joint
▁router
nSc
▁LI
變成
‎
nand
onical
ruck
]^{\\
燒
▁Meanwhile
▁Lab
▁carcin
經驗
▁Journey
▁assets
▁innocence
▁Rup
▁Deal
面条
▁jeans
opens
nRon
弟兄
这两天
▁evaluate
▁practical
▁Bash
▁[…]"
▁mercury
黑龙江省
jit
stant
只知道
why
Elements
压缩
Obama
指出
旅游业
Price
▁girl
▁blend
stration
▁Numbers
暧
▁sigma
被骗
▁ball
UINT
身上
发行的
４
▁Fuel
▁broaden
高血压
等因素
propag
newcommand
五百
诵
资
Shop
▁excurs
LENGTH
▁provide
longrightarrow
不
atsby
<li>
▁WIN
▁定
:**\
心生
ikh
作的
atti
悟空
有几个
bab
汗
▁profitability
诈
期望
▁IV
▁humble
▁bad
▁Burger
强调了
cell
孩子们
火车
▁arthritis
▁Chaos
})(
ipeline
的一点
▁structured
涂抹
▁Wet
▁Institution
号
mons
▁fallen
yu
arer
迎来
Contact
▁Expl
可以让
▁included
▁defaults
收费站
▁piv
封建
情侣
Command
CHA
从
▁schemes
妍
rapy
孩子
场均
▁ind
为基础
▁Link
=\"\"
▁establ
<img/>
▁fireworks
若是
▁kits
▁Ple
▁discharge
▁contraction
▁resides
就是你
心理学
貨
▁np
▁USD
你是否
▁Southeast
nAgain
OQ
淳
如果在
Cube
起
巅
史
香蕉
桶
▁bog
▁nud
ensity
▁Palestin
IEEE
▁pointless
▁Harris
也就是
▁colab
他自己
verting
Metrics
▁spe
▁solved
▁Castle
▁God
▁Eugene
▁PowerPoint
烂
区块
▁vengeance
歲
니
都需要
▁prosecution
▁sandwich
еле
▁frequently
已经被
fish
▁drink
▁Noble
涅
про
▁newest
Cal
roots
仓储
▁Vision
▁Vis
的重要组成部分
QN
享
▁setting
▁separ
ро
转变
GY
▁нау
公里的
▁empirical
▁compre
▁Imagine
长辈
setminus
nBlog
▁puts
ented
▁among
我曾
Left
▁handgun
▁height
粟
afka
onent
切尔
▁advised
nname
bur
爱你
initial
▁Watson
伯
Comb
皂
殴
不仅仅
▁ask
骗取
以外的
荧
▁的
▁Tracy
▁EVENT
▁sidebar
мата
▁spr
▁creek
▁sleeves
▁understood
sq
不小的
nPer
nwhen
▁novels
eenth
提高
▁Blind
Phase
▁Wo
<|unused060|>
adapt
照射
考核
▁crying
ITION
▁suspects
via
▁regress
劳
▁Open
大火
同日
▁wandered
itons
sic
▁goodness
如果
▁MLB
▁videos
eton
▁Slam
到我
””
▁witty
▁broader
ATCH
MBA
▁dro
▁cozy
▁adjustable
▁Score
干警
扭曲
还被
学术
▁висо
它会
员的
▁replacements
===
在那个
早期
▁Malaysian
丙
势必
党的十九大
▁Blogger
喉
nCase
内涵
固定资产
▁SH
ications
▁delivering
资源和
ha
▁elect
<|unused008|>
▁pests
▁Lim
安装有
▁cop
产
▁reuse
averaged
tyard
oda
开户
Ast
排名
充分的
AN
▁pip
roscopic
VA
平凡的
▁Edward
▁Gad
送到
tassert
Mot
▁mortgages
ninst
是什么
靓
▁musician
我希望
未来的
賓
nof
逆
▁terrorist
▁undergone
救护
銀
▁annotated
▁veto
▁locate
Ham
▁merchant
视力
▁decaying
稀
▁routines
并处罚金
学会
▁counterpart
问候
sav
five
▁China
▁compression
omore
ithub
▁Atlas
▁needs
itter
僵
▁herself
nAtt
<0x7E>
irm
▁Metal
▁tasted
▁vacations
>>>>
▁mont
▁Freud
坎坷
▁pudd
▁producer
▁utterly
▁Hawaii
▁criticism
▁desire
tu
▁verse
▁manufacture
ern
enced
▁twin
玩的
▁Stamp
uncture
▁lava
▁apparel
狗
▁workforce
▁Kan
inear
访谈
▁mediocre
Error
凭证
七条
Prot
▁Worlds
▁detract
都可以
为宜
ein
▁Cincinnati
▁King
▁Uni
唐山
▁jungle
▁lifes
▁Ideal
nWh
行为
It
▁blockchain
▁luc
▁Set
protect
▁Musical
▁neutrino
柔性
思念
才能
▁Rivera
▁curve
▁brand
eral
分的
<img>
▁bishop
▁applicants
人民
都
一定是
▁hooked
▁possessed
▁Within
这方面
▁parking
ood
我现在
▁refusal
volatile
>;\
是一场
▁send
彰
辦理
跨境电商
Email
tier
工程学院
▁climb
▁inconven
敵
▁checking
▁Pavilion
▁practice
ximity
isters
▁twisting
卖
▁discarded
▁avoids
指示
▁analyzing
在做
▁Wolf
Assert
▁разпо
才行
址
▁researched
end
▁Mortgage
输出端
Drive
线性
▁highlighting
▁predicate
▁collapsed
▁goose
▁behalf
亲自
▁finishes
▁promotes
▁rows
^+
uff
itating
实物
▁towns
在外面
▁psychic
航
▁Neither
▁Notes
omical
anza
raining
colum
玫瑰
总有
)})$
剂
▁alcohol
nApple
▁helps
Library
资本主义
duct
Android
Sty
▁juris
▁Strateg
AP
Mask
全球化
quette
oring
如何在
▁adversary
博主
nom
iously
ish
▁mixture
扩展
判处
后再
泄露
①
▁diploma
nSmith
▁professional
▁anime
▁recalled
▁merger
社区的
在我们的
扫码
▁sal
来做
▁elected
▁cigarette
▁pos
手上
▁†
索尼
記
▁toile
▁events
▁осно
्
▁SO
主干
▁UFC
pattern
品德
Desktop
▁smartphones
与我
▁dozen
四次
所謂
洛阳
绽
不利
是人
▁segments
▁dioxide
▁distracted
食欲
▁PTSD
诱发
油价
▁cohesive
情景
▁fa
closures
▁发明
满分
▁shades
狐狸
▁Bowie
ader
驾驶证
▁color
▁oh
贞
cas
物种
造价
▁Biden
▁rotate
pleasant
ulators
亮点
分明
迫害
与自己
的低
Mi
▁REAL
▁Titans
▁academ
oder
液
附属
▁spatial
一般来说
指纹
nmodels
▁surrounded
意境
▁With
不甘
nco
▁zip
电动
一整
▁locale
▁buffet
neither
TODO
nPack
巴马
―
想像
日军
▁tweets
AMS
镑
▁Indigenous
olerance
▁writers
▁peripheral
itched
▁SE
Copyright
核准
特
▁Sisters
▁desp
格外
是他们
９
▁conception
TYPE
▁Ol
markdown
或许是
▁motivating
乱
iams
▁ня
另一个
▁Rafael
▁anisotropy
▁respectable
anie
Yes
allenge
▁furnace
reements
不一样的
▁https
Boolean
atre
map
▁NAME
ernel
越高
蛋
▁instantly
elif
▁Stanford
冷
獲
吃过
Components
投资基金
Term
nstat
▁Expect
Appl
▁canon
英语
tons
▁distressed
▁washing
フ
</tbody>
▁Trump
▁birthday
▁ruling
▁dispatch
▁brother
nTele
nLink
浏
▁violation
▁authentication
▁Pra
并发症
PAR
lite
дове
😉
swick
肩负
cref
▁discover
▁eval
oor
stable
样
▁rend
降低了
▁Graham
|_
▁best
ysis
盼
▁currently
江北
屈
▁engages
站起来
巍
}^*
CY
▁remainder
很强的
▁ess
的相关
bucks
逐年
▁lack
▁sleeping
有期徒刑
的经济
Insert
商业化
和美国
診
▁VC
▁cracks
▁servicing
接下来
▁kinds
抖
并不能
enburg
lp
▁Kardashian
Leg
▁Administrative
成年
▁Scottish
▁thou
键
micron
名义
申請
▁Nom
xz
▁Adelaide
ying
▁fasc
▁silver
采纳
ís
▁resur
▁proton
背面
較
Tip
了一次
past
表面的
nThus
队伍
權
蔚来
▁supportive
ild
▁topped
}}}{\\
体能
Enum
sin
▁mix
edly
有一种
▁Miranda
▁Zel
▁dialogue
got
坏事
iration
се
nhe
看得
▁Tale
人道
▁wavefunction
被告的
网络安全
nlog
样的
古城
▁SOC
▁descent
leqslant
▁catalogue
南非
$^+$
▁Progress
ymmetry
蜜
清除
▁Iran
▁cooler
搜集
$$\
成分
igr
▁AU
nsome
水准
主机
▁Haw
▁gaze
之外的
▁textures
mighty
LOB
研究和
缔约
▁NYC
State
新西兰
▁superstar
issors
ulously
德拉
nUntil
产业园
入了
▁upd
shine
▁notion
э
witz
孩子们的
nmon
突出问题
mostly
加大对
▁Noise
是可以
▁awful
▁AMD
acterial
咽喉
▁extremes
▁absorbing
▁време
nDev
▁palate
imgur
▁traveled
甲方
urance
吃了
俯
▁Н
nals
▁fireplace
zer
鄉
菩萨
▁Cap
▁regulated
▁Path
senal
▁aura
▁fear
▁beneficial
導
▁wishes
nWater
所致
nSil
分手
多功能
中国在
课堂
orns
的感受
▁ducks
▁joke
▁hypoc
▁delayed
▁Coin
之气
人民法院
最佳
▁motives
atten
▁runs
▁sid
▁HDD
WORD
▁Susan
元钱
Qaeda
諸
ianne
冲击
主编
现已审理终结
▁Configuration
重重
ariat
▁plug
android
bsite
ante
不受
nAnn
▁look
nreturn
▁Wa
浓浓
pol
单独
▁GHz
hpp
星辰
ibaba
女士
Sleep
们在
约有
涨停
▁maj
美方
▁remember
)}{\\
前期
▁NEVER
▁reflective
nAdd
▁Glo
▁Admin
▁engagement
为止
▁figured
▁redirect
节目的
Equals
方式
OH
各班
[/
▁filtered
被认为是
<tbody/>
problem
调控
\"))\
Resolver
aic
▁version
签字
触摸
偉
延安
▁bedrooms
…
Про
最关键
默
近年
dx
精心
近几年
▁//
urop
头的
▁PST
说得
▁inserts
nD
items
ursday
一分
▁Performance
涂料
▁lil
▁exposed
unted
egg
▁slit
▁app
率和
▁hearings
石家庄
谋划
letters
▁compens
久而久之
先进的
Think
▁physicians
▁enlarge
urer
▁bulb
▁retrospect
irections
▁Roman
▁tightly
▁Zimmerman
▁tear
实质
message
拦
▁eh
▁GM
建筑
▁relation
▁Syl
Ber
▁chic
业主
▁confession
▁Inner
确认
▁union
▁arche
过去
其中包括
▁Eyes
▁silicone
when
▁ill
装饰
subfloat
▁Fighting
▁assigning
('/
烟
行业
▁massage
**:
▁hinder
隨
下载
知识和
▁Nebraska
白的
天涯
▁Third
▁sexual
ndb
▁entering
刃
老
▁inevitable
MzIy
在人
▁clone
▁privileges
▁wardrobe
alli
皱纹
nHer
是无法
<fim_prefix>
▁solar
▁afforded
自己的生活
▁reads
▁Following
chapter
Phot
锦
ン
▁tsp
▁Indones
ship
蒸发
▁promised
▁constructor
▁Mill
nMod
毁灭
▁externally
濒
时钟
ore
▁building
tom
▁chiral
league
氧
levels
Ter
erguson
▁images
ski
▁Circ
label
号民事
不绝
Mur
µ
Anyone
焕
睫
她是
▁Nope
nDo
▁confess
versely
▁foam
但是我们
出租车
子弹
▁Insurance
军区
逐
▁Jamaica
amilies
Need
院子
的那
▁investigating
'=
非常好的
办事
amos
iku
▁suddenly
确诊病例
▁Nationals
打入
▁par
nMiss
▁CAP
▁Chand
RENT
之所
构
hoe
leges
学好
▁blows
随意
icro
ipers
分享
iley
new
MzIw
仪器
顶层
▁readers
ospel
▁travers
▁summaries
奔跑
▁Recipe
二月
▁cabinets
道路交通安全
fficient
▁experience
▁Contemporary
▁sofa
'))\
▁many
ICES
遺
为一
ity
下一代
Compact
▁reacted
刚需
▁Pear
▁Eric
category
亞洲
常用
▁Keen
▁October
入侵
preview
▁lament
掠
ige
▁generalization
owing
的事实
年中国
▁carn
新冠肺炎
可控
月球
首页
)]\\
▁本实用新型
▁tearing
恐惧
▁RG
舱
更多
年龄
▁DNA
▁threatened
▁allegedly
▁Operation
▁IPv
▁seven
uate
▁TripAdvisor
行为的
惠州
▁Denver
▁digit
Images
▁Performing
也没
▁Land
红薯
▁assurance
▁Juda
▁coven
▁ORDER
逍
▁battled
▁Roger
并为
▁atheist
disc
▁slipped
这三个
进校园
▁senator
婚姻法
宾馆
nthesis
▁occurred
▁Viv
、
▁Depending
▁appar
▁Lum
▁elliptical
榕
甜
intendent
耳
▁conform
也许
▁lept
乙方
вете
成名
立方米
左右的
进一步加强
符合
▁libraries
▁localized
前十
+
▁undergoes
▁city
ouched
以下几个
▁Carl
党工委
▁polarization
假设
斋
处理好
我们现在
aly
只是为了
▁evidenced
nDef
▁Mag
▁USB
ode
▁Ireland
风吹
<0x8A>
▁mirac
都没
▁customary
▁ui
▁becoming
劲
观念
▁committed
gt
▁Ме
▁pix
▁SK
▁Mrs
看病
}=\
▁gut
hydrates
▁Bri
▁lime
nHas
▁privacy
nDate
▁dumping
▁libr
ndevelop
拘
沥青
大家的
▁settled
▁Face
女性
▁commonly
贬
'>
▁rms
身體
悔
▁Dog
家长的
▁offense
nProperty
原理
datetime
▁rental
▁overly
▁Vert
缝隙
ilers
想要的
▁Organisation
更适合
▁През
积极主动
inker
▁amid
▁bases
▁Unf
中学
Report
nWill
sch
ρ
▁false
上了
不了
實際
雅
rary
彈
Bo
ryst
▁surface
meas
老爸
Cursor
though
的歌
▁volatility
▁outlet
<0xE6>
FIN
Solution
comfort
始终坚持
▁sensitivity
▁buffer
对于
据介绍
涨
▁Abb
2
▁stained
弱点
▁similarities
说的是
楊
▁brides
垄断
▁Ice
Offset
calar
这下
▁dependent
听起来
events
Errors
▁characters
的前提下
副主席
rfloor
▁projecting
Mail
无证
登记表
▁accident
▁minimalist
围绕着
蒂
坚持以
▁caring
▁es
對於
cmidrule
相助
rec
▁attracts
uite
治理
authors
協助
Вън
荆州
▁х
▁til
挖掘
▁pilgr
▁Properties
喂
▁uncertain
acknow
▁costumes
一个人
这些人
阴影
▁bury
built
潜
numeric
新颖
these
可
厘
总部
Static
陈述
tnew
构图
▁Renaissance
▁nodes
ordering
▁contracts
扇
鲤
▁yielded
ORTS
走到了
保姆
▁lifts
ß
▁banks
}}|
分钟的
appy
▁sponsors
ti
妞
▁fingerprint
nWell
▁Ohio
▁exhaustive
▁accordingly
恒大
hawk
好看的
▁Lol
尉
nAb
▁Berlin
深度
▁torso
广汽
复杂
omic
▁standpoint
繁忙
▁regulate
▁fret
▁substitute
▁Girls
andro
lceil
Annotation
arel
▁want
妈妈的
▁tourist
▁landsc
vir
角
荒
▁screened
提示
不可能
▁change
▁da
imal
界的
任何
ември
izards
米的
发挥了
打磨
心上
▁Peters
HY
▁ré
▁formulations
仲
时间去
▁through
nPrevious
在城市
清楚地
▁Ки
nsaid
了三
▁transformation
递交
▁spectac
vet
▁rewritten
锅炉
花朵
製作
coe
精神病
▁follower
▁града
▁Bullet
▁Traditional
▁`
均可
▁comparatively
北海
的效果
▁admitting
essionals
▁linebacker
rob
ден
▁\\\"
七八
▁Thankfully
incinnati
▁Ay
▁statue
“
笑声
售后
機會
有好
时间段
▁lex
▁defined
▁appropriately
各个
遊戲
不肯
▁supersymmetry
▁forwarded
▁implements
izarre
FM
密
▁Hind
栏
光泽
▁Loss
原油
▁quantization
larg
▁START
after
ут
something
▁forth
如实
perturb
amboo
盘的
茶叶
蘋
emp
zoom
▁Cowboys
质量和
▁Seems
▁memor
▁basket
'=>'
停车位
▁hd
ı
=&\\
us
▁Instead
caled
二氧化
▁rabbits
亟
▁optimism
英雄
▁shouting
▁Scott
▁Hardware
▁Tube
▁violence
丢
▁fell
▁torn
▁probabilistic
垄
cccc
▁note
▁Nation
mlin
克莱
▁neb
原谅
界定
上榜
黛
▁facto
▁authors
iot
金额为
▁summoned
輯
▁buried
权威
规定的
民初字第
▁Din
▁wallpaper
坤
#\
▁Hulk
▁astroph
▁centres
▁gossip
产业化
rolling
南海
▁pickup
rick
кември
绝
▁unc
如果说
有一
出货
经典
开的
一天的
dip
无助
hm
湿度
owered
荐
法庭
的趋势
▁Mond
▁stagn
员工
眷
最早的
▁obsc
坐下
lla
auty
▁Kirby
大量
业的
nexper
有意
整洁
▁commence
▁см
itar
▁hire
▁ether
做好准备
▁bugs
nTry
▁varied
▁punt
culate
erves
安徽
▁charcoal
佛山
▁sorrow
笔记
###
▁Infrastructure
▁comprom
Great
rio
▁cubes
▁camp
\"'
流入
增長
与被告
nnon
訓練
▁warned
几
<0xFC>
▁pie
▁deleg
▁exploit
truth
▁finan
urus
十九条
▁MER
<|unused077|>
texture
设法
让我们
<|unused066|>
лю
ublin
▁special
norig
nwhere
▁coaches
▁Num
但因为
时不时
▁battle
▁Engineers
接受
的中国
aint
公元前
▁cultivate
掌
沥
村级
上场
被告人
opyright
liner
▁Po
了大量
▁practicing
▁Rev
票据
unny
<0x40>
意识的
▁град
公司
▁absorb
▁Bloomberg
▁noble
▁corn
▁Luckily
ouses
▁interpret
REM
▁hall
nReply
iaries
高速
充斥
Char
▁Insert
▁Kir
German
neach
我
▁Di
▁doctor
▁spanned
无所谓
ODY
能够在
▁animations
getName
▁everyone
我在
▁($\\
<|unused099|>
看来
endants
▁separate
▁sixth
▁exchanging
▁gets
雾
▁downward
卒
每一
广告
回应
这张
了两
OSS
间接
▁executive
▁Manual
禄
LEX
外卖
▁unnatural
npeople
▁pale
存在于
▁films
chini
EMAIL
▁till
很好的
▁trendy
成像
組織
存在着
▁distinguish
劣
grace
nCurrent
个大
作品的
LM
irk
directory
▁wildly
nSub
▁flood
彰显
▁Venezuel
vey
nworld
▁wack
Bridge
剔
▁collapsing
▁Pixel
系统
景区
\\:
▁motiv
牙齿
▁Job
▁Toys
▁half
分歧
册
Looking
Sound
▁bottleneck
йски
吸引
jango
amins
冰冰
着你
▁morally
▁Resistance
дава
▁confirmation
standing
nconst
▁Windsor
Acknow
nArt
▁unnamed
を
京东
▁dragons
corollary
的区别
个百分点
▁maybe
相聚
▁headphones
ised
▁nn
▁полити
▁metabol
▁adoles
禁令
▁releg
amed
的好
nGener
MIT
磁
nLeg
▁reve
▁elabor
▁Mal
易
▁cops
uchy
hhhh
▁unbeat
▁fright
metics
抗
▁locker
▁Holl
▁разви
交代
PA
atism
radio
但没有
只要
熄
▁Apr
集中
生物学
拭
▁blunt
▁adults
▁WTF
Cap
prom
@{
plash
芯
快乐
▁Rockies
▁Guarant
▁Rewards
二维码
经审理查明
字符串
nMen
挤
father
▁resilience
USPTO
它
TI
▁wool
的真实
▁Mont
▁Used
prehensive
▁specializes
谁能
Cluster
▁See
Home
Events
▁asylum
▁Studios
先进
▁David
Facebook
ueless
Win
▁EN
nsingle
ANG
NjE
bell
▁safeguard
regor
indsight
前面
▁encountered
班级
rophy
btn
家家
二年级
细微
闺蜜
总投资
OTk
通话
▁trusting
▁||\
▁precision
▁purpos
深深地
站长
▁bou
QU
+\
传授
▁traced
历程
年纪
政法
▁proceeds
▁Denote
ue
▁po
番茄
▁took
▁Phillip
▁leading
▁dimension
窦
▁retiring
▁vide
▁Indeed
projects
▁survey
continuous
五四
eque
ics
信的
]^{
aman
hell
▁throw
灵敏
ществу
唐人
lia
▁Booth
慶
ктор
▁Congo
▁constructed
▁uns
ariances
福音
▁&\
probably
▁worried
nprogram
<commit_before>
As
Ca
▁AK
ge
▁Trading
│
▁achieved
ahler
实力
▁audition
}({\\
▁Brid
/㎡
在此基础上
▁severity
={{
▁brain
▁expressions
arations
▁Riemann
风的
▁prostate
▁passing
util
▁obs
富士
▁Superintendent
udos
▁LGBTQ
▁molecular
peror
▁organizations
▁XL
fessor
透气
党的二十大
花生
▁Procedure
▁destined
▁isinstance
虐待
unit
BB
▁Grim
斥
▁ren
到家
IL
npost
▁heats
▁representative
裤
rice
在这场
nKim
▁tease
▁collaborated
<|unused101|>
自治
▁bold
聚会
税务
suff
马拉
CLUDING
▁Cult
ieces
保险
ickets
▁righteousness
DK
性命
Permission
▁jerseys
底
扬
▁Aven
▁Leg
▁management
nInteg
能夠
擁
除恶
校长
▁behavi
我被
▁saddle
▁mandates
\"#
real
▁puppy
▁dull
ural
cake
▁g
各式
Cover
perm
flex
史上
sem
path
的照片
▁prolong
▁tomato
permission
华中
▁joking
labels
德州
的一条
缺血
▁Catholic
nLarge
▁coveted
▁liquid
相似
nGod
工期
食用
为准
接口
这几年
hev
tR
▁markets
iga
▁grim
增设
▁boils
umpy
▁securities
武汉
▁oral
▁stitches
▁problem
大奖
当即
elect
和经济
▁transaction
pletely
assertEqual
▁Lance
▁ache
乘用车
▁Matter
逐步
×××××
出血
▁desert
糟糕
isha
▁UAV
▁ethanol
Fl
发出的
▁Bre
他在
緩
警务
▁mound
▁infringement
ê
Б
身材
▁Matters
▁Sale
大的
▁brakes
郁
▁algebra
偶尔
rb
实惠
适
▁empower
editor
inputs
▁analogous
▁weaving
捐款
nNone
▁filing
期限
▁imply
大米
突出的
▁bite
plants
▁mustard
證
reddit
人的
▁Hilton
选购
停留
Stat
▁inexpensive
线的
▁VS
▁multivariate
讓人
corpor
pps
▁exhaustion
▁installs
erial
▁Amazing
everse
的年
▁test
聚
bec
綠
▁DES
而被
建档立卡
nour
coh
ун
▁▁▁▁▁▁▁▁▁▁▁▁▁▁▁
awa
陨
nAff
▁Glasgow
▁material
▁shirts
▁assert
oster
race
noalign
nGot
nMaking
▁puff
▁pupil
▁throttle
畸
体贴
效益
cb
apis
哈
▁anticip
▁nail
▁difficult
▁notation
公告
杂物
乒
cale
了吗
奋发
▁metallic
晚期
▁Record
elaide
▁downtown
▁means
▁Kane
▁icons
处方
绝望
▁disciplines
▁sabot
▁mk
▁punish
▁horizontally
IMER
期
▁Sprint
山县
不要
▁Physics
RD
也比
▁elder
▁skept
▁colspan
ynch
▁(@
录入
实处
overy
匠
光是
▁Sau
▁visit
client
▁invol
能量
▁internal
▁Pion
▁Lomb
▁offseason
tw
House
▁printed
消费者
protocol
曲
▁Recently
要坚持
▁accordance
aku
▁Provider
▁continuing
▁teas
US
▁afterward
▁comic
heet
尔斯
▁Quant
稳步
运势
▁magnets
十五条
元年
interest
▁expos
▁patron
▁LEDs
深思
▁way
熊猫
▁Fifth
发育
Ng
▁Gib
不自
▁Beck
数字经济
▁needle
▁infect
▁Beast
▁Two
前三
▁angular
現場
▁disgusting
部门的
感觉
overnment
Add
▁administrator
▁Bryant
结婚
石墨
▁Changing
▁Jon
Hit
洗
▁controls
nDr
orrow
▁shap
▁Anti
layout
▁unlikely
这次
比我
Route
一套
}$\\
▁incap
▁POS
▁vanished
专访
▁Columbia
太平洋
ame
向大家
▁DPS
▁added
认为
OB
▁Processing
退役军人

影视剧
obo
白羊座
dup
rict
▁Rat
▁garbage
\"-
宣
nFive
买房
▁descriptive
ets
▁capita
的距离
nRated
▁adjacent
白了
的音乐
scape
说完
Transport
▁liable
either
▁stain
entin
Car
ifact
結果
▁Rd
低保
cal
surface
凸显
entation
赢了
▁multif
▁agents
ople
▁Jr
nmov
一堂
下调
▁Theresa
▁Ellis
WD
Tri
轻易
考查
扛
icio
nso
▁synth
▁flaws
▁Disease
新款
吹
绿茶
壮
★★
ADE
的计划
莽
&
ida
迷惑
▁prescribed
戶
));
昆
filling
亮
*/
▁earl
据此
▁resonance
▁flames
▁losing
沙龙
模板
▁builds
gres
网吧
▁grabs
▁XD
风格
profile
▁Produ
▁fire
▁unavailable
тен
卡车
▁&&\
阎
不断的
冲突
軟
▁Charg
护肤
▁Chow
lobal
Would
Loading
人次
▁Equ
长了
mess
ktop
▁bytes
▁hurting
▁postp
Va
上世纪
edit
▁visiting
irts
▁inc
▁neatly
字第
誓言
▁whit
天生
▁въз
▁orig
是最
缺陷
玫
nOther
▁Madison
▁copyrighted
▁emphasize
▁specifications
▁zoning
就把
aped
mk
_-
囚
逮捕
}^{\\
nLatest
special
▁parametriz
〉
我发现
▁mention
▁Jos
不变
亲戚
ky
值的
▁Mission
▁intensities
戒指
LOC
orgetown
▁Compared
点的
梦幻
商务部
回暖
nEx
▁fares
飾
ject
obody
▁agreement
▁fur
iating
Mzg
工作组
拟
▁sits
锦标
▁"
xl
▁Historic
党员干部
代理
▁Nar
erms
远远
以防
▁Belt
Criteria
提到的
▁Marines
▁notifications
Review
屎
这部
yme
▁Ви
зва
▁conflicts
他们是
)\
▁genu
version
▁abusive
中共中央
▁Mang
▁&#
EC
不舍
▁varies
▁combust
coloneqq
oses
▁benchmark
▁ли
▁doorstep
lass
焊
▁surge
▁MX
▁prosecutor
noon
nIsrael
▁links
GG
莓
衡量
keepers
▁Nob
制品
制度改革
真的很
maps
个城市
▁weird
▁Trial
性和
▁refugee
▁foods
甜蜜
▁Designed
endpoint
问题的
翻译
ync
nl
digital
▁Smooth
▁appoint
▁designers
tah
▁punching
▁salv
▁skilled
▁Pour
sted
▁modelling
▁spanning
▁hopping
▁Achie
opathic
▁slated
我心里
tran
综合征
ategories
▁ballot
Orig
ferm
nCreating
Bel
南宁
▁targets
职称
畴
头部
[{\\
▁dancers
▁Plan
nInteresting
vw
原则上
了近
主张
铰
ober
有许多
▁fox
▁Li
nacc
称赞
▁industrial
otiation
▁appear
character
▁vec
▁outrageous
▁fre
被告
bill
Binary
▁Strip
▁tummy
▁legis
▁punct
據
饶
▁where
▁much
▁mechanism
一首
▁litter
▁slick
RN
家族
管线
▁bless
代表的
nTag
▁aren
▁mistake
饺
清楚
raphic
▁Ide
蜂蜜
萨
味的
▁turning
▁Talk
平凡
性别
▁Hut
▁jack
奏
▁vivo
▁chickens
ş
不足以
nee
ilo
测
▁occ
non
hythm
落户
在被
idelines
▁cheer
妆
特地
▁broadly
▁insulator
▁б
▁hog
▁dear
▁luggage
nAnaly
gex
urface
▁meson
不仅如此
▁younger
▁forb
拘留
▁regularity
▁Inter
为首
英
▁oversees
▁oste
bling
远方
gf
Express
辉
▁hires
写过
虽然
▁follows
▁touching
▁grating
▁quotes
▁enhancement
货运
青蛙
bigcup
▁Deck
向东
務
▁deduce
}}\\\\\
▁FDA
的去
蕊
▁Terry
▁Zach
▁clown
舍
参加了
▁coal
▁Ber
prod
死
ux
关爱
Bre
ntop
有很大
▁cellular
▁el
负担
▁Section
通风
通的
▁Bron
native
更多人
木
▁assure
imentary
aul
▁aux
水域
▁literacy
Should
农机
加持
mma
ique
flies
isted
▁paperwork
并购
▁arithmetic
▁Target
Available
身为
▁Trends
▁archived
nplt
無論
</h4>
▁savings
▁subject
▁implementations
案件
fac
真
here
▁withstand
atics
ong
▁grateful
tle
节能
cur
▁oct
ertainment
▁examination
▁Andre
▁pert
▁disrespect
▁dynam
nGl
▁Xia
mun
求学
song
▁computations
第一步
发现了
上诉人
▁erased
百科
务
▁contempl
主意
但又
unger
多元
▁licenses
wenshu
▁Lu
催化剂
UTION
tuint
出示
书
▁creation
nMus
受贿
想法
iculty
剖
爆炸
▁fresh
被人
creasing
叙利亚
▁eup
▁subt
▁semantic
会的
▁coefficients
可以从
▁off
ocalypse
叛
nUnlike
慷慨
酸性
▁committing
={
▁enlight
▁throat
▁diffuse
▁replay
<0xD0>
▁define
commands
▁switches
▁career
▁suppl
▁sham
▁Side
▁eleg
izza
▁Dish
处
▁associ
▁tweaks
原型
银行的
▁Colors
工
▁viewpoint
填报
凌晨
农牧
ب
一刻
玩意
dependency
icularly
▁Matrix
自此
<0x4A>
arters
ez
▁handing
~~~
让自己的
月下旬
▁ferry
PK
DC
▁financing
<|unused071|>
▁Rangers
會有
▁radius
无奈
▁knocking
▁Critical
▁being
▁Henry
邮寄
▁FY
封闭
非物质文化遗产
▁currencies
▁boosts
饲料
▁aggregated
▁ingredient
▁PAR
▁vary
照
▁poet
Richard
▁ballots
▁turnout
▁Gu
ilib
▁cy
cept
▁Virgin
▁KB
▁overhaul
▁Tor
咖
▁Enjoy
理赔
谣
室外
▁bloss
▁optics
▁days
nMain
品尝
▁versus
东区
ratio
trivial
▁Funny
▁eyeb
▁mills
upta
反
傍
的专业
▁Setting
师范
查验
▁Monkey
night
anding
▁abuse
iko
ws
folios
医疗机构
▁de
我们可以
先
入学
▁decided
升
▁vert
▁shaking
Byte
规章
<|unused005|>
▁Stein
高二
▁iff
建成
▁pregn
urities
日常生活中
字母
女性的
独立
DP
covery
并进行
MTc
▁fibers
轻微
▁bombs
▁registering
▁Teams
半个月
▁carrying
Executor
▁Fil
占地面积
▁Fusion
壮观
▁wouldn
▁jer
窝
▁Mars
▁plush
越是
belt
anol
▁legalization
量
abe
清扫
呀
问问
外包
constraint
▁Science
nStill
总决赛
▁timeless
ocol
职能
▁Quin
个个
嚴重
etch
企业和
Order
在一起的
egraphics
▁Bug
nFor
▁inspire
詢
]
坚强的
吃起来
athe
描
▁gam
远的
▁h
▁archives
▁Heavy
▁TO
▁playwright
▁opening
▁Fort
▁Staff
offer
▁aisle
▁Fellow
▁anthology
悬
▁Top
▁Frame
roph
民生
nMobile
aram
這麼
我们应该
ISA
鹿
程度
▁accelerating
▁pipe
全新的
▁rich
Open
奇的
寿
就好了
▁Confederate
参加诉讼
也不能
iliate
众生
配上
iar
修身
▁penal
泵
<|unused156|>
涝
ients
Secret
▁sitcom
bsites
nEdit
定律
▁aroma
▁resol
sembly
▁edges
金华
应用程序
宜昌
observed
▁epidemic
nEither
▁така
▁realized
instein
脆弱
▁Form
\\`
▁donated
▁Islam
现在已经
Ad
▁wolf
▁predetermined
▁Jesus
传统
▁counterparts
▁homepage
的一系列
▁billing
Radius
▁callback
▁Picture
的事
rites
房屋
像是
▁assaults
因为它
ei
大湾区
株
▁blocking
▁appearances
▁technological
侧的
nshort
▁prompted
护理费
▁Huff
braket
▁barn
▁enterprises
践
avel
▁при
消费品
阿富汗
▁auf
▁Drivers
▁progressive
▁Fortunately
aying
▁stabilize
▁censorship
▁NHS
▁lowest
tG
昔
▁Pad
项目中
ventional
倾斜
shore
买的
▁grief
▁foul
▁Suites
<|unused070|>
▁мал
Template
层层
丙烯
reen
▁shampoo
▁:)\
承受
▁Hampton
到了
▁Doppler
nsource
▁firstly
▁solidarity
▁geography
range
开始了
ort
*[
throw
做为
文物
▁minded
▁of
broken
微
oriented
▁bash
当做
Len
笑着说
nrespectively
观
udd
tees
▁poetic
jab
栽
<0xC5>
▁Nep
▁hate
在他
wo
▁restricted
▁applaud
▁house
▁EE
第一种
eleration
▁Sel
createElement
▁deserve
▁recycl
智力
▁cryst
扩建
▁discrimin
巡察
城县
▁imprisonment
organic
硝酸
只
▁helium
▁Justin
▁preced
挂钩
▁announcements
…)
▁solution
cks
▁polls
bottom
这一个
端正
▁guessed
paring
鼻子
▁Dim
▁borough
▁r
nPublic
'}{
б
执着
比你
greg
▁Cup
▁positioned
精益
▁coffee
的需求
▁PROVID
国的
大巴
▁hell
则是
基本上
大大
这部剧
氏
▁accuse
▁изда
討論
ashion
归来
orescence
然的
局部
▁commercially
▁cling
▁opportun
▁seas
▁Swan
吃不
▁DIS
租赁
aterial
肯定是
ukes
▁slavery
▁ор
脊柱
▁prompt
▁southwest
芳香
perhaps
')$
禁忌
缔
更换
archy
真正的
青岛
▁recreational
不一样
cid
▁owning
ifier
难关
为目的
恨不得
歧视
大哥
castle
Spring
▁unparalleled
平板
abouts
金属
▁adding
▁Action
”（
标志着
的重要性
回合
惠
大厅
▁complaining
▁saturated
矮
可用于
igs
感觉到
encies
desktop
▁philosophers
vae
▁employee
完全可以
displaystyle
emo
▁Block
ESE
▁tackling
})/
▁advertisement
向我们
▁lanes
營
ruction
类别
▁Barb
oj
nPeter
▁obst
▁Haz
$;\
▁multiplying
%-
dashboard
▁inval
▁NATO
ncomput
法
Look
▁unreliable
▁NUM
CRIP
▁Photo
奥运会
浏览
▁canvas
ANC
▁pulsars
anted
▁Thur
manifest
的原则
▁rival
▁Yankee
稀释
▁used
▁processor
▁negoti
▁Eh
▁dealers
ishe
怎么
▁nond
▁province
▁cosmetics
▁Culture
nFil
▁PayPal
▁orchestra
▁Arist
开业
官
ploys
必须
神圣
刊登
дия
▁unt
▁nont
▁conservation
潜意识
▁Ahmed
<0x76>
▁$^
esp
Header
▁loot
▁Rapids
风气
ratulations
custom
▁Ans
▁tighter
▁sometimes
nMult
运营商
ersion
▁dop
▁swords
Ä
}_+
▁growing
▁DOWN
▁herb
▁Wall
isEmpty
viation
潮
就不
mc
ilt
DEV
級
靜
▁wreck
可行性
失衡
▁Probably
lett
孕妇
▁presence
arial
ocative
▁chees
死后
▁Shah
服务员
▁hills
▁Ski
nBl
зар
▁Chal
床上
▁gra
astern
▁Travel
oso
瓶颈
ifornia
欣
hb
窥
getElement
▁poorer
詳
▁pleasures
å
▁billions
nFeel
encil
funded
年夜
符
Selection
canonical
▁Harvard
▁renders
▁personally
ippy
Current
drew
psi
上台
Network
届时
罪犯
<|unused106|>
▁locks
▁numb
应按
OCK
▁Libert
plet
demand
}}(\\
婚后
礼物
数的
CLASS
INVALID
▁security
一年
副本
▁stirring
▁India
▁deviation
商贸
framework
ucky
报案
▁toast
▁sil
ve
分区
nBon
火的
错了
▁planted
▁dryer
从而
▁gestures
Members
▁wallets
▁Od
▁bg
Clear
Dao
▁Kl
orig
小型
雪
▁audio
替补
够了
aset
▁teach
周四
рез
▁polish
▁dissipation
▁hyster
試
為了
之时
▁seems
万多
School
PER
Utils
▁mon
▁filaments
さ
▁Includ
▁Example
$(
essment
萝
▁IRA
乙烯
小心翼翼
ituted
ustering
廊
▁Parent
▁GOOD
▁rude
ells
查询
金融
大宗
毛
`)\
▁liqu
nKing
bf
']);\
▁Gamb
THER
工会
不死
GP
▁suffice
▁Was
▁before
校外
擴
▁Cyrus
icious
Face
▁provid
▁Ye
徒弟
▁Tumblr
oler
\\+\\_\\+\\+
▁satellite
看看
<0xCD>
北部
提出了
避
Sum
ENV
饱
排除
iest
effective
una
terrorism
▁winner
bef
NjI
riminal
▁等
原本
小伙
bracket
▁granted
▁HER
场所
▁chef
苑
FORM
再也
华盛
▁wheels
nSave
非常重要的
▁Tak
就算
nad
▁wages
这么
▁diluted
流淌
北约
挖
▁tour
津
▁drafts
一半
▁tensor
势头
白马
▁relationship
LETE
$[
高尔夫
病患者
山西省
日被
自豪
▁odor
▁wireless
誉为
су
▁obligation
ning
▁–
oes
delta
▁Git
га
安心
nail
batim
▁institute
ingers
一枚
薄弱
nExec
calculation
单体
filtered
窑
▁empirically
▁instructors
真空
удо
jamin
▁bosses
▁masterpiece
更多的人
反对
▁br
settings
▁chalk
късно
▁portfolios
▁CL
▁Marc
▁Few
阀门
nTom
▁aquarium
▁ceased
ipal
policy
;&
nthere
▁nonprofit
<0x6F>
得失
ES
Care
▁generator
anny
Lett
▁AI
obert
▁slog
ointer
Figures
▁huge
ienne
小平
▁Beach
▁K
ervice
生理
▁len
hler
qua
的笑容
/%
▁Allied
取得了
▁kale
判
▁variables
uffs
nBottom
督办
eez
追逐
▁whites
军人
▁връ
園
bery
检察官
cho
▁doubles
▁McCl
▁An
▁tuning
ensing
fast
bal
資金
<0x02>
不可思
9
▁Main
▁Nap
On
▁Gallery
USB
▁suburban
stood
>(
汽车的
坚守
而无
AV
necess
准确
▁paramet
sale
iparticle
李某某
Cmd
pkg
▁Il
rgb
▁items
▁§
NotNull
▁mortgage
执行官
可能导致
nBre
<0xDD>
问
鹰
林业
▁dire
▁Pick
rino
▁asserted
▁RT
▁Style
▁мар
ospin
我们从
▁about
AD
写字
个工作
获得的
▁probable
舰
IOException
▁analy
▁DD
肩
nFile
生態
▁Chicken
▁Universe
走着
汕头
represent
outputs
初字第
桩
Help
像素
▁Diamond
种类
VER
▁analys
▁plugins
▁goodbye
醉酒
舞
▁hing
▁Bh
▁bushes
▁influencing
▁freedom
▁regain
失败的
Py
座的
双向
)}}
有心
羁押
▁Medical
▁tetra
nGreg
odd
有一次
BER
陇
▁Schools
兼具
占比
开出
▁OH
null
面粉
字号
isting
玺
军事
司法局
AAA
壁垒
bid
▁Remove
信徒
带来的
';\
▁humour
包含
▁basically
nquantum
examples
▁wasted
ville
▁dip
Scope
创伤
▁percentages
源源
▁Barcl
分数线
})}\
机动车
lood
▁academics
package
论
热衷
餐
▁suffer
▁Fest
使者
▁Daily
▁:-
▁instant
储能
▁feud
▁Cann
千克
咯
ief
▁Revolution
▁transcript
ocur
nincluding
ben
upyter
prev
旅
▁shady
arx
▁spat
▁Enter
传销
▁grabbing
IDS
其余
极大地
▁tobacco
Page
nLike
mode
▁potentially
▁vulnerable
▁miracle
▁operators
方形
以致
▁anti
nDem
▁challenges
吉他
rss
的比赛
variant
args
该校
金银
寻常
▁station
▁limited
legal
▁spectrosc
出现的
▁което
较为
ignant
▁raised
▁galaxies
▁regular
▁&=&
photo
▁Nigerian
phant
▁EDT
葫
追
pairing
nHope
▁joins
nv
ronics
▁Strong
▁›
▁doing
是一
▁undefined
isal
双手
▁Sou
效力
brief
介绍了
▁sie
Tables
rust
▁breach
avis
▁obviously
配送
率达到
▁fabrics
TW
杰出
冰
▁eas
continue
する
▁български
▁violate
▁implies
ua
▁electorate
▁embro
紧盯
封锁
emin
分
復
▁rethink
▁drawn
要在
▁lake
▁sel
▁outweigh
▁Cooper
综上所述
▁concerned
跨境
▁painful
修饰
heres
routine
▁mice
▁scroll
▁insensitive
▁lob
nlight
年后
▁inserting
珍贵的
nContin
浓
文物保护
▁conclude
礁
roid
即
nea
ifics
海岸
▁diff
目标
此举
<|unused112|>
两手
尸
ées
烷基
的问题
账号
▁aired
ded
▁rings
▁plag
▁Ric
rologer
OP
衣
额
ertainty
▁bandwidth
面的
再多
▁blond
이
itu
Get
▁Much
▁WAY
Talk
▁rider
▁fertile
▁opinion
nBit
▁dynamics
cess
直接
derabad
ilight
▁although
非常有
Gl
▁statements
buttons
moving
▁cried
▁leasing
出一
▁Theorem
▁AUTO
▁documentation
脚踏
▁enjo
▁overflow
▁non
^{-
的环境
条文
▁hanging
精准
▁];
埠
Sep
▁Syn
Sat
<|unused004|>
Att
▁deputy
腾
以为是
icom
深入推进
▁септември
odal
赔偿
opic
▁det
密集
▁Obs
although
先前
▁stick
opathy
都属于
diction
▁Electronics
ClassName
咏
ilant
nFrank
▁founders
▁schol
ръц
enaissance
▁Chile
Link
同学们
太多
▁Met
idelity
养老金
▁Season
什么呢
唯一的
▁)\
▁Pink
icia
airy
indexOf
HA
▁wi
error
了一遍
不留
kernels
ка
疾控
pline
人口的
▁ties
场的
▁Sugar
▁Те
厨师
ragon
秘密
▁themselves
▁Rob
axis
▁Client
▁entitle
被上诉人
▁Pittsburgh
PO
▁method
▁bracket
nApp
LG
▁grains
▁baselines
▁skin
_{(
静静
叶子
inds
▁Aren
策
▁tires
国外
▁priceless
▁Tex
▁unable
cies
erate
回應
▁Tell
▁Don
▁slips
新政
一共
▁chicken
▁moist
renew
构件
龙头
的一次
ans
无常
▁magazines
丰富了
标题
内科
MF
驿站
▁Yahoo
jax
▁suites
升级
未经
▁deformations
禾
❤
钾
▁mul
obs
MzIx
▁oxygen
WI
▁Schedule
教堂
▁universities
separator
▁orchestr
▁moder
anya
▁pupils
nsh
截然
酌情
pmatrix
去年的
产出
▁Schneider
functions
颗粒
▁compressed
钓鱼
報
电量
amd
▁consistently
DEVICE
▁Crim
Array
nagainst
吃的
<0x11>
▁mal
▁GRE
上市
▁Individual
打扰
▁kilometers
▁biom
世界上最
▁commutative
▁analyst
放入
▁Protect
物业公司
▁disease
▁stacks
▁helmets
webkit
entries
接种
▁People
case
▁contract
LOG
▁Red
监督管理
▁interpretation
heed
国家标准
rain
▁some
赡
ional
▁Monster
burner
壳体
破了
ioni
卫星
▁principles
enes
▁Delaware
配合
ect
READ
▁dollar
vio
▁Abs
▁backbone
imensional
断裂
蝇
▁viral
fab
▁nutritious
▁tests
▁че
▁invariants
ract
▁characterizing
▁magn
狀態
▁misery
韧性
▁enables
▁Ре
▁dun
▁Miche
▁Typically
portal
▁shelters
nTop
微信
长长的
数目
ered
▁aeros
Shared
密切
▁shutdown
感应
▁Playing
▁aliens
南方
隨著
ω
祈
▁Mus
▁citizens
▁Jenn
棉
ли
▁coff
▁Wal
所在地
▁engineered
▁Linked
钢
▁lingerie
撼
▁recommending
oly
Software
▁Merry
勃
▁isotropic
维权
▁insignificant
EE
扫描
▁THAT
nTravel
▁Lord
盆
initialize
耐
▁Chi
▁reservoir
满足
▁bulge
▁maximizing
▁Dining
audio
就这么
▁effects
周边
▁strained
▁Stores
▁brightest
▁minutes
News
went
预言
轴线
帷
一定程度上
字段
):
▁Apparently
之心
right
misc
yt
REC
▁resid
OTQ
▁Talking
nJan
每天
▁locations
yr
nSecondly
CONFIG
▁possessions
▁Reve
tails
▁unin
对身体
ichlet
▁updated
▁strain
书香
自首
私人
谈论
▁Well
▁accurate
活泼
aron
▁sophisticated
▁saying
不看
容忍
▁rented
Mock
eners
对其
扔
了的
▁valley
还原
▁param
几年
隊
▁Ле
▁select
▁mixed
▁considering
нов
MzE
高大
<0x00>
▁local
▁dismay
<0xC7>
▁Terms
吉利
pered
▁investigated
▁MRI
▁Ecuador
plete
▁rules
▁aggreg
hing
日夜
▁checkout
▁Ale
嘴角
Mjg
舅舅
件
美食
巧
狮
▁blogger
权益
投诉
▁avail
▁selectively
▁meta
▁revenue
将其
放开
貌似
电动自行车
Failure
▁editors
▁nearest
区域
▁stacked
<0x09>
stanbul
He
摆脱
fficients
▁ensured
拿到了
打仗
UTE
幹
xr
友情
icine
jama
ся
▁colored
▁INTER
能让
▁roads
客戶
东
▁Baron
▁angry
▁Municip
误差
▁Comcast
TeV
▁disag
香烟
日消息
▁river
分队
;}\
Pending
给付金钱
nbool
当选
_{-
luence
▁managed
▁Spr
▁visible
▁Forward
理解为
降解
▁expend
▁strawberry
▁integr
\\+\\_\\+
Rule
施行
使人
▁routinely
▁Patriot
等活动
high
<0x84>
dest
=
USA
▁:-)\
plementation
agger
▁True
▁Inv
ipolar
多年的
▁respect
illy
weed
▁CU
隆重
▁conjecture
▁upgrade
▁gospel
▁Croatia
▁intuitive
▁Green
']['
风貌
ア
但不能
醉
▁ALS
▁species
▁maxima
决赛
corresponding
▁Ginger
imation
他說
▁trunk
én
▁Sem
因为这
speech
站点
▁Russian
▁reversal
香料
ampoo
▁Night
这是个
▁Pulse
结构
olding
可疑
collection
▁woes
▁Raspberry
莎
▁accommodating
离
updated
▁save
<=
Alex
▁Geoff
better
经纪人
RNA
▁necessity
年底
				
qt
刑事
目前已经
在该
<0xB7>
MzQ
Ren
prevent
▁branch
▁PDT
主题党
提供的
Category
▁addressed
气候变化
▁backed
市
▁wish
▁Fourier
zens
会后
既
胰
Id
赠
▁Lear
enium
国立
▁degener
▁normalized
深的
▁pains
▁tranqu
▁charity
▁ga
国务
Suppose
branch
▁Sn
▁shovel
▁Obama
▁viol
畢
记者从
pons
第二届
▁Churchill
▁arbitration
▁Youtube
▁tall
▁tangible
处罚金
▁locating
nNext
唯有
jx
这是我
▁majority
▁generation
xn
naire
▁correction
▁Schwartz
rus
▁clearer
▁topics
出资
行政执法
▁Cell
陕西
iverse
▁payoff
ublish
科创板
鏈
▁information
▁Pop
▁conj
▁Catalog
▁balancing
ployee
之上
▁undergoing
▁Wait
揣
妇科
▁awareness
▁landmark
ruent
hammer
▁undergraduate
轩
ey
▁PROP
sig
工艺
▁independence
▁Labor
▁excer
adays
DOCTYPE
支付宝
呜
responding
肌肤
Tile
函数
▁aka
出了一
Smart
▁influenza
)"
Storage
▁Json
▁accusations
▁contacting
双双
逃
techo
趟
吳
肉体
▁moistur
▁consequence
▁университет
骼
洗脸
identified
Tom
asters
water
ogether
导师
▁OPT
▁sb
according
Vert
▁rise
[...]
