{
    "▁George": 5163,
    "theta": 4280,
    "ker": 5156,
    "▁Sure": 12875,
    "布": 29802,
    "▁Console": 19518,
    "▁bt": 26933,
    "刚": 31319,
    "body": 2680,
    "▁souls": 23804,
    "äß": 25829,
    "cembre": 18764,
    "▁adopt": 8799,
    "▁fellow": 8828,
    "Enum": 9758,
    "Origin": 15443,
    "▁Think": 15403,
    "Land": 22971,
    "▁są": 23435,
    "▁possessed": 26132,
    "aglia": 25413,
    "▁raw": 8435,
    "▁▁▁▁": 260,
    "aires": 10024,
    "question": 17496,
    "▁inputs": 14391,
    "▁Roger": 14115,
    "秒": 30009,
    "cf": 10037,
    "▁intellect": 11612,
    "pshire": 25543,
    "▁raises": 26721,
    "▁magic": 9693,
    "遇": 31716,
    "▁сем": 28533,
    "ag": 357,
    "size": 1428,
    "▁amely": 27894,
    "視": 31077,
    "children": 9342,
    "▁capture": 11319,
    "Fast": 23252,
    "eron": 13618,
    "Counter": 15805,
    "CLU": 28354,
    "▁atoms": 24221,
    "Argument": 8949,
    "▁SHALL": 27287,
    "sched": 20615,
    "▁existing": 6594,
    "▁Sem": 9897,
    "->": 471,
    "ross": 1556,
    "▁Ez": 23963,
    "Ann": 23894,
    "NODE": 15214,
    "▁från": 13738,
    "▁preparing": 16486,
    "spring": 7558,
    "ceed": 3988,
    "▁entities": 19810,
    "KK": 22525,
    "gos": 20359,
    "▁NET": 27940,
    "▁args": 4707,
    "▁Forum": 23525,
    "Lim": 24241,
    "ARE": 6394,
    "Ю": 28950,
    "........": 10522,
    "▁String": 1677,
    "rition": 17791,
    "AN": 1251,
    "rot": 5490,
    "▁Apart": 20754,
    "▁crash": 14456,
    "▁Physical": 27134,
    "▁beating": 18801,
    "Struct": 10753,
    "▁Open": 5629,
    "▁Margaret": 17197,
    "▁space": 2764,
    "ick": 681,
    "▁performance": 4397,
    "▁prost": 16306,
    "character": 19933,
    "izo": 19692,
    "ahoma": 19972,
    "//": 421,
    "<0xF4>": 247,
    "▁smelled": 27594,
    "interpret": 16789,
    "▁jeans": 21576,
    "▁Town": 8897,
    "▁Orleans": 21604,
    "▁Seit": 21761,
    "▁outlined": 28637,
    "▁Release": 19864,
    "▁fun": 746,
    "icrosoft": 5002,
    "▁prest": 15374,
    "ushing": 9305,
    "▁acknow": 10062,
    "▁Input": 11232,
    "SL": 6255,
    "▁vál": 19892,
    "around": 20886,
    "각": 30750,
    "ING": 2043,
    "radius": 18007,
    "CLIENT": 23155,
    "hy": 5942,
    "▁praise": 20707,
    "xit": 28619,
    "implement": 26922,
    "્": 31486,
    "▁Edge": 22472,
    "▁participant": 28503,
    "存": 29079,
    "": 30463,
    "▁Stock": 11548,
    "兄": 31944,
    "▁drive": 5009,
    "▁contact": 3754,
    "▁ranked": 19964,
    "Sizes": 25735,
    "▁banned": 20420,
    "▁коман": 11015,
    "▁Corn": 12506,
    "ku": 3907,
    "usz": 18645,
    "▁dire": 3247,
    "Connect": 16644,
    "▁creating": 6818,
    "▁Peg": 26806,
    "▁clever": 19345,
    "▁nú": 16248,
    "▁that": 369,
    "iert": 6257,
    "ani": 4499,
    "▁any": 707,
    "arance": 13705,
    "eling": 9365,
    "▁manif": 19924,
    "▁Sil": 6044,
    "▁supers": 25666,
    "WISE": 26251,
    "▁her": 559,
    "did": 18568,
    "▁ties": 20748,
    "▁Quest": 11657,
    "▁thé": 19353,
    "unge": 21614,
    "▁shelf": 22895,
    "▁Fight": 25143,
    "▁Jet": 28252,
    "▁credits": 21762,
    "Peer": 22163,
    "嵌": 31977,
    "iner": 4828,
    "順": 31717,
    "▁guerra": 15328,
    "▁residential": 18350,
    "▁politique": 19885,
    "anged": 4185,
    "▁pointed": 8563,
    "inner": 3739,
    "▁Girl": 10850,
    "▁topics": 13817,
    "▁classified": 22260,
    "space": 3603,
    "udd": 12370,
    "▁offset": 4470,
    "gfx": 27604,
    "▁kinds": 10698,
    "▁Iss": 16448,
    "▁fleet": 17675,
    "This": 3260,
    "▁referred": 11449,
    "▁прави": 18534,
    "tikz": 23965,
    "प": 29794,
    "ந": 31393,
    "Graphics": 20634,
    "▁li": 635,
    "▁company": 2496,
    "▁solution": 5165,
    "▁cooling": 22565,
    "▁Bez": 22627,
    "word": 2186,
    "club": 25169,
    "▁conspiracy": 25263,
    "nex": 19949,
    "asets": 20363,
    "▁handled": 15570,
    "▁cheese": 13628,
    "進": 30801,
    "▁AF": 19577,
    "▁Entre": 19361,
    "Y": 28802,
    "anz": 4879,
    "▁bur": 4564,
    "irect": 1297,
    "▁Production": 18860,
    "▁onChange": 27530,
    "▁Cle": 12132,
    "OR": 1017,
    "mean": 13646,
    "▁Bul": 10440,
    "Mac": 11483,
    "▁sauce": 16042,
    "▁}}": 11670,
    "ály": 16628,
    "issement": 18333,
    "anst": 27016,
    "▁né": 8688,
    "▁TEXT": 25775,
    "▁heat": 6601,
    "ል": 31741,
    "ally": 578,
    "▁fantasy": 17393,
    "▁too": 1368,
    "▁wonder": 3383,
    "空": 29273,
    "▁rent": 7358,
    "▁inaug": 17946,
    "äsident": 25353,
    "ou": 280,
    "▁target": 2718,
    "ep": 615,
    "nos": 21775,
    "psy": 23687,
    "▁du": 1415,
    "unsigned": 4447,
    "▁wholes": 25911,
    ")--": 20560,
    "▁Street": 5383,
    "▁retire": 26033,
    "}}$": 8112,
    "▁Appendix": 26589,
    "▁STE": 26178,
    "Tab": 7560,
    "Active": 8051,
    "承": 30761,
    "nung": 15065,
    "▁belt": 14857,
    "storm": 22239,
    "dot": 7623,
    "[-": 11440,
    "save": 6568,
    "avg": 23750,
    "▁preserve": 18018,
    "machine": 19569,
    "ND": 6916,
    "ibe": 17193,
    "etection": 22820,
    "▁dream": 4999,
    "▁projet": 28146,
    "ница": 17970,
    "ibil": 14820,
    "▁claim": 3452,
    "extension": 14530,
    "▁Гер": 21460,
    "uz": 3533,
    "Image": 4176,
    "▁pound": 15899,
    "好": 29530,
    "aturday": 8026,
    "izio": 19650,
    "М": 28856,
    "Logger": 9998,
    "▁els": 7698,
    "▁contains": 5876,
    "▁shiny": 27348,
    "verter": 14002,
    "Skip": 24322,
    "▁фі": 26204,
    "▁refresh": 19070,
    "▁exempl": 18688,
    "▁thus": 5884,
    "GF": 24390,
    "▁hun": 8275,
    "produ": 7309,
    "▁Success": 16557,
    "▁tract": 25180,
    "symbol": 11535,
    "FS": 6934,
    "▁voor": 5528,
    "orie": 12067,
    "№": 28986,
    "};": 2604,
    "▁manus": 17935,
    "▁Hollywood": 14057,
    "▁advis": 14309,
    "▁Touch": 25086,
    "kfree": 20492,
    "athers": 13877,
    "▁coc": 14609,
    "LEFT": 20528,
    "す": 29126,
    "▁bringing": 10279,
    "dc": 9147,
    "▁corporate": 12258,
    "▁jej": 18336,
    "▁raison": 26765,
    "▁practices": 10879,
    "▁guerre": 20301,
    "▁porque": 22206,
    "▁Independ": 23971,
    "▁assume": 7146,
    "canvas": 19670,
    "▁brutal": 23736,
    "▁absurd": 22976,
    "design": 16057,
    "▁AM": 10401,
    "parallel": 23068,
    "▁Broad": 12807,
    "._": 1573,
    "mutable": 13882,
    "Phase": 23357,
    "YN": 26687,
    "▁proven": 12598,
    "▁lever": 22599,
    "▁edge": 5358,
    "▁Roose": 17691,
    "▁clicking": 24675,
    "▁new": 633,
    "fox": 23312,
    "/:": 26387,
    ")}$": 16016,
    "▁enc": 2524,
    "▁für": 3446,
    "▁München": 24362,
    "▁Multi": 18317,
    "▁embedded": 20007,
    "▁stam": 25005,
    "▁prim": 2413,
    "iblical": 26896,
    "▁hook": 8825,
    "Set": 1436,
    "elijk": 11667,
    "Bus": 13989,
    "ay": 339,
    "generic": 19105,
    "▁conce": 13270,
    "emplate": 3949,
    "filled": 16683,
    "▁Rober": 4542,
    "▁harmful": 26299,
    "рой": 11835,
    "회": 29884,
    "Ε": 29563,
    "▁Commit": 9003,
    "▁Л": 3218,
    "▁Prin": 14495,
    "agn": 3450,
    "▁narr": 9819,
    "ವ": 31802,
    "sized": 20838,
    "USA": 22254,
    "▁inequality": 17522,
    "▁ор": 8973,
    "け": 30033,
    "objects": 13721,
    "▁tempt": 16372,
    "transform": 10038,
    "▁plug": 16605,
    "github": 6222,
    "▁Ф": 4111,
    "REL": 27089,
    "▁ру": 8857,
    "待": 29876,
    "azy": 13478,
    "▁cryst": 26148,
    "eti": 26834,
    "▁Pict": 22262,
    "▁că": 17586,
    "▁presid": 23790,
    "&#": 27440,
    "▁private": 1597,
    "▁losing": 10121,
    "▁ú": 6149,
    "▁cats": 18097,
    "▁ease": 12801,
    "▁Thus": 7110,
    "matched": 28206,
    "áz": 8905,
    "▁calculation": 18011,
    "遗": 31889,
    "▁imp": 2824,
    "wo": 809,
    "▁tw": 2323,
    "▁Own": 16545,
    "vil": 25521,
    "▁Jar": 20069,
    "ift": 1795,
    "▁hotel": 7689,
    "▁cuatro": 27429,
    "ató": 23095,
    "▁exotic": 27541,
    "▁lifetime": 14927,
    "Ut": 20448,
    "옵": 31629,
    "▁primera": 14422,
    "▁gepublice": 17779,
    "Pub": 17878,
    "urer": 8792,
    "▁WR": 21486,
    "ása": 21767,
    "▁Pont": 19745,
    "▁Professor": 11962,
    "<0xE5>": 232,
    "▁lad": 9776,
    "вым": 24114,
    "▁yields": 18934,
    "transl": 21175,
    "▁была": 13342,
    "컨": 31885,
    "▁приня": 27741,
    "Om": 5943,
    "<0x53>": 86,
    "issions": 5091,
    "▁investing": 22445,
    "▁Media": 9347,
    "post": 3192,
    "▁Ris": 25054,
    "дель": 21054,
    "▁forehead": 18522,
    "(\".": 15560,
    "▁SL": 20375,
    "\u0010": 30388,
    "ately": 1999,
    "▁dom": 2853,
    "re": 267,
    "▁bolt": 24610,
    "land": 1207,
    "наль": 28029,
    "▁Rodr": 20368,
    "getId": 15725,
    "Lo": 18679,
    "boy": 14803,
    "▁cake": 14833,
    "動": 29842,
    "▁backend": 24327,
    "rac": 21182,
    "мпи": 12737,
    "▁Suz": 25432,
    "▁(\"": 4734,
    "oop": 9325,
    "▁currency": 15547,
    "<0xDC>": 223,
    "writing": 19061,
    "▁violation": 22734,
    "mile": 23881,
    "笔": 31417,
    "ة": 29141,
    "';": 1775,
    "Fun": 3369,
    "▁workout": 26039,
    "icios": 27141,
    "ды": 7390,
    "▁clue": 24513,
    "▁inline": 12901,
    "▁nucle": 17336,
    "prevent": 21129,
    "😛": 31754,
    "▁proxy": 15723,
    "▁Daw": 26334,
    "▁Cross": 10464,
    "▁gets": 4739,
    "▁locked": 11422,
    "game": 8835,
    "rei": 10141,
    "▁interior": 11154,
    "▁announce": 12411,
    "stre": 12776,
    "ruct": 866,
    "Style": 4436,
    "▁platform": 5181,
    "▁hall": 7224,
    "▁rural": 13359,
    "horn": 26966,
    "▁Steam": 27543,
    "ната": 10792,
    "Print": 8781,
    "▁slight": 5543,
    "conscious": 13787,
    "<0x46>": 73,
    "Not": 2601,
    "▁across": 2673,
    "▁exist": 2588,
    "▁nou": 9276,
    "▁Mol": 16387,
    "▁sector": 9642,
    "▁Invest": 11606,
    "▁Ant": 3821,
    "▁Arbitro": 26607,
    "▁Coupe": 28650,
    "ť": 29114,
    "ultan": 24263,
    "்": 29431,
    "▁obs": 14848,
    "<0x75>": 120,
    "▁Flight": 27910,
    "▁MY": 18757,
    "pot": 14676,
    "Surface": 18436,
    "▁ву": 27983,
    "ク": 29221,
    "mao": 26995,
    "와": 30275,
    "▁gained": 14018,
    "्": 29300,
    "▁fold": 10068,
    "ism": 1443,
    "😩": 31800,
    "ֵ": 30794,
    "”.": 7445,
    "rent": 1114,
    "HL": 11758,
    "emet": 18726,
    "umb": 2915,
    "ональ": 11954,
    "▁suggests": 12308,
    "▁Фран": 15414,
    "א": 29127,
    "▁charged": 11226,
    "Pattern": 11372,
    "迭": 31820,
    "▁ens": 3956,
    "etta": 16631,
    "▁avec": 4346,
    "erv": 784,
    "▁marriage": 7811,
    "▁Communications": 26141,
    "▁distinguish": 23035,
    "SCAN": 27849,
    "▁tout": 8466,
    "▁Gib": 16090,
    "▁sinc": 19025,
    "▁Face": 7197,
    "▁});\r": 26392,
    "▁considered": 4525,
    "应": 29298,
    "WF": 27553,
    "▁symmetry": 16614,
    "бо": 2290,
    "ène": 13139,
    "rier": 5118,
    "▁agenda": 20758,
    "TES": 27625,
    "좋": 31807,
    "yg": 9690,
    "▁bio": 17004,
    "reak": 1196,
    "▁Vector": 11650,
    "▁excuse": 16803,
    "Of": 2862,
    "沙": 30960,
    "▁durante": 9794,
    "▁город": 22123,
    "▁Kot": 27209,
    "▁NAS": 18064,
    "▁hung": 7342,
    "▁Edward": 10785,
    "▁GT": 19713,
    "▁cycle": 10061,
    "▁ша": 24604,
    "▁Language": 15589,
    "Fil": 4193,
    "▁Definition": 24382,
    "잘": 31484,
    "ceived": 9110,
    "compiler": 19874,
    "WriteLine": 23315,
    "ģ": 31662,
    "ôt": 14924,
    "▁album": 4708,
    "券": 30835,
    "▁Bet": 6382,
    "▁farming": 25209,
    "▁Ex": 1529,
    "製": 31533,
    "itage": 13979,
    "ních": 21331,
    "mb": 1757,
    "▁desert": 13453,
    "▁Partner": 28382,
    "▁extract": 9131,
    "決": 31515,
    "shops": 21673,
    "▁funny": 10032,
    "()->": 4330,
    "▁eating": 8652,
    "Sec": 6291,
    "rugu": 27300,
    "extra": 13539,
    "▁участи": 25337,
    "▁rab": 16479,
    "▁empire": 21225,
    "Printf": 26462,
    "▁Alexand": 18275,
    "▁priv": 5136,
    "▁Al": 976,
    "lando": 23728,
    "▁Po": 5464,
    "击": 29698,
    "wend": 23466,
    "▁animation": 15733,
    "enge": 5451,
    "Pool": 9022,
    "▁reun": 22528,
    "▁Tro": 10682,
    "터": 29665,
    "info": 1817,
    "▁theme": 7335,
    "Lean": 25713,
    "uspend": 16547,
    "▁styled": 23138,
    "acker": 21172,
    "▁blown": 24995,
    "▁président": 25446,
    "VM": 8572,
    "▁difer": 14986,
    "▁therapy": 12238,
    "▁gele": 22933,
    "стру": 17405,
    "jär": 20034,
    "▁Batt": 17546,
    "▁bru": 16575,
    "élé": 18310,
    "▁Eg": 22684,
    "▁respons": 3559,
    "▁moves": 11662,
    "▁Database": 19534,
    "Fire": 16793,
    "anj": 18621,
    "▁CIA": 22721,
    "ouble": 1965,
    ")'": 24996,
    "rr": 1244,
    "IR": 4599,
    "▁abrupt": 21735,
    "▁Stone": 11775,
    "确": 29529,
    ".[": 20011,
    "▁Players": 26500,
    "}}(\\": 20960,
    "?_": 13900,
    "թ": 31502,
    "dates": 8097,
    "▁ри": 18937,
    "\b": 31129,
    "inx": 25032,
    "Մ": 31863,
    "andra": 13773,
    "▁viewing": 22604,
    "栏": 30583,
    "♪": 31020,
    "imit": 8381,
    "▁rose": 8536,
    "chell": 16729,
    "▁мар": 13427,
    "▁endorse": 25292,
    "ahan": 27058,
    "<0x76>": 121,
    "▁buzz": 21242,
    "▁revision": 24935,
    "▁accum": 14341,
    "___": 8485,
    "▁regex": 22899,
    "▁Ta": 14247,
    "ὸ": 30802,
    "▁reveal": 14918,
    "uda": 9657,
    "▁When": 1684,
    "▁movie": 5994,
    "▁Leave": 25487,
    "ename": 2975,
    "▁connecting": 19135,
    "etes": 10072,
    "▁Progress": 19310,
    "ids": 2298,
    "Company": 24673,
    "▁Tun": 22756,
    "▁Moses": 26625,
    "sheet": 19623,
    "▁basis": 6451,
    "xpected": 9456,
    "jem": 21608,
    "▁månaden": 27432,
    "<0x64>": 103,
    "▁spy": 21848,
    "▁gross": 17725,
    "ste": 2453,
    "▁chart": 10968,
    "▁bog": 24838,
    "Low": 21397,
    "▁Thread": 16286,
    "▁giv": 1498,
    "び": 31050,
    "围": 30174,
    "▁score": 7420,
    "▁vent": 8061,
    "snap": 26597,
    "▁abandon": 8941,
    "compare": 15715,
    "points": 8362,
    "▁generates": 26396,
    "▁Collins": 21191,
    "▁sup": 1461,
    "▁bags": 14616,
    "▁subsequent": 14235,
    "on": 266,
    "}^{\\": 6928,
    "▁developer": 21782,
    "wikipedia": 23954,
    "£": 28922,
    "レ": 29491,
    "井": 30729,
    "▁Fem": 18375,
    "▁vac": 7255,
    "▁tech": 14130,
    "brief": 17281,
    "▁details": 4162,
    "原": 29493,
    "▁salary": 19158,
    "aggio": 14061,
    "contents": 15931,
    "TI": 3373,
    "职": 31353,
    "roe": 23034,
    "▁mx": 26800,
    "ety": 4703,
    "▁moist": 17261,
    "alk": 1093,
    "onds": 15779,
    "▁ath": 20238,
    "nio": 22943,
    "Enabled": 7315,
    "訊": 30844,
    "<0xF2>": 245,
    "arin": 26327,
    "▁word": 1707,
    "▁economy": 8725,
    "anti": 7764,
    "verage": 4064,
    "<0x82>": 133,
    "bie": 12868,
    "env": 4227,
    "calc": 23114,
    "):": 1329,
    "▁consist": 4817,
    "REE": 8472,
    "▁wheat": 28135,
    "Join": 14136,
    "▁Piet": 19786,
    "Border": 14943,
    "▁Aw": 21960,
    "▁European": 6392,
    "▁seat": 7278,
    "ODO": 8267,
    "▁maintained": 15861,
    "▁women": 2525,
    "ivil": 4617,
    "▁toget": 2551,
    "▁Š": 13688,
    "ња": 15857,
    "file": 1516,
    "▁Marx": 19400,
    "ortion": 25382,
    "adt": 25916,
    "▁norte": 23656,
    "▁My": 1984,
    "▁nervous": 13665,
    "graded": 23189,
    "ა": 29134,
    "▁arc": 13605,
    "▁nun": 17043,
    "ță": 25055,
    "▁primer": 13537,
    "stride": 23665,
    "iami": 14581,
    "ession": 1893,
    "imos": 23695,
    "Transfer": 20708,
    "food": 18972,
    "▁mt": 23261,
    "▁adequate": 23193,
    "{})": 21914,
    "ilians": 24959,
    "вала": 18846,
    "<0xC6>": 201,
    "▁EV": 10752,
    "rant": 6804,
    "▁put": 1658,
    "▁facilitate": 25729,
    "▁Neil": 23467,
    "▁Problem": 24857,
    "▁Bund": 12583,
    "▁addr": 12194,
    "▁октября": 26490,
    "▁Так": 26897,
    "emi": 17957,
    "imiter": 27328,
    "索": 29630,
    "services": 12451,
    "pon": 766,
    "▁equip": 4731,
    "▁stations": 14474,
    "▁looking": 2526,
    "▁Salt": 21943,
    "转": 29357,
    "icons": 14356,
    "chat": 12932,
    "frequency": 27902,
    "keeper": 18740,
    "ată": 20426,
    "▁теле": 21094,
    "▁quasi": 19339,
    "Message": 2649,
    "ু": 30408,
    "▁Choice": 27710,
    "yout": 16478,
    "▁Mitchell": 21072,
    "居": 31055,
    "X": 28814,
    "▁Comput": 13651,
    "▁ranch": 26678,
    "▁cit": 5963,
    "▁область": 27216,
    "Rep": 4781,
    "ervation": 23587,
    "▁que": 955,
    "[:": 7720,
    "aval": 12239,
    "▁regime": 13357,
    "天": 29354,
    "▁sp": 668,
    "▁stripped": 27371,
    "▁Looks": 27684,
    "▁•": 3700,
    "▁emergency": 11843,
    "тура": 15337,
    "务": 29224,
    "ป": 29718,
    "▁ACTION": 28509,
    "hc": 20167,
    "▁Part": 2914,
    "▁girls": 6093,
    "▁Nintendo": 27784,
    "▁Learn": 16694,
    "▁lic": 6588,
    "istan": 7694,
    "▁embar": 12261,
    "▁videos": 10506,
    "<0x44>": 71,
    "tery": 15527,
    "lov": 13038,
    "ytics": 18717,
    "▁arrive": 12688,
    "plom": 10958,
    "実": 30513,
    "ists": 1583,
    "Listen": 17705,
    "rès": 22217,
    "伤": 31546,
    "▁Welt": 13543,
    "­": 28927,
    "▁SHA": 18970,
    "▁inj": 5891,
    "дер": 11078,
    "油": 31315,
    "ml": 1653,
    "▁legacy": 17424,
    "▁steps": 5944,
    "▁base": 2624,
    "▁Marketing": 17058,
    "▁fighter": 23865,
    "het": 4103,
    "POST": 8401,
    "▁Nu": 17712,
    "▁spé": 27444,
    "▁epid": 23624,
    "\"+": 13578,
    "Reset": 13709,
    "emperature": 16561,
    "\",\"": 5988,
    "▁doctors": 13500,
    "Inline": 19034,
    "raham": 11162,
    "▁Blake": 23450,
    "▁Abstract": 14372,
    "▁Unidos": 16579,
    "▁thigh": 21745,
    "Runner": 18460,
    "▁therefore": 6166,
    "Nullable": 16112,
    "▁nodes": 9249,
    "▁separated": 14700,
    "▁denied": 16703,
    "▁simplicity": 25233,
    "Bean": 12366,
    "▁cooperation": 21732,
    "▁Popular": 22864,
    "roduction": 13632,
    "Btn": 18502,
    "▁businesses": 8689,
    "▁tegen": 26602,
    "▁cleared": 15253,
    "Abs": 15521,
    "▁PRO": 7497,
    "▁present": 2169,
    "▁Council": 7457,
    "▁SD": 8629,
    "▁seeds": 17544,
    "rian": 6260,
    "▁inhab": 15734,
    "▁**\"": 24079,
    "千": 30516,
    "ENCE": 15683,
    "▁actual": 4695,
    "▁puzzle": 28071,
    "▁conversion": 13833,
    "aughters": 17350,
    "CONNE": 20064,
    "▁forgive": 24014,
    "Actions": 15826,
    "HA": 13307,
    "ські": 18708,
    "▁unhappy": 26658,
    "ancel": 8046,
    "▁Americans": 8165,
    "Member": 10553,
    "itsch": 22158,
    "collect": 16077,
    "ņ": 30076,
    "score": 11831,
    "▁applying": 14893,
    "gc": 18499,
    "FT": 5550,
    "NOT": 7536,
    "▁spectrum": 12066,
    "▁од": 5524,
    "▁Tow": 21906,
    "▁december": 22155,
    "▁images": 6203,
    "override": 23754,
    "▁consumers": 13776,
    "▁mot": 2808,
    "▁Background": 24316,
    "尾": 30473,
    "▁promises": 20626,
    "bootstrap": 19453,
    "▁council": 14725,
    "sel": 2325,
    "복": 30357,
    "▁Woods": 28628,
    "▁januari": 23162,
    "▁lun": 17999,
    "▁Ach": 26067,
    "ILITY": 8101,
    "▁\\(": 18823,
    "▁parent": 2564,
    "▁на": 929,
    "▁prepared": 7998,
    "▁enthusi": 18185,
    "зво": 22392,
    "▁cups": 19646,
    "▁[...": 21089,
    "Lou": 24618,
    "GL": 4727,
    "▁Indep": 13487,
    "preventDefault": 24744,
    "▁events": 3926,
    "ULAR": 12103,
    "▁si": 2144,
    "vare": 5869,
    "▁PARTIC": 12942,
    "ém": 4854,
    "▁Ul": 12063,
    "▁trailer": 21498,
    "▁api": 10429,
    "писа": 13099,
    "▁philosoph": 8829,
    "▁Tre": 9485,
    "oly": 20055,
    "勇": 31920,
    "▁sympathy": 26453,
    "▁sober": 26903,
    "菜": 30038,
    "▁emp": 7911,
    "▁resigned": 28286,
    "Pad": 17117,
    "▁breakdown": 26987,
    "ział": 27320,
    "▁anybody": 15159,
    "▁welcome": 10058,
    "广": 30017,
    "▁Earl": 20096,
    "▁introduce": 13097,
    "running": 17316,
    "uc": 1485,
    "Locked": 28554,
    "Sign": 7384,
    "upload": 12657,
    "▁housing": 11821,
    "则": 29310,
    "▁Rest": 9576,
    "▁Configuration": 20058,
    "▁Cann": 25535,
    "łą": 22660,
    "▁Stories": 26667,
    "▁design": 2621,
    "▁measurements": 16080,
    "ше": 3647,
    "pet": 6193,
    "▁Ä": 18912,
    "TIMEOUT": 21911,
    "Ă": 30148,
    "Role": 10047,
    "lam": 5989,
    "CUR": 13336,
    "▁Sau": 23707,
    "▁Tibet": 28288,
    "▁difficult": 3796,
    "rid": 3361,
    "pin": 10002,
    "нами": 25039,
    "动": 29129,
    "ถ": 30491,
    "ен": 939,
    "▁teen": 10799,
    "ike": 2474,
    "Validation": 14355,
    "‪": 31791,
    "Ü": 28961,
    "策": 30777,
    "▁esp": 7581,
    "▁Really": 19393,
    "▁spray": 19084,
    "▁bereits": 21037,
    "▁delle": 8419,
    "Bool": 15571,
    "▁artistic": 20925,
    "▁Barb": 25223,
    "ذ": 29609,
    ")}{\\": 23045,
    "┌": 31294,
    "▁unh": 20581,
    "▁dried": 20283,
    "▁structural": 21431,
    "neut": 23806,
    "CAP": 13706,
    "▁releasing": 28364,
    "∗": 31088,
    "Dep": 7091,
    "Side": 16170,
    "▁Freder": 15411,
    "▁winning": 9821,
    "▁Nathan": 20514,
    "▁supported": 6615,
    "Groups": 14958,
    "▁Southern": 12031,
    "▁Heat": 24191,
    "▁Vir": 6595,
    "});\r": 26636,
    "预": 30098,
    "▁blowing": 26168,
    "▁screens": 18794,
    "ч": 28826,
    "ierre": 22874,
    "▁они": 26150,
    "<0x73>": 118,
    "disp": 28223,
    "▁assumption": 14776,
    "WR": 7210,
    "▁\"'": 13006,
    "selector": 15438,
    "▁leurs": 17951,
    "▁contrary": 19909,
    "▁-": 387,
    "rons": 13455,
    "Column": 4115,
    "Slot": 15457,
    "▁dia": 24558,
    "mons": 22863,
    "uration": 2394,
    "电": 29742,
    "산": 30336,
    "▁elev": 9896,
    "▁geld": 17704,
    "▁них": 25071,
    "ads": 6722,
    "iously": 7990,
    "smithy": 23512,
    "SQL": 9295,
    "▁Cov": 19121,
    "▁grant": 13154,
    "▁jazz": 19460,
    "el": 301,
    "▁peculiar": 25876,
    "▁Students": 17091,
    "Product": 7840,
    "▁versus": 17063,
    "iii": 19747,
    "▁compelling": 26295,
    "▁August": 3628,
    "aped": 7279,
    "ICK": 14595,
    "▁Anyone": 21012,
    "ậ": 29667,
    "▁presc": 20791,
    "▁American": 2556,
    "▁civil": 6259,
    "norm": 10767,
    "▁commanded": 27288,
    "vm": 4332,
    "▁precise": 17008,
    "▁Red": 3690,
    "▁adapted": 22427,
    "Types": 5433,
    "ateg": 2026,
    "▁lect": 11774,
    "▁Seven": 21283,
    "▁prosecut": 16813,
    "▁clan": 25750,
    "sko": 21821,
    "▁second": 1676,
    "▁er": 1234,
    "Front": 20802,
    "iforn": 5507,
    "aul": 2857,
    "ход": 16363,
    "PREFIX": 21321,
    "▁uuid": 26886,
    "▁angle": 10417,
    "rived": 27643,
    "▁Duncan": 27815,
    "▁comparison": 10367,
    "▁attendance": 25269,
    "▁Sara": 23365,
    "•": 28899,
    "▁heap": 22340,
    "rå": 16348,
    "-$": 15191,
    "▁suffer": 13572,
    "vo": 3144,
    "images": 10341,
    "▁explosion": 22258,
    "icos": 8368,
    "ω": 29214,
    "▁Green": 6248,
    "▁Another": 6880,
    "▁Grade": 27073,
    "▁knowledge": 4788,
    "ві": 4093,
    "▁Pack": 11676,
    "▁peg": 21979,
    "▁resolution": 10948,
    "▁alto": 28077,
    "ahl": 7010,
    "*\r": 13667,
    "▁hur": 7033,
    "▁father": 3140,
    "('\\": 21421,
    "▁cognitive": 25746,
    "COLOR": 20266,
    "▁IX": 22343,
    "▁sust": 8131,
    "▁preserv": 16176,
    "TextBox": 27828,
    "▁Arbe": 24355,
    "▁barn": 18581,
    "Š": 28966,
    "}}\\": 5260,
    "▁Februar": 21341,
    "anced": 3692,
    ".]": 20148,
    "}',": 23930,
    "▁reality": 6940,
    "▁couples": 18576,
    "▁Fair": 11587,
    "oen": 13280,
    "▁??": 19563,
    "委": 31397,
    "btn": 8226,
    "▁extraordinary": 17809,
    "▁exclusive": 14359,
    "▁recipes": 21116,
    "ocur": 28457,
    "Ş": 29528,
    "▁letting": 12815,
    "▁=>": 953,
    "aute": 19830,
    "▁manually": 23060,
    "Great": 26315,
    "▁много": 20580,
    "▁ded": 5589,
    "ALIGN": 26380,
    "”)": 27521,
    "▁buffer": 5496,
    "ř": 28883,
    "Application": 7951,
    "▁key": 1945,
    "rass": 12316,
    "▁Nar": 16392,
    "▁dancing": 17319,
    "ician": 8247,
    "▁partnership": 13737,
    "▁Hall": 6756,
    "▁conservative": 16038,
    "кий": 6442,
    "chsel": 22509,
    "▁quadr": 24053,
    "）": 29185,
    "▁habitantes": 22575,
    "▁ren": 6419,
    "▁Wire": 26375,
    "▁t": 261,
    "▁profit": 11876,
    "▁parameters": 5287,
    "SEL": 17992,
    "▁diffé": 18406,
    "▁subm": 24301,
    "ORMAL": 24321,
    "plicit": 6026,
    "▁US": 2223,
    "▁fraud": 17764,
    "ifndef": 17981,
    "▁který": 28162,
    "▁Tri": 9982,
    "▁vers": 3502,
    "White": 18729,
    "itter": 4706,
    "▁attended": 12359,
    "Ṣ": 30871,
    "▁Project": 7759,
    "▁demand": 5637,
    "息": 29069,
    "MAN": 16357,
    "▁elder": 15966,
    "лав": 9032,
    "▁Ос": 20203,
    "lt": 2244,
    "▁sites": 7363,
    "▁що": 8647,
    "▁Old": 7470,
    "▁plenty": 8969,
    "▁seam": 23878,
    "▁mercy": 25856,
    "▁SEC": 26760,
    "灣": 31521,
    "arc": 6527,
    "зульта": 17674,
    "])": 2803,
    "▁federal": 8432,
    "ˌ": 30636,
    "▁atmos": 12644,
    "▁<=": 5042,
    "ployment": 9129,
    "▁unfortunate": 27245,
    "▁doub": 19686,
    "ieler": 11963,
    "▁headers": 12489,
    "├": 29635,
    "▁Long": 6428,
    "ones": 2402,
    "text": 772,
    "▁menu": 8514,
    "▁Papa": 27091,
    "▁whilst": 18703,
    "▁banking": 22265,
    "Disable": 22497,
    "strlen": 26192,
    "▁internet": 7865,
    "▁otras": 23891,
    "▁*)": 4491,
    "}(": 2292,
    "▁NE": 9991,
    "▁etwa": 16588,
    "▁konnte": 19059,
    "▁passed": 4568,
    "▁females": 21903,
    "▁has": 659,
    "▁ns": 9250,
    "▁click": 6046,
    "Extensions": 19904,
    "▁Vik": 20820,
    "▁Аль": 27436,
    "▁MD": 15834,
    "▁Denmark": 26486,
    "ieties": 13998,
    "iores": 22530,
    "Figure": 25665,
    "▁sister": 5668,
    "▁Pre": 4258,
    "▁Col": 1888,
    "▁%.": 23301,
    "▁courage": 15276,
    "stand": 1793,
    "EY": 17306,
    "▁clusters": 20501,
    "锁": 30448,
    "arsi": 21478,
    "Reflection": 24633,
    "▁variety": 6677,
    "▁photos": 8886,
    "Database": 9906,
    "▁rac": 6567,
    "▁expend": 27040,
    "achers": 26120,
    "▁fields": 5080,
    "▁schedul": 10119,
    "ო": 29627,
    "▁Products": 21061,
    "dw": 13233,
    "料": 29733,
    "hit": 18564,
    "ated": 601,
    "ை": 30576,
    "angers": 10568,
    "jango": 11913,
    "▁fitted": 21163,
    "Rank": 24347,
    "跨": 31864,
    ";": 28745,
    "▁world": 1526,
    "izable": 11552,
    "lua": 20487,
    "▁juris": 21716,
    "Index": 2359,
    "Asset": 16328,
    "▁GC": 22278,
    "▁Jour": 26074,
    "▁desk": 9431,
    "-------------": 22843,
    "Topic": 25462,
    "▁também": 17591,
    "Sil": 22658,
    "ishi": 28499,
    "raise": 8694,
    "▁sounded": 13219,
    "сси": 6993,
    "anks": 3750,
    "<0x38>": 59,
    "cmp": 8093,
    "ells": 8855,
    "▁Menu": 19615,
    "▁lamp": 21157,
    "<0xDB>": 222,
    "▁ро": 2527,
    "iera": 10608,
    "чной": 24607,
    "uced": 22333,
    "▁vet": 22116,
    "CO": 1998,
    "Remove": 10013,
    "▁neighborhood": 10501,
    "otic": 7839,
    "▁Construct": 23821,
    "ahoo": 27568,
    "sup": 10809,
    "illing": 8317,
    "▁besch": 15049,
    "observ": 22276,
    "zerw": 23244,
    "ounge": 24346,
    "нова": 9662,
    "▁Par": 2316,
    "▁As": 1136,
    "▁Final": 10222,
    "▁prayers": 26742,
    "重": 29249,
    "▁glory": 20756,
    "issues": 19474,
    "Bottom": 15482,
    "▁Atlantic": 16343,
    "ят": 13793,
    "▁provisions": 22321,
    "orneys": 27808,
    "▁PD": 28054,
    "▁injury": 11254,
    "์": 29923,
    "optim": 18425,
    "▁declaration": 19827,
    "Editor": 8859,
    "ony": 2557,
    "▁bless": 14389,
    "Balance": 24317,
    "老": 30209,
    "▁Mathemat": 26698,
    "▁ces": 11844,
    "▁Medical": 12195,
    "▁Row": 14392,
    "groups": 12420,
    "▁ridic": 12882,
    "rá": 12210,
    "\r\r": 21259,
    "▁melt": 19542,
    "▁Plan": 9116,
    "▁dav": 21696,
    "urm": 24563,
    "OUT": 7217,
    "▁feet": 4051,
    "▁signs": 10090,
    "ounce": 10818,
    "ĉ": 31962,
    "isf": 4281,
    "Je": 19485,
    "υ": 29071,
    "▁Slov": 27347,
    "▁union": 10784,
    "▁seinem": 17342,
    "BUILD": 23972,
    "▁premier": 9877,
    "դ": 31344,
    "client": 3305,
    "acles": 14395,
    "▁kon": 5765,
    "▁decay": 15224,
    "стави": 16316,
    "ペ": 30534,
    ">\\": 11266,
    "alt": 2304,
    "▁memcpy": 27398,
    "ね": 31197,
    "ALSE": 7241,
    "✦": 31709,
    "▁CONDITIONS": 12231,
    "▁в": 649,
    "▁ceiling": 15273,
    "':": 1869,
    "‹": 29922,
    ")\\": 2681,
    "▁lesson": 15330,
    "▁ignoring": 22484,
    "}}}\\": 27705,
    "▁acquired": 14178,
    "trained": 28247,
    "RIP": 16373,
    "ifr": 23568,
    "▁ü": 4675,
    "eli": 20949,
    "▁responsibility": 9680,
    "▁twisted": 18337,
    "キ": 29753,
    "▁developing": 10423,
    "▁magnificent": 27574,
    "▁Microsoft": 7902,
    "소": 29566,
    "▁satell": 17345,
    "气": 30627,
    "це": 3876,
    "сите": 15327,
    "▁Bill": 6502,
    "▁Index": 12348,
    "▁loc": 1195,
    "Decode": 23757,
    "▁resulted": 16960,
    "▁Exception": 7011,
    "▁publication": 14098,
    "prop": 5607,
    "packed": 26713,
    "▁indicated": 14075,
    "▁Mas": 9183,
    "▁Tennessee": 19793,
    "avid": 20163,
    "▁ont": 7957,
    "▁victims": 13980,
    "▁Dub": 11037,
    "▁fe": 701,
    "wq": 23519,
    "▁install": 4430,
    "▁lob": 27806,
    "▁concentrated": 25088,
    "▁Hence": 12478,
    "▁pró": 22045,
    "▁dz": 14732,
    "▁wat": 4940,
    "uzione": 20219,
    "▁tir": 24532,
    "间": 29117,
    "▁gmin": 19079,
    "Met": 4680,
    "MI": 5877,
    "▁terra": 25836,
    "clip": 8031,
    "▁md": 12358,
    ".“": 24033,
    "▁Template": 23469,
    "un": 370,
    "ֹ": 30600,
    "nie": 4255,
    "ilde": 7894,
    "▁GB": 22709,
    "彩": 30902,
    "ivan": 18148,
    "њи": 24860,
    "拳": 31588,
    "▁Kon": 8294,
    "WIN": 14655,
    "!=": 14379,
    "▁honey": 18411,
    "{{": 6652,
    "▁IP": 7076,
    "▁Windows": 8955,
    "▁Alabama": 20339,
    "▁ah": 27069,
    "onne": 18304,
    "frames": 19304,
    "▁$('#": 23927,
    "▁DEF": 18899,
    "▁Low": 13091,
    "▁healthy": 7783,
    "指": 29223,
    "testing": 10163,
    "▁Palmar": 26385,
    "apes": 7722,
    "▁ign": 4303,
    "▁author": 3227,
    "ств": 5050,
    "▁Maur": 14728,
    "▁evaluate": 15627,
    "lection": 1784,
    "▁mapped": 25058,
    "▁well": 1162,
    "▁generator": 17128,
    "▁gibt": 21959,
    "riv": 814,
    "▁suppliers": 24295,
    "▁Girls": 19873,
    "<0x37>": 58,
    "▁Read": 4939,
    "▁ability": 5537,
    "▁clinic": 24629,
    "▁audience": 7938,
    "▁Experience": 19428,
    "нва": 22220,
    "Ν": 29966,
    "cript": 2489,
    "充": 30282,
    "plies": 7631,
    "дия": 20303,
    "丶": 31734,
    "▁prison": 6587,
    "multip": 20317,
    "strument": 15549,
    "▁powers": 11750,
    "Shared": 15686,
    "itch": 1986,
    "about": 14146,
    "direct": 9423,
    "▁fluid": 15144,
    "holders": 15523,
    "▁chef": 16749,
    "▁три": 15397,
    "ញ": 31901,
    "▁Deep": 14972,
    "aines": 17251,
    "America": 25696,
    "▁metric": 12463,
    "ju": 8948,
    "NF": 23000,
    "bitr": 10642,
    "▁chairs": 17538,
    "▁inherit": 22492,
    "rolling": 14342,
    "▁sull": 14974,
    "Bel": 20548,
    "▁risk": 4623,
    "lington": 26183,
    "nate": 25134,
    "ление": 9042,
    "▁formats": 23468,
    "▁value": 1192,
    "多": 29292,
    ")$.": 7239,
    "▁fires": 21600,
    "▁override": 8013,
    "──": 16526,
    "参": 29172,
    "})$.": 23012,
    "▁arise": 21700,
    "▁presenting": 27445,
    "ROM": 6224,
    "▁proto": 10209,
    "♣": 30726,
    "iante": 26681,
    "ups": 9023,
    "▁Corporation": 12377,
    "▁Rose": 10655,
    "Let": 8779,
    "bye": 17664,
    "▁READ": 24805,
    "▁secret": 5169,
    "ie": 412,
    "▁weakness": 18288,
    "heimer": 24556,
    "▁Credit": 18004,
    "▁echo": 3894,
    "rollers": 16865,
    "室": 30763,
    "▁boundary": 10914,
    "▁religious": 8553,
    "wald": 26246,
    "▁fees": 12845,
    "▁Wang": 23024,
    "TAG": 12137,
    "front": 6072,
    "Off": 3922,
    "ensor": 4037,
    "▁spons": 12439,
    "Which": 26703,
    "ката": 24648,
    "Feed": 20967,
    "▁accept": 3458,
    "▁Arm": 9700,
    "▁repl": 4802,
    "▁companions": 24804,
    "▁collect": 5902,
    "▁achieved": 12011,
    "Scheme": 23171,
    "netje": 15617,
    "▁EXPORT": 20713,
    "ے": 30522,
    "▁Ohio": 13834,
    "助": 30278,
    "▁searching": 12869,
    "return": 807,
    "▁français": 14299,
    "暂": 30547,
    "▁Douglas": 17335,
    "Man": 2356,
    "▁Jag": 18672,
    "▁effects": 6092,
    "▁ки": 12902,
    "Bank": 25022,
    "Serv": 11529,
    "Nil": 24456,
    "▁Software": 6583,
    "мии": 18551,
    "▁Android": 12654,
    "▁стру": 27471,
    "▁Supreme": 14887,
    "▁toujours": 23800,
    "Statement": 9299,
    "량": 31314,
    "ade": 770,
    "▁There": 1387,
    "▁practice": 5245,
    "osex": 17777,
    "cid": 20020,
    "▁Value": 8382,
    "▁ratings": 21381,
    "▁glasses": 16014,
    "reference": 14772,
    "▁Rol": 15524,
    "▁сві": 25271,
    "▁returning": 11585,
    "ober": 2510,
    "aded": 8744,
    "ented": 12713,
    "▁Ор": 20805,
    "<0xD9>": 220,
    "▁Time": 5329,
    "▁embrace": 20318,
    "PRO": 4202,
    "estr": 25926,
    "ṃ": 30454,
    "finite": 12244,
    "▁wouldn": 4048,
    "▁Transaction": 26524,
    "▁коло": 28242,
    "Channel": 7766,
    "management": 24700,
    "metric": 13997,
    "▁intimate": 22772,
    "”,": 9350,
    "STAT": 5974,
    "▁juillet": 18458,
    "▁Tok": 12925,
    "▁Nad": 18973,
    "graph": 4133,
    "▁quand": 27462,
    "ि": 29554,
    "▁paint": 6192,
    "▁saint": 27361,
    "▁cent": 1595,
    "▁Buffer": 21495,
    "组": 29205,
    "▁Editor": 15361,
    "▁distances": 24224,
    "―": 29370,
    "▁celebration": 20744,
    "▁sand": 6830,
    "▁sports": 8657,
    "▁spiritual": 11054,
    "▁{": 371,
    "}=\\": 11241,
    "▁formula": 11303,
    "cheduled": 23382,
    "ers": 404,
    "▁Fried": 10763,
    "▁######": 14432,
    "DataSource": 23422,
    "▁rum": 10203,
    "ský": 25811,
    "▁miracle": 27569,
    "▁Sov": 8872,
    "Come": 14724,
    "ма": 1530,
    "NV": 16106,
    "▁telling": 7124,
    "▁Lyn": 15975,
    "}\",": 13394,
    "anguage": 2797,
    "pressed": 12041,
    "▁Map": 7662,
    "Db": 13171,
    "igne": 9908,
    "ies": 497,
    "\\\"": 4883,
    "▁sud": 13800,
    "WD": 23460,
    "▁nodded": 7313,
    "▁anch": 24723,
    "발": 30482,
    "▁revolutionary": 24444,
    "▁Islam": 10251,
    "yar": 17073,
    "▁address": 2962,
    "▁feder": 27006,
    "줄": 31060,
    "▁lum": 17709,
    "max": 2416,
    "お": 30089,
    "рів": 18941,
    "▁endless": 18284,
    "▁wy": 8501,
    "▁MI": 17808,
    "▁XVIII": 23984,
    "UE": 3027,
    ">&": 8591,
    "▁accepting": 22368,
    "hip": 1557,
    "roke": 7923,
    "sche": 8203,
    "▁Ins": 9513,
    "▁meal": 11314,
    "▁wire": 9112,
    "▁кар": 17438,
    "web": 4311,
    "▁Wilson": 11421,
    "Autom": 23556,
    "（": 29186,
    "▁Season": 16887,
    "caption": 7150,
    "grade": 7844,
    "▁Environmental": 25607,
    "▁TL": 24783,
    "▁'''": 23713,
    "▁channels": 11671,
    "▁libre": 27922,
    "▁what": 767,
    "▁seiz": 25368,
    "afka": 22167,
    "чи": 2348,
    "▁recogn": 4169,
    "кар": 22688,
    "▁machine": 5599,
    "▁Thought": 26142,
    "▁SND": 27126,
    "▁begins": 10658,
    "▁airport": 14400,
    "former": 20700,
    "лаго": 22085,
    "ড": 31388,
    "ASK": 16804,
    "▁lav": 22181,
    "▁crazy": 9280,
    "▁themes": 18978,
    "▁smoke": 10619,
    "▁Londres": 26432,
    "issa": 13723,
    "\"\"": 2539,
    "<0x50>": 83,
    "▁reflected": 17222,
    "▁sixty": 20739,
    "▁unre": 27011,
    "▁fired": 12196,
    "▁vic": 13051,
    "▁Van": 7647,
    "ר": 29075,
    "ŕ": 31795,
    "n": 28711,
    "Source": 4220,
    "scale": 5705,
    "ident": 1129,
    "▁approxim": 7288,
    "▁moments": 9235,
    "bles": 9343,
    "ALLOC": 23513,
    "urls": 25110,
    "ŭ": 30295,
    "ört": 26105,
    ").": 609,
    "Policy": 7755,
    "▁viagra": 26805,
    "PIN": 18104,
    "▁studio": 9659,
    "intendo": 25467,
    "▁labour": 18995,
    "plicate": 13112,
    "rection": 19445,
    "},\\": 7472,
    "mot": 16322,
    "▁jail": 16215,
    "ery": 1193,
    "▁retired": 15451,
    "兼": 31474,
    "▁Arizona": 17289,
    "ühr": 7736,
    "ště": 27832,
    "▁Years": 16886,
    "▁Fund": 11051,
    "▁layout": 9866,
    "▁http": 3550,
    "▁Northern": 12781,
    "пера": 11687,
    "LT": 24913,
    "▁Не": 12112,
    "▁boats": 19706,
    "▁code": 2696,
    "▁Sport": 11093,
    "grp": 25890,
    "람": 31390,
    "京": 29936,
    "▁Ten": 11819,
    "agles": 26664,
    "ilo": 10630,
    "▁Stad": 4988,
    "▁a": 264,
    "olid": 11128,
    "▁appreciate": 11982,
    "ガ": 30613,
    "稱": 31599,
    "▁threats": 19843,
    "sem": 5367,
    "▁opp": 3562,
    "attrs": 15215,
    "▁aliment": 27863,
    "Phil": 23886,
    "が": 29309,
    "▁relative": 7986,
    "seau": 24554,
    "▁Clinton": 15656,
    "▁erre": 19473,
    "窗": 30171,
    "threads": 26202,
    ");\r": 1761,
    "ète": 21056,
    "▁easiest": 28605,
    "": 30477,
    "Bay": 26663,
    "▁filing": 28617,
    "▁iPhone": 17391,
    "</": 700,
    "▁Four": 9611,
    "▁Maurice": 25350,
    "▁these": 1167,
    "▁Sand": 7512,
    "сков": 20060,
    "慢": 31480,
    "▁duty": 11193,
    "▁streaming": 18000,
    "ý": 28889,
    "▁Celt": 28417,
    "拦": 31549,
    "▁Sort": 24822,
    "Owner": 15431,
    "▁(__": 27534,
    "▁objects": 6697,
    "洋": 31434,
    "ger": 1097,
    "▁equipo": 23742,
    "▁eu": 19932,
    "▁Suite": 25660,
    "▁програ": 23462,
    "▁Upon": 20921,
    "manager": 9307,
    "▁smiles": 24733,
    "落": 30874,
    "👌": 31156,
    "▁uit": 5478,
    "▁cer": 6942,
    "Definition": 7753,
    "para": 16175,
    "stmt": 15011,
    "▁нов": 23844,
    "+\\": 3767,
    "▁finding": 7484,
    "색": 30508,
    "▁Historia": 23051,
    "кономи": 28189,
    "▁een": 2817,
    "▁index": 2991,
    "▁requirements": 8296,
    "дол": 24019,
    "Ad": 3261,
    "▁epis": 6030,
    "▁Load": 11924,
    "▁predict": 6782,
    "▁creative": 9811,
    "▁Tu": 16063,
    "Adv": 20300,
    "ower": 1072,
    "▁julio": 26018,
    "▁cops": 19407,
    "▁Cycl": 27548,
    "ellan": 22661,
    "<0x7D>": 128,
    "▁acres": 20647,
    "ix": 833,
    "sample": 11493,
    "сов": 16581,
    "▁tenant": 26057,
    "quest": 6911,
    "▁summon": 21720,
    "▁Ś": 18730,
    "▁intro": 24671,
    "з": 28812,
    "": 31363,
    "PAR": 6969,
    "side": 2205,
    "Single": 12357,
    "▁limits": 11656,
    "ID": 1138,
    "▁America": 4352,
    "▁inform": 5227,
    "▁Фе": 18329,
    "▁PHP": 20194,
    "▁Sleep": 24027,
    "什": 30289,
    "▁fp": 16108,
    "ም": 31798,
    "▁PUR": 12269,
    "▁invas": 28606,
    "▁Hig": 14327,
    "HP": 22106,
    "kow": 12637,
    "▁mientras": 22188,
    "▁signal": 7528,
    "▁nove": 9076,
    "utsch": 7732,
    "▁№": 15778,
    "▁Entry": 23256,
    "quer": 10376,
    "▁utilizing": 28464,
    "▁spreading": 22244,
    "▁Highway": 22248,
    "▁candid": 5767,
    "atomic": 14435,
    "▁liked": 8232,
    "$~": 26051,
    "Show": 8398,
    "igh": 956,
    "*\"": 27045,
    "▁з": 1119,
    "▁обе": 26949,
    "REAM": 18607,
    "achment": 9809,
    "gebiet": 20794,
    "<0x93>": 150,
    "щё": 27859,
    "▁Ale": 9766,
    "AST": 12440,
    "▁Abd": 18386,
    "љ": 28918,
    "▁Oh": 5434,
    "<0x9E>": 161,
    "footer": 18743,
    "▁sele": 25019,
    "inal": 1475,
    "anel": 6843,
    "▁Kirche": 19978,
    "▁fork": 24143,
    "顯": 30851,
    "▁Campaign": 27003,
    "▁insight": 16164,
    "nent": 21846,
    "▁Nr": 25108,
    "▁protagon": 18521,
    ")\r": 3174,
    "▁Sally": 27034,
    "▁reluct": 19238,
    "▁ruined": 25151,
    "Parallel": 26549,
    "bytes": 6845,
    "▁td": 28272,
    "unden": 16436,
    "Х": 28904,
    "▁coup": 20822,
    "izia": 24536,
    "▁mult": 2531,
    "▁protests": 24740,
    "▁hero": 10725,
    "lambda": 3266,
    "▁FE": 21121,
    "▁motor": 8609,
    "Transform": 10143,
    "▁computed": 16860,
    "wheel": 25952,
    "▁decrease": 17889,
    "▁év": 16249,
    "ismo": 7027,
    "증": 30713,
    "▁Turner": 22913,
    "▁silver": 9746,
    "南": 29680,
    "▁attempt": 4236,
    "▁contro": 10184,
    "系": 29401,
    "▁\"${": 12833,
    "▁Symbol": 19775,
    "므": 31831,
    "▁Chand": 27384,
    "▁вой": 11891,
    "stant": 4774,
    "▁Sohn": 25364,
    "▁men": 1683,
    "volution": 22424,
    "▁Geschichte": 16088,
    "▁suoi": 22452,
    "plugins": 16142,
    "Class": 2472,
    "du": 670,
    "operation": 9731,
    "▁patron": 20367,
    "ely": 723,
    "▁durch": 6331,
    "ulp": 20784,
    "열": 30243,
    "▁окт": 22546,
    "▁cush": 25602,
    "▁klub": 22782,
    "▁sight": 7739,
    "▁divisions": 23868,
    "<0x3A>": 61,
    "浪": 31752,
    "▁attr": 7527,
    "▁pages": 6718,
    "working": 20867,
    "▁camp": 2791,
    "項": 30829,
    "▁Reserved": 23182,
    "▁sharply": 26002,
    "antes": 6682,
    "▁breeze": 24284,
    "/*!": 19994,
    "▁approaches": 13945,
    "▁say": 1315,
    "▁сту": 20558,
    "ła": 6905,
    "ця": 16407,
    "▁Brand": 14135,
    "▁wounded": 17084,
    "▁rubber": 20452,
    "▁HP": 22379,
    "▁dice": 22544,
    "fico": 24465,
    "▁posto": 24808,
    "undef": 25083,
    "▁Lub": 25115,
    "Marshal": 24374,
    "▁spoken": 14382,
    "▁chr": 27515,
    "▁Results": 17412,
    "至": 30067,
    "respond": 27092,
    "Emb": 25841,
    "▁masses": 17536,
    "▁ray": 21338,
    "ו": 29006,
    "сту": 6777,
    "ylv": 10685,
    "下": 29061,
    "Complete": 14928,
    "ée": 2110,
    "мента": 24455,
    "Changes": 19249,
    "버": 30041,
    "ions": 594,
    "▁lattice": 19124,
    "☉": 31670,
    "▁Singh": 24442,
    "降": 30852,
    "жен": 6565,
    "Notify": 22596,
    "▁forests": 25770,
    "reach": 18932,
    "gra": 24045,
    "▁Implement": 26256,
    "uding": 9155,
    "▁prospect": 11450,
    "▁deputy": 25176,
    "▁roll": 4595,
    "▁translation": 13846,
    "▁loudly": 28003,
    "eso": 28485,
    "yan": 8455,
    "erry": 13327,
    "▁Sebastian": 26115,
    "▁Sold": 20651,
    "▁Og": 26826,
    "execute": 11095,
    "orth": 2217,
    "▁MP": 13259,
    "▁Greece": 20438,
    "Branch": 21822,
    "泉": 31271,
    "eline": 4661,
    "SIG": 26956,
    "inent": 10742,
    "▁city": 2990,
    "pad": 9845,
    "apis": 20716,
    "▁Harris": 16692,
    "amil": 8551,
    "▁Fred": 11317,
    "避": 31059,
    "▁Move": 13663,
    "▁sm": 991,
    "▁counsel": 14625,
    "▁filed": 16691,
    "▁au": 2505,
    "▁Dal": 12732,
    "MG": 26860,
    "▁Didn": 27326,
    "<>(": 27315,
    "▁id": 1910,
    "▁vous": 16906,
    "serial": 12355,
    "▁category": 8011,
    "▁cause": 4244,
    "WEBPACK": 16524,
    "ք": 31289,
    "▁enjoy": 3555,
    "▁rad": 2847,
    "PATH": 9759,
    "▁Chapter": 7513,
    "MBER": 26172,
    "po": 2345,
    "▁issue": 4291,
    "ׁ": 31039,
    "▁Enterprise": 27018,
    "hang": 15140,
    "▁supportive": 27729,
    "▁Rad": 6444,
    "filename": 9639,
    "▁zusammen": 20467,
    "▁ве": 6048,
    "id": 313,
    "▁sor": 5279,
    "▁consecut": 19213,
    "EA": 18772,
    "THE": 25898,
    "▁które": 26320,
    "倍": 31070,
    "мати": 15481,
    "uther": 14425,
    "ну": 2954,
    "Sk": 9150,
    "▁Ltd": 14374,
    "министратив": 26332,
    "▁fab": 7372,
    "ourse": 8306,
    "allery": 9050,
    "ului": 11956,
    "▁gang": 13071,
    "Thank": 15896,
    "순": 30891,
    "▁graphic": 22693,
    "PARAMETER": 26242,
    "autom": 23033,
    "Mu": 24887,
    "▁shoe": 24023,
    "▁Points": 24304,
    "fg": 4113,
    "сько": 5205,
    "ן": 29618,
    "▁tard": 16796,
    "kr": 6175,
    "ospital": 4998,
    "▁orders": 8636,
    "ACT": 7637,
    "Ð": 30305,
    "IGN": 8656,
    "▁WARRANTIES": 9327,
    "▁OR": 3994,
    "}_{\\": 6198,
    "▁lib": 6538,
    "▁aesthetic": 27974,
    "createElement": 17023,
    "calls": 28622,
    "cls": 16723,
    "ocial": 24186,
    "▁locally": 17600,
    "▁étaient": 24572,
    "▁Official": 26356,
    "aps": 1882,
    "ong": 566,
    "▁words": 3085,
    "▁Def": 4367,
    "ws": 6420,
    "▁Pr": 1921,
    "лен": 3997,
    "▁tak": 10644,
    "▁ships": 11296,
    "Helpers": 15506,
    "▁Fran": 26578,
    "olf": 5209,
    "Header": 5404,
    "worker": 18205,
    "开": 29177,
    "▁broken": 7098,
    "----": 502,
    "▁ham": 11218,
    "ees": 6436,
    ")$,": 7927,
    "▁compl": 3852,
    "psilon": 6000,
    "▁exception": 5851,
    "вати": 16234,
    "ologia": 16241,
    ",*": 17205,
    "▁newest": 27510,
    "atori": 13191,
    "▁UEFA": 26837,
    "(\"": 618,
    "ist": 392,
    "▁Zone": 20312,
    "▁marvel": 27778,
    "гар": 17260,
    "▁mur": 4834,
    "czy": 11486,
    "Χ": 30438,
    "▁Mem": 6011,
    "ит": 28562,
    "═": 29090,
    "▁bei": 5617,
    "ним": 8895,
    "▁Sql": 20950,
    "ō": 28934,
    "ölker": 26087,
    "Map": 2446,
    "graphics": 6648,
    "v": 28728,
    "▁Ital": 4503,
    "ching": 11097,
    "ression": 9202,
    "execut": 15873,
    "▁Sull": 25519,
    "▁Steven": 20257,
    "Point": 4164,
    "▁INC": 27814,
    "reation": 14318,
    "iour": 27290,
    "▁painful": 17340,
    "fileName": 25695,
    "▁rem": 1003,
    "乱": 31380,
    "▁Julie": 22706,
    "}:": 11290,
    "▁Mil": 5040,
    "Threshold": 26436,
    "▁Arg": 10852,
    "мини": 17804,
    "▁wound": 10063,
    "▁adoles": 23988,
    "▁grants": 26218,
    "运": 29798,
    "iste": 6508,
    "▁edited": 19527,
    "支": 29428,
    "▁Each": 7066,
    "AC": 1645,
    "NOWN": 21016,
    "宁": 30670,
    "▁Singapore": 17366,
    "isy": 23444,
    "▁controvers": 14375,
    "nullptr": 25610,
    "Buffer": 4182,
    "iale": 9712,
    "embed": 18320,
    "▁cheek": 10863,
    "▁Spect": 22636,
    "ADDR": 12617,
    "▁shorts": 27365,
    "pixel": 22078,
    "▁Val": 3474,
    "apache": 5025,
    "│": 29032,
    "▁be": 347,
    "▁ehemal": 24156,
    "▁haz": 17617,
    "▁warm": 6100,
    "ioso": 28328,
    "▁bem": 28111,
    "▁consent": 15134,
    "▁pipe": 13661,
    "ieb": 25295,
    "▁countries": 5780,
    "▁configure": 20919,
    "▁fever": 22041,
    "▁restr": 6134,
    "GD": 25730,
    "}_": 2427,
    "▁stab": 21670,
    "remark": 22569,
    "▁('": 8272,
    "elde": 27675,
    "Process": 6007,
    "▁horses": 11938,
    "SPI": 23483,
    "Ա": 30953,
    "▁pobl": 12226,
    "▁IMP": 15347,
    "ossip": 24634,
    "hre": 27056,
    "▁caval": 23481,
    "▁expenses": 16972,
    "▁herman": 27311,
    "тан": 12680,
    "▁gest": 7165,
    "мер": 8840,
    "ြ": 31887,
    "▁Organization": 21919,
    "▁reconc": 25349,
    "dashboard": 28261,
    "▁assignment": 15657,
    "▁Universe": 27131,
    "options": 3538,
    "eu": 15810,
    "▁check": 1877,
    "▁Kirk": 21746,
    "ichte": 9382,
    "ram": 3212,
    "ibilities": 10796,
    "▁scenes": 14380,
    "▁Probably": 19969,
    "ro": 311,
    "ktor": 22605,
    ".'": 1815,
    "▁tourists": 25313,
    "security": 10165,
    "▁mer": 3051,
    "chnitt": 28644,
    "Entry": 4909,
    "FA": 3120,
    "▁kö": 8392,
    "snapshot": 23932,
    "uve": 22322,
    "kal": 16192,
    "▁weekend": 9071,
    "▁bew": 20039,
    "▁préc": 18308,
    "amo": 14156,
    "▁Е": 5612,
    "▁renov": 19103,
    "▁indirect": 20690,
    "PROPERTY": 28575,
    "▁exp": 2365,
    "▁Dav": 3476,
    "▁office": 4007,
    "tha": 15716,
    "▁anchor": 19042,
    "anging": 6185,
    "▁Iran": 10942,
    "▁Bog": 19925,
    "除": 29153,
    "====": 965,
    "pay": 6762,
    "ร": 29167,
    "있": 29604,
    "ice": 535,
    "endance": 15292,
    "äck": 27841,
    "IMPORTED": 16846,
    "ze": 1374,
    "agner": 23862,
    "▁detailed": 10537,
    "Guid": 17893,
    "property": 6558,
    "World": 11978,
    "▁stated": 9256,
    "▁scale": 5657,
    "scr": 10426,
    "▁wo": 14277,
    "▁hopes": 15721,
    "**)": 12885,
    "▁consensus": 24337,
    "號": 30809,
    "💪": 31520,
    "̯": 30541,
    "▁items": 4907,
    "▁Print": 13281,
    "▁Perry": 24150,
    "▁Maggie": 25858,
    "▁aver": 13363,
    "▁leaning": 21208,
    "Own": 8824,
    "ﬁ": 30160,
    "▁regul": 15991,
    "▁boards": 19434,
    "▁journalists": 26197,
    "getMessage": 18219,
    "총": 31696,
    "▁bottles": 20353,
    "▁controller": 11792,
    "▁That": 1725,
    "▁Atlanta": 18279,
    "adelphia": 14690,
    "▁Carib": 25212,
    "...,": 25272,
    "▁spawn": 23131,
    "ibr": 2792,
    "▁policy": 4920,
    "▁integration": 14678,
    "apy": 8264,
    "ither": 1940,
    "▁emer": 5177,
    "▁Portland": 23732,
    "cup": 6663,
    "Guard": 24093,
    "☠": 31840,
    "▁gegründ": 28222,
    "views": 13064,
    "▁ob": 818,
    "▁are": 460,
    "lex": 1913,
    "▁Haven": 24077,
    "▁Familie": 25549,
    "▁INT": 13289,
    "emás": 20540,
    "▁під": 11103,
    "Last": 7202,
    "▁publisher": 21568,
    "room": 3017,
    "yster": 26879,
    "▁uno": 10956,
    "▁attitude": 12910,
    ".$": 5910,
    "userId": 23490,
    "▁pel": 6704,
    "频": 30030,
    "▁follow": 1372,
    "usions": 12378,
    "annte": 25542,
    "ро": 728,
    "▁Assembly": 12033,
    "▁є": 15020,
    "▁certified": 20654,
    "▁lieutenant": 26219,
    "지": 29161,
    "like": 4091,
    "UnityEngine": 24658,
    "▁scene": 6337,
    "▁Cz": 23172,
    "ÿ": 30281,
    "範": 31974,
    "▁shru": 13922,
    "▁Dod": 22790,
    "ству": 14198,
    "▁Comm": 3008,
    "▁Data": 5284,
    "uum": 14388,
    "pie": 9053,
    "owym": 24547,
    "▁Kong": 12544,
    "▁Sex": 14213,
    "▁cont": 679,
    "▁время": 13493,
    "nor": 18651,
    "▁preference": 21448,
    "▁department": 9784,
    "▁Billy": 14532,
    "▁Wall": 9117,
    "▁KIND": 11067,
    "象": 29254,
    "mals": 26449,
    "▁pam": 26362,
    "▁Machine": 13253,
    "Subject": 22210,
    "▁Syn": 18192,
    "▁lobby": 18891,
    "<0xB7>": 186,
    "▁find": 1300,
    "finity": 19104,
    "▁Con": 1325,
    "Box": 4114,
    "▁or": 442,
    "▁reported": 5745,
    "▁Financial": 17146,
    "ookie": 10235,
    "Drawing": 10280,
    "imp": 10750,
    "ulas": 21541,
    "Sub": 3540,
    "▁King": 4041,
    "▁ISO": 23052,
    "▁scary": 23957,
    "properties": 10723,
    "ological": 4423,
    "град": 21947,
    "▁hacer": 21581,
    "▁wir": 25609,
    "▁doesn": 2368,
    "▁width": 4850,
    "園": 31299,
    "汇": 31768,
    "▁popular": 4387,
    "MS": 3477,
    "▁aspect": 6563,
    "FAIL": 12546,
    "ской": 4683,
    "▁stamp": 22665,
    "▁Draw": 16412,
    "▁$.": 10884,
    "<0x5D>": 96,
    "▁Estados": 16737,
    "ICS": 24194,
    "▁compat": 10794,
    "▁marker": 18844,
    "kat": 22332,
    "▁Mov": 26544,
    "▁lanç": 27394,
    "▁unple": 28331,
    "Must": 15033,
    "▁Poll": 19116,
    "▁як": 15143,
    "▁Fra": 12699,
    "▁объ": 18661,
    "▁wages": 24110,
    "さ": 29422,
    "▁SW": 13322,
    "▁punct": 22195,
    "▁damit": 23929,
    "▁packaging": 24501,
    "▁wall": 3500,
    "▁Bronnen": 13228,
    "▁wave": 8333,
    "ul": 353,
    "Cor": 9903,
    "▁Term": 10764,
    "START": 12241,
    "wart": 11328,
    "MX": 26534,
    "▁decision": 5161,
    "ends": 2827,
    "▁haber": 28349,
    "ক": 29982,
    "тельно": 21195,
    "▁cop": 5029,
    "pf": 10018,
    "▁romance": 21695,
    "û": 28951,
    "▁fully": 5894,
    "▁substant": 10883,
    "icense": 1823,
    "Custom": 7219,
    "cref": 27742,
    "▁order": 1745,
    "ètres": 21412,
    "▁pressed": 12263,
    "▁À": 13193,
    "$}": 15489,
    "▁Email": 16880,
    "sy": 3467,
    "▁ensuite": 26368,
    "▁agrees": 28175,
    "▁До": 9193,
    "▁Make": 6746,
    "▁sep": 26007,
    "lands": 5603,
    "▁improvement": 14204,
    "▁volume": 7531,
    "ging": 3080,
    "▁super": 2195,
    "Generic": 9115,
    "emph": 7883,
    "<0xF8>": 251,
    "▁hot": 3296,
    "\"`": 8312,
    "▁do": 511,
    "▁containing": 8707,
    "▁Portug": 11211,
    "▁Af": 8786,
    "secure": 20684,
    "marker": 19169,
    "▁exper": 1469,
    "////////": 2810,
    "Eng": 5871,
    "isten": 13866,
    "▁bell": 15676,
    "▁encountered": 19148,
    "▁half": 2795,
    "▁Carol": 7274,
    "▁delay": 8579,
    "▁guards": 16113,
    "otti": 22703,
    "ћи": 25213,
    "▁Craw": 27580,
    "宮": 31116,
    "耗": 31188,
    "lig": 4310,
    "▁pc": 16883,
    "ondo": 23743,
    "▁tomorrow": 10759,
    "▁Mull": 27647,
    "▁Operation": 16536,
    "▁interrupted": 21640,
    "▁abril": 20594,
    "Exit": 18385,
    "▁${": 6051,
    "▁toward": 4112,
    "▁sie": 4748,
    "▁separately": 22264,
    "▁moving": 5272,
    "Serial": 9124,
    "▁Start": 7043,
    "▁methods": 5562,
    "Claim": 27154,
    "feed": 16454,
    "▁hi": 12014,
    "ан": 2239,
    "▁anos": 21307,
    "stra": 6781,
    "▁arom": 26835,
    "▁у": 1351,
    "activity": 15996,
    "pling": 8182,
    "▁использова": 28658,
    "labels": 17031,
    "frame": 3413,
    "================": 3047,
    "▁UI": 16324,
    "▁grad": 4317,
    "administr": 28181,
    "▁corrid": 17518,
    "ött": 14521,
    "▁earliest": 21864,
    "Report": 10493,
    "º": 28936,
    "▁distress": 25669,
    "▁mode": 4388,
    "▁Bug": 27431,
    "别": 29705,
    "▁q": 4256,
    "\u000e": 30517,
    "▁bal": 4549,
    "bu": 7330,
    "▁Spring": 9199,
    "▁Observ": 15951,
    "OT": 2185,
    "CONTEXT": 27181,
    "рован": 21306,
    "▁grave": 14272,
    "▁fore": 2417,
    "Default": 4158,
    "▁Ме": 8749,
    "}}(": 12900,
    "▁Fifth": 23359,
    "Student": 28514,
    "oration": 9990,
    "字": 29031,
    "複": 31119,
    "CONT": 12162,
    "hspace": 13368,
    "aca": 13690,
    "▁decis": 23286,
    "osten": 17074,
    "楼": 30309,
    "▁depressed": 27696,
    "gamma": 3933,
    "DEC": 23763,
    "▁there": 736,
    "iration": 8679,
    "▁Ti": 24881,
    "lyph": 18516,
    "▁mehr": 11152,
    "circ": 9565,
    "▁alter": 13496,
    "▁striking": 19910,
    "시": 29236,
    "▁tires": 25966,
    "▁gut": 16492,
    "▁Statement": 28055,
    "▁explained": 7955,
    "inz": 12461,
    "ду": 2454,
    ":**": 4049,
    "▁eff": 1397,
    "ling": 1905,
    "looking": 13377,
    "ição": 18992,
    "▁Guerra": 21913,
    "Shop": 22775,
    "▁cnt": 27160,
    "library": 16228,
    "奇": 30786,
    "ode": 573,
    "▁Collections": 27395,
    "ij": 1230,
    "都": 29460,
    "▁organ": 2170,
    "▁Mechan": 27164,
    "era": 2126,
    "▁Пра": 25074,
    "▁Mitglied": 20977,
    "▁из": 2879,
    "▁warrior": 25838,
    "ored": 2455,
    "Date": 3465,
    "HTML": 9986,
    "▁comfort": 5034,
    "details": 13856,
    "Variables": 27192,
    "small": 9310,
    "ENV": 22985,
    "▁Nic": 11921,
    "▁birth": 5950,
    "▁regarded": 15390,
    "▁court": 5484,
    "saved": 21428,
    "ff": 496,
    "▁sac": 6923,
    "rias": 23603,
    "▁Valley": 10509,
    "▁також": 20768,
    "▁Vari": 14794,
    "ника": 6990,
    "▁inverse": 22668,
    "uis": 14867,
    "gather": 24136,
    "▁Provinc": 27600,
    "▁patri": 17668,
    "цо": 19812,
    "▁Licensed": 10515,
    "▁thoughts": 7403,
    "▁Michigan": 13642,
    "▁WC": 27825,
    "▁distance": 5328,
    "▁zomb": 28437,
    "FM": 18642,
    "▁Bour": 16078,
    "row": 671,
    "▁legitimate": 20954,
    "▁Am": 2740,
    "Ap": 4750,
    "▁interaction": 11186,
    "hub": 21230,
    "▁distant": 15569,
    "▁verl": 24255,
    "$:": 27561,
    "▁uk": 20028,
    "$$": 10811,
    "▁tu": 8582,
    "achelor": 18753,
    "▁periodic": 23404,
    "▁balcon": 26472,
    "ituted": 28346,
    "▁Kore": 8680,
    "poses": 9339,
    "ars": 1168,
    "SELECT": 10696,
    "▁affili": 11795,
    "emit": 12265,
    "▁SS": 13823,
    "▁Sunday": 7729,
    "▁Truth": 23981,
    "▁those": 1395,
    "▁général": 16166,
    "сто": 2276,
    "▁train": 5835,
    "▁Secret": 9233,
    "▁conoc": 16022,
    "▁trauma": 24815,
    "▁advantage": 7859,
    "▁chapters": 25310,
    "▁pet": 5408,
    "illed": 2636,
    "色": 29395,
    "▁www": 9404,
    "itutional": 16820,
    "▁Republican": 12294,
    "▁XML": 16537,
    "▁intr": 7677,
    "irlines": 22201,
    "葉": 31513,
    "▁correspon": 4408,
    "▁Theod": 22704,
    "▁mast": 27529,
    "▁statements": 12908,
    "▁animated": 25693,
    "▁pants": 16721,
    "rific": 16878,
    "▁assessment": 15081,
    "<0xF5>": 248,
    "BT": 12656,
    "City": 22013,
    "\"><": 10123,
    "ROW": 19989,
    "▁Zu": 22231,
    "lish": 2295,
    "▁Similar": 24232,
    "華": 31365,
    "▁офи": 28266,
    "Override": 3398,
    "###": 27332,
    "▁qual": 4109,
    "▁border": 6765,
    "orne": 13528,
    "▁nj": 28572,
    "▁packet": 11200,
    "CPP": 18954,
    "▁corner": 6581,
    "Vec": 12790,
    "▁Colorado": 15837,
    "▁poet": 8796,
    "óg": 14376,
    "▁'</": 20182,
    "g": 28721,
    "iones": 4639,
    "pro": 729,
    "▁dit": 8052,
    "['": 1410,
    "▁Fly": 20049,
    "anç": 5154,
    "▁money": 2445,
    "elif": 13963,
    "▁Glass": 23026,
    "assador": 19536,
    "lemma": 13177,
    "chten": 23708,
    "зом": 19359,
    "timer": 10179,
    "▁hostile": 26616,
    "▁Lit": 25003,
    "ゼ": 31998,
    "當": 31332,
    "Row": 5590,
    "▁EXPECT": 7270,
    "▁Tommy": 20893,
    "堆": 31732,
    "▁Senate": 13442,
    "▁Obama": 11764,
    "▁porte": 25509,
    "値": 30261,
    "▁apple": 19767,
    "ёл": 17374,
    "▁bre": 3412,
    "▁Christians": 17209,
    "▁Organ": 8702,
    "▁domin": 9241,
    "tere": 20291,
    "▁unfortunately": 22014,
    "вар": 15669,
    "ść": 10683,
    "▁пу": 12382,
    "дом": 13503,
    "ORM": 14851,
    "▁myth": 13345,
    "▁przed": 22749,
    "▁immigrants": 22475,
    "♡": 31104,
    "Best": 19112,
    "${": 3996,
    "translation": 1694,
    "▁legend": 12851,
    "▁stell": 14062,
    "▁outstanding": 17329,
    "chet": 24388,
    "olog": 1165,
    "번": 29756,
    "ainte": 24243,
    "▁computers": 18518,
    "체": 29823,
    "▁Career": 18050,
    "annon": 18182,
    "Transport": 20036,
    "▁award": 7619,
    "ಕ": 31468,
    "duration": 15458,
    "▁Viv": 23849,
    "ErrorCode": 26998,
    "將": 30858,
    "tera": 20328,
    ",-": 7667,
    "▁Cyr": 26832,
    "▁difficulty": 14426,
    "cho": 2415,
    "alls": 6629,
    "amt": 13805,
    "auc": 14158,
    "▁obsc": 16502,
    "owany": 19035,
    "STER": 23194,
    "inton": 11462,
    "uge": 3683,
    "▁cum": 14931,
    "▁ov": 18611,
    "▁слу": 12276,
    "fake": 16325,
    "▁hace": 28329,
    "▁Diese": 21988,
    "▁Track": 13907,
    "ո": 29837,
    "isecond": 20086,
    "▁süd": 24625,
    "▁UTC": 21811,
    "▁rules": 5879,
    "▁variation": 18423,
    ">'": 14117,
    "լ": 30834,
    "▁file": 1729,
    "孙": 31206,
    "▁ге": 16247,
    "ext": 1205,
    "instr": 25725,
    "▁periodo": 26959,
    "ustral": 16472,
    "ġ": 31173,
    "мери": 11883,
    "ци": 1788,
    "他": 29440,
    "刪": 31668,
    "▁combine": 17470,
    "ä": 28830,
    "တ": 31624,
    "uset": 13222,
    "▁пло": 17223,
    "▁passion": 8773,
    "ada": 1540,
    "서": 29305,
    "▁rott": 28156,
    "__(/*!": 25351,
    "aughter": 4762,
    "liferay": 18802,
    "▁recon": 9220,
    "important": 24754,
    "}}{": 9412,
    "节": 29312,
    "oyle": 28251,
    "▁abc": 18641,
    "▁spoke": 7310,
    "Pars": 26412,
    "▁faith": 7152,
    "▁congreg": 25324,
    "▁Close": 18537,
    "usr": 16785,
    "▁который": 19676,
    "▁suspension": 26542,
    "▁uncertainty": 18110,
    ".*;": 17362,
    "▁honom": 28657,
    "▁ли": 5952,
    "▁juni": 26489,
    "▁restoration": 27243,
    "Plan": 14944,
    "icates": 23860,
    "CONNECT": 27482,
    "▁illustrated": 24210,
    "icy": 2451,
    "▁Environment": 14802,
    "neh": 12667,
    "▁accompany": 17039,
    "免": 30596,
    "ixed": 3162,
    "}</": 10050,
    "és": 1442,
    "▁frü": 27197,
    "<0x10>": 19,
    "anger": 3689,
    "▁Art": 3951,
    "қ": 30417,
    "sex": 12396,
    "jav": 13314,
    "仙": 31859,
    "Simple": 13256,
    "яв": 24548,
    "CK": 2889,
    "▁pleasure": 10736,
    "zens": 18218,
    "ANCE": 11823,
    "\\!": 24835,
    "ế": 29622,
    "绝": 30981,
    "寸": 31222,
    "▁sections": 12458,
    "Very": 26119,
    "ber": 537,
    "ern": 1173,
    "eva": 13237,
    "บ": 29447,
    "fen": 16926,
    "wc": 20894,
    "发": 29099,
    "探": 31498,
    "LP": 11661,
    "лось": 14119,
    "▁horizon": 18259,
    "▁majority": 7757,
    "▁cute": 17949,
    "members": 20672,
    "▁ноября": 27251,
    "▁absence": 13841,
    "Score": 18120,
    "cfg": 6245,
    "▁tab": 7683,
    "保": 29321,
    "▁skip": 8583,
    "H": 28769,
    "▁visitors": 12085,
    "▁assistance": 11611,
    "boot": 9446,
    "▁courses": 12318,
    "▁tower": 15894,
    "▁names": 2955,
    "usted": 16551,
    "▁(†": 19143,
    "▁Jane": 10805,
    "drop": 8347,
    "configure": 19425,
    "▁Zero": 23697,
    "▁tram": 23536,
    "live": 17064,
    "▁onde": 25747,
    "▁sizeof": 4619,
    "<0x23>": 38,
    "▁derived": 11236,
    "\\_": 14048,
    "▁constructor": 11429,
    "rous": 20162,
    "ṛ": 30407,
    "▁tossed": 23057,
    "▁were": 654,
    "▁pb": 27933,
    "适": 30640,
    "败": 29384,
    "ready": 1968,
    "Private": 12455,
    "Step": 9977,
    "▁shelter": 18596,
    "antic": 6164,
    "als": 973,
    "▁blind": 10337,
    "<0x8D>": 144,
    "▁tries": 14744,
    "▁ly": 18467,
    "▁vertex": 14183,
    "Press": 12954,
    "▁Sat": 10586,
    "▁critic": 8394,
    "▁succeeded": 17751,
    "們": 31247,
    "▁disco": 20962,
    "skiego": 17983,
    "▁Finally": 8126,
    "▁Crit": 16773,
    "vertex": 19251,
    "lisher": 14970,
    "esta": 9221,
    "▁Он": 25507,
    "▁bit": 2286,
    "resent": 2044,
    "роди": 21145,
    "▁era": 4204,
    "atern": 14516,
    "▁Anth": 12240,
    "subfigure": 22854,
    "skill": 26676,
    "▁Cry": 20254,
    "<0x3C>": 63,
    "▁gener": 1350,
    "▁analyzed": 28649,
    "▁segundo": 22667,
    "▁industrial": 10663,
    "▁generated": 7138,
    "▁sheet": 12173,
    "arter": 4136,
    "tail": 11557,
    "▁Empire": 13657,
    "Nodes": 12674,
    "▁Biography": 27167,
    "▁extraord": 14577,
    "рова": 7921,
    "▁journey": 8123,
    "▁royal": 13753,
    "9": 28774,
    "▁Ban": 14859,
    "ющи": 10645,
    "[<": 19533,
    "▁fl": 972,
    "▁touchdown": 27866,
    "▁east": 9005,
    "screen": 8555,
    "ursor": 12558,
    "choice": 23817,
    "▁intu": 21141,
    "ặ": 30681,
    "▁announ": 4898,
    "▁driving": 7810,
    "😔": 31303,
    "▁Imper": 15428,
    "▁Modern": 13950,
    "▁tremend": 20555,
    "雲": 31986,
    "():": 5888,
    "▁namespace": 4772,
    "<0xD4>": 215,
    "дар": 9211,
    "▁Chris": 9900,
    "▁Ext": 10145,
    "句": 30347,
    "▁Vo": 15800,
    "▁Task": 10290,
    "kor": 17066,
    "▁deeply": 11869,
    "rière": 14825,
    "▁Ма": 5564,
    "▁Ger": 7801,
    "▁Rivers": 28574,
    "▁permit": 12748,
    "▁soil": 14315,
    "▁ella": 19880,
    "▁homem": 28431,
    "▁Sus": 9167,
    "▁occurring": 28265,
    "▁tournament": 14809,
    "▁Marian": 27117,
    "▁Today": 8784,
    "▁fet": 16685,
    "How": 5660,
    "chestra": 18357,
    "▁patches": 26961,
    "死": 30435,
    "Aut": 3967,
    "itory": 4560,
    "iffs": 17820,
    "▁monaster": 27128,
    "▁Moscow": 17293,
    "위": 29744,
    "▁Party": 6636,
    "▁drew": 11547,
    "STRING": 10505,
    "agu": 12736,
    "ikan": 13579,
    "armed": 22508,
    "broad": 27867,
    "▁cele": 5207,
    "▁um": 3205,
    "▁▁▁▁▁▁▁": 5390,
    "▁cement": 22701,
    "estival": 6805,
    "▁maker": 27065,
    "額": 31086,
    "▁совет": 21130,
    "▁bedroom": 9384,
    "(`": 11045,
    "▁observer": 21854,
    "▁designated": 20444,
    "▁Fun": 6785,
    "▁gent": 8888,
    "eding": 13917,
    "emb": 20603,
    "sten": 6062,
    "▁satisfies": 19546,
    "含": 29872,
    "reader": 14646,
    "getString": 14077,
    "ět": 16610,
    "▁large": 2475,
    "<0x66>": 105,
    "▁First": 4205,
    "▁handful": 18303,
    "▁O": 451,
    "/$": 23530,
    "▁dif": 1025,
    "▁press": 2944,
    "pace": 2644,
    "retry": 23608,
    "▁tand": 27631,
    "爆": 31817,
    "▁verk": 21164,
    "उ": 31691,
    "▁Line": 9127,
    "Hz": 12659,
    "海": 29726,
    "ey": 1437,
    "range": 6347,
    "填": 29875,
    "Psi": 11506,
    "▁risks": 14679,
    "currency": 16714,
    "▁може": 16903,
    "▁bears": 25051,
    "▁bezeichnet": 26314,
    "▁Trump": 6932,
    "▁ensuring": 20083,
    "park": 21387,
    "вод": 9798,
    "▁neur": 24170,
    "▁min": 1187,
    "▁Mau": 27804,
    "▁hous": 5995,
    "neath": 20316,
    "▁ey": 1746,
    "▁Eli": 17177,
    "ḍ": 30351,
    "▁increasingly": 13107,
    "ITER": 25784,
    "▁tan": 12222,
    "Depth": 17603,
    "▁prove": 7674,
    "研": 30943,
    "▁options": 2877,
    "wich": 14013,
    ".\"_": 26408,
    "▁engaged": 13173,
    "▁ambitious": 28213,
    "Standard": 17899,
    "illance": 22740,
    "达": 30079,
    "element": 4172,
    "▁Commons": 21470,
    "▁np": 7494,
    "itemize": 14287,
    "▁Phil": 4322,
    "ump": 1804,
    "gray": 17645,
    "Speed": 17608,
    "Control": 5452,
    "encoding": 17958,
    "▁soc": 1859,
    "▁hill": 12254,
    "▁pare": 13103,
    "▁observations": 13875,
    "▁auss": 10471,
    "LEAN": 26925,
    "she": 6623,
    "erten": 28645,
    "країн": 24226,
    "ver": 343,
    "▁head": 1335,
    "▁ERROR": 16383,
    "anal": 11267,
    "▁alike": 21892,
    "▁blond": 28506,
    "kv": 23546,
    "hab": 8237,
    "▁Those": 8827,
    "▁phot": 3724,
    "▁cod": 18128,
    "transition": 19655,
    "▁Besides": 14862,
    "assembly": 16476,
    "oday": 19761,
    "‏": 30128,
    "(['": 18706,
    "▁fs": 14731,
    "▁painter": 24372,
    "▁cons": 1102,
    "▁Following": 13407,
    "▁enjoyable": 26104,
    "▁Kaz": 16359,
    "热": 30898,
    "▁overwhel": 12987,
    "ès": 3781,
    "▁présent": 23428,
    "▁CPU": 14865,
    "链": 29615,
    "regular": 17534,
    "Some": 11600,
    "ail": 614,
    "windows": 12113,
    "▁ValueError": 26378,
    "為": 30198,
    "eve": 21111,
    "EXEC": 28121,
    "URN": 12071,
    "▁accused": 16380,
    "Integr": 23636,
    "▁Web": 6353,
    "TRAN": 15100,
    "▁careers": 26072,
    "udi": 11091,
    "ע": 29295,
    "Requ": 1924,
    "Fig": 10638,
    "▁ib": 12964,
    "▁puede": 16523,
    "prec": 9805,
    "▁ticket": 13490,
    "▁Dans": 14527,
    "ската": 19537,
    "andom": 3318,
    "▁pist": 16034,
    "Keyboard": 27418,
    "two": 10861,
    "▁Collection": 13079,
    "чна": 18541,
    "рен": 9273,
    "ificación": 28369,
    "rait": 10613,
    "▁Used": 17477,
    "know": 19726,
    "▁sovere": 24819,
    "🙄": 30323,
    "逻": 30928,
    "▁Gef": 26566,
    "▁drove": 11496,
    "▁Р": 2399,
    "Region": 11518,
    "ศ": 30859,
    "▁plate": 9703,
    "IDENT": 20734,
    "▁documented": 26624,
    "▁Swiss": 22255,
    "pmatrix": 22469,
    "erved": 8065,
    "占": 30825,
    "▁Async": 28671,
    "▁Period": 24592,
    "▁ring": 6791,
    "显": 29446,
    "▁battle": 6651,
    "▁Route": 15593,
    "▁\"../": 15835,
    "▁These": 2957,
    "Cap": 9953,
    "▁lecture": 23347,
    "LIMIT": 26722,
    "▁Coal": 25243,
    "Format": 5056,
    "ى": 29591,
    "▁flag": 6673,
    "̥": 30808,
    "▁web": 4686,
    "▁Дж": 16046,
    "პ": 31053,
    "aus": 1899,
    "▁submar": 26680,
    "▁Kath": 14940,
    "oport": 27917,
    "▁escape": 8957,
    "none": 8607,
    "▁supporting": 11787,
    "▁Sounds": 27067,
    "esar": 22221,
    "sigma": 3630,
    "isa": 7682,
    "▁Germans": 18121,
    "▁preview": 25203,
    "ː": 29240,
    "▁farmers": 17130,
    "火": 30479,
    "olic": 7437,
    "▁page": 2884,
    "Authentication": 19504,
    "▁none": 6547,
    "obi": 16204,
    "▁passive": 24246,
    "▁mo": 3418,
    "лек": 22122,
    "▁sigh": 19553,
    "Target": 5332,
    "OPER": 24500,
    "▁Module": 19694,
    "▁inserted": 23511,
    "▁arrange": 23503,
    "▁sank": 24215,
    "duct": 2478,
    "严": 31871,
    "pose": 3896,
    "▁answer": 4372,
    "Read": 3390,
    "認": 30697,
    "bian": 18632,
    "WA": 12245,
    "▁dur": 5598,
    "▁verb": 12143,
    "▁creat": 2911,
    "▁generate": 8270,
    "▁mim": 26302,
    "än": 5300,
    "anth": 12344,
    "**:": 9189,
    "/**\r": 14756,
    "ICES": 22285,
    "▁Found": 5196,
    "Service": 2328,
    "랜": 31256,
    "▁combined": 9837,
    "▁bec": 838,
    "ords": 4318,
    "ingham": 15419,
    "▁treating": 22656,
    "分": 29062,
    "riven": 21694,
    "▁they": 590,
    "▁sop": 16766,
    "▁madre": 26032,
    "ISD": 24375,
    "▁assure": 25510,
    "▁ve": 1773,
    "én": 2864,
    "LOAD": 10614,
    "iest": 11281,
    "▁cls": 15488,
    "▁Instead": 8162,
    "atter": 2466,
    "face": 1797,
    "aml": 13148,
    "▁edit": 10659,
    "横": 31249,
    "COMP": 9028,
    "▁Theater": 19725,
    "flush": 14568,
    "▁größ": 22707,
    "▁opposite": 9089,
    "▁développ": 26601,
    "混": 31493,
    "Constructor": 15940,
    "▁comm": 901,
    "▁Un": 935,
    "▁Roma": 17246,
    "외": 31132,
    "elf": 599,
    "телей": 16871,
    "<0x79>": 124,
    "▁Zeit": 10740,
    "▁dependence": 18964,
    "▁UK": 6194,
    "▁Germ": 3279,
    "picture": 15847,
    "▁extensive": 13571,
    "▁banda": 21838,
    "车": 30062,
    "▁load": 3442,
    "ih": 4371,
    "<0x62>": 101,
    "ŏ": 29869,
    "▁Andrew": 10390,
    "沒": 30931,
    "▁consid": 23604,
    "Generated": 11882,
    "▁planned": 10233,
    "▁Hat": 23792,
    "宝": 30172,
    "cip": 22169,
    "—\"": 6816,
    "Statistics": 27478,
    "▁overview": 23094,
    "zą": 10412,
    "局": 29978,
    "tk": 9808,
    "▁loved": 6045,
    "avax": 6598,
    "hu": 9538,
    "Station": 23558,
    "제": 29526,
    "▁P": 367,
    "▁dyn": 16150,
    "▁Chem": 18199,
    "▁prefer": 5273,
    "▁manner": 8717,
    "Mil": 28355,
    "노": 30525,
    "umer": 3972,
    "cery": 20322,
    "Util": 3609,
    "IB": 6147,
    "sert": 1121,
    "▁trick": 10777,
    "ero": 2036,
    "ód": 9666,
    "▁less": 2108,
    "▁Poly": 21493,
    "Dao": 20660,
    "▁She": 985,
    "Und": 19707,
    "ние": 2676,
    "▁\")": 20263,
    "▁Ronald": 28173,
    "adas": 5959,
    "▁econom": 3620,
    "▁chopped": 28393,
    "▁insult": 17441,
    "▁unit": 5028,
    "▁cater": 22250,
    "▁surface": 5439,
    "ifacts": 24639,
    "▁Minor": 28394,
    "Ї": 29879,
    "TX": 7956,
    "ő": 28886,
    "▁hyper": 11503,
    "pag": 19383,
    "ჩ": 31527,
    "▁bottom": 5859,
    "▁Ther": 16481,
    "B": 28760,
    "ʷ": 30847,
    "▁battery": 12609,
    "Ob": 1445,
    "▁blacks": 28101,
    "▁cf": 24211,
    "▁io": 8665,
    "rod": 9413,
    "MESSAGE": 22391,
    "▁prime": 8139,
    "▁Services": 8074,
    "▁craft": 9949,
    "PO": 3402,
    "Total": 10240,
    "<0x06>": 9,
    "}.": 2051,
    "jack": 19181,
    "pr": 783,
    "▁sum": 2648,
    "幸": 31339,
    "oving": 8259,
    "These": 18171,
    "gling": 18700,
    "oping": 22970,
    "пен": 21954,
    "च": 30671,
    "▁focused": 9045,
    "кола": 14222,
    "І": 28929,
    "▁trav": 6834,
    "▁circ": 4713,
    "geb": 5141,
    "▁overall": 7544,
    "▁recognised": 28549,
    "Som": 22767,
    "▁Loren": 23658,
    "▁seit": 13959,
    "records": 28257,
    "▁proposition": 26201,
    "▁Zach": 26926,
    "▁indices": 17853,
    "ERN": 7920,
    "<0xEB>": 238,
    "Art": 10363,
    "ño": 6987,
    "▁Dar": 8220,
    "payment": 18589,
    "▁gram": 18756,
    "support": 6658,
    "▁Reb": 15794,
    "ilor": 20323,
    "▁#!": 20025,
    "atra": 21909,
    "▁gir": 27585,
    "}}}": 14111,
    "▁Lord": 6208,
    "ipping": 10206,
    "▁suscept": 27595,
    "ède": 24272,
    "▁fond": 8987,
    "▁Лу": 16332,
    "▁wool": 25943,
    "\")": 1243,
    "▁ox": 18229,
    "ooth": 6771,
    "离": 30254,
    "▁Bark": 27542,
    "tools": 14091,
    "Master": 16060,
    "(|": 18214,
    "Body": 6982,
    "▁Felix": 26463,
    "anim": 12714,
    "▁states": 4605,
    "фо": 21103,
    "orna": 25190,
    "▁Chinese": 6707,
    "▁ар": 8691,
    "▁Buch": 17680,
    "▁dispar": 20287,
    "▁selon": 23851,
    "▁Dec": 6712,
    "achten": 28579,
    "IMIT": 12315,
    "▁champ": 22942,
    "Most": 20928,
    "/\\": 8673,
    "▁rubbed": 25333,
    "xB": 18674,
    "°": 28902,
    "▁gewann": 26778,
    "iring": 5549,
    "itories": 27799,
    "▁Laura": 16145,
    "▁sacrifice": 19480,
    "TRY": 13224,
    "udad": 12087,
    "▁DI": 12751,
    "强": 30283,
    "▁Ellen": 22799,
    "▁Paper": 20038,
    "<0xCB>": 206,
    "▁lookup": 21275,
    "▁instructions": 11382,
    "andid": 4225,
    "▁tie": 14628,
    "▁portrait": 22087,
    "Controls": 14172,
    "orf": 7800,
    "▁assum": 4936,
    "springframework": 9484,
    "ève": 24893,
    "ске": 17486,
    "▁ArrayList": 11534,
    "▁routes": 16425,
    "▁happy": 4610,
    "LAB": 19331,
    "ěl": 27447,
    "▁pay": 2136,
    "Char": 5481,
    "▁Rules": 24759,
    "▁categor": 20577,
    "▁bore": 22809,
    "<0xE1>": 228,
    "▁wa": 7078,
    "нії": 24506,
    "终": 30538,
    "frak": 7917,
    "▁valor": 23666,
    "▁heels": 22822,
    "spe": 14500,
    "▁invented": 25972,
    "enter": 7262,
    "igious": 25390,
    "▁diet": 9751,
    "AE": 12600,
    "run": 3220,
    "▁\\[": 8761,
    "State": 2028,
    "▁thank": 6979,
    "▁irre": 14872,
    "▁crowds": 26674,
    "▁central": 5971,
    "▁turb": 18549,
    "▁marble": 26617,
    "高": 29366,
    "oston": 8410,
    "▁singing": 14493,
    "ICENSE": 7941,
    "aterial": 2471,
    "▁GD": 24217,
    "▁'-": 16763,
    "п": 28807,
    "▁Mik": 16340,
    "▁drinks": 16195,
    "Pack": 5932,
    "▁DEBUG": 15383,
    "Put": 16280,
    "arator": 22813,
    "▁builds": 24030,
    "▁screw": 14693,
    "▁Ú": 28046,
    "ak": 491,
    "inese": 5965,
    "$('#": 24546,
    "▁parameter": 5621,
    "和": 29131,
    "강": 30967,
    "▁отри": 27538,
    "令": 29752,
    "oose": 12470,
    "ctor": 1810,
    "这": 29176,
    "ign": 603,
    "▁chemical": 10845,
    "ondon": 3801,
    "тий": 18971,
    "▁up": 582,
    "▁filtered": 25028,
    "semb": 5650,
    "ßer": 28028,
    "_**": 28703,
    "د": 28968,
    "ocal": 15164,
    "▁был": 7593,
    "▁Kelly": 15282,
    "delete": 6067,
    "Й": 28996,
    "▁implicit": 21628,
    "Absolute": 28117,
    "VIS": 20178,
    "▁temporary": 13415,
    "rik": 8129,
    "bullet": 18129,
    "▁России": 19180,
    "ield": 874,
    "teenth": 20941,
    "▁Boy": 11036,
    "莉": 31806,
    "▁nome": 14163,
    "мене": 26714,
    "▁nuclear": 12025,
    "船": 31828,
    "Window": 3899,
    "ную": 10841,
    "枚": 31590,
    "NotFound": 14263,
    "asury": 26440,
    "▁maintaining": 17877,
    "▁Ridge": 25440,
    "rique": 15663,
    "▁тер": 17200,
    "▁Mexico": 10242,
    "NESS": 11818,
    "clusive": 21981,
    "owner": 10349,
    "nonumber": 8747,
    "Attributes": 9956,
    "porter": 17175,
    "▁Hil": 17577,
    "▁accomplished": 20141,
    "ever": 1548,
    "▁iss": 2257,
    "%%%%%%%%": 18849,
    "мей": 20488,
    "ull": 678,
    "textbf": 7343,
    "▁collecting": 22852,
    "宏": 31934,
    "▁tied": 13084,
    "interest": 20835,
    "ķ": 31511,
    "▁serving": 10732,
    "iction": 3033,
    "Le": 3514,
    "▁Parameter": 26059,
    "▁wrest": 17619,
    "ENTRY": 19839,
    "▁estad": 21760,
    "▁RE": 4515,
    "ebru": 4316,
    "▁государ": 20305,
    "▁orb": 19935,
    "ény": 19600,
    "quad": 3613,
    "Preview": 22398,
    "brit": 24508,
    "NON": 20232,
    "、": 29041,
    "xt": 510,
    "▁tiene": 16262,
    "▁Jessica": 24062,
    "▁plastic": 10409,
    "▁ф": 2638,
    "\\[": 16927,
    "灯": 31961,
    "aff": 2146,
    "▁relatives": 21668,
    "opl": 13317,
    "!!!!": 19010,
    "Min": 5805,
    "rc": 1718,
    "▁Hoff": 26171,
    "▁funding": 12131,
    "Month": 15605,
    "▁Jason": 14877,
    "▁opts": 13069,
    "▁Illegal": 17352,
    "emor": 28704,
    "恩": 31866,
    "▁ett": 9947,
    "▁consume": 23327,
    "inator": 10049,
    "▁thread": 5427,
    "▁masks": 22724,
    "▁since": 1854,
    "▁stocks": 21781,
    "▁quality": 4045,
    "▁worst": 8748,
    "Adjust": 23442,
    "戶": 31747,
    "▁via": 4213,
    "▁phenomenon": 20757,
    "scrib": 23418,
    "▁retour": 26776,
    "▁aveva": 22405,
    "obj": 3710,
    "▁отно": 18616,
    "тел": 12516,
    "uck": 1384,
    "oot": 1541,
    "▁Et": 13542,
    "▁exclusively": 21437,
    "ga": 2504,
    "▁Music": 7762,
    "supp": 18722,
    "▁Pays": 26828,
    "▁accepts": 26223,
    "▁$(\"#": 27549,
    "伝": 31884,
    "aron": 5214,
    "▁cul": 13463,
    "gener": 4506,
    "лиза": 26594,
    "izing": 3864,
    "▁ch": 484,
    "polation": 24145,
    "цій": 16680,
    "功": 29206,
    "rb": 9312,
    "▁Hitler": 14856,
    "▁instrumental": 28166,
    "▁lets": 16143,
    "<0x03>": 6,
    "resentation": 15918,
    "▁Liber": 8592,
    "attro": 27779,
    "▁Liberal": 18736,
    "▁lonely": 23275,
    "нима": 12629,
    "▁team": 1918,
    "▁external": 9354,
    "▁=\\": 17988,
    "▁stared": 10138,
    "iba": 26365,
    "▁lion": 27801,
    "ijo": 21409,
    "environment": 21680,
    "▁Taking": 20648,
    "▁penal": 15572,
    "▁\\|": 14688,
    "▁discre": 23420,
    "uated": 25473,
    "_{(": 17839,
    "▁stata": 20879,
    "ipp": 15953,
    "stable": 17588,
    "agment": 6627,
    "հ": 31378,
    "▁occasionally": 16045,
    "▁McDonald": 25999,
    "xD": 18915,
    "SIZE": 5145,
    "▁hors": 10691,
    "▁Jewish": 9952,
    "dv": 16546,
    "▁Factory": 24264,
    "=\"../": 7704,
    "Setup": 17707,
    "▁Mak": 20046,
    "▁Station": 13354,
    "▁polit": 2419,
    "▁Angela": 26991,
    "▁Thompson": 19560,
    "atted": 11985,
    "ς": 29013,
    "▁every": 1012,
    "ются": 15278,
    "▁interpretation": 16716,
    "▁virtue": 24885,
    "cd": 2732,
    "▁MON": 25259,
    "ON": 832,
    "uty": 14998,
    "jen": 6956,
    "&=": 18217,
    "ζ": 30123,
    "▁expert": 7583,
    "onto": 10533,
    "<0x7C>": 127,
    "Mass": 26650,
    "▁вій": 18997,
    "▁Hem": 21942,
    "书": 30117,
    "▁trees": 7099,
    "▁obviously": 9589,
    "мон": 21866,
    "▁ti": 17061,
    "umeric": 23504,
    "aches": 5131,
    "▁dragon": 18984,
    "inis": 24479,
    "WT": 25971,
    "InputStream": 16026,
    "вой": 9018,
    "printk": 18548,
    "delegate": 24028,
    "▁Series": 10264,
    "ina": 1380,
    "bert": 4555,
    "▁sig": 4819,
    "WID": 19335,
    "τ": 28978,
    "▁rolled": 12183,
    "只": 29405,
    "rit": 872,
    "itis": 17428,
    "▁\\]": 8425,
    "San": 17904,
    "▁esper": 22498,
    "rief": 4667,
    "▁financial": 5593,
    "載": 31362,
    "▁shops": 16177,
    "▁founding": 24750,
    "▁commonly": 14473,
    "▁Iz": 21552,
    "aimed": 26495,
    "THOD": 15106,
    "▁Ан": 15498,
    "▁nature": 4735,
    "що": 6986,
    "▁considerable": 16062,
    "▁kn": 747,
    "▁belly": 19146,
    "▁Weight": 19785,
    "▁hw": 23953,
    "▁Commonwealth": 26777,
    "ison": 2350,
    "inte": 15883,
    "locked": 20414,
    "box": 2858,
    "▁Bes": 8393,
    "don": 11112,
    ")&": 22743,
    "▁Гу": 24672,
    "▁individ": 3004,
    "▁btn": 11898,
    "asia": 28038,
    "▁Alb": 18344,
    "ARM": 18105,
    "ᴜ": 31892,
    "▁highlight": 12144,
    "naments": 27233,
    "☺": 30601,
    "arg": 926,
    "comment": 9318,
    "nym": 15416,
    "▁sont": 5497,
    "кан": 9368,
    "▁fitting": 20068,
    "unda": 12664,
    "Team": 17887,
    "▁simply": 3768,
    "actual": 15141,
    "CHAR": 12064,
    "▁Light": 9531,
    "▁enable": 8234,
    "르": 31091,
    "醒": 31224,
    "▁Spr": 15946,
    "前": 29087,
    "iago": 21555,
    "▁recently": 5915,
    "iu": 7509,
    "▁Smith": 6717,
    "defer": 17112,
    "▁allocate": 21637,
    "я": 28811,
    "▁food": 2887,
    "▁Sam": 4157,
    "ven": 1434,
    "დ": 29878,
    "▁produce": 7072,
    "Random": 14735,
    "▁side": 2081,
    "STM": 26929,
    "gn": 4206,
    "ил": 24962,
    "▁fishing": 15189,
    "▁prompt": 11510,
    "arith": 28422,
    "том": 7852,
    "Shader": 17655,
    "Mal": 20682,
    "▁immedi": 4207,
    "ingu": 7473,
    "▁decline": 17468,
    "▁reve": 5900,
    "fu": 21278,
    "▁advertising": 12896,
    "Test": 1963,
    "antly": 4218,
    "ể": 29910,
    "▁ugly": 19279,
    "▁raised": 6333,
    "eren": 9417,
    "▁voices": 14549,
    "ту": 2509,
    "▁otto": 24127,
    "uate": 11931,
    "azzo": 24611,
    "▁tail": 8675,
    "след": 24686,
    "erta": 21313,
    "▁місце": 26972,
    "范": 30135,
    "▁nebo": 28494,
    "▁day": 1370,
    "confirm": 19928,
    "js": 2777,
    "▁force": 4274,
    "▁orth": 17396,
    "▁чем": 23345,
    "▁ES": 28151,
    "▁assured": 17903,
    "anten": 23601,
    "▁chosen": 8729,
    "ม": 29373,
    "▁genes": 24203,
    "\"])": 18073,
    "▁tongue": 13821,
    "appen": 25150,
    "*\\": 19008,
    "▁shop": 5126,
    "umin": 9867,
    "/.": 15704,
    "▁erste": 19233,
    "건": 30771,
    "ility": 1232,
    "▁Bro": 4168,
    "<?": 5357,
    "▁fier": 16307,
    "إ": 29834,
    "▁stomach": 11752,
    "▁Bruce": 16668,
    "▁kter": 12904,
    "нови": 12129,
    "aram": 762,
    "cie": 9041,
    ">:": 9670,
    "▁velocity": 13469,
    "wr": 7067,
    "帝": 30607,
    "Table": 3234,
    "▁ó": 27500,
    "┴": 31268,
    "__,": 8934,
    "ica": 1286,
    "▁occupation": 22179,
    "▁astr": 15311,
    "ற": 31002,
    "lyn": 12998,
    "▁Gemeinde": 15496,
    "▁dose": 20222,
    ":": 28747,
    "▁Wild": 10668,
    "iele": 16607,
    "▁latter": 9827,
    "?>": 15353,
    "cit": 21990,
    "pending": 12718,
    "权": 29520,
    "DOM": 15421,
    "orph": 7591,
    "▁grass": 10109,
    "OLD": 12020,
    "▁mem": 1626,
    "▁revolution": 11029,
    "?(": 21185,
    "лет": 20043,
    "控": 29712,
    "▁beh": 1833,
    "\"/>": 2720,
    "▁stepped": 9593,
    "ісля": 20607,
    "MSG": 11699,
    "▁хра": 25453,
    "▁magical": 20927,
    "▁classroom": 19729,
    "Option": 5425,
    "學": 30923,
    "▁note": 5039,
    "LINK": 19566,
    "▁Eric": 12867,
    "ď": 29365,
    "▁ho": 7463,
    "▁trans": 1203,
    "▁Beach": 11404,
    "▁fatal": 20174,
    "▁però": 19005,
    "▁Mill": 6274,
    "▁consists": 12335,
    "▁reprodu": 12487,
    "iley": 13891,
    "▁Italia": 16995,
    "▁durant": 21105,
    "▁HTML": 13987,
    "Drag": 18383,
    "usb": 13990,
    "▁Kyle": 25363,
    "▁Valentine": 28495,
    "VT": 10098,
    "▁ult": 7479,
    "▁NY": 11800,
    "pal": 11920,
    ".~(\\": 21622,
    "Implement": 19661,
    "▁Profess": 8029,
    "▁stro": 14680,
    "tokens": 20228,
    "▁Heart": 14552,
    "▁Orange": 21853,
    "lane": 25124,
    "▁хо": 10140,
    "▁bro": 1865,
    "▁Hy": 10540,
    "amp": 1057,
    "▁identifying": 21653,
    "put": 759,
    "▁ethical": 26324,
    "▁organic": 15897,
    "▁damned": 26442,
    "platform": 10470,
    "호": 29730,
    "pipeline": 22365,
    "▁inclu": 25712,
    "▁Pal": 4187,
    "門": 31031,
    "art": 444,
    "Ratio": 24064,
    "▁управ": 26263,
    "⚭": 30142,
    "▁arranged": 15945,
    "宿": 31553,
    "tick": 17755,
    "Serialization": 21046,
    "expression": 15848,
    "┬": 30884,
    "umph": 14170,
    "▁Quarter": 24391,
    "▁print": 2682,
    "dist": 10295,
    "▁tucked": 26391,
    "▁groom": 28583,
    "硬": 31483,
    "ensed": 6616,
    "ára": 24570,
    "▁cash": 7877,
    "Ζ": 31879,
    "<0xC2>": 197,
    "ський": 10379,
    "▁rows": 11926,
    "through": 14968,
    "nez": 22748,
    "ans": 509,
    "::": 564,
    "▁tolerance": 27317,
    "▁constant": 5957,
    "▁Road": 7356,
    "▁Sud": 9099,
    "▁capability": 21368,
    "⋅": 30020,
    "▁Must": 14242,
    "States": 25096,
    "Act": 3883,
    "▁ind": 1176,
    "▁statist": 15036,
    "At": 3167,
    "▁doors": 9289,
    "region": 8164,
    "▁jak": 19755,
    "▁Cam": 5487,
    "▁flu": 13857,
    "カ": 29645,
    "▁float": 4932,
    "▁hurry": 24387,
    "sters": 12242,
    "nals": 25813,
    "▁elevator": 26445,
    "TO": 3957,
    "▁debut": 9928,
    "▁festival": 14416,
    ")-": 9572,
    "▁Emp": 10156,
    "▁desktop": 24702,
    "▁spent": 5223,
    "fortun": 7874,
    "▁Economic": 20451,
    "artment": 4502,
    "GEN": 12835,
    "gren": 27526,
    "CAN": 25798,
    "Create": 3998,
    "▁kilom": 22230,
    "phabet": 26311,
    "otherapy": 27843,
    "▁whispered": 12916,
    "▁HAL": 16879,
    "sources": 26155,
    "▁victory": 11115,
    "Equals": 5634,
    "maybe": 22817,
    "▁intention": 12782,
    "ман": 5829,
    "<0x85>": 136,
    "▁Give": 16104,
    "▁Wisconsin": 19047,
    "구": 29779,
    "ification": 2500,
    "ா": 30419,
    "▁exceptions": 20935,
    "▁TE": 21031,
    "èrent": 24087,
    "PLY": 26126,
    "Un": 1733,
    "▁photo": 8428,
    "\">\r": 14980,
    "ause": 869,
    "▁application": 4993,
    "▁commence": 25599,
    "Chunk": 17124,
    "кон": 10676,
    "▁kiss": 8374,
    "še": 25306,
    "▁tracking": 15271,
    "if": 335,
    "▁virt": 9306,
    "▁loyal": 13457,
    "▁cheeks": 19764,
    "ツ": 30267,
    "▁ста": 3553,
    "iers": 3378,
    "چ": 30066,
    "▁Singles": 24922,
    "alling": 20441,
    "POWER": 23453,
    "IFT": 15688,
    "る": 29116,
    "▁interview": 5927,
    "Matrix": 10701,
    "xC": 9075,
    "heid": 16731,
    "▁Settings": 18923,
    "▁sensible": 26581,
    "Points": 15628,
    "▁underlying": 14164,
    "orp": 16027,
    "ста": 1621,
    "▁desde": 11545,
    "▁Golden": 14739,
    "▁maxim": 15350,
    "▁invasion": 18793,
    "▁explaining": 20400,
    "multiple": 27772,
    "<0x2E>": 49,
    "льно": 17921,
    "▁pela": 16649,
    "入": 29048,
    "▁state": 1665,
    "ін": 15326,
    "▁className": 4899,
    "▁true": 1132,
    "Allow": 20230,
    "UL": 1248,
    "▁genuinely": 22448,
    "td": 2447,
    "iku": 23550,
    "▁datetime": 23916,
    "тие": 28198,
    "▁brushed": 28427,
    "有": 28998,
    "▁aut": 1206,
    "pod": 16339,
    "deg": 13780,
    "▁dialog": 10436,
    "ּ": 29912,
    "▁waist": 17532,
    "▁reliable": 13227,
    "<0x68>": 107,
    "▁Gal": 6639,
    "jes": 16967,
    "▁murdered": 21304,
    "wik": 18509,
    "▁bond": 9410,
    "▁Ask": 19500,
    "colo": 17382,
    "▁inject": 16453,
    "▁workshop": 20156,
    "ria": 3931,
    "▁\"--": 19052,
    "setting": 15062,
    "(\"<": 21784,
    "▁leur": 10441,
    "zem": 14737,
    "Renderer": 13812,
    "olving": 18390,
    "▁Episode": 24772,
    "aniu": 28458,
    "Neg": 21436,
    "▁ocean": 13993,
    "▁abandoned": 14818,
    "中": 28991,
    "helpers": 19943,
    "軍": 31501,
    "▁resting": 25280,
    "▁suspicion": 27865,
    "▁ca": 7913,
    "nergy": 11918,
    "▁governing": 10569,
    "<0x42>": 69,
    "▁serial": 10627,
    "Exec": 20002,
    "▁accordingly": 25485,
    "▁Es": 6177,
    "ном": 4967,
    "numer": 13372,
    "复": 29284,
    "undred": 4381,
    "astern": 10230,
    "▁colleagues": 15137,
    "iffe": 27007,
    "ient": 722,
    "▁handles": 19754,
    "tt": 781,
    "▁describe": 6685,
    "ன": 30804,
    "▁standards": 9890,
    "bg": 11689,
    "imore": 20481,
    "ikk": 28169,
    "Hol": 28584,
    "▁sunlight": 22950,
    "EINVAL": 10902,
    "▁negotiations": 24146,
    "▁react": 13035,
    "ometric": 14840,
    "▁advantages": 18761,
    "CONTROL": 22826,
    "▁typ": 2514,
    "second": 6562,
    "\",": 548,
    "▁мест": 25839,
    "六": 30467,
    "▁temporada": 20030,
    "▁regarding": 8217,
    "chars": 23392,
    "ma": 705,
    "▁sword": 13443,
    "▁circa": 23607,
    "▁programs": 7034,
    "jax": 15797,
    "▁mistakes": 17179,
    "一": 28969,
    "Event": 2194,
    "eno": 11174,
    "▁easy": 3411,
    "ribu": 15149,
    "▁diver": 19002,
    "▁tp": 21070,
    "VS": 23999,
    "cluded": 27596,
    "ervice": 1898,
    "tos": 28047,
    "▁Block": 9063,
    "▁heated": 26853,
    "者": 29276,
    "<0x21>": 36,
    "▁Schools": 24446,
    "▁endpoint": 15329,
    "mercial": 19828,
    "ting": 1157,
    "());": 1657,
    "ре": 800,
    "▁Out": 4655,
    "▁definition": 7526,
    "▁Bang": 13261,
    "▁so": 579,
    "▁repeat": 13750,
    "▁lease": 23741,
    "teen": 6498,
    "?,": 24542,
    "▁newer": 26259,
    "esa": 11207,
    "▁Document": 14873,
    "HOST": 17415,
    "-,": 24244,
    "方": 29082,
    "ै": 30950,
    "ż": 28882,
    "▁där": 18603,
    "▁Pic": 17321,
    "AX": 15385,
    "▁Hind": 14526,
    "▁depuis": 14661,
    "▁virus": 15022,
    "▁час": 21358,
    "▁Tree": 14653,
    "▁Astr": 25433,
    "▁Leop": 26872,
    "just": 4022,
    "▁shared": 6431,
    "▁Bod": 18555,
    "▁Festival": 10113,
    "▁fucked": 20251,
    "▁результа": 20959,
    "ayer": 2386,
    "▁needing": 25559,
    "▁wom": 1615,
    "▁inspire": 26649,
    "acing": 4134,
    "df": 4053,
    "stret": 27757,
    "ِ": 29421,
    "▁Authority": 20653,
    "▁Jenny": 25785,
    "▁flat": 7007,
    "▁mathematical": 27240,
    "izar": 12874,
    "▁Way": 9168,
    "▁emperor": 25948,
    "턴": 31167,
    "▁reserves": 26863,
    "▁decent": 12564,
    "ugins": 10324,
    "▁respon": 2603,
    "▁talented": 21712,
    "▁errors": 7559,
    "▁Support": 10731,
    "▁}\\": 16076,
    "ствен": 7265,
    "▁conviction": 24594,
    "▁Channel": 14250,
    "इ": 31391,
    "ron": 1689,
    "▁famille": 18481,
    "men": 2129,
    "▁execution": 12068,
    "▁optimization": 18586,
    "邀": 31825,
    "▁corrupt": 24106,
    "ache": 1344,
    "unit": 5306,
    "▁Architect": 19608,
    "Battle": 24747,
    "Hide": 23309,
    "poque": 25576,
    "arde": 27655,
    "▁Fix": 23047,
    "▁no": 708,
    "ady": 4425,
    "ходи": 7374,
    "domain": 8692,
    "▁SQL": 13208,
    "ples": 2815,
    "▁(": 325,
    "ulating": 13622,
    "dirname": 21336,
    "amarin": 25174,
    "▁Write": 12018,
    "▁regards": 22573,
    "▁harmon": 26739,
    "пи": 2749,
    "▁promise": 9081,
    "▁Local": 9553,
    "▁unus": 12449,
    "▁pers": 3708,
    "BYTE": 18290,
    "▁deny": 19685,
    "▁Ori": 20698,
    "▁Ł": 23181,
    "naissance": 24944,
    "uffed": 27559,
    "▁років": 19057,
    "zo": 4167,
    "▁Device": 20000,
    "▁listop": 26460,
    "▁ging": 21534,
    "qs": 25065,
    "xc": 8574,
    "▁anten": 25940,
    "icies": 22966,
    "▁sorts": 16971,
    "佛": 31136,
    "申": 30360,
    "▁—": 1040,
    "section": 3007,
    "▁pounds": 14090,
    "set": 673,
    "oting": 7695,
    "▁delegate": 21063,
    "▁contacted": 28330,
    "ర": 31190,
    "setText": 15206,
    "▁Cont": 2999,
    "▁survival": 16856,
    "atisf": 27846,
    "▁atr": 21857,
    "Or": 2228,
    "▁Jud": 7404,
    "▁burn": 5698,
    "▁FIFA": 28702,
    "🙂": 29340,
    "吧": 30912,
    "▁ranks": 19334,
    "▁view": 2204,
    "Rob": 22268,
    "Г": 28872,
    "▁Param": 10938,
    "կ": 30476,
    "EXIT": 28344,
    "▁Anthony": 15089,
    "harm": 24418,
    "station": 19849,
    "amar": 11369,
    "▁alpha": 15927,
    "们": 29550,
    "▁Trad": 17581,
    "▁strlen": 19817,
    "▁Santiago": 24421,
    "백": 31250,
    "▁ac": 1183,
    "yme": 23389,
    "crim": 25489,
    "ℓ": 31442,
    "▁varying": 22312,
    "ucture": 8187,
    "▁ä": 14239,
    "ג": 29632,
    "▁kne": 7770,
    "▁borders": 22902,
    "▁salv": 18292,
    "acci": 28127,
    "дей": 17650,
    "TING": 16567,
    "NR": 20409,
    "}\"": 7935,
    "▁hope": 3317,
    "udes": 5887,
    "▁съ": 9448,
    "FL": 4001,
    "▁fulfill": 16427,
    "pite": 4995,
    "Mouse": 12237,
    "▁Juan": 12029,
    "теля": 17371,
    "▁Ét": 14011,
    "▁diameter": 22640,
    "Theta": 16643,
    "exit": 9427,
    "ɯ": 31678,
    "▁body": 2187,
    "▁ruled": 20080,
    "жде": 13727,
    "▁faculty": 18938,
    "atically": 6789,
    "▁Д": 2375,
    "▁critical": 7276,
    "▁apr": 8601,
    "▁Gh": 15526,
    "▁alg": 16814,
    "▁seemingly": 20143,
    "▁Pointer": 28597,
    "한": 29282,
    "ம": 30228,
    "▁Vert": 21970,
    "▁дру": 8589,
    "▁he": 400,
    "inger": 4576,
    "erts": 9916,
    "phy": 8071,
    "ueto": 19261,
    "„": 28887,
    "она": 5022,
    "▁Geb": 11848,
    "LANG": 21482,
    "Require": 22975,
    "especially": 26160,
    "▁keyword": 23247,
    "ҽ": 31932,
    "▁utiliz": 20673,
    "▁Mini": 24785,
    "▁regions": 10542,
    "▁reputation": 12947,
    "▁conten": 26513,
    "peat": 15882,
    "▁Lud": 13953,
    "▁realiz": 16403,
    "дан": 19872,
    "▁straight": 4855,
    "担": 31950,
    "▁Lincoln": 14279,
    "Certificate": 19119,
    "ĩ": 30400,
    "▁require": 2699,
    "peror": 13910,
    "eves": 22915,
    "▁recognized": 10099,
    "▁Хо": 18797,
    "WARNING": 18721,
    "database": 14430,
    "ROL": 19172,
    "▁appeared": 6178,
    "ֶ": 30780,
    "牌": 30324,
    "▁Matt": 7149,
    "FR": 9790,
    "help": 11538,
    "▁sc": 752,
    "жа": 4483,
    "▁Ford": 12101,
    "▁Jake": 18742,
    "Verify": 20847,
    "ɨ": 30200,
    "▁coast": 9437,
    "▁reason": 2611,
    "(\"%": 6996,
    "▁Tor": 5727,
    "▁sectors": 23014,
    "▁pag": 10913,
    "▁NOTICE": 27199,
    "ributes": 4302,
    "禁": 30415,
    "˚": 31058,
    "ined": 1311,
    "▁Spec": 5583,
    "▁queries": 23681,
    "▁mobility": 27218,
    "▁alternatives": 24524,
    "yond": 5229,
    "▁sugar": 9984,
    "▁jump": 6483,
    "▁relay": 24517,
    "▁Barn": 15002,
    "▁Cub": 12537,
    "▁charity": 20598,
    "ín": 5905,
    "ARY": 10713,
    "▁bright": 6833,
    "▁flying": 11470,
    "ulous": 9504,
    "▁Alice": 14003,
    "▁corresponds": 16535,
    "akten": 21305,
    "여": 29827,
    "음": 29881,
    "▁nationale": 22296,
    "Clone": 18991,
    "⬜": 31636,
    "▁deux": 6935,
    "Repo": 26280,
    "😳": 31208,
    "壁": 31797,
    "oy": 904,
    "iesz": 17944,
    "▁vacc": 10980,
    "DMA": 17632,
    "▁laug": 9663,
    "✌": 31906,
    "▁Jose": 6282,
    "notations": 19254,
    "irtual": 4757,
    "▁dressed": 12452,
    "ued": 2465,
    "▁opens": 15706,
    "arness": 22164,
    "GR": 8369,
    "pher": 23370,
    "bio": 20699,
    "abort": 28209,
    "Length": 4645,
    "残": 31649,
    "▁amaz": 5818,
    "▁Temp": 27279,
    "▁origin": 5016,
    "тив": 5868,
    "▁settled": 11591,
    "▁Score": 18528,
    "ik": 849,
    "Eval": 16627,
    "transport": 19645,
    "▁Certain": 20828,
    "▁castle": 19007,
    "Pay": 9602,
    "▁mas": 6769,
    "enu": 4265,
    "abilities": 7773,
    "course": 11987,
    "keiten": 23351,
    "sections": 24415,
    "▁PG": 27793,
    "methods": 21803,
    "input": 2537,
    "▁Pra": 16997,
    "state": 2027,
    "▁recuper": 28109,
    "▁tables": 9882,
    "▁Ad": 1964,
    ">%": 24801,
    "참": 31459,
    "▁complement": 16696,
    "segment": 19447,
    "▁clubs": 14417,
    "▁рабо": 10054,
    "polit": 20424,
    "Elem": 21302,
    "▁Jed": 24987,
    "ateral": 21034,
    "▁även": 28065,
    "ged": 2560,
    "▁adjacent": 20480,
    "plaatst": 14801,
    "rect": 3123,
    "▁филь": 21454,
    "▁Ju": 13697,
    "icol": 8176,
    "▁Civil": 12045,
    "▁visitor": 19446,
    "▁posted": 10198,
    "ж": 28836,
    "round": 888,
    "VALID": 18511,
    "achte": 22986,
    "▁lleg": 15546,
    "▁Ak": 9532,
    "ivel": 17414,
    "hou": 11331,
    "▁cancel": 11351,
    "field": 2222,
    "▁biologie": 17149,
    "includegraphics": 7621,
    "▁schemes": 23812,
    "▁ні": 24445,
    "▁із": 23075,
    "buttons": 27269,
    "▁Palm": 28234,
    "▁sticks": 25762,
    "查": 29110,
    "源": 29512,
    "┐": 31175,
    "Dim": 12334,
    "KERN": 14522,
    "▁curious": 13903,
    "▁naked": 15913,
    "▁invite": 19411,
    "fif": 20773,
    "outine": 22458,
    ",”": 3372,
    "▁Motor": 17933,
    "▁вре": 8614,
    "hpp": 20567,
    "▁въ": 17051,
    "▁diagnosis": 21967,
    "▁chez": 22440,
    "▁Mary": 5480,
    "▁registr": 24113,
    "Controller": 5733,
    "▁Domin": 14467,
    "olds": 4858,
    "▁propag": 11166,
    "ogo": 13944,
    "▁whe": 2277,
    "▁introduced": 8160,
    "▁boy": 4531,
    "▁Victor": 12177,
    "▁oven": 19126,
    "్": 30865,
    "linux": 8502,
    "▁medic": 7861,
    "floor": 15261,
    "▁Ny": 20268,
    "Could": 17024,
    "▁Gle": 26796,
    "▁pour": 2669,
    "iple": 4191,
    "++++": 17501,
    "UMN": 24495,
    "цер": 26654,
    "wing": 9988,
    "让": 30447,
    "▁intersection": 19837,
    "▁то": 3846,
    "angles": 21744,
    "▁Casino": 26435,
    "▁establish": 7507,
    "ド": 29335,
    "▁invested": 24161,
    "▁Dick": 13081,
    "Packet": 13598,
    "▁сезо": 21394,
    "Esp": 27467,
    "▁Sv": 20810,
    "▁James": 4797,
    "▁Ö": 10994,
    "iph": 16030,
    "$_": 11914,
    "▁Virginia": 10117,
    "ocks": 7712,
    "GroupName": 16477,
    "▁тур": 18247,
    "術": 31488,
    "<<": 5275,
    "闻": 31446,
    "▁puts": 12345,
    "▁Norway": 23063,
    "ǐ": 30372,
    "phrase": 27617,
    "dev": 1363,
    "vc": 8904,
    "ąz": 24426,
    "special": 14908,
    "Ctrl": 18795,
    "▁simultaneously": 18134,
    "▁imports": 28365,
    "▁offers": 5751,
    "Monitor": 19606,
    "ruppe": 17719,
    "▁Cast": 6440,
    "kie": 23383,
    "▁expansion": 11120,
    "▁single": 2692,
    "▁isn": 3157,
    "▁Wald": 24050,
    "四": 29882,
    "ert": 930,
    "−": 28923,
    "▁aria": 19787,
    "▁Rhe": 23214,
    "Integer": 7396,
    "▁*/\r": 7608,
    "▁AA": 24724,
    "取": 29012,
    "ʁ": 30024,
    "▁procedures": 15251,
    "âtre": 25238,
    "▁riv": 8191,
    "▁human": 2930,
    "▁Co": 3092,
    "FB": 14041,
    "▁Add": 3301,
    "pa": 4083,
    "wait": 6901,
    "▁dollar": 16996,
    "ulle": 17040,
    "inson": 11827,
    "▁CRC": 20731,
    "▁thous": 5003,
    "▁format": 5032,
    "weise": 14647,
    "▁landing": 14378,
    "▁dies": 5148,
    "▁messages": 8570,
    "license": 16576,
    "[];": 20895,
    "Vers": 25423,
    "▁puls": 26691,
    "ennial": 28339,
    "▁havet": 28447,
    "鲁": 31924,
    "▁collections": 18430,
    "▁Insp": 27401,
    "indent": 10388,
    "▁activities": 6290,
    "▁sens": 3564,
    "ets": 1468,
    "itar": 5098,
    "▁Marcel": 23262,
    "INK": 13244,
    "ten": 1210,
    "api": 3016,
    "<0x09>": 12,
    "▁burden": 18396,
    "photo": 25903,
    "▁shadow": 10504,
    "▁Mur": 7423,
    "근": 31341,
    "Autowired": 26088,
    "▁quit": 14597,
    "▁í": 23684,
    "ём": 18452,
    "▁mé": 13138,
    "▁иг": 17009,
    "▁Sun": 7057,
    "öffentlicht": 28106,
    "eters": 2612,
    "ớ": 30025,
    "▁Date": 5491,
    "▁Cur": 6119,
    "▁lä": 23855,
    "▁unm": 22926,
    "Interval": 14484,
    "선": 29900,
    "▁Juni": 17099,
    "▁$[": 19921,
    "aud": 5675,
    "群": 30204,
    "▁Arabia": 27264,
    "▁$\\{": 17543,
    "借": 31626,
    "▁Contact": 12603,
    "▁Seattle": 18083,
    "▁ratio": 10554,
    "▁remind": 8305,
    "wei": 25257,
    "rup": 7064,
    "sole": 3971,
    "▁nell": 16484,
    "bigg": 21117,
    "That": 3840,
    "财": 31779,
    "▁({": 13734,
    "HR": 16197,
    "▁Prim": 16059,
    "▁suppose": 10361,
    "▁eq": 12084,
    "戰": 31680,
    "▁volatile": 23632,
    "▁This": 851,
    "arge": 2010,
    "▁Tony": 12040,
    "▁invariant": 18567,
    "▁agreed": 5825,
    "▁rule": 5918,
    "cciones": 24598,
    "▁osc": 16221,
    "▁laying": 27587,
    "igr": 3421,
    "因": 29657,
    "益": 30914,
    "nal": 2340,
    "▁Santa": 9231,
    "▁смер": 28271,
    "▁officer": 8119,
    "linked": 27465,
    "Seg": 11560,
    "[]": 2002,
    "▁dram": 9473,
    "▁?></": 20198,
    "▁ace": 23705,
    "arto": 25969,
    "5": 28782,
    "점": 30589,
    "Headers": 11871,
    "ུ": 31561,
    "▁;": 2753,
    "Public": 14140,
    "▁retrieve": 20132,
    "Detail": 14525,
    "Warn": 17291,
    "▁Europa": 15133,
    "▁milit": 4116,
    "▁indic": 4073,
    "aise": 5395,
    "▁evalu": 6548,
    "ɔ": 29410,
    "ed": 286,
    "yles": 5396,
    "▁caracter": 23574,
    "▁−": 8798,
    "▁neces": 24101,
    "aqu": 19424,
    "▁Brother": 22513,
    "▁Berlin": 8430,
    "acc": 4373,
    "Factor": 20169,
    "▁un": 521,
    "▁cry": 7843,
    "▁self": 1008,
    "▁fallen": 12962,
    "zel": 10311,
    "<0xFA>": 253,
    "iken": 21417,
    "▁altern": 5720,
    "hesis": 21537,
    "rypto": 10690,
    "관": 30224,
    "?.": 11030,
    "izza": 13983,
    "▁Privacy": 25184,
    "▁confirm": 8735,
    "▁heute": 21602,
    "\"\"\"": 18552,
    "▁)": 1143,
    "▁professor": 12192,
    "▁GP": 19995,
    "▁Native": 16024,
    "illon": 16849,
    "GS": 17580,
    "▁believes": 15302,
    "added": 17447,
    "Modules": 28377,
    "▁Hier": 20722,
    "ql": 2981,
    "▁Committee": 9980,
    "▁Assistant": 21631,
    "例": 29362,
    "▁Pa": 8144,
    "rios": 18731,
    "sam": 15084,
    "<0x19>": 28,
    "iß": 21395,
    "▁health": 2528,
    "abi": 16075,
    "▁obtained": 7365,
    "▁Universidad": 22500,
    "cep": 18316,
    "ll": 584,
    "▁sides": 8480,
    "ropic": 25644,
    "▁shock": 10382,
    "Lat": 17119,
    "▁grim": 17837,
    "▁Pun": 22495,
    "><": 3409,
    "stock": 16471,
    "▁Members": 17131,
    "ialog": 3723,
    "ючи": 23975,
    "▁presumably": 27932,
    "scope": 6794,
    "mart": 20665,
    "▁modest": 23676,
    "Foundation": 23295,
    "SAMP": 28610,
    "▁goodness": 27624,
    "EE": 6367,
    "},\r": 17695,
    "▁Movement": 25361,
    "isc": 8286,
    "entry": 3991,
    "▁stumbled": 27907,
    "kar": 13600,
    "サ": 29863,
    "My": 5183,
    "'''": 25135,
    "▁arrang": 11887,
    "Idx": 12157,
    "स": 29671,
    "Results": 12220,
    "Т": 28875,
    "浏": 30796,
    "▁maid": 23408,
    "event": 2883,
    "▁''": 9842,
    "▁bring": 2968,
    "▁Barcelona": 16835,
    "ně": 9176,
    "▁Pope": 21633,
    "數": 30510,
    "▁fighters": 26476,
    "cx": 14415,
    "puis": 13838,
    "draft": 27490,
    "ôle": 18606,
    "Emit": 17911,
    "▁LOG": 13930,
    "▁kin": 22018,
    "צ": 29639,
    "▁athletes": 23403,
    "ENTIAL": 26567,
    "igation": 4821,
    "▁expos": 10594,
    "über": 20173,
    "atin": 12844,
    "usher": 9905,
    "▁witnesses": 26065,
    "auto": 6415,
    "▁eth": 7511,
    "________": 8320,
    "▁Week": 10433,
    "Hit": 17165,
    "▁acknowled": 13964,
    "▁poss": 1672,
    "▁walk": 2338,
    "iel": 755,
    "▁func": 2745,
    "▁Бер": 23161,
    "▁invent": 9182,
    "anches": 12655,
    "▁Chair": 15487,
    "▁manufacturer": 17746,
    "Sche": 11960,
    "▁introdu": 4180,
    "▁Liter": 12870,
    "ags": 1787,
    "amer": 6962,
    "<'": 12729,
    "getDefault": 28287,
    "rock": 16013,
    "▁screening": 23191,
    "♀": 30155,
    "itate": 9647,
    "크": 30056,
    "戏": 30727,
    "▁commands": 15380,
    "▁joining": 15508,
    "散": 31426,
    "▁filters": 17123,
    "▁vita": 23629,
    "▁Incl": 18384,
    "Nothing": 20649,
    "convert": 13241,
    "ALE": 20336,
    "changing": 26181,
    "CA": 5194,
    "iaz": 25939,
    "sect": 8261,
    "▁combination": 9470,
    "黒": 31911,
    "md": 2037,
    "▁Vec": 17513,
    "▁der": 891,
    "cedure": 27032,
    "Widget": 7728,
    "Token": 3856,
    "Delegate": 17295,
    "stein": 6559,
    "clam": 21453,
    "▁sy": 5747,
    "rules": 15342,
    "pw": 26672,
    "▁beginnetje": 15739,
    "OBJECT": 17879,
    "<0x61>": 100,
    "SET": 4270,
    "CURRENT": 26381,
    "▁y": 337,
    "早": 31121,
    "▁seriously": 10160,
    "▁travail": 28541,
    "▁Together": 21583,
    "▁Bernard": 16784,
    "♦": 29706,
    "▁рі": 15629,
    "▁angel": 23190,
    "输": 29226,
    "arts": 8060,
    "oman": 8322,
    "ocolate": 11959,
    "▁quietly": 13575,
    "▁Sto": 16774,
    "grades": 26830,
    "Lin": 14112,
    "▁asp": 15577,
    "▁Beg": 25572,
    "▁pulls": 25484,
    "▁economics": 25426,
    "▁angular": 19382,
    "SOC": 13472,
    "рю": 23434,
    "heit": 12307,
    "uan": 6882,
    "▁British": 4409,
    "mp": 1447,
    "艺": 31504,
    "▁ER": 21346,
    "რ": 29449,
    "▁antes": 17567,
    "\";\r": 11880,
    "'));": 12941,
    "▁pride": 14384,
    "ního": 23720,
    "▁\"\\": 5448,
    "▁Dé": 18833,
    "Ś": 29009,
    "ğ": 29088,
    "▁rare": 9964,
    "▁discovered": 8324,
    "▁universe": 11717,
    "html": 3391,
    "▁City": 3805,
    "ibles": 15300,
    "abb": 13277,
    "▁mic": 15644,
    "soc": 10267,
    "Я": 28937,
    "olph": 23814,
    "LY": 9880,
    "öst": 21587,
    "vue": 19732,
    "▁Bent": 22094,
    "▁Eng": 2317,
    "in": 262,
    "▁can": 541,
    "▁brands": 15638,
    "▁Grey": 22064,
    "icit": 18374,
    "fc": 6837,
    "▁kind": 2112,
    "incipal": 15934,
    "assem": 23154,
    "▁traveled": 19948,
    "▁alarm": 14405,
    "▁Det": 5158,
    "weg": 12730,
    "▁sizes": 13282,
    "ними": 15610,
    "method": 4350,
    "▁$-": 24279,
    "切": 29961,
    "▁Bot": 17174,
    "▁drag": 8211,
    "fall": 9197,
    "▁VT": 24710,
    "▁Size": 13909,
    "출": 29858,
    "))": 743,
    "▁Reyn": 25883,
    "pause": 26431,
    "route": 11833,
    "천": 31244,
    "米": 30752,
    "▁decode": 21503,
    "▁drum": 16049,
    "▁shipped": 27634,
    "▁```": 8789,
    "zone": 7795,
    "ubble": 12542,
    "нар": 28019,
    "▁---": 11940,
    "😍": 30819,
    "▁listen": 7105,
    "ل": 28933,
    "▁dimensional": 25369,
    "▁Cor": 3198,
    "pleted": 14258,
    "isse": 6813,
    "▁Ich": 27774,
    "usammen": 14533,
    "▁McK": 18346,
    "▁осіб": 19145,
    "▁ха": 19539,
    "▁Martha": 24924,
    "▁octubre": 25154,
    "'):": 18591,
    "pu": 2498,
    "bis": 24971,
    "▁influential": 24609,
    "▁разви": 23987,
    "阅": 30738,
    "fully": 3071,
    "▁tcp": 25398,
    "<0xD0>": 211,
    "<0x65>": 104,
    "anna": 8091,
    "▁smoothly": 28147,
    "▁advanced": 10023,
    "olding": 25107,
    "trl": 11276,
    "▁expanded": 14708,
    "PF": 12390,
    "▁сель": 18416,
    "▁Publishing": 26999,
    "▁During": 6213,
    "YPE": 12492,
    "▁Apply": 23160,
    "!'": 8873,
    "ASSERT": 10232,
    "trag": 18820,
    "▁representative": 15312,
    "minute": 17386,
    "')->": 18364,
    "▁guilty": 14227,
    "umes": 9743,
    "▁champions": 27345,
    "ă": 28867,
    "▁migrations": 27052,
    "NP": 24257,
    "▁Bi": 6345,
    "▁inev": 14694,
    "▁música": 23522,
    "▁Wa": 24867,
    "▁Prov": 7133,
    "vid": 14410,
    "мет": 17480,
    "▁Lew": 10860,
    "ienst": 19239,
    "▁Lin": 6678,
    "▁heating": 20256,
    "律": 31424,
    "▁indicating": 17888,
    "▁così": 26052,
    "找": 29648,
    "▁Rem": 4561,
    "nées": 25012,
    "▁science": 6691,
    "▁Parameters": 26750,
    "▁constraints": 14841,
    "▁C": 334,
    "rage": 18955,
    "вый": 16265,
    "▁encour": 6191,
    "contact": 16570,
    "▁Bio": 26752,
    "ộ": 29784,
    "▁namely": 19902,
    "▁Î": 17417,
    "ension": 2585,
    "▁(!": 1661,
    "▁SU": 13319,
    "ounters": 19610,
    "ders": 10802,
    "▁Mr": 2964,
    "ricane": 25253,
    "Menu": 5674,
    "▁Municipal": 25915,
    "▁franç": 10530,
    "▁álbum": 21231,
    "cent": 1476,
    "▁организа": 26266,
    "▁Valent": 18103,
    "Gold": 25675,
    "▁divorce": 17714,
    "▁minimum": 7968,
    "가": 29135,
    "рал": 18363,
    "編": 30689,
    "↳": 31416,
    "▁cr": 1439,
    "ême": 7882,
    "ory": 695,
    "ский": 4704,
    "fp": 8808,
    "▁proxim": 23678,
    "rek": 28089,
    "offset": 3783,
    "政": 30378,
    "▁performed": 7885,
    "Rows": 13699,
    "▁incredible": 13978,
    "utter": 10112,
    "▁péri": 22522,
    "zza": 16802,
    "LINE": 9581,
    "dess": 15821,
    "ière": 8110,
    "▁Mississippi": 20455,
    "foot": 6479,
    "Õ": 31087,
    "▁whom": 6105,
    "▁big": 2032,
    "enced": 4697,
    "AM": 2854,
    "▁board": 5113,
    "opic": 22773,
    "▁ready": 4313,
    "Api": 7119,
    "▁köz": 13271,
    "▁prés": 9671,
    "▁everybody": 12798,
    "Ą": 31640,
    "▁pied": 24349,
    "alin": 18107,
    "▁republic": 19988,
    "▁sphere": 21517,
    "ـ": 29791,
    "ɾ": 30242,
    "Rele": 14768,
    "Array": 2712,
    "▁lux": 11967,
    "▁Deb": 10562,
    "▁object": 1928,
    "▁newly": 12486,
    "▁text": 2245,
    "bey": 23815,
    "▁coord": 6618,
    "▁prediction": 19386,
    "interrupt": 23801,
    "▁Band": 10521,
    "ől": 15930,
    "▁Rate": 27773,
    "▁cabinet": 18266,
    "▁mounted": 18543,
    "▁Coffee": 27275,
    "=": 28746,
    "▁LIMITED": 20881,
    "<0x8C>": 143,
    "kle": 16993,
    "▁hr": 15384,
    "▁Send": 12710,
    "agers": 9535,
    "INSERT": 26587,
    "▁more": 680,
    "▁cried": 13714,
    "▁ground": 3414,
    "try": 1553,
    "▁Near": 17602,
    "imo": 6872,
    "▁\"@": 14604,
    "сты": 20495,
    "▁auction": 25029,
    "▁utilis": 25090,
    "▁Starting": 25503,
    "▁Json": 17750,
    "▁\"\",": 7889,
    "LOW": 9630,
    "ofs": 24103,
    "Secret": 17657,
    "=$(": 26111,
    "▁par": 940,
    "air": 992,
    "▁finest": 21561,
    "▁iteration": 23113,
    "cz": 3808,
    "▁Terry": 21373,
    "▁chances": 14562,
    "▁Sony": 21360,
    "▁Royal": 8413,
    "▁Pitt": 17491,
    "orter": 7046,
    "▁hockey": 21199,
    "▁sul": 10577,
    "opts": 11320,
    "▁сент": 22283,
    "▁ret": 1699,
    "ree": 688,
    "мен": 4029,
    "оне": 23703,
    "UM": 4171,
    "▁Cars": 23508,
    "▁consumption": 16298,
    "▁Pray": 27881,
    "█": 29055,
    "ynchron": 14938,
    "▁flesh": 14063,
    "vma": 22383,
    "▁га": 13206,
    "▁Boys": 20344,
    "▁Sr": 25854,
    "巴": 30824,
    "▁Sm": 3539,
    "▁trib": 11309,
    "▁blow": 9716,
    "译": 30883,
    "ARGET": 17985,
    "▁DA": 13060,
    "▁need": 927,
    "▁áll": 21009,
    "▁ital": 9126,
    "▁Advanced": 22742,
    "ฆ": 31383,
    "▁simulation": 17230,
    "▁tend": 6273,
    "edge": 8424,
    "▁killing": 10935,
    "▁Generic": 26348,
    "Machine": 15183,
    "Admin": 11744,
    "断": 29396,
    "▁las": 2635,
    "iz": 463,
    "유": 30127,
    "ná": 20946,
    "gly": 13127,
    "▁befindet": 26454,
    "ча": 1956,
    "multi": 13102,
    "▁\\;": 14695,
    "▁Patri": 22755,
    "▁Rect": 25707,
    "💰": 31697,
    "▁Sed": 23945,
    "ION": 1702,
    "Fr": 2642,
    "▁Grand": 6607,
    "▁alley": 28539,
    "▁elements": 5176,
    "Du": 17379,
    "▁mk": 25145,
    "roups": 3515,
    "": 30982,
    "▁persu": 14861,
    "▁libert": 18655,
    "x": 28744,
    "ザ": 30362,
    "ész": 18431,
    "standing": 8509,
    "colored": 28508,
    "▁liegt": 18610,
    "ales": 2230,
    "▁az": 4767,
    "▁conclude": 18429,
    "▁cut": 3119,
    "▁wagon": 26098,
    "▁forgot": 9400,
    "▁même": 10274,
    "ctx": 3077,
    "͜": 31878,
    "<0xAC>": 175,
    "anes": 8782,
    "ren": 951,
    "!_": 19193,
    "телем": 27146,
    "▁engl": 24670,
    "▁jerk": 19748,
    "вих": 18095,
    "▁при": 2683,
    "XFF": 19881,
    "ierz": 25076,
    "TT": 16235,
    "idding": 18790,
    "ft": 632,
    "▁painted": 14641,
    "▁determines": 25374,
    "║": 30019,
    "▁equipped": 17042,
    "пра": 7143,
    "ME": 1574,
    "emetery": 20033,
    "qpoint": 10762,
    "aven": 3146,
    "▁letters": 9181,
    "▁yo": 23934,
    "Ë": 31108,
    "▁Represent": 17891,
    "▁Listen": 26756,
    "▁geldig": 19088,
    "封": 30503,
    "말": 31253,
    "▁slave": 13890,
    "PI": 3110,
    "▁blur": 19690,
    "▁VII": 20983,
    "*>(": 19011,
    "▁energy": 3408,
    "~~~~": 11902,
    "▁FC": 9138,
    "Padding": 18273,
    "bew": 24134,
    "▁mús": 18855,
    "統": 31607,
    "▁drama": 13792,
    "▁directory": 9118,
    "ٓ": 31994,
    "WAIT": 23808,
    "▁dependent": 15365,
    "tr": 434,
    "▁Jess": 14216,
    "▁Going": 25659,
    "iew": 825,
    "▁Brig": 15114,
    "resa": 17677,
    "▁def": 801,
    "ferred": 9497,
    "▁):": 19174,
    "Tests": 17136,
    "▁drawer": 27673,
    "со": 2688,
    "▁//!": 19497,
    "()}": 25800,
    "▁went": 2068,
    "▁was": 403,
    "▁Login": 25722,
    "▁Version": 7155,
    "▁gab": 18221,
    "刀": 31516,
    "issant": 28438,
    "▁attack": 3517,
    "▁det": 1276,
    "▁Gordon": 15937,
    "▁corrected": 27840,
    "Culture": 24742,
    "▁estimation": 25909,
    "▁ev": 683,
    "CD": 5072,
    "allet": 7354,
    "▁бе": 8907,
    "▁king": 6779,
    "▁beiden": 21930,
    "▁predecess": 27060,
    "▁Ned": 28504,
    "▁Über": 19265,
    "module": 4895,
    "Roll": 22849,
    "▁tension": 15802,
    "ð": 29092,
    "▁calories": 24336,
    "ط": 29330,
    "ensive": 4097,
    "▁assist": 6031,
    "External": 17756,
    "▁bind": 12365,
    "▁synd": 18690,
    "▁_\"": 14780,
    "▁Mah": 10947,
    "▁intelligence": 10895,
    "вия": 28219,
    "визи": 20943,
    "▁back": 852,
    "▁Пре": 10164,
    "CFG": 14590,
    "ained": 1738,
    "▁mű": 28122,
    "할": 29723,
    "▁work": 771,
    "▁Rand": 16253,
    "src": 3478,
    "++;": 5732,
    "▁parser": 12457,
    "▁illustr": 8740,
    "▁stair": 20519,
    "▁kar": 14504,
    "▁Birth": 23326,
    "▁prospects": 26140,
    "RA": 5244,
    "Oper": 3935,
    "may": 12001,
    "氏": 31320,
    "련": 31608,
    "energy": 18785,
    "▁interval": 12571,
    "jer": 18900,
    "▁équ": 18124,
    "▁subscription": 15400,
    "▁eas": 1897,
    "ват": 14423,
    "▁conne": 2334,
    "拉": 29899,
    "▁Cre": 19271,
    "▁Vor": 11975,
    "EventHandler": 23273,
    "ilation": 11213,
    "▁forg": 12706,
    "金": 29452,
    "章": 30138,
    "▁deal": 3215,
    "cret": 3927,
    "MB": 5953,
    "▁Eliz": 10051,
    "▁cand": 13931,
    "_;": 11446,
    "ading": 7836,
    "▁contin": 1710,
    "Sheet": 19565,
    "Iter": 8135,
    "▁simpler": 27013,
    "▁Universal": 21874,
    "넣": 31550,
    "chain": 9132,
    "▁System": 2135,
    "▁Play": 6879,
    "riz": 8354,
    "Events": 11208,
    "▁Tim": 7240,
    "boards": 18256,
    "▁(**": 20714,
    "▁oral": 21210,
    "memcpy": 19290,
    "An": 2820,
    "▁Mons": 28212,
    "▁attrs": 20793,
    "˙": 29776,
    "cing": 4669,
    "ested": 7848,
    "▁Hamb": 18540,
    "asty": 11136,
    "▁consultation": 24880,
    "href": 16558,
    "?;": 25215,
    "ipv": 21294,
    "('": 857,
    "▁Metro": 25289,
    "讲": 31952,
    "▁offices": 15217,
    "Angle": 17917,
    "▁universal": 14598,
    "variable": 15332,
    "ByName": 23177,
    "current": 3022,
    "▁installation": 14843,
    "▁misunder": 26670,
    "돌": 31597,
    "▁continuous": 12734,
    "bounds": 22048,
    "▁pří": 23582,
    "引": 29544,
    "▁Ped": 11943,
    "▁best": 1489,
    "iy": 11672,
    "▁empt": 28534,
    "▁Library": 10812,
    "▁enforce": 13707,
    "주": 29557,
    "▁wine": 8188,
    "▁news": 4231,
    "▁privacy": 12917,
    "getCurrent": 28040,
    "products": 20042,
    "足": 30303,
    "▁REG": 13923,
    "▁dece": 23009,
    "seen": 18226,
    "elt": 1807,
    "uk": 2950,
    "leton": 9224,
    "▁NS": 12043,
    "раль": 13906,
    "FIELD": 13452,
    "块": 29739,
    "▁Auf": 8914,
    "▁Autom": 15939,
    "▁Dop": 15967,
    "况": 30181,
    "arel": 24104,
    "esz": 27751,
    "Color": 3501,
    "▁Bras": 13481,
    "▁bias": 16117,
    "ine": 473,
    "<0x08>": 11,
    "▁ask": 1460,
    "tor": 6909,
    "▁Str": 3838,
    "äter": 13201,
    "▁backward": 19592,
    "▁только": 24125,
    "▁reaches": 18710,
    "NOP": 26389,
    "LAST": 27699,
    "iation": 6752,
    "ள": 31069,
    "创": 29349,
    "▁ved": 16986,
    "soap": 19516,
    "▁fit": 4646,
    "asters": 24927,
    "Trigger": 16140,
    "▁predicted": 17931,
    "▁&(": 27029,
    "▁Stage": 22532,
    "ungs": 6571,
    "▁Cl": 1366,
    "avelength": 26795,
    "oto": 2587,
    "iliar": 7036,
    ")\"": 12159,
    "ش": 29083,
    "apping": 3925,
    "raph": 1875,
    "licenses": 9146,
    "이": 29015,
    "▁morte": 24116,
    "Compute": 26635,
    "▁Baker": 19803,
    "▁rode": 17265,
    "▁Cris": 23523,
    "▁loose": 12945,
    "▁black": 2687,
    "Dele": 5314,
    "random": 9121,
    "▁Execut": 11663,
    "▁digit": 21656,
    "<0x9C>": 159,
    "<0xD1>": 212,
    "ifiable": 21386,
    "ReadOnly": 25700,
    "▁dis": 704,
    "▁traditions": 21703,
    "rides": 20009,
    "▁positions": 9161,
    "读": 29678,
    "Web": 5392,
    "<0x5F>": 98,
    "▁degli": 13810,
    "Measure": 25241,
    "ude": 987,
    "갑": 31090,
    "▁celle": 21401,
    "<0x83>": 134,
    "▁'';": 13235,
    "▁Users": 25777,
    "facebook": 23744,
    "▁things": 1722,
    "aries": 4838,
    "▁stores": 10858,
    "乐": 30488,
    "▁Ар": 13462,
    "▁проти": 25373,
    "Construct": 26799,
    "▁bonds": 22541,
    "BE": 7657,
    "wd": 9747,
    "▁CONDITION": 12016,
    "齐": 31324,
    "ative": 1197,
    "inter": 1646,
    "▁points": 3569,
    "с": 28788,
    "▁scent": 21535,
    "last": 4081,
    "Selector": 8185,
    "▁Dave": 13613,
    "▁Pan": 7687,
    "┘": 31652,
    "▁deliver": 5663,
    "pk": 16270,
    "▁magnific": 24039,
    "▁support": 1760,
    "▁election": 7537,
    "▁seeks": 27297,
    "▁Broadway": 24331,
    "ategories": 14922,
    "▁context": 2758,
    "▁positive": 5278,
    "бре": 19753,
    "fb": 10967,
    "ativity": 28283,
    "vod": 21166,
    "Members": 23020,
    "♂": 29979,
    "▁albums": 19888,
    "▁fuck": 4159,
    "optional": 14496,
    "Bu": 21221,
    "▁experience": 2659,
    "ighbor": 21858,
    "▁dernier": 26592,
    "kov": 12577,
    "▁tek": 27107,
    "ң": 31000,
    "▁Form": 4849,
    "▁Mach": 16290,
    "Req": 16295,
    "dro": 23756,
    "ked": 13602,
    "News": 25614,
    "ument": 1320,
    "▁serie": 11577,
    "▁typically": 9566,
    "midt": 26366,
    "aque": 13768,
    "req": 3644,
    "▁comp": 623,
    "▁huge": 5401,
    "Ÿ": 30322,
    "▁Coll": 9215,
    "▁Loc": 5232,
    "▁locals": 23237,
    "▁exc": 2823,
    "jQuery": 15442,
    "▁fortunate": 28595,
    "▁authorities": 12503,
    "othing": 5182,
    "ization": 1837,
    "▁nicely": 26465,
    "남": 31183,
    "▁ideas": 5766,
    "▁separation": 18838,
    "som": 15415,
    "▁promote": 11711,
    "éro": 18285,
    "PU": 7903,
    "▁bef": 23399,
    "стоя": 10185,
    "▁root": 5557,
    "▁profits": 20285,
    "repository": 19944,
    "Canvas": 20573,
    "▁count": 2113,
    "uten": 8142,
    "refer": 16769,
    "▁duration": 11964,
    "▁Shop": 14142,
    "▁Nederland": 20347,
    "EVENT": 11185,
    "▁AUTH": 25270,
    "▁COM": 15924,
    "LOG": 5305,
    "▁assembled": 26309,
    "▁foam": 26493,
    "aran": 22754,
    "oni": 7997,
    "▁metall": 21273,
    "▁updated": 8457,
    "rag": 14806,
    "atos": 17360,
    "▁pit": 11265,
    "▁eller": 17994,
    "ritz": 24855,
    "寻": 31712,
    "Par": 3916,
    "kappa": 8754,
    "▁experiment": 6878,
    "▁Space": 13497,
    "▁tob": 24089,
    "₁": 31552,
    "▁global": 3526,
    "▁genius": 22027,
    "TER": 4741,
    "▁essere": 15865,
    "▁Cop": 9321,
    "▁Created": 22982,
    "bsite": 14868,
    "▁conqu": 17095,
    "ives": 1771,
    "▁port": 2248,
    "▁wasn": 2723,
    "▁dich": 19132,
    "▁PROVID": 25118,
    "ง": 29285,
    "▁Built": 25631,
    "reg": 1376,
    "Sm": 10259,
    "▁исто": 13196,
    "▁loans": 15556,
    "▁україн": 28075,
    "NS": 7016,
    "lar": 15027,
    "+-": 22805,
    "chk": 28566,
    "defined": 11498,
    "undial": 18507,
    "(!": 6469,
    "ễ": 30386,
    "▁++": 6537,
    "▁husband": 5581,
    "▁digest": 18922,
    "▁receiving": 11864,
    "▁observe": 14631,
    "▁franchise": 21014,
    "ulously": 26344,
    "▁implements": 10538,
    "œuv": 20914,
    "▁truck": 8388,
    "숫": 31330,
    "▁practicing": 28172,
    "▁sacred": 21079,
    "▁progressive": 20458,
    "ტ": 30119,
    "শ": 31275,
    "rated": 27210,
    "▁functionality": 20289,
    "モ": 30177,
    "Dam": 18312,
    "印": 30169,
    "▁Operations": 24892,
    "初": 29409,
    "▁бере": 19945,
    "$(\"#": 26690,
    "thers": 2199,
    "▁Democratic": 12821,
    "▁Perhaps": 9447,
    "freq": 14436,
    "▁poverty": 16733,
    "▁democracy": 17548,
    "ำ": 30032,
    "▁fairly": 11735,
    "▁хи": 27220,
    "▁*/,": 26349,
    "shape": 7015,
    "▁Liz": 24044,
    "‑": 29694,
    "▁tooth": 17961,
    "vin": 8830,
    "▁sha": 23671,
    "💎": 31203,
    "netic": 20527,
    "겠": 31810,
    "▁són": 28155,
    "刷": 30426,
    "scripts": 23931,
    "难": 31407,
    "❒": 31841,
    "▁gear": 13133,
    "Special": 20763,
    "Upper": 22225,
    "olar": 8330,
    "umpy": 14196,
    "PA": 7824,
    "▁telephone": 15429,
    "▁hospitals": 21737,
    "▁cult": 3056,
    "ʃ": 29807,
    "before": 12098,
    "▁ра": 2101,
    "ook": 600,
    "▁casting": 24668,
    "▁Ba": 9236,
    "▁Historic": 26851,
    "Snapshot": 16587,
    "▁ess": 3150,
    "▁Ke": 4702,
    "▁Q": 1186,
    "▁registers": 23826,
    "▁siendo": 27012,
    "▁gl": 1272,
    "▁MA": 6540,
    "▁против": 19636,
    "▁conversations": 17256,
    "▁steht": 26441,
    "▁lifestyle": 16218,
    "▁Ч": 5477,
    "▁appropriate": 7658,
    "zenia": 19716,
    "▁caught": 6236,
    "final": 6560,
    "ком": 7830,
    "▁forward": 3814,
    "▁Beautiful": 26547,
    "orno": 13312,
    "▁around": 1401,
    "******": 9329,
    "еди": 22197,
    "▁surn": 26937,
    "▁bother": 11026,
    "▁placing": 20632,
    "▁\",\"": 28685,
    "hire": 20685,
    "Alloc": 14072,
    "ców": 24325,
    "▁stra": 4512,
    "▁authentication": 20658,
    "▁establishing": 24491,
    "▁commut": 24659,
    "▁radar": 24951,
    "▁complained": 25057,
    "领": 30610,
    "));\r": 10941,
    "UP": 3571,
    "▁contempl": 23010,
    "孩": 31437,
    "▁pecul": 23908,
    "თ": 29953,
    "ner": 1079,
    "▁roku": 6739,
    "خ": 29199,
    "▁Rich": 4656,
    "▁expressions": 16948,
    "류": 30810,
    "려": 30710,
    "oids": 17653,
    "▁grat": 15177,
    "INVAL": 7049,
    "ATA": 5854,
    "▁inspect": 16279,
    "▁evening": 6856,
    "▁Nah": 28603,
    "▁top": 1830,
    "▁StringBuilder": 22380,
    "▁making": 2492,
    "rich": 6408,
    "▁One": 2387,
    "зва": 10246,
    "▁Ton": 17104,
    "oba": 18441,
    "kw": 8486,
    "▁HD": 15051,
    "▁gr": 847,
    "▁fac": 3252,
    "▁innocent": 17290,
    "▁Buenos": 25862,
    "aled": 4742,
    "だ": 29883,
    "▁Grund": 17583,
    "rake": 21868,
    "<0xD7>": 218,
    "{},": 15691,
    "▁Papers": 24697,
    "noon": 8122,
    "▁dre": 21808,
    "riel": 13374,
    "fly": 16210,
    "▁written": 4241,
    "▁seven": 6671,
    "▁complic": 9768,
    "▁analys": 21974,
    "rel": 3045,
    "▁intended": 8926,
    "▁societies": 25342,
    "cdot": 5468,
    "▁BT": 23126,
    "▁kill": 4015,
    "▁adapt": 8018,
    "imat": 24022,
    "▁variations": 19718,
    "▁behalf": 15665,
    "CON": 3185,
    "▁executive": 12212,
    "Result": 2716,
    "▁operational": 21197,
    "Changed": 8195,
    "▁фран": 26186,
    "ratio": 22287,
    "▁Wend": 23025,
    "ই": 31342,
    "tainment": 19019,
    "mber": 2343,
    "eman": 11513,
    "▁permanently": 26815,
    "ген": 18814,
    "執": 31996,
    "▁scripts": 26304,
    "▁Chicago": 8449,
    "▁resident": 11468,
    "Release": 17327,
    "ava": 1750,
    "ered": 2092,
    "▁cho": 2183,
    "Second": 10385,
    "▁Garden": 15875,
    "▁сле": 14208,
    "shots": 26339,
    "ommen": 18902,
    "德": 30371,
    "么": 29797,
    "из": 9912,
    "ilibrium": 21092,
    ")|": 12362,
    "ät": 5291,
    "mq": 26553,
    "util": 1858,
    "▁rooms": 9698,
    "Die": 14892,
    "▁WITH": 17974,
    "ría": 23048,
    "></": 3176,
    "▁humans": 10589,
    "away": 12154,
    "▁stiff": 16516,
    "PG": 12722,
    "rep": 9157,
    "▁rewards": 22989,
    "iqu": 2741,
    "чних": 24409,
    "▁Sandy": 27925,
    "▁Georges": 28161,
    "曾": 31676,
    "tip": 8451,
    "▁intensity": 16800,
    "abases": 25716,
    "！": 29267,
    "▁Uncle": 20189,
    "▁Politiker": 28510,
    "▁entrepre": 15801,
    "▁Clay": 19230,
    "▁behav": 4569,
    "ент": 6089,
    "▁cp": 14173,
    ".*": 3752,
    "\");": 1041,
    "IF": 4066,
    "▁Home": 6434,
    "作": 29089,
    "▁Arab": 9111,
    "▁officials": 10755,
    "*(": 13411,
    "voice": 14199,
    "мі": 5482,
    "▁transportation": 17408,
    "syn": 25690,
    "Space": 10571,
    "aban": 12640,
    "▁har": 4412,
    "▁RES": 20308,
    "▁crush": 21987,
    "rai": 27097,
    "lock": 1607,
    "Inputs": 28681,
    "▁and": 304,
    "iver": 2023,
    "▁By": 2463,
    "ⵏ": 31443,
    "SI": 3055,
    "ющие": 27615,
    "▁Чер": 24552,
    "▁smile": 6458,
    "ろ": 31149,
    "chron": 8416,
    "▁bund": 22978,
    "glich": 21379,
    "ě": 28871,
    "圆": 30952,
    "Analysis": 22039,
    "▁guides": 25146,
    "▁opposed": 13970,
    "érie": 10326,
    "만": 29757,
    "Ok": 9052,
    "▁batter": 7994,
    "notation": 11627,
    "▁[…]": 22819,
    "TEMP": 21291,
    "RENT": 22286,
    "▁І": 9341,
    "▁suddenly": 6914,
    "illas": 21917,
    "ラ": 29281,
    "update": 3818,
    "▁anni": 13512,
    "ціональ": 27851,
    "initialize": 19106,
    "▁PL": 17980,
    "pre": 1779,
    "unct": 18181,
    "DateTime": 11632,
    "▁tast": 21447,
    "▁Cir": 10460,
    ">{@": 22084,
    "ens": 596,
    "▁prend": 16086,
    "requ": 1681,
    "▁makeup": 19781,
    "▁Mär": 16851,
    "▁must": 1580,
    "▁requests": 9828,
    "identity": 20371,
    "▁derive": 24058,
    "▁Sergeant": 28204,
    "▓": 31024,
    "ème": 8158,
    "拍": 30860,
    "▁sec": 5267,
    "▁asset": 13458,
    "고": 29511,
    "五": 30108,
    "▁Mason": 21507,
    "kn": 13223,
    "▁От": 18998,
    "▁initialization": 27620,
    "▁Josh": 14648,
    "▁organization": 6666,
    "ACCESS": 24417,
    "▁обще": 18556,
    "anos": 19813,
    "各": 30344,
    "중": 30027,
    "▁ours": 22911,
    "Once": 16114,
    "olean": 2481,
    "nim": 25106,
    "▁nic": 15750,
    "▁fog": 15793,
    "ское": 12988,
    "觉": 31345,
    "▁Inn": 12810,
    "exc": 25768,
    "低": 30456,
    "мя": 8104,
    "虎": 31578,
    "('./": 21093,
    "▁Everything": 13090,
    "agi": 22657,
    "加": 29058,
    "▁questa": 24707,
    "▁Anti": 23331,
    "utdown": 18967,
    "}": 28752,
    "▁Apple": 10244,
    "▁printed": 15180,
    "▁Conse": 26300,
    "anta": 9092,
    "getElementById": 14777,
    "}{\\": 3803,
    "ख": 31230,
    "▁stressed": 27415,
    "initely": 17530,
    "üll": 19165,
    "tn": 6888,
    "▁Coach": 24847,
    "print": 2031,
    "⁣": 31212,
    "▁Madrid": 14334,
    "aware": 15950,
    "▁полити": 22051,
    "akh": 17212,
    "▁vict": 4801,
    "团": 30756,
    "▁little": 1628,
    "▁use": 938,
    "les": 867,
    "▁FBI": 18622,
    "paths": 19366,
    "▁representatives": 20559,
    "ogle": 2721,
    "tabs": 24856,
    "▁país": 18976,
    "▁network": 3681,
    "ék": 9640,
    "短": 30132,
    "FO": 4521,
    "ices": 1214,
    "<0x3E>": 65,
    "service": 5134,
    "чно": 7869,
    "R": 28754,
    "atura": 14753,
    "regs": 12604,
    "百": 30421,
    "▁Naval": 25982,
    "▁deep": 3534,
    "Del": 9489,
    "posite": 18439,
    "▁Zen": 25153,
    "asa": 13937,
    "▁entries": 11507,
    "ermo": 27252,
    "Disabled": 21258,
    "Device": 6489,
    "▁Exper": 11135,
    "Prov": 18325,
    "▁Leonard": 25298,
    "Ī": 31322,
    "<0xFB>": 254,
    "▁kap": 16056,
    "ONLY": 21198,
    "▁exponent": 23869,
    "lin": 2294,
    "▁zn": 13288,
    "▁Stud": 4906,
    "▁examination": 20976,
    "▁mutual": 19336,
    "ussy": 23215,
    "finished": 6159,
    "related": 9646,
    "customer": 18523,
    "oute": 3241,
    "▁scholarship": 25620,
    "HasColumnType": 18239,
    "▁foods": 14082,
    "▁Mind": 14683,
    "({\\": 11592,
    "▁Burn": 13708,
    "▁Saud": 20605,
    "redu": 12059,
    "링": 31689,
    "▁sept": 10344,
    "▁favour": 10392,
    "▁ages": 14506,
    ";;": 19406,
    "▁sulla": 20987,
    "▁detect": 6705,
    "▁harass": 22280,
    "▁Era": 23901,
    "tal": 16000,
    "▁clutch": 27883,
    "lp": 12312,
    "strict": 17354,
    "▁Miles": 25264,
    "▁Cru": 11549,
    "tasks": 21128,
    "▁construct": 5122,
    "ENO": 12726,
    "uy": 4533,
    "▁et": 911,
    "▁Sugar": 27333,
    "▁sensation": 23413,
    "▁took": 2056,
    "▁scattering": 21635,
    "▁results": 2903,
    "▁EX": 4175,
    "AGE": 6130,
    "▁Fame": 26675,
    "rices": 17783,
    "▁ва": 13524,
    "enci": 24086,
    "▁Gilbert": 26774,
    "ด": 29488,
    "▁bid": 16129,
    "▁elim": 8663,
    "▁Pennsylvania": 15472,
    "reate": 2730,
    "▁Claud": 25630,
    "▁utility": 18936,
    "▁Prec": 28386,
    "▁Nicholas": 22676,
    "▁BS": 28691,
    "▁Mass": 7576,
    "▁illegal": 12701,
    "▁Kill": 25262,
    "ск": 8283,
    "ი": 29165,
    "▁основ": 16810,
    "tls": 21908,
    "準": 31646,
    "▁Link": 9351,
    "私": 30593,
    "▁way": 1069,
    "▁shorter": 19367,
    "杀": 31168,
    "ienne": 10605,
    "끝": 31462,
    "({": 2882,
    "▁slots": 19708,
    "idget": 3812,
    "imal": 3048,
    "▁gender": 11487,
    "▁shaped": 21028,
    "▁nach": 4856,
    "▁verification": 26878,
    "▁nr": 17431,
    "▁problem": 2700,
    "'))": 8100,
    "Launch": 27514,
    "niej": 20386,
    "▁uns": 10214,
    "rav": 20524,
    "▁owner": 7162,
    "▁Edd": 15765,
    "▁Kings": 19188,
    ".\"\"\"": 16498,
    "entin": 23149,
    "Str": 3490,
    "ace": 561,
    "pis": 9455,
    "ल": 29759,
    "uf": 1194,
    "ië": 17510,
    "備": 31410,
    "Activ": 18127,
    "<0xEE>": 241,
    "ḷ": 31774,
    "▁\":": 20299,
    "opol": 13376,
    "▁Payment": 27294,
    "▁Fußball": 24836,
    "▁Any": 4922,
    "ィ": 29707,
    "▁Hob": 23482,
    "Builder": 3686,
    "▁await": 4293,
    "▁Wil": 5368,
    "▁slim": 24530,
    "Depend": 17716,
    "wn": 880,
    "elines": 25465,
    "▁easily": 5061,
    "▁Http": 11161,
    "名": 29046,
    "্": 29686,
    "平": 29549,
    "▁Fl": 2494,
    "▁Bring": 24786,
    "▁innovation": 16863,
    "▁Whit": 18186,
    "风": 30206,
    "ové": 20208,
    "单": 29113,
    "密": 29385,
    "Down": 6810,
    "quarters": 14446,
    "ḥ": 29624,
    "▁profession": 7585,
    "截": 30572,
    "iet": 1296,
    "ington": 14066,
    "▁',": 15246,
    "~~": 4836,
    "Wr": 17055,
    "": 30011,
    "inde": 8355,
    "otimes": 8794,
    "ños": 8476,
    "Category": 9633,
    "▁oficial": 21774,
    "毁": 31699,
    "Storage": 7734,
    "▁fig": 2994,
    "revs": 12468,
    "olas": 16836,
    "fte": 18584,
    "▁Justin": 21252,
    "Clock": 24041,
    "perf": 24663,
    "▁Proposition": 19697,
    "eless": 6199,
    "隆": 31302,
    "▁Lond": 17681,
    "▁aan": 6456,
    "ittle": 1490,
    "测": 29584,
    "resents": 9825,
    "\\{": 11873,
    "bara": 14660,
    "▁ged": 28530,
    "sil": 22585,
    "rift": 10255,
    "▁parks": 24682,
    "▁Census": 27938,
    "따": 31359,
    "▁free": 1933,
    "略": 30223,
    "▁gru": 6080,
    "Redirect": 25633,
    "▁Kos": 20556,
    "LICENSE": 10959,
    "TestCase": 18268,
    "town": 19669,
    "io": 691,
    "▁учи": 22102,
    "▁shouted": 14726,
    ":\",": 26906,
    "irmed": 8945,
    "mock": 8903,
    "CLUD": 16613,
    "▁meters": 18776,
    "igs": 11878,
    "Copyright": 20505,
    "Attrib": 28133,
    "▁suited": 24003,
    "diff": 11836,
    "▁Napoleon": 27819,
    "▁austral": 27162,
    "▁mil": 2120,
    "amas": 22425,
    "AT": 962,
    "桥": 31539,
    "寶": 31683,
    "▁instances": 13290,
    "▁investors": 15104,
    "▁earn": 6384,
    "Fn": 13991,
    "知": 29661,
    "▁armed": 14630,
    "怎": 31401,
    "▁re": 312,
    "emed": 17239,
    "preter": 21345,
    "▁lou": 20280,
    "ims": 7805,
    "▁vessels": 22831,
    "将": 29248,
    "▁XI": 27948,
    "▁employment": 14087,
    "▁membres": 28356,
    "dagger": 17648,
    "▁extrem": 6215,
    "Cross": 26068,
    "▁defaults": 20932,
    "짜": 31405,
    "▁vague": 25285,
    "▁cl": 533,
    "▁груп": 17737,
    "▁sein": 6578,
    "ʔ": 30317,
    "▁най": 15977,
    "　": 29351,
    "▁stabil": 16888,
    "okal": 23356,
    "atan": 23905,
    "▁median": 16825,
    "🤣": 29650,
    "thon": 7418,
    "▁города": 22316,
    "ufficient": 23885,
    "▁polite": 27057,
    "T": 28738,
    "pass": 4119,
    "Appe": 16929,
    "attach": 16689,
    "ismiss": 28177,
    "▁ell": 14045,
    "▁advise": 25937,
    "▁quer": 24031,
    "HEAD": 13404,
    "▁arg": 1629,
    "location": 2733,
    "obs": 8081,
    "▁anime": 25708,
    "▁dest": 2620,
    "▁surg": 24130,
    "▁gli": 9973,
    "nament": 10059,
    "br": 1473,
    "▁entre": 3913,
    "delta": 3973,
    "▁Nie": 27805,
    "▁Against": 27506,
    "▁Chron": 23967,
    "extract": 21685,
    "แ": 29853,
    "GP": 15997,
    "▁violent": 14643,
    "OPT": 17954,
    "▁Edwards": 27336,
    "▁zu": 3155,
    "rt": 2576,
    "phant": 17953,
    "▁households": 23755,
    "▁pointer": 10300,
    "Operator": 13583,
    "oom": 8605,
    "super": 8554,
    "▁believed": 7761,
    "inher": 16236,
    "▁ö": 6204,
    "ides": 1926,
    "▁să": 14377,
    "Έ": 31586,
    "▁Aires": 24537,
    "▁exec": 19626,
    "ulsion": 24032,
    "aki": 10270,
    "*-": 13725,
    "generated": 12169,
    "Models": 13736,
    "▁-*-": 25640,
    "out": 406,
    "▁Gand": 24414,
    "▁obey": 28414,
    "▁grace": 13754,
    "▁ethnic": 18433,
    "nehmen": 22839,
    "▁hä": 22800,
    "gor": 4553,
    "▁{'": 12012,
    "バ": 29750,
    "▁incorpor": 10219,
    "利": 29819,
    "▁spine": 24496,
    "Dest": 9277,
    "isely": 11973,
    "▁Swedish": 22677,
    "载": 29435,
    "▁suspect": 12236,
    "▁seen": 2598,
    "▁unsigned": 5479,
    "▁Sch": 1609,
    "▁realized": 7185,
    "iling": 5708,
    "▁lanz": 26682,
    "▁време": 25396,
    "uations": 22190,
    "▁насеље": 22350,
    "Static": 13232,
    "▁drift": 18101,
    "NEL": 19014,
    "▁Camera": 24361,
    "resolved": 22634,
    "▁Rice": 26741,
    "▁Less": 11385,
    "▁Ham": 5058,
    "▁tunnel": 17377,
    "во": 1175,
    "MASK": 9945,
    "dat": 4201,
    "dale": 21352,
    "▁projection": 18975,
    "BU": 3470,
    ":\r": 8230,
    "born": 6363,
    "lim": 2788,
    "▁Championship": 8906,
    "finish": 22471,
    "酒": 30887,
    "bundle": 25023,
    "Server": 5334,
    "insula": 27155,
    "▁comput": 3633,
    "▁belonged": 22232,
    "波": 30382,
    "za": 2166,
    "▁fell": 5970,
    "xico": 22138,
    "串": 29523,
    "ault": 1118,
    "▁payment": 8850,
    "▁contained": 10932,
    "▁ре": 3172,
    "iblic": 25624,
    "altern": 28604,
    "xygen": 19303,
    "▁listade": 13129,
    "ifest": 7541,
    "▁pp": 8348,
    "▁Rating": 25181,
    "▁Є": 22514,
    "▁апре": 23242,
    "▁yet": 2783,
    "ishment": 12243,
    "▁stroke": 14684,
    "utton": 26028,
    "▁LICENSE": 16225,
    "▁script": 6767,
    "Nd": 16951,
    "emper": 13330,
    "▁family": 2005,
    "']))": 16433,
    "東": 30366,
    "▁interest": 2145,
    "▁destruct": 25274,
    "": 29941,
    "▁Illuminate": 22652,
    "▁музы": 27277,
    "▁извест": 21082,
    "Safe": 22147,
    "assertTrue": 18455,
    "及": 29965,
    "bs": 1816,
    "▁fd": 18111,
    "Dispatch": 15844,
    "▁под": 6008,
    "▁experiences": 9021,
    "▁RT": 17059,
    "▁Dear": 22143,
    "PROC": 15812,
    "tu": 17512,
    "jquery": 21126,
    "cq": 27009,
    "omorphic": 22631,
    "▁fewer": 16130,
    "▁rectangle": 26900,
    "▁auto": 4027,
    "▁divine": 20428,
    "0": 28734,
    "emat": 16633,
    "奈": 31869,
    "льта": 16389,
    "▁mental": 8057,
    "▁Pain": 20063,
    "network": 9482,
    "ether": 8962,
    "pd": 9885,
    "aient": 16700,
    "bin": 5721,
    "ació": 7094,
    "▁Ре": 9392,
    "▁Might": 28439,
    "▁соста": 24285,
    "IFY": 15783,
    "▁Murphy": 23940,
    "airs": 3379,
    "▁Single": 16096,
    "lst": 26816,
    "slot": 12685,
    "💖": 31912,
    "▁lacking": 26679,
    "▁Writing": 19920,
    "Lite": 24701,
    "▁However": 2993,
    "Sorry": 23166,
    "▁avoiding": 23329,
    "ledge": 3829,
    "▁surroundings": 28220,
    "▁â": 22506,
    "units": 24653,
    "![": 25531,
    "▁punt": 16875,
    "▁ran": 5591,
    "getData": 25842,
    "▁Nether": 18841,
    "▁Specific": 23518,
    "▁cached": 19970,
    "Iterator": 12057,
    "Emitter": 26264,
    "▁ancient": 9467,
    "ী": 31406,
    "angen": 26047,
    "▁sustained": 25859,
    "奖": 30598,
    "▁UN": 7922,
    "EqualTo": 24680,
    "omena": 26504,
    "▁Bell": 11395,
    "Mod": 1701,
    "▁responded": 15249,
    "抛": 31584,
    "▁ско": 27999,
    "▁Tokyo": 19887,
    "Џ": 29473,
    "}^{": 3041,
    "▁such": 1259,
    "▁reporter": 19044,
    "▁Among": 13927,
    "▁Joy": 17780,
    "▁psychology": 23782,
    "que": 1011,
    "ї": 28869,
    "▁touched": 12527,
    "▁Все": 25615,
    "▁determination": 20051,
    "绑": 30384,
    "IDS": 19954,
    "▁erano": 24882,
    "icture": 10358,
    "▁pub": 2034,
    "commun": 15976,
    "alpha": 2307,
    "▁prevented": 26492,
    "▁immediately": 5347,
    "▁две": 27807,
    "▁own": 1216,
    "▁RF": 27063,
    "ouch": 3204,
    "atem": 24359,
    "▁Sym": 12356,
    "程": 29265,
    "ums": 7610,
    "depend": 11569,
    "rows": 3541,
    "General": 15348,
    "pm": 3419,
    "nit": 28023,
    "▁architecture": 13811,
    "▁бра": 17515,
    "antage": 22357,
    "來": 30425,
    "ash": 1029,
    "aly": 8910,
    "sterreich": 17844,
    "▁operator": 7906,
    "uo": 27736,
    "ách": 28633,
    "idas": 12563,
    "▁sake": 14408,
    "▁Henri": 20374,
    "noc": 15979,
    "fections": 23498,
    "sky": 10919,
    "▁yeah": 12176,
    "▁Veg": 15408,
    "assertEquals": 12135,
    "Ђ": 29278,
    "替": 30552,
    "statement": 22910,
    "▁determining": 23689,
    "属": 29438,
    "▁vm": 13337,
    "־": 31663,
    "ido": 2750,
    "ベ": 30277,
    "▁princess": 28313,
    "▁SPI": 28500,
    "▁mom": 1948,
    "▁currently": 5489,
    "▁Actually": 20290,
    "crement": 16554,
    "▁than": 821,
    "▁decided": 4496,
    "лин": 14274,
    "age": 465,
    "Pending": 18826,
    "▁vamp": 21505,
    "▁że": 22165,
    "▁imported": 26659,
    "TE": 3392,
    "stud": 13082,
    "▁browser": 11806,
    "RG": 17814,
    "▁Additional": 20460,
    "▁Install": 22609,
    "▁noise": 8498,
    "▁Equ": 8391,
    "▁parish": 23539,
    "師": 31231,
    "▁Fi": 24061,
    "join": 5906,
    "▁Down": 8560,
    "лев": 28110,
    "base": 2893,
    "гре": 21634,
    "TP": 4904,
    "▁Dol": 15052,
    "▁дома": 21807,
    "<0x4E>": 81,
    "▁suggest": 3397,
    "▁buck": 9918,
    "riend": 1513,
    "▁lips": 8852,
    "orem": 5382,
    "AME": 10026,
    "▁FI": 16148,
    "_{{\\": 17541,
    "▁sixth": 20865,
    "₦": 31809,
    "▁sender": 17560,
    "▁Kre": 13326,
    "▁U": 500,
    "▁$|": 17429,
    "阶": 31177,
    "▁territor": 12550,
    "foreach": 15160,
    "▁Was": 7336,
    "▁number": 1474,
    "íses": 27075,
    "ս": 30506,
    "▁Cha": 23330,
    "igte": 23355,
    "math": 928,
    "Src": 15886,
    "……": 22917,
    "Compare": 22095,
    "▁prior": 4681,
    "esome": 9263,
    "▁scholars": 22981,
    "ニ": 30297,
    "̈": 30814,
    "▁tropical": 21257,
    "；": 29743,
    "▁rand": 27586,
    "▁abstract": 11576,
    "▁trails": 28280,
    "akespe": 17274,
    "nde": 18773,
    "▁Med": 2998,
    "▁Noah": 26586,
    "oper": 3015,
    "VED": 27198,
    "fö": 27899,
    "ែ": 31692,
    "▁discussing": 20633,
    "vi": 5219,
    "ize": 653,
    "unächst": 24490,
    "ках": 15274,
    "store": 5987,
    "▁holds": 8288,
    "▁pode": 26165,
    "▁individuals": 6992,
    "▁nort": 27737,
    "▁Comments": 25493,
    "сло": 12309,
    "″": 28959,
    "tv": 9791,
    "▁doorway": 20702,
    "ERS": 10291,
    "▁IL": 10428,
    "Do": 4957,
    "▁Ott": 14982,
    "▁können": 19766,
    "sun": 19875,
    "∑": 31384,
    "▁because": 1096,
    "rat": 5308,
    "чення": 22948,
    "ಯ": 31826,
    "})": 1542,
    "made": 15248,
    "▁Negro": 23725,
    "▁горо": 14896,
    "▁summary": 14060,
    "率": 29886,
    "げ": 31967,
    "▁ther": 7454,
    "and": 391,
    "absolute": 26022,
    "▁improve": 4916,
    "тор": 6826,
    "ён": 8576,
    "▁drei": 15898,
    "ITY": 4966,
    "▁Hand": 6322,
    "▁giving": 5239,
    "mbre": 7979,
    "Please": 12069,
    "umm": 17068,
    "▁competing": 23183,
    "Decl": 7557,
    "新": 29056,
    "MIT": 24791,
    "값": 29755,
    "▁appear": 4305,
    "line": 1081,
    "persistence": 23414,
    "inject": 25410,
    "▁hanging": 12445,
    "<0xEA>": 237,
    "Blocks": 23388,
    "actions": 5286,
    "phone": 6690,
    "▁Trans": 4335,
    "▁stopping": 17203,
    "▁significant": 5864,
    "▁ap": 979,
    "▁uniqu": 20988,
    "▁mother": 3057,
    "▁Penn": 11710,
    "Sprintf": 20625,
    "MODE": 7227,
    "ucker": 20380,
    "▁emissions": 25111,
    "gew": 16539,
    "common": 5348,
    "▁frances": 17923,
    "과": 29844,
    "roller": 3462,
    "▁monument": 17772,
    "▁hor": 3292,
    "pathetic": 27642,
    "▁Okay": 19811,
    "burgh": 20818,
    "################": 6668,
    "Bytes": 7976,
    "overn": 5794,
    "▁cited": 22881,
    "▁ebenfalls": 27836,
    "▁Iowa": 20718,
    "▁case": 1222,
    "▁Label": 15437,
    "▁nomin": 22645,
    "▁doubts": 28687,
    "פ": 29467,
    "⣿": 29934,
    "ー": 28990,
    "▁vida": 14364,
    "Symbol": 9996,
    "út": 24043,
    "▁attacked": 15198,
    "subset": 9501,
    "▁coins": 18683,
    "eles": 6179,
    "CodeAttribute": 23583,
    "▁contrast": 9349,
    "▁Zur": 25571,
    "cong": 25923,
    "ş": 28987,
    "": 31198,
    "hard": 8896,
    "▁download": 6726,
    "ect": 530,
    "tre": 4110,
    "ecycle": 22832,
    "언": 30856,
    "▁lessons": 14785,
    "Bo": 6681,
    "Mart": 21787,
    "▁price": 4144,
    "ateur": 10229,
    "None": 5364,
    "buf": 2596,
    "Aggreg": 21648,
    "트": 29404,
    "▁die": 1202,
    "▁reven": 15283,
    "__)": 15614,
    "▁solving": 22100,
    "▁algo": 25682,
    "mi": 3589,
    "▁'../": 13285,
    "oslav": 21734,
    "▁smaller": 7000,
    "▁cat": 5255,
    "▁AD": 10004,
    "▁$$\\": 20116,
    "errno": 17818,
    "▁ri": 3191,
    "任": 29454,
    "▁plain": 10835,
    "▁Iv": 25910,
    "luss": 25500,
    "ocket": 3955,
    "意": 29462,
    "▁dimensions": 13631,
    "chester": 11841,
    "▁communication": 8520,
    "West": 19668,
    "▁Cart": 13870,
    "gers": 7850,
    "▁diese": 16936,
    "▁encode": 20887,
    "▁scenarios": 22141,
    "▁Fish": 22784,
    "addle": 14539,
    "▁Side": 15256,
    "▁elif": 16422,
    "▁indust": 3346,
    ")(": 3847,
    "*),": 9151,
    "Multi": 10889,
    "▁обо": 17430,
    "óz": 25766,
    "}}": 975,
    "男": 30353,
    "▁Alliance": 20966,
    "로": 29143,
    "▁Obviously": 22042,
    "▁nav": 5697,
    "▁bek": 20691,
    "memset": 21253,
    "ropy": 14261,
    "пе": 3703,
    "itionally": 14586,
    "ᴏ": 31153,
    "▁das": 2846,
    "▁familiar": 8228,
    "]\r": 18766,
    "▁lines": 4715,
    "▁collection": 5442,
    "PRESS": 21060,
    "ś": 28884,
    "▁Be": 1739,
    "突": 31125,
    "や": 30696,
    "▁titolo": 21266,
    "▁abund": 15116,
    "▁spinning": 26082,
    "chrome": 21001,
    "eder": 2865,
    "UNUSED": 26731,
    "▁packets": 26443,
    "Contact": 18003,
    "프": 30212,
    "▁int": 716,
    "decl": 12114,
    "▁formerly": 26422,
    "REF": 14329,
    "▁Node": 10127,
    "ta": 1100,
    "▁thorough": 13155,
    "aille": 14286,
    "▁Titel": 23358,
    "leading": 22066,
    "▁small": 1741,
    "▁teas": 24789,
    "ender": 2341,
    "zw": 12912,
    "▁quotes": 20759,
    "Da": 27672,
    ":_": 19746,
    "earing": 12385,
    ">{": 13216,
    "▁Bon": 8500,
    "▁light": 2061,
    "▁grandes": 20892,
    "▁Night": 10357,
    "▁FM": 23586,
    "TARGET": 23187,
    "iefs": 25495,
    "taient": 21035,
    "EXP": 22136,
    "gt": 3606,
    "▁dance": 9773,
    "erase": 28295,
    "▁STR": 17235,
    "▁Christianity": 22266,
    "發": 31046,
    "▁attention": 4501,
    "▁conclusion": 12886,
    "Visitor": 24796,
    "ків": 10180,
    "▁invoke": 23071,
    "ion": 296,
    "▁joined": 7298,
    "▁teach": 3453,
    "▁Hash": 11300,
    "\\,\\": 15877,
    "▁extends": 4976,
    "SW": 9854,
    "▁artificial": 18278,
    "▁села": 28667,
    "▁jour": 3835,
    "▁Rap": 15544,
    "▁meat": 10228,
    "ovie": 12347,
    "▁puis": 12410,
    "▁nightmare": 27390,
    "排": 29720,
    "▁conven": 8818,
    "🇺": 31637,
    "岛": 31343,
    "▁которые": 24065,
    "err": 694,
    "▁fluct": 19363,
    "▁log": 2085,
    "obile": 4414,
    "acional": 7055,
    "珠": 31845,
    "Com": 1163,
    "Cluster": 10848,
    "why": 27014,
    "￼": 31491,
    "▁comedy": 18987,
    "▁prolong": 24163,
    "▁Sax": 26974,
    "乡": 29971,
    "▁El": 1744,
    "Arguments": 19024,
    "******/": 15212,
    "sburg": 24394,
    "Que": 7774,
    "▁Beck": 16596,
    "ocus": 2497,
    "iał": 10166,
    "▁AND": 5771,
    "▁voice": 3441,
    "▁helpless": 25240,
    "vement": 10894,
    "▁stove": 28479,
    "▁cooked": 22067,
    "▁fish": 8006,
    "▁membership": 14796,
    "iture": 8861,
    "isan": 18164,
    "▁того": 18150,
    "ски": 2073,
    "ボ": 30342,
    "▁Naj": 26293,
    "▁guaranteed": 17813,
    "log": 1582,
    "▁players": 5117,
    "▁wondering": 12785,
    "bery": 26666,
    "kreis": 22717,
    "▁Could": 13955,
    "▁hospital": 6556,
    "棋": 31735,
    "▁Find": 8769,
    "▁investigate": 17214,
    "▁tightly": 22374,
    "▁actors": 16760,
    "▁Jimmy": 15908,
    "▁spring": 7474,
    "七": 30733,
    "▁resolved": 15813,
    "eller": 5371,
    "ції": 11071,
    "ures": 1238,
    "▁Hamilton": 10904,
    "▁Kultur": 27929,
    "Thread": 6237,
    "Resources": 13257,
    "engine": 11358,
    "ERO": 20574,
    "кси": 12174,
    "encias": 19043,
    "▁дви": 24410,
    "▁Jones": 9383,
    "Њ": 29715,
    "▁bis": 4505,
    "toString": 7127,
    "페": 30446,
    "▁органи": 18876,
    "▁Hö": 18137,
    "▁sentence": 12271,
    "Pyx": 20585,
    "▁Ze": 4891,
    "iento": 7652,
    "▁Gi": 6622,
    "ο": 28958,
    "▁opt": 3158,
    "▁explicit": 9629,
    "▁lies": 10427,
    "gz": 23746,
    "dims": 25056,
    "画": 29696,
    "▁SUB": 24803,
    "⇽": 31853,
    "▁announced": 7004,
    "▁Бо": 8736,
    "▁Almost": 20676,
    "▁vulnerable": 17508,
    "¶": 29662,
    "Method": 3942,
    "考": 30165,
    "Copy": 8546,
    "phony": 22326,
    "▁Reed": 26244,
    "ear": 644,
    "▁ty": 13936,
    "prob": 22083,
    "ashing": 4245,
    "tto": 27099,
    "elling": 3572,
    "▁Dim": 18752,
    "бри": 20940,
    "oven": 8722,
    "▁tarde": 24562,
    "ở": 30849,
    "Sir": 25994,
    "iliation": 22758,
    "feat": 28310,
    "▁hash": 7135,
    "Ш": 28910,
    "▁nau": 26049,
    "▁movement": 6249,
    "versation": 25422,
    "PEND": 25902,
    "▁accidentally": 27630,
    "▁анг": 21639,
    "▁restored": 21617,
    "▁comport": 27492,
    "▁West": 3797,
    "▁Regiment": 23042,
    "▁__(": 25185,
    "к": 28795,
    "▁amen": 22891,
    "ビ": 30385,
    "▁electro": 22154,
    "▁Harrison": 23323,
    ")[": 10908,
    "ila": 5945,
    "▁hast": 25017,
    "oriented": 28113,
    "election": 9082,
    "DataSet": 26456,
    "ating": 1077,
    "검": 30437,
    "yd": 3389,
    "▁understood": 8988,
    "▁WM": 27704,
    ">>": 4060,
    "▁bird": 7727,
    "▁†": 12175,
    "▁Doc": 18402,
    "iciency": 9375,
    "jk": 24397,
    "▁bent": 16127,
    "asci": 25436,
    "avis": 19677,
    "vision": 9824,
    "▁Barry": 20393,
    "▁Mike": 9360,
    "atform": 3272,
    "moment": 26471,
    "ript": 6473,
    "▁movements": 15071,
    "▁вла": 13324,
    "nx": 19736,
    "▁grateful": 15131,
    "ocument": 2048,
    "▁bark": 19976,
    "дів": 25498,
    "▁auth": 7565,
    "Ref": 3680,
    "vals": 13175,
    "aned": 23336,
    "roid": 2938,
    "scribe": 11666,
    "▁plaats": 18886,
    "▁Private": 14363,
    "▁merch": 18724,
    "▁struck": 11378,
    "▁Moore": 16616,
    "▁questioned": 26812,
    "▁pattern": 5340,
    "▁downtown": 18530,
    "ata": 563,
    "Navigation": 17896,
    "▁batt": 8396,
    "istribut": 7880,
    "▁Nat": 9736,
    "PERTY": 24298,
    "▁segunda": 26374,
    "▁Kom": 9227,
    "▁poster": 12712,
    "▁various": 4118,
    "▁Ph": 1972,
    "▁server": 5116,
    "uw": 12841,
    "▁Constitution": 18620,
    "▁region": 4424,
    "▁divided": 13570,
    "ữ": 30586,
    "okes": 9486,
    "▁bo": 1359,
    "▁бли": 22228,
    "Ó": 29125,
    "▁Creates": 20518,
    "▁artist": 7325,
    "▁delivered": 11448,
    "▁Cal": 2984,
    "▁army": 7837,
    "▁mattress": 20186,
    "π": 29030,
    "馬": 30831,
    "▁diffusion": 25236,
    "бер": 10254,
    "▁Lev": 10249,
    "ves": 1855,
    "▁вели": 18755,
    "},{": 23897,
    "▁Tensor": 24716,
    "▁shopping": 11157,
    "▁providers": 14314,
    "robe": 26151,
    "note": 8838,
    "TERN": 26503,
    "window": 5147,
    "▁vice": 12465,
    "...": 1101,
    "▁me": 528,
    "}(\\": 4824,
    "▁includ": 1624,
    "ụ": 30268,
    "ṁ": 31507,
    "▁es": 1037,
    "aphor": 27041,
    "?:": 4394,
    "▁horror": 15032,
    "▁»,": 13231,
    "old": 738,
    "▁balls": 16852,
    "fon": 27544,
    "×": 28946,
    "端": 29594,
    "▁Boolean": 17110,
    "</s>": 2,
    "▁Three": 9673,
    "▁Use": 5938,
    "Ż": 29060,
    "變": 31518,
    "经": 29464,
    "ader": 4928,
    "▁For": 1263,
    "▁WITHOUT": 8292,
    "▁essential": 7974,
    "鬼": 31435,
    "စ": 31708,
    "▁incon": 17910,
    "обра": 17942,
    "med": 1591,
    "Output": 4792,
    "File": 2171,
    "▁constitu": 14769,
    "rees": 7803,
    "Leave": 26639,
    "▁ANY": 5788,
    "尚": 31291,
    "$.": 1715,
    "лён": 24731,
    "demo": 25652,
    "semble": 11820,
    "cons": 6524,
    "会": 29179,
    "nico": 24280,
    "▁rend": 6884,
    "▁latach": 20102,
    "bidden": 20350,
    "启": 29625,
    "▁crusher": 14747,
    "Element": 2357,
    "check": 2888,
    "tool": 6462,
    "≠": 30932,
    "),\r": 23486,
    "▁texts": 19337,
    "▁drawing": 10916,
    "▁vä": 15670,
    "KERNEL": 19889,
    "▁types": 4514,
    "▁applications": 8429,
    "▁host": 3434,
    "protocol": 12787,
    "▁meets": 18487,
    "▁chill": 21332,
    "▁актив": 24735,
    "GROUP": 17597,
    "weight": 7019,
    "▁define": 6600,
    "▁classification": 16776,
    "external": 18735,
    "▁ingår": 11169,
    "▁Object": 4625,
    "論": 31677,
    "Range": 6289,
    "▁whether": 3161,
    "▁sick": 7946,
    "▁ET": 27570,
    "▁Duke": 15619,
    "policy": 10970,
    "lings": 15073,
    "▁dad": 9493,
    "Ge": 5909,
    "тер": 8900,
    "▁Wright": 20416,
    "▁display": 4249,
    "wt": 13845,
    "▁infinite": 16538,
    "许": 30048,
    "▁bath": 7044,
    "aden": 7547,
    "▁lightly": 22140,
    "EMPTY": 28138,
    "▁ensures": 21091,
    "▁secre": 15038,
    "__.": 21149,
    "loor": 9527,
    "PAGE": 17711,
    "丁": 31577,
    "▁Bennett": 27789,
    "rost": 27848,
    "▁ash": 15272,
    "▁anyone": 3637,
    "▁defect": 18366,
    "раб": 24462,
    "oval": 9395,
    "▁Env": 12590,
    "▁bc": 27547,
    "▁three": 1712,
    "BACK": 12437,
    "▁trem": 11248,
    "▁Chap": 14381,
    "prom": 14350,
    "▁respond": 9421,
    "▁Smart": 17285,
    "(-": 6422,
    "▁victim": 12354,
    "▁span": 12363,
    "▁express": 4072,
    "▁EVENT": 18693,
    "cury": 25812,
    "notice": 26814,
    "iciones": 23424,
    "endet": 27522,
    "▁два": 17489,
    "▁Bel": 4583,
    "coll": 10921,
    "▁fres": 28582,
    "▁does": 1235,
    "再": 29740,
    "액": 30916,
    "▁solar": 13024,
    "▁quarter": 8249,
    "PCM": 23758,
    "лі": 3132,
    "▁blocked": 18770,
    "textwidth": 13592,
    "▁также": 12498,
    "uce": 12783,
    "🔥": 30590,
    "пор": 27593,
    "않": 30104,
    "чен": 7932,
    "selling": 24943,
    "▁slaughter": 28623,
    "▁Este": 20586,
    "onda": 13946,
    "timeout": 9761,
    "▁attorney": 15085,
    "pattern": 12392,
    "▁dawn": 16678,
    "▁aest": 20429,
    "Algorithm": 25302,
    "▁cough": 26245,
    "DUCT": 27074,
    "▁\\": 414,
    "▁trainer": 28333,
    "▁Net": 5269,
    "▁Reich": 16091,
    "He": 2428,
    "히": 31909,
    "▁crimes": 17440,
    "▁ship": 4309,
    "Function": 4901,
    "滑": 31062,
    "omega": 4848,
    "▁распо": 21168,
    "oria": 4684,
    "CODE": 8233,
    "じ": 30692,
    "▁Ru": 12562,
    "signed": 2782,
    "▁cave": 17630,
    "++){": 23385,
    "▁login": 14570,
    "▁same": 1348,
    "matic": 20095,
    "▁Nap": 11629,
    "▁gouvernement": 27125,
    "▁circulation": 27307,
    "վ": 30907,
    "笑": 31364,
    "▁és": 4275,
    "▁Along": 20211,
    "▁confidence": 9843,
    "▁était": 10559,
    "▁Sign": 9315,
    "▁poly": 12371,
    "▁Norweg": 25067,
    "▁enem": 13595,
    "▁snapshot": 20304,
    "vec": 2704,
    "▁Hus": 22351,
    "atri": 28326,
    "▁функ": 28668,
    "▁threw": 11915,
    "Bul": 18775,
    "uffy": 23892,
    "lagen": 21463,
    "▁going": 1404,
    "ogue": 25245,
    "▁searched": 22671,
    "▁Verm": 19191,
    "шего": 26459,
    "▁Food": 11435,
    "Options": 4018,
    "▁år": 19430,
    "▁WP": 26764,
    "▁Stanley": 19805,
    "▁Harr": 11172,
    "!!": 3946,
    "PY": 11519,
    "reddit": 14254,
    "▁park": 4890,
    "];\r": 14420,
    "iggers": 21102,
    "박": 31545,
    "▁wrong": 3544,
    "Rot": 13722,
    "▁explains": 15157,
    "uerto": 15964,
    "encer": 16233,
    "▁steep": 19267,
    "StatusCode": 19809,
    "▁Lieutenant": 18510,
    "▁Korea": 13544,
    "▁literature": 11354,
    "♯": 30905,
    "ço": 15309,
    "stances": 8732,
    "▁cache": 7532,
    "▁periods": 15772,
    "מ": 29112,
    "與": 31138,
    "▁senior": 9362,
    "async": 10869,
    "Phone": 11181,
    "록": 29832,
    "假": 30826,
    "Uri": 13530,
    "▁titled": 21508,
    "yaml": 26121,
    "▁extremely": 7625,
    "▁guidelines": 18392,
    "▁Call": 5529,
    "▁Company": 6452,
    "▁Jews": 12495,
    "Jack": 26803,
    "CM": 15155,
    "▁Süd": 21449,
    "▁Bil": 24012,
    "SRC": 27145,
    "▁temporarily": 25359,
    "▁bands": 15608,
    "ippet": 27583,
    "▁hug": 13620,
    "▁Claude": 26836,
    "▁не": 2409,
    "▁Brook": 12148,
    "dirty": 23724,
    "igten": 27598,
    "▁humor": 17276,
    "義": 30673,
    "▁num": 2075,
    "рії": 25474,
    "▁футбо": 20513,
    "uded": 7961,
    "parse": 5071,
    "xff": 5600,
    "ков": 5669,
    "▁pagina": 24771,
    "ething": 1446,
    "éta": 25545,
    "▁Bir": 21562,
    "<0xD5>": 216,
    "ning": 971,
    "▁emotions": 13855,
    "▁yes": 5081,
    "▁Nelson": 18685,
    "治": 30137,
    "istro": 24307,
    "▁р": 13318,
    "▁append": 10308,
    "割": 31105,
    "ATION": 4866,
    "▁Juli": 17570,
    "▁veh": 5639,
    "Extract": 24958,
    "▁duplicate": 27071,
    "incl": 1505,
    "Person": 14787,
    "placeholder": 24553,
    "perp": 21280,
    "alous": 14990,
    "▁phil": 6862,
    "plan": 11009,
    "ép": 13901,
    "ocy": 26720,
    "▁failures": 25394,
    "▁Dist": 12443,
    "bbra": 25866,
    "▁rep": 1558,
    "MAX": 5578,
    "▁Wayne": 21433,
    "ỏ": 31233,
    "Two": 13849,
    "▁▁▁": 2287,
    "▁Frau": 27993,
    "▁reduce": 7643,
    "<0x7F>": 130,
    "▁flush": 19329,
    "▁armor": 21729,
    "어": 29433,
    "decess": 24915,
    "($_": 14076,
    "DEF": 11550,
    "arl": 1977,
    "▁camera": 7555,
    "serde": 19554,
    "eze": 19961,
    "▁ek": 21730,
    "Sch": 9979,
    "Flags": 7651,
    "▁National": 3610,
    "▁acceptance": 19871,
    "otta": 21839,
    "▁angles": 22289,
    "<0x78>": 123,
    "rah": 21174,
    "▁employees": 7896,
    "▁covers": 12784,
    "卡": 29810,
    "settings": 6465,
    "▁favorite": 6656,
    "▁Bis": 23764,
    "▁comed": 26677,
    "React": 18096,
    "▁Museum": 8770,
    "▁cooking": 13198,
    "------------": 9762,
    "▁blink": 16759,
    "cli": 18008,
    "▁mold": 20880,
    "ء": 30052,
    "▁Rio": 15707,
    "agine": 16816,
    ">\",": 20018,
    "ity": 472,
    "WORK": 17427,
    "▁associ": 3509,
    "▁ordinary": 13207,
    "▁island": 8919,
    "▁balanced": 19971,
    "▁Julian": 23566,
    "▁kol": 21772,
    "ivas": 25268,
    "ಿ": 30762,
    "▁managers": 17490,
    "]<": 14626,
    "Encode": 22806,
    "<0xF9>": 252,
    "Sprite": 22473,
    "▁comprend": 23913,
    "cod": 19114,
    "▁supplier": 25877,
    "▁IV": 9073,
    "▁withd": 23055,
    "~": 28845,
    "⠀": 29489,
    "otal": 5834,
    "Fill": 16946,
    "://": 1508,
    "▁Back": 6795,
    "虚": 31415,
    "ක": 31910,
    "▁seek": 5695,
    "▁frame": 4108,
    "▁coefficient": 23982,
    "▁fair": 4968,
    "ora": 3428,
    "▁identify": 9051,
    "▁meditation": 23976,
    "▁lust": 28249,
    "ingle": 5810,
    "군": 31672,
    "▁został": 11686,
    "▁CHECK": 9128,
    "▁alleg": 10150,
    "Language": 13843,
    "<0xC8>": 203,
    "▁plot": 9242,
    "特": 29631,
    "inction": 15012,
    "▁its": 871,
    "ucked": 15636,
    "▁viol": 4107,
    "Organ": 21830,
    "▁history": 3340,
    "滤": 30489,
    "▁nombre": 8581,
    "acts": 9664,
    "▁understand": 2380,
    "ar": 283,
    "igung": 19089,
    "▁ya": 10129,
    "шта": 26960,
    "XXXX": 26550,
    "atte": 24054,
    "bi": 6309,
    "lb": 16934,
    "browser": 13612,
    "▁belie": 1989,
    "▁recovery": 12106,
    "С": 28844,
    "▁somewhat": 10963,
    "▁kilomet": 22118,
    "▁giant": 12351,
    "SPACE": 18893,
    "▁glad": 8200,
    "pick": 22685,
    "▁declare": 13242,
    "▁parked": 23643,
    "▁told": 2240,
    "▁benef": 3749,
    "▁millions": 11076,
    "▁guarante": 7953,
    "₹": 29652,
    "uba": 19555,
    "eton": 21064,
    "▁неско": 24503,
    "lessness": 28015,
    "准": 30168,
    "▁Expect": 28468,
    "вания": 22588,
    "▁свои": 25589,
    "Parameter": 6038,
    "builtin": 24916,
    "aws": 6195,
    "ER": 725,
    "Registration": 25569,
    "cache": 5319,
    "▁Cloud": 13832,
    "征": 30977,
    "connector": 23995,
    "ky": 4845,
    "ulin": 24726,
    "應": 31508,
    "▁Islamic": 18918,
    "дии": 24844,
    "eah": 4629,
    "='": 2731,
    "▁total": 3102,
    "IMAGE": 24947,
    "Draw": 5656,
    "容": 29329,
    "aces": 2089,
    "▁York": 2726,
    "Fixed": 16126,
    "▁seated": 24732,
    "Link": 5119,
    "▁дере": 15902,
    "秘": 31544,
    "Amount": 13276,
    "TON": 17517,
    "лом": 14253,
    "▁поль": 27904,
    "▁n": 307,
    "Direction": 14757,
    "▁templates": 24906,
    "▁approximately": 10870,
    "▁Sim": 3563,
    "▁kil": 8302,
    "▁enjoying": 16269,
    "Functions": 23072,
    "▁child": 1502,
    "ible": 1070,
    "DT": 13203,
    "▁physician": 21765,
    "▁tank": 11459,
    "▁Poland": 17812,
    "host": 3404,
    "ise": 864,
    "<0x5C>": 95,
    "▁creature": 15287,
    "elseif": 27636,
    "inc": 1814,
    "rought": 3928,
    "▁Convention": 23717,
    "宣": 31587,
    "dr": 2922,
    "▁су": 5652,
    "Runtime": 8408,
    "▁ав": 8664,
    "▁semi": 12574,
    "▁mechanism": 14175,
    "▁Did": 7164,
    "▁já": 24774,
    "步": 29783,
    "▁strat": 27857,
    "▁compare": 9584,
    "▁concert": 14560,
    "峰": 31352,
    "bt": 2695,
    ")\");": 18490,
    "▁fortune": 19808,
    "STOP": 26599,
    "subscription": 20054,
    "▁станов": 16141,
    "Hint": 18175,
    "onen": 25893,
    "While": 23475,
    "▁glimpse": 26754,
    "igo": 9567,
    "shell": 21678,
    "▁Sn": 10881,
    "₱": 31535,
    "▁Het": 10172,
    "▁Fil": 4059,
    "LIB": 26604,
    "ensuremath": 9104,
    "Ops": 24172,
    "kes": 10774,
    "▁birthday": 12892,
    "▁eing": 13262,
    "Sym": 17065,
    "▁ví": 22906,
    "▁Andre": 17905,
    "▁Julia": 19526,
    "▁Mo": 6885,
    "抽": 30885,
    "adio": 24745,
    "▁near": 3065,
    "▁goals": 7661,
    "▁Guard": 12391,
    "從": 31517,
    "▁dys": 20840,
    "▁Both": 7829,
    "▁rece": 2080,
    "▁neu": 21194,
    "лення": 10507,
    "гда": 13872,
    "▁singles": 16975,
    "▁её": 19487,
    "▁facil": 13031,
    "▁designing": 26989,
    "▁Hill": 7442,
    "▁time": 727,
    "SESSION": 15373,
    "omic": 7412,
    "Water": 27133,
    "▁steam": 15291,
    "іль": 7361,
    "acl": 21899,
    "Paul": 22241,
    "well": 5458,
    "▁př": 6910,
    "WN": 7866,
    "▁Put": 10331,
    "тва": 22868,
    "▁_.": 17309,
    "scribed": 27676,
    "▁visit": 3251,
    "})\\": 11972,
    "Life": 21329,
    "▁Park": 4120,
    "▁curios": 19489,
    "평": 31523,
    "ズ": 30238,
    "Ō": 29417,
    "hent": 5577,
    "▁Luck": 22781,
    "Dictionary": 17798,
    "sidebar": 27669,
    "▁ist": 3103,
    "handler": 8762,
    "▁vie": 11198,
    "▁Cho": 25405,
    "emente": 16475,
    "ERCHANTABILITY": 13078,
    "ह": 29972,
    "▁prob": 2347,
    "▁growth": 6057,
    "见": 30237,
    "fi": 7971,
    "▁Adv": 10822,
    "mod": 1398,
    "eenth": 23124,
    "argin": 6009,
    "esser": 25711,
    "▁wx": 14830,
    "▁{\"": 9830,
    "▁material": 3388,
    "condition": 12058,
    "▁ді": 15754,
    "aland": 11243,
    "▁communicate": 16287,
    "▁oper": 1764,
    "TH": 3151,
    "▁forth": 9853,
    "▁Pod": 11928,
    "Short": 13026,
    "▁apare": 19931,
    "該": 31688,
    "Asp": 12580,
    "▁roman": 18041,
    "▁Ax": 24749,
    "▁should": 1023,
    "des": 2279,
    "で": 29230,
    "dy": 4689,
    "▁Commun": 5795,
    "RESULT": 15132,
    "▁https": 4449,
    "GetString": 26331,
    "▁led": 4163,
    "Name": 952,
    "ене": 8977,
    "ests": 5946,
    "ู": 29976,
    "pragma": 20812,
    "ғ": 31023,
    "▁te": 711,
    "▁needs": 3208,
    "▁wh": 388,
    "ebug": 5986,
    "▁diplom": 13527,
    "IP": 2665,
    "raj": 15694,
    "▁Brow": 19332,
    "▁imprison": 23711,
    "▁Training": 15394,
    "▁deadly": 23950,
    "▁Covid": 27461,
    "say": 21205,
    "<0x70>": 115,
    "▁kan": 10353,
    "Sur": 11616,
    "▁charge": 5685,
    "Col": 1577,
    "▁grabbed": 13300,
    "fixed": 15145,
    "geon": 14535,
    "▁Shakespeare": 19155,
    "Ő": 30265,
    "객": 30411,
    "ု": 30987,
    "승": 31673,
    "▁Fif": 16296,
    "▁hass": 27017,
    "UND": 10933,
    "▁let": 1346,
    "ipe": 3985,
    "▁argc": 24905,
    "▁реки": 27935,
    "лів": 23279,
    "Ж": 28942,
    "ite": 570,
    "roc": 11697,
    "▁ci": 7366,
    "▁weit": 17642,
    "rob": 18443,
    "||": 9173,
    "head": 1811,
    "AIN": 18059,
    "药": 31793,
    "▁swim": 10923,
    "pur": 14692,
    "▁Исто": 19702,
    "▁appreciated": 22359,
    "}&": 22601,
    "ograp": 11879,
    "Why": 7638,
    "dst": 8529,
    "▁provinc": 12605,
    "周": 29874,
    "▁crystal": 20710,
    "neg": 12415,
    "株": 31724,
    "ilities": 3780,
    "burg": 5467,
    "▁couldn": 3481,
    "▁receiver": 15720,
    "atoes": 14888,
    "▁explicitly": 15956,
    "▁clin": 8837,
    "▁senses": 23086,
    "▁replace": 9013,
    "▁dio": 22168,
    "▁suppress": 22555,
    "▁provoc": 27249,
    "FilePath": 22367,
    "fem": 26857,
    "itempty": 15500,
    "赤": 31398,
    "border": 11941,
    "Value": 1462,
    "▁ye": 14764,
    "▁фа": 12775,
    "▁mobile": 7578,
    "~\\": 2658,
    "▁open": 1565,
    "兴": 30961,
    "zu": 13581,
    "▁symbols": 16212,
    "▁Tes": 25687,
    "缩": 30250,
    "▁nej": 25699,
    "gar": 4749,
    "▁completion": 15151,
    "▁flew": 16356,
    "▁shout": 11428,
    "▁genom": 25567,
    "▁reck": 20088,
    "ходя": 21647,
    "▁Nach": 7496,
    "▁Poor": 27970,
    "▁peaks": 28672,
    "▁Sa": 7506,
    "ffff": 10756,
    "▁guest": 11683,
    "ovi": 17694,
    "실": 29991,
    "▁Joseph": 8218,
    "▁optional": 11284,
    "▁implies": 12150,
    "acular": 19277,
    "▁Si": 8693,
    "чний": 24016,
    "innings": 21543,
    "igent": 21531,
    "ropri": 6401,
    "▁sweep": 27274,
    "逆": 31770,
    "▁mån": 24481,
    "▁tired": 10272,
    "▁derivative": 25355,
    "▁seem": 1709,
    "Start": 4130,
    "Stmt": 20471,
    "▁Within": 15621,
    "▁Bibli": 19380,
    "▁Roth": 23134,
    "▁carriage": 26669,
    "Our": 15265,
    "alle": 4504,
    "▁Em": 2929,
    "▁autom": 4607,
    "▁Decl": 19066,
    ")},": 14810,
    "▁Ver": 2927,
    "春": 30643,
    "Pen": 26950,
    "child": 4657,
    "ede": 6497,
    "води": 14807,
    "Condition": 12862,
    "MAG": 16271,
    "▁paste": 26043,
    "bucket": 19599,
    "▁ven": 6780,
    "▁fusion": 22104,
    "Curve": 27777,
    "▁exhausted": 20890,
    "▁Gu": 2480,
    "simeq": 21961,
    "alia": 15450,
    "▁kitchen": 6132,
    "scroll": 10334,
    "ція": 17263,
    "swing": 11064,
    "▁ab": 534,
    "acking": 21593,
    "Mont": 27654,
    "▁Grow": 18456,
    "▁ub": 16179,
    "timestamp": 15058,
    "(_": 4831,
    "Prote": 22543,
    "RET": 12388,
    "Associ": 21515,
    "随": 30179,
    "unknown": 16047,
    "▁vý": 15173,
    "▁СССР": 20769,
    "▁bild": 22052,
    "rotate": 26139,
    "▁cinq": 28300,
    "▁dess": 9625,
    "▁Kr": 7787,
    "▁pip": 25416,
    "▁broader": 25941,
    "(": 28732,
    "▁organiz": 6443,
    "▁meeting": 5283,
    "record": 9724,
    "without": 20795,
    "▁Perfect": 24443,
    "▁Hook": 26154,
    "▁clicked": 26399,
    "▁première": 14102,
    "▁stranger": 19625,
    "▁discussions": 18382,
    "▁eliminate": 20545,
    "ngth": 24575,
    "<0x41>": 68,
    "lete": 2041,
    "▁mentioned": 7083,
    "▁reaching": 13323,
    "▁arrog": 28327,
    "،": 30124,
    "▁след": 25091,
    "▁denoted": 28176,
    "ho": 2124,
    "▁Area": 14488,
    "余": 30248,
    "▁Knight": 21228,
    "вши": 10697,
    "▁brit": 11825,
    "▁Fox": 12407,
    "▁hosp": 17688,
    "▁participation": 17002,
    "▁waves": 13295,
    "▁Си": 12430,
    "hen": 540,
    "items": 6949,
    "NI": 16457,
    "can": 4230,
    "VICE": 17762,
    "▁resp": 10840,
    "▁sometime": 28088,
    "▁keys": 8148,
    "▄": 30213,
    "チ": 29973,
    "▁stretch": 14742,
    "▁Jack": 4299,
    "▁appearance": 9293,
    "▁modeling": 27472,
    "▁prov": 1130,
    "▁band": 4028,
    "▁Hud": 20247,
    "tax": 16019,
    "ël": 25879,
    "▁font": 6205,
    "]{\\": 23854,
    "▁hole": 9697,
    "▁Gil": 12416,
    "peonato": 19687,
    "▁sour": 18193,
    "▁tc": 23686,
    "ulus": 16894,
    "▁тру": 26235,
    "zeug": 19152,
    "▁Cong": 6201,
    "▁März": 18035,
    "▁likes": 12672,
    "▁Equip": 18141,
    "▁disg": 18026,
    "相": 29367,
    "則": 31919,
    "Without": 21469,
    "▁Chelsea": 27106,
    "说": 29616,
    "===": 14203,
    "Height": 5814,
    "▁faded": 23716,
    "▁dispute": 22299,
    "▁net": 2512,
    "▁deaths": 16242,
    "体": 29337,
    "▁secondary": 13461,
    "▁google": 15682,
    "▁Exchange": 21162,
    "▁entrance": 12675,
    "izers": 17916,
    "▁legislation": 16837,
    "RS": 11306,
    "▁mét": 21065,
    "һ": 31141,
    ")>": 27364,
    "▁Appro": 20047,
    "nown": 3676,
    "ctrl": 8022,
    "liga": 15314,
    "▁video": 3798,
    "Attr": 9049,
    "ций": 22940,
    "▁breath": 5276,
    "▁czę": 22375,
    "▁taste": 9230,
    "tain": 12092,
    "__[\"": 25053,
    "Information": 16257,
    "Modifier": 25266,
    "Spring": 24314,
    "гу": 5378,
    "▁software": 3930,
    "\")]": 6564,
    "▁manager": 7056,
    "built": 12747,
    "▁varies": 27950,
    "▁Master": 9361,
    "▁accordance": 20147,
    "▁understands": 27422,
    "偏": 30719,
    "<0x2F>": 50,
    "▁Se": 1091,
    "▁convenient": 13767,
    "ности": 8849,
    "忽": 31312,
    "crate": 18298,
    "UID": 8446,
    "▁steady": 14889,
    "ῖ": 30886,
    "午": 30296,
    "iches": 25809,
    "Center": 15917,
    "▁Danny": 18709,
    "▁illness": 13214,
    "▁training": 4154,
    "▁canal": 21586,
    "Des": 2715,
    "▁Kas": 22965,
    "累": 31719,
    "scape": 8951,
    "▁programming": 16292,
    "▁donde": 12943,
    "▁management": 5411,
    "Cond": 8822,
    "plicity": 18494,
    "ológ": 23552,
    "▁rodz": 27895,
    "碼": 30946,
    "另": 31127,
    "FREE": 28137,
    "▁commun": 1960,
    "anche": 14455,
    "▁towns": 17579,
    "▁frequently": 11220,
    "▁relief": 10853,
    "路": 29361,
    "▁momento": 19131,
    "▁massage": 20473,
    "<0xFF>": 258,
    "▁occurred": 9894,
    "itudes": 15787,
    "隊": 31534,
    "inging": 24831,
    "=\"<?": 16294,
    "▁///": 1954,
    "IOException": 15211,
    "Vi": 27147,
    "container": 6734,
    "▁short": 2485,
    "▁Y": 627,
    "Th": 1227,
    "Mapping": 10643,
    "▁klikken": 15708,
    "▁lég": 19416,
    "▁zunächst": 26477,
    "▁Vis": 6908,
    "vis": 3225,
    "▁Frank": 4790,
    "▁ade": 14921,
    "▁olive": 24403,
    "▁Christian": 5899,
    "_)": 14479,
    "MBOL": 16532,
    "lot": 22682,
    "▁sandwich": 28267,
    "▁statt": 25183,
    "\\}": 18800,
    "awi": 28498,
    "ien": 1375,
    "сте": 6825,
    "kwargs": 12570,
    "zas": 26613,
    "oi": 3950,
    "▁workers": 7433,
    "▁pig": 18958,
    "ˈ": 29097,
    "▁peaceful": 21229,
    "winning": 24082,
    ".',": 13007,
    "▁consistent": 10652,
    "ekt": 10906,
    "isions": 5662,
    "hdr": 10499,
    "山": 29480,
    "▁Vien": 21136,
    "▁arrow": 18623,
    "▁surge": 24048,
    "љу": 19743,
    "▁breathe": 20445,
    "▁disorder": 17404,
    "C": 28743,
    "disable": 9613,
    "sp": 886,
    "▁рус": 24379,
    "▁tendency": 24516,
    "하": 29136,
    "Visibility": 19499,
    "äger": 26252,
    "▁Wo": 20093,
    "▁Bat": 13003,
    "▁function": 908,
    "▁summer": 5561,
    "(\"/": 9933,
    "▁Output": 15985,
    "▁для": 6286,
    "д": 28799,
    "▁washing": 20391,
    "atalog": 5847,
    "ropol": 13339,
    "][<": 20411,
    "ры": 4092,
    "tau": 4288,
    "▁лі": 15299,
    "▁sel": 7530,
    "Car": 11799,
    "щи": 4522,
    "ов": 14592,
    "▁diab": 17571,
    "équ": 14177,
    "diag": 26551,
    "▁FIT": 12630,
    "▁adventure": 15982,
    "__);": 13928,
    "named": 18561,
    "Warning": 16185,
    "arp": 5882,
    "umi": 12965,
    "▁noten": 13358,
    "丢": 31883,
    "▁absolut": 5101,
    "lle": 20703,
    "▁promot": 18022,
    "▁shar": 18370,
    "▁medications": 28050,
    "ida": 2331,
    "uvo": 25075,
    "▁%": 1239,
    "▁Steph": 27316,
    "Comparison": 27869,
    "▁sle": 7767,
    "NORMAL": 27499,
    "オ": 29866,
    "▁dam": 3207,
    "😂": 29196,
    "Permissions": 24338,
    "够": 31194,
    "ỉ": 30714,
    "▁Aaron": 20486,
    "▁▁▁▁▁▁▁▁▁▁▁": 17422,
    "▁guided": 23701,
    "▁schon": 26980,
    "haps": 3662,
    "ieden": 20664,
    "ats": 1449,
    "▁congress": 22692,
    "▁socket": 13889,
    "<0x95>": 152,
    "▁Gill": 24704,
    "▁guessed": 26415,
    "▁Som": 7068,
    "▁égal": 12951,
    "▁escaped": 18944,
    "VF": 27219,
    "ited": 1345,
    "quate": 16780,
    "▁darkness": 11691,
    "▁candidate": 10169,
    "▁citiz": 7963,
    "classList": 24253,
    "▁foreign": 7223,
    "unic": 11961,
    "Ag": 13859,
    "焦": 31123,
    "▁▁": 259,
    "▁af": 3833,
    "▁developments": 22310,
    "▁Klein": 26526,
    "di": 5605,
    "arn": 1331,
    "네": 30959,
    "▁capital": 5565,
    "▁politics": 9800,
    "▁title": 3941,
    "▁stock": 5756,
    "raising": 27941,
    "et": 299,
    "Ко": 24037,
    "framework": 6970,
    "enta": 11849,
    "▁EC": 21405,
    "oss": 2158,
    "▁beta": 21559,
    "literal": 25853,
    "cut": 7886,
    "ا": 28915,
    "oding": 5195,
    "▁polic": 7498,
    "etics": 24142,
    "Dan": 25314,
    "UAL": 14821,
    "▁modules": 15901,
    "quire": 18948,
    "▁meer": 24691,
    "▁Ende": 17166,
    "▁Args": 24997,
    "Have": 12341,
    "aste": 4635,
    "ží": 25991,
    "****************": 1393,
    "▁ton": 6339,
    "▁llam": 17620,
    "卫": 31872,
    "▁scheduled": 13873,
    "▁обра": 11061,
    "<0x54>": 87,
    "predict": 23077,
    "anden": 17081,
    "▁solutions": 7151,
    "rov": 11620,
    "surface": 20942,
    "▁По": 3787,
    "▁bubble": 21424,
    "▁ur": 4273,
    "strings": 16156,
    "▁Pul": 26134,
    "▁nowhere": 16877,
    "LIN": 27247,
    "▁layers": 13083,
    "Ł": 29042,
    "▁passes": 15167,
    "以": 29074,
    "▁at": 438,
    "WAR": 9272,
    "<0x40>": 67,
    "anded": 14866,
    "▁frequ": 5059,
    "▁largest": 7639,
    "▁Premier": 16103,
    "дова": 11346,
    "▁coat": 12620,
    "▁Women": 8206,
    "▁package": 3660,
    "▁disappointed": 18913,
    "▁Franco": 28289,
    "▁tune": 21337,
    "▁Pro": 1133,
    "▁находи": 20772,
    "лли": 22623,
    "Mem": 5768,
    "oline": 20252,
    "uego": 14734,
    "▁monitoring": 16882,
    "▁het": 3010,
    "▁des": 634,
    "emos": 24852,
    "Acc": 5604,
    "▁lod": 19506,
    "▁Method": 10011,
    "▁comes": 3435,
    "▁Nas": 22012,
    "▁zone": 8860,
    "ola": 4362,
    "▁shield": 15422,
    "▁trip": 6596,
    "OG": 21112,
    "riterion": 23218,
    "▁cope": 27626,
    "浮": 31171,
    "*;": 13732,
    "▁zak": 24473,
    "aper": 2610,
    "▁Mig": 17037,
    "amazon": 15041,
    "▁році": 13554,
    "phere": 8800,
    "ographic": 12293,
    "Dev": 4991,
    "▁preced": 11405,
    "▁pac": 21632,
    "ima": 4250,
    "ví": 16590,
    "▁Pars": 25281,
    "▁export": 3223,
    "mul": 18176,
    "}{": 1400,
    "▁Opp": 22396,
    "UINT": 13215,
    "ili": 2689,
    "鼠": 31106,
    "odi": 16267,
    "aña": 15568,
    "zm": 22432,
    "bil": 26702,
    "ố": 29741,
    "Observer": 18085,
    "COUNT": 14167,
    "▁pseud": 22787,
    "▁caract": 21825,
    "▁cinema": 22905,
    "▁Abraham": 22384,
    "▁Bey": 16015,
    "▁Soc": 4234,
    "參": 31799,
    "abor": 3226,
    "<0x26>": 41,
    "itional": 2582,
    "▁Ed": 2690,
    "▁neut": 8950,
    "lee": 12553,
    "▁gover": 2116,
    "▁eyebrows": 27469,
    "▁Year": 7601,
    "▁Similarly": 19190,
    "em": 366,
    "▁course": 2363,
    "▁increased": 7483,
    "ialize": 4448,
    "ส": 29524,
    "▁dust": 9188,
    "ön": 5438,
    "▁Martin": 7204,
    "ící": 23098,
    "arettes": 27015,
    "▁disable": 11522,
    "甘": 31687,
    "▁patient": 7749,
    "▁boring": 19757,
    "▁Carr": 27639,
    "▁underneath": 21901,
    "xffff": 28638,
    "ises": 3900,
    "▁resolve": 11024,
    "▁countr": 24526,
    "aim": 2371,
    "anne": 13002,
    "▁jud": 4612,
    "<0x11>": 20,
    "▁market": 2668,
    "Object": 1713,
    "▁Analysis": 19442,
    "rule": 7937,
    "傳": 31036,
    "mouth": 20123,
    "▁exterior": 21560,
    "暗": 31096,
    "▁reset": 9627,
    "▁blob": 25828,
    "=\"-": 23013,
    "стратив": 21636,
    "▁locate": 22920,
    "▁aggregate": 25273,
    "Each": 9179,
    "▁arrival": 13758,
    "▁barg": 22077,
    "ighth": 16190,
    "▁effort": 4261,
    "▁tons": 15995,
    "▁mouth": 5108,
    "Resize": 27714,
    "▁ese": 20423,
    "愛": 30678,
    "getContext": 26947,
    "\"].": 15254,
    "▁in": 297,
    "PCI": 24271,
    "need": 14464,
    "brid": 14519,
    "▁execute": 12083,
    "USER": 11123,
    "▁Kont": 28631,
    "Tuple": 19481,
    "▁milk": 10992,
    "▁visible": 9141,
    "▁recalled": 16831,
    "▁item": 2515,
    "Anchor": 21792,
    "ages": 1291,
    "▁cm": 8372,
    "емы": 21663,
    "▁theorem": 16980,
    "antry": 23379,
    "▁част": 20035,
    "▁ever": 2270,
    "▁Tip": 22420,
    "Bon": 28244,
    "▁fixing": 28341,
    "have": 15378,
    "▁delete": 6500,
    "hat": 3617,
    "]);": 3759,
    "Ψ": 31374,
    "▁greeted": 27473,
    "▁Krist": 16661,
    "▁Then": 2479,
    "樂": 31918,
    "금": 30331,
    "pages": 9929,
    "▁explo": 12573,
    "▁Carter": 17326,
    "▁який": 25140,
    "<0xF6>": 249,
    "encoded": 27208,
    "목": 30222,
    "Rev": 11165,
    "mother": 13710,
    "▁dos": 4882,
    "rivial": 14805,
    "▁вклю": 19291,
    "indices": 20390,
    "ေ": 31152,
    "▁FA": 13353,
    "▁Screen": 24432,
    "▁sa": 637,
    "▁speech": 8666,
    "▁remembered": 10216,
    "▁Squadron": 27081,
    "ítulo": 18440,
    "▁Remember": 13399,
    "▁Chuck": 27599,
    "▁Ve": 13343,
    "▁Scot": 10735,
    "▁Leb": 13304,
    "▁req": 7275,
    "<0xBE>": 193,
    "₄": 31598,
    "dynamic": 18691,
    "based": 5527,
    "bd": 8492,
    "egu": 20771,
    "▁Wilhelm": 19328,
    "▁roles": 12426,
    "▁demands": 15047,
    "collection": 15432,
    "orse": 14202,
    "▁somet": 4378,
    "▁adj": 11433,
    "Comput": 21293,
    "​": 28935,
    "▁described": 5397,
    "▁toile": 15567,
    "▁bullshit": 20210,
    "fee": 26652,
    "▁Cec": 22022,
    ".^{[": 22803,
    "eben": 8960,
    "\u001b": 30246,
    "▁Text": 7379,
    "шо": 9334,
    "system": 6574,
    "irl": 2156,
    "▁Enable": 22177,
    "▁vars": 27981,
    "▁Diff": 28450,
    "户": 29106,
    "▁quando": 15440,
    "▁season": 3302,
    "riors": 18152,
    "\\\\": 2214,
    "果": 29098,
    "登": 29510,
    "вен": 16227,
    "ueblo": 27393,
    "Download": 20454,
    "▁unable": 9638,
    "ź": 28957,
    "攻": 30666,
    "▁libraries": 24133,
    "▁tremendous": 23943,
    "Cast": 13502,
    "OST": 21052,
    "▁hours": 3316,
    "мат": 23918,
    "redirect": 19123,
    "inputs": 17502,
    "▁attra": 22346,
    "▁При": 11824,
    "Б": 28861,
    "▁Raj": 16818,
    "▁traffic": 8475,
    "̌": 31891,
    "▁percent": 4153,
    "▁Peters": 17658,
    "▁Budd": 13772,
    "▁enum": 10873,
    "▁lighting": 15912,
    "onces": 22947,
    "▁mistaken": 26236,
    "▁Like": 5410,
    "▁./": 17449,
    "ќ": 30904,
    "▁wider": 17525,
    "▁bl": 843,
    "▁Ле": 12572,
    "pp": 587,
    "▁ministry": 23470,
    "▁who": 693,
    "ล": 29394,
    "▁coaches": 25360,
    "зі": 13566,
    "leted": 5627,
    "vl": 12275,
    "年": 29356,
    "oped": 11416,
    "сен": 19709,
    "▁cock": 12408,
    "▁burning": 13136,
    "▁Authors": 23088,
    "▁older": 6402,
    "▁Acc": 4035,
    "arch": 1161,
    "▁baking": 22411,
    "桃": 31750,
    "▁Dream": 14031,
    "ami": 6449,
    "▁dup": 22669,
    "▁OK": 12206,
    "ographical": 21623,
    "olver": 8867,
    "▁connected": 7391,
    "▁corre": 7952,
    "builder": 10151,
    "Move": 10263,
    "bury": 12272,
    "▁Nevertheless": 18828,
    "▁slope": 20912,
    ".}": 8089,
    "SOURCE": 17426,
    "Axis": 16272,
    "▁UP": 23128,
    "渡": 31512,
    ">(\"": 10622,
    "alse": 1048,
    "▁Spain": 12567,
    "▁star": 4580,
    "aceae": 19789,
    "剩": 31120,
    "Ə": 31557,
    "▁Theory": 27211,
    "ln": 4778,
    "ყ": 31287,
    "▁cel": 9645,
    "▁Eye": 26861,
    "estic": 9546,
    "夏": 30910,
    "нее": 21083,
    "▁Before": 7337,
    "▁rising": 11862,
    "develop": 16239,
    "め": 30110,
    "icago": 7707,
    "eland": 13942,
    "equation": 2160,
    "▁kl": 7466,
    "▁ferm": 17310,
    "ថ": 31933,
    "long": 4353,
    "▁teams": 6941,
    "▁cuts": 15981,
    "▁idle": 25282,
    "▁din": 6766,
    "▁Pacific": 12515,
    "til": 2167,
    "權": 31923,
    "▁transc": 24330,
    "logger": 11279,
    "controls": 23664,
    "ientos": 19883,
    "quis": 11225,
    "▁jusqu": 14850,
    "ST": 920,
    "▁appearances": 21190,
    "토": 30776,
    "▁agriculture": 24843,
    "▁choosing": 14517,
    "▁genuine": 16968,
    "▁Sak": 24586,
    "恋": 31472,
    "[_": 24655,
    "eds": 5947,
    "respon": 3664,
    "▁Small": 12827,
    "toggle": 13615,
    "aping": 13887,
    "▁folder": 14249,
    "▁пере": 4978,
    "EAR": 25557,
    "TextView": 26554,
    "threshold": 21286,
    "▁Glasgow": 27402,
    "吃": 31182,
    "Mult": 7180,
    "iated": 27267,
    "▁alc": 15207,
    "▁buy": 3848,
    "▁Houston": 16904,
    "hon": 21133,
    "▁backpack": 28217,
    "\r": 28801,
    "mesh": 18372,
    "PS": 5412,
    "▁Liver": 18432,
    "oda": 10769,
    "oms": 5185,
    "Def": 2469,
    "▁door": 2251,
    "cpu": 5361,
    "▁sil": 2958,
    "Conne": 4523,
    "▁einer": 5984,
    "▁rate": 4338,
    "▁marginal": 25286,
    "do": 2432,
    "MAC": 13037,
    "▁Dopo": 28170,
    "kers": 21003,
    "▁den": 1457,
    "▁Division": 8618,
    "tom": 28154,
    "▁Greek": 11715,
    "zing": 14508,
    "basic": 18681,
    "t": 28707,
    "ad": 316,
    "UEST": 12171,
    "ills": 2767,
    "▁Overall": 21013,
    "▁sale": 7796,
    "ponent": 2462,
    "este": 7939,
    "▁пода": 21152,
    "▁toast": 26312,
    "▁Hoch": 19202,
    "☆": 29839,
    "▁Vere": 15088,
    "ELL": 25035,
    "ners": 5949,
    "▁ти": 11002,
    "▁Commercial": 24551,
    "ancy": 5403,
    ";&": 11043,
    "▁Prior": 20844,
    "icity": 25130,
    "icion": 26357,
    "▁grinding": 23847,
    "▁бри": 23145,
    "▁Merc": 27934,
    "▁bull": 10386,
    "riter": 4178,
    ":*": 15563,
    "习": 30978,
    "▁metrics": 17001,
    "▁coach": 7786,
    "▁це": 13536,
    "▁Bou": 14574,
    "▁secretary": 16916,
    "awk": 22527,
    "▁habits": 19305,
    "▁Feb": 18198,
    "ි": 31355,
    "▁Ap": 4002,
    "▁(@": 23968,
    "END": 5000,
    "▁Facebook": 8488,
    "oplus": 17744,
    "▁whenever": 11326,
    "▁cycles": 23221,
    "▁Making": 19387,
    "▁сентября": 25803,
    "ど": 30496,
    "ட": 30251,
    "NE": 4390,
    "▁lowest": 15341,
    "股": 30889,
    "▁Kent": 13043,
    "▁Academ": 8519,
    "▁SN": 14722,
    "plain": 19457,
    "▁avoir": 18837,
    "▁sadly": 28378,
    "▁fileName": 25865,
    "ಮ": 31941,
    "▁replied": 8558,
    "<0x2C>": 47,
    "род": 6063,
    "▁Lock": 17582,
    "ág": 8043,
    "▁dtype": 17882,
    "▁Pot": 10650,
    "▁education": 5362,
    "▁diamond": 24621,
    "▁ladder": 25016,
    "▁Lebens": 26976,
    "▁fav": 7556,
    "▁Char": 4348,
    "▁aunt": 23785,
    "TD": 21339,
    "▁we": 478,
    "displaystyle": 22111,
    "worth": 11360,
    "▁rev": 4497,
    "nage": 27888,
    "<0x0C>": 15,
    "识": 30093,
    "overline": 7595,
    "▁aid": 11092,
    "othe": 15203,
    "=\"\"": 19164,
    "父": 30276,
    "Conv": 25946,
    "▁harder": 11783,
    "Over": 2675,
    "CONST": 21980,
    "VID": 6800,
    "▁concerned": 9059,
    "ær": 26384,
    "▁absorb": 28311,
    "Context": 2083,
    "▁Netherlands": 20526,
    "ew": 889,
    "▁vill": 4314,
    "ROOT": 20045,
    "─": 28979,
    "ван": 5406,
    "mg": 11897,
    "DAI": 22715,
    "▁чтобы": 27717,
    "▁club": 4489,
    "цен": 20829,
    "▁accom": 4339,
    "UNKNOWN": 24652,
    "▁ax": 6056,
    "▁Cher": 12913,
    "▁tourist": 23254,
    "▁youth": 9539,
    "▁Oregon": 19301,
    "▁Austral": 4351,
    "<0x01>": 4,
    "API": 6688,
    "▁cob": 24258,
    "瑞": 31893,
    "setValue": 26532,
    "vano": 27000,
    "▁somehow": 9864,
    "codec": 10989,
    "STEM": 22526,
    "ǧ": 31682,
    "静": 30709,
    "onte": 14266,
    "ؤ": 31456,
    "▁symmetric": 21030,
    "▁Mississ": 19294,
    "length": 2143,
    "▁completely": 4716,
    "encoder": 20787,
    "ollar": 20588,
    "舞": 31622,
    "责": 31377,
    "递": 30380,
    "▁temper": 5026,
    "lica": 24534,
    "ٹ": 30634,
    "▁absent": 20311,
    "▁But": 1092,
    "formance": 11778,
    "son": 1265,
    "primary": 12525,
    "прави": 27730,
    "▁Sister": 21310,
    "공": 30010,
    "▁Rein": 24541,
    "нин": 20406,
    "▁rap": 5017,
    "Collections": 10211,
    "icle": 2660,
    "▁IN": 2693,
    "▁settlement": 13694,
    "lay": 7459,
    "▁rotation": 15015,
    "ные": 5193,
    "▁cours": 19780,
    "▁indul": 24155,
    "pectives": 26859,
    "“.": 14771,
    "▁à": 1289,
    "appendChild": 22897,
    "▁Event": 6653,
    "CE": 2554,
    "▁heav": 9425,
    "▁troubles": 21477,
    "▁entering": 15435,
    "▁.\"": 15192,
    "achine": 3675,
    "エ": 29795,
    "isch": 3143,
    "lij": 13236,
    "imary": 7754,
    "▁sequence": 7768,
    "DIR": 8238,
    "erc": 3773,
    "▁!(": 23059,
    "Search": 7009,
    "ут": 13730,
    "▁Maine": 23579,
    "▁neuro": 20342,
    "Tile": 19379,
    "▁analytics": 28669,
    "cdots": 11797,
    "▁während": 20885,
    "▁saison": 20543,
    "Details": 9515,
    "▁liability": 22581,
    "▁vot": 10454,
    "▁Program": 7347,
    "▁assumed": 11012,
    "▁MT": 23619,
    "▁Hist": 4044,
    "▁об": 2802,
    "▁Hum": 17442,
    "/_": 23762,
    "EO": 7438,
    "▁participate": 14092,
    "▁sne": 14297,
    "parts": 14565,
    "▁игра": 20644,
    "pan": 3420,
    "▁trait": 10610,
    "ération": 17908,
    "news": 14290,
    "cester": 27050,
    "▁weren": 8658,
    "▁tijd": 23898,
    "ían": 9927,
    "ў": 29931,
    "▁Januar": 17649,
    "▁contributions": 14036,
    "mes": 4137,
    "<0x8B>": 142,
    "eing": 21458,
    "吗": 30930,
    "Serializer": 20422,
    "▁threatening": 23041,
    "▁bub": 22723,
    "itz": 4334,
    "▁rés": 11310,
    "glob": 23670,
    ":%": 8210,
    "▁Alan": 15444,
    "▁nuc": 8523,
    "▁slowed": 28636,
    "iro": 4812,
    "▁binding": 15662,
    "▁tutti": 26313,
    "▁widget": 16165,
    "junit": 13720,
    "▁Jeff": 8678,
    "▁polar": 14955,
    "▁Hans": 10518,
    "▁vocals": 20789,
    "Eq": 14564,
    "ゴ": 30797,
    "úblic": 11850,
    "▁pres": 1258,
    "рито": 13545,
    "▁impressive": 14714,
    "▁cc": 18535,
    "teil": 14084,
    "ockey": 12277,
    "▁ladies": 16009,
    "covery": 8841,
    "ден": 6775,
    "▁pull": 3300,
    "Listeners": 28523,
    "ishing": 5596,
    "▁vess": 13174,
    "efined": 4761,
    "▁Denver": 24060,
    "▁excell": 7154,
    "modal": 13742,
    "▁million": 3841,
    "▁almost": 2779,
    "▁static": 1062,
    "Percent": 19700,
    "xture": 8440,
    "▁Player": 13684,
    "▁Cancer": 25437,
    "true": 3307,
    "enders": 14930,
    "specific": 15590,
    "▁listener": 14078,
    "limits": 14347,
    "▁constraint": 17656,
    "▁likelihood": 24277,
    "▁de": 340,
    "数": 28945,
    "î": 28895,
    "ANG": 19182,
    "node": 2315,
    "ska": 9883,
    "▁travers": 19483,
    "▁vendor": 24578,
    "友": 30060,
    "ense": 1058,
    "popup": 21519,
    "checked": 12413,
    "share": 16864,
    "acz": 19985,
    "▁crushing": 21456,
    "tagon": 17346,
    "▁пр": 25431,
    "distance": 18122,
    "raf": 3976,
    "uso": 14103,
    "gin": 6207,
    "▁Miller": 13674,
    "▁opacity": 26355,
    "▁scandal": 28569,
    "▁'../../": 14339,
    "省": 29670,
    "essa": 11826,
    "▁signed": 7995,
    "▁LA": 15784,
    "भ": 30893,
    "큰": 31694,
    "▁authors": 11739,
    "▁nv": 25962,
    "▁Pur": 13673,
    "▁Impro": 21831,
    "▁contemporary": 13621,
    "üng": 22572,
    "URCE": 15375,
    "▁Color": 7831,
    "ų": 30102,
    "##": 1064,
    "▁corruption": 21363,
    "▁Arkansas": 27360,
    "▁golf": 15485,
    "\"}": 17395,
    "Attachment": 27079,
    "ACC": 26749,
    "aling": 4726,
    "括": 30574,
    "localhost": 20816,
    "▁examined": 21132,
    "▁mount": 4766,
    "ww": 1566,
    "Bits": 14721,
    "бы": 10092,
    "acions": 20298,
    "DELETE": 22070,
    "▁card": 4148,
    "▁everyone": 3376,
    "Æ": 29669,
    "▁deel": 23417,
    "▁Storage": 18857,
    "科": 30226,
    "<0x97>": 154,
    "OP": 2759,
    "▁dé": 2306,
    "insn": 22113,
    "orm": 552,
    "▁scrub": 25429,
    "Fi": 12705,
    "att": 1061,
    "▁regularly": 12274,
    "кого": 13961,
    "▁Лю": 24667,
    "rez": 11223,
    "▁clay": 26278,
    "▁Tips": 26406,
    "õ": 28925,
    "드": 29470,
    "▁available": 2632,
    "ición": 10910,
    "▁Russell": 17300,
    "▁involve": 17516,
    "Sent": 26968,
    "▁bunk": 27194,
    "Ι": 29864,
    "았": 31877,
    "▁reverse": 13967,
    "▁cast": 4815,
    "Us": 5495,
    "dropdown": 21898,
    "яви": 20241,
    "▁Grad": 17252,
    "ichi": 22617,
    "Board": 25561,
    "▁allocated": 19979,
    "EQ": 5692,
    "wedge": 19201,
    "▁save": 4602,
    "▁frag": 11334,
    "▁separate": 7681,
    "story": 18387,
    "▁Develop": 8587,
    "▁anche": 9372,
    "▁slot": 10544,
    "retval": 15063,
    "▁advertis": 21662,
    "▁adds": 13633,
    "▁'\"": 14503,
    "OwnProperty": 22760,
    "urg": 2821,
    "Commit": 20629,
    "grund": 19878,
    "▁arist": 26038,
    "ulated": 6432,
    "▁replaced": 8939,
    "戦": 30842,
    "▁pulse": 20984,
    "▁Throw": 20277,
    "▁составе": 27653,
    "▁migr": 11205,
    "▁newspapers": 19466,
    "onym": 8095,
    "▁года": 4013,
    "low": 9381,
    "unte": 8719,
    "imedia": 21861,
    "▁accurately": 24329,
    "▁emotionally": 26358,
    "▁commander": 15719,
    "▁interesting": 5853,
    "▁furono": 27403,
    "bling": 6357,
    "▁Story": 13689,
    "▁Metal": 24144,
    "▁she": 630,
    "estyle": 13030,
    "Scene": 17781,
    "▁comparable": 21973,
    "uman": 6366,
    "▁nouveau": 19341,
    "帐": 31790,
    "选": 29216,
    "coin": 10817,
    "▁Running": 28588,
    "码": 29145,
    "▁deals": 14685,
    "pons": 13532,
    "/**": 1922,
    "pkt": 17182,
    "etc": 20477,
    "Une": 18813,
    "▁uri": 22613,
    "▁Moh": 13610,
    "weak": 25668,
    "ne": 485,
    "Frame": 4122,
    "▁tim": 5104,
    "▁engagement": 15613,
    "VO": 12539,
    "카": 30693,
    "yl": 2951,
    "resp": 12002,
    "მ": 29629,
    "ር": 31522,
    "▁pick": 3088,
    "ira": 4807,
    "player": 7449,
    "Failed": 9523,
    "▁W": 394,
    "â": 28891,
    "▁high": 1486,
    "▁action": 2992,
    "▁putting": 8190,
    "VERSION": 10147,
    "igin": 9840,
    "▁Command": 11618,
    "city": 18373,
    "▁unset": 22353,
    "otted": 9752,
    "▁ple": 4031,
    "▁mile": 13677,
    "сни": 22618,
    "▁lingu": 24017,
    "▁ses": 6737,
    "▁Wait": 13118,
    "▁bars": 13529,
    "▁invitation": 22504,
    "▁helper": 20884,
    "▁Reviews": 24429,
    "▁nella": 8360,
    "▁м": 1131,
    "ge": 490,
    "life": 10387,
    "ering": 2131,
    "▁deg": 3705,
    "velope": 17173,
    "▁Sebast": 18935,
    "cope": 6865,
    "NUMBER": 23776,
    "]).": 17927,
    "▁hooks": 26901,
    "▁Wy": 13178,
    "~$": 16621,
    "▁dro": 3483,
    "▁Tay": 10347,
    "zig": 16318,
    "uuid": 16474,
    "▁grandfather": 19300,
    "Codec": 23186,
    "▁Different": 27588,
    "提": 29279,
    "▁Role": 21596,
    "▁compliment": 23085,
    "析": 30007,
    "hav": 8832,
    "▁affair": 19179,
    "▁dat": 3046,
    "▁Philadelphia": 15804,
    "allowed": 12949,
    "ње": 11970,
    "ping": 2917,
    "▁descend": 19144,
    "amaz": 13676,
    "ق": 29115,
    "drv": 15555,
    "ャ": 30026,
    "▁serv": 1268,
    "::$": 24498,
    "LEVEL": 18224,
    "PC": 4199,
    "▁editorial": 26723,
    "eto": 5655,
    "▁hopefully": 20627,
    "Ӏ": 31731,
    "лем": 16669,
    "▁overlap": 26808,
    "google": 4736,
    "NAME": 4833,
    "jan": 12517,
    "lit": 18600,
    "丽": 31625,
    "f": 28722,
    "-.": 15376,
    "**/": 26221,
    "▁ц": 6033,
    "ening": 3250,
    "▁include": 3024,
    "▁ensure": 5407,
    "▁Studies": 15194,
    "▁Catherine": 20126,
    "äm": 18483,
    "▁July": 4398,
    "취": 31725,
    "▁edition": 12065,
    "▁It": 661,
    "▁procedure": 10722,
    "ffect": 4482,
    "▁Mos": 7292,
    "▁trim": 13893,
    "▁edges": 11742,
    "▁wurden": 9031,
    "▁Linked": 22675,
    "▁brows": 19252,
    "▁County": 5068,
    "Pass": 6263,
    "▁Star": 7383,
    "▁weeks": 4587,
    "▁rank": 6593,
    "uart": 15499,
    "▁dévelop": 21226,
    "bild": 17086,
    "oc": 402,
    "▁spotted": 20958,
    "▁started": 2774,
    "▁когда": 28164,
    "▁pharm": 16074,
    "▁lett": 9077,
    "▁).": 11505,
    "ungle": 22082,
    "脚": 30646,
    "▁Vit": 20874,
    "▁feelings": 9388,
    "ę": 28864,
    "▁sod": 19769,
    "▁null": 1241,
    "▁educated": 20579,
    "既": 31643,
    "Engine": 7003,
    "弹": 30409,
    "▁anonymous": 23267,
    "▁trade": 6226,
    "▁here": 1236,
    "▁Git": 27903,
    "▁Switzerland": 22491,
    "▁septiembre": 25403,
    "enson": 26205,
    "ubern": 16940,
    "▁марта": 24898,
    "▁sweat": 13898,
    "bst": 14370,
    "eting": 7323,
    "▁Twenty": 23263,
    "xF": 7355,
    "▁inequ": 16431,
    "SYSTEM": 27842,
    "orio": 26794,
    "▁фор": 13939,
    "airy": 23421,
    "furt": 21912,
    "шая": 25356,
    "▁Examples": 26268,
    "▁swallowed": 23946,
    "ted": 17850,
    "野": 30337,
    "itude": 4484,
    "asse": 4550,
    "▁але": 28497,
    "buff": 10132,
    "▁userId": 23836,
    "▁Shel": 18601,
    "ables": 2561,
    "▁secrets": 19376,
    "itting": 3257,
    "SEQU": 28148,
    "<0x58>": 91,
    "eler": 7708,
    "(\",": 23431,
    "жи": 3139,
    "▁bound": 3585,
    "atore": 11437,
    "entries": 14849,
    "▁Lex": 20991,
    "▁warehouse": 27954,
    "elements": 16510,
    "registry": 22464,
    "Bind": 12741,
    "▁FILE": 21004,
    "▁ARISING": 28580,
    "害": 31346,
    "验": 29502,
    "▁Profile": 23538,
    "ydro": 11033,
    "▁scenario": 13406,
    "bek": 26118,
    "equals": 7013,
    "▁ongoing": 15260,
    "ahn": 8745,
    "▁tanks": 20274,
    "▁consum": 6288,
    "▁Order": 9006,
    "olo": 5053,
    "▁telev": 6528,
    "▁Accept": 26953,
    "▁room": 2003,
    "SU": 4711,
    "”": 28838,
    "▁posting": 18448,
    "轩": 31943,
    "▁selfish": 26206,
    "ards": 2178,
    "▁ambig": 25787,
    "####": 2000,
    "▁century": 5445,
    "▁newspaper": 12442,
    "吉": 30784,
    "ئ": 29690,
    "▁efter": 15606,
    "▁deven": 24999,
    "▁embarrass": 13648,
    "▁antib": 21679,
    "▁cluster": 9194,
    "webpack": 9091,
    "▁университе": 24884,
    ",,": 8787,
    "▁concentrate": 24539,
    "~$\\": 24319,
    "лага": 22443,
    "тами": 27411,
    "ò": 28898,
    "▁liter": 3937,
    "▁corridor": 21550,
    "▁accus": 21786,
    "thread": 6101,
    "MT": 7333,
    "pio": 14662,
    ",\r": 4604,
    "▁suggesting": 20223,
    "▁employer": 18646,
    "▁ши": 20964,
    "▁COVID": 11747,
    "▁initial": 3742,
    "└": 30122,
    "▁feels": 8315,
    "▁few": 1664,
    "๏": 30546,
    "ifa": 25622,
    "▁paintings": 19572,
    "м": 28803,
    "士": 30392,
    "Di": 8874,
    "}}{\\": 12887,
    "▁beginning": 5398,
    "LES": 20335,
    "‬": 30587,
    "道": 29432,
    "people": 21721,
    "▁convergence": 23662,
    "gr": 820,
    "▁Tod": 6013,
    "▁practical": 11118,
    "int": 501,
    "▁whose": 4636,
    "Old": 16237,
    "▁anom": 24561,
    "▁close": 2848,
    "▁Bapt": 22654,
    "\u0003": 30662,
    "path": 1740,
    "usal": 13396,
    "occ": 21450,
    "▁Gold": 5792,
    "▁expensive": 9212,
    "▁siècle": 13717,
    "riority": 11673,
    "▁deutsch": 14387,
    "▁deserve": 16133,
    "olutions": 5533,
    "▁absor": 10612,
    "▁styles": 12078,
    "isce": 26322,
    ".\",": 9191,
    "elligence": 18827,
    "ណ": 31803,
    "▁Cambridge": 14751,
    "¡": 29028,
    "('/": 10815,
    "{}": 6397,
    "igator": 17769,
    "▁DateTime": 20917,
    "orted": 10720,
    "Rom": 28018,
    ",_": 5796,
    "\\|_{": 26978,
    "ccess": 1518,
    "▁convin": 13058,
    "Contains": 17576,
    "▁impressed": 17434,
    "USE": 7943,
    "▁Finland": 19186,
    "Order": 6022,
    "▁Maz": 25131,
    "▁drug": 7876,
    "▁Individual": 27739,
    "folder": 18676,
    "▁content": 3036,
    "apture": 13568,
    "abei": 20205,
    "▁Jean": 6719,
    "ád": 11751,
    "refresh": 18968,
    "ile": 546,
    "▁nar": 21119,
    "▁Josef": 27622,
    "<0x1B>": 30,
    "▁De": 1343,
    "uation": 10223,
    "▁cort": 16779,
    "ун": 9511,
    "Ј": 29033,
    "▁ensemble": 22936,
    "UBLE": 22873,
    "울": 31758,
    "shit": 16371,
    "▁channel": 5866,
    "▁skulle": 23093,
    "ster": 2406,
    "ocity": 9508,
    "▁Has": 10981,
    "rust": 19842,
    "续": 30199,
    "root": 4719,
    "▁Pract": 15961,
    "▁dise": 6091,
    "how": 5845,
    "UB": 6870,
    "▁plane": 8573,
    "вата": 28478,
    "chn": 1818,
    "▁Yet": 8516,
    "▁busy": 9056,
    "ensing": 18130,
    "▁prv": 24949,
    "읽": 31815,
    "▁dispatch": 14323,
    "key": 1499,
    "DRV": 24664,
    "PRINT": 18027,
    "▁{}\",": 26695,
    "графи": 11075,
    "<0x57>": 90,
    "▁handy": 26568,
    "破": 31163,
    "▁först": 23722,
    "▁scream": 8933,
    "isi": 10867,
    "▁Labour": 16873,
    "▁Institut": 20929,
    "▁Miss": 5586,
    "▁modo": 20273,
    "▁Eins": 24055,
    "▁parc": 26790,
    "ego": 6221,
    "변": 29901,
    "▁technically": 25554,
    "rou": 518,
    "래": 29889,
    "ZERO": 28303,
    "▁pe": 757,
    "OD": 2896,
    "▁universities": 21356,
    "؟": 30772,
    "icking": 16402,
    "▁Case": 12633,
    "▁Congress": 8463,
    "▁bold": 15860,
    "aska": 14431,
    "▁caller": 18314,
    "▁Advis": 28460,
    "▁||": 1636,
    "куп": 26414,
    "ried": 1638,
    "▁Technology": 12511,
    "ção": 3709,
    "▁appealing": 27168,
    "▁фон": 19968,
    "Bl": 4919,
    "▁displ": 13420,
    "ret": 1441,
    "▁zona": 21193,
    "bec": 12328,
    "wl": 13982,
    "txt": 7088,
    "▁introduction": 14300,
    "▁führ": 19549,
    "▁subsequently": 18410,
    "▁\"": 345,
    "▁bool": 2697,
    "aat": 7748,
    "ael": 4152,
    "▁padre": 19866,
    "嘉": 31369,
    "▁shares": 13308,
    "▁traject": 21699,
    "vb": 26875,
    "iker": 9225,
    "tem": 20515,
    "ining": 4038,
    "▁addressed": 16715,
    "éd": 4652,
    "ulture": 7985,
    "auch": 21300,
    "▁relaxation": 27607,
    "ἡ": 31990,
    "Request": 2212,
    "▁establishment": 18413,
    "▁res": 605,
    "arms": 18466,
    "ད": 31505,
    "sizeof": 9936,
    "▁laughing": 14827,
    "▁California": 6247,
    "Ú": 29070,
    "▁trag": 20751,
    "▁Everyone": 11773,
    "ґ": 29211,
    "求": 29243,
    "DIO": 18036,
    "wicklung": 25739,
    "ück": 7362,
    "▁Ele": 12450,
    "▁Mode": 21748,
    "划": 30791,
    "▁fence": 17210,
    "▁worldwide": 15245,
    "Schedule": 22818,
    "▁sofa": 23117,
    "model": 3549,
    "础": 30811,
    "sz": 5027,
    "But": 2438,
    "UN": 2168,
    "▁parad": 15904,
    "▁muscles": 15922,
    "зно": 18380,
    "▁pockets": 21702,
    "indi": 24097,
    "craft": 6006,
    "cast": 2867,
    "PP": 8415,
    "▁werden": 6446,
    "erset": 27236,
    "possible": 7285,
    "▁staat": 24617,
    "than": 23018,
    "initial": 12743,
    "▁conse": 15188,
    "▁оп": 17742,
    "▁compassion": 20151,
    "Too": 25679,
    "▁morph": 18087,
    "▁store": 4143,
    "径": 29729,
    "varphi": 7389,
    "▁sevent": 11130,
    "ancia": 17322,
    "blog": 14275,
    "▁duck": 27103,
    "▁mis": 4052,
    "bottom": 10450,
    "());\r": 15056,
    "SUPPORT": 17343,
    "ishop": 12019,
    "▁track": 3508,
    "Inst": 6060,
    "▁Who": 6526,
    "Sal": 18461,
    "▁Happy": 19094,
    "icated": 6899,
    "::_": 21312,
    "fig": 885,
    "Azure": 17019,
    "▁grud": 24332,
    "TabIndex": 28380,
    "vertical": 24313,
    "ê": 28876,
    "separ": 17519,
    "更": 29250,
    "▁Para": 19562,
    "rical": 11524,
    "▁#!/": 23597,
    "hs": 6270,
    "▁pubblic": 17303,
    "others": 15869,
    "yside": 24756,
    "వ": 31976,
    "▁observ": 3977,
    "▁proc": 13053,
    "▁Ти": 19160,
    "▁Wat": 12037,
    "pret": 5520,
    "▁helps": 7263,
    "TMP": 15916,
    "lette": 18061,
    "Val": 2637,
    "RT": 7042,
    "▁stim": 12556,
    "▁properties": 5508,
    "▁resulting": 10503,
    "▁probably": 3049,
    "▁commissioned": 28296,
    "tra": 1947,
    "▁jumping": 23058,
    "struct": 1356,
    "▁admitted": 13048,
    "▁talks": 15066,
    "Timer": 12596,
    "нал": 20022,
    "▁regional": 11908,
    "ensors": 28598,
    "오": 29647,
    "shirt": 21122,
    "▁recip": 14273,
    "▁patch": 11780,
    "▁disp": 15285,
    "reload": 26606,
    "▁representation": 9283,
    "▁structured": 28429,
    "▁wet": 7569,
    "备": 29613,
    "▁consider": 1917,
    "ighters": 21465,
    "Sem": 21565,
    "inct": 5654,
    "ais": 1555,
    "▁Result": 6760,
    "▁inf": 4319,
    "ří": 9528,
    "▁Cat": 10758,
    "▁speak": 4085,
    "▁Ces": 17097,
    "▁inner": 7450,
    "▁critics": 20557,
    "▁Otto": 21289,
    "LIC": 24297,
    "raid": 7370,
    "▁noting": 25222,
    "ischer": 6283,
    "▁Ни": 11504,
    "herent": 21891,
    "는": 29175,
    "▁tang": 15362,
    "▁prefix": 11398,
    "▁ram": 15355,
    "▁eerst": 16378,
    "rium": 16988,
    "minister": 26085,
    "▁effect": 2030,
    "uries": 8627,
    "▁eleg": 12999,
    "▁incons": 25331,
    "▁gioc": 27491,
    "isArray": 28000,
    "PART": 28069,
    "▁Raymond": 23540,
    "Am": 7118,
    "ی": 28975,
    "▁February": 5353,
    "▁insert": 8561,
    "evin": 12278,
    "▁Richard": 6359,
    "▁fost": 14096,
    "▁Om": 17852,
    "хі": 25664,
    "TS": 7996,
    "olu": 17760,
    "▁ré": 3264,
    "▁muscle": 14540,
    "Long": 7468,
    "analysis": 23206,
    "ито": 26439,
    "歌": 30509,
    "».": 5781,
    "we": 769,
    "▁finger": 9728,
    "cul": 2320,
    "циональ": 20104,
    "फ": 31570,
    "dhd": 27957,
    "Add": 1991,
    "FUNC": 18412,
    "▁attacks": 10813,
    "▁purchased": 13471,
    "oli": 7320,
    "▁president": 4951,
    "▁Century": 22649,
    "appa": 7436,
    "▁conform": 16565,
    "▁Squad": 16756,
    "conde": 26506,
    "Payload": 20349,
    "**": 348,
    "▁ш": 5486,
    "▁una": 1849,
    "▁unlike": 15343,
    "GER": 11832,
    "god": 21416,
    "▁carpet": 18612,
    "▁Matrix": 22711,
    "verse": 4177,
    "▁migration": 18579,
    "▁Chat": 23781,
    ".-": 14902,
    "enburg": 22381,
    "esen": 23668,
    "▁streams": 20972,
    "ἐ": 30414,
    "▁env": 2881,
    "▁Einstein": 25721,
    "▁Ruth": 18943,
    "▁ss": 20113,
    "ས": 30996,
    "纳": 31536,
    "▁car": 1253,
    "▁helpful": 10865,
    "▁json": 7611,
    "▁Francia": 19852,
    "▁devil": 23153,
    "▁Compan": 21096,
    "find": 3326,
    "▁dock": 20097,
    "vr": 11277,
    "▁specify": 15759,
    "▁Rob": 5776,
    "Ex": 966,
    "Import": 11944,
    "▁confused": 13803,
    "▁deeper": 13551,
    "▁helped": 6481,
    "▁mou": 22182,
    "▁respected": 23425,
    "otion": 5318,
    "platz": 23591,
    "▁Fant": 19800,
    "▁rug": 13644,
    "▁inches": 13352,
    "▁CONFIG": 12198,
    "▁lid": 16006,
    "CLE": 21521,
    "▁controls": 13186,
    "Ver": 5760,
    "▁contributed": 18746,
    "▁Sü": 24365,
    "})}": 27276,
    "Position": 6111,
    "▁trois": 14956,
    "пози": 24326,
    "▁Fab": 12055,
    "ній": 13238,
    "▁throughout": 5473,
    "▁'#": 12252,
    "▁offic": 2771,
    "▁tmp": 6510,
    "▁plt": 17768,
    "▁pupp": 18631,
    "♠": 30736,
    "▁Scott": 7636,
    "▁justify": 16205,
    "zech": 14627,
    "<0x6F>": 114,
    "cció": 25357,
    "illet": 13309,
    "▁defens": 26479,
    "": 29191,
    "語": 30321,
    "▁avant": 14221,
    "=\"../../": 9765,
    "meta": 8301,
    "▁fill": 5211,
    "▁Const": 7791,
    "<0x45>": 72,
    "▁numero": 25899,
    "▁Tall": 24901,
    "▁trusted": 16437,
    "ギ": 31307,
    "▁Dat": 9888,
    "▁trigger": 8366,
    "ifs": 12843,
    "IBUT": 23148,
    "▁revenue": 14008,
    "▁fourth": 10036,
    "ository": 8266,
    "置": 29021,
    "reply": 16054,
    "▁throwing": 15832,
    "esp": 14043,
    "ղ": 31565,
    "capture": 26609,
    "▁thickness": 28032,
    "dar": 22421,
    "▁sav": 8639,
    "？": 29771,
    "▁Canada": 6082,
    "▁Ал": 25214,
    "▁Comb": 19422,
    "έ": 29271,
    "zy": 2140,
    "Jan": 21650,
    "frastr": 10512,
    "▁Word": 10918,
    "▁Jo": 6081,
    "▁Further": 9444,
    "▁purchase": 7725,
    "▁slid": 18457,
    "rs": 4586,
    "▁An": 1094,
    "WO": 20463,
    "▁Puerto": 22549,
    "ウ": 29736,
    "Okay": 16488,
    "лия": 13124,
    "▁threat": 5483,
    "▁effectiveness": 23798,
    "▁arriving": 24212,
    "']": 1421,
    "▁closet": 23622,
    "▁module": 4597,
    "▁dinner": 7854,
    "▁febrero": 27906,
    "▁Ty": 10084,
    "▁Racing": 22024,
    "abc": 16612,
    "▁pod": 3531,
    "its": 1046,
    "tta": 19016,
    "aved": 4393,
    "▁П": 1531,
    "▁Hop": 15406,
    "ioctl": 26478,
    "arga": 26538,
    "▁uncomfortable": 17785,
    "Â": 29053,
    "た": 29227,
    "orent": 21958,
    "getClass": 21661,
    "Pipeline": 20190,
    "сті": 8709,
    "▁Nigeria": 22072,
    "▁représent": 23853,
    "货": 30227,
    "▁ma": 4128,
    "pawn": 25378,
    "netdev": 25583,
    "ushed": 5204,
    "xd": 10044,
    "▁tem": 1637,
    "▁опера": 24889,
    "▁pert": 10795,
    "案": 30002,
    "▁quite": 3448,
    "чат": 22556,
    "construction": 18519,
    "▁rust": 14912,
    "stairs": 13477,
    "▁female": 7742,
    "▁bunch": 11763,
    "deserialize": 25689,
    "wer": 4197,
    "▁landed": 16787,
    "▁running": 3822,
    "N": 28759,
    "UMENT": 27286,
    "\"?": 27257,
    "urn": 453,
    "▁commercial": 7380,
    "OUTPUT": 23923,
    "❌": 31200,
    "mixer": 17728,
    "Mus": 16159,
    "▁Pay": 9260,
    "éri": 8909,
    "▁us": 592,
    "▁beat": 8239,
    "😅": 30379,
    "lib": 4472,
    "▁img": 16001,
    "▁unem": 20955,
    "▁american": 21419,
    "Ô": 30452,
    "▁var": 963,
    "download": 17359,
    "Diagnostics": 18174,
    "бор": 12660,
    "▁Client": 13522,
    "▁hide": 9123,
    "▁hel": 1172,
    "operator": 8655,
    "RE": 896,
    "alph": 18089,
    "▁phrases": 27512,
    "output": 4050,
    "backup": 27078,
    "본": 30535,
    "ゃ": 31028,
    "indow": 1511,
    "▁borrow": 14219,
    "makers": 22016,
    "ử": 30389,
    "cohol": 9725,
    "AIL": 26763,
    "▁peas": 27649,
    "HC": 16573,
    "家": 29490,
    "iety": 2639,
    "က": 31158,
    "Part": 4917,
    "point": 2275,
    "ske": 26254,
    "ῦ": 30622,
    "▁Atl": 7751,
    "icted": 10937,
    "▁energet": 28236,
    "reck": 16136,
    "Interface": 6450,
    "zá": 16845,
    "getValue": 12448,
    "▁assumptions": 19573,
    "▁incre": 2379,
    "ween": 1367,
    "attice": 16003,
    "▁disk": 11295,
    "▁remarked": 28357,
    "▁nearly": 5597,
    "▁mix": 6750,
[...]
