整
Shell
▁fl
gesch
ския
isen
cleanup
▁commence
hole
▁color
▁keys
▁Становништво
AS
tagHelper
▁Lab
▁Lis
▁education
▁benefit
ors
Tables
▁deserved
´
葛
▁вер
▁watches
mathrm
cluster
▁concer
Vel
jections
commons
ень
▁apartment
▁Vision
▁diversity
▁Angeles
<0x58>
totype
iał
▁Status
ǧ
▁май
luss
ads
▁dio
ustr
related
▁Parameters
▁(+
uss
ständ
▁wings
▁Impact
ּ
PIN
▁openly
▁Computer
EF
▁qué
▁distances
▁Hern
origin
constant
ANT
▁¿
Origin
Ë
▁eerste
conv
▁també
▁Center
▁id
Done
▁сент
▁watch
HC
ಸ
▁resign
<0x03>
▁Most
heid
nten
Param
▁Municipal
▁Edinburgh
▁enthus
Foundation
AspNet
chsel
pgfpath
ój
ário
ack
▁pred
▁Quebec
phony
▁India
ه
minded
REQUI
óg
▁impat
▁Alexander
atura
端
ocket
▁pendant
dead
▁keywords
▁accommodate
▁Might
aming
<0x08>
hall
▁Chall
▁Trust
кова
▁devient
▁computers
Ste
тно
▁counsel
▁elder
▁entertain
рабо
№
读
▁januari
▁perf
craft
pointer
▁OUT
UTF
ARCH
._
▁cls
▁poly
▁shaft
▁finds
udo
▁rav
wb
ো
▁pointed
▁sections
▁episode
every
sap
▁grad
▁vie
ă
Named
wię
quin
▁poder
▁realistic
hum
▁assass
mutex
▁candy
▁online
лся
rac
Tag
根
來
zens
For
▁addiction
oric
three
▁THAT
Syntax
▁Gold
Setting
Auto
▁naz
Repo
pective
ュ
마
▁incoming
bio
▁мно
warf
Sup
harm
រ
午
▁dis
▁глав
▁Safe
▁UEFA
🏽
▁epis
panel
▁años
示
▁\,
▁Leonard
Definition
▁handful
annt
.</
▁||
▁Irish
▁Ald
▁Ott
▁sull
▁timer
▁peace
▁panel
ADD
ingham
кры
▁VM
▁organiz
▁ambit
nit
▁Ton
▁skilled
▁uno
▁se
ung
▁GT
▁ValueError
ǒ
ôle
DESC
▁▁▁▁▁▁▁▁▁▁
)^{\
../../
▁Fa
local
▁prefix
▁socket
<0x80>
▁resident
ਰ
▁salt
ád
signal
▁severely
érc
ên
▁stagione
▁proto
▁everything
▁family
<0x4A>
commun
<0xB9>
▁px
▁nederbörd
▁string
▁coding
layer
▁помо
却
ja
▁numero
[_
spell
Preferences
다
▁Sep
oca
▁correlation
()),
ony
Dispatch
💀
כ
plo
▁frequ
▁hold
▁municipal
▁datetime
center
>";
▁bon
▁act
ünst
Math
CHAR
▁economics
▁quest
anj
Â
ব
▁unc
▁animated
▁LOG
ilia
▁Arabia
<0xAF>
▁комп
ing
▁rail
▁годи
▁heels
▁attrs
ost
▁items
▁");
▁soap
▁Nancy
▁subsequ
▁Fem
▁rib
▁repeatedly
ilor
▁prow
！

ifier
review
♪
redu
▁PA
<0x85>
bum
Chain
固
규
isation
SB
▁trailer
Typed
▁sensation
▁Ich
▁language
TA
▁upstairs
Items
▁Ul
▁Fußball
▁За
iki
igt
▁supply
Med
▁Indian
▁accurate
▁piss
▁bra
▁déc
▁nord
Vol
▁acquire
▁tours
edes
▁unters
▁Rebecca
▁diver
▁ampl
Records
▁Given
▁Ped
▁cho
▁posit
Transaction
Loop
▁integrated
▁Alaska
خ
▁sympt
vo
Let
▁regulations
▁Democrats
▁boundary
.";
▁Symbol
ood
▁alert
▁forth
宜
nées
▁talks
▁Missouri
▁'',
▁typically
▁spiritual
株
phabet
▁Johnny
ню
╚
▁stride
▁déjà
▁var
ector
▁CO
гра
▁É
▁ling
ills
▁Volk
EDIT
usc
mt
')).
simeq
爆
ink
用
za
▁increases
'));
▁на
♀
박
▁Kind
self
Ctx
▁repet
ন
▁reasonable
▁прое
Validate
INDEX
▁impression
yle
blic
Dataset
WAY
lbl
theme
Figure
▁io
▁Hass

▁María
φ
职
ialis
cd
trl
arance
paths
<0xAD>
▁word
mil
▁guess
WE
David
▁oper
▁jobs
▁incorpor
▁rarely
🤔
▁kicking
▁improve
FUNCTION
]))
▁lic
😤
eng
▁consultant
▁jeho
▁buddy
aug
制
ï
okal
▁Italy
▁dealing
▁engage
刀
enne
BL
scroll
▁surge
▁gioc
▁Mu
▁Bell
riers
value
̄
▁illustrated
束
▁ISBN
▁invariant
▁mentally
似
dt
▁Individual
))
▁Rec
shirt
dst
ylvania
▁Thus
▁entertaining
秀
▁ranges
Area
肉
▁Cz
▁произ
▁photos
▁lessons
▁Holland
oles
TF
▁número
▁Name
▁Draw
▁sophisticated
▁buffers
user
ISD
想
▁distingu
utter
▁aqu
мери
CB
▁July
▁evident
▁Lol
▁sale
}^{(
zent
gamma
ennen
▁Priv
Theta
рома
plug
▁Бра
▁addr
▁priv
.;
▁specialist
▁plac
▁expectation
ounters
파
▁м
▁Academ
<0x09>
▁overlap
Script
赤
▁equals
ʐ
▁parks
Forward
▁Ran
логи
▁atom
▁Bath
▁continues
▁PURPOSE
▁cher
▁ou
▁altre
▁e
▁Social
cipl
▁weakness
▁Rosen
]])
추
受
Admin
▁racism
leveland
кви
ous
Tr
▁start
▁basis
▁aussi
indi
▁Watch
▁St
ワ
adata
▁advantage
ped
▁bother
▁Ask
▁lesser
▁brief
永
▁private
ka
▁added
▁pel
us
IMPORT
that
python
▁sudd
▁clicked
тах
缺
elem
西
irk
+\_\
reach
sec
▁ir
notation
▁divide
textit
ulation
▁affected
▁Chapter
сня
nih
▁fort
▁Chap
CG
ality
▁ко
Yes
▁breaking
iov
▁Griff
▁imped
Sh
▁Giovanni
terra
▁progress
▁более
▁Properties
包
▁Half
intel
arguments
virt
ڈ
--
▁espa
▁json
致
<0x3A>
MS
▁Dow
▁Golden
▁челове
▁registers
enced
url
▁же
▁Machine
▁propriet
transaction
多
▁draft
▁Birth
ión
transport
ả
▁Florida
▁ту
Autom
▁Micro
iances
made
▁fprintf
败
▁fucking
olas
▁military
▁neighbors
…
<unk>
Lin
iores
▁München
}"
dsi
堆
Entity
九
▁Chase
▁neuen
__["
(){
rijk
▁Ме
ityEngine
▁softly
ilda
▁something
dar
castle
Leg
▁lug
osph
fico
▁sacrific
▁trop
чин
sun
▁forward
▁worn
▁Snow
▁steht
▁critic
▁Feb
▁os
士
▁Tit
ähr
ović
aimed
▁Mission
令
atar
▁commented
NOP
ants
▁hurried
▁Doug
PIO
▁wed
▁Mur
▁modified
▁COM
▁Touch
Vars
▁themselves
poon
first
▁indicates
▁Arbe
ن
▁DR
overflow
感
ARM
▁tot
Bad
▁trat
Utils
dz
拦
éro
▁satisf
▁adding
▁pointing
▁Society
refresh
▁purs
".
AG
▁reven
rab
▁Modern
Ս
▁zam
++
▁CIA
▁intention
getNode
▁'../
collect
刚
洛
validator
😢
pd
WARE
спа
EC
uj
сла
云
四
stick
▁jego
],
inated
▁hom
gon
▁usb
▁presum
▁Ac
▁meet
imil
▁inequality
▁Josef
仙
▁Fund
▁turned
Ђ
owa
Power
▁'')
▁text
▁Durante
ENABLED
efore
acc
▁clip
▁Isa
▁algebra
▁details
ambda
还
▁cref
▁ab
aml
▁kernel
▁Sie
ync
теля
crypto
Consum
ץ
输
aria
ario
)->
чение
▁Public
루
fty
▁Women
▁manufacturers
▁producers
庄
▁Valent
ס
Success
django
existing
uo
▁lado
▁existed
md
left
▁Vir
▁weight
wid
▁needle
▁gest
liche
▁cleaned
ẽ
▁param
Status
▁evaluation
▁Krist
▁towns
▁ensures
Str
▁temporal
降
▁bamb
▁Cos
▁dirt
imm
▁Joe
▁Function
▁locked
▁Fore
▁ANY
▁crit
си
ield
▁Sport
▁journey
');
legt
imeter
编
multicolumn
▁doors
hab
▁waist
▁spher
▁liv
Generic
PARAMETER
称
schema
▁chemicals
▁cle
З
▁Net
perm
▁scales
ACT
▁Twitter
ps
▁propos
▁hole
▁cp
oge
ouver
計
▁Scient
Æ
Binary
▁Play
({\
Bits
▁Youth
arc
▁Фран
▁definition
Fin
▁Си
hin
ui
▁сезо
▁Expect
ն
▁mé
plier
dep
Rendering
Fl
dec
érica
▁pract
▁recomm
bh
赛
лее
擇
▁Africa
▁Historic
트
▁inc
▁therm
dims
▁stem
▁з
riz
▁deadline
▁assault
▁Hol
ven
▁capt
▁implies
▁Extension
▁succ
ів
FALSE
▁energies
ụ
▁sun
▁Visit
▁observ
Node
▁winners
▁shr
▁workout
rolled
▁BASIS
SYNC
lua
otte
xff
otimes
▁computation
▁electricity
<0x5D>
enc
▁suggests
▁чем
EA
▁fd
▁bc
uar
";
▁regarded
spieler
▁scary
observ
▁demon
▁export
Christ
幅
▁chronic
▁nurse
▁au
▁Murphy
▁petit
Command
folk
deserialize
####
▁ст
acy
▁Card
▁dass
vid
▁modeling
▁Ze
rl
ゼ
▁unt
hat
▁landsc
▁filename
▁Model
▁remembering
ras
ڕ
▁medal
wealth
▁performs
Stack
liminary
NUM
▁Loss
ன
ernel
것
▁rede
└
▁currency
▁Personen
▁loan
<0x54>
▁Disney
Must
¤
▁дол
änger
vari
ultural
too
▁was
joy
▁Prest
▁Republicans
▁mp
compat
▁CF
compress
▁besides
▁vit
interval
▁Official
▁token
This
▁circum
▁rice
▁Florence
▁artificial
▁audience
▁bis
ラ
nym
▁bec
▁surgery
Read
▁segundo
▁angles
ू
acement
▁Zen
▁Bio
THE
<0x6E>
unately
Slider
Φ
▁/>
Int
▁Mayor
▁SK
cong
oline
▁hospitals
loaded
आ
alk
▁enhancement
▁team
▁restricted
▁sia
▁vic
▁Este
▁athletes
▁draw
▁achie
▁Pri
▁hatte
▁tightly
dd
▁part
▁Jan
ユ
▁Ant
Us
▁municip
Fake
▁Class
Dark
▁tant
you
typen
▁human
aster
caps
▁este
▁mistaken
▁Monitor
▁anx
▁По
ceived
Day
▁Adams
<!--
▁determine
FILTER
aily
ßer
elin
▁peint
Timestamp
▁texture
▁hogy
ysis
DT
Owner
▁марта
▁section
▁parents
ampions
▁wider
▁nécess
▁Henry
ick
▁,
▁Al
▁appear
▁witness
▁shorts
************
talk
gram
▁besch
▁tip
▁▁
▁reject
ridge
rieve
фа
▁paus
ថ
▁GNU
rench
<'
uri
тво
▁beliefs
▁ubic
▁blanket
▁comb
▁believes
▁fraud
ತ
▁streaming
▁names
▁кото
▁long
aim
dyn
warning
▁steep
$$
笔
ivo
blocks
Component
assy
▁noon
hed
▁involved
atis
▁неза
▁preview
▁overall
▁февра
ction
ses
▁Player
▁outcome
▁fleet
▁octobre
!--
ech
▁IMPLIED
owed
Ann
▁hyp
nog
했
▁Products
But
heap
ia
▁pressure
▁absolute
▁Note
icip
▁experts
};
▁acceptable
▁жур
equ
▁toget
jud
▁services
pipe
▁reality
▁tons
▁acc
▁poem
վ
iju
▁impossible
col
oria
▁mature
▁Zu
bur
郡
ald
X
zeichnung
⁠
康
oe
▁recipient
▁sym
▁Cast
▁пло
nant
▁peg
<0x5C>
▁fiscal
oes
.~
▁Conserv
▁nationale
▁Mau
▁appetite
▁Не
▁complete
▁curves
course
▁download
▁Ath
ixed
ɴ
bec
▁HIV
к
ネ
▁equipment
Dictionary
▁тех
kom
ヴ
殿
▁scan
▁Film
▁Ben
▁pear
ộ
AH
uz
▁filled
aut
▁гене
issent
▁Innov
林
▁assist
olia
▁Sor
usch
體
UINT
▁theory
▁lp
CTL
codes
▁Ag
unused
▁fantastic
mary
写
画
း
irts
▁Pun
▁meets
autres
▁Mitchell
iny
▁introduced
App
xb
▁validate
äger
▁Frauen
▁Small
▁###
▁bit
▁turno
▁regular
cast
▁Types
▁JavaScript
prot
▁ligne
▁diffé
▁Moon
号
▁storm
BACK
▁Then
▁required
StatusCode
vs
▁cookies
▁Costa
▁define
▁Len
▁buzz
▁actual
ighbor
▁Problem
▁havia
▁Jim
ian
έ
广
stud
dataset
SAMP
▁array
Managed
▁instances
ners
▁sind
next
ifest
idel
ʀ
▁said
OST
__,
▁sigh
▁пов
▁suck
▁lonely
▁crossed
▁beginnetje
▁cricket
文
▁vector
▁range
▁chem
ilers
▁cancer
▁detection
as
demo
▁cere
ভ
▁Muham
UMN
adapter
overn
uce
вали
▁bid
▁Andy
▁collections
▁habits
ี
▁pint
AppCompat
ried
▁Quest
▁Throughout
▁ego
▁organized
ographic
;
▁shadows
▁Four
ired
ivals
▁monument
FIX
жен
oir
▁worry
mask
liver
역
Fall
entes
▁Palest
▁really
▁quando
▁utils
▁unfortunate
源
▁prominent
隐
SHIFT
</
赋
ﬂ
에
olean
<0x11>
▁Prem
',
classes
ließ
▁revel
▁zak
creen
osity
$_
Release
▁mús
rend
];
▁..
▁pool
▁classroom
urations
帐
gart
▁flip
▁équ
cut
ARGS
▁limiting
Pt
reset
erved
Mal
▁butt
▁scholars
▁Palace
▁grabbed
brit
▁shar
鼠
▁FILE
终
▁numbers
VALUE
▁как
▁functions
▁before
▁Tru
why
▁analyzed
umber
▁drift
ROM
▁dign
▁Magn
▁juillet
č
▁eaten
▁Lov
▁packet
▁lanç
Lif
modal
Mgr
▁remarked
LO
wort
ո
▁Egyptian
ow
ath
▁MP
▁Пу
ram
보
ح
▁Bug
ashion
乎
dump
нар
но
avi
▁liberal
antine
нова
▁raising
よ
费
▁pain
▁strength
▁hans
ensional
PECT
ował
▁noch
▁worse
▁regional
innen
▁Robert
▁Mark
\+
▁Too
▁exempl
▁alto
曾
hon
city
▁fighters
ashington
раб
reno
バ
american
▁launched
着
▁Glad
⠄
вый
vis
она
nement
рами
▁yo
▁Param
▁drank
pool
tuple
┬
▁creature
metadata
▁editing
ume
▁Nation
▁Susan
Double
▁sorted
▁urged
▁станов
parse
▁person
column
rific
route
▁tied
状
♥
博
▁hij
상
ército
▁Copy
▁package
uls
▁swo
▁rein
ict
RIGHT
feat
▁!!
Hey
con
▁Nations
▁submitted
▁Trib
▁FBI
▁verl
▁Butter
ustain
entin
▁ranging
▁reserves
edit
▁Plot
iversary
▁Stre
minipage
▁Battle
▁mitt
▁freely
▁ADD
Walk
IDs
▁desperate
ћи
▁ID
▁Jews
▁forecast
msm
Band
每
aus
bc
▁mile
Sprite
▁gifts
▁pedest
ència
▁indication
Bag
▁brush
▁'''
iter
^
imiter
▁th
▁addresses
▁Pract
anza
▁în
像
▁»,
verify
▁femin
▁name
Round
cr
ropy
Please
▁offers
▁Activ
▁incap
<0x52>
cnt
▁Club
▁handler
▁Fair
プ
▁motivation
▁massage
▁ang
▁check
┈
▁Tun
wc
ondon
Watch
elijke
▁Santiago
stra
$:
▁squeez
<
▁capture
視
<0x16>
Delta
Begin
▁Judge
nob
chain
▁спе
▁wore
▁usize
Framework
▁са
ERNAL
▁lawsuit
``
Gate
▁Naj
▁challenged
▁commer
▁login
▁sovere
▁drive
used
▁Julian
▁Core
▁хи
ues
metic
▁pressing
▁restore
▁та
▁ts
pit
фо
ORDER
Topic
▁Oktober
▁listop
▁Pro
▁Crit
<0x75>
▁Find
aligned
명
test
Print
Snapshot
CF
▁sketch
▁trav
ILITY
▁који
赞
úblic
ester
▁stated
protobuf
Asset
▁environment
▁imper
ław
▁Mic
bot
RENT
∞
ұ
幸
▁Ле
▁realizing
rep
▁repository
▁lobby
는
▁origin
▁disagree
IST
▁chant
isco
▁lover
ții
▁nonetheless
▁Сер
DAP
дия
▁obtaining
▁car
▁consist
▁là
 
▁prisoners
IZ
▁were
▁worthy
OwnProperty
▁anten
아
▁societies
WS
leans
holm
▁IF
▁soup
Stream
yster
ट
▁Insurance
CLO
▁fold
▁staff
▁his
til
▁ба
▁Он
▁buyers
nak
mys
hund
▁COMP
▁seized
▁medical
▁prev
});
▁comparison
ytics
ghai
rys
▁thro
▁zona
something
OL
ម
執
▁training
max
▁closely
음
▁respond
ad
▁zusammen
▁respective
ization
]=
<0xC2>
iesz
istributions
▁machinery
其
abases
▁affection
CONTROL
шения
▁legisl
▁má
▁â
ior
ania
▁uniqu
▁Mont
ByComparator
▁href
****************
▁Castle
▁parked
ặ
irtual
}}{
▁everywhere
▁causing
GC
ushed
▁remem
,
▁Sequ
ensors
est
▁Marshall
▁peripher
醒
▁Saturday
naissance
▁add
▁advoc
ত
icients
plugins
ğ
netdev
▁Ori
▁invention
far
ollow
]<
므
aca
▁intu
▁preced
▁menos
Primitive
▁submar
itty
▁terror
leased
(!
Hom
▁shelf
bold
▁Neither
vv
▁port
icted
▁gepubliceerd
▁vintage
᥀
Go
enumerate
','
aged
::$
дан
▁fourteen
alin
▁biological
fe
▁State
jj
co
▁dominated
ascade
▁Johnson
-)
tre
▁minute
unwrap
Without
****
ме
▁mock
aines
▁Rights
▁expos
▁són
▁secret
▁.
▁Kir
ő
▁pip
▁'
field
▁criticism
▁gehör
▁gele
蓝
▁consid
▁reminded
▁valued
conduct
▁First
▁commitment
rière
▁workspace
mul
象
▁Fifth
icons
conc
▁toString
▁Uncle
ibr
▁Ан
▁elim
Det
month
▁Ort
▁o
via
▁terr
▁decisions
mand
tem

âteau
▁assets
ма
▁Therefore
▁B
▁sucks
ству
▁Instagram
ances
▁$$
▁Ann
tex
details
▁Sergeant
ви
Values
집
▁CL
STEM
▁Dorf
▁Level
▁Alice
▁concl
▁Sing
▁murm
FW
▁Lic
ELD
ά
군
bury
▁has
▁Jr
˙
Comb
关
▁Vien
ɵ
ination
union
へ
▁sta
▁":
▁russ
TRAN
▁Rule
▁reconstruction
ida
blob
SK
.:
USB
查
▁silk
▁acceler
();
▁mach
▁sophistic
▁Educ
ográ
▁legend
▁welcome
anos
ậ
ð
ustral
▁genius
▁epic
▁diagram
▁survived
▁orb
uma
招
ultane
Texture
▁(((
AD
tee
licher
▁touching
qt
arest
histoire
▁Mend
특
▁officially
▁hint
▁partido
ṇ
▁Sebast
▁Nort
▁Stad
▁población
shot
▁crowd
type
▁moon
ante
obe
▁где
▁deport
¹
faces
ALIGN
▁Java
▁raise
▁Suddenly
HEADER
▁pre
▁dug
itos
opher
▁junio
▁Contribut
uzz
機
prises
IMIT
%.
▁spraw
ouse
▁solutions
^{(
▁asp
бор
clone
uent
PDF
network
ого
默
verter
资
😡
Memory
▁cabin
▁loyal
▁compar
▁contribution
▁l
▁dieser
▁friendship
▁URI
▁appreci
▁sim
ム
tv
pkg
>',
▁fired
▁Forum
▁Thailand
▁expects
reek
idade
Ο
▁guilty
ClickListener
Cell
ey
访
▁aging
▁large
▁Wahl
數
门
▁Care
▁mount
▁sixty
k
▁realize
❌
äs
▁nin
filters
▁liability
▁decimal
omy
piece
▁precision
ansas
Aud
▁worries
▁две
▁Elle
▁emotionally
▁mismo
lections
sea
▁AV
▁bull
▁Henri
▁creep
TDM
▁activity
气
сите
▁hill
▁resource
啟
ename
▁из
▁Indones
▁venne
unity
i
▁Bür
ynam
ION
▁ideas
▁ay
▁lecture
▁Dis
äß
▁deze
▁Joan
տ
▁HashMap
JO
▁captured
▁Bibli
ન
▁doc
ancer
▁Square
메
▁Ship
▁Take
OP
Configuration
▁olive
형
adem
achen
你
ured
eq
▁Three
▁hö
Load
lar
▁"
▁agency
崎
Cat
MSG
rict
▁calcul
▁горо
▁investing
_**
uck
შ
вав
▁{})
fr
觉
遍
▁час
native
тия
energy
Lower
ERE
Lean
▁email
ORM
▁revealed
▁retained
▁Ax
▁із
▁hat
포
Inner
Part
sbi
▁саве
▁absurd
iku
rt
▁aligned
Ö
커
є
▁max
▁consecutive
DED
▁Бе
▁acknowled
)',
location
ês
▁EVENT
▁relaxed
powered
ulations
▁lost
<0x46>
<0xCE>
™
DOWN
▁segments
▁diz
odes
串
▁cab
β
airs
प
▁SSL
▁pod
▁Never
▁dining
▁Hal
▁Bild
▁copper
▁regularly
另
▁Cover
calendar
补
щу
▁Multi
🤣
▁Sea
gener
▁concentr
itals
Mr
Editor
ird
ardo
▁Hen
▁Link
CTX
▁fusion
Te
▁characterized
▁LA
ం
▁poor
▁Ke
iser
▁desired
▁nation
▁toggle
▁Fol
▁▁▁▁▁

Symbol
ure
pler
Ḩ
jas
▁Bit
↔
▁tries
vik
最
Serialize
▁attitudes
▁['
ograph
win
▁themes
▁finished
uda
▁priorities
▁elevator
жда
arga
жде
▁dies
결
▁bree
Per
達
rc
нів
ENABLE
America
▁Department
Droid
claimed
▁Bennett
Helper
▁deliberately
▁speakers
▁Apply
тери
istic
▁count
complex
げ
▁incl
scope
▁Crim
단
|^
▁treating
▁</
▁servants
▁sunlight
▁tête
crim
▁decom
▁dens
▁saved
▁settlement
▁Sex
Address
%%%%%%%%
▁pros
▁communicate
ण
▁Jen
lation
▁expedition
▁provided
清
▁small
▁compete
▁announced
▁turn
▁least
PRO
кого
GT
▁kingdom
WID
▁Neg
ursday
▁tribe
か
▁improvement
Back
wallet
₁
▁hope
ischen
▁just
▁handle
Light
▁enforce
▁credits
asci
▁bridge
=\
▁constant
iendo
▁diamond
führ
▁Soph
sor
▁stations
▁vacation
▁primitive
爾
ے
福
▁och
▁presents
▁Appe
agues
템
Ed
Find
▁Layout
▁nowhere
xD
ု
▁Glas

▁identifying
Profile
▁Ly
▁то
▁civilian
程
east
iddle
entries
▁ib
▁Cohen
▁Theod
-
▁multiple
▁haul
▁devil
oin
ishes
lo
acher
▁capac
▁Ya
atten
▁clan
튼
▁Orts
ę
▁tactics
农
編
▁nobody
▁eliminated
Invalid
▁dating
▁lég
▁Viet
▁Bur
▁regardless
▁also
"""
ј
FR
Interface
▁babies
Du
▁stupid
▁Bei
▁Car
Reflection
▁п
▁underground
▁Opera
wind
][
▁gods
eur
▁driv
aniu
▁High
blk
âte
<0x19>
▁religious
‹
斯
▁pur
ili
▁accommod
▁fat
▁marker
▁WA
闲
ٔ
Redirect
asper
▁loading
▁fans
uni
▁graz
რ
长
▁spent
Results
poser
새
观
▁высо
kern
hp
proof
დ
▁wyst
ules
cean
aid
те
▁jun
▁ор
▁intervals
▁Hindu
arius
ya
▁ainsi
▁Nap
LEFT
▁galaxy
▁свои
take
跳
socket
▁decided
▁boats
▁Jerry
▁conn
有
ingen
👏
▁representatives
amo
▁examination
▁haz
▁że
<0x48>
CI
UX
ways
▁cheap
▁buyer
▁nightmare
▁Win
պ
ier
▁But
includegraphics
▁Enum
▁owned
omega
▁wives
▁fade
"`
▁ere
ig
natural
▁quarter
і
齐
▁rim
▁prolong
itution
Υ
▁época
apolis
▁night
▁Econom
▁strengths
▁Phil
"]
Ang
aggi
▁Kennedy
oice
pected
▁happen
porte
enders
DITION
▁Ohio
elve
onal
show
False
▁transition
▁competing
灰
ght
cards
▁Wood
▁earn
▁independently
威
pid
lg
▁Kam
▁сто
hex
▁"--
▁Alliance
つ
рен
▁ya
항
ados
li
And
▁client
ей
▁BAS
▁но
İ
▁apps
▁vibr
▁учи
▁risks
aju
idential
ush
▁Anders
FAULT
▁Ros
测
▁ranks
▁miserable
▁assh
▁Appro
Promise
▁depressed
iture
▁Pars
▁VAL
Mont
▁пів
Live
▁neither
▁Louisiana
Sensor
▁dre
<0xF3>
](
fish
ribut
室
▁having
▁Connection

才
호
▁platform
ku
▁willing
anny
▁agosto
▁Physical
▁Racing
▁significance
uing
▁ví
訊
▁€
▁committee
cheduler
cre
▁tips
raj
▁Switzerland
▁Donald
▁Pé
▁greed
ately
▁була
▁PDF
▁peak
▁React
▁ak
▁Ta
▁Che
▁Entry
Sun
links
▁проце
den
gor
▁clear
margin
jal
ously
unch
▁left
▁Prof
▁NULL
ment
&&
Who
mers
rotate
▁insist
While

▁Protection
▁Record
isArray
▁Vent
cept
aud
vé
oses
ANG
iem
ping
▁слу
▁IOException
ų
▁award
zen
▁ji
Event
raft
CTION
ovie
▁casual
方
uffed
▁Bach
▁storage
ზ
arse
▁comme
');
▁reput
͡
▁track
▁alleg
르
Vis
今
▁ни
▁Through
▁seal
iterr
释
PT
astern
均
▁favorite
▁Nr
▁Culture
▁str
▁Jones
dings
▁?></
cred
oden
차
격
▁Power
静
▁p
het
бря
▁autom
omi
oka
ks
Ad
larg
▁Indonesia
€
▁master
LOCK
resa
ulent
▁José
RT
▁('

▁publisher
ten
idad
▁mur
lov
▁Berlin
▁at
扩
▁opens
ί
ext
set
▁beneath
ges
lem
▁meaningful
▁Below
▁inspir
CAN
▁formation
▁Sid
COMM
▁confer
ilt
เ
ṃ
▁forgotten
び
Most
▁Philippines
ções
▁би
▁context
previous
▁stor
-$
eso
▁Chi
▁Welcome
on
items
Use
▁erh
▁safely
setminus
Bo
ateur
▁Ivan
moment
iable
▁hav
<0xE3>
ek
pkt
▁intensity
▁video
宗
_-
▁maximum
esso
":
▁device
ND
LAN
▁Maur
▁Street
)^{-
<0xE2>
▁reasons
ży
ji
und
char
▁Es
Term
▁Agency
▁reform
▁Му
▁gruppo
▁ACT
CPU
▁phys
aque
lit
▁teas
Idx
ど
äft
▁Haupt
ド
Empty
医
par
▁Buch
<0xDC>
▁issues
▁happens
▁​
▁explored
ige
▁longer
hör
emetery
▁diam
▁района
itte
job
^{+
тов
Gr
▁COP
▁proces
▁web
Errorf
!\!\
му
它
El
дів
Bean
▁assembly
▁attempt
▁Del
▁weit
▁JO
▁SL
▁alias
xfe
▁authority
▁garden
▁Little
▁vulner
▁judge
▁pipe
▁Json
DECL
▁distribution
▁Keith
ieurs
RE
ються
boolean
▁pitch
勇
▁shame
民
▁occ
URN
▁släktet
ahn
▁Aug
▁harder
tti
mo
造
Opts
mas
▁entire
direction
oport
▁cmd
▁trains
▁Влади
▁near
▁Jason
nel
▁When
▁definit
▁Glass
▁annoying
▁-\
Obj
▁comprehens
▁Inside
▁hf
▁Malays
ARE
▁condem
sis
▁hockey
Џ
▁Peace
Nodes
▁Cloud
炮
They
ismiss
▁aut
▁Ana
▁transparent
▁shadow
▁manufacturer
successful
▁immigr
▁digging
around
gue
▁månaden
破
>".
클
▁jer
Parallel
iore
▁embod
ton
▁disappointment
ById
attice
Ш
ّ
ié
▁foot
sy
▁Pier
Mag
че
刷
som
ский
▁museum
Func
▁Picture
▁conviction
▁systematic
_;
▁Drop
▁Help
[<
<0x7F>
▁Night
▁affirm
▁Grand
▁durch
▁Т
Pl
pdata
WC
flex
▁Harr
Û
erre
▁Holy
вши
▁fert
ual
▁honest
▁concerns
fil
▁expanding
▁Poly
▁Tamb
.“
ше
▁year
▁bog
NotNull
▁мат
▁pdf
▁>
▁/******/
alias
ítulo
client
▁talked
orem
▁Theatre
exist
또
▁Bl
iß
визи
pay
点
Oper
▁Ein
zech
▁Friends
))
▁anal
边
▁mission
five
▁zn
вест
EXIT
We
▁recher
▁offered
▁phot
ings
▁Amazon
}_{
▁board
▁sorry
▁requirement
▁Ever
▁idle
▁Mc
uffs
▁sixteen
▁ges
▁AND
▁week
삭
▁effective
inder
▁уби
변
余
arning
▁Jess
▁Brigade
▁supplies
▁mate
▁Can
▁Loc
omorph
EqualTo
SL
▁warn
▁cuatro
▁Ni
ULAR
▁Try
▁Marcus
NON
っ
▁crow
icro
ény
ไ
ervices
Raw
▁absent
▁arguments
▁Au
▁bras

▁Arts
,$
▁um
▁conflic
▁guide
▁ignorance
黑
▁февраля
ams
GTH
▁ż
▁Resource
▁дека
мет
ģ
Process
lb
▁who
▁Og
▁always
getAttribute
▁Wow
▁merch
▁descriptions
▁Co
▁Hunter
▁TIME
▁TCP
prepare
▁Python
▁Teil
▁surround
▁defeated
▁breeze
▪
▁Refer
▁blind
▁gear
temp
▁Насе
▁dollars
▁mob
apshot
nels
Optional
▁tob
oup
▁Spe
▁HAL
ateful
▁pilots
🏻
ર
▁Frank
ția
with
ności
?;
ケ
▁Hist
▁impro
tn
▁ге
单
ucc
gain
TT
relation
Rel
▁ar
▁PS
pro
parameter
ibt
ones
omer
▁beautifully
▁ambitious
DL
emperature
介
🙃
=*/
bird
▁deg
▁llam
显
innerHTML
電
▁sides
毁
▁org
Exp
이
ній
▁Bronnen
▁elections
▁written
▁chunk
▁тер
▁technology
ɑ
istry
wo
obal
▁AP
▁info
▁solved
ниш
▁pushing
გ
ถ
ails
___
task
▁Michel
▁removing
▁kole
▁Token
Linear
Parent
iembre
論
▁hoof
▁Files
independ
▁vin
raham
тем
▁fitted
зна
eqnarray
ierung
CE
Cancel
▁decay
▁Dark
owners
听
FX
look
▁Store
ńst
▁los
As
ked
▁cosm
IMP
▁damp
random
▁Constant
▁dimin
bone
ész
anje
▁syntax
Before
▁producer
▁zone
erves
<0x71>
▁court
▁Records
▁controlled
ben
Could
▁entstand
Α
▁speech
▁fix
ски
igen
eva
▁неско
▁half
neys
ición
▁climate
▁circles
▁sexy
당
ែ
ق
onia
▁‘
▁walks
Signature
models
▁stands
▁ful
▁Nicholas
atre
eter
▁lied
ho
▁susp
ститу
шим
▁Optim
▁expand
▁опера
▁chim
▁Am
▁expansion
пера
icket
.~(\
▁sorts
▁between
▁fa
▁Johann
Short
auch
▁Arena
▁voegen
ener
ioni
),
▁sow
falls
iken
▁amplitude
TOM
▁Kont
itness
决
ITER
莉
Game
Modified
ott
lected
▁attitude
▁genus
▁memo
▁positioned
me
вия
inian
▁lightning
aste
!'
jer
▁plt
▁MR
▁agreements
▁established
▁EC
▁pieces
▁mixed
▁skulle
opath
▁вели
LIMIT
Mount
▁alone
fé
▁touch
▁Dry
▁Us
▁Whenever
Annotation
▁ra
▁Mediterranean
⭐
Listener
▁grows
⇽
▁Mart
ators
▁Nep
▁nort
▁б
ounds
▁nights
\}
▁Facebook
auc
storm
REC
F
▁Buffer
cker
olare
▁WC
▁kennis
Js
▁SPE
reat
▁medium
Display
ۆ
▁forgive
WF
isted
кой
BI
▁handed
▁Communications
↗
▁Cit
▁Venez
▁Та
▁cage
ಿ
▁Sarah
▁Argument
좋
sten
▁fac
CHANT
▁provisions
🥰
▁treatment
▁standard
▁Wisconsin
ctx
neg
▁dear
▁slice
▁Focus
▁packets
<0xB2>
▁Microsoft
萨
▁Ти
('./
▁Observ
▁cells
▁Mom
ICATION
▁some
beck
▁lying
train
▁Mig
▁coord
Dist
stride
er
VR
▁comparing
良
▁mog
▁heads
▁Wo
▁McC
Pag
▁hosted
ческие
▁veh
▁wy
▁again
親
▁Fle
√
uen
▁Sw
вер
▁whom
▁temperatures
▁drawing
▁Martin
dru
ம
▁composite
野
▁Either
권
▁bore
extensions
▁Tra
BF
▁ub
销
ile
ivamente
▁frustrated
▁Develop
▁tx
STRU
▁hy
compar
庫
▁California
aren
▁felt
il
ೆ
▁occurred
coll
▁explo
▁террито
型
▁be
▁irre
Material
pull
▁National
▁healing
足
▁fragment
ees
▁familiar
ième
▁chaos
▁tackle
▁he
ји
▁CV
Parameter
;&
▁therap
▁theories
▁incluy
▁chips
('<
osoph
▁caus
▁offices
▁byla
NEXT
$)
Map
▁Ep
▁Conservative
α
▁tongue
atomic
="#
do
etary
变
pse
▁digital
▁sounds
itori
metry
▁farmers
▁detected
usions
Cir
arent
pshire
SSL
?>
стру
ving
▁bal
陽
▁elsewhere
econom
▁murdered
ighed
▁Transport
▁realiz
▁lifted
rike
▁ore
▁connecting
▁Para
][<
canvas
▁sizeof
autre
čen
▁renamed
▁due
▁Lind
▁barrel
▁firms
tered
▁philosoph
▁received
▁Ci
잘
Last
았
特
:\
ê
▁Cad
Every
▁thermal
▁vu
▁été
▁LIMIT
FIG
{},
getId
▁utiliz
itzerland
▁sar
important
Ð
▁mess
чения
hadoop
▁lunch
INGS
does
직
<0x43>
collapse
psilon
▁Define
▁damages
▁detector
▁messages
▁Bern
▁afraid
▁England
Distance
▁Raw
Life
▁translation
:*
FRA
▁©
BOOL
uction
▁years
▁hasn
▁anchor
▁aster
inte
▁Pr
▁Var
token
▁Brend
▁Diamond
чно
asets
ղ
▁caracter
▁magical
▁mayo
▁Psy
▁ski
engono
▁controls
▁sin
elijk
▁Din
Frame
UBLE
▁randomly
ژ
▁unhappy
佐
restore
▁furono
}$
Radio
lagen
▁benef
ählt
▁Stanford
▁Best
LIST
▁cogn
▁pine
umed
▁Alex
▁kidn
≯
став
ux
▁restaurants
▁patterns
▁struck
▁против
<0x91>
▁unit
touch
ơ
质
ქ
▁pictures
▁Classic
▁cup
▁gar
▁représent
mer
”
Failed
PLAY
▁final
'",
▁sought
▁Y
▁organization
());
rupted
▁Benjamin
▁sett
kernel
▁cc
Html
MG
pgf
▁ever
▁famil
skb
▁terms
▁requires
amp
▁sighed
▁Excell
FLAG
degree
cule
▁Serge
trained
ż
ท
▁vict
▁habitat
RI
ror
▁raised
tim
isión
精
▁sehr
adv
istically
èse
▁teeth
▁founded
▁sv
▁Canad
▁gradually
User
▁simple
▁conclusion
**.
▁vs
▁developing
資
▁Insert
▁ctx
🟢
常
Built
▁Arkansas
jo
ylan
agr
Listeners
▁Harold
People
nc
▁Mal
st
▁literary
▁seen
▁Egypt
ют
复
▁G
▁taking
▁акаде
ER
Impl
▁Vi
♯
Widget
▁sometime
ны
omorphism
▁hydro
▁checked
riors
▁dishes
ONLY
▁ignoring
стави
fund
▁brace
▁runner
create
cont
▁in
://
▁getting
ota
▁venue
▁febbraio
▁arrested
स
▁Tod
▁Vis
▁bout
run
isms
略
▁DA
stead
chten
▁good
▁entrance
pul
remove
▁limitations
▁competitive
▁Integr
endpoint
Updated
▁Often
▁Load
Edit
▁mot
зан
rh
Metrics
▁Bruno
NotFound
▁Kor
console
▁OR
態
▁rapp
ensed
▁will
▁intimate
▁witnessed
rence
▁modifications
μ
▁wondering
▁Sic
omp
google
▁Alabama
▁parte
▁forgot
▁morte
▁Trans
▁REG
fers
▁verification
ponse
▁bro
▁gather
arks
++++
▁selbst
▁provincial
ldots
▁oil
▁supported
▁Captain
TV
ByName
▁Didn
kk
enburg
▁promises
zá
▁Reference
▁kun
phone
IBUT
▁silence
▁Make
ierno
.*;
▁deserves
▁mat
лись
▁Out
▁roles
bro
▁modal
wide
▁Armen
Div
▁asset
ём
를
obile
▁radial
▁Einwohner
isure
▁hips
Look
opes
▁dal
▁vehicles
▁midst
▁owners
倍
▁brew
<0x4B>
▁contracts
▁padre
▁IBM
posal
ann
▁South
▁technological
▁topic
<0xD0>
amazonaws
<0xBA>
▁перио
▁début
▁conducting
▁hostile
ল
典
▁func
▁Live
▁listening
▓
ту
▁mouth
▁Syria
▁honestly
tbody
▁dessen
級
▁declared
▁provoc
ство
▁Philippe
▁recru
rows
response
▁zwischen
inet
overlay
▁corridor
▁farm
▁IO
itaire
insula

▁soul
mania
tc
▁typedef
▁jaar
▁wr
▁Penn
▁DATA
iseconds
seh
rors
▁cad
fig
ό
▁profile
RES
elta
irty
▁legitimate
}(\
▁sister

Zoom
ᴜ
▁beings
äm
ini
▁Wes
▁Notice
▁returning
ስ
exports
▁loving
‭
▁Khan
▁fatal
可
▁infected
ช
▁Orth
▁decis
країн
👉
軍
察
gas
▁noten
▁Geschichte
▁Steve
▁dummy
eln
rodu
▁enough
▁vault
▁roads
ae
MARK
集
▁grab
▁trick
▁ghost
▁constitutional
iated
▁wheel
▁praise
▁taxi
▁significantly
▁forma
("-
ATOR
nm
▁normal
phan
fee
▁può
▁verse
izarre
▁Time
▁danger
DC
▁slammed
rot
▁prepared
▁dive
ines
▁fileName
▁Father
brew
宣
put
vol
▁spreading
spec
atori
▁impacts
至
Unit
▁fuer
▁dei
[[
respon
iest
▁dram
▁teles
Using
▁fit
Constructor
▁Controller
▁important
sem
<0xD9>
▁
▁spectrum
▁lab
anna
▁Sweden
▁indirect
....
idget
▁accomplished
▁фран
류
寸
áj
▁concentrated
寶
Methods
pository
Touch
Put
chart
itat
TIMEOUT
▁circ
▁veloc
зно
Les
▁é
▁Valley
▁Atlantic
▁brilliant
Phone
▁bas
esk
▁educational
ías
▁Fuck
long
sqrt
▁Flow
荐
▁Kay
▁ents
될
endant
▁sql
ign
▁се
▁ма
▁URL
▁eer
▁surrounding
▁spatial
onces
▁linked
▁Sylv
ulate
igu
▁electrical
gi
▁Industrial
付
▁medi
▁bald
▁Marvel
▁exit
ង
声
tri
<0xFE>
▁aggreg
▁extended
Sender
▁processor
.
▁mapping
pet
▁racial
nde
▁pré
мов
Hot
과
▁soil
ributes
Protocol
lab
临
▁already
▁credit
▁Reed
Cpp
──
선
</s>
▁Chinese
▁finding
▁franchise
icion
ủ
ems
間
prim
uit
>?[<
▁assignment
▁aur
êt
▁cleared
▁Due
▁sprint
▁builds
▁handy
▁doctrine
overy
▁swimming
)}
TRA
ną
▁Menschen
transl
mathfrak
ference
bers
▁Collins
sequently
ierten
▁bell
ogan
业
▁int
)"
▁BM
▁eleg
E
oco
Buf
}{\
plica
▁guaranteed
UC
杀
▁neighb
kim
HIGH
I
▁substant
▁couch
ẓ
▁Budd
pragma
che
冷
▁conspiracy
族
▁Better
▁debate
▁deliver
ista
▁mundo
roud
▁estim
▁char
uid
iber
**)
MAN
▁diagnosed
▁(!(
▁active
▁Aut
▁city
▁pairs
button
яви
▁County
▁ML
▁coup
▁Wars
師
▁try
▁Staats
▁Jeremy
rios
▁A
contin
тя
▁stairs
▁lighting
▁MY
▁innovative
xim
²
per
astr
▁units
▁IV
▁Soul
▁incident
xffff
Oh
▁invest
▁COPYRIGHT
▁too
iones
mina
▁Canadian
▁dire
▁Austral
▁Young
▁Го
supported
▁nov
▁Rol
ผ
▁synt
▁nebo
+
▁son
▁Dig
▁Princess
▁EDIT
javax
dev
actions
▁Labour
▁universities
idae
▁observe
тур
ří
trace
Clone
▁tf
▁noting
決
▁',
eah
▁ві
льта
glich
▁'./
▁NT
▁freedom
mult
flix
▁Die
ữ
ge
▁aan
▁Arc
Retry
▁consult
▁inches
퍼
止
▁beautiful
副
asion
▁USD
▁polít
▁fluct
袁
summary
7
ensus
source
reply
▁tea
lte
▁mour
ández
▁вій
false
▁Cam
Dat
▁challenge
hire
▁Enc
▁города
Mapping
ved
▁affiliate
rolog
▁defensive
▁swim
灵
▁discuss
▁starting
▁От
没
▁involving
ін
▁convenience
<0x22>
▁стал
Std
utat
洋
步
▁responding
uv
going
▁saint
ческой
ßen
component
▁también
likely
Panel
▁miser
▁leaf
HTTP
▁only
▁brut
getC
<0xB4>
________________
lik
▁Mo
গ
▁adoption
▁War
ِ
inging
람
▁investigated
mathbb
eclipse
權
Pse
indent
▁Га
▁rev
Enumer
na
itle
▁Wild
entr
pty
▁resist
쪽
▁quar
▁secured
authorized
▁avant
▁lev
▁nearby
▁atr
▁Lad
爱
▁otras
▁osc
▁Pitt
▁est
▁door
▁lucky
prov
▁NGC
<0xE9>
森
*),
▁hass
ಂ
)((
▁Running
riter
IG
raction
ició
ಮ
▁decor
▁також
cido
ʃ
edges
▁True
Model
}}(
ede
▁ambig
idd
э
ibe
xp
▁coffee
▁brow
ヒ
AA
▁Ing
≠
Xml
要
圖
amma
▁PO
▁woj
arg
arto
▁away
ilty
▁import
▁tree
пла
<0x1F>
▁todos
ographical
▁facts
mark
duc
branch
▁commercial
né
▁Ali
▁approx
▁Circle
▁application
▁carried
вид
dim
alls
▁dance
ishi
inale
tl
▁throws
oti
ural
ocz
▁roman
▁Jerusalem
突
▁professionals
▁dialog
▁Represent
vy
▁guy
(),
▁boxes
割
Action
dule
enso
subfigure
REG
berry
ossip
▁united
▁assum
导
ִ
▁DIS
▁Ви
▁trib
▁Domin
него
dern
куп
dh
undred
필
▁cruise
▁PER
▁sports
▁smelled
▁Ту
▁appe
mitt
ederbörd
any
▁read
Root
FLAGS
▁slavery
appropri
keep
▁radio
ucket
ingle
▁stunning
nan
港
Task
score
ULE
▁break
▁secondary
▁/**
▁equivalent
링
▁wounded
breaking
▁map
▁recip
▁expressions
тен
orter
▁extremely
▁Asian
Am
▁Especially
▁zur
▁instant
▁Lap
▁iss
Heap
▁produce
PTR
gling
ACTION
Love
▁traject
dr
▁décembre
gru
▁laughter
▁deploy
unic
据
帮
▁losing
Pipeline
dy
▁scattering
′
ís
▁jazz
▁typ
▁sl
▁Dise
▁Parker
▁male
Flags
atic
▁games
compiler
▁greatest
▁Em
▁proof
println
▁points
DEX
▁фев
▁designed
ande
▁Wednesday
ck
▁dtype
bler
▁practice
Bitmap
▁Marketing
ienne
励
lease
></

▁photographs
chts
▁seated
▁further
eree
▁кни
藏
😀
▁mark
primary
ike
▁cours
▁Haus
amerikan
▁}\
owned
▁tonight
!)
▁Ibid
nder
▁classes
<0xAA>
划
與
use
▁wyn
▁effort
▁extrem
▁ikke
<0xD4>
lie
▁ner
imal
тие
블
aton
▁Hob
SD
▁Lan
▁Imagine
▁Rang
▁sich
▁weekend
▁imag
▁groom
▁Notes
Camp
▁supposed
요
фика
▁eines
▁facilitate
▁Rad
▁clicking
sup
▁Options
ielt
Absolute
ን
▁nacional
рь
Void
▁Log
▁andra
×
H
lich
▁Phoenix
das
Under
望
▁No
▁"./
isha
===
▁outdoor
PS
하
Indices
omsnitt
agers
less
Execut
▁annually
▁Magic
▁spoon
Layout
Pe
▁Construct
▁Prim
emás
▁Monte
bd
angers
grp
🌍
▁sites
ố
▁negl
},
версите
anth
▁begin
ample
提
▁const
ข
▁nil
redirect
ほ
J
▁targeted
▁rehe
▁believe
▁Complete
▁borders
weet
Card
▁According
Descriptor
лок
▁nur
五
岛
кар
AGE
comment
▁unf
▁Manchester
▁components
▁technologies
▁settembre
▁kör
PROP
rund
▁grud
▁influence
사
▁inwon
te
▁Later
atique
Family
ព
}&
PG
▁relax
atch
▁scope
Χ
Guid
plex
RGB
fall
▁crypt
▁Kelly
ходи
▁reprezent
anya
Complex
▁sympathy
▁strongest
▁Mas
rowning
▁einem
ela
▁emission
å
̞
▁Î
iant
spin
Inter
▁'\
▁deserve
cols
▁tremendous
Order
<0x7A>
▁serves
<0x2D>
▁Sar
▁${\
▁WAR
▁attracted
кто
Σ
Mil
▁rout
▁angry
▁Sout
▁diagnosis
itz
▁которы
insic
მ
ould
een
▁precisely
EY
schen
▁ability
▁Marian
estyle
▁aux
▁dial
▁t
Ir
")
regs
frag
▁Mens
▁complaints
strip
(['
▁blanc
election
Prov
时
佳
▁limits
気
acent
▁ist
же
▁sport
kind
▁traded
▁тор
▁allow
行
umph
ither
▁Hudson
▁Lor
▁Field
ا
fn
▁Matt
enen
fter
ák
anch
iero
▁did
▁Joh
▁Category
ι
under
▁mathemat
▁def
▁indoor
лази
▁Revolution
▁pilot
▁Object
▁trace
▁-=
into
▁Cour
scriptions
▁come
▁posted
ら
▁nicht
诉
atoes
Arguments
rsp
▁voice
▁February
Params
lemma
itä
▁via
ры
peed
Language
▁Duke
шти
属
ialize
▁Cond
▁lady
▁IR
igan
▁Highway
▁meille
ugin
orer
▁strengthen
▁leaning
rost
itating
▁ent
Curve
▁suddenly
express
ibli
▁Lebens
izz
▁San
ols
т
ブ
▁uz
Upload
Pending
UK
▁descent
Ζ
▁stru
ancy
VC
▁Politics
mut
obj
General
▁crim
atting
▁fot
▁knees
▁amongst
▁rose
intage
▁crew
wiki
▁decision
▁noble
▁schemes
ч
學
▁В
▁sent
▁pulls
▁bush
ще
dist
▁cyl
▁Douglas
▁juice
▁Dans
▁singles
奇
▁stuffed
orest
ède
▁immer
>();
▁aesthetic
▁FA
▁nep
▁possibilities
▁physical
▁safer
rai
astically
DESCRIP
environ
ating
шей
▁del
minecraft

▁binary
cent
picture
▁dreams
▁flows
Horizontal
▁reasonably
act
Initialized
Selected
▁Buenos
Center
▁arte
▁Month
<0x66>
▁Commit
▁Pass
▁isn
▁imposed
AspNetCore
▁crown
...
ٱ
還
▁&&
osti
jen
Contin
Vert
▁Sir
▁sole
▁sera
▁reson
'=>'
▁recon
▁agre
▁Doc
▁Console
▁mobile
track
▁Got
▁variations
ross
▁occurs
фе
ско
▁il
▁done
Thread
aats
▁provinc
▁implementation
reflect
▁liberty
hero
▁Sch
▁must
▁situation
▁packed
ി
ican
▁addressed
▁last
▁cars
▁Sé
▁Victorian
▁cloth
▁rank
▁ле
COL
▁democr
,,,,
▁schedul
▁Schul
▁ne
estamp
rayed
sched
student
hemal
년
ema
▁upset
一
eyed
▁YOUR
kw
zeug
Rad
cks
soap
▁Mix
▁appel
нови
пер
)>
Worker
▁meg
pages
apple
министратив
▁overlook
▁область
▁despite
▁▁▁▁▁▁▁▁▁▁▁▁
fif
▁backwards
▁cust
▁[-
▁Mass
▁monthly
▁Join
▁masses
asons
тельно
Blue
색
▁post
▁Sue
⋅
ri
œ
▁Tai
▁kg
▁monaster
▁coefficient
▁Ges
]:
ষ
▁attached
mf
say
▁magazine
▁сте
notice
ت
▁uncertain
Tra
ilen
▁prov
<0xE4>
▁Poor
SELECT
▁э
▁publication
Requests
▁purchases
escape
Collections
jek
STRING
]);
▁renown
▁personal
▁Study
min
otive
ences
ancers
riend
▁Ar
▁Woods
lu

▁poet
ల
сь
bottom
▁Version
▁Top
▁Tokyo
Par
▁Published
▁Additional
Roll
▁calci
ADC
▁Brook
Padding
▁effectiveness
▁theft
▁greatly
gency
AW
▁applicable
ób
tract
▁healthy
▁trail
swer
amin
▁Release
exc
▁tunn
▁Config
ден
pson
,{\
getCurrent
ówn
▁Bund
▁smiling
▁había
сков
▁warranty
▁respect
L
▁Buck
UV
▁proportion
첫
▁attorney
▁кор
LECT
▁path
▁oppos
ем
▁unm
▁Jon
填
ව
▁Energy
▁fine
▁hyper
▁ved
browser
反
▁aims
▁output
ului
▁button
▁также
printStackTrace
Sequ
STR
WAR
▁Editor
utsche
▁highlight
주
յ
ʹ
▁strategic
考
▁inch
poch
▁vá
chaft
▁smooth
▁industrial
figure
▁язы
▁contribut
еред
RANGE
AU
estro
▁Sym
▁columns
stylesheet
▁Como
▁spring
奥
HE
▁u
Ḥ
issenschaft
Appearance
▁tro
▁GPU
сть
न
byte
宁
▁lovely
dire
Implement
▁defence
仅
ract
▁Cash
are
TLS
};
▁kw
▁Roh
vern
▁bird
Su
▁which
▁autres
🙄
toString
▁Free
mathbf
xd
▁management
Getter
▁opened
▁bulk
▁increment
pn
▁repl
DAT
нах
▁egg
际
棋
▁develop
▁cheaper
More
ifndef
ok
ฆ
▁$.
▁SW
▁результа
▁Barbara
▁Gray
cken
▁später
ogy
▁Louise
▁ensuite
▁adjacent
▁echo
▁актив
CL
antic
▁Brist
セ
дом
engu
zt
ools
▁Pack
ি
▁Simple
ban
fd
isan
know
退
Case
ח
сто
▁south
▁tre
▁liked
Mass
▁WARRANTY
▁kings
▁nit
▁roots
▁payments
uten
▁treated
raw
▁decrease
icional
▁Character
arth
tags
▁:)
▁^
eben
▁suc
▁lang
▁round
▁Burn
sender
▁Context
从
▁CP
▁doesn
▁MOD
]
пол
▁causa
▁m
▁Namen
▁litt
net
cle
▁Ny
INFO
▁Bos
:%
dirname
▁OK
ferences
Shared
▁ov
configuration
[],
WW
Preview
▁Stefan
NONE
▁годах
▁które
Name
со
▁wet
▁facilities
▁consume
ा
▁Own
▁summer
▁kam
▁affairs
▁Chem
▁Inc
▁life
▁Down
▁Collections
Ã
▸
SHA
▁poison
itutional
Я
іб
▁glow
server
▁familjen
▁funds
▁nearly
▁Finland
▁pursuit
▁Esta
▁look
owner
域
▁season
lemagne
▁intent
apter
properties
mc
▁Sandy
▁intended

▁candidate
▁crying
enario
▁aunque
ny
▁deren
▁stead
URI
▁foods
▁portions
▁statt
▁meta
станов
▁pode
假
скую
лення
▁Suz
рів
▁influ
▁until
▁parallel
个
ijo
gd
▁Fig
ظ
古
]\
>,
▁thereby
▁handsome
iante
ды
宇
▁Hann
Permissions
tml
▁cel
xygen
[]
Hub
▁Museum
tto
▁Familie
adelph
±
▁Peg
rass
rale
ография
oad
▁ла
driver
ision
▁cement
inis
▁prevented
ವ
json
玉
▁Fun
▁ви
▁Invalid
▁their
▁Oracle
peonato

pixel
相
門
object
▁июля
▁te
▁Setup
ise
ť
德
▁Б
▁general
>&
Hint
acio
Ē
well
▁travail
▁мар
days
uzione
ils

emen
▁signals
▁Career
▁respectively
▁Rom
ordon
▁public
▁fright
beat
▁accepts
住
▁upcoming
Indicator
operation
init
▁print
mente
▁Ferr
▁худо
▁Control
존
▁thousand
▁Account
▁kwargs
umb
rus
▁Venezuela
▁NE
▁franch
Domain
preter
▁scientists
력
execute
BYTE
{\
ր
ṅ
▁selling
হ
▁bold
▁shot
▁attraction
azy
▁stam
activ
Note
шен
▁Movie
▁utility
▁только
▁javax
wear
arator
Fatalf
▁parameter
้
▁Pour
▁Test
illon
▁ville
▁ве
▁blew
▁norte
▁sessions
ortion
▁часть
▁Ker
$_{
▁captain
▁matrices
▁princess
▁foreach
▁execution
▁protective
樂
梅
ize
▁parties
го
▁fails
▁pró
esome
▁ed
▁IM
selected
''
▁Ko
oder
▁searching
oh
ieri
▁possessed
usqu
▁formally
modules
Operator
erve
▁retirement
q
worthy
▁workshops
ro
ány
English
osten
▁controversial
▁Advis
▁Despite
▁directions
These
IA
dropdown
quant
ender
▁thinking
expect
▁Vec
amba
cers
▁tug
▁achievement
ates
▁Nova
▁progressive
ರ
▁out
four
▁preg
▁aver
пы
▁dz
ős
trans
▁sufficient
ám
▁Bat
▁sphere
▁Champions
antal
▁compr
ющий
▁frank

PLY
중
▁constantly
Plan
greg
▁prepare
fake
▁Ruby
▁TL
མ
▁specified
arin
▁компа
ąz
тре
श
飛
▁ś
▁painful
▁Nich
NOT
tf
▁SS
WARNING
▁Geme
档
addr
iv
▁ii
rid
▁haben
▁compos
▁Asc
▁PyObject
▁deer
͜
▁ihr
Copy
Wrap
sensor
Into
коло
reck
necessary
▁orden
Close
Bit
eh
▁theme
anon
нії
kv
▁considerable
▁Profess
▁necessary
pc
▁shoulders
▁cush
},{
▁That
proto
ups
▁subsequently
▁fil
▁мор
▁silent
─
▁wedding
▁wallet
azor
▁SEC
讲
ogue
▁Gr
FC
▁Left
▁attack
list
▁EXPORT
▁essential
▁initiated
all
Ř
执
▁guys
隆
▁touched
▁painter
▁wave
сте
▁trucks
stage
▁Psych
큰
subsubsection
▁su
▁activation
conf
<0x25>
▁jag
▁exceptional
emporary
▁McDonald
akter
EM
▁reducing
▁ال
rection
▁compression
elde
▁cand
▁Kate
▁drain
▁optional
▁Bry
▁Wind
switch
▁transmission
Statistics
Π
kill
<0x63>
illy
▁creates
▁bem
▁era
▁Salt
мы
кої
alis
▁mention
Wh
▁Expl
▁кра
▁rigid
▁chef
asia
▁glimpse
▁Kin
▁contrary
LIB
}}}
我
vector
sw
▁voted
▁alcohol
▁ri
▁requirements
▁neutral
CSS
▁zomb
🤡
ish
▁было
вал
▁para
toLowerCase
strcmp
▁height
Y
▁pub
чна
мож
estern
冲
▁primary
shell
▁explain
▁Kal
▁customers
▁hero
printk
▁relay
▁suspicion
▁continued
eze
Clear
uity
▁Trad
▁glob
▁cov
▁quand
▁lin
▁refresh
▁confidential
▁painting
▁ceremon
部
----
file
σ
*,
▁Zur
atore
▁enhance
чі
▁Ang
Sl
▁Into
▁topics
▁Imm
▁Hair
otta
历
▁tie

դ
▁literally
☠
▁Error
▁Laura
▁обе
sync
▁husband
roll
▁Hard
▁ali
CLE
▁Kinder
▁Ex
isting
Pr
▁vý
headed
▁inode
▁biggest
zten
goto
▁Pul
▁protests
▁skill
Args
alia
amount
▁Grant
<0x70>
sub
▁Maria
▁latter
Internal
halt
ць
MC
▁beh
▁States
icker
agn
лем
циаль
alse
modified
▁reck
aux
▁struggling
内
設
ilib
店
encing
▁patches
▁squeezed
▁solely
▁movie
endet
▁serv
✦
▁BC
▁evening
▁faded
▁dam
ifact
asta
ení
autom
▁manip
Large
iel
▁individual
imit
gem
ко
rg
▁сентября
▁ave
扣
▁news
▁[];
▁Pad
ling
▁scaling
Response
▁isolation
ancellationToken
▁packages
Gu
▁Sus
but
▁Secretary
▁pont
pur
ully
▁Shel
▁wagon
<0xA9>
ёр
auge
▁rh
▁console
Tri
sequence
urm
▁tube
▁minimize
ket
<?>
▁Stories
fox
<0x33>
DM
GET
Tests
————
▁absence
急
ond
пу
▁Li
Bind
adays
olve
▁scared
▁magnitude
▁updated
▁состоя
▁visitor
▁але
▁stern
voj
ħ
拥
▁Mess
和
ття
▁GF
itude
▁conf
zes
▁street
thur
▁Sunday
)</
波
▁gambling
▁Kil
Run
ène
mile
▁Rangers
▁tennis
郎
▁Cry
▁grid
▁Ар
▁markets
▁том
▁FT
▁Regional
agon
Mart
FP
irat
anti
▁ignore
Original
TO
anson
exper
▁paras
Bar
öm
▁tilt
▁Carlo
▁spectra
▁Tower
▁kap
▁concepts
▁foul
い
href
Be
vin
▁crap
enci
TEST
lc
Company
qu
▁larger
▁PARTICULAR
▁cats
ὁ
▁quien
ereg
visible
GroupLayout
▁homem
▁trans
rad
✔
▁awk
erne
▁Flo
▁Vlad
▁PG
batch
恩
uego
▁Kit
▁fib
▁emails
чних
Font
▁todas
▁operation
nonumber
▁allowing
▁nest
DEV
form
黒
clos
▁interviews
getText
Register
tings
į
▁Utah
▁Second
heim
ubble
▁SM
irlines
▁ноября
▁upright
▁once
▁Hart
▁сред
▁Williams
▁Julia

▁Rivers
▁Tall
▁Richmond
mill
ão
&\
▁för
proxy
▁étaient
▁eing
▁League
database
▁false
▁Fleet
******
▁vend
져
▁suppose
Loc
ests

tal
posite
/)
▁doubts
題
▁historic
▁festival
▁|\
▁вме
金
.,
▁greeted
,(
ף
uer
복
▁Institut
hora
▁Darwin
▁poster
▁fitness
▁priority
identifier
▁ord
▁attributed
台
ajor
▁simultaneously
stream
▁Andrea
番
▁med
▁musical
warn
毕
mediate
uffer
원
▁pens
atta
illet
▁update
ธ
lad
▁constructed
▁matter
▁Licensed
▁FIX
унк
▁Ol
ęd
▁circle
▁concept
▁jaw
▁ble
zero
▁На
;}
▁vista
str
译
tab
amar
▁banks
▁Hub
вата
▁inputs
▁Clark
loor
▁uses
avo
▁William
▁compens
idays
▁BSD
ateurs
yles
▁relative
▁realization
阻
rog
HOUT
公
▁route
▁cult
Attribute
▁disaster
▁świ
▁desc
連
▁Lo
")]
▁rely
▁entre
▁representations
▁UE
Diff
▁lambda
ierto
▁Arm
▁belly
남
<0x5B>
œuv
<0xDA>
▁shape
▁Environmental
▁Sil
▁Pot
called
instr
▁Ba
▁responsible
▁aspect
▁janu
From
▁Meanwhile
Question
▁buf
idth
Background
▁fab
▁templ
Comp
▁Kle
ERT
Draw
See
oment
▁Nigeria
REF
球
▁sons
▁invalid
upt
="-
шего
CHAN
ioned
routing
▁ihrer
😎
▁briefly
▁unity
▁restrict
▁magic
▁Erst
⅓
Share
▁hug
arlier
▁claims
▁сторо
abet
▁анг
▁United
bar
▁decl
▁embedding
▁участи
NM
▁Mull
▁Map
▁México
器
ANCE
▁durant
alf
▁recommended
нию
▁qualify
ur
iq
Une
Κ
FTWARE
▁our
ulo
▁Wales
▁prod
arn
▁interested
▁impact
▁weapons
▁März
▁texts
▁dere
рав
atan
}
ake
bench
▁ren
▁Fo
▁Business
Speed
question
▁existing
edge
▁inequ
▁acceptance
성
▁vom
▁UV
club
uries
ins
▁laboratory
fin
izer
ska
▁Champion
▁pricing
Introduction
rico
▁Won
oyle
rawn
iative
▁назва
▁remarks
internal
▁{"
▁Wilson
Query
▁assign
ucker
па
roid
▁Pretty
▁detailed
bbing
▁message
()[
▁ин
▁mounted
▁measures
▁lat
▁Personal
▁disabled
agne
▁Э
mercial
Consumer
ugu
缀
材
ives
cott
export
▁emotions
▁unset
.”
▁Alberto
▁fet
▁ny
Span
▁fram
▁Extra
zie
судар
▁conspir
pieler
▁ча
WAIT
▁marginal
▁correct
ana
▁Jah
▁legis
▁Hir
蒙
akers
apsed
▁seller
批
slider
мой
ulsion
▁FE
▁Cab
ハ
cip
ctor
▁ign
▁dollar
Chat
▁setTimeout
▁Peru
Compare
ilde
▁gewann
ím
æ
▁slow
건
角
供
▁Lead
ер
seven
▁company
▁erano
addy
<0x69>
ي
▁Unter
ђе
<0x9B>
chester
▁Portug
current
▁automatic
▁Miller
eph
гля
た
se
tmp
▁excitement
hausen
▁Image
▁Behind
ainte
val
益
ocom
▁hired
▁become
enum
▁bringing
ioso
▁mortgage
Ž
▁killed
avier
aci
deleted
▁pes
▁telev
▁remark
▁nav
▁anymore
▁camb
ius
▁prin
▁activated
▁ry
▁sig
ich
▁They
science
▁CONDITION
▁breathing
▁road
▁gardens
String
▁ME
▁opponents
friend
ison
ht
▁Kansas
oft
personal
matched
▁intellectual
samples
▁Centre
acco
Ṣ
icer
▁communication
▁Historical
Pen
]).
▁prompt
▁tracing
▁esta
État
▁retail
<0x98>
usion
BU
pop
compet
stub
ona
isse
dot
Ка
ides
▁Pac
avelength
▁aboard
▁ingen
▁насеље
out
▁neur
映
si
Dim
▁mum
▁paper
▁putting
Col
▁swe
▁tok
▁Mobile
▁classe
Temp
kat
▁Prin
ature
被
CCESS
▁god
▁Look
▁alignment
币
▁flesh
uvo
▁▁▁▁▁▁▁
▁Admin
▁Since
Adv
essment
▁Promise
при
learn
INTER
▁Garc
▁While
<0xFB>
acia
▁Linux
宝
CORE
开
ſ
▁dla
▁matrix
▁foam
submit
▁pt
▁accessible
▁fled
▁performance
✅
variable
▁chip
ду
pl
ホ
<0xCB>
▁heute
floor
▁CT
referto
ž
RO
Allowed
취
Hit
plant
▁slide
█
izia
▁Harvey
▁CONDITIONS
▁warrant
▁trap
¼
▁amaz
usive
▁стра
agent
olf
▁Columbia
TIES
ĝ
▁Mr
律
uta
images
uld
ELL
▁{'
љ
Kind
▁al
▁force
BLOCK
inator
vement
awn
iddleware
Fac
aps
▁nome
imos
▁Verify
▁§
▁Nacional
▁techniques
Ś
▁Mouse
includes
▁offset
▁tun
"
▁stops
Τ
▁parti
▁tools
grades
lique
▁area
▁dat
Constants
▁Dou
::
▁realise
▁stellar
▁enter
▁windows
▁attention
▁років
▁mi
enabled
▁со
▁story
▁Custom
▁Advent
VAL
ropic
mao
ising
jQuery
irt
▁pregnancy
こ
▁dirig
Analy
▁row
▁Fix
▁complicated
ografía
óz
▁recurs
wij
春
His
▁loved
▁advert
▁shipped
▁guest
โ
▁likes
▁Мекси
ční
追
tenance
▁shore
ห
!");
▁Final
▁save
▁Systems
▁BY
ática
tres
̥
ров
▁shares
▁contrad
▁bag
효
wards
WA
arters
nos
unned
▁double
▁happy
▁Tax
▁wal
akespeare
Sources
▁<<
▁unple
▁algun
▁ciudad
ња
eme
▁percent
▁queen
<0x24>
▁è
variant
curity
▁SUB
▁witch
▁Braz
▁Italia
创
olic
der
▁Pre
▁Vere
▁horizontal
▁At
curs
▁moy
iento
analy
▁Dem
▁labor
▁Built
iale
igo
ivan
故
arono
▁torture
year
▁Azure
▁amount
[];
ilians
wi
▁propri
▁understand
Diagnostics
angled
liest
▁gir
▁kept
RST
That
▁crystal
▁Subject
▁weekly
}\\
▁trait
▁arrang
auses
ных
umps
▁real
▁favour
fore
▁orientation
┘
BUS
模
▁kol
▁Apr
▁telling
▁corn
▁bitmap
▁group
▁chances
emy
▁chapter
NEL
▁Ho
▁ersten
STAT
ografie
гов
▁rele
▁spine
bad
▁surv
▁homes
eny
分
finished
)
▁IE
▁faith
▁Sup
▁rage
holder
▁wins
ał
aking
sat
?
Њ
▁pare
osto
▁automatically
▁Wallace
’
▁Steam
ased
▁Daw
Ν
▁shipping
Available
inement
▁parsed
团
ître
session
mates
otos
*{
timestamp
chell
▁T
UTE
ern
kwargs
▁Carol
▁research
віт
ieve
Scalar
plet
▁mood
вича
▁Eye
stell
右
ycz
▁concentrate
ល
▁sit
▁Bened
鬼
▁fino
boldmath
▁Но
▁rested
창
▁infer
▁Township
▁<!--
▁Dallas
▁hatred
Pointer
▁comun
uture
▁election
VA
ene
Decode
GD
▁trunc
▁slowly
▁opinion
▁Mock
▁prayers
ह
Policy
▁Shan
▁сві
▁cone
▁Road
iques
▁tired
▁codes
▁Save
雪
owego
undial
▁peque
olution
▁illusion
boat
ɕ
▁html
庭
cció
ocus
über
vez
ator
?.
別
▁About
▁describe
MBER
values
▁alliance
氏
▁Dez
▁page
▁complement
Canvas
▁"#
▁Qt
▁wrap
If
▁head
(",
▁Chat
ount
▁db
▁properties
Init
▁où
▁MODULE
ple
▁directory
▁giorn
▁territo
▁stats
▁supp
PREFIX
▁LICENSE

▁entropy
string
▁Performance
▁Provinc
▁ON
▁Camera
▁ARISING
▁lub
staw
shine
м
anto
▁may
re
▁authorized
▁italien
δ
rho
▁John
handle
▁nei
lene
Dead
pb
aked
ù
▁Roland
▁+=
则
▁neces
'''
▁consolid
message
cell
▁virtually
….
▁cig
对
else
jor
isson
vscale
▁Dop
)[
▁include
▁libraries
usalem
Render
ieg
<0xCD>
▁countr
MAX
▁ö
▁transportation
▁noted
oise
ζ
▁filters
▁national
▁condu
ница
▁Mind
▁S
?_
Not
▁compound
лом
')
ً
Ý
▁Deutschland
▁vegetables
▁Emperor
▁Arbitro
ič
▁cultiv
▁adventure
▁survivors
▁Bent
▁Jour
▁Made
▁tc
▁já
print
license
▁ik
턴
▁win
▁convince
ischer
▁bands
rug
рои
▁toe
inv
▁article
cg
Tools
龍
▁pixels
▁countless
be
agram
▁exagger
Upper
groups
▁Luft
ulous
▁vamp
▁Кра
icit
scriptstyle
rir
▁screen
▁manifest
胡
Tw
▁Campaign
▁computed
看
▁historia
ają
▁Partido
▁Fame
▁pierws
Dependency
aught
▁findings
gebra
/*
kre
▁Cold
▁pill
enas
▁moderate
MF
▁Hay
scan
▁feas
▁override
model
▁campaigns
▁});
发
▁authors
Active
<0xFD>
▁Software
phas
▁Ext
▁areas
_,
▁launch
oples
▁США
bow
▁пра
anal
▁outs
Loaded
Summary
<0x3D>
expand
▁Governor
▁sust
▁sits
▁sentiment
▁petition
getOperand
▁scrut
▁employers
矩
ского
ន
▁leurs
▁vor
▁ав
ång
pf
night
▁Association
▁composer
igious
▁inaugur
▁departments
인
oken
>'
팅
▁янва
▁belonging
▁Today
multi
▁particles
ATION
▁Robinson
Security
dirty
▁souvent
▁salad
▁ant
▁aws
▁tour
▁newspaper
Bot
▁moral
▁пе

cache
of
▁лу
▁style
prison
▁club
enda
INPUT
GN
Rom
骨
Vo
AE
рок
ع
▁feedback
parameters
▁proc
▁Third
▁Washington
▁Mid
▁dit
cé
▁april
旗
▁Pray
▁"\
▁ease
eling
▁avait
Green
▁suite
▁rotation
▁Article
▁cents
ubern
евич
存
▁Any
▁Cru
▁distributed
▁Document
镇
▁grande
▁miss
ာ
▁floors
Ľ
▁each
▁flames
▁si
connected
▁provide
aption
сов
Write
}^{-
▁fing
非
ounced
ск
Skip
ļ
exception
▁teenager
line
功
▁explanation
℃
▁satellite
v
▁morning
▁whist
illion
ност
▁Craig
eping
▁Sac
▁store
▁rapport
▁workplace
又
▁NOT
cons
ussy
▁Ensure
uring
graduate
▁node
▁nach
кий
storage
▁sheer
▁luminos
▁surprise
poss
▁Blockly
don
Validation
xpected
▁LLC
▁educated
dict
龙
▁fid
▁Papa
тра
▁external
▁Pic
▁property
nut
ě
予
▁third
▁Philip
opter
守
anner
▁'[
▁Cart
qq
е
▁within
Animation
rew
statement
tat
▁remembered
Shift
▁einen
▁cant
▁arts
▁ball
▁preserve
Inf
▁inhib
ந
▁absorb
iels
▁values
general
ASH
INST
▁Catherine
centering
mann
▁Jew
▁trip
irmingham
▁accompl
▁authentic
▁Device
osi
▁Alt
о
▁Bryan
itary
滚
▁Ec
续
▁probable
nah
三
▁cluster
agma
▁Logan
▁viewers
FACE
征
µ
▁quatre
▁чемпиона
<<
▁ward
Den
▁Championships
▁·
▁Larry
aaaa
desc
▁conversion
pection
▁Esc
ared
▁insurance
▁wire
les
DUCT
▁Customer
▁NL
▁PROVIDED
▁Raymond
listed
▁Ин
chrome
anst
當
änge
▁struggled
▁Brian
uetooth
▁Gree
▁genuinely
▁choose
▁shoulder
стве
pol
▁earthqu
▁La
▁vo
illed
ynamic
<0xC4>
▁Anth
▁Ге
parts
▁charging
nd
까
ière
attributes
▁scores
▁Hamb
Lim
▁han
▁physician
ат
▁retriev
ète
'(
ходя
Ha
▁havet
▁nurses
^^
▁nun
apping
▁Dance
▁career
▁cuts
▁Voice
🙏
subset
▁somehow
▁ensuring
▁love
▁Close
▁Recently
▁fait
▁module
essages
▁budget
ask
GetString
▁holidays
door
반
ells
▁expected
▁exciting
秋
cart
ruct
▁emotion
▁pat
▁experiences
iani
▁ev
kle
▁steps
LOBAL
▁Deputy
▁sout
Ма
カ
▁mir
▁devoted
ookie
calc
▁Bob
Sink
gren
▁Wilhelm
issues
osis
▁authentication
账
mob
증
ete
ächst
▁Py
录
Db
Ă
▁Mother
▁Wr
▁however
▁identical
▁eyeb
▁Reyn
▁manifold
Ê
ٌ
nullptr
▁François
발
essen
▁failed
Serv
compatible
▁begins
▁anim
▁режи
▁$("#
▁Game
î
KERN
ций
▁separ
VI
な
elligence
▁powered
▁stair
▁SC
ribed
▁cub
hu
gebiet
sburg
▁give
<0xA8>
▁rep
atures
esc
▁google
nn
▁profound
▁envelope
▁fif
▁Fest
▁commonly
ervation
▁indul
idal
😂
version
▁contempl
нг
▁primera
▁crusher
Qu
▁prison
▁sooner
ioc
▁Outside
fetch
}^{\
▁impl
▁rat
▁tri
health
dv
ský
ција
DA
)$,
▁Container
데
Om
막
сен
ә
▁dello
metric
▁Sull
▁suggestions
▁reply
friendly
▁sedan
▁Samsung
▁Guerra
▁ruling
▁anywhere
▁Seattle
▁▁▁▁▁▁▁▁▁▁▁▁▁▁▁▁
He
误

班
▁Change
▁Hil
哪
▁Hamilton
▁indicate
▁Bo
▁unnecessary
▁altri
▁dialogue
RECT
atel
▁{
cie
▁lands
ellan
▁rejo
▁considered
▁join
游
패
í
▁tem
Aggreg
ix
bytes
enue
rings
suspend
▁flux
password
verbose
▁serve
option
▁nie
af
WT
▁Ray
▁Ball
▁XIV
hop
▁cul
segment
ennis
▁rights
Require
▁unfair
코
▁g
▁manera
▁что
iece
thers
Ns
ئ
▁rent
▁potatoes
bably
▁changes
Height
▁etwa
▁Clear
▁té
Cons
▁Ng
▁soc
intendo
omorphic
ская
▁gel
▁relationship
arb
reich
ittest
▁cash
▁Looking
▁ple
▁Inst
\]
▁innocent
▁dr
Secret
▁".
iao
cuss
▁Frances
▁pockets
мом
ступи
▁har
七
catalog
Scal
▁lead
내
▁ep
▁Even
▁promised
▁Miche
POS
▁CD
adi
ris
客
▁une
nie
ly
ismus
▁global
▁Kore
▁Spiel
▁dernier
▁Stadt
액
Counter
▁grade
ump
▁associated
▁collect
▁adj
Н
Yeah
▁Vector
perform
ndef
head
▁chain
^*
forms
evalu
▁shining
▁Come
vb
▁Billy
▁nog
cedure
Mac
势
▁cur
▁enc
▁tough
▁Rank
Ἀ
rise
unal
▁organis
>.
▁generous
▁statue
▁vous
▁venture
▁terrified
拍
▁colour
sam
icked
hill
▁applications
ethod
amos
▁rate
▁immune
⚭
▁deadly
cen
camera
▁konnte
▁Todd
▁wrest
pmatrix
▁bibli
ן
inode
family
án
▁Almost
▁drops
▁increase
define
ują
울
▁regret
aceut
▁UI

Ά
PERTY
▁od
sv
axis
▁ye
MAGES
▁loud
lisher
▁conoc
portun
▁builder
▁dicembre
chunk
offs
？
▁owns
cdot
▁jew
SSION
拼
忘
reed
RED
.),
▁Works
wp
ツ
Operations
‡
ter
▁Ent
nage
aker
论
rule
▁aud
pow
▁ordering
ential
snd
▁Stevens
gage
riel
▁Gard
selector
ты
multicol
▁align
▁overwhelmed
▁not
▁makes
▁-----
▁hyd
DBG
▁feed
Point
▁fish
claimer
lee
시
联
库
▁George
▁Han
consum
tiny
▁identification
υ
OR
extra
▁Quant
▁clause
▁picture
▁PM
▁ERR
▁Navy
▁Songs
▁wash
ြ
帝
▁appealing
inus
易
▁document
类
▁MAX
lex
▁measure
强
▁woods
り
ief
▁elite
▁j
▁autor
▁Beat
▁temporary
▁ger
Sch
rose
普
Size
▁вос
legal
▁Count
▁ot
dam
<0xB1>
▁lad
▁allerg
▁community
asting
rel
Version
road
▁uniform
▁cms
▁colours
)):
▁//
▁Rs
Reg
▁fixed
initialized
跨
敗
hline
rename
insi
cos
ABLE
до
.'"
CAST
tenant
Cl
▁neg
▁decide
▁Otto
▁sandwich
Cor
▁Memory
▁wur
▁purple
。
▁GO
▁Vern
cciones
▁horses
▁Why
▁Blues
пада
▁treats
▁уче
Now
▁fost
▁scholarship
▁(“
▁Russ
▁Whatever
▁y
▁compatibility
▁Gary
▁alleged
TM
форма
▁yellow
outputs
▁Bible
▁leather
▁filing
icals
lif
▁cas
▁Sher
cop
▁Afghan
▁coefficients
atory
ICE
Shader
▁Allow
义
▁req
learning
itor
UE
loader
eves
Arc
ⴰ
PART
▁Mill
▁announ
÷
ropolitan
▁attend
ß
hor
▁vent
▁Definition
▁Operation
▁де
anse
菜
lic
▁obj
SO
▁Devel
walt
EV
▁così
▁avril
ible
宿
grad
▁laid
MO
▁Architect
endar
ast
Face
▁Мі
illance
omen
▁dabei
~\
mine
annotation
▁discussions
富
quer
▁Wy
▁Member
▁achieved
▁éd
▁sed
▁ich
unlikely
xic
▁Rh
▁practical
▁originally
演
ilton
▁gym
许
dc
▁Ky
▁der
▁comfortable
▁grace
plot
∗
ley
▁gathered
peat
ued
Met
rique
▁freed
省
▁place
▁bank
參
▁rece
ab
▁ctrl
▁PR
GM
shift
▁основа
uning
RAN
▁advanced
>::
▁ours
css
▁Serie
▁inspiration
non
▁insert
▁lose
▁heaven
ampton
<0xB6>
▁ди
partition
▁importante
round
▁appears
ository
lauf
▁pas
▁proport
>{
▁slots
▁их
ternal
▁assured
▁Results
纪
▁mere
creat
拖
¬
izio
▁selecting
▁menu
chron
hard
пи
▁Pok
alloween
▁removed
“.
iefs
表
▁fol
atro
▁gently
äd
PA
backs
▁brains
onde
initions
coming
▁Terr
情
▁Sm
▁touches
▁Anything
▁gloves
▁administr
Push
▁coach
▁inter
⟩
▁don
сом
▁tutorial

▁declare
deleg
▁notion
▁particular
▁Have
enden
▁syst
Less
▁cognitive
merge
)}$
時
▁dev
buttons
ational

け
话
▁Call
Sa
▁Reagan
▁lap
▁stre
VT
▁deput
▁Authority
kon
rn
outs
achers
oubtedly
▁produ
এ
▁suoi
ньо
▁aveva
▁mientras
▁ese
bundle
▁sources
▁Beautiful
enger
pack
InputStream
▁IX
tera
ités
UMENT
▁деревня
든
▁intense
ação
▁stating
▁prob
▁mari
ancia
▁Still
itched
---------
:
▁CSS
▁Address
▁apart
SM
gpu
gold
~
管
▁renov
VM
Bay
ņ
▁tried
▁Sydney
▁coll
▁fiber
▁counting
BUG
▁SP
▁revealing
▁Emma
▁Aw
▁finish
证
buf
тан
ologia
ippi
CONTEXT
▁geb
▁versus
▁Clar
plies
geben
ungle
iev
ж
▁Index
▁connect
upload
▁USB
usammen
▁intervention
ape
▁naturally
▁Drug
▁reve
열
▁partir
▁yy
ಠ
Anal
aha
ET
▁These
volume
▁assertThat
彩
▁documented
/*!
▁Stud
▁minimal
notes
aban
▁clutch
![
▁saving
▁plants
▁copyright
Overflow
LOT
array
▁Up
▁disg
boards
▁graduate
NI
은
▲
▁nerv
])
▁ke
infty
erry
▁contemporary
▁CPU
];
throw
▁puis
FREE
++]
After
▁Adam
▁voltage
berries
名
▁gradu
▁college
report
▁canon
sek
nil
╝
vest
▁protected
▁\{
INVALID
hattan
▁clay
uelle
stein
select
Min
ல
▁meant
▁rapid
ent
ían
▁sn
▁Мо
'))
▁chicken
▁Comment
nica
允
▁Alban
厂
On
бре
Criterion
人
▁okay
arently
▁acknow
ocy
限
udge
▁wat
GRO
围
/${
▁теле
▁draws
Fact
▁Orange
▁colored
▁adjusted
▁rental
▁STR
AUTO
▁banda
▁Hop
▁mare
PRIV
▁nj
uced
;/
tax
泰
▁circa
▁inclu
fac
roit
ifer
wal
▁heter
누
▁very
▁(**
▁impressive
▁chance
ía
assem
▁Geoff
汇
▁sat
▁AM
▁Near
VB
▁ide
Refresh
▁Democratic
▁schon
▁Commercial
▁candid
ano
▁vi
ellschaft
▁Gew
assemb
▁Had
▁selon
▁la
객
▁quarters
ications
▁BUT
▁aggregate
western
▁=
▁chairman
▁the
imat
Sc
▁northern
▁media
▁deter
urbed
▁SPD
▁DJ
尊
▁hung
▁turb
▁barg
rice
▁wind
ouble
▁vertical
▁mind
Runner
fully
▁uw
▁utilized
isme
▁Human
atinum
ches
ivos
ancies
En
▁dozen
▁Maine
▁researchers
▁alarm
▁tray
каз
arette
ido
idan
收
▁Session
额
ady
▁imp
▁elect
▁ray
続
cm
▁talented
▁på
Fix
▁ale
▁driver
▁Geb
▁mean
▁Har
Rule
▁objet
ম
wik
ide
ква
sole
ening
")
anten
▁Russians
▁circuit
వ
Hi
▁Kultur
ski
▁syn
Sn
▁Five
▁Empire
ime
ział
▁Spec
▁Add
вы
▁democratic
▁approximation
diction
↩
writ
▁according
alla
▁prost
▁Van
asto
▁pap
ció
▁adventures
▁Jet
ѐ
hid
▁Place
CON
defer
▁gra
ientras
▁WHERE
Describe
▁predict
got
ards
▁пла
Self
async
вать
teil
▁бри
thing
▁mont
Tasks
▁thin
day
▁considering
▁culture
une
isl
▁institutions
▁autre
ection
inf
▁wages
▁Hof
forEach
这
Allow
▁basement
eight
п
ilation
▁Veg
▁secrets
bek
away
ната
▁Template
ialized
▁дру
шла
}}\
og
Proc
▁успе
▁badly
▁God
"></
ør
▁hurry
quis
▁Пе
▁configuration
▁Kingdom
▁quite
Same
я
<0x5F>
ç
color
▁streng
▁осіб
過
ister
iments
▁responsibility
Pi
deck
▁Jung
效
▁[]
MR
stop
▁Box
▁SN
▁casting
▁Turkish
▁nost
сер
▁thrust
öffentlicht
▁ol
Alex
▁Bu
▁wo
▁NEW
▁(*
▁Lear
इ
▁Async
▁mud
Override
Customer
▁investig
▁forced
▁dispon
Bel
▁peoples
▁deux
Proof
sed
▁жи
▁requiring
▁An
idy
▁nella
▁Edit
▁Cultural
fulness
▁compiler
▁ingår
isp
Graph
▁Smart
▁highlighted
▁revenge
Platform
reduce
)^
uffy
aval
▁Leben
▁Tr
▁surn
▁about
▁otro
▁excit
мии
▁Gay
チ
P
Adjust
▁DO
ificate
▁bes
▁trivial
▁{}
ofs
▁Spencer
im
增
▁Studios
▁Dr
Drop
▁Grad
私
▁information
▁Pattern
▁мира
▁Liberty
ص
вич
ifi
ál
oren
▁fuel
▁consumer
]],
emi
▁leak
<0x97>
▁shel
ización
ichael
ASSERT
覧
atern
="../
▁inn
▁journalists
Enumerable
elij
Count
riving
▁medications
▁Past
▁mus
次
▁riv
评
▁Cand
cal
▁sec
▁photography
▁overs
▁weren
irmed
▁dess
graphics
▁labour
▁Edward
院
SF
វ
▁slip
)--
▁prescription
▁suicide
▁medio
▁anger
abulary
▁wurde
parsed
▁Bah
inject
ющие
▁geometry
ху
▁desire
▁actively
U
:_
▁liver
▁reaction
▁racing
liv
кту
▁cultures
wire
Engine
▁plain
▁Blog
servlet
▁fixing
SIG
起
owo
▁prohib
▁Entre
▁Code
▁Commerce
Page
▁•
▁individuals
rá
▁institution
<0x2E>
ija
▁aside
placeholder
ahoma
ब
目
methods
▁args
▁GD
hel
▁AUTH
▁remember
脑
ience
▁gaz
务
ợ
umbled
keley
▁Ford
▁sid
▁renew
ueva
Mc
景
▁DateTime
rss
▁ties
▁complaining
▁appoint
uario
▁mathematical
dup
ory
rase
▁Would
Sign
重
ajax
▁Бер
англ
Phi
▁quer
Stage
bere
▁tells
DRV
subject
ijuana
▁EL
检
▁коман
▁verw
▁jewelry
▁select
▁Dutch
▁Stand
bras
hus
▁division
▁parad
▁город
8
夢
▁Islamic
Repository
▁teil
載
▁silver
▁suspic
notify
▁diverse
▁generally
ül
▁juris
@{
ƒ
Encoding
ati
▁Minn
sum
igma
▁lean
Spec
▁vers
lung
ord
▁Lé
()}
});
ün
თ
mean
₦
▁vice
▁steel
lav
"):
▁unh
▁aprile
ifiers
▁Diego
Sir
тор
бо
циональ
▁PE
▁Kab
Amer
▁rushing
▁после
▁Corn
▁interrog
ства
▁prz
▁Ö
éd
▁merc
aders
속
oun
▁cooperation
▁provision
Partition
▁BIT
Ť
▁safety
▁hood
▁Boys
pare
现
什
▁that
s
anned
າ
▁melod
сле
▁graduated
AMETER
▁Nah
requ
efined
INTE
▁dim
▁други
ified
О
FN
airy
▁Statement
sock
ographer
="$
▁therapy
▁readily
▁revolutionary
apos
TextField
М
▁defe
▁developed
▁movement
izontal
measure
ais
▁containing
▁admit
<0xCA>
itting
Bus
<0xFC>
▁album
▁formerly
mass
FIN
<0x82>
<0xD1>
uum
▁Late
Men
alous
▁early
▁Route
await
ć
▁ін
▁dose
▁Stan
▁beim
aja
ERY
ът
ized
idges
▁professional
▁Rod
удо
▁mechanism
▁Bak
apes
rek
▁"(
▁Historia
ILL
▁President
▁birthday
▁wax
platform
▁appropriate
ვ
▁пред
vart
▁greater
ref
▁Rio
porter
▁countryside
▁Im
▁mixing
udes
Auth
▁mobil
▁suspicious
indo
iced
kir
▁alors
prop
▁iz
ilo
Filters
▁PD
c
街
ོ
▁чемпи
ihood
超
}))
▁take
Fig
ór
▁tent
qa
▁determined
▁oz
▁analys
COMMAND
ø
安

▁hills
()]
▁synd
▁Part
▁Fro
▁Hughes
env
▁UP
激
elo
▁enabled
ce
▁cm
▁radius
▁eliminate
▁Page
kers
cin
キ
roc
▁beef
▁register
▁carb
せ
cond
▁SET
▁jan
▁curios
)\\
▁industries
▁Pi
▁suppress
▁abund
▁_(
▁destruct
iesa
▁/**
▁files
走
qs
▁lately
ší
▁ком
youtube
usr
▁Task
icht
Bl
scri
▁Clara
▁Va
▁ně
dit
orf
ignore
citet
PEG
als
esz
▁nothing
▁Color
▁tunnel
DTO
▁relationships
▁attendance
agem
ieron
政
<0x49>
▁common
▁ud
▁relation
ROP
▁vast
阵
<0xC0>
掉
steps
▁Krieg
▁gentle
attrs
FD
voice
▁že
▁preparation
incipal
▁Salvador
when
▁tard
RR
▁nou
Visibility
▁terra
▁image
▁lingu
Ass
ника
▁dopo
worth
wy
▁Walker
▁Buffalo
Dto
[$
▁moves
▁canal
▁siglo
.*
▁hack
▁Athlet
................
<0xEF>
progress
▁stretched
wheel
’,
▁whisk
ั
iding
底
ES
▁Cont
eren
▁Northern
▁pretty
∑
bra
opl
▁educ
Gui
▁pubblic
▁forg
▁elegant
Af
Break
▁seemed
▁Pap
▁cottage
▁Lars
▁sor
▁Additionally
▁exploring
▁referred
▁Temple
ATT
吴
ending
▁block
▁То
ม
Scroll
party
▁distant
▁stole
skill
oul
▁discre
▁Taking
▁gram
urent
▁gauge
▁hanno
컨
▁Sugar
▁solo
▁Arab
Times
▁drum
▁speeds
rito
Classes
ках
▁tm
ende
▁tal
▁centro
alpha
▁speak
▁confusion
------
▁streak
6
▁`${
imer
ński
hint
货
neut
▁Masters
opcode
▁channels
▁Authors
RB
▁privilege
▁wait
rightarrow
▁first
date
▁tap
mate
arry
▁];
culate
levant
▁Stuart
あ
▁JSON
▁Face
substr
sche
▁ben
TypeInfo
Rx
Include
wm
▁Schwe
urop
▁scratch
gro
민
ût
öff
▁Christian
▁friends
зыва
tbl
Cal
▁midnight
Error
pers
▁mix
{$
南
AY
▁financ
😳
import
▁refugees
▁index
fill
<0x2F>
析
▁veterans
▁repe
▁Dep
▁conqu
▁dried
礼
ב
för
▁Ham
▁Electric
독
▁Jug
▁numpy
abile
Hide
▁reach
უ
^-
▁zwe
▁груп
▁edited
št
Next
▁kont
WISE
▁subm
vp
▁contact
▁Website
ery
▁majority
ĩ
jax
▁pr
Style
anas
▁Phill
widetilde
▁efter
os
▁Н
▁batch
▁Byte
bid
▁edges
inden
(((
/,
acht
▁организа
細
▁lifestyle
▁recall
enz
CTOR
ப
▁fifty
autor
▁país
関
▁languages
▁Sche
хи
umen
▁warriors
NO
stable
▁machines
irteen
▁(&
Label
တ
hood
▁Brazil
unde
▁simulations
SP
▁target
bag
▁Saw
incl
Fore
▁Ś
▁many
rick
▁principles
▁Menu
0
粉
▁Dar
▁fault
▁effects
▁ratings
]{
▁des
▁diseases
▁Accept
▁воз
▁OP
Remote
▁refr
▁Jewish
rank
colored
ila
▁Good
▁gesture
卷
mock
▁reasoning
▁Georges
issant
кі
▁potential
▁manager
ré
▁Host
BUT
riages
▁sm
▁Moreover
▁sake
▁segu
▁You
jack
ateral
▁Fred
▁Pas
avirus
▁kilometres
agnostic
▁части
iah
▁capitalism
ش
▁ру
▁gam
马
ждения
▁его
▁Grace
▁means
eneath
alties
▁мі
Jo
CAP
Follow
▁accomp
▁trad
iert
графі
▁Unit
▁hw
cz
ingu
em
MASK
.).
▁preferred
ἐ
▁category
ồ
▁syndrome
▁Over
必
▁falling
▁n
▁Atlanta
vars
▁crist
▁society
▁enumer
卖
▁Conference
▁traged
▁hated
fold
▁вклю
▁Od
LEAN
▁Japan
▁depuis
庆
eten
▁helps
▁Pont
Cond
ktr
▁окон
aram
.~\
ampionship
▁campo
ROL
▁clusters
bear
▁waste
Buff
EMP
▁dull
▁quantities
respond
▁slowed
Ф
Drawable
▁tall
LY
▁trainer
▁recommendations
bor
▁bur
пі
▁сов
▁painted
ploy
Copyright
Cur
▁aston
EP
GL
▁learn
▁Cool
▁El
appe
Lines
怎
▁receiving
▁insights
▁cl
▁furniture
▁Ji
uros
▁Well
▁burst
▁Ost
▁simultane
▁–,
Res
aded
例
(%
SUB
紀
tober
▁during
дела
▁Melbourne
wx
▁julio
▁highest
{
##
▁dare
▁Ш
kes
<0x5E>
icans
cid
▁boys
▁dru
zec
▁sein
multip
▁TD
牛
▁relie
nal
味
▁*/
▁wear
▁diary
abeth
▁tens
ENSE
▁ads
▁Location
▁ripped
кою
King
render
▁symbols
chiat
sts
▁without
▁determ
▁motiv
▁CONTRACT
<0xEC>
▁photo
▁Morgan
▁scripts
ġ
▁pace
Month
dw
TER
ún
▁Biden
aho
odd
▁shelter
▁Wed
Events
▁slä
inski
▁penetr
▁depth
allel
accur
indow
▁pleasure
▁migration
Dimension
бу
▁absorbed
▁bapt
AK
ailing
следова
▁Loren
향
▁Harrison
▁is
▁seguito
秒
▁premium
Parameters
▁Kas
adelphia
▁Gef
aty
▁dich
▁Mir
DU
▁России
▁execute
cca
ident
flags
▁воло
ك
▁Order
▁Happy
▁inhabit
▁coaching
nez
▁Bil
▁programa
BASE
ؤ

fast
▁advers
▁placing
▁People
)&
ZE
▁pair
▁swap
▁Sk
량
resents
brand
▁compliance
ILE
Ṭ
▁eating
▁damn
▁Tal
▁Vice
metrics
▁craw
icies
认
▁Convention
theless
▁sense
▁compromise
ows
▁**"
무
▁==
▁RT
▁Arnold
▁sau
▁sul
▁également
amaz
God
Edge
▁Dé
站
▁Birmingham
гре
assert
DMA
Extensions
▁schools
▁Has
ū
egen
▁otros
Spell
otic
▁NOTICE
う
▁органи
▁ml
ület
」
▁artists
▁rape
orters
▁system
▁photograph
▁skin
▁compilation
▁-
▁Math
▁approximately
▁pressed
▁attra
iten
aven
in
▁desp
▁presidential
Pattern
include
born
▁notes
▁behaviors
▁Branch
▁prac
价
▁Georgia
:</
▁angular
ник
)'
Sep
ції
pped
▁steal
▁Training
assen
äl
FORM
ars
▁Ser
▁password
▁Ted
▁regia
ે
▁футбо
Me
Ì
tes
▁prés
▁Fen
パ
▁keyboard
Г
scar
▁gut
ряд
IPS
▁fundament
▁Fif
BUFFER
▁manufact
tom
▁>=
Options
▁watched
▁behav
▁velocity
elm
▁нов
HANDLE
▁jug
▁objective
▁Taylor
Styles
working
Report
▁Columb
Members
▁Cars
<0x3F>
INSERT
цер
▁reun
bon
ijing
сси
▁{}",
top
▁newest
▁NA
plane
rating
▁stim
▁Beng
哥
bus
▁ок
ngth
dzie
▁sear
asset
▁regex
▁behavior
alie
cursor
需
▁attacks
gray
ggreg
▁Illuminate
alen
orrow
▁foo
sign
▁finger
▁routes
ٹ
ze
▁uri
ry
▁Francesco
arding
▁Население
ких
▁Ire
UT
xl
影
▁virtual
▁competed
산
▁lay
▁approach
▁conventional
camp
▒
ases
▁stressed
▁vid
Rate
ship
▁tempor
вом
▁Heat
oss
▁laughed
海
üng
▁concerning
▁aller
▁août
▁că
errors
▁novembre
cies
сно
▁helping
▁Anton
owing
ability
▁tear
ography
▁година
▁adapter
橋
▁х
▁шко
Search
▁importantly
▁balls
▁classical
urches
lim
ляр
▁PART
lot
▁mobility
AN
▁say
gl
▁Cleveland
adrat
conscious
▁septembre
場
views
▁debt
Forms
ater
▁sleeve
क
▁Like
▁dai
▁cidade
ску
Free
setting
cc
hado
▁profess
{}{
arter
mm
","
bitr
▁Sh
Station
▁nor
▁Western
ponential
▁mu
▁finance
apse
Ptr
fly
▁Pero
èrent
ἡ
▁transfer
▁Jun
▁sidewalk
▁typed
▁Legisl
▁tv
▁extern
girl
annot
▁pagina
▁destroying
▁Body
▁cs
吗
▁NC
Don
▁blink
Strip
▁spe
▁eff
./
▁Beg
Ctrl
▁billion
сті
▁Request
责
▁име
nic
▁vine
n
SER
▁grasp
▁она
▁CB
▁distract
Ship
▁Director
😔
œuvre
牌
ép
Job
Track
éré
ништво
ocument
Users
▁immense
▁{@
code
▁Floren
èce
▁DAG
▁splitting
▁persons
ay
▁setting
ós
▁Fue
▁convers
▁vir
лла
▁Brothers
說
▁dependent
▁importance
▁thus
Category
▁Living
izont
▁words
भ
rig
▁Me
plication
nam
▁sign
▁successful
▁scalar
horn
▁Widget
播
▁trunk
dk
вої
▁…
rou
ange
대
Gre
tx
eve
▁aus
Express
›
▁sex
ocks
▁fier
yc
▁Ge
→
éra
RUN
Step
▁delle
direct
vised
'
▁To
▁tir
fortunately
sing
Prototype
▁seinen
▁knows
prime
ieu
ah
design
Tuple
Location
▁academic
▁motivated
使
▁rendered
omic
ската
끝
----------------
▁degree
Ø
ste
рю
▁Су
衛
▁easily
atrice
▁celebr
ния
▁)
Collection
▁taught
▁ancest
sm
▁correspond
linewidth
▁SIG
▁opportunities
▁жен
▁obt
enter
▁stranger
▁waited
berger
ُ
▁shown
ceive
▁el
▁overseas
▁caution
▁stub
▁informed
heimer
▁tomorrow
▁mattress
进
ipedia
pk
impse
담
itation
▁finest
▁Auf
assertEqual
={'
▁Gre
▁litter
▁((
Three
Primary
▁Liberal
SERVER
▁Louis
​
rapper
athan
▁hitting
▁grupo
slug
wart
ulus
рев
চ
could
페
apa
uits
indust
▁zw
▁perform
ex
amic
scape
}+\
▁commit
'},
ieler
fp
вин
▁moist
ké
▁expertise
▁gross
▁achievements
▁aggress
ufact
▁chocolate
<0x78>
密
Proxy
∪
LC
希
fed
▁Greek
aration
umpy
어
▁behind
▁opts
▁Storage
▁worm
攻
▁Main
▁im
old
owi
cow
▁plastic
▁tast
Binding
▁bron
▁районе
missing
▁rap
참
▁recycl
▁broadcast
its
▁screening
▁c
VP
rei
▁mineral
parallel
▁consulting
Stats
े
xspace
▁swung
Value
▁Le
べ
imedia
▁фе
example
account
▁submit
astro
▁summit
ан
▁és
▁bonus
mathop
erness
android
▁dick
nio
??
▁Korea
ɐ
▁comments
hi
▁Payment
DATE
▁familie
Decimal
▁drug
▁Estate
bool
imately
▁INFO
▁cada
▁operand
ী
▁formula
an
▁sharing
▁Naz
compare
лы
▁gray
Foreign
초
FM
▁query
纳
▁Pam
umbing
▁boom
▁loro
ob
▁Sad
oll
▁logging
▁Compet
▁Mat
ự
isely
udi
▁fru
▁instanceof
ream
Errors
▁inspect
▁testim
urd
▁plenty
verb
▁even
='
▁Pick
displaystyle
通
▁grim
ズ
,.
itory
ENCE
gpio
mov
Encode
▁Februar
▁от
arte
▁isinstance
▁Holl
▁genes
orum
▁slaves
oks
csv
slave
▁abs
▁protect
▁Ez
▁Nar
▁Hö
vee
ements
▁becoming
▁місце
▁%,
ด
▁Lac
▁anime
ponent
crtc
▁К
▁measurement
icated
Codes
FROM
zoom
Hex
Decl
\'
ually
major
▁disappoint
proposition
▁Student
▁Without
C
頁
▁TRUE
interest
▁enthusiasm
▁circumstances
oku
develop
ért
▁mixture
▁separately
Login
▁disappointed
nett
▁ohne
riteria
▁'-
▁Comput
▁Linked
▁feels
▁район
▁Struct
жно
戦
▁entities
▁University
Gamma
eff
ី
▁ont
iar
▁constraints
調
▁every
<0xA4>
▁ui
arded
apy
▁complaint
▁области
▁catal
▁cycl
▁Rat
clip
spr
▁gay
▁Ukraine
▁await
▁avoided
platz
▁fairly
▁Ric
▁EP
▁perspective
regular
<0x9D>
tables
财
▁czę
▁waved
▁bay
▁Generic
rough
rm
▁finite
ナ
ar
▁Park
▁Japanese
▁Members
▁folded
тура
▁stom
أ
▁item
fx
time
▁disco
boxes
▁entity
▁%.
▁absorption
▁chairs
신
務
Columns
▁pueden
maz
▁aber
▁impressed
Dlg
�
گ
▁robust
▁stato
▁implied
▁Cec
▁leave
▁ens
레
問
ová
img
enth
▁permitted
▁Board
▁az
ude
▁sets
▁twelve
几
▁Zero
ulse
▁obtained
▁públic
CT
▁complic
▁rott
照
්
優
▁favor
Service
Blob
▁café
Exper
web
ся
▁Opp
ging
sure
▁commune
▁Mes
XXXX
circ
▁pag
▁$[
(`
(__
▁jur
).
▁sobre
▁missed
▁libro
▁created
失
ivers
Cert
irtschaft
▁кри
▁reads
▁bent
▁accept
▁иг
句
▁registry
▁зем
▁somewhere
View
ership
▁Europe
pling
▁holds
kö
▁fiction
▁retreat
▁belonged
▁фі
Capture
▁notamment
▁symmetric
ocur
▁Ms
▁stake
▁membres
Š
也
▁пол
halb
牙
▁dou
video
▁années
企
inations
▁Should
▁virt
▁spark
▁thoroughly
vre
▁Text
▁exterior
▁ruined
Checker
▁debut
Signal
▁franç
hren
飞
▁breaks
Ser
▁tribes
yy
▁likely
Paint
inction
▁activate
▁lob
▁pink
oute
ution
aison
▁dyn
▁decorated

nis
aille
cio
▁Dylan
▁shifts
累
▁episodes
▁digit
Man
▁blues
yl
Ь
inkle
▁Democr
WR
😁
Declaration
__.
border
▁prince
werken
Change
ю
▁jewel
▁almost
▁posts
▁України
▁Ре
▁Someone
▁lyrics
añ
▁equation
Management
ление
▁lever
▁Ban
所
対
(
▁talk
▁mant
▁Details
▁Grund
inese
щен
sep
rand
pfn
▁causes
▁plug
templates
uli
ource
Appe
阿
"?
ua
<0xBD>
▁Simon
▁bust
HD
ר
▁challeng
▁hungry
Pers
от
▁republic
edia
ktur
imir
▁одно
рован
▁Break
Changes
▁tiene
▁Mik
allow
組
lat
heast
omed
story
▁mysterious
▁Initialized
(&
▁crime
Δ
▁extend
unique
▁eng
▁uitgenodigd
default
▁drawings
conne
Open
SI
▁suspected
"—
▁toxic
▁destination
itories
▁QString
▁East
▌
▁trigger
▁lines
▁television
NESS
▁mig
▁differences
lear
fileName
invoke
мпи
Mar
érie
éc
umm
▁ly
▁origins
▁yourself
▁frequently
abc
▁sampling
▁politics
strings
format
▁Abu
▁Val
க
▁connected
▁matched
▁Fant
▁SB
*
▁delayed
記
約
▁month
animation
Reset
/#
▁advice
▁FM
▁Years
▁Family
▁mast
▁formal
▁arranged
▁cx
▁дву
▁sea
plied
▁uma
▁scar
▁pse
▁Mexican
▁striking
乘
irus
▁Mons
bounds
▁sweat
▁Queens
▁using
osc
illing
로
▁cock
▁alc
YPE
)*
}$)
▁latach
▁arriving
벨
▁experiment
)).
usted
展
丶
▁Around
▁self
TEMP
ół
zone
▁cough
IRQ
▁pepper
Ä
condition
javascript
yar
mus
▁Farm
▁hed
▁reader
▁С
rit
▁MO
他
otes
zw
▁shelves
▁somewhat
승
▁Origin
▁other
▁Flag
접
Alignment
cost
CN
▁Video
▁Barry
▁;
▁Is
!(
vals
PHP
▁victims
Phys
▁problems
лё
▁Appendix
框
apor
▁poco
▁muj
▁suitable
ória
bars
________
▁Na
）
▁periods
▁translate
MX
थ
module
▁ethical
бли
▁reddit
▁surrender
icide
▁eventually
▁Hum
DER
▁rx
irement
):
盟
integr
nt
ANY
▁estado
▁zap
inline
Sv
▁soll
ắ
span
▁Gren
▁invånare
ón
▁keeping
▁speed
▁attr
▁прави
▁county
lando
<0xC3>
de
ivot
▁ok
MUL
Addr
▁size
▁lights
▁doorway
▁Frederick
▁disappear
▁plugin
sys
Phil
Direct
▁))
Compar
▁islands
▁vol
▁disag
▁архи
▁fue
▁any
▁Real
▁Mount
▁forms
▁hundreds
ฉ
▁soldier
odge
hedral
▁Vall
▁top
ément
▁haar
▁funny
ders
▁Биография
foot
▁contre
령
customer
▁wealthy
机
package
Linked
▁Oak
▁spé
DB
rik
▁families
▁cum
▁ban
ctl
Pal
Contact
▁Connecticut
Iter
each
null
Serialization
стре
analysis
anning
respons
鲁
▁avoid
▁nap
integer
вати
▁sto
oggle
conom
▁immediate
Cross
ption
▁exam
dom
ategor
▁Or
++;
保
]
▁ge
▁Table
<0x15>
▁Entertainment
织
igned
▁kit
▁div
▁circulation
▁Eric
▁Gast
naire
▁hey
▁sav
localhost
ĉ
Li
Relative
红
nown
▁FIT
▁university
placement
cester
▁Bishop
payload
ври
▁side
▁{$
▁Gon
며
滑
▁grav
achten
▁operate
IOException
▁Werk
shader
рий
线
UNUSED
▁crowds
▁contin
Btn
▁ú
▁economy
chod
▁Curt
▁brand
Warning
▁rows
ಲ
évrier
八
▁Дж
▁CC
️
树
▁transport
menu
▁Another
م
▁reflection
!”
▁nd
▁interactive
▁Currently
▁None
neo
parent
ouses
▁pie
네
▁ear
▁Games
VS
▁want
▁).
▁Bear
▁Ins
HasColumn
▁поло
is
▁masters
설
▁Stein
Ÿ
˜
寄
▁helped
arante
▁pret
▁veget
▁corporations
ứ
▁open
}$.
<0x7B>
iginal
▁accidentally

Leave
▁expression
投
▁abundance
idi
국
ристи
quir
▁crossing
ступ
▁Fresh
ause
overty
kn
▁dup
ity
Comm
ists
▁sost
▁attributes
▁got
▁сер
▁restored
▁Education
erg
eken
▁inhab
▁market
▁om
poly
rake
quier
▁któ
▁toute
▁vivid
rente
▁trend
ember
▁react
yside
ppe
┌
▁resolve
▁genetic
용
orb
▁tournament
▁IP
▁klass
ów
öß
▁Executive
▁actors
▁живе
▁Texas
ు
▁knew
Й
▁gi
▁attribut
▁demonstrated
▁jedoch
verted
▁HA
alion
▁Quality
▁popped
▁user
HTML
▁elf
Lib
▁созда
rok
▁changed
▁explos
!!
chor
▁tow
emb
▁denote
Since
┆
▁reception
ය
▁rang
▁compelling
▁newer
▁ago
ribute
▁carbon
真
USE
▁Kr
강
▁method
ু
範
▁obligations
<0xCC>
words
▁STE
▁Sun
cookie
Matcher
▁Minnesota
ピ
SCAN
▁Did
▁documentary
▁Vincent
▁Intelligence
urs
Initialize
▁Pear
AUTH
▁plat
ША
std
▁Па
▁union
▁radiation
gress
Op
était
▁було
anners
竹
료
▁распо
▁Fourth
qp
Phase
▁accent
▁Trail
wood
▁muy
▁stan
дов
ws
▁pack
po
▁Grade
▁pages
▁Report
节
▁nose
▁Pom
ERCHANTABILITY
▁voor
צ
▁build
▁eg
padding
>=
acks
▁discrete
ք
💯
난
Chunk
▁dedicated
▁communities
▁strangers
atype
▁rude
մ
Geplaatst
▁otherwise
▁во
+'
▁пода
▁strat
▁Mit
▁inferior
shake
▁"+
ih
ým
▁compre
ící
Volume
▁examined
▁athlet
od
able
▁convert
ira
)**
жа
ToString
▁одна
▁erre
▁Term
▁displays
▁Anti
ając
ђ
▁bass
衣
áll
▁Sul
termin
▁tape
encer
grow
by
▁dir
erk
chos
▁vocal
ylv
▁rés
⌁
▁places
▁ports
▁amer
ITEM
Capacity
줄
lines
zd
▁afford
▁Š
aj
▁argued
ther
▁Craft
INCLUDING
▁Delhi
ла
rich
键
▁cz
▁median
▁nurs
Є
ew
师
▁extr
岡
▁readers
arely
▁Kitchen
▁сво
atable
anded
▁ERROR
▁Lisa
▁Ж
reddit
▁ч
unsigned
▁mou
▁reflects
▁Hotel
邮
▁á
▁learning
▁explosion
▁Fl
▁rushed
▁emotional
maybe
▁bor
▁att
ті
^{\
▁Master
Boot
▁Afghanistan
SC
▁cele
▁placement
removeClass
▁blend
▁FC
▁conver
ICAL
off
Common
▁folder
fre
▁former
tyard
ниц
pleted
▁converted
sql
layout
Comparison
▁delivered
한
稍
SG
lane
▁went
▁humor
CR
▁ihre
▁convey
▁Biographie
▁Tib
▁negative
▁discovered
▁principle
▁polar
мени
▁Protest
▁Impro
▁generator
die
옵
▁surve
▁Shar
delta
▁suiv
▁ro
sung
▁prv
▁violation
▁forget
▁chemistry
<0x27>
▁park
ness
▁Maryland
▁old
▁laser
▁Sach
^{-\
占
▁Бу
▁presenting
▁inte
▁err
▁swept
pel
为
Foot
▁belongs
▁collective
▁figured
expression
已
▁Their
▁Dom
体
▁strang
▁opposition
▁suffered
▁klub
▁with
eto
atter
Ty
<0x29>
▁beds
oral
?"
icator
Hol
数据
▁procedure
အ
▁widespread
▁sf
▁basically
deprecated
▁magn
▁июня
Resource
otti
▁Usually
oring
▁Bou
▁}{
▁structure
▁couples
pending
iors
▁pin
▁Product
appers
Assert
県
LICENSE
region
acre
>",
Vec
Ap
▁Furthermore
ICENSE
hind
▁inject
▁Survey
▁divers
inceton
Right
jan
▁counter
▁bare
▁waters
ése
▁reminder
满
Native
Machine
appendChild
hui
elles
optim
▁▁▁▁
▁±
▁arm
acing
arms
▁total
INT
▁passage
▁v
▁ham
▁Equ
initialize
inge
▁Rosa
istence
▁widely
▁км
Id
▁clothing
ط
▁hous
TextView
▁»
arroll
▁exem
Assign
ns
▁stack
순
▁Perfect
▁constitution
▁utilis
▁review
▁line
▁experience
▁attract
sample
▁exc
▁Life
operator
rypto
▁dok
▁secur
cheduled
<0xD3>
▁ва
enes
峰
Pars
▁inher
録
ials
estra
▁även
▁gonna

▁Boh
avia
ág
斗
ölker
ko
▁Haw
Author
▁phrase
▁federal
▁romantic
nex
VL
▁Confeder
▁Watson
follow
Tur
▁Хо
Cfg
▁closure
▁wird
▁Gram
▁targets
indexOf
▁DT
attro
▁Ди
售
▁mise
▁problem
▁Def
dp
imi
▁Aud
👍
BUTTON
▁occurring
нут
▁needs
However
grpc
==
▁THE
ponents
該
▁Festival
Number
▁spons
\[
geo
▁beside
Hash
▁Cer
asures
ichten
Alloc
▁Angel
nes
▁les
lst
Multiple
▁advent
▁Neil
ael
▁фор
▁electric
▁Einstein
document
按
MAT
▁Una
轮
▁який
asso
person
▁Scotland
話
▁overwhelming
▁defeat
▁Nach
▁creatures
öd
▁cut
▁environments
▁Login
▁ан
ŕ
нее
custom
▁land
▁Ja
▁reveals
▁efficiency
jar
▁)
сса
oons
孝
▁River
▁состав
▁drama
れ
Shape
▁Hitler
▁Bis
density
rès
icia
new
▁horror
町
▁Bey
amples
ському
愛
gorith
▁expl
▁fins
Lite
Re
▁maintain
)}}
▁assistance
▁shell
▁appro
▁Federation
▁pref
ite
▁Santa
▁https
▁sight
▁wel
refix
imental
ef
▁gau
▁NBA
▁warmth
Ab
▁admission
▁Joshua
▁Walter
▁SU
▁conne
▁спо
iffs
/$
兼
▁object
▁displayed
Tags
▁Con
▁intellig
▁tail
ache
▁cort
iffer
▁productive
▁Gol
LED
▁explicitly
lope
onen
城
ɨ
▁aspir
▁'"
▁well
jk
▁Were
▁Michigan
▁fear
▁Bird
▁ARE
▁mois
▁ella
▁hilar
selves
▁Phys
▁frü
IMPORTED
▁task
ittel
が
▁encounter
aglia
▁statements
controls
oker
roller
▁subjects
<0x07>
▁depend
▁calling
▁rack
zung
▁Lem
щи
LOAD
('\
\,
▁mie
▁grandmother
▁trim
▁marks
▁satisfies
効
subscription
復
itzer
▁Shop
iman
▁comune
ír
▁Decl
▁unexpected
动
mans
浏
▁cal
▁Hong
ocate
oni
▁cannab
發
again
>("
▁Sql
Dele
_{-
▁punishment
verage
rent
▁swallowed
▁SO
▁место
▁worrying
manuel
選
)=\
▁pkt
▁Lib
▁eas
▁figure
anzös
果
▁engineer
战
▁adjust
iblical
▁flame
岗
▁Enter
ред
▁е
------------
▁dem
GB
▁een
求
unfinished
▁ию
@
dess
oci
game
▁š
PL
aping
plus
pret
र
▁як
usz
▁trabaj
▁poll
▁doubt
▁succeed
▁Fi
▁center
km
一个
▁Fr
▁LL
த
es
▁Minor
▁rather
ader
mar
effect
▁рабо
▁loudly
'\
▁Dub
្
▁efficient
▁born
▁Scar
cb
рое
mals
common
▁finale
▁attempts
fi
IVE
▁pulling
through
NdEx
▁cv
inar
bled
imag
xE
▁guard
ugar
<0xB7>
uman
ampion
▁Cancer
款
_.
▁gegründ
▁Others
▁становника
AIL
▁init
▁España
makers
ACK
rap
▁Esp
мира
▁Mex
rott
itational
做
▁peas
▁middle
atal
Effect
ción
length
▁primer
gov
抛
ῖ
▁Design
/(
▁Project
changes
ript
▁Marcatori
mes
ỗ
ț
fem
tech
iedad
ARRAY
▁estaba
ícula
▁larg
ilst
<0x9E>
▁Josh
пен
▁ré
▁unders
▁stro
丹
▁sie
▁np
dro
▁extension
▁Sign
=[
₱
▁Diff
▁incred
drop
▁--
▁Bru
)=
inz
▁bab
▁hacer
▁cb
correct
专
▁corporation
와
배
station
▁cell
may
Your
▁participated
Metadata
'][
▁asks
lington
▁remot
热
▁Sem
Contents
▁lig
azu
▁time
▁contempor
▁Negro
▁deeper
▁preserv
fire
sto
▁over
▁onto
▁Dragon
addle
▁spin
▁lista
❶
딩
Car
▁Job
Schedule
data
▁strip
▁independence
▁carpet
▁images
▁Mist
:-
▁cruel
▁stata
▁Led
word
ご
ue
returns
elling
▁jail
istributed
▁Te
▁Schaus
ateg
plicate
▁Carm
▁Lar
▁stones
Hal
▁participant
관
keeper
.\
▁offensive
▁jack
▁bathroom
izione
hub
實
<0x9F>
▁Other
▁focused
▁rush
▁msg
Europe
▁change
▁Ice
inted
연
▁Prov
ъл
▁spawn
そ
je
yond
eps
▁tucked
▁дома
▁Hor
▁Wa
nung
▁sequence
▁hosp
resse
▁home
ито
<0x84>
uuid
▁companies
after
drv
▁scene
simple
ingly
▁Copyright
▁audit
▁wieder
▁hate
▁adopt
omon
?)
jär
oust
ntil
▁sha
▁blogs
▁dropped
About
LONG
ap
ría
▁anderem
inal
▁lamp
▁evt
oc
ató
▁Camp
同
▁evidence
week
▁against
▁servers
▁participation
▁ри
mel
▁spinning
ября
owych
▁modern
Struct
▁rodz
shall
alloc
λ
orge
amiento
ové
▁bu
▁Role
▁eyebrows
$,
變
▁hunger
▁find
ös
▁Austin
glise
лась
▁preference
▁chaque
▁jours
😆
▁pity
▁Switch
gest
도
▁//
▁clock
ię
вано
ports
▁"__
heads
開
▁Gesch
▁consideration
OPT
▁Мар
pod
規
aje
▁cav
▁spend
stock
▁accordance
Real
▁три
▁atoms
Fire
ner
▁cor
▁ut
▁benefits
▁Please
sin
▁unusual
channels
▁neck
▁Mov
angel
complete
http
▁useless
▁Christmas
▁Vers
▁embr
Star
▁раз
▁red
rile
▁cycle
▁migr
▁дво
乱
若
▁Sand
во
▁près
▁August
▁relaxation
▁Angela
ै
▁Nature
▁creative
{(
▁costume
ī
<0x4D>
="<?
▁Carr
▁fick
Unmar
▁lim
inent
▁Reserve
trim
{-
▁је
▁destroyed
hot
▁helic
▁defect
ל
enh
<0x30>
стер
Pub
▁dark
ienen
▁Knight
куль
▁return
▁eu
fen
▁tick
root
boldsymbol
Hor
▁послед
guid
▁Administration
▁Allen
▁Sweet
ственной
▁Ernst
\/
ー
▁list
rage
HAL
Prop
▁Ref
Objects
▁derivative
し
▁remain
SV
pci
▁BE
▁grounds
POL
▁Twenty
?!
▁Marx
mad
▁lord
mun
▁drink
▁kid
FUN
▁admin
▁exerc
nell
▁Mil
▁grades
▁contacted
▁neighbour
▁Von
By
▁distinct
IP
emony
▁answered
cke
▁genre
my
gb
▁civilization
REE
HY
▁apparent
malloc
ದ
'.
Store
エ
ithub
defined
Att
▁appeared
▁Carl
uggest
erna
▁harmony
Tim
стоя
▁brings
▁française
Pet
▁Above
gex
▁Write
operatorname
▁guitar
hend
▁redistribute
▁Foundation
▁imagination
▁Poll
IFI
слу
▁Expression
FRAME
信
▁Although
▁configure
mq
nbsp
▁session
▁Oil
Replace
▁mov
▁Gal
occup
▁LGBT
ィ
▁Line
ascular
}+
▁hel
Timeout
▁audio
▁Honor
retry
▁wine
hav
SION
▁perpet
题
SED
▁depart
济
ered
ologically
NU
▁Distribution
▁essence
▁«
▁crowded
mal
▁fre
marks
Scene
▁forme
Well
▁Copa
▁`
ця
hide
▁legendary
▁begg
▁Abs
owej
▁_
icates
測
▁Server
IL
aled
▁grin
▁N
▁ther
ably
ត
klass
uous
▁agents
▁gebru
]));
▁credentials
▁fon
,”
fony
met
'],
Review
▁female
▁flew
▁equity
▁immediately
▁года
footnote
php
▁сы
▁garage
▁js
Turn
▁software
▁factory
getDefault
serve
iled
ῆ
▁locks
▁ratio
▁Football
▁profession
uts
▁combined
Features
▁vr
板
igation
▁"/
nested
ark
ugins
Proto
▁grap
!"
▁micro
▁Cort
▁Show
▁Deb
▁eerst
▁centuries
〜
亡
<0xED>
▁influential
▁guns
▁eighteen
▁beste
ג
▁representative

避
height
bt
▁Making
LINK
▁участ
▁від
▁accuracy
mit
▁performing
▁acid
▁Kos
ENTER
▁изда
Sing
ête
ricane
▁football
пов
äude
▁Montreal
icio
▁somebody
TagHelper
▁recogn
▁nahm
cf
▁defin
cial
▁Su
▁arist
latest
▁Charlotte
▁cler
▁multi
▁surroundings
ailability
▁dy
)",
▁mountain
▁eye
▁disappeared
▁tuple
quel
Shadow
ifa
▁maint
PRE
▁star
▁"<
▁approxim
▁ebenfalls
▁Michelle
Sp
▁feature
▁Post
ང
▁performances
▁это
чески
▁uns
hh
▁não
▁Gle
distance
▁Batt
▁diagnostic
ito
▁men
▁explained
▁emit
ino
pressed
▁respon
▁pal
9
ee
▁radar
linux
ober
▁Boy
onie
▁exclude
▁Matthew
Le
▁nag
ベ
So
▁etc
result
ilibrium
emperaturen
UserId
igos
▁Kaiser
▁Academy
▁Fern
▁easier
▁consistent
ysk
gate
▁gate
ере
▁Leop
▁faz
む

▁Aus
▁emerging
▁roi
▁links
▁combination
▁Bond
施
/_
ř
▁rules
▁veteran
▁Lux
▁phr
▁tank
LEMENT
пан
▁í
open
▁couldn
▁Very
▁comic
๐
▁bottle
expr
essage
Qual
OPTION
▁dying
▁Throw
▁Во
Maybe
▁држа
▁comfort
▁Ave
LL
▁voyage
currency
▁Aqu
▁Feel
▁pier
"><
▁ss
LS
▁Oper
全
▁Pub
olan
图
amen
▁slid
▁cd
▁побе
дер
icc
토
▁opposite
▁Fire
TabIndex
mutable
how
hbox
řed
zs
▁Franc
▁asshole
▁friendly
▁td
ibration
)),
▁cope
换
setText
san
▁slope
▁interpret
ớ
▁drew
Sprintf
▁Cant
▁health
▁Friend
▁Frankfurt
вой
address
▁Mail
SERVICE
human
▁Gym
▁UTC
▁був
ima
▁Flash
▁Eliz
▁Env
typ
現
vent
UUID
sh
▁RC
pref
▁sede
▁band
▁treatments
▁declined
▁tmp
""
agg
ends
▁basket
mont
Services
roe
}}}\
bf
▁computing
▁College
▁oppon
▁craft
iano
}_
▁assumes
▁mon
alph
義
ǝ
sources
кото
woman
enge
▁million
밀
길
▁mul
▁cryst
発
/>
▁Фи
'])
▁byte
▁più
мина
▁optimal
▁scenarios
▁climbed
Paths
▁installation
ara
▁Czech
พ
▁dice
▁DM
▁harvest
▁Wald
▁justice
textsc
▁tempo
▁Use
▁earth
free
▁developer
▁flowers
▁baby
▁Hit
▁inline
Android
лаго
▁Coun
▁appropri
▁Man
Arg
仪
Result
▁releasing
▁différent
ERN
ijk
▁Jorge
resume
▁Really
严
rud
▁Aleks
ской
fit
uh
▁term
夜
▁science
ት
▁James
▁LIABILITY
TREE
ength
▁usual
changing
▁runs
▁completing
scripts
▁exports
军
許
▁gan
ಯ
anne
tol
gar
Ops
<0xC8>
晚
の
itage
ces
út
▁For
▁various
著
確
mma
arts
oji
▁obra
love
▁Besch
▁yield
▁condition
stat
▁gli
Other
nament
▁Une
館
▁paste
pgfset
▁Ell
▁Illinois
일
▁Nat
ја
pled
▁Pak
una
None
▁Mathemat
ـ
policy
ics
Ro
▁allem
▁example
*)
▁succeeded
▁Mundial
Record
”)
▁slic
management
atio
▁Cow
▁below
▁boring
▁día
▁SD
itsch
▁stood
ncia
▁Learn
нан

esta
ве
▁Express
▁Unlike
реди
pez
arsi
▁penis
各
▁sog
数

▁Justice
usb
▁direct
▁Fast
ació
▁AI
▁luck
team
burgh
င
▁Sur
▁van
peror
给
assertEquals
▁restaur
ক
▁Ltd
COUNT
▁Spring
▁parl
▁MVT
利
▁dirty
▁ma
▁Because
▁nu
▁constr
▁phil
▁casa
cout
borg
ů
▁Debug
aul
▁bereits
θ
▁Being
▁opposed
urity
▁Cir
ikan
amas
ahoo
▁més
▁Р
দ
铺
▁wid
▁characteristic
The
▁след
▁Shell
ility
▁doub
ionen
▁Stage
▁longitud
NR
▁}));
Transport
▁flour
▁served
▁incredible
总
▁mk
▁Pool
zu
HW
lin
▁huvud
▁sacrifice
▁scroll
external
\|
tere
▁ра
▁agreed
▁slightly
_(
▁Policy
if
▁equipped
▁interest
▁об
▁situations
▁blue
▁avec
▁solution
▁Q
d
▁reflect
▁Android
▁happily
tag
ських
▁tegen
const
Rest
▁Cert
▁Hook
á
ec
ounce
▁faculty
eder
島
▁sou
ན
▁->
▁heating
▁leur
▁[…]
<0xAC>
▁perí
¸
_)
▁theoretical
ώ
remark
__(
▁Vit
limits
▁beskrevs
Present
▁AF
▁stiff
training
ktop
ungen
▁she
ysz
packages
▼
알
▁уча
▁Pink
▁lac
olen
uset
▁Points
▁tossed
Comparator
识
▁Sv
atz
▁vita
▁forming
ERR
Pop
COMP
erase
ves
hemat
▁Swedish
▁nineteenth
including
such
▁wordt
▁Gil
▁Parl
TR
ém
▁):
▁Progress
AM
Labels
▁tracking
플
▁belong
▁conscience
▁extensive
▁Supreme
▁Gl
▁Bundes
Bro
▁wrote
www
▁Sally
DIRECT
▁vég
▁teen
being
解
▁cancell
VICE
permission
generated
具
Package
▁crashed
riet
▁decline
iron
sym
Đ
▁Everyone
▁procedures
ubl
▁abortion
▁grown
Navigation
▁bottles
▁Gest
▁doit
lord
adores
▁input
▁Features
▁tickets
▁Pu
lam
ograp
▁Wu
▁peaceful
▁faithful
▁Vancouver
▁goods
▁understanding
Drag
Length
▁соста
Em
़
rum
xa
▁requests
▁demo
▁North
▁rust
▁Colombia
▁Saison
▁protecting
ING
▁WR
▁Green
▁péri
,
▁ment
akt
Elements
▁necessarily
ктив
olate
▁party
▁Contact
▁Sü
▁Giov
▁neue
個
стра
се
swap
▁réal
orth
▁fly
▁habit
▁hybrid
▁Hav
▁Kent
izard
ährend
▁Col
BP
because
葉
)}(
ava
če
oma
▁Drive
▁s
▁Ro
▁bew
▁mond
▁cer
▁finishing
▁outstanding
atever
▁demand
pick
▁corpor
猫
mu
▁Safety
▁Yam
▁Lucas
abb
「
▁bonds
▁besk
▁jap
珠
Down
▁throwing
zza
▁Fre
Ga
▁singular
▁characteristics
heit
▁determin
▁Clinton
ូ
forced
Throw
▁shallow
fte
▁harm
屋
WRITE
容
atti
slot
oton
▁persistent
third
<0x7D>
▁Christianity
▁tit
▁mater
▁easiest
TIME
ции
▁sanct
ником
▁structures
ome
↘
▁brands
▁where
▁anni
Mus
ŏ
LowerCase
▁ex
ว
基
jsp
▁rescue
archy
▁entrepre
Der
Dit
ondo
Password
frames
——
textwidth
nice
▁Who
«
尔
▁до
▁silently
▁nice
▁collapsed
▁utterly
Points
日
▁Universal
чат
▁encoded
▁Begin
▁Temp
ono
Ber
▁Min
ी
▁Pere
▁marketing
▁Portuguese
Priv
别
▁aim
neq
uations
▁planted
вро
ман
Modal
green
uge
▁noticed
мия
բ
▁MB
▁dimensional
▁серед
▁jo
▁fest
▁institut
就
▁После
▁lesson
spect
▁eat
EB
Е
▁dataset
▁lav
▁pb
▁psychology
▁peaks
ра
ствен
▁motor
▁Unless
署
SUPPORT
<?
去
кси
▁Inv
THER
▁ah
quad
▁);
▁tin
environment
Room
sil
▁attended
without
LIED
gens
▁risk
▁tobacco
ipv
▁Hall
▁Keep
teger
▁н
▁enemies
š
▁exec
▁tender
▁Colonel
____
alle
abs
▁forehead
▁sei
▁Sold
ided
▁Steph
▁pob
function
security
pisode
▁accompanied
▁rac
lle
тер
)}{
▁mercy
尽
Hand
▁conscious
▁reliable
▁stag
▁suits
▁Names
ul
ning
▁file
▁nouvelle
grid
­
PEND
▁implemented
жи
▁два
erst
▁Observable
à
▁Dest
▁answ
Ź
rias
UNKNOWN
식
🏾
pub
▁Disc
Operation
▁Polish
addClass
천
ró
h
Ј
▁happiness
傳
▁seasons
arch
springframework
▁engaging
▁divisions
ោ
▁fare
▁Dennis
▁Nem
▁exper
AtA
國
▁cable
vert
vision
▁prize
▁idiot
组
择
▁(__
▁revers
▁vis
ashed
▁ES
dispatch
▁ident
your
▁semi
OBJECT
▁ramp
Try
▁deutscher
▁Aunt
versation
戶
▁Terms
neur
щ
▁pit
糊
▁dangerous
▁составля
▁Ris
▁Glasgow
▁endless
▁partic
▁Olympics
▁Creek
ument
▁Oregon
џ
▁mut
▁seat
ode
ɒ
▁quickly
itemize
Parse
▁Sciences
ної
▁conditions
BE
hent
лия
ѣ
Extra
帧
▁disput
▁prest
▁кла
▁Century
Sk
PER
▁Pete
Net
usement
.
▁Europ
******/
Rotation
▁emperor
▁automated
▁historian
aff
▁Si
Element
▁eyes
tw
nf
▁Anal
u
▁experi
▁??
▁amplit
▁meantime
JS
▁q
▁giornata
▁slipped
▁policy
▁Ward
递
▁Netflix
tos
icians
▁Univers
▁pup
хов
adas
▁generations
▁WH
личи
▁shoe
▁BA
<0xC1>
▁село
▁indicator
▁Found
▁stepping
FE
▁skills
▁ih
▁taste
▁galaxies
London
зи
▁design
▁argv
▁holiday
Univers
화
Č
film
parency
▁Bet
uff
Expression
▁leaving
▁students
▁ought
BA
destination
▁ста
▁Coll
▁меда
ission
▁damage
江
amped
onne
ham
▁trading
products
device
▁Ken
聚
▁Rest
rif
▁jumping
mouth
ospel
St
bb
▁Bark
▁XII
News
ச
▁exp
▁Norweg
ool
▁arms
▁trapped
river
van
▁BB
ﬁ
Old
chap
▁Exper
ince
▁alt
▁Chairman
번
▁Ju
▁lawyers
цо
olutions
ss
▁grief
여
ход
🟠
▁inner
▁reference
ifik
wave
content
VED
chi
▁modules
▁cooper
atives
▁free
д
<0x26>
illas
บ
aches
save
mgr
▁Platz
▁snake
ique
serialize
▁chopped
▁gras
вор
issement
think
（
▁IN
▁lieutenant
▁sil
▁aliment
▁released
▁Read
ueto
▁spite
▁wer
redit
▁searched
▁elaborate
њи
▁Tut
Destination
▁gotten
▁Examples
▁guessed
:"
▁Girls
票
ao
▁spec
нии
Psi
▁Ли
osex
▁r
▁tak
ią
▁Selection
}}$.
浮
itionally
▁Starting
▁num
jours
▁Gregory
▁Development
▁earlier
ի
шка
Lead
convert
ම
rat
▁weap
▁Islam
▁upon
▁Atl
ffen
NULL
▁Dale
▁myst
apon
▁Amer
feed
▁defend
▁Nevertheless
acz
▁overcome
▁Naval
▁Auth
▁Friedrich
▁presumably
▁way
sembly
Util
Key
raid
▁structured
▁tim
▁senior
unlock
▁Por
▁adaptation
lp
▁Tim
="/
weg
Her
▁Bir
▁—
▁spir
▁mutual
Failure
好
▁Un
Post
▁md
Paul
emu
D
剪
Agent
▁toler
佛
agonal
▁rue
շ
<0xEE>
▁recuper
▁advantages
▁remains
▁holes
▁categ
▁kinds
Tick
<0x76>
ського
▁Elect
adel
Opt
▁titled
▁diabetes
pletion
'"
▁brushed
▁mad
xt
▁substr
Los
ground
▁gentleman
ifiable
anean
шая
ainted
▁con
▁confirmed
loss
明
igg
▁stretch
▁того
ポ
ья
▁meaning
▁lungs
▁qu
ury
skich
▁rum
IGN
▁McG
ette
▁Whe
▁gene
skip
invalid
▁Steel
▁pu
omena
▁Success
aat
Nil
笑
哈
▁specifically
▁profit
ighter
home
▁"</
ollen
IF
▁смер
gence
▁Sp
())
▁truth
eland
ен
▁careers
巴
Pre
Prim
andon
▁battle
▁Hud
entities
ore
▁diagn
ialog
▁resolution
▁narrative
Union
liter
流
▁titles
▁Shadow
akten
▁records
▁hell
▁pid
▁quart
▁были
▁Ale
ět
small
▁Saudi
Tex
▁stat
л
ASS
▁like
POWER
▁Upon
尺
Aug
serie
▁ton
▁Cooper
ба
▁Home
▁groupe
▁medicine
▁Between
▁worker
▁Dictionary
to
toggle
▁Herr
统
▁stages
▁GR
era
▁periodic
▁className
▁subs
▁dest
Delay
Ə
▁quad
▁$,
נ
▁representing
み
foreach
▁junk
▁BR
▁sele
earch
▁empower
▁Ста
▁plates
▁habitantes
.")
getKey
▁donde
Dest
▁constructor
constructor
▁construct
▁Commun
mart
itches
▁byl
‒
oy
▁Tony
ît
▁чтобы
cord
ruit
传
<0xC9>
ARG
▁properly
DI
onical
▁dish
冰
▁adapted
▁dawn
uther
▁Fou
▁Pan
▁Doctor
VERSION
Conne
▁king
▁sucked
▁resc
▁stop
}}_
▁insisted
▁pelo
▁flowing
mmc
▁Ple
▁mos
▁rec
：
ut
▁savings
weak
▁fundamental
▁Gate
▁пос
ised
<0x1C>
▁hely
代
frastructure
▁animation
▁joy
<0xC5>
▁Anne
ategory
▁solving
▁zurück
vas
진
cat
▁bom
▁domains
▁relating
替
▁mö
▁amen
▁Tell
ología
draft
order
▁calculate
▁исполь
ICS
▁Share
iciency
ные
▁molecular
Commands
ó
▁determination
kt
▁European
▁Lev
allo
▁Posted
}}(\
▁occupation
▁maggio
▁време
▁Mer
▁Flight
ть
▁Tay
▁IllegalArgument
▁loaded
▁wing
▁on
▁Asia
▁click
▁joint
▁influenced
imen
▁negotiations
ึ
ledge
▁excited
免
▁Council
▁injury
ную
▁CM
▁destro
▁internet
▁Histor
▁encuent
▁simpler
▁Ten
▁produces
질
▁Rab
▁Welt
up
애
▁Will
▁officer
▁govern
▁yet
persistence
odio
▁minut
revs
▁jest
),
▁Mort
▁memory
▁rubber
▁Such
Been
근
▁tokens
选
▁seats
▁ac
▁contributors
extract
WITH
."_
olding
▁czas
volution
▁baseball
LE
▁пр
ân
▁buying
elia
Ď
stance
ques
тся
ilarly
▁why
▁watching
▁voc
▁ces
Future
▁toy
吉
RF
▁Sev
▁surviv
▁explicit
َ
asa
▁deliber
<0x2C>
▁reserve
iliary
arettes
▁territory
▁fam
力
wait
Unique
orted
whel
▁só
Sim
▁fetch
▁lett
▁República
▁Со
aine
fw
▁Ye
Scan
▁yours
ationship
优
▁dealt
colo
idos
ə
▁bombs
▁patience
ස
XT
▁Land
▁wen
▁prayer
▁Cas
Each
hing
▁oven
▁Punk
ế
Abstract
控
els
)(
▁EX
prev
▁Rachel
ổ
tocol
<0x17>
▁encode
▁Norway
▁Foot
effective
рович
▁Overall
打
ов
▁minister
noon
обра
▁hands
ást
▁pied
▁Muslims
),\
▁uncertainty
▁Jap

▁lik
▁interval
impl
Something
▁completed
omo
attribute
伝
sleep
▁you
Was
isti
Hist
▁dod
Prev
<0x89>
lay
QU
▁east
Drawing
▁ellos
ʂ
▁puede
있
▁Astr
pert
▁Adult
на
赖
both
▁quietly
▁Hans
compass
▁WM
▁роди
getClass
▁bought
▁OTHER
👀
appoint
white
▁naam
▁Afr
Ind
beans
▁accurately
<0x79>
▁vag
▁Wait
▁planets
▁enforcement
▁Display
▁SER
food
gang
rome
▁assertEquals
ctions
▁estate
☉
▁Reb
hetic
▁Bull
▁Manufact
▁consciousness
кор
▁fis
▁opponent
▁ops
▁grass
HS
Percent
▁attach
urious
[
ús
▁Karl
▁expenses
▁proposed
▁technically
▁diciembre
▁Born
▁official
("#
▁challenging
▁Piet
▁meal
▁technical
▁Nixon
▁suo
mic
▁Rhe
▁irrelevant
DIP
▁ар
theorem
evt
Property
▁careful
chestra
意
ug
FMT
zig
ice
`.
▁purposes
ĭ
ALSE
pute
▁remainder
▁Coach
▁не
▁Average
▁Recent
Sample
▁choice
RW
acci
▁Jar
Al
outes
ź
▁prop
yout
';
▁зі
Why
▁dispar
▁Das
ician
▁Floor
▁virus
▁vars
▁box
ча
ਾ
ifornia
▁pol
ga
Produ
inity
▁iteration
aring
▁metres
пре
▁Theory
▁Fisher
▁fantasy
▁selector
ming
title
ward
ступа
omas
ipher
Have
Es
▁drap
ples
▁'%
who
▁lod
▁drinking
刻
лин
Mut
ruption
aved
avity
▁aircraft
▁READ
undo
Д
Ah
▁perm
Esp
vá
▁carrier
repo
▁accessed
▁Singles
▁política
▁bez
ա
mk
ბ
мон
표
▁Sa
Fixed
group
▁situ
▁troops
utt
▁denom
abling
disabled
▁invitation
早
ជ
И
▁universal
Attrib
▁popula
▁volunt
umbling
▁strikes
▁mush
▁bl
▁translated
▁Parse
▁Hand
▁Insp
◆
▁coron
▁musician
▁memorial
▁FOR
▁trab
▁wetenschapp
▁secre
Only
avor
▁consecut
▁posterior
/:
ograf
▁deputy
uffix
점
▁Kel
▁trust
▁test
▁pocket
▁blocking
relative
LEASE
▁Australia
▁inserted
la
▁fem
▁Jane
Plus
▁Sab
Mat
Encoder
ric
▁folk
<0x1E>
områ
▁Harvard
▁notable
▁Daniel
nat
ث
label
▁después
▁INC
ITY
special
Google
▁Transaction
재
zahl
protocol
▁awake
г
▁Jimmy
textcolor
*(
▁spo
▁Kenya
她
andy
inde
entially
▁wsp
▁ener
})$.
над
▁appl
▁Дже
oche
Packet
▁losses
heet
▁gains
peated
▁anything
▁signed
▁като
▁form
▁spel
start
kar
▁stories
insn
▁immedi
▁ears
▁Lub
▁clim
▁dependency
▁Jesse
▁Kim
▁Sed
▁wants
▁[...
ocratic
▁Pres
nosti
„
request
ale
▁meas
▁Age
🤷
▁Wien
▁Review
jel
▁gran
▁protein
will
▁Friday
Out
▁altern
▁da
рова
ber
▁seeking
▁MIN
▁interpreted
▁abruptly
▁films
ใ
答
domain
▁Art
▁Money
▁buff
▁Scott
▁Plan
aa
▁convent
并
amer
angs
▁emergency
textbf
lett
▁Wing
▁Same
лага
Units
术
ch
▁Bot
ån
ా
,"
▁api
▁Specific
▁winning
нение
▁Аль
▁recruit
▁Balt
igr
ダ
▁instantly
ỳ
ington
▁Kirk
okrat
iens
▁Corps
▁Village
idge
eni
ied
체
appy
gres
▁Après
▁Margaret
Fr
rix
▁біль
ali
cy
▁Sierra
▁visits
Control
▁Pacific
▁consumption
Prote
▁collabor
usher
widehat
Ord
awi
rowser
▁department
▁exception
▁non
▁gr
mv
惠
ря
▁THIS
▁Anthony
▁área
▁hardware
strument
ἰ
▁Elizabeth
▁efect
▁Amsterdam
itch
łą
▁CA
▁gent
▁access
▁Ry
▁employ
activate
▁Colin
▁BL
aises
▁Ap
染
binary
▁relig
Il
cussion
bey
$}
▁tattoo
ned
Best
船
▁rem
webpack
rip
ė
FA
▁reset
Move
subseteq
▁ph
ething
▁made
ched
▁such
▁Dialog
tu
▁Vegas
Dot
))))
范
won
contrib
gen
▁rad
▁sexual
▁стар
▁likewise
⋆
▁Treat
▁tan
▁standards
▁Door
▁Januar
izable
د
▁graph
▁trauma
skiego
年
▁Unfortunately
▁What
<0xF6>
▁rég
▁recover
▁recognized
пей
▁abstract
▁Sleep
ella
▁Freder
ments
▁Example
変
▁January
▁Kirche
▁electronic
раль
▁cited
▁brows
yk
raph
₂
ё
Child
▁cargo
▁Circ
▁earnings
▁народ
▁Ark
▁Georg
▁compute
Member
▁smaller
Reference
▁sudden
ién
▁Luke
▁enum
▁claim
телей
▁Metro
▁sty
Ke
址
ongs
ка
▁Labor
вра
▁daughter
ється
runner
▁charge
▁cigarette
Migration
fare
.**
═
▁exclusively
▁normalized
▁grew
▁decre
▁sharp
▁please
▁Stars
▁available
EE
▁ownership
▁Brooklyn
▁league
▁valuable
%,
▁physics
NEW
▁Cook
CTRL
elfare
▁square
▁Child
আ
▁Zone
buff
▁card
life
▁locally
▁Ts
▁courage
////////
chg
▁Agricult
UM
ENUM
左
業
pa
▁Ord
Emitter
▁burn
▁US
PN
iration
ums
chter
▁assess
unes
<0x8F>
мене
▁Invest
▁muscle
▁delen
dex
oven
posts
ford
▁Dre
▁Ю
ardi
▁lifting
istrzost
ENDOR
▁scored
jes
hyper
▁Britain
olar
▁brill
▁desert
elcome
download
▁ship
rec
<0xA0>
No
lists
ภ
▁Th
icking
▁declaration
往
inter
▁contributions
▁'@
임
╔
▁someone
USED
▁pione
ritz
▁<
краї
▁organisation
▁Jamie
▁dogs
▁weather
▁pued
Sub
iNdEx
linked
▁dry
utf
▁Quick
ibly
eting
▁gaze
Ü
Team
▁internal
werk
▁corrections
▁wheat
EST
iface
▁Writing
▁Era
▁arr
ар
▁roce
cross
upp
▁Edge
Runtime
▁partly
▁Lost
ego
▁así
wahl
▁establish
▁Step
▁kil
,\,
▁san
names
INK
▁pot
Typ
▁screw
▁Aff
▁Rena
tit
▁push
adj
▁withdrawal
cipe
▁attribute
▁mism
▁Bin
.....
guard
glied
<0x1A>
▁},
нер
ely
▁bere
▁diameter
▁Staff
pause
omm
再
ා
▁demonstr
▁cinema
▁gard
soft
▁Memorial
sf
▁Anyone
▁elő
leen
▁▁▁▁▁▁▁▁▁▁▁
let
aneous
朱
▁oficial
fel
Analysis
uras
cx
▁поли
Capt
방
▁Londres
њ
Base
ès
▁eternal
▁summar
▁chapters
inst
▁punch
contr
шение
▁Rud
▁Bar
mon
orden
▁sz
▁Ру
▁sp
▁molto
▁În
Mapper
▁sank
▁steam
κ
▁mens
ге
▁charged
ätt
▁Й
▁Ré
смо
▁infant
▁htt
▁//!
▁txt
▁'{
plicity
迎
▁Ult
most
▁teams
▁among
<0x18>
，
▁yards
▁sheet
Function
izado
▁Пер
zeichnet
All
sta
ück
Autowired
▁Situ
▁à
▁Foster
▁Parliament
▁Jeff
▁enorm
▁Cup
éta
▁propaganda
Fill
▁spotted
ipage
ز
弹
▁from
タ
attle
▁'.
aye
ە
▁convinced
▁helpless
ere
▁girl
OF
nte
▁có
outine
행
Msg
Catalog
融
нения
ນ
aro
▁Jesus
rez
▁rendering
onds
▁warehouse
家
tooltip
夏
gle
▁скла
▁sov
▁Mis
iod
馬
Th
itan
▁forest
EEE
▁Eff
继
ёт
▁presc
itempty
▁mit
▁ha
▁journal
▁Kiss
beit
▁pant
▁Edition
role
helm
pas
WriteLine
侧
▁b
▁recipes
ituted
vertical
Our
▁expend
▁live
▁Red
ком
▁je
eno
Culture
inners
▁complex
Link
дри
kal
▁limitation
▁Sver
▁satisfying
asticsearch
ország
istribut
sb
▁hover
❒
▁Gen
▁pand
缓
he
▁:=
jection
▁soccer
▁dominant
▁\[
▁anytime
áv
▁hardly
ський
Balance
}{(
iso
奖
▁User
▁Pl
chedul
▁dispatch
▁Natural
ggi
▁XVII
information
rey
亞
▁teacher
▁samples
▁breakfast
▁log
HER
▁Component
▁layers
▁Carn
controller
enses
'*
Bin
▁hum
Hz
'].
>()
▁Dat
▁King
▁Israeli
▁Parad
命
▁shit
▁material
ional
▁success
▁aest
doc
▁coins
⁄
▁realm
Microsoft
sound
utenant
▁spray
ך
▁mai
Driver
▁rest
▁encoding
▁ware
▁sweep
词
press
emph
yers
▁delicate
▁fund
▁donne
▁moisture
Groups
verts
ḫ
▁т
utschen
stances
▁brother
eth
▁Err
▁tires
▁OF
▁lists
▁reputation
boost
改
▁verify
恋
▁contest
法
▁alla
올
״
▁постро
▁fingers
▁caller
llvm
▁deleg
▁mentioned
Est
▁stance
▁Albert
iet
▁intentions
際
▁dough
ér
velope
)]
▁student
▁году
－
▁regarding
VENDOR
▁materials
կ
▁Bloom
olved
▁sealed
▁pobl
▁whose
List
Structure
ged
▁upp
▁Ridge
▁flying
▁checking
▁summon
钟
จ
▁Episode
▁Marcel
ishment
-------------
▁Sta
▁libre
暴
bm
iane
▁пара
▁measurements
▁robot
▁Private
atform
▁Bron
Special
▁pants
▁passion
Mail
▁green
작
▁Root
▁cu
endor
src
лич
▁associate
naio
▁Bridge
▁Get
▁uk
▁vä
skim
"),
Accept
▁configured
▁administer
▁Hier
▁compass
▁suggestion
AMP
Output
̶
iew
atts
▁Holmes
▁punto
指
icient
ское
olves
T
contents
▁Gab
▁Artist
king
)+
▁permit
ainer
▁shaped
▁curr
▁publications
рей
Reason
бур
kee
ablo
▁dispers
args
lyn
▁Script
Tooltip
return
▁prosper
▀
▁mic
("<
Up
▁Укра
▁бы
▁ши
WINDO
Illuminate
},\
▁Kyle
le
▁Rules
ard
构
trag
iving
▁till
ким
▁niet
▁interference
rå
▁feel
itled
▁sam
▁tense
▁peu
ւ
▁associations
立
bery
ement
opic
▁charity
▁alongside
robe
ocolate
▁resort
ratio
ielte
▁reaching
oen
▁vacuum
inks
amily
TING
▁halfway
▁част
加
宏
Network
▁europe
<0x68>
resent
SON
▁blessed
application
▁processing
ault
READ
ichen
intr
activity
▁bet
▁rising
▁List
bach
▁awards
▁rhythm
ONT
▁corruption
change
)\
<0x0A>
▁rot
▁Self
dash
▁fastest
▁harmful
Detail
▁excess
▁observed
Nothing
←
before
ião
athol
▁дере
▁atmosphere
ipped
routes
翻
чина
}},
▁mondiale
ò
ή
nate
▁description
▁companions
▁hab
itung
初
throws
仁
▁Jenny
▁occup
usa
▁$$\
omot
▁Danny
ACCESS
国
ǔ
\|_{
▁bitter
Sound
▁geld
升
▁obst
bat
än
▁autonom
▁wisdom
uest

▁but
rium
▁woke
▁дея
▁tort
▁attractive
▁AMD
upport
lessness
Left
▁logic
▁rig
hang
pgfpathlineto
▁cotton
▁сі
stderr
annon
aned
▁sleep
itions
▁record
ATCH
兄
▁lowered
▁toile
▁})
▁Blood
▁mem
Java
▁deb
▁mű
lete
udad
▁hid
▁faster
楼
▁settled
Install
maps
▁fő
▁mim
▁copied
▁reporters
▁contro
▁има
▁unos
paid
▁December
末
his
▁giugno
]->
▁partie
berg
▁Kh
parents
furt
였
▁tym
initely
Item
leep
▁Six
choice
▁cream
▁MC
界
exec
▁paused
▁sick
▁deven
東
영
塊
▁'_
▁AG
▁Urs
▁Going
enson
▁Set
<0x6C>
ื
▁maintaining
▁bitch
▁kat
▁Mon
float
ју
▁Вы
Decoder
params
▁Samuel
▁gorge
ὸ
▁dut
[])
ăr
iffe
▁see
ța
$
•
▁employer
ர
▁leaders
prefix
▁Finn
Saint
liga
泉
AX
▁feet
▁PK
ATTRIB
与
▁„
шо
▁deny
vod
graph
ruppe
NY
▁ф
Observ
eld
▁essere
Identifier
extr
▁Juni
▁volume
▁opinions
▁investigate
tabular
▁sustained
ному
VIEW
drive
kte
智
▁den
$('#
BG
зом
▁Mak
archive
▁technique
▁qui
Ù
▁celui
▁prec
▁tele
▁padding
nego
▁que
lection
▁Financial
đ
AAAA
▁inst
▁memories
▁Bour
▁Rect
ulates
▁vec
Ò
▁проти
▁Denmark
logo
bits
太
▁erfolg
▁sector
▁blocks
▁Using
▁settle
▁et
▁Yang
times
achel
ños
Full
Field
▁Which
нд
▁Ross
uminate
▁Alfred
}$-
稿
▁/*!
▁tact
▁Agr
>
▁since
ita
▁pi
▁constitu
fas
▁Lion
▁Str
p
▁crimes
▁Collection
=-
olid
▁De
▁Israel
abad
▁matches
▁они
▁kl
▁novels
▁Parte
▁auth
元
ске
inc
▁devices
▁sales
▁coast
orno
ironment
pts
▁WIN
▁helmet
▁appreciate
▁"[
▁clean
кре
Deep
▁lasted
▁tears
교
Save
▁Slow
egy
▁consisted
▁Ober
💎
tr
▁confident
OUT
oose
adjust
ball
OFF
▁label
▁Leip
✭
▁current
則
opp
▁veter
▁стан
AND
about
chan
▁Cruz
▁ET
]['
entric
▁accomplish
▁friend
éri
osing
▁stayed
▁filed
警
▁ша
▁vert
▁Institute
▁Ireland
▁teach
▁waar
▁това
писи
▁drove
▁CHECK
지
▁booking
<0xE0>
▁torn
▁product
豆
цию
▁techn
π
』
▁listed
*"
▁ш
▁Digital
вання
▁gem
br
colm
atos
▁Figure
残
THREAD
razy
▁instrument
Method
▁treat
ación
▁VII
lor
вий
▁для
▁Yu
▁sect
▁Incre
▁Fur
ற
translation
PM
▁quel
▁Ku
Transition
Des
▁пу
▁dynamics
▁arena
▁ná
▁История
}),
hung
始
▁pupp
্
ità
▁mines
UI
▁compared
interface
Url
▁Jes
▁Universität
▁lot
์
▁acting
▁forces
Host
▁sua
private
▁Stra
UND
▁ig
*\
▁raises
pin
istro
oting
▁concern
▁Arn
▁Sometimes
▁Lock
▁operations
uno
▁Rot
IFY
▁pri
▁snd
▁w
ǫ
▁Lou
▁Ne
▁prend
▁advance
ˇ
<0xA7>
"));
Inline
<0x1B>
▁course
haps
pload
>;
计
awt
PARAM
▁soort
query
nea
▁produced
journal
ola
▁Detroit
layers
rics
▁Basic
¿
My
▁Quarter
▁service
iba
зі
到
Austral
ena
cover
Anim
▁Message
▁beard
Do
▁followed
▁opt
▁bound
para
▁charming
▁ignorant
▁jury
EVENT
期
▁lif
WO
언
▁able
▁acres
▁English
▁src
▁DEF
▁і
▁cattle
▁brutal
▁Holly
шин
▁triumph
▁hast
embre
▁appreciation
无
)}_{
▁noise
▁notation
Margin
Local
Creat
iders
construction
Ա
global
Virtual
▁maintained
▁params
Is
−
endl
ibil
▁Register
▁Filip
▁Publishing
variables
မ
▁haut
▁Фе
▁Nor
▁Feature
▁Community
domin
clusion
▁imply
asure
地
ycl
隊
aría
▁alloc
▁hop
▁Tuesday
ської
TRY
▁wyd
▁ministry
▁Sak
erts

hm
olph
▁might
▁collar
▁clients
▁buck
ère
▁sky
▁Roll
▁printf
▁worden
iences
▁eastern
щё
urance
HOME
UInt
ole
▁Barcelona
结
anz
▁permissions
paper
ROOT
⣿
▁excuse
eenth
ग
▁sort
節
<0x5A>
organ
▁liegt
▁Pays
▁нау
tty
▁pull
▁ter
▁sliding
▁unw
▁más
DataType
}^{
renderer
详
NonNull
▁variant
▁goals
▁wreck
aires
▁entertainment
facebook
мат
"\
▁unique
▁direction
▁brown
▁proper
ane
."""
▁substance
▁{
▁volumes
4
xis
sections
▁Leb
useppe
<0x57>
▁основ
ITS
Found
▁Practice
▁Finale
adu
▁Fly
exp
▁tops
▁Morris
▁sample
ORK
Statement
ève
▁wor
▁als
Come
▁keyword
▁Nie
▁RE
▁Tommy
ockets
▁worried
设
▁Bowl
vor
▁enables
Sam
▁controlling
▁FO
arp
Complete
▁polic
athon
oby
▁[
ife
▁Anyway
▁dead
father
failure
▁titolo
吃
▁skb
▁criminal
▁SDValue
▁terrorist
▁songs
host
報
<0x0F>
Line
izes
evel
▁innov
▁inaug
▁cases
,_
▁type
тро
▁Emily
▁kicked
SEQU
▁tout
hof
▁Ende
react
Luc
visor
eous
▁TEXT
ил
Time
▁lux
watch
▁austral
▁opacity
▁DAMAGES
Workspace
▁Schw
<0x12>
▁Where
▁tend
iliar
▁boss
▁colleg
▁following
▁unem
gr
га
▁guests
▁listade
endo
▁apply
們
arians
cp
othe
stal
▁punt
Land
go
Inv
Dep
▁voices
▁dedic
▁began
▁clinic
▁enabling
沙
fu
▁Ки
codec
ares
▁egy
être
▁cycles
bage
ാ
▁Da
роб
бора
章
ilar
▁gu
▁seg
▁fight
uvud
▁macro
formation
▁inherit
▁Nou
▁Aaron
▁Tw
▁trials
▁lanz
alue
▁determines
▁extensions
▁deutsch
ensitive
acon
▁how
▁pose
Main
▁verified
▁downt
Expect
▁Moh
▁FI
jekt
þ
张
▁blo
USH
▁Ty
MBOL
否
ederal
▁asked
▁introdu
▁});
ts
ague
ycle
node
ls
▁aware
ac
allas
▁circul
▁préc
▁ob
▁special
▁heavy
▁df
▁aer
▁Stalin
cola
▁Deutsch
disp
р
▁ej
allet
miss
У
aise
▁corrupt
мен
lect
//
▁username
▁cried
或
lä
app
▁tower
▁sevent
▁Background
▁cit
▁create
)?
="
dat
▁Syd
wie
itta
▁ging
iat
▁March
Credentials
ogo
ENO
WIDTH
▁Claude
▁glad
gra
▁tu
▁ancora
!("
ை
▁Boston
Die
▁jej
ounter
▁caract
board
оло
▁Auto
dma
lookup
▁Votes
▁Е
▁End
▁LI
▁č
citep
REGION
Super
▁Exhib
kin
▁PARTIC
phant
▁edit
ensuremath
▁commission
<0x88>
▁embrace
icts
"];
▁especial
▁Taiwan
ʔ
▁physically
▁deck
▁configurations
ILED
미
▁вре
▁these
gy
▁labeled
diag
ffect
급
▁fünf
▁U
▁Jin
述
ʲ
▁choices
▁marca
▁psy
columns
치
▁Bald
olu
▁Liter
▁behalf
▁comedy
▁caring
bst
▁pict
▁coinc
约
}{
tot
icate
▁cru
appro
)-\
},
*-
MY
▁batteries
unkt
▁Malaysia
OB
▁його
▁incorporate
択
Wrapper
▁бра
▁Bass
Setup
Tracker
▁мо
armed
той
▁white
ception
▁Bush
▁Raf
▁concerned
▁programming
▁sens
อ
▁alle
ensis
тии
».
▁promote
▁Requ
▁Army
Bounds
▁shitty
six
▁dici
▁circular
▁air

▁comp
🚀
resolved
[@
section
▁transitions
▁approved
cription
Clause
ství
mux
▁Jersey
var
▁purchased
▁reporter
動
▁Hugo
▁deals
ˈ
▁champion
ERROR
Second
▁Mais
▁amely
▁depression
▁sen
▁größ
▁integer
▁awful
psi
▁rom
Acc
ROW
auf
Instruction
▁congress
▁octubre
▁structural
▁systems
CodeAttribute
▁même
rob
▁cot
нал
tau
▁cool
▁towel
ک
▁clouds
▁expense
▁instance
▁increased
▁);
▁enormous
▁Describe
obil
Description
▁mold
匹
▁cups
ffff
▁collaboration
Щ
▁Food
REL
Wallet
▁divor
▁“
▁frances
▁Hawai
Segment
▁intermediate
ም
ventory
▁jerk
ager
실
Created
▁MERCHANTABILITY
▁possibly
▁vess
#{
▁initiative
▁winds
▁skull
▁Ал
▁restr
!=
stringify
▁Agreement
рія
▁logs
stack
nb
<0xE7>
ency
▁operating
orne
▁Premier
underline
ciples
CASE
▁P
################
▁wish
τ
amber
attr
▁diet
country
cancel
▁enthusi
语
Cursor
▁Put
NORMAL
ICK
shape
▁medic
stmt
▁LP
changed
▁sk
▁months
thern
tesy
ningen
aden
Middleware
art
onto
▁chemical
)))
▁minimum
▁Times
Î
▁Dave
Position
裡
ass
iges
ᴛ
▁appointment
table
umped
size
▁contained
<0xEB>
ktion
▁difficulties
▁Kl
apis
ские
▁upper
▁compte
xFC
▁still
确
科
▁grants
ENTIAL
vere
▁Mans
▁executive
gew
▁curve
▁coff
▁argument
េ
CH
rial
▁leverage
multiple
▁cré
yan
tpl
▁Roy
▁certified
ictions
▁finns
override
▁Salv
▁/
램
crate
▁Mel
▁тако
ин
贝
getString
然
▁powder
▁pills
idle
зова
ность
Nd
▁poured
éal
▁async
тет
▁documents
▁minutes
▁dé
▁#!/
zione
oenix
empl
atte
///
IB
▁frustr
df
igne
▁Ian
plete
▁upload
▁five
shaped
▁make
”,
隔
('.
▁fant
▁porte
▁constraint
Keys
▁supporters
▁subst
andom
▁momentum
▁specific
child
▁tw
▁explore
▁mint
espec
▁skirt
eman
▁deemed
▁things
puis
▁scient
Regex
ousel
▁coverage
ohn
▁dramatically
▁navig
eau
astic
раз
▁distinctive
▁royal
▁Government
害
ི
▁domin
쓰
uffled
▁onde
RG
aco
▁refuse
▁completely
BPACK
auer
▁victory
PROPERTY
▁conservative
consin
Ι
erc
mero
looking
ῦ
▁pride
▁sab
&
ска
ays
▁insect
▁disp
▁","
ề
ди
heng
okat
={{
rop
walk
▁mountains
▁intro
▁floating
透
▁Identity
a
▁({\
▁producing
▁Old
▁Both
▁However
▁proposition
ស
adora
PCM
▁Ident
▁#####
▁ре
▁hay
▁should
▁&=&
Constraint
especially
▁charges
▁orth
▁перед
▁focusing
ALE
PRESS
▁makeup
▁hade
frequency
▁forty
K
цій
=""
▁Office
▁suffering
nor
<0xEA>
itt
▁Gott
Student
<>();
▁Author
▁candle
▁zijn
ceiver
▁disease
TRUE
▁shock
card
sburgh
▁innoc
results
Que
ansk
atto
舞
ֵ
GLOBAL
▁LIABLE
▁су
atom
▁stalk
虎
anked
འ
ente
▁limit
лове
<0xDF>
来
hist
▁py
getInt
▁organizations
▁father
irit
▁Together
▁Eva
▁familia
MED
▁bothered
▁Black
▁politicians
agraph
▁Fal
▁аль
POINT
▁fisher
水
口
▁returns
▁wars
▁Less
▁Days
ft
PR
▁ded
Own
▁Your
vendor
▁field
brace
▁parish
雷
MP
▁summary
hen
▁own
ministr
▁passed
enu
▁Summer
WN
suit
▁sprintf
íses
▁LO
▁Inga
▁workers
▁sciences
▁Hur
äll
ɣ
red
uk
Cred
nar
▁Present
▁є
atisf
jet
▁bek
▁занима
led
▁ArrayList
AB
Module
▁your
isch
ная
▁puts
ган
Photo
ahl
▁carrying
unicip
▁ки
pan
▁address
▁ingredients
bit
quality
儿
▁supers
▁ticket
!\
ail
cher
▁virtue
▁occasions
颜
him
▁escaped
xFF
▁mm
ɯ
EventHandler
ato
burg
▁bone
▁raison
ід
CY
bes
px
ECT
▁listened
▁Mannschaft
孩
ене
rij
arm
vspace
▁bij
inct
▁авгу
▁Fat
▁mainstream
▁tam
zenie
ivalent
öst
lag
reverse
▁Legend
eler
▁empire
▁officers
']['
twitter
pu
▁exact
▁coordinate
▁portal
ebru
▁VIII
iness
Initial
White
reme
ATA
آ
aña
▁clever
anging
▁race
▁idx
▁licensed
capture
▁Sund
Uniform
▁duplicate
umes
▁search
之
BUF
▁otto
▁Oh
▁gleich
▁artillery
▁TODO
▁contents
▁йо
▁Süd
bing
▁regulation
乡
бри
ги
::<
▁Dy
▁arrange
▁Hom
▁ї
(
▁encour
▁través
CHANGE
ӏ
etic
▁окт
terday
▁combinations
▁stored
▁bite
▁magazines
▁whispered
ʋ
▁combat
▁player
ческого
▁girlfriend
▁twisted
很
▁plaats
▁heading
aving
▁př
oubt
orable
Cluster
eds
OFFSET
宫
vel
▁construction
▁rolling
▁fluid
orage
><
▁Court
MOVE
sid
▁luglio
▁Sc
comb
▁rhet
▁naked
▁seinem
布
▁allocate
appings
▁thesis
▁ABC
ometer
ione
kit
=%
▁"""
ól
bben
]",
setValue
바
pe
▁glanced
▁André
orney
plan
▁civ
▁bleeding
ulum
CMD
▁Mond
▁gew
▁replacement
低
▁comenz
Rot
ocol
▁Students
▁Rav
▁unemployment
▁dental
iago
็
New
李
身
▁mac
machine
TC
чита
Here
range
▁frag
▁guided
▁census
▁six
ba
▁emphas
▁Bus
▁IT
site
▁Wend
▁Cache
avg
ion
▁представ
andro
▁waves
here
▁ask
riority
▁straw
▁advocate
üh
CAL
▁Je
▁correspondence
▁puls
▁Mario
zeich
▁lov
epsilon
▁Initialize
▁frequency
▁conducted
▁particle
▁arqu
▁Hus
單
▁plays
▁counts
▁nad
▁swing
GroupName
uje
▁hosting
头
▁dramatic
▁};
MetaData
reak
▁twenty
▁rope
▁retr
络
▁Music

Thank
eted
rev
Arch
ENC
▁Hero
"]["
media
合
**
crete
▁klik
чні
▁Introduction
▁companion
把
▁bunch
font
圣
關
"><?
▁truck
▁bench
Requ
unt
▁Mac
▁increasing
▁performed
Offset
Organ
▁suspension
▁severe
ERO
▁дивизи
▁Fel
header
▁Constitution
▁feeling
ine
half
▁quote
▁Ur
folder
pag
identity
NING
▁cô
▁shared
▁){
▁distress
Þ
▁Full
⇒
aky
ecause
▁PropTypes
ília
▁reinforce
▁approached
рой
▁вы
▁witnesses
▁hind
square
风
▁strateg
headers
轉
inen
▁populations
▁Ox
▁distinction
▁Napole
ours
licenses
▁ž
▁naj
▁&#
Gold
▁hours
▁Sol
▁décl
▁Dezember
▁Grow
▁sla
▁ll
▁Stack
ctors
vl
▁optim
Builder
▁Sto
▁gl
<0x37>
▁emb
–
▁président
▁horse
▁arom
▁Mechan
▁exclus
▁HP
ase
rf
ags
▁canvas
ो
▁inform
olving
ע
tle
▁voll
ki
▁volatile
ipeline
▁probably
yll
▁*=
▁Except
▁Mrs
▁engineering
▁Tip
▁capability
苗
{{
cope
▁Barcel
aller
▁Comments
▁Stadium
▁loads
ottom
养
VID
HEAD
▁Seven
▁satisfied
ORY
無
ney
▁overflow
Or
œur
▁nej
precated
▁stolen
▁bour
Converter
▁drawer
전
▁intellect
▁worldwide
itative
Ben
▁Original
▁scarc
Se
▁Fitz
bez
▁premier
allowed
▁Getting
execut
pos
▁dag
nych
거
ai
▁French
▁Implement
▁Vo
▁міс
▁befind
5
▁money
敏
▁Spirit
▁Davis
▁ride
Clock
▁RF
amd
care
emic
ilities
▁Occ
▁бо
aning
народ
ij
assertTrue
▁nn
▁jou
}}{\
▁GA
ノ
Folder
uable
▁managed
▁sup
bigg
▁эти
▁period
IAL
带
▁grip
ta
▁based
▁Bol
dummy
▁foundation
▁Trump
▁Claire
▁dav
▁youngest
'=>

god
tree
▁follow
unci
arget
public
ôt
ReadOnly
iley
志
▁canonical
⛔
▁legit
assador
<0xBB>
▁Rail
gly
▁SA
Switch
▁carry
ubernetes
ป
▁Fac
▁three
▁tissue
▁Imperial
▁decent
itas
ISING
ет
never
ll
_{
▁algo
▁another
Check
ὴ
czy
▁algorithm
Account
agle
▁développ
▁Ph
▁wasn
ersion
prod
ust
Basic
agner
fred
bands
WH
▁"");
▁gathering
东
▁quantity
▁Pod
Arrow
quick
itive
▁British
ө
▁sleeping
▁assumed
isValid
▁pian
▁discover
▁Rück
зя
▁Content
▁express
ład
▁confusing
ိ
▁repeated
цион
▁fist
▁dc
▁platforms
ទ
undle
달
▁Skip
ret
Registration
▁Convert
FORMAT
<0xE8>
always
▁Each
▁który
EL
May
▁(@
零
▁comply
▁Season
▁Harris
▁Enterprise
▁shield
SPACE
유
ulating
west
argv
▁published
▁remind
▁honey
▁lí
ailable
ivil
btn
▁herman
▁drop
▁successfully
▁togg
▁Vic
.',
▁Remember
▁Protocol
ettes
▁positive
▁Woman
crit
prom
▁tempt
**,
▁logical
ep
NaN
<0x31>
requests
ensing
▁og
▁narr
▁keine
Database
▁цер
HAND
Á
▁possession
계
ugh
})\
▁strugg
ol
Literal
▁hollow
▁counted
there
ADER
etta
▁Illegal
▁coat
чен
▁Dort
tain
▁additional
topic
▁LIMITED
▁Period
▁Кон
ille
ehicle
ans
lege
repeat
▁pl
▁dual
▁referenties
or
▁Soviet
udd
▁Ocean
▁Wrest
smith
▁mel
acker
▁Ele
▁joke
▁support
unda
▁vari
▁conform
▁naval
MMMM
нами
▁dashed
install
居
▁acknowledged
▁офи
▁insp
annotations
cro
eller
▁law
▁Isn
uild
准
▁реги
City
.(
ং
▁bezeichnet
Dis
flush
▁vulnerable
ि
urb
isset
inburgh
▁Span
ľ
orders
수
exists
▁хра
▁airport
▁responded
FAILURE
▁refers
▁late
▁vision
ности
RAY
▁settings
foo
▁shouted
Tom
ales
▁germ
оне
▁django
▁Brit
resource
▁Valentine
зы
orent
ь
▁Creat
▁gold
ミ
▁occasional
▁_,
trm
angle
▁smiles
▁nouve
▁pg
▁dismiss
▁conversation
▁column
▁lie
Log
scalar
ǐ
▁includ
▁frames
▁Gru
▁palm
Ό
XR
Variable
Remove
Unicode
ACE
▁și
▁Horn
ovo
▁adequate
Quant
Vertex
ပ
▁both
▁Cob
concurrent
iss
▁Jo
----------
▁фо
ろ
Pages
cha
▁profes
рак
oli
應
<s>
GR
▁empt
tokens
tern
update
▁resume
▁action
▁crucial
▁could
—"
material
ouw
sl
▁zm
▁Chuck
▁longest
▁cuenta
Normal
▁Av
▁Karen
목
SET
та
Of
ultur
▁ring
▁strictly
▁afin
▁focus
}}$
▁discrim
▁dar
▁confront
)_
▁Poss
▁этом
▁shouting
ohl
尝
▁Patri
▁bullet
Hard
▁gru
ʌ
▁égal
▁Associ
Strategy
▁Sz
▁Пре
Criteria
▁Francis
rgb
▁|
▁distributions
▁tiles
icial
▁sequences
▁lots
▁Beck
∙
*;
休
Қ
▁maxim
minute
Visitor
▁intelligent
▁energy
▁Jed
▁closing
▁newly
▁SEO
▁Se
phones
▁hig
ellt
ennessee
osta
Tool
▁Gets
▁colony
▁enem
getMessage
▁proposals
▁Lane
windows
▁provides
лект
EXT
testing
▁failure
VER
SETTING
icky
▁utilize
▁aw
ajo
inding
/%
ël
香
▁ey
▁consider
V
▁valid
▁York
▁Limited
()));
irst
-----
▁bub
▁')
▁discipline
apeut
▁Miguel
闻
▁knowing
▁сле
side
unst
ables
ле
▁film
▁Hope
вые
STRUCT
thumb
atr
**/
▁oder
том
▁Lav
▁Contin
access
sidebar
eled
▁bland
▁sync
▁MIT
▁Roberts
離
noc
▁Korean
▁sle
▁patron
标
▁describes
▁rooms
▁cens
让
▁justify
န
////
進
▁piano
antly
▁Engineering
우
▁Dire
▁ü
▁cast
uren
ic
▁~=
▁roz
▁hier
▁wasted
imated
면
Grad
ers
ented
▁Zent
绑
온
▁tile
Measure
▁UnityEngine
▁incredibly
▁mist
pared
▁vill
▁papers
KS
▁embar
▁caut
▁proxy
▁obten
oph
ideo
}",
▁classification
▁CONFIG
▁spect
▁dependence
▁nails
寻
▁Transfer
總
threads
▁ty
▁Silva
▁rise
MODULE
istics
NAME
epper
▁Ż
▁Thomas
▁Desc
场
▁oktober
ном
semb
▁Edu
▁siè
▁L
,'
ONE
▁di
▁Ga
nv
ержа
с
▁substitute
▁browser
ody
▁dinner
agles
▁existence
▁”
享
▁entries
ño
covery
x
medi
води
bul
devices
ví
▁poc
▁Everything
].
▁rel
spl
▁moving
▁anys
▁пи
▁Те
▁Coffee
<0x14>
▁\"
▁forcing
▁Пи
▁encuentra
▁higher
▁Soc
вое
▁pro
ots
▁Hab
オ
▁и
BIN
▁derived
ս
Toolbar
jev
amento
ork
▁conversations
▁concent
▁mais
MAGE
▁relieved
▁tart
▁Warren
▁attending
▁switched
▁З
criptions
▁inevitable
▁static
▁landscape
▁ligger
senal
▁dém
чё
orial
▁pent
▁absor
Delete
owie
=$
substring
▁SE
▁proxim
"])
▁opera
▁nah
▁клу
▁legal
ände
hostname
.-
lia
ិ
▁Cycl
▁frustration
▁flaw
O
}(
▁citizens
odot
▁Common
의
langle
ánd
▁się
▁extens
▁Tests
лет
▁exemple
ложе
secut
▁Lu
..."
▁Rus
backup
▁Supp
▁Icon
dx
ivity
▁Volume
▁process
《
Sal
▁There
▁jacket
ecute
atu
▁zero
▁Range
▁voters
skin
}})
▁Wis
▁commander
sig
members
😉
▁й
Expr
請
Soft
更
лова
imeq
˚
▁assumption
▁meditation
▁styled
▁образова
▁pick
▁Cle
▁Rose
▁Him
▁Napoleon
▁sponsored
it
iona
<0x4F>
,-
▁certification
reader
▁Eventually
▁transferred
ios
isc
苏
雲
▁
sen
▁failures
▁ox
▁rip
︙
▁turns
▁deuxième
........
规
<=
unregister
▁ess
▁Validate
▁Tex
▁belie
▁выпу
▁Abstract
absolute
MAC
▁repo
Ψ
ссий
`);
States
igin
▁Typ
▁This
▁dej
箱
▁variation
prote
quire
Support
Changed
▁Panel
▁Command
oo
▁travelling
▁boolean
PAR
▁vul
▁Gem
aw
▁Civil
▁picks
▁catch
▁Mär
дж
Public
▁GEN
ifacts
amente
▁arrest
▁RO
▁Вели
leading
▁mil
▁beast
▁flies
ffic
reference
▁Ess
말
露
dagger
varphi
▁shall
тий
▁mass
aterial
(/
▁affair
▁popul
含
ografia
회
Rev
"}
prise
▁dot
▁Bud
Vertical
“
xi
▁Mike
▁spoken
▁kön
▁retired
aiser
间
▁equipo
▁Ontario
折
addEventListener
▁cannot
▁poker
▁ти
▁Mini
▁Whether
John
'+
LOC
▁tags
equation
▁surrounded
▁fut
IDE
▁job
ú
▁June
known
нь
eltemperaturen
▁developments
лось
sn
MODE
лу
ア
▁moments
ax
▁fresh
▁emp
ição
GI
▁inside
▁breasts
olk
▁edition
DISABLE
▁toward
▁Ut
▁Gar
▁telephone
▁Kings
▁titre
▁хо
▁betting
ń
varepsilon
▁vague
▁ме
aphor
photo
▁facility
ression
seen
Rules
▁math
▁industry
▁limited
êm
arten
▁até
▁jak
Global
▁shut
ү
▁Province
▁measuring
▁started
▁ecosystem
A
▁outfit
▁*(
лён
▁Position
ême
▁Marco
▁operates
♠
Dem
%
武
eqn
▁так
▁winter
ethe
RET
▁Luxem
ive
探
uru
▁cache
▁smoke
▁multip
tasks
▁WP
рио
IV
delegate
▁sage
-------
amon
▁hour
ність
▁daily
ipt
♂
▁Leave
Manager
差
▁Coord
osed
▁Sl
emat
▁lapt
бе
▁do
▁youth
▁capit
Exec
super
System
▁Pay
▁covering
▁advis
▁Shanghai
Execution
▁Chicago
haust
law
▁fs
║
▁several
▁tp
兰
▁webs
▁Init
聊
Video
▁committed
rical
▁revol
Rect
▁PP
▁GM
allery
▁lui
▁Frame
达
▁Market
▁mouse
▁music
▁joining
▁stone
LD
▁Chelsea
▁demol
validate

rieb
▁destac
atted
▁theorem
▁Technical
ially
anges
1
▁horizon
io
GEN
Pref
▁serial
Colors
▁cord
asury
▁Comm
♣
▁Guard
▁scrub
<>(
ERCHANT
▁Was
book
▁си
Returns
堂
efe
▁grat
▁Tri
▁Officer
▁hecho
🇸
▁mine
▁API
Work
anel
▁mg
pred
"
bridge
iate
▁feder
▁ace
iple
▁emerged
▁Chief
▁Far
suite
rhs
<0xF5>
bara
Matrix
▁appeal
ipping
рал
▁kter
▁utilizing
▁Congress
谢
▁perceived
و
▁.=
NS
ler
▁engagement
算
▁Craw
ệ
repository
▁arrays
▁frozen
▁angl
▁Ри
ATED
▁mom
▁gén
Activity
▁Sov
ats
LABEL
iph
output
Ô
Θ
iw
Like
:%.*]]
bu
▁washed
|---
iment
▁madre
▁bei
▁intersection
pec
kl
okes
OLD
login
▁./
rollment
ppo
ふ
백
▁code
▁д
▁intelligence
▁ec
rest
▁write
▁Infan
ify
▁Strateg
ians
持
}>
aired
▁chr
魔
ops
azure
▁navigation
▁suffix
®
riv
▁filter
▁density
>>>
▁her
▁Golf
▁Fernando
▁cui
rett
▁younger
gged
▁occasionally
tta
▁chief
urchase
▁designer
RATE
▁Kar
▁gener
info
▁Active
▁paying
▁scream
▁Mississ
▁Noah
Calendar
▁facing
epoch
NP
▁checks
▁vary
acji
▁rival
ublic
Intern
BOX
specific
▁separation
▁COPY
kc
▁odd
orneys
▁(\
▁artist
▁Из
immer
▁Г
▁Be
▁Kurt
two
▁VT
Rele
▁revision
script
<0x40>
▁Palestinian
osh
▁flav
ʿ
*}
▁pa
gal
cticut
ittle
▁ba
plain
▁frequent
ließlich
▁busy
ecut
bind
Space
▁enable
created
ottage
avel
SA
▁Russia
NC
ε
анг
▁reste
‐
▬
Force
▁Hon
▁houses
▁generates
iveness
▁recognition
▁heeft
▁це
▁inv
▁inclusion
▁pending
▁reduce
($_
▁ц
▁Mün
▁relief
WER
iko
▁recur
▁$('#
▁nick
main
school
▁inventory
▁delay
▁ital
rieben
TES
▁supportive
▁Ро
esse
▁meter
テ
lista
ṭ
▁beaut
▁arrive
▁Моск
▁Creative
▁relatives
Column
ARK
▁license
▁Consult
ἄ
<0x8A>
▁additionally
нов
>{@
asty
▁rough
▁passionate
An
hell
́
書
nika
case
}}$,
寺
▁hook
sz
ild
▁Reserved
▁Iowa
eline
▁temporada
?(
oslav
ina
▁fighter
erten
argument
▁extraord
ored
rees
▁pert
ctic
▁Suite
olence
▁Room
▁съ
▁Лу
되
▁'';
▁confess
▁cleaning
serial
▁consisting
&=
▁ms
hit
zial
됨
ں
xe
▁mode
ńsk
▁loc
▁Tak
anter
▁table
Pixel
aka
▁Aub
▁Buen
下
드
ʒ
▁given
　
운
陳
▁caps
лиза
▁bill
▁Vict
▁."
SE
вен
|\
ක
turn
▁arrog
issue
<0xA2>
页
▁Id
z
▁portion
▁Virginia
ött
BY
▁hear
afi
顺
Bundle
▁sistema
ignment
▁scholar
mac
▁feat
theta
même
Sem
▁introduce
≡
▁All
▁rand
▁stuck
▁wildlife
▁може
▁cover
Dir
▁resolved
김
<0x94>
last
▁updates
▁Mor
▁lens
▁Ak
▁Forces
many
Update
▁Prote
夫
GU
havior
Õ
▁complet
Info
<0x73>
▁potentially
▁instr
▁certainly
<0xCF>
(".
]*
후
▁engaged
₃
ding
▁epoch
▁featured
"],
▁Benef
▁begann
▁kindness
cit
▁awkward
concat
▁Oz
▁bind
들
plugin
▁Capt
▁Trade
音
agan
AAAAAAAA
▁blame
▁version
Mad
unto
▁gaming
ctr
▁crop
Reply
▁curl
rx
Private
Rich
▁rain
▁switch
стро
itute
▁projected
▁descriptor
▁Sports
ute
▁homeless
ichi
▁heap
соб
Dev
icos
▁par
aced
жения
чка
endregion
▁Mary
▁Until
▁sticks
▁quiet
▁nouveau
▁beating
▁cookie
▁enjoying
pp
ologist
▁diffusion
inho
packed
ult
Spe
WARN
setAttribute
及
orie
ு
▁Egy
etti
▁__(
olin
렬
вет
랜
▁barn
‑
icing
yst
値
Stud
▁Pet
Compute
eli
▁acts
chestr
▁manufactured
imo
pués
▁pseudo
ADDRESS
seconds
▁env
scriber
▁nail
老
▁pay
▁assure
▁approval
▁throne
тель
ában
cembre
▁Option
",
▁prediction
GP
▁Matrix
univers
parseInt
▁français
▁Л
▁yes
空
▁Random
▁vagy
aient
Seconds
ür
ít
▁production
▁гра
▁après
servers
yaml
▁spectacular
required
hew
▁funding
zte
▁gates
▁compact
hir
▁backs
▁Halloween
▁arc
osen
PAGE
▁cre
▁Ab
်
th
▁working
iner
▁"%
▁parameters
ypes
apest
▁nuevo
▁Airlines
▁haber
icol
>"
▁Mos
benfalls
patient
▁accompan
agnost
▁Rating
▁Nur
Z
▁sque
▁future
Window
<0xE5>
▁seus
workers
nehmen
▁investigation
achte
▁Apple
stand
Ids
attery
aben
▁nested
▁carefully
▁copies
rient
栏
factor
▁brig
ien
レ
LAST
bling
rav
▁М
▁actually
utz
▁interven
▁smell
▁Так
Messages
▁Schools
▁Ground
▁wage
oustic
▁hopes
▁Administr
fmt
ALL
lymp
Form
ходит
elines
SN
hentic
▁consultation
～
▁encouraging
FER
▁Kids
越
▁views
▁poetry
Mic
oshi
Button
äh
BB
▁tcp
▁similarly
▁reason
ate
▁DEBUG
ћ
▁ag
延
▁deep
▁looking
perties
▁tod
▁Et
▁manufacturing
▁bekan
wor
列
▁Verein
▁Greece
▁Sel
▁hasta
▁governing
▁Fight
▁tolerance
weise
Ґ
▁extra
▁shots
pyx
▁apolog
▁kn
VAR
▁bug
▁elderly
Than
Queue
Expected
▁hes
>>
▁Military
▁celebration
REEN
▁organize
ct
ء
▁going
▁През
▁meals
▁Quinn
▁£
pie
▁receiver
W
▁sans
▁classified
пня
距
▁oak
Api
Т
double
▁container
▁```
orship
▁foreign
▁enero
▁no
▁États
▁clar
Dao
▁'../../
▁heavily
▁DVD
▁Row
▁Platform
▁Rein
ས
▁binding
xit
▁drm
roke
▁Re
▁dad
说
▁scen
▁bucket
iji
ър
ptic
▁"",
▁извест
▁GPS
航
ym
ETH
seq
▁Manager
◦
▁Standard
ailand
ets
▁adm
reject
It
▁carved
损
rar
TH
stone
▁(%
<0x38>
Static
anged
▁differ
▁polynomial
▁operated
▁depress
▁Sure
Γ
▁separated
Logger
ez
▁legislation
▁dall
▁gepublice
▁beloved
▁tract
圆
aken
油
Appro
▁ihm
▁seam
pars
▁sum
▁and
▁flood
▁entirely
▁bowl
лов
remote
▁lol
istance
hy
▁Fed
ermine
成
▁orbit
▁emer
lio
▁occas
ками
sembled
ク
▁sous
▁Kn
());
▁ill
▁intend
▁pleased
ง
▁Il
▁na
anga
wig
iana
">
books
ades
STER
▁switching
ском
▁chase
▁посе
▁реки
▁policies
▁extending
Qt
ieties
▁qualities
▁knee
任
▁cops
▁immigrants
ス
▁program
covered
▁finally
ook
iday
tm
Never
▁leading
▁queries
__);
стов
jos
({
▁much
▁century
▁Dec
ців
iterator
niej
▁Papers
▁network
ient
▁Clean
▁VA
>
Slice
▁cerca
newcommand
▁war
▁societ
▁объ
▁serialized
also
▁ein
▁mamm
ấ
▁users
mid
Ob
▁The
bris
horizontal
igten
▁distinguished
▁Bed
odi
▁Lond
gs
mx
▁initiatives
▁verb
alo
▁dep
万
▁Jord
һ
see
▁Bomb
▁Gor
FIELD
upper
▁Barb
rooms
Mouse
▁Liste
Geometry
ama
<0x2B>
▁gover
▁City
▁businesses
oved
retval
▁recalled
ess
▁Year
engers
▁EN
♡
▁Mountain
Join
folg
SPE
Ъ
▁endpoint
▁Ring
股
posed
▁clothes
▁Site
leted
ghan
▁cause
▁interior
uses
▁Prior
▁Bras
▁dalla
▁iron
▁Forest
▁numer
arian
▁откры
定
▁crushing
▁bou
factory
ད
!!!!
TABLE
▁clinical
▁learned
▁exh
usk
▁python
ovember
▁Kom
▁sono
▁follows
게
季
failed
분
▁notebook
release
grade
Project
▁ultimate
Over
bs
tele
aute
Processing
▁llvm
▁redu
▁р
лекс
GROUP
Src
▁Hamburg
angular
ear
▁Portal
▁Sat
ful
▁Lyn
▁placeholder
▁miejsce
▁slides
ensive
▁psych
▁Jonathan
older
com
▁formats
▁depicted
▁Assert
▁devast
osz
▁disgust
▁paragraph
winning
▁membr
▁proud
▁twe
▁призна
*:
▁Olympic
ру
▁usage
LEVEL
handed
orus
du
▁Lang
、
plicated
麻
3
▁Tour
▁chall
arness
Nullable
▁Tel
itter
▁tenía
▁GP
QUE
▁hair
ILD
aining
ering
▁army
▁augment
▁commands
▁conclude
평
ulator
▁године
▁crít
▁dent
▁camps
©
▁helpful
anger
ниче
▁Single
log
▁backed
▁OPT
▁família
Sync
▁uitgen
$\
▁Jennifer
▁Direct
house
rtc
▁†
▁чи
bau
▁Одна
▁investment
<<<<
adows
▁Cape
<0x10>
▁Returns
£
祖
▁alley
▁méd
▁teaching
▁Alf
▁shru
▁economic
ých
▁Murray
props
▁chez
▁undefined
登
cv
▁reconc
((
▁intim
Exit
≥
uti
Ratio
Menu
volt
▁blown
ҳ
預
▁disrupt
“,
Uri
questa
洲
▁?
▁proced
▁Ferd
ind
▁locations
▁One
▁FREE
▁either
cup
`,
CONT
reb
Cast
▁Users
ocal
▁Rob
mind
▁Network
phere
▁endorse
▁Des
▁yeah
▁selection
▁nat
TD
)
dest
nia
StackTrace
rypted
▁TE
ters
ooth
сни
master
acional
¶
loe
▁ta
▁projection
▁strike
▁å
($
}}^
Contract
Er
▁europ
istrz
▁Ronald
때
▁fi
▁complained
▁sufficiently
▁stability
▁disappe
▁call
▁Kö
▁allows
oman
▁recording
best
ät
▁em
mg
▁Lat
搜
え
▁House
STATUS
▁Pointer
▁-*-
▁estimation
angen
▁deployment
▁Regiment
▁rally
lifer
▁PL
火
À
▁segment
▁Italian
▁wounds
六
ires
Default
ampa
▁Po
▁goodness
ٰ
裝
▁Herz
▁Generation
вля
▁Jordan
cycle
▁Science
▁manif
reedom
}")
ployment
▁rolled
▁tiny
American
▁Application
▁categories
▁Capital
▁XIX
▁install
▁Franklin
Board
▁под
process
▁mer
↳
Email
▁thought
junit
록
▁popular
▁Thompson
▁blacks
▁result
atra
телем
▁zoom
▁France
▁Police
▁defines
米
▁flexible
ical
▁sel
Header
姓
ever
▁Honestly
/.
ICES
▁Click
▁TABLE
▁писа
tb
Seq
ই
▁Pra
錯
▁twice
▁thickness
Cmd
upid
ournal
▁),
▁whites
▁curv
▁varies

십
▁gob
▁obviously
Л
▁eigen
necess
▁Adv
">&
▁scandal
▁subsequent
▁null
▁repair
▁homme
▁pays
Pod
compute
▁though
Controls
大
神
▁Poland
▁Comp
▁wouldn
dan
▁Sister
neurs
▁Archives
စ
SS
▁Rome
oor
▁anonymous
▁NY
чество
▁critique
R
롤
▁civil
▁daughters
备
▁Indep
▁thread
א
▁кар
▁spr
▁Chel
▁PORT
спубли
▁hex
вым
▁Ét
▁"")
応
▁fro
etics
enschaft
▁scheduled
协
▁Queensland
.}
▁traveled
TERN
Execute
snapshot
▁Follow
▁congreg
▁Carolina
▁fucked
mem
{})
Rep
mix
▁comprehensive
▁aug
slide
ligt
▁colors
mathsf
igd
panic
ercise
Ev
▁laws
▁кре
₄
▁Jake
独
▁pan
▁barr
ie
▁Ces
克
▁equival
▁Future
▁Wik
▁lined
="_
▁estab
sizeof
▁Wer
▁fever
😅
VOL
Construct
ju
ancing
jed
Orient
▁nevertheless
▁interview
Keep
uro
▁schedule
()
▁conj
▁spots
delay
▁вико
dal
▁hire
PK
▁indices
paces
water
▁Zw
ification
percent
onden
▁obey
仓
ал
▁monster
▁supplied
"+
LOG
▁angle
-(
▁cam
force
▁diss
andal
chk
issance
setState
▁stad
цу
iven
oyal
container
☆
Feature
▁ridic
▁HTTP
▁Sri
ibile
▁escape
▁embarrass
usters
叶
Provider
▁Sever
▁assessment
icks
‎
및
▁vide
tensor
▁split
央
idades
ně
▁garlic
▁payment
昌
▁odds
West
logger
▁seine
дера
▁тру
服
▁evalu
Fields
▁века
▁judgment
Export
★
官
registry
ako
SH
▁maid
BC
▁enters
▁wild
▁delet
▁Iran
▁advances
Text
▁picked
▁abrupt
слі
▁Lay
▁dop
▁redirect
ason
ша
▁ptr
ま
▁cin
▁females
▁camera
▁Roman
hens
▁Marshal
ție
▁particip
CA
▁televis
▁fasc
▁Cro
Bucket
▁Abraham
Because
▁Dopo
limited
않
ms
insert
▁courses
rules
▁fou
▁warrior
短
recogn
▁zaj
某
▁giv
▁dell
cmp
▁elle
symbol
Width
bahn
Sil
ou
▁dozens
▁Durch
\{\
äre
igh
▁hi
▁suggest
▁orig
横
\-
▁naar
프
▁sir
ní
▁derni
拷
imper
▁H
вала
Stmt
ori
move
<0x00>
ucky
▁ils
▁rug
▁deriv
iqu
▁dys
▁tends
▁tras
▁Gent
unque
oine
ца
secret
Err
MI
합
▁cooling
ippet
▁però
ktet
\"
▁był
Router
▁Working
▁integrity
wicklung
▁Squadron
▁leaves
flu
▁fav
▁what
EQ
ром
▁rates
Route
ng
ser
▁mini
érieur
▁sj
▁bounds
udio
opol
▁whoever
ometimes
ieur
▁гу
Template
▁thank
рин
▁Schedule
elect
▁instructor
▁rejected
▁Brad
iches
▁urgent
<0x86>
ormal
▁peut
▁Canada
:`
▁CE
¡
▁обо
▁Myst
▁plot
separ
插
▁Vor
括
▁Long
▁C
▁assume
Ő
▁During
ță
continue
▁abol
states
공
at
cref
▁jour
▁nominated
面
▁Southern
▁Support
▁Jahren
▁Victor
▁aapt
áz
▁Mexico
aces
approx
▁Lower
про
▁encourage
">
▁warning
▁eth
▁synchron
frac
locked
天
▁Singh
emed
▁porque
▁lighter
▁Roth
egin
▁enjo
▁Sud
cu
▁Particip
▁Assume
inn
DataSet
▁lur
▁kick
▁judges
修
▁AR
▁AN
▁Herm
▁Compar
atri
gt
uding
▁Kap
▁bored
onda
ips
▁content
би
acom
▁yoga
স
Mobile
inson
▁infect
elson
derive
azzo
▁:
▁vessel
Io
▁machine
зда
▁violence
▁Gas
etto
ầ
術
Tube
捷
▁pon
cli
▁romance
fragment
<0xDD>
agement
odo
while
▁Dam
Unis
virtual
▁estar
함
TOKEN
┐
ख
хід
Num
▁gradient
卫
Visible
▁DEFAULT
arios
Cloud
▁visible
riev
▁pig
▁www
izon
▁through
rea
▁across
▁Profile
_{{\
Chart
▁são
▁embed
소
▁security
wich
▁Senate
▁allowed
제
ev
ishing
▁+
>/
函
▁Hello
،
戏
▁religion
▁remaining
▁bills
▁denied
▁thunder
ying
も
▁Ay
🥺
▁script
business
}</
▁'/
><?
Ins
记
_\
▁tier
▁snow
erd
ო
▁gri
et
burn
cery
cfg
▁le
trigger
oga
▁bases
▁corresponding
▁factor
мя
Socket
inda
ety
tagon
Backup
Ō
▁or
ி
¨
роди
▁sell
ViewById
办
▁African
▁tid
<0xAE>
ння
▁American
Enable
Ag
ん
▁pow
▁Rick
good
pre
▁household
idx
▁lä
ComponentModel
▁lleg
▁lut
▁Lady
RL
Black
▁Garden
live
▁minds
get
▁dévelop
setup
▁halt
hooks
繁
▁villages
▁versions
oa
▁everyday
▁snapshot
abol
▁temper
▁sac
▁Nevada
LI
▁nos
▁Otherwise
amination
▁correl
▁``
II
Dialog
▁Pur
фор
▁Professional
<0x6D>
control
▁root
▁url
木
버
▁publish
IND
antes
▁Chile
making
▁spl
ientes
price
▁geme
iden
▁damit
BN
ipe
▁M
otion
itol
▁=>
▁courtesy
训
élé
▁driving
▁Feder
▁Album
Ign
try
▁ids
『
ouri
▁churches
▁Canal
amil
作
Cam
uming
<0xA1>
esp
~~~~~~~~
▁Ма
HP
▁workshop
...</
atherine
elly
Input
Enabled
▁millions
сти
hold
▁burden
▁intimid
usage
шу
법
▁analog
▁describing
フ
▁caf
▁missions
вед
LAB
▁октября
empt
oval
ikh
▁marzo
▁integral
Ali
▁tanto
ש
oted
▁Den
▁Lawrence
m
true
부
▁pause
▁станови
Tensor
込
Loading
▁local
▁shifting
▁cloud
添
▁Frau
▁stable
itarian
▁challenges
▁boundaries
▁illegal
▁Cuba
atalogue
▁constru
▁purch
▁resulting
noindent
ней
▁woman
▁Imper
Na
ље
Donald
▁featuring
codegen
льного
载
hand
Constant
▁Hou
▁Organ
ți
ಕ
▁overwhel
yp
▁ninete
▁acquired
▁prevents
▁length
igte
ough
▁Bad
сс
▁gaps
issen
▁Event
▁st
▁region
▁damned
ót
ancell
▁assistant
▁whatever
rz
Í
ISTER
dentry
半
();
ogen
chel
▁ruled
种
straints
олові
RP
▁ingred
▁closer
▁himself
聖
orous
ont
dis
ől
▁saison
▁notably
equal
▁whereas
▁sending
smart
LA
▁przy
▁[\
▁Iter
▁body
getName
▁His
Radius
置
dynamic
답
▁Remote
▁Journal
▁ONE
ನ
▁Haz
]);
▁deciding
▁decides
▁XV
玩
▁Yeah
ało
⟨
icrosoft
▁axis
▁accord
▁rounded
/
▁interrupted
▁degener
ფ
ye
▁provin
▁Opt
▁Collect
▁albums
spi
IR
oster
HR
arity
PROC
ala
слав
▁backend
isé
Variables
than
inition
<0xDB>
▁Yes
ள
▁confidence
limit
▁PC
▁generating
▁heated
硬
▁possess
SING
▁philos
acter
▁Kentucky
classList
▁**_
▁System
▁stick
▁Ве
▁Luis
mapping
▁difficult
Variant
▁ро
▁Michael
▁Ger
阳
▁nel
▁Solutions
iej
Pred
atalog
elf
▁SQL
wohner
▁Cre
殊
▁age
▁articles
▁relev
▁emot
helper
對
▁wurden
ygon
▁ка
▁тра
产
rown
▁val
▁gaining
▁("
▁opportunity
▁McK
▁allocated
oooo
溪
▁Communist
ENOMEM
▁heritage
iga
лен
send
▁temple
preview
▁development
▁fifth
▁corporate
mesh
ши
dem
thon
hc
nem
olt
&#
idden
land
▁}}
▁monitor
bp
▁thrown
▁divid
pliers
Send
ferred
========
▁duty
▁fate
▁spread
INIT
▁Que
▁uncle
binding
Pool
bias
ennes
midt
հ
▁gev
vil
▁случа
▁por
▁Cette
▁talents
▁weed
configure
▁cond
jem
anguage
Audio
ват
▁provincia
MAIN
ogeneous
ి
▁interpretation
▁spirit
ON
izi
▁Chand
сі
▁mod
*/
▁стру
coln
ḷ
▁Saud
▁manner
派
▁stepped
温
}:
▁Росси
▁reports
ною
▁designated
Receiver
las
▁Estados
iros
▁amounts
▁passes
strict
混
▁Bernard
Has
Compat
▁partially
▁nutrition
ribly
Cart
▁September
name
acer
▁као
BIT
boys
▁Eng
<0xD8>
▁prey
▁Gh
▁jsou
broad
▁WHE
ғ
▁Ir
uu
▁Week
imore
▁whis
▁vil
▁Virtual
▁prosecut
ORMAL
ostream
▁proves
▁Palmar
▁sw
▁receive
cht
esen
FI
parentNode
▁Attorney
RS
▁Pittsburgh
CV
▁Against
▁ALL
▁kne
#
▁depending
umi
izations
XFF
ु
ฐ
elled
▁Sci
erialize
▁attachment
ств
▁trouve
üll
onte
▁lun
▁ath
igible
言
ainers
chet
▁chamber
Έ
檔
▁Bre
[]{
▁downtown
▁sud
ipes
▁firing
▁рас
▁Isabel
cur
oot
▁sentences
▁dif
лле
ω
){
rupt
tek
▁Municip
▁server
▁Avenue
▁chop
uct
▁вла
▁cure
quest
neh
활
call
▁ie
ције
▁denotes
ász
icz
▁WARRANTIES
▁Of
copyright
▁shade
Equal
▁de
gre
ammen
随
▁ver
▁convin
推
▁wh
ють
anche
▁took
▁indu
▁fires
▁Claud
hw
验
▁magnificent
yna
▁unknown
ixon
colors
bound
Web
▁Give
affe
▁déf
▁clo
ън
🇺
▁в
▁shed
▁suit
▁baseline
▁CEO
▁strategies
Arrays
\}$
ej
▁ersch
▁ancestors
▁Partner
onial
ir
▁Perm
rote
▁Tab
▁senses
▁Gene
▁ceremony
자
ucked
▁Nas
Sent
▁purchase
▁fool
▁above
▁work
expected
cess
▁cutting
LIC
eron
dl
▁backing
ством
▁curious
check
▁lag
â
ο
EAR
▁Area
▁permet
道
car
emper
ето
де
lib
▁building
}({\
whe
▁queue
▁Key
TE
▁cris
▁uncomfortable
]),
ASC
▁headquarters
prite
▁ook
->_
▁"@
▁includes
פ
seed
ў
▁haven
inth
Ё
▁As
▁Thursday
▁nod
Camera
▁manage
華
▁initi
works
blo
铁
чного
▁Yellow
▁Lil
▁tensor
]+
▁officials
каде
▁Meta
toBe
ály
adio
uniform
imate
тон
Generation
▁NS
<0x59>
▁Solar
向
▁right
▁traff
бро
Stat
▁outline
▁jeans
▁anticip
Vari
▁elected
▁Description
▁awareness
tan
▁ds
▁Maj
etc
дно
▁detail
Weight
▁cél
MIT
weight
▁pulled
▁Space
▁Material
▁ans
rotation
但
▁dow
▁blinked
Cop
PI
ل
cite
▁juli
Quest
▁Medic
▁JS
▁loves
▁christ
▁Xbox
▁goes
額
▁elif
LOCAL
▁calculations
▁Case
▁Za
▁Fil
▁duties
"].
ʁ
🔴
▁Sig
▁Obama
▁modify
▁sido
▁фон
▁reporting
ria
▁програ
够
тив
▁contribute
+(
pv
estic
▁efficiently
拉
▁straightforward
▁Imp
<0xB5>
ulf
processing
Coll
▁SH
ھ
help
straße
项
Entry
▁zwei
сты
Links
▁af
▁Enable
*
▁appreciated
Scheme
息
▁PT
▁rm
▁Vienna
ён
▁viv
backend
ֶ
DEFAULT
▁convenient
▁water
น

▁crisis
▁riding
)}{\
▁fed
য
▁convex
▁toys
way
Co
bee
▁Pen
▁Hold
留
hs
▁ho
zeit
▁decade
)$
poque
▁cake
▁historical
sized
clear
▁exclusive
▁ai
▁Effect
▁Patrick
▁He
contact
MEM
mount
▁приня
▁нача
market
▁Ха
▁Las
▁logger
generic
>%
▁Jay
yard
IX
双
▁mars
▁dream
dater
amed
▁illness
stre
▁Де
inals
iele
ovi
▁Ek
▁had
을
▁Roosevelt
▁Sant
property
▁ur
▁Republican
Var
▁TEST
▁Not
▁adults
NODE
standing
Role
avan
▁exploration
▁pet
▁Евро
screen
▁winner
▁Denver
ョ
Mon
lambda
▁vas
<0x67>
▁января
▁misunder
▁Pin
▁tang
ść
Ver
▁journalist
̧
r
riculum
ett
▁annoy
▁Charles
▁december
▁er
need
resources
▁childhood
asts
▁Az
ppen
▁войны
eston
glass
建
äsident
▁hors
丰
▁participating
▁display
South
▁~
▁reading
achine
▁guards
Certificate
NT
hf
xc
▁suffer
▁$(
Trigger
bidden
TX
▁til
▁serie
▁bark
▁fitting
ountry
▁earning
▁испо
▁neighborhood
riere
OM
▁cout
lli
{
ospital
initial
дол
▁Jur
▁Germ
▁those
ategories
▁Australian
тели
Pyx
启
強
▁mes
▁framework
▁campaign
▁Girl
akes
ander
Po
▁marked
▁Jefferson
▁Rum
▁Bapt
▁",
▁Inn
▁mysql
Э
丽
▁hit
Buffer
▁Screen
▁imaginary
cknow
e
▁Church
boy
▁differently
▁тем
vi
int
▁!
▁adv
▁collection
▁пар
▁ó
▁Series
occ
▁Rap
unknown
▁corrid
금
agi
▁position
품
▁Query
▁battery
▁spaces
▁Fuß
й
▁monitoring
possible
▁gmin
▁thous
″
schedule
▁ga
Merge
▁Tele
申
subsection
▁todo
▁Kat
Marshal
▁while
▁beg
Sequence
Resolve
학
▁feelings
▁*"
▁Dublin
scal
▁Лю
▁Wells
▁ги
ャ
rate
▁iv
page
Port
▁&(
▁oral
них
წ
册
▁fruit
▁cross
▁bronze
▁professor
▁politique
helpers
▁Є
▁accordingly
▁sheep
generator
▁goal
▁disability
▁fr
▁begun
▁Iss
types
peon
eqref
▁presid
becca
▁spoke
Mod
▁continuing
тел
Example
Sure
lj
▁roof
Ac
▁startup
slash

▁lives
▁embarrassed
▁used
Har
近
▁dense
ocked
▁admitted
▁zd

▁subscription
por
▁western
article
written
▁entonces
aft
平
▁graphs
awa
▁calculated
══
서
▁насе
▁Oscar
acking
▁they
utils
plements
'
ʰ
▁kom
▁plan
▁urg
▁exercises
▁населення
ACC
除
ś
▁inde
▁Form
▁hall
[\
▁Update
":"
forall
NV
러
Return
製
(?:
▁amb
iam
<0xB0>
▁bigger
krieg
▁Oxford
▁stir
▁surprisingly
▁celebrated
▁rebell
ська
▁pixel
prof
хі
▁Mem
▁temp
FUNC
********
COLOR
▁Jenn
td
);
zet
)--(
▁області
▁Ба
orious
▁ni
▁Moscow
拟
▁mechan
▁callback
iolet
isce
▁Fut
‟
Che
▁whether
▁exercise
WORD
texttt
▁Stream
▁Soon
zenia
,&
resc
incing
钮
▁weapon
TMP
▁Movement
claim
▁bund
entity
▁gy
agen
ring
services
▁Graham
▁nä
▁practices
rah
▁seed
‪
▁need
rade
INE
ishop
chen
▁few
ogether
▁Amy
Sigma
▁stream
provider
ɾ
zz
▁setup
assign
▁ву
▁Indians
▁cinq
dashboard
□
itors
▁\
vet
▁utter
▁twist
▁base
aku
--------------
▁Mall
星
脚
fur
ften
▁processes
ña
▁transmit
▁tijd
iking
▁dst
el
uur
uded
▁ult
▁Format
▁climb
ờ
ULT
PORT
DATA
경
$.
Blocks
غ
▁reass
projects
▁barriers
▁whe
ческий
▁Eins
Theme
▁représ
(-
▁aged
▁Awards
<0x36>
<0x0C>
MESS
oper
▁aimed
封
ië
CEPT
▁poss
▁expensive
Attributes
▁Don
▁cooking
Constraints
Lock
▁oct
rieg
▁Photo
营
▁sempre
ATE
iting
record
<0x41>
▁deal
▁qualified
acked
▁sinc
▁vel
Wait
▁cancel
TYPE
hn
ulos
Head
갑
bullet
γ
ễ
ύ
▁Brun
snap
▁foster
▁critical
Ident
▁essays
Entities
ª
▁Mach
▁Norm
▁teens
ées
▁high
▁analyst
▁btn
▁laug
бер
▁xml
▁Per
focus
▁jusqu
▁boost
tick
▁critics
▁Admiral
▁surg
▁fur
▁establishing
▁slaughter
読
kr
requency
原
STOP
▁kö
▁running
▁merely
▁Under
${
後
▁ott
▁myself
shire
▁CR
iful
▁Summary
hou
Dec
Pane
inea
instance
abe
▁Deg
▁less
pm
▁allocation
кри
rera
▁stared
зва
+"
▁computer
▁bump
POST
装
▁conting
▁dentro
alone
finity
contract
▁zum
▁Poz
▁protocol
мер
tok
▁blur
display
▁perfectly
sent
▁costs
▁Campeonato
▁Hun
▁améric
▁May
▁nic
SINGLE
filter
}',
)?;
Group
▁errors
▁mirror
▁crate
мерикан
▁sofa
BM
Shop
▁лі
terior
Generated
▁mis
GPU
nek
▁Beth
bros
叉
▁Democrat
ky
▁che
▁gorgeous
▁pm
▁eleven
Week
▁Sha
▁TX
▁conce
dialog
ose
▁movies
▁Americans
▁dont
▁--(
▁с
钱
▁central
▁volunteers
▁yelled
Character
klahoma
ゃ
torch
ca
▁{\
▁tar
фи
▁lookup
線
▁Ша
ulously
▁ál
Doc
土
су
▁gotta
ifies
ARB
▁clearing
▁broken
tk
лев
▁бе
▁cob
eton
uki
秘
Array
▁personally
▁author
▁vehicle
Ко
innings
mother
eters
apped
IsNull
merce
Async
▁blev
购
▁ways
引
▁dimension
createElement

::_
class
┃
чний
cul
esar
▁became
forming
▁Thought
▁commissioned
循
▁Blue
Quick
tó
▁Mol
▁partnership
▁Rah
cury
모
<0x8E>
License
▁symmetry
▁farmer
▁▁▁▁▁▁▁▁▁
▁Lamb
▁beat
▁bring
Ready
▁inherited
▁fö
ит
arta
ètres
▁delta
▁Interest
Bottom
▁knock
▁rub
лько
▁Europa
▁lengths
börd
▁play
Zero
FF
anie
▁gesch
項
ших
###
ォ
▁бли
▁ARM
▁exposure
Rem
▁infrastructure
▁General
useum
▁bio
defaults
icas
▁pentru
Jack
▁generation
▁frequencies
▁void
史
Resolver
．
mathscr
▁pos
▁dimensions
annels
س
▁irr
thm
▁induced
▁unconscious
hos
EQUAL
ör
▁dom
▁planning
▁бере
oded
▁emissions
ா
▁climbing
▁Perhaps
送
eda
▁adapt
ensions
▁premi
▁tables
▁Database
▁shopping
из
apol
▁fonction
尚
▁Jessica
▁Speed
chied
▁bg
▁pov
▁alike
▁hopefully
sert
▁thé
在
лан
▁necess
equals
although
kappa
▁kissed
rogen
ќ
Date
▁Block
▁propose
edu
definition
▁$|\
▁Gall
listen
LANG
ян
acles
fica
attering
▁norm
▁note
▁cry
▁Access
$),
▁Sorry
课
逻
estly
▁domain
Checked
▁objectives
ío
transition
食
▁lies
▁YouTube
Side
ARD
Stop
跟
(*
▁chuck
▁Ver
▁infection
nh
egu
▁Star
▁merge
/"
ologists
▁NAS
▁engineers
▁Molly
▁rivers
ロ
<0x74>
front
қ
▁las
▁soon
▁milk
▁Lag
▁guilt
▁Tech
▁raw
ISH
▁members
oped
▁Corporation
ummy
kamp
▁apare
gles
▁tub
▁"'
<0x62>
▁discussing
styles
ã
▁bat
П
▁butter
зе
▁clas
вня
alled
▁Round
▁Always
▁case
▁tut
▁solar
▁toda
▁welcomed
Ж
▁Christ
<0xF9>
mé
Ş
▁Gaussian
▁viable
▁killer
▁travers
▁existe
▁tone
gp
▁Fu
▁ch
ческих
▁organisations
hook
hip
real
іль
▁fer
!_
äst
}=
▁Side
▁Mut
etr
▁purely
ści
outer
▁lower
▁sag
вих
pt
++)
cap
려
째
▁[],
Pad
▁portable
▁Singapore
▁belt
ificates
){\
▁Compan
atively
▁branch
▁ні
ологи
▁Arch
▁marriage
annel
gz
ฌ
▁För
öt
▁jel
▁calc
▁sep
om
▁folg
▁Ор
▁represents
▁Mercedes
kov
Ps
хо
otto
灣
Ą
▁cost
▁proved
▁над
сту
▁receives
Which
di
));
▁stock
▁ci
▁Autom
▁descend
▁operational
▁correction
▁Instead
finder
ș
▁Stephen
▁человек
▁Short
▁travels
▁geldig
久
utch
thal
▁initial
▁kitchen
▁aid
ayout
▁deaths
клад
▁ki
▁incorrect
GER
릭
NA
ération
▁match
▁subject
▁generic
▁elements
▁appearing
▁assignments
дь
ains
CFG
▁jog
▁boy
Meta
▁hash
▁україн
ків
stood
▁answering
▁م
▁questo
refer
character
▁prejud
[:
▁Install
▁when
ickets
prevent
<0x06>
ях
Neg
宮
针
dbg
▁Juli
▁Band
nod
▁hoping
▁Diam
бург
path
GENER
gun
▁lacking
fprintf
isher
▁Head
▁proceed
quarters
▁throughout
▁bast
▁fal
▁Dir
ля
▁ander
デ
ango
imento
▁wenn
mod
<0xF1>
Ar
▁Men
▁französ
count
ją
판
▁tracks
▁preparing
NER
▁Dru
')->
▁restriction
▁père
▁d
▁апре
gent
irth
▁mě
▁Mitglied
▁dictionary
Directory
akespe
▁Chron
undef
nitt
▁куль
▁mistake
▁я
etection
"%
<0x3B>
▁обра
▁rever
▁Schl
缩
ке
кти
▁Der
▁testing
že
▁composition
▁Gib
had
textrm
STM
▁difficulty
нали
ње
pdev
jà
nost
wh
edy
▁conven
emp
號
▁Train
▁_"
agment
▁buried
HERE
secure
uth
.<
support
▁mask
▁"-
clipse
▁Hollywood
▁=\
abled
▁{};
▁Many
ativa
▁pound
itize
▁beyond
én
▁Io
ieck
▁он
Period
itutes
▁ultimately
queue
lass
feld
▁рус
ы
pipeline
境
вар
▁certificate
▁except
vd
コ
▁Among
ave
▁dated
ker
▁mayor
▁restart
點
background
etes
▁Available
▁overse
买
atus
▁With
inery
▁compress
ardless
ὰ
}-\
校
▁обла
▁manuscript
▁Natur
unches
▁included
▁rapidly
▁Um
▁run
▁projects
▁Cor
▁Rather
_);
stdout
rition
▁discussion
atile
▁similar
essa
oding
▁persona
▁never
library
ґ
Locked
Pass
ة
▁sender
找
▁Path
anchor
ourses
▁breathe
▁rv
oser
▁natur
у
ním
perf
▁Tibet
@@
atur
STO
map
nl
▁told
tcx
▁lattice
▁Leg
茶
ние
▁reg
▁abort
▁lung
┴
▁rear
<0x81>
issions
ancel
▁Est
▁gab
】
builder
преде
▁guarante
Marker
▁locals
ulty
▁HD
▁__
ུ
▁viene
cles
▁achieve
▁tt
▁loop
хе
▁przed
Gateway
▁overl
ogn
▁bild
▁reb
seek
▁booth
▁vy
▁control
▁interactions
▁so
技
▁Online
▁WordPress
▁Wasser
Threshold
▁FIXME
▁Gemeinde
lage
ific
NET
▁jul
mbre
LT
ische
▁oxygen
▁bajo
▁einer
▁copy
ณ
▁orient
▁Annie
ance
▁Day
Mult
clusive
▁stell
▁Barn
▁employment
▁planes
▁unpre
managed
▁DOM
▁Song
▁Springs
<0x7C>
ibility
swing
;
▁wrist
▁Bro
▁reached
▁conv
標
▶
▁periodo
wrapper
мини
▁curse
숫
받
▁icon
cl
😊
ర
돌
reens
▁opening
ak
▁outbreak
MLE
▁Roma
ClassName
ament
▁pun
▁Lin
running
▁focuses
▁Cher
▁Graph
err
▁Ber
▁-->
bian
▁Crow
▁Scal
▁inclusive
▁backup
III
CREF
▁networks
axy
online
ở
▁Fer
▁accom
▁zunächst
▁equal
▁ice
<0x95>
gom
Based
▁Research
FILE
Amount
ис
Utilities
amb
ɛ
▁agreement
even
▁R
rio
▁Turkey
▁breat
▁refund
▁honom
Poly
▁Criteria
י
闭
MenuItem
social
戰
▁events
ギ
ies
▁estimates
▁пере
▁absolut
▁gave
▁Wolf
inking
▁лет
G
blue
IMAGE
▁milit
▁golden
▁initialize
▁Reg
▁onder
aba
Hook
Translation
rem
disable
实
▁ensemble
>:
▁Along
▁lips
▁discipl
▁Mars
▁Гу
字
▁Tools
▁prof
▁chron
▁Zach
▁Catholic
erm
물
icken
ប
igator
አ
▁nations
SY
▁blowing
▁suspend
ی
рез
▁Num
itut
UTC
fact
urls
排
Okay
▁safe
emit
▁completion
ката
argo
ێ
▁frowned
blog
hpp
拿
pen
endent
лли
▁Gordon
▁Fran
▁Austria
ყ
зни
educ
▁held
té
▁rocks
ulas
idea
归
duration
▁kv
▁transm
fl
anda
▁ret
▁differential
월
ដ
ud
▁liquid
etz
itations
dai
WP
▁пер
▁slave
▁saddle
ativity
▁há
▁ad
▁KEY
▁Primary
▁writer
▁Conne
Toggle
▁jet
药
▁joined
▁Default
'];
イ
▁ImGui
PASS
propri
▁improvements
▁corresponds
<0xA3>
han
ata
ellen
▁Ла
▁Lee
▁++
Ā
▁AA
ifica
owe
▁meat
▁hacia
▁села
ị
▁WITH
▁stage
ві
should
aya
▁Hung
dark
ёл
▁fond
ierre
nom
Components
Ħ
рого
▁momento
▁Kot
▁surveillance
Und
▁teachers
▁Alb
ospher
ソ
зо
▁Actually
bast
itet
▁stay
íst
么
納
make
▁Only
▁functional
сій
▁DS
▁overnight
▁Conse
Listen
▁cert
輸
▁+\
нологи
mber
▁attempted
esis
zej
âtre
▁snapped
op
者
松
▁Son
▁practicing
iral
▁mag
аль
ivery
cook
ero
▁perfect
▁programs
low
▁Relig
chars
esser
echo
▁]
▁heart
єю
?,
own
▁claimed
▁flexibility
▁books
auth
▁And
asha
▁depends
▁indeed
▁accounting
▁obvious
pon
▁photographer
▁stopping
colon
EXPECT
▁segunda
▁combine
wr
uple
ẩ
ѝ
▁thumb
▁ped
obs
▁Ł
▁District
aware
idental
azed
▁EXPECT
▁Jul
▁её
💖
aron
▁І
▁modo
▁"";
cor
atin
anks
Sum
▁License
▁steady
▁banned
▁kilom
▁saf
▁buildings
▁Chen
▁nuclear
undefined
▁alien
将
运
▁thr
▁Flor
▁Action
▁Sof
▁USS
▁send
▁hol
▁Finally
ands
▁Following
versions
bre
apture
Pin
▁visual
emos
级
▁Analysis
...)
bucket
▁hesitated
▁defined
·
mail
▁Technology
ѕ
serde
▁pop
▁fierce
ele
▁big
Water
migr
otype
▁Pil
actory
comm
▁bright
정
▁Acc
KE
何
▁Cord
Bytes
▁gren
▁Search
▁International
▁Looks
▁medication
:",
▁avoiding
ringe
▁===
▁accused
▁ST
채
▁laughing
ADDR
▁Reich
▁Arg
GUI
ources
rw
▁▁▁
▁government
ari
packet
▁concrete
▁shooting
▁David
ACTIVE
ный
▁kan
sur
▁regard
▁publishing
▁Els
▁android
▁called
▁married
avis
▁hun
▁displ
▁observation
▁dic
calls
▁confirm
ビ
▁tra
伤
▁Ло
▁све
fections
were
break
нача
jav
chnitt
碼
須
조
是
ย
▁NFL
委
▁promise
▁>>>
▁comed
itar
▁laundry
▁Tow
:**
▁pci
▁Carlos
description
▁upgrade
Scale
usal
▁Hill
▁Carib
Instance
▁controvers
твер
▁burned
▁analytics
▁farther
comfort
▁cons
▁derive
▁compensation
▁}).
late
eft
;\
igs
▁grandfather
bert
▁Nev
▁Special
▁arguing
❍
чёт
orient
▁parser
▁mejor
wend
decl
}]
▁Could
▁perfection
▁castle
sch
▁när
encil
^{[
▁recognize
Intent
uve
ⵉ
inner
cil
ССР
🙌
▁voting
▁discount
▁arriv
pis
▁feared
▁preserved
림
▁tire
▁stadium
▁represent
LEN
✌
▁verd
▁sch
DIR
▁thirteen
▁occasion
bru
▁év
▁Fill
▁воен
▁**
양
ather
haus
▁ugly
▁pollution
div
複
logging
▁stesso
▁major
▁Sound
яв
]$
▁score
ư
▁reprodu
▁Sen
▁variables
▁Bobby
leq
CLUD
▁idi
▁tanks
巨
пис
ugs
sheet
series
▁globe
▁compet
▁seems
▁bow
Transform
▁Hind
ixa
▁connections
unted
▁itself
zą
▁bewerken
▁initialized
ské
▁Does
▁alternative
▁me
▁fail
ske
▁injection
▁Prop
Billboard
鱼
flash
Product
래
anches
aire
▁Ernest
त
каза
▁дви
▁excellent
(_
▁Orleans
▁Git
▁år
▁tren
▁abroad
ρ
<0x6F>
▁irrit
▁Fine
<0xD5>
▁cro
▁между
▁Lim
▁shirt
▁inf
alu
▁visited
abstract
從
bel
param
▁estad
<0xFA>
▁people
QL
▁lived
▁stocks
abil
▁sod
▁Independent
架
불
▁optical
▁privacy
▁DI
▁handling
▁Dak
▁throw
ур
▁sub
▁Soft
▁Cr
▁writers
▁get
▁Bel
▁conduct
abor
▁Ос
Β
禁
▁theoret
▁rugby
▁bin
▁Cou
▁analyt
pite
▁engine
ió
▁seventh
ights
Identity
getData
▁Check
Any
▁Nathan
decess
馆
▁Pa
▁им
▁bars
un
▁Pennsylvania
specially
▁#[
▁volt
actly
cción
▁Cha
▁passenger
wq
▁verk
▁arrow
▁nons
😭
▁wanting
▁bo
▁synchronized
▁Jahrhundert
▁Hawaii
irm
系
▁Connect
<0x4E>
▁О
▁Nic
▁Landes
▁metall
▁tamb
uals
anka
arde
gg
▁bias
ძ
▁evolved
akov
Je
▁typical
mons
UEST
▁nove
▁customer
▁À
▁città
▁zu
Ut
✪
iction
▁cpu
omet
romise
▁tipo
?'
▁corps
рии
▁spending
▁kinda
War
Authorization
▁shake
ằ
▁Non
▁twee
⬜
銀
▁Hot
風
Attachment
deg
XY
▁amazing
▁nut
▁Chamber
▁violent
▁facil
▁onclick
lan
Ok
Big
▁extracted
▁consent
▁Freud
confirm
▁execut
▁FALSE
ฟ
▁coalition
project
▁vod
▁свя
['
▁Front
▁imm
▁isolated
erei
ioctl
▁BBC
▁cultural
异
▁leaned
Selection
skiej
罗
▁tous
▁distribute
▁Button
ited
ot
▁meeting
▁promot
▁little
▁Nick
HI
ativ
▁LE
▁easy
elasticsearch
UNT
CLU
▁Nina
manager
пе
▁lawyer
▁registered
▁PAR
▁faç
Effects
▁Pat
▁Rub
▁cart
▁referring
▁espec
▁anxiety
▁oraz
▁kommun
ollary
eks
match
▁doctors
▁interviewed
並
▁dun
저
orr
▁Jacques
▁Letter
LOW
と
▁responses
Ph
ble
▁yard
GPIO
▁have
▁Tennessee
cam
dag
▁febrero
plit
▁exponent
ção
▁them
▁handles
unction
▁grandes
Som
▁locale
gif
▁intact
пра
Apply
shal
acja
▁rs
▁anderen
▁can
ი
▁Rel
▁class
▁gone
CLASS
):
grand
▁prote
Contains
衡
ension
ctrl
▁instructions
▁Sept
aments
▁tarde
▁ottobre
program
念
uel
Tax
chip
▁sang
交
ं
ére
▁transform
▁expanded
dating
▁individually
--;
▁Zwe
▁INT
未
閉
▁Sax
だ
aga
▁happened
altern
▁ASS
geon
▁praised
争
▁grocery
▁enjoy
aaaaaaaa
▁sixt
mbox
imiento
▁desen
▁esper
▁много
▁crypto
▁uint
▁llev
▁arrival
urt
▁validation
gan
▁####
▁()
▁Ern
▁Newton
ñ
▁Hy
▁roku
system
▁issued
▁Kre
Resize
事
▁Victoria
izo
drag
▁Div
▁replaced
bg
rollers
▁algorithms
ент
▁satisfy
item
ively
Windows
▁governor
otherapy
▁Trace
▁ranked
ule
▁dist
ibling
▁tastes
US
aciones
▁anybody
smithy
bil
acies
▁initialization
()).
▁Much
连
▁Paulo
kor
▁I
▁describ
▁mort
▁$|
▁short
nals
("
dorf
̂
woh
iop
▁bath
▁Award
▁му
切
▁ausge
ovan
▁implications
▁stark
plaat
▁birth
spot
▁Sort
二
Amaz
<0xB8>
он
雅
▁neutr
FLO
▁управ
▁writes
▁stagger
izza
hentication
▁Ide
icular
▁Module
iciones
▁тур
aris
塞
▁Drag
▁mor
▁Number
▁minist
Split
▁shaking
Ć
▁Famil
OO
bitro
clam
◄
陵
▁breast
acket
既
efficient
▁mas
▁extent
ifference
mathcal
RESS
ff
▁sop
▁somet
▁landed
▁maybe
"))
▁glass
▁up
▁Senior
Stub
Clip
ō
▁proven
▁Indeed
▁implementing
▁Nederland
▁mail
▁endl
报
▁demonstrate
ensure
▁Equipment
▁Security
State
了
polation
embed
▁After
agy
▁firmly
ží
▁abandoned
▁glasses
TextBox
▁Contract
▁flex
]}
▁injured
▁labels
▁washing
CREATE
ക
▁candidates
ök
▁format
▁Bag
_*
▁agenda
Mix
▁Jag
停
command
prec
▁eq
▁meer
▁temporarily
▁util
▁Tom
‘
▁Spr
ynchron
▁jQuery
▁staying
▁protection
じ
(@
▁році
tt
priv
▁continent
no
▁pen
▁Maggie
cing
▁Ev
▁HAVE
Names
▁spirits
▁delete
▁Championship
short
▁Attribute
▁мая
JECT
SUP
▁функ
≤
LM
▁Anna
▁fell
aint
▁Something
ionato
▁wom
택
▁burning
▁etern
Connector
া
▁Information
timeout
▁GB
▁Bank
▁communications
rpc
▁Meet
▁Jackie
▁($
ת
가
▁про
▁Marc
▁Wal
▁honor
()
▁payload
https
Serial
клю
Coord
▁slim
istrict
▁principale
▁paint
▁PRO
前
jd
▁struggles
▁guides
<0xBF>
wed
▁tide
hol
ani
ف
->
▁claiming
>\
osa
▁account
зер
ierz
었
qpoint
ORT
oves
▁takes
ध
▁varieties
▁který
▁abilities
▁News
▁competition
绝
OC
translate
▁response
▁contains
▁north
་
▁artikel
loop
<0xA5>
<0x6B>
▁ett
Fail
ray
▁smart
icense
്
pio
▁ED
ron
HED
egründ
▁Unidos
vious
▁señ
plom
▁Scottish
▁Hem
▁mong
商
Processor
opt
▁presented
getValue
ٓ
▁jam
žen
ા
▁smallest
▁Heart
▁bloody
apply
▁miner
▁boot
|_{
vt
Feed
jour
▁recovered
▁ranch
azar
▁gives
们
UES
▁crush
唯
▁das
▁rich
safe
elif
▁Brig
AL
ERS
▁J
olly
▁containers
▁cat
iii
▁Oklahoma
候
▁continu
xs
*>
▁spectral
ült
▁особи
Hello
▁NO
업
▁долж
▁doctor
负
▁Love
▁bond
▁reduces
▁delivering
▁Ot
▁pron
inch
▁agent
▁income
paren
Ç
querySelector
loads
transform
arith
▁Several
▁Kid
▁tale
yer
▁true
▁Mediterr
ubre
▁Par
▁newspapers
ww
forward
▁equations
▁pursue
▁outrage
▁Gi
In
Partial
ert
api
▁ash
▁specify
ні
▁sus
▁pers
▁after
▁Fried
▁courts
▁Owen
SPI
▁отно
▁Grande
▁understands
MM
ATH
peer
▁establishment
▁Haven
▁built
▁Mot
▁remote
ើ
▁ses
雄
您
vare
▁quoted
야
▁far
▁Lincoln
aru
▁D
Iss
▁heroes
▁Mono
▁Albums
▁Jahrhunderts
▁Gel
▁Ned
▁Madison
▁$\
▁систе
▁tres
▁мест
▁unlock
비
SEL
Front
▁acquisition
▁pension
田
्
anton
▁examples
writing
Null
錢
uesday
alter
buffer
{{\
XML
strong
▁supplement
▁#
ф
▁suited
uate
▁psychological
メ
▁î
▁weiter
▁requested
▁distribut
▁bear
seau
ége
众
▁same
Flow
▁two
loat
itable
Rows
▁wir
▁membership
▁highlights

▁();
▁Gra
▁outcomes
*).
ガ
▁Activity
▁sword
虚
öl
▁NET
ote
rell
produ
ears
▁autumn
љу
▁исто
▁homework
▁recommendation
子
▁pist
̆
Bound
partial
Layer
▁Email
olation
▁Enjoy
жение
▁letting
interpret
▁disgu
▁issue
▁Build
Actions
▁child
icus
weights
▁innovation
ieden
▁announce
▁quality
("%
IEW
▁convergence
▁analy
▁modes
防
̌
▁Ign
▁andere
▁[...]
▁notice
play
▁unless
▁recorded
▁resur
Lo
▁Aust
eding
▁Word
▁работа
град
▁Sum
iglia
ében
Fil
▁Team
曹
Option
▁dw
’.
istas
дова
▁polite
▁protagon
শ
este
bo
YY
▁porn
▁полити
▁Freedom
ники
▁close
▁stomach
▁desarroll
采
▁fract
Printf
space
▁dumb
▁designers
💜
▁Ve
▁Lucy
unter
iform
▁получи
般
uments
enta
▁exhausted
試
Country
▁didn
▁XXX
ntax
{$\
end
▁nell
oso
izada
TOP
commit
xico
▁Parameter
accept
icious
▁flags
较
ervice
ici
ły
▁efforts
ucht
osp
▁MT
︎
close
▁Simply
绘
Perm
мент
Monitor
VEL
▁Cele
Final
apt
▁hospital
uela
functions
▁которых
∈
äng
void
ष
õ
▁fourth
⇔
▁bad
wick
bug
▁него
eros
▁Ј
ɔ
onso
▁TR
▁Jean
sp
▁leadership
keys
▁accounts
▁waren
▁sour
▁identity
rr
agine
▁GC
▁walked
▁space
工
▁throat
▁ric
▁enjoyed
resh
inned
▁awarded
features
▁CBD
▁soci
':
▁websites
Pack
▁Process
icult
▁excessive
▁Harm
рия
)+\
▁complain
▁nasty
Max
ван
▁GFP
чо
Usage
▁"$
)},
▁diagonal
former
closed
▁Wall
池
▁controller
scious
피
▁Carter
▁archae
‰
amt
öffent
▁Caribbean
▁pseud
▁bod
▁Element
OUTPUT
bis
▁ejempl
Mill
FLOAT
▁Fab
▁colleges
▁Complex
▁Commonwealth
▁bos
▁Nut
▁'<
ʟ
for
▁Max
▁powerful
ʏ
ployed
Rend
ิ
▁ann
▁campus
▁bel
▁UK
▁Ú
▁Tam
UB
▁Cell
▁birds
▁loops
▁panels
unk
rie
▁reward
']);
▁Middle
▁brothers
Eq
▁beiden
enze
Region
▁Govern
hem
kins
~$\
▁essay
гла
iu
ensor
н
▁dependencies
Lou
soc
ursor
uated
獲
quot
▁invent
▁office
deep
▁flower
▁metric
objects
▁stress
istent
▁recently
▁''
__)
▁standing
PROTO
▁escrit
性
▁Barr
bw
英
Writer
come
Dynamic
▁wise
link
Disabled
DP
▁является
网
▁genu
asant
▁vital
IME
▁"_
}}_{
▁Argentina
▁Pand
▁Some
MAP
template
▁nom
▁compl
LENGTH
▁plugins
▁Major
▁consequences
▁link
ieren
ˌ
<0x8C>
▁distance
▁retro
ween
▁dels
▁akt
▁pac
nero
员
▁Roger
pless
▁batter
▁offering
osexual
рат
Click
▁unable
▁customs
▁departure
▁///
▁annual
▁Schema
▁hor
$(
中
▁templates
_{(
▁También
zym
pgfqpoint
ventions
▁Phillips
▁margin
▁accum
▁interact
▁Environment
жу
checkbox
▁som
MEDI
▁owe
▁Need
따
ła
▁charg
▁gł
uly
Abs
▁usually
▁insane
▁outer
▁Nazi
imgur
▁auss
▁estud
").
▁entered
▁wife
▁identified
aser
▁neat
▁tecn
▁po
▁adds
▁edge
oration
emente
▁school
opacity
Da
▁Seth
▁chill
▁streets
IES
▁viol
}^\
stract
▁walking
❤
▁lightly
▁У
ag
▁sugg
andra
▁funeral
▁garbage
▁franc
ellig
verso
▁")
aman
▁cual
eras
▁Tan
resolve
▁practition
・
▁ESP
Keyword
staff
▁fun
▁chair
icher
ⵏ
("");
Types
)));
▁compiled
▁Horse
EXEC
▁Toronto
▁apr
▁Professor
публи
ccess
perp
▁characters
big
REQ
olv
▁STAT
ml
▁Mean
物
亮
shops
▁forever
▁divis
▁dos
orig
▁scr
бы
▁vé
core
"/>
semble
▁DES
▁accident

нен
▁Mus
▁sail
▁Mi
▁providers
▁personnel
▁bru
▁angel
antry
▁Hugh
ivas
▁rab
loc
▁eine
part
ки
orld
같
Body
▁En
bank
roz
▁seva
▁blessing
▁він
▁Los
▁Players
▁uuid
▁у
▁vaccine
▁XIII
кономи
▁jumped
▁coin
习
xA
ড
▁explan
atie
▁citt
в
▁Lord
raz
Hy
▁talent
▁także
нима
onder
▁model
ристо
formed
▁inj
чной
shared
opy
oda
b
anes
ც
▁была
ун
▁Produ
▁Eine
▁defens
uc
MOD
▁traditions
▁Grid
▁aspects
▁improving
▁hand
Headers
▁Pict
▁Plus
▁Ce
iance
▁chrom
power
ана
зь
▁AL
▁Hell
▁divine
<0x96>
▁cnt
▁consistently
▁desper
$("#
▁freeze
shaller
ження
ק
FO
▁delegate
▁alumin
▁comparable
itated
▁vain
▁lifetime
Subscription
▁turning
umn
▁likelihood
HashMap
UP
К
<0xF8>
▁plans
ン
▁mand
orn
Connection
😄
ут
geb
小
DateTime
▁would
▁fan
▁retire
抽
▁German
▁Som
▁forum
fortunate
▁soph
▁us
▁politician
▁Chris
esch
▁trends
▁nomin
▁cf
ommen
▁pharm
▁fighting
Ӏ
due
▁My
zip
Vers
▁grow
▁slower
getElement
acs
▁Marina
▁első
▁celebrate
<>
●
▁spy
]{\
³
自
meisterschaft
▁i
▁Comb
▁insight
igenous
▁reign
▁Urban
Ī
▁cities
Peer
inta
减
▁embedded
▁perturb
ABILITY
▁scientist
▁Butler
USA
VO
▁[`
Filename
hl
▁armor
orse
▁affiliates
=>
▁retry
▁Images
▁fn
Ill
글
助
element
▁pounds
▁architecture
▁rolls
▁metadata
▁(†
notations
▁zich
straint
▁Dim
y
▁oldest
▁promotion
Tile
!
ve
state
▁says
▁passing
▁Marie
▁tune
▁relate
▁empty
▁gep
▁IC
rypt
▁Andre
Launch
eturn
▁slight
阶
▁bord
EMPTY
▁inspired
▁Credit
▁dol
да
onomy
▁<=
▁där
rock
▁ско
▁imperial
▁×
ტ
ativo
HA
▁hidden
sky
some
▁provider
▁eval
▁orders
▁BO
yd
▁Alexand
▁secondo
Delegate
$~
strlen
aceae
ęp
▁télé
以
▁miejsc
व
종
▁sob
▁gro
▁игра
▁fortune
▁Jac
ession
▁accommodation
▁resulted
iation
criptor
▁study
share
▁incorporated
▁phen
判
▁Mai
erde
▁rôle
張
Guard
OT
▁net
▁cop
cpy
▁swift
▁Challenge
诸
읽
load
▁Fra
▁stuff
area
▁hearing
▁Ludwig
xC
▁rul
isons
bour
▁corners
Payload
▁Ralph
▁favorites
Until
▁Next
лена
yect
▁Sony
▁White
曲
▁my
<0x83>
▁knocked
▁vocals
ört
▁Cov
்
avy
▁Start
▁contain
ptions
▁UINT
微
glas
▁vendors
ieme
▁adopted
암
▁Wire
▁Dream
Will
▁barely
irs
su
能
▁Eli
▁rod
▁Milan
▁dil
▁gen
▁Febru
▁И
▁controversy
▁сло
▄
▁clue
al
▁subtle
ixel
▁Amb
Mutex
Currency
▁Faith
▁food
▁broad
polit
ٍ
▁reviewed
▁Lemma
ères
ር
▁broke
wise
▁Са
▁blond
sey
▁Prince
ston
▁nuts
minus
▁signal
ci
org
▁propag
▁found
▁designing
媒
'>
▁deel
狂
literal
▁Race
▁Fall
Adapter
▁applies
▁_.
▁Helen
Sets
▁dann
▁Cap
ű
▁spot
▁anch
습
ë
unden
expl
▁Upper
achi
▁holding
DELETE
icture
logs
怪
▁Nag
▁#{
▁thou
▁floor
agation
▁els
▁tooth
Р
村
甘
▁World
▁killing
▁masks
▁Its
ifferent
▁gain
▁Buy
ank
ress
▁Easter
▁OFF
▁compat
▁Gam
Ï
▁behavi
▁metrics
▁Stay
▁variable
hdd
Integer
▁Ter
urers
▁aggressive
▁dragged
▁Covid
▁refer
like
▁Committee
сло
ster
直
rolling
▁migrations
▁herself
▁Serial
▁disclaimer
应
тал
▁Go
अ
CLUDING
▁junior
ivia
▁hen
ต
▁dt
▁той
▁es
▁stronger
▁shower
អ
entials
ARGET
{"
▁Eth
浪
▁Organization
▁desk
▁lu
▁comm
车
▁Cong
▁relevant
odigd
rant
▁seq
igent
▁Rico
wa
tor
▁Plant
N
dog
Did
▁exceed
▁enf
▁#!
▁Clearly
▁products
▁Ä
▁Crime
comput
ORS
inherit
拳
▁Select
▁death
YP
▁Om
▁social
▁timestamp
語
▁pero
▁Language
▁général
▁tatto
sprintf
}).
▁Proposition
rets
▁nursing
់
▁hoped
ill
▁["
▁lugar
▁toll
▁supplier
入
and
▁ion
supp
▁leap
遇
贵
ello
▁influences
▁und
▁Galaxy
▁twin
spe
谷
what
ème
▁mesh
<0x7E>
▁!=
Payment
pair
▁Medicine
ceptor
▁Partial
▁dates
rivial
▁Hug
ographie
▁wonder
▁sixth
̀
▁opin
ְ
,\,\
▁Coal
ell
store
▁харак
ása
Emb
▁ras
়
▁honour
▁най
▁E
▁bot
Build
Small
▁collapse
▁Here
agna
rugu
azine
Trans
How
梦
▁data
sal
Target
audio
▁essentially
▁nú
▁Lloyd
ず
ento
▁га
▁авто
▁resources
acious
▁Cost
oday
Bu
▁nan
▁expr
▁государ
▁hypothes
▁Thread
▁mechanics
▁dancing
▁Within
▁followers
▁disadv
▁bil
window
Ip
iggers
▁Sara
▁те
cls
FULL
structor
▁luego
VERT
▁Intern
▁бро
▁toilet
Spring
▁satisfaction
Convert
待
izioni
▁ignored
AIN
▁Let
▁Graf
▁peculiar
健
▁signature
▁demanded
▁коро
Algorithm
Debug
hre
す
owym
知
▁encountered
DD
▁promising
▁Falls
ockey
▁everyone
▁stere
▁synthetic
imp
Wr
ash
▁Mong
▁expans
▁triggered
ermo
ゲ
胜
▁Morning
SYMBOL
ỏ
▁Filter
党
lv
AC
uler
2
Attr
充
▁Jos
poll
METHOD
▁около
▁whenever
Win
oking
▁instead
radio
▁Apart
▁by
▁né
width
▁highly
▁Attendance
▁arrives
▁torch
aler
▁Rou
▁составе
▁consum
▁Sample
▁Dies
▁Tat
▁Force
▁Once
wing
▁towards
React
▁mol
▁Wol
▁incre
ily
ORD
▁parse
▁iter
▁foi
▁fir
▁kle
▁branches
RA
า
▁fuck
▁atmos
▁programme
▁Hoff
inating
sson
▁lon
▁Fe
▁Vas
GIN
▁bott
▁cont
▁\|
▁PCI
ські
stret
▁trails
RESET
∂
본
ى
▁visibility
herent
▁Float
阅
Design
▁scale
▁pushed
▁release
▁priests
▁само
DIS
井
▁Und
孙
Kit
▁isol
▁failing
▁keep
▁COL
Images
rb
▁there
▁handled
▁signing
amine
()))
▁purchasing
▁foolish
▁Stockholm
▁coeff
▁October
▁hem
Parser
RESULT
asp
▁quale
▁pic
▁antes
oter
ъ
ients
CODE
spector
hbar
绍
으
ំ
>@
▁nullptr
▁Course
avid
лав
iety
▁river
ourt
vec
oj
▁capable
▁number
▁pointer
▁miracle
<0x44>
ọ
tool
▁excell
▁bud
ueblo
ရ
吧
▁antib
encoder
▁It
umer
irable
Alert
CM
▁pistol
签
▁horrible
дина
▁battles
éric
▁harmon
宋
ens
Backend
క
▁totally
▁Cass
ний
Cost
▁cleanup
▁mechanisms
rior
饰
Opcode
終
util
▁represented
▁becomes
ными
▁advertising
прав
▁brought
▁blade
▁Pedro
navigation
于
▁children
🎉
pres
ke
post
which
▁dx
▁permanently
▁Camb
▁ready
transfer
pg
▁що
gery
▁Runtime
▁pc
▁Catalogue
earing
ptr
▁siblings
ru
External
<0x0B>
<0x87>
Threading
▁Orchestra
gorithm
hspace
contains
Mock
rying
ッ
▁Bay
▁wound
▁Conf
opyright
▁swallow
▁single
TRACE
▁PI
HAS
▁accur
Uint
辑
询
▁tou
algorithm
▁Creates
▁Country
java
▁Bez
▁nodes
▁contrast
ages
▁Mah
Ref
▁arg
▁Bitcoin
<0x51>
ait
▁slot
▁reluct
▁Philadelphia
▁rund
ulpt
ý
▁ceiling
▁Vol
intent
▁Bow
▁timeout
Align
產
ouch
sdk
▁Madrid
▁lum
isf
aints
립
ger
▁disorders
▁___
▁ram
irling
ным
============
▁realised
▁relaxing
▁Marine
羽
ょ
Transfer
▁believed
found
▁conference
▁source
▁фи
▁Commander
▁SHALL
▁Result
▁^{
ெ
ል
Data
構
▁crash
▁Benj
)");
erie
ти
ral
▁stare
▁justified
▁Cross
destroy
▁plural
……
▁firm
▁navigate
▁Lily
那
inates
HasColumnType
랑
=${
ically
▁führ
html
▁corre
Limit
▁China
signature
assets
Х
png
National
kol

▁ap
▁Verm
azz
umbs
▁Grey
钥
stan
illes
iera
▁Ha
mission
Border
▁nv
▁new
▁Rober
ᴇ
flag
▁EXPRESS
cn
▁Latin
Bank
perty
COM
▁buy
ationToken
▁Lieutenant
пор
anim
▁involves
'$
▁Lam
abul
▁Repub
Ы
瑞
▁Strong
Entries
▁hommes
▁Nicole
↓
За
?:
гу
▁giant
::{
VALID
▁vot
ilio
Metric
▁vig
radius
▁defending
ления
publish
ities
ico
кс
▁dés
▁Christians
tikz
chez
▁miles
▁ps
ző
Namespace
published
▁scheme
▁ind
▁Value
Selector
ça
▁css
eg
▁backpack
▁integr
▁parts
오
▁Universe
ล
▁Techn
▁seeing
achusetts
▁Roche
▁encore
편
▁hus
)\,
▁Er
charg
▁terminal
▁caval
Art
▁initially
Cap
mee
år
▁drinks
TP
▁($\
고
shore
пар
▁fork
FEATURE
▁cameras
нем
HOST
▁website
▁surprising
▁Kol
holds
Sur
ties
审
▁Gran
vm
▁glance
▁invited
▁sa
ed
:}
ʊ
▁использова
Q
▁dia
碎
▁nam
▁avoir
▁va
point
▁underneath
oving
▁substantial
Permission
▁baking
▁Input
тера
<\
▁Pearl
шта
▁indic
▁November
oth
리
▁tests
▁bits
▁};
datetime
▁poverty
och
▁clarity
static
ussen
▁Nash

▁assembled
peg
▁occur
$^{-
▁ehemal
▁Vill
bn
owy
▁Cambridge
▁grinned
▁lieu
olver
▁creation
ingo
▁Niger
ców
iour
▁bend
orp
▁september
▁involve
лі
quate
oro
itel
▁Ав
Emp
eking
aska
▁apartments
ulu
▁Monday
▁ns
▁inhabitants
OD
▁offer
▁pale
▁LED
▁clone
▁boots
plement
挂
▁latest
▁countries
▁Fortunately
겠
镜
asc
FAILED
研
▁Junior
▁phenomen
origine
▁Dakota
hidden
ading
Http
▁exists
▁Ва
▁служ
oto
▁Berkeley
▁song
encies
iff
▁Lanc
▁ze
▁rid
ometry
幕
ruction
ль
▁organic
leg
▁prior
ор
▁Mod
▁estimate
▁housing
now
»,
▁Für
ité
▁mystery
iene
▁werden
GG
▁szer
SYS
▁threatened
Alpha
▁anniversary
▁Style
▁Sohn
取
≮
▁lb
▁шта
MENT
▁theater
▁heal
vard
ilon
▁polit
▁wie
techn
IVER
▁fruits
rived
cir
▁Do
arly
▁Lesser
‏
便
)|
veh
tons
▁Dod
CP
羅
沒
▁debug
edi
eca
Test
ำ
▁Prize
▁continuous
▁ис
▁stand
ège
▁traders
▁directly
▁catching
▁Anim
ръ
payment
Ui
▁democracy
mobile
▁are
▁lib
Lat
Behavior
clk
стви
yr
▁vez
\!
ZERO
ead
≈
▁definitely
▁ass
▁spokes
چ
Tokens
uy
▁know
▁совет
rdev
▁Charl
Locale
tz
や
▁nem
▁Drupal
▁Сан
▁für
ส
▁beans
▁Ra
▁ourselves
截
▁palace
细
тей
▁sue
▁signific
▁habitants
Hidden
▁Ram
▁Я
▁Mun
▁Zag
▁genuine
▁этого
actic
》
bew
не
Batch
▁Political
error
Ї
▁faire
▁landing
▁gle
▁excl
sex
udder
▁hä
▁Mann
▁everybody
▁Cole
を
▁core
焦
exit
obi
▁ocup
▁USA
ція
-.
ensity
▁під
▁criteria
▁Sounds
▁ACTION
▁instruct
)){
▁volunteer
__(/*!
转
мей
що
▁dwell
uffle
▁urb
itu
acl
extend
ָ
依
illa
▁vectors
number
stairs
।
Љ
প
CC
▁sur
isk
ссе
username
▁Roberto
ш
ʷ
▁GPIO
Lu
忠
▁Bever
uster
▁illustr
§
▁signs
ŭ
▁marijuana
▁magnetic
▁Death
▁Euro
А
At
▁Bas
男
velle
▁Dean
idas
ikk
▁references
rag
屏
▁Vin
click
▁archive
;"
▁couple
▁Миха
▁width
Air
și
▁compt
▁neighbor
igkeit
▁dece
(:
oms
ünd
▁institutional
▁considerably
yt
▁Kan
іс
CALL
icon
`)
▁disturb
▁recommend
▁seeks
commerce
replace
▁instinct
poses
apache
▁mt
▁trusted
ASK
Axis
▁providing
<0xF7>
\
engine
widet

▁Bau
rais
▁By
isions
▁ti
못
司
▁squad
Millis
iteral
▁ris
▁experimental
news
locale
†
▁readonly
▁Beijing
գ
Combo
ixer
<0x01>
memory
▁cards
▁manual
."
тва
▁[{
լ
▁él
▁diplom
▁Former
ents
ního
▁studied
│
heading
PRI
▁Ass
▁Lauren
▁threads
▁jed
player
▁toast
▁under
▁bus
yg
▁String
cpp
̪
CLK
wan
▁flow
tras
▁streams
Disable
里
▁gig
tery
ub
▁encouraged
▁Story
>';
▁PUR
▁boat
ourse
}$,
ęż
▁Pop
▁Brown
▁hallway
▁transactions
Finder
书
admin
▁expectations
ложен
▁injuries
▁view
▁Herbert
>?
∼
▁Setting
Modules
del
▁reflected
Grid
▁infl
▁sb
▁won
mb
▁crops
▁moins
▁drei
▁ladies
▁died
enable
▁gef
▁dealer
▁Testament
Wall
ể
响
Com
▁secretary
юще
▁planet
fixed
Missing
▁event
▁opportun
||
}_{\
ighters
reshold
▁Natal
▁country
letter
ted
dependent
lights
▁lion
.)
▁commun
../
unit
▁centered
练
▁Diet
▁пі
▁ство
Media
▁permission
▁option
▁confirmation
▁seven
▁fast
Create
▁&\
▁colle
▁CONTR
▁Operations
▁marble
ร
▁SND
ْ
▁Brother
链
ر
▁prem
▁asking
▁FR
Ż
▁Internet
▁permanent
▁navy
urch
▁competitors
暂
夹
▁wanna
POSE
-%
▁modest
▁−
▁Hig
讯
Config
▁Magazine
▁FL
ші
▁Town
▁Jahre
▁Off
abei
inois
)_{
czas
▁price
∆
▁We
building
коно
rowned
que
▁Nom
Supported
rupal
ocker
倒
cer
;</
mir
▁декабря
▁Nelson
pression
чи
▁bags
▁Used
▁artwork
▁irq
erial
▁Label
▁pillow
mot
▁optimization
VIS
eb
eri
▁wherein
|
청
TARGET
▁\\
▁Nad
▁Mul
▁luc
▁calm
▁Having
Slot
<0xD6>
▁gallery
bie
”.
▁fils
▁dec
▁denen
psy
гор
▁therapist
Ю
da
楽
▁moment
▁parseInt
Confirm
▁investments
rief
umper
scribed
▁tab
▁::
▁fel
ေ
otal
▁internation
графи
adr
ega
pr
<0xE6>
AF
ube
▁Scot
▁owner
Information
кло
▁consequence
▁recipe
Home
icago
веде
unting
▁Sophie
...,
▁president
▁reduction
KK
ahr
▁Manuel
saved
▁growing
Buttons
迭
erek
▁Create
ция
▁merchant
▁ju
▁DL
Ț
▁percentage
▁detect
▁ю
▁developers
uw
▁Justin
▁mar
▁metal
▁works
sim
▁Valid
ships
▁harass
▁species
When
▁Truth
▁Inter
▁guidelines
utes
nej
Storage
roupe
▁também
inand
▁namely
▁chi
▁verschied
▁Pow
▁surf
▁filling
Cut
▁report
▁quick
вод
▁Гер
▁Rate
☼
▁strong
cep
▁della
ァ
}`
ims
▁Ка
▁Bere
▁singer
▁hearts
sc
▁iPhone
▁Blo
Insert
AV
▁repairs
▁Region
PC
events
airo
denly
▁fo
tring
▁départ
▁sensors
▁concert
recated
▁cy
ids
▁Track
reload
津
ictionary
ług
▁selfish
▁г
Ret
▁effect
▁za
▁bodies
loading
▁evaluated
▁Nin
гом
lang
▁dignity
▁Met
▁BT
▁phrases
Renderer
ect
▁suff
▁chick
▁Port
不
trait
getType
depend
RPC
▁matt
▁kar
}|
en
oi
▁'#
▁specialized
ே
▁talking
ether
ierte
argin
~~~~
atem
▁revolution
raf
▁reminds
▁chap
▁despair
SOURCE
the
ami
▁possible
▁rebel
▁Windows
▁Regular
pto
▁Coupe
态
cular
▁juin
▁filtered
▁Soci
Callback
▁reverse
…]
iers
▁defining
▁ER
orph
▁Estado
üg
▁Base
buch
証
▁Gabriel
qquad
ures
GO
È
▁Beyond
▁vac
▁Никола
MAIL
▁beginning
▁Handle
▁Roose
▁widget
áct
▁sentence
▁*/,
anç
▁fortunate
вого
▁states
▁nine
▁respected
tar
▁HE
▁Sau
▁sends
▁jealous
▁li
File
▁coal
▁arch
num
▁shortly
achelor
😬
encode
お
sha
▁Guy
лів
▁independ
▁britann
веро
Œ
▁escal
▁end
▁GET
EventListener
▁anc
▁off
▁eran
▁increasingly
▁delivery
kreis
▁typing
down
stadt
▁sq
▁Writ
Oct
ザ
EINVAL
▁СССР
ville
▁Duncan
iblic
▁Thom
▁massive
▁Politiker
▁caused
▁perman
body
▁Hunt
али
Add
▁WIT
▁marg
().
▁harsh
%%%%
获取
▁connection
▁о
Unable
NUMBER
▁golf
▁survive
ally
Conv
Warnings
▁Consider
xy
▁welfare
▁gouvernement
FAIL
▁Jacob
ἀ
率
卡
ód
▁listen
▁integration
▁alpha
endment
▁identifier
You
▁pregn
轻
▁else
yo
math
▁lou
ystem
会
忽
▁stays
▁constants
rive
=\"
活
OS
▁Ret
▁Execut
▁myth
▁calendar
▁Sav
Seg
▁bt
▁---
إ
Trace
цев
▁charts
Prom
paragraph
IFT
先
▁Mississippi
▁guid
▁better
<0xFF>
▁tram
кт
ær
▁title
▁Francisco
主
▁then
ylon
▁Het
ști
▁introduction
üss
▁Choice
▁Ку

▁packaging
▁healthcare
aks
▁Logger
比
copy
ща
▁Brasil
INVAL

{'
want
▁Different
见

Reb
тора
▁Chair
age
▁pregnant
Controller
▁Thank
▁Affairs
پ
acity
icode
ocon
▁retour
że
="{{
Act
edish
Image
svg
uspend
▁project
▁currently
▁association
ване
▁Tu
▁Virgin
target
obb
▁So
sko
▁Required
▁Muse
entre
▁networking
grav
▁Qual
еди
▁Engine
protected
▁Crist
▁Similarly
▁employee
cmd
рт
草
▁Cur
▁cour
dn
▁comport
iver
▁av
▁XVIII
ді
▁sí
▁triple
▁sisters
debug
▁Method
君
▁sustain
黄
⚡
}}
▁dressed
▁decode
router
вший
inputs
¥
зд
ism
iles
▁driven
dates
▁Those
▁anterior
▁Settings
통
石
?”
ín
▁logged
▁districts
▁came
lij
구
heart
わ
▁contra
▁clin
▁hundred
▁Rev
▁Leo
출
▁BU
ісля
▁tr
erta
Lang
위
▁imagine
▁Александ
▁apparently
▁WARRAN
clock
PY
▁Hi
▁Neb
MSM
▁creator
av
wall
Bul
▁history
▁Ch
VE
▁Events
▁exotic
▁Companies
ä
▁including
▁Must
htt
ames
▁patri
ض
▁rock
▁rag
▁bytes
▁nucle
▁Russell
CU
▁sugar
▁Reviews
arl
▁drives
itivity
▁printing
asma
▁Mason
▁VAR
▁######
Row
▁Things
▁beaten
▁comment
пози
▁Double
Apr
fo
▁weird
▁co
▁Lors
valueOf
▁Mack
▁struggle
actual
▁compon
["
Del
▁bekannt
olog
abase
glob
▁breed
▁answer
▁screaming
lap
徐
Unexpected
干
▁rewards
▁présent
▁'$
▁Arizona
▁farming
▁Вер
solete
ITE
▁intel
层
ⵓ
▁ethnic
=(
prés
▁closet
▁Cho
▁Belgium
▁scenes
▁refres
▁z
icles
▁pad
血
editor
▁punct
elements
cycl
▁Buff
▁Const
onna
▁Normal
conditions
vention
▁Johannes
▁Run
▁levels
▁sept
UPDATE
▁congr
▁dialect
CHECK
▁unre
月
昭
▁freak
▁Arthur
▁Thor
Files
▁▁▁▁▁▁
config
зу
▁Apparently
▁conc
▁member
На
▁Local
▁operators
▁hr
▁packing
Master
rust
ended
▁все
▁Merc
생
igua
ψ
Fi
▁business
▁Auss
▁am
}/
<0x39>
▁selected
uan
ḍ
disk
▁determining
▁Ві
키
▁Theater
lower
▁Franz
▁ал
▁rus
▁Guide
directory
▁concentration
▁undert
種
▁glory
▁estimated
▁manually
▁Tar
▁Fort
Occ
files
ェ
▁adoles
aries
once
Pres
▁blood
▁beta
▁$-
▁preventing
▁réalis
▁апреля
ษ
ope
▁refriger
▁days
IDS
ifs
JSON
振
▁cha
注
▁flu
ador
чу
Access
▁PH
誤
▁Hend
▁speaking
▁Bes
▁hiding
▁Jer
▁std
区
▁phones
▁darkness
portal
넣
reation
▁Adm
▁Storm
спо
▁Iraq

keit
▁assuming
▁wides
FB
ationale
艺
){
nent
box
▁Diese
▁Stop
▁PhD
▁Pol
,,
▁flat
▁Bi
Code
▁oc
Subject
▁magaz
MESSAGE
▁Annual
👌
▁Martha
▁bounded
━
▁Mum
▁Ду
▁fights
idding
▁ce
▁wa
Simple
▁ate
los
Cookie
様
<0x35>
▁vl
▁today
▁ridiculous
¾
<0xF2>
...'
INSTANCE
dhd
▁enjoyable
ště
乌
▁universe
▁yields
кан
note
▁DB
Dig
▁Candidate
▁rou
▁anom
oids
▁==>
sbur
yal
▁drag
.__
isi
errno
▁cou
▁sched
▁сту
usta
▁teaches
▁alive
▁quit
▁Ital
det
▁Finance
ITH
▁suggesting
DEBUG
杂
▁oblig
Pay
附
shop
▁живо
$;
▁Nintendo
▁Oliver
pond
▁tex
ceil
igi
▁immigration
▁Solution
Ó
▁Medical
ҽ
▁Shir

暗
Overlay
▁ха
▁stra
▁uit
▁Wonder
onders
▁был
push
tegr
▁Legal
uis
▁km
iere
▁mascul
▁Choose
▁Independ
ми
ни
iri
▁Raj
▁convention
▁Joseph
ников
Choice
▁Br
伊
▁Besides
▁guerre
▁Sec
ché
▁encryption
ного
ablish
дна
▁vessels
▁Tem
stri
utdown
▁Shah
Desc
▁Wel
▁SY
Disk
ят
▁cook
heck
▁buttons
riven
Core
Ma
▁Seine
ention
мир
▁Ast
▁american
Associ
view
▁pir
▁Cot
勝
▁fake
▁gravity
▁Philipp
itime
▁Crusher
▁shapes
gets
断
▁hip
pend
UG
▁predecess
з
chem
au
signed
▁functioning
▁König
▁RET
pass
➤
▁uid
until
hr
▁patrol
▁than
▁blank
▁Intent
ν
adow
olute
▁girls
▁Hoch
getItem
delete
ри
<0x92>
uart
▁documentation
▁profits
ะ
扫
础
ower
▁Entity
Suppress
▁Af
▁nous
▁Current
associ
▁Celt
scrib
Comput
ika
▁ber
▁conten
思
hesis
▁tales
izar
▁Books
prints
^{
irq
Authentication
▁],
▁Assembly
monitor
▁Jack
▁Jazz
▁ordin
ї
adding
▁Rogers
▁goog
ональ
▁regions
▁panic
▁Font
▁Swiss
🔥
aly
held
TON
▁février
▁pleasant
▁Price
▁esp
▁ét
▁↘
']))
▁young
▁Vel
Surface
▁marvel
▁minim
▁univers
▁utf
CONNE
Color
oki
Session
inher
cho
▁Kath
oirs
Un
▁unsigned
▁abandon
▁smiled
Sym
built
▁Cons
apers
▁iterator
íd
Accessor
▁Churchill
上
key
▁extreme
aset
▁tremend
eres
▁Tig
▁coaches
ph
REQUEST
▁impress
▁hosts
WM
▁Про
▁toutes
嵌
▁YOU
gfx
SW
incip
积
block
ße
ня
formance
▁voy
cohol
ental
SR
▁siendo
а
▁Pain
ς
▁Want
▁located
▁anth
▁exhibit
ora
會
Req
vertex
▁pulse
‍
▁offic
("[
▁tax
large
▁interests
▁pole
avorite
▁solid
▁Response
▁уни
▁Republic
▁southern
our
oct
ṯ
▁restrictions
적
▁Back
▁_{
▁Bun
▁go
append
TRANS
▁CAN
▁Basket
▁явля
Notify
่
너
▁Output
▁Det
描
ş
▁без
lé
HttpServlet
▁Deep
엔
▁ended
▁’
户
teenth
Gl
▁Norman
ielle
两
▁pam
шли
Boolean
².
w
ounge
▁phases
▁боль
⊙
fab
aurus
ikt
akte
亲
▁dub
▁curt
▁Aur
Once
hello
▁bugs
▁phone
▁Eisen
acular
▁spun
▁Thanks
estr
iche
领
ada
ined
▁Kur
▁YO
meta
▁presidente
▁Animal
內
");
Priority
▁Beach
driven
▁Tyler
IN
▁}),
ije
гда
▁Global
获
Ex
▁remarkable
▁Wi
▁enemy
▁value
▁replace
Ł
只
Const
▁Char
pace
善
▁corner
▁faced
▁Anderson
LBL
▁actor
；
Warn
▁led
▁SV
bourg
▁Hannah
▁considers
究
Broad
▁\;
▁taxes
▁experiments
▁printed
借
ючи
▁Mag
ra
▁дей
💕
▁advised
<0xE1>
achuset
abort
▁Metal
▁capabilities
ὶ
甲
urst
egr
▁fence
чення
▁introducing
▁fishing
ival
▁gratitude
න
개
istant
▁при
ons
▁}
▁independent
▁>>
));
ल
▁File
▁nature
▁trade
▁Jud
▁room
▁ост
▁heat
▁continue
Application
▁laugh
orts
:%.*
ì
▁рі
enn
▁seventy
▁magnific
▁руко
▁all
▁wireless
▁terrible

<0x23>
isches
些
▁motion
▁sniff
▁ecc
etry
ł
rices
▁projet
▁worth
ade
scheme
ox
▁waiting
▁sh
▁notification
▁shows
▁spouse
NE
Norm
▁champ
▁/*
▁Marg
pot
回
emplate
実
▁neut
ɹ
▁happening
青
KEY
duct
剩
crement
ocr
SRC
▁game
ひ
▁desde
Added
▁rare
▁disc
▁arise
▁releases
дар
▁Все
ého
▁entry
▁|=
▁dorm
젝
▁reproduce
▁Z
▁movements
▁Nam
eta
女
▁demanding
▁reserv
FFER
Enum
▁Ven
▁diff
Sql
PP
▁remove
▁Č
▁O
Len
ropol
▁Agent
cosystem
▁lawn
ῶ
▁School
ambigu
▁announcement
▁университе
▁numerous
▁tablet
ét
sr
recht
product
ჩ
Av
县
=$(
ографи
▁Sam
▁loss
▁разви
▁functionality
ಗ
▁bi
▁statistics
▁dri
▁Bring
URL
▁older
▁~~
▁tendency
================
▁très
Details
toEqual
▁***
▁Commission
形
▁Okay
▁marine
ometric
category
🤦
kel
▁publi
慢
▁wherever
▁Ryan
}^
▁pour
oom
▁centre
▁Bachelor
▁sweet
lict
oxy
▁afterwards
▁worked
▁Ok
▁plate
电
<0xD2>
▁cheeks
▁Construction
bl
▁dv
ancouver
▁rule
▁Liz
▁shook
▁observations
PATH

pi
ular
PO
Server
Generator
edly
▁engl
fic
ющих
▁retain
VF
»
Img
IC
見
▁gegen
順
Sorry
fort
aby
mitted
pal
▁Coff
Block
GS
▁обще
comes
▁Hein
▁först
hd
uty
▁collision
id
▁silly
labels
¢
▁does
▁Di
Float
PHY
numeric
▁conced
Path
jsce
did
外
▁gets
aze
▁Cann
▁Emb
<0x2A>
▁invisible
▁allies
сы
▁Leader
름
wen
▁salv
▁Wor
▁sy
▁passengers
▁aria
CIAL
antage
nav
стри
ло
▁cater
▁refuge
▁До
ufficient
て
attach
½
Suite
▁thousands
ula
▁sore
▁treasure
▁eb
DR
tilde
▁sock
▁down
▁bre
皇
ხ
▁effectively
рито
cias
▁screens
▁sé
▁psychiat
strap
▁cheek
▁CNN
☺
▁detective
▁Du
▁directors
кта
▁über
history
▁council
▁fres
▁times
▁rif
KERNEL
ttes
▁flick
▁loose
▁din
▁outside
▁nue
tabs
erme
aper
▁affects
ха
▁affili
APP
inx
hdr
வ
▁auto
ias
One
▁Division
hes
NN
aped
Friend
>")
▁sober
▁concluded
AT
▁худож
▁Cent
만
陆
oke
▁prevention
盖
(\
arge
▁Law
▁tb
Gap
▁Cal
▁ain
Serializer
finish
▁ци
▁medieval
▁го
▁poems
ErrorCode
ро
overline
▁Section
▁Railway
**************
Cr
dated
▁hunting
▁Tot
▁dude
▁Learning
▁ули
🙂
▁shift
없
储
ussia
▁Data
预
▁?>
▁situated
快
▁corrected
users
Char
ktor
uso
ṣ
▁Населення
▁whole
acion
▁shiver
joint
aran
ascript
—
더
text
▁memor
Where
▁quot
zi
")));
▁intr
other
▁weights
ibilities
▁judg
▁Optional
oko
▁downstairs
▁porch
▁Know
▁atomic
Anchor
ekt
队
icism
▁(!
▁которые
Models
▁maker
▁Corpor
▁paths
isterschaft
準
▁V
ando
▁stopped
マ
▁chart
▁Planning
ongo
▁cod
▁residence
▁amid
plic
nabla
▁Commons
▁depos
▁två
ли
▁testimony
ボ
Views
▁eager
▁один
▁Кар
CS
▁ferm
Are
ores
▁varied
▁particul
▁COVID
AI
dale
▁laying
▁dock
▁гла
▁wolf
▁transit
▁aunt
yme
ہ
▁architect
anni
▁bacteria
▁Client
▁Houston
▁Experience
▁febru
Registry
击
🏼
ME
oud
թ
read
zy
▁bean
▁kiss
zing
▁methods
▁sib
▁Blake
▁quadr
▁Ghost
})
evin
dbc
ifts
isible
▁Argent
named
▁more
▁False
CKET
▁granted
▁Miss
.’
Whe
▁mån
▁quantum
統
▁Ist
旧
▁Als
▁invoke
flow
▁Franco
isten
▁racist
▁help
▁reduced
period
▁fascinating
Ant
জ
Miss
▁beach
▁coupling
▁Meter
▁batt
▁normally
▁seiner
▁DE
posing
▁brave
iger
*>(
▁sees
ords
wake
schaft
▁trag
生
▁anticipated
▁sadly
▁backward
▁prim
nu
್
roup
context
<0xC7>
▁Download
▁können
--------
▁locate
▁asympt
ço
▁Pe
▁princip
bres
▁Window
▁userId
▁trump
<0xBC>
zel
▁shrugged
▁catalog
▁Kon
▁Title
▁AS
total
pher
▁voce
Ε
而
ÿ
дель
▁fün
▁models
imes
▁Maybe
პ
orm
wei
▁Whit
스
▁entering
Generate
码
▁acqu
▁defense
▁sont
opens
CUR
▁esc
▁participants
ift
▁ko
▁durante
allen
▁edific
▁Christopher
▁accus
▁worship
▁Cris
}\,\
▁NASA
/{
▁listeners
utton
▁residents
Bas
▁gé
▁erhielt
ট
▁delighted
iska
ANK
监
▁datasets
○
cember
▁degrees
▁cet
▁Http
▁fellow
decor
▁Super
▁Lewis
quet
▁Last
ations
▁Just
har
tls
Focus
▁suppliers
tha
▁Pull
Box
▁fig
▁interface
Factor
▁discour
ões
▁EU
èle
▁affecting
cole
▁Maz
▁fore
餐
лександ
aling
essions
▁tum
됩
IDENT
uga
ence
―
▁END
▁Cin
faced
▁Management
▁seit
illery
angles
second
▁individ
cius
מ
ü
న
▁}
▁com
ital
▁Olymp
▁prot
▁results
▁Amaz
<0x50>
phi
▁Updated
etheless
▁restaurant
▁manus
brief
▁grave
Routing
▁Lau
▁trees
ктор
▁wool
▁(«
▁Kong
richt
▁transformed
arz
▁overview
uint
кра
▁rural
▁anci
▁ja
▁absolutely
▁changing
▁consumed
▁lavor
理
車
▁ende
Env
▁wx
l
▁neigh
▁Liga
Arm
化
▁writ
▁Minister
▁survey
zh
▁ka
зво
▁require
Mark
▁rb
▁leader
regex
aching
Di
ლ
COND
▁Bor
gers
Rob
ético
▁this
except
▁calculation
thread
was
द
é
▁бі
▁nast
▁wished
▁outputs
▁FROM
▁fallen
=
yn
▁cursor
▁Cu
▁Dad
Word
歌
▁Boolean
кон
лко
▁Api
▁murder
uese
gin
▁rating
▁liber
▁site
▁...
▁basic
▁tom
priority
히
▁sist
ply
▁gal
▁urge
MD
ium
▁dove
netje
▁erst
bean
▁Ach
▁Fail
ussian
▁obs
▁Lake
▁ing
selling
▁iPad
▁famous
▁doing
▁commerce
eper
▁degli
agnostics
ova
▁delicious
ologie
剑
▁кон
bas
SIZE
+=
▁inclined
wd
Range
Manifest
emor
full
的
▁Related
chie
▁although
▁len
▁flights
orsch
вая
▁flo
▁vest
▁ged
▁sip
▁walk
▁uncomfort
ównie
▁buffer
석
▁Linda
ℓ
ificación
▁radi
IENT
три
▁stroke
▁soft
ation
ushes
valid
▁appointed
▁epid
▁gre
oler
Great
消
河
약
▁its
ген
",
▁Muhammad
▁pets
▁nuc
inters
wald
▁GL
Title
▁residential
▁fos
▁super
<0xB3>
▁west
EN
dm
▁significant
grund
ymbol
▁W
Executor
▁CS
即
лина
▁quella
▁smoking
ља
▁få
split
istan
▁Ellen
constants
▁fueron
lon
uation
▁afternoon
icy
óm
<0x42>
Ћ
감
▁Moses
Json
▁trem
▁falls
▁trial
▁lets
ulture
量
▁Cra
ნ
▁shifted
局
ti
▁huge
agger
▁Meg
PRINT
▁sound
▁editor
maker
sterreich
▁tragedy
Properties
魏
丝
Press
ским
▁TH
resize
▁survival
▁Nik
▁Vert
Hel
iva
▁patients
omin
cock
▁pure
Cannot
icity
▁asc
пло
▁Audio
Token
Random
▁here
len
▁shoes
CONNECT
별
▁expect
▁tiem
▁agric
this
Patch
▁Mittel
ज
▁Beaut
▁designs
▁Би
M
▁tricks
iverse
ieval
стан
lector
S
▁!==
ardon
▁Peak
▁attempting
▁rings
um
<0x04>
▁{{
此
リ
mag
▁%
reason
▁@
auto
▁Generate
▁Gir
▁tool
filled
▁bubble
rub
块
▁Formula
▁Ed
▁Moore
ា
▁cuando
pic
▁trash
BAD
路
▁blog
eles
Prefix
認
ív
req
▁bail
▁vale
▁Point
▁AU
▁Our
▁West
▁Netherlands
▁novel
RETURN
normal
▁proceedings
▁ihren
▁as
▁lowest
irl
각
Tree
town
▁Kevin
iti
极
eval
▁Tensor
▁threw
검
imum
estone
scene
rist
▁great
lla
▁broader
nik
neum
records
北
▁Op
ln
ocity
▁liter
ight
agu
holders
▁drunk
터
▁alg
▁WITHOUT
ensen
桥
▁carries
viv
ฝ
▁CBS
eurs
▁MD
▁Smith
▁tag
▁köz
▁StringBuilder
▁cute
>)
FORE
▁Ira
▁Builder
▁Phone
attered
▁calories
ā
▁Eval
ago
▁wip
vc
ью
▁brain
▁ve
▁disse
险
▁polynom
▁het
ollar
surface
▁regul
él
action
encoding
Class
mos
▁political
▁па
▁prices
▁Foreign
京
▁fict
▁Arr
HOW
otted
▁tor
sg
▁commanded
於
<0x64>
avax
Play
frastr
송
ה
pcm
▁femme
▁Condition
▁raid
offset
病
▁Gro
▁kur
("\
toire
gender
ikel
HO
▁studies
git
matrix
added
Mo
▁Roc
Download
льно
‬
Bal
aughters
▁disorder
짜
▁duration
лей
▁Native
远
视
fon
ibrary
▁parc
▁prove
▁сти
final
▁▁▁▁▁▁▁▁
Can
▁layout
▁agree
▁champions
sigma
nab
该
▁Ad
▁tested
▁hence
등
旅
▁jump
▁set
▁f
Client
IE
components
Library
案
▁Incl
ExecutionContext
face
̈
oning
place
opf
implement
▁clos
▁channel
▁attacking
ég
orsz
▁Eg
▁exist
negative
▁ос
▁Move
мента
single
↑
ヤ
mixer
▁Eastern
▁equally
▁administration
▁saying
▁fois
날
Keyboard
анд
txt
hover
世
ب
ár
▁answers
▁Winter
wedge
oly
дии
▁activities
curr
▁Burg
▁trois
ル
це
▁№
elte
YN
州
▁dispute
▁Delete
▁fully
▁Mich
geme
▁damaged
▁plusieurs
▁pra
selection
▁London
死
Two
DF
ellow
ary
盘
]]
▁São
迟
▁*/
▁activ
▁Gill
▁sure
▁incidents
▁цент
ip
▁picking
▁province
▁wearing
Equals
▁auch
ULL
▁lemon
checked
cript
mat
ذ
▁compatible
▁twentieth
Submit
顯
▁Now
▁morph
ṁ
eti
▁coc
▁tech
лек
完
▁jamais
▁сбор
circle
collection
PyObject
▁arrived
ག
朝
vma
▁commut
▁pou
▁Property
wrap
▁indicating
▁вто
entieth
ющи
 
amous
▁fluctuations
ungs
Message
▁[[
ware
▁males
ificial
▁swear
▁Pred
és
js
'.$
kfree
vens
▁dragon
her
▁vál
▁Tol
ウ
ühr
▁denomin
ج
▁missing
USER
▁appet
▁submission
áb
Type
ណ
▁chest
хра
▁police
▁alternatives
▁tong
▁declar
▁kilomet
▁въ
▁är
RM
arel
method
举
aggio
Help
▁command
▁Вла
GUID
首
▁put
Many
ulin
▁Hat
▁instruments
▁updating
־
oston
roy
▁thirty
▁Diana
onio
💪
onic
托
}.
▁ground
dots
\+\_\
▁elabor
⬛
▁incon
Duration
▁Mine
raise
EventArgs
▁Ti
▁powers
cloud
rod
beta
▁Squad
ifdef
namespace
▁convicted
▁transformation
▁Puerto
▁Secret
ibles
oz
nier
fields
EO
▁composed
profit
입
▁Russian
▁grant
灯
ច
▁float
ren
▁fee
▁Dist
▁insult
▁Berg
zas
Enter
▁tutti
Xamarin
간
▁troubles
▁jako
ший
▁symptoms
▁sowie
▁foss
▁ages
▁dog
▁Pope
▁trying
▁WE
▁terrain
▁П
}}^{
▁lust
ז
trfs
active
▁cheer
Does
sembl
▁neglect
▁Type
▁окру
Filter
Show
urer
▁enhanced
raising
▁Ster
▁clk
ừ
▁separate
▁Ils
esian
▁prisoner
▁happ
▁tourist
odox
▁tell
iling
▁paid
▁knowledge
qual
reib
▁incons
▁namespace
¦
бом
▁emphasis
▁conse
pad
▁sd
▁fill
▁SI
wikipedia
▁passive
კ
▁fraction
▁Avoid
unte
NOWN
▁stove
▁eligible
footer
DEC
▁Brew
ᴀ
▁Inf
emet
▁fall
Fast
▁Felix
lineto
▁phenomenon
▁stud
Reader
▁Library
▁bef
▁niveau
▁OB
▁ад
▁F
▁maps
Ten
▁basketball
Stand
uß
노
Import
▁să
pus
rael
▁advant
▁appearances
▁Mad
Mode
▁aj
<0x28>
▁contract
▁Glen
▁reaches
▁statement
▁advise
▁best
▁Station
▁collecting
Parts
▁Francia
▁sem
lets
edo
End
테
▁Emp
ucks
)}\
Should
END
ци
▁Production
▁Philosoph
)^{
▁militar
▁custody
recv
▁seeds
alth
▁affect
▁comput
▁studying
▁visa
chio
▁observer
▁Return
DO
-----------
▁Об
łu
▁fabric
问
▁гру
▁cir
updated
тар
▁libert
▁Howard
▁áll
üd
▁Pakistan
▁hot
▁zá
▁NAT
гово
chte
filer
ⵙ
kap
▁bride
Tx
▁error
--)
▁bacter
ong
▁Jak
▁front
▁august
athers
▁resid
¯
▁Prix
▁listener
▁cached
omb
ecycle
▁hist
▁man
▁repeat
▁energ
след
g
▁Think
▁retrieve
ugg
▁necessity
Section
恢
经
AUT
▁qued
▁ster
iring
▁magnet
änd
▁fog
charge
руп
rous
kie
▁Phase
▁rectangle
tile
Year
▁breakdown
▁оп
▁light
▁Lot
psz
▁personality
▁intens
▁Integer
▁mal
呢
ID
▁gennaio
丁
▁Union
▁worst
pdf
▁types
olo
ttp
▁caught
▁volunte
connector
ENT
anced
▁eight
ку
▁underarter
▁Silver
▁secolo
▁toujours
▁spett
▁Пет
▁(
air
ának
▁Vil
▁EM
Used
__
▁cabinet
():
docs
▁reveal
future
▁Statistics
afka
amiliar
ication
clean
lez
▁continuously
irection
▁Wat
unge
ial
CPP
▁duck
alom
▁siècle
▁un
decode
▁inverse
▁Shaw
ử
陈
▁wrong
тки
▁deposit
▁Print
itably
▁Column
▁ft
unnel
▁simulation
Handler
▁Spot
Index
one
▁orange
Vector
ný
гі
▁vier
vä
ousing
▁Че
plac
▁apro
EXP
▁crack
▁bread
₹
▁step
\%
▁objects
[-

chn
kh
etzt
兴
▁kor
В
▁Biography
aves
▁febbra
.");
Verify
BD
▁If
▁ending
▁poi
▁Vietnam
▁fragments
▁request
owski
Content
▁Central
amazon
FFFF
▁rated
vano
▁appearance
塔
adém
▁sand
▁random
▁X
▁mild
Aut
▁Studio
Console
▁wholes
▁Се
Ent
жива
▁asym
VD
▁cfg
▁wrapper
Running
▁exhaust
核
背
ར
▁header
Total
thy
▁expose
્
century
▁como
▁paintings
▁drivers
▁stripped
RD
bles
▁Portugal
▁traditional
▁grey
Document
毛
FIL
▁associ
▁bomb
▁Kenn
Dom
term
试
erset
尾
esto
Im
Invoke
detail
▁Person
▁августа
银
äter
nx
ে
備
▁през
▁legs
類
▁Privacy
為
宽
ensk
~$
дон
Azure
aws
frica
▁coastal
▁of
▁Based
▁bless
subscribe
▁американ
listener
▁Census
▁Ash
▁TV
eu
▁replied
$-
ikes
▁router
▁along
▁są
啊
▁prima
iac
▁accepting
back
bol
rv
▁load
▁wishes
options
▁nelle
▁to
▁evangel
▁Dun
▁props
keiten
RIP
▁shop
▁Male
---
UAL
zed
▁artistic
▁poz
▁advertis
타
▁enh
ostał
▁ihn
Autow
LINE
▁sheets
▁befindet
Custom
fang
▁status
▁brass
Resources
▁Станов
▁trailing
rom
▁Bert
▁played
▁Bab
▁tourists
▁IL
▁behaviour
B
ucture
Integr
Level
▁Edd
這
ionale
▁quant
▁Also
augh
▁destruction
Sys
▁tack
Mir
▁approaches
▁fp
▁internacional
ニ
▁Liber
ismo
зульта
ording
▁servant
orna
▁elseif
Bool
DIO
▁achieving
▁later
Even
вания
▁keeps
▁seiz
▁stri
▁Toy
▁rit
▁Ча
fö
TagHelpers
▁underlying
write
▁predomin
ype
▁Kum
PACK
▁филь
▁genom
▁consensus
ách
▁Indiana
Off
▁lear
▁Palm
▁CON
Pan
▁saw
INS
▁nervous
▁Resources
▁guarantee
XX
scription
Extract
cri
▁unus
▁OS
▁sharply
mong
▁Lit
▁Exchange
ці
popup
▁profitable
bal
remarks
▁tät
ное
eral
▁wanted
ológ
plaatst
Functions
style
gn
‚
ву
Sw
others
zin
Comment
▁Dor
▁keen
amarin
刘
detect
▁Theorem
░
cas
fun
▁App
▁k
ocation
func
ifications
因
ois
Actor
▁interesting
由
に
pread
▁Bev
벤
ST
▁dort
').
▁interrupt
ა
▁cap
▁fields
▁fals
旋
▁Args
adesh
ne
ło
▁certain
▁wonderful
%;
Tok
◼
▁low
▁cos
▁prototype
해
將
▁analyze
▁organ
ivel
based
ryption
▁dread
▁fewer
▁Nether
▁Mountains
▁walls
▁melt
itud
▁frame
mp
▁warm
gos
▁Peters
▁mostly
ty
lette
告
UST
Vi
欢
▁traces
▁trou
erv
▁ideal
▁Bew
▁actress
▁Paris
▁returned
▁useState
▁pom
▁Prime
▁serious
▁puzzle
то
▁curiosity
descriptor
)$.
#[
▁tragic
乐
etch
▁ends
blem
bye
▁suggested
"},
▁contacts
Supp
serts
▁conclusions
True
Direction
品
▁desktop
quote
ֹ
administr
▁лю
lessly
Ș
▁notify
тами
IO
х
itudes
aupt
irect
▁proble
По
counter
zon
ön
ṛ
_[
▁pattern
Sheet
othing
▁fits
rov
Then
▁seconds
CK
▁Created
▁editorial
▁Turner
appen
sylvania
▁soldiers
aign
▁Hospital
ivid
▁bed
▁inspection
right
▁<?
▁Turn
網
▁deeply
cted
▁withdraw
▁Cub
▁loyalty
ficie
chat
Very
▁Obviously
请
itted
▁ради
res
▁ext
▁Broad
▁caso
build
▁scoring
သ
BT
BITS
▁erste
▁schol
Modifier
▁DCHECK
angu
DEVICE
ienia
Մ
ijd
▁membre
enschapp
ense
▁Travel
▁character
▁роз
children
都
must
нва
ories
栈
▁Casino
▁Channel
▁$(\
▁conflicts
▁whisper
urg
▁mx
man
▁Defense
▁perception
<0x77>
▁variance
▁struct
▁simpl
▁mart
▁compliment
lev
▁chains
<0xD7>
▁beam
proc
^^^^
▁lo
适
简
▁planned
段
mn
indices
▁Mult
ň
language
Append
▁по
▁onChange
Sort
▁janvier
▁conservation
Py
▁scenario
▁beneficial
▁biologie
▁into
▁consumers
Bet
▁recovery
CONST
안
▁for
▁од
▁Rich
Called
▁sulla
▁upward
oney
▁dig
isto
([
▁Paper
▁plane
▁surpr
\">
况
ศ
▁aren
lean
▁sne
warz
ô
Format
leave
ological
▁staring
кола
▁making
▁prime
olds
▁fact
Start
▁indent
▁letters
available
▁foram
шки
虑
.^{[
▁append
▁ele
▁Pos
▁Saf
ych
▁state
Site
▁weigh
▁Bruce
😛
!*
▁mistakes
utsch
仍
▁##
▁res
▁phase
Required
amy
▁({
ichtet
▁Arist
цю
Visual
WEBPACK
御
▁Ca
upiter
DAI
▁divorce
▁subset
iker
▁share
▁neural
rin
▁Daily
▁Cy
izers
pect
▁Stewart
▁recent
▁werd
▁dispos
sq
▁ді
сон
▁Spanish
hour
▁nr
▁discrimination
▁subur
itr
▁collected
Bi
样
▁Ко
▁Qu
▁SF
BR
Extension
BO
▁experiencing
▁extends
▁RAM
нием
cases
▁accessories
▁ste
▁thats
Completed
▁triangle
Just
▁musicians
▁Ukrain
☽
ran
стратив
мор
uerto
\":
▁vm
▁expert
나
▁nonsense
▁creating
▁primo
inary
ई
♦
▁looks
preventDefault
ĕ
己
⁣
▁Source
▁poorly
▁Manhattan
▁Ki
▁Анд
Sig
acters
╗
▁ships
▁Gulf
Utility
Az
태
esa
▁Neder
▁pd
▁coordinates
rezent
points
▁patch
'}
▁governments
jon
▁Vik
▁Amanda
<0x32>
▁Harper
adt
▁Her
▁taken
xF
▁choosing
▁wp
▁ensure
esh
Fetch
ję
▁serving
▁Ob
Factory
Ext
Low
▁ladder
操
leton
▁Two
父
▁fears
▁gek
▁Sr
anno
▁black
ье
▁\(
▁equilibrium
>:]<
湖
▁Да
pathy
▁ми
dao
▁så
华
oid
cou
▁scent
Music
vers
▁dise
▁Rock
▁música
ame
UNK
unächst
builtin
ogg
Sizes
▁Easy
▁Queen
▁Answer
velop
Top
▁Maurice
▁Bang
standard
카
▁spat
▁looked
▁Island
▁SOFTWARE
ultan
▁vendor
▁nombre
▁ordinary
flat
▁funded
▁partition
emark
ceptions
▁Germany
▁Á
isine
▁agriculture
▁Д
isa
▁Hash
Rank
▁Pers
▁holy
рон
▁Heritage
ivi
▁breath
▁Jackson
配
ए
▁tight
blank
arium
sters
▁folks
장
▁http
▁Vari
ː
放
att
▁instruction
Clean
▁accompany
▁now
▁cred
/'
FilePath
▁département
sWith
then
▁bankrupt
▁Ukr
Strings
▁sad
over
inate
жду
▁Belg
▁participate
如
▁prze
▁imagin
▁них
▁afterward
▁around
lm
very
ibraries
ე
<0x9C>
▁},
oriented
▁stamp
ři
压
liferay
▁remained
Testing
CLIENT
input
▁applic
▁Sky
▁centers
で
▁Чер
Such
constraint
ctxt
▁коло

▁gol
bourne
^{-
▁explode
require
alert
ZZ
rait
▁atm
sel
▁Klein
Mu
▁surprised
▁Isaac
▁precip
▁bears
Asp
▁grinding
▁Peter
спе
Eval
azi
Completion
▁*
▁myster
할
▁reserved
브
ских
﻿
▁covered
▁Phot
ica
▁wood
FT
▁trouble
jango
▁maj
NL
▁highway
comed
lr
▁!(
mysql
▁visitors
▁question
oon
▁орга
▁Bon
▁seriously
voir
xx
present
'):
\{
Sy
▁CH
▁consistency
Select
▁portrait
Dan
▁NOTE
调
ennial
Aff
▁SORT
WI
▁logo
▁Fellow
經
▁пре
▁muscles
▁altered
▁comes
▁райо
磁
getElementById
▁TYPE
band
gc
▁Radio
▁radical
ategy
.",
▁Charlie
▁penal
▁monde
add
ogram
▁investors
othy
戳
▁resigned
kehr
▁traffic
ma
Single
FS
ée
▁FITNESS
▁septiembre
▁Coast
▁bul
fa
▁director
▁Render
▁Gun
▁PAGE
▁fus
mapsto
▁correctly
draw
▁Initial
eden
rought
ctrine
▁XVI
▁Nicol
-->
umin
UD
Validator
▁Exp
▁contributed
ться
*/
ској
naments
▁knife
▁blocked
▁Individ
▁Heavy
Br
ници
port
RC
▁strategy
▁tomb
▁span
▁Indust
▁meters
▁transc
▁hurt
▁exped
ated
izen
▁Chain
\",
▁glo
▁MA
TEXT
umeric
▁▁▁▁▁▁▁▁▁▁▁▁▁
cia
ureau
▁rais
spir
▁ancient
▁Liverpool
court
▁plant
▁pela
尼
removed
še
▁Stone
ток
▁Buc
동
▁replacing
Fn
▁Issue
▁inev
steller
▁obsc
▁Stat
▁Med
zk
Mesh
<0x45>
▁rubbed
▁Lud
▁Node
▁bzw
▁arbitr
▁primarily
fg
▁Configuration
▁licenses
▁sensitivity
:'
feature
▁hypothesis
▁Append
Servlet
▁SHA
▁jud
iro
▁Ц
oured
▁Tes
С
elen
▁Ka
▁Zealand
})$,
Settings
▁because
▁hers
▁applying
<0x0D>
▁Instance
毫
▁guidance
asted
▁graphic
▁urban
Debugger
▁tand
▁suspended
cules
örd
Bon
CO
EX
▁MS
ће
jpg
▁Similar
.[
▁pretend
移
速
※
▁Tok
▁ek
▁kin
▁attacked
▁который
▁figures
▁Steven
={()
ienst
Omega
且
ட
▁scatter
▁hammer
men
▁surface
▁zones
▁protest
è
ologies
sequ
▁regener
▁shocked
轴
ort
▁registration
▁How
ifr
attan
Graphics
▁Array
ushing
▁Ф
auté
▁сель
ków
▁CRC
▁Richard
▁hooks
▁Hij
ently
▁seem
▁app
▁strict
▁per
таль
▁sacred
▁před
▁legally
▁Visual
▁mandatory
.');
SYSTEM
▁Turk
romag
сько
▁INCLUDING
fs
라
Program
▁screamed
▁argue
▁seas
出
▁Factory
REAM
▁equip
▁Dal
▁msm
▁viewed
aver
ás
▁dp
prob
▁stumbled
ând
▁MI
index
Dam
++){
射
▁pile
▁Lie
aret
♭
シ
▁doll
▁pul
pons
ENS
▁lease
▁accepted
Request
sa
▁».
▁pandemic
▁spont
quare
예
Endpoint
Activ
GPL
▁pizza
PUT
Ignore
▁sap
ἔ
venue
ется
▁Caption
pping
▁patient
▁deleted
▁listing
cedes
▁second
arna
▁Rog
shit
▁On
lt
▁тре
བ
nr
▁border
▁idea
本
▁onClick
▁earned
PU
▁assigned
ogle
▁Cat
る
rup
velt
(()
apps
keyword
esota
Blo
▁Service
▁invested
▁"../../
Score
▁Moz
▁ano
tg
PB
▁Brow
▁crushed
gather
Creation
..
tra
‌
▁original
▁–
等
zek
onymous
▁Iz
+\
▁contr
▁bien
▁native
正
▁implements
▁chat
IS
fail
member
▁headers
amment
▁digest
tainment
star
▁Yan
▁Heinrich
▁hon
Source
▁Films
Plugin
ು
}
Scope
Standard
▁Sim
▁comprend
▁simply
▁kills
ys
처
▁laptop
桃
threshold
Ч
reg
▁custom
▁fe
bia
▁Driver
▁tek
▁studio
▁du
▁deployed
美
Inject
ashi
サ
asket
▁Hampshire
▁an
bell
join
▁flavor
▁wondered
TY
structure
▁compassion
▁women
ública
▁Cav
▁charm
山
▁elementary
ative
▁anti
▁plasma
▁contributing
▁parent
▁souls
kan
iza
过
▁spell
▁отри
▁klikken
▁divided
<0x55>
▁Eq
(|
▁Alan
▁starts
▁vanished
anska
▁narrow
thlet
iforn
▁Work
▁largely
▁lip
Previous
▁needed
people
Pro
LET
ARY
▁зна
ople
▁una
SIGN
She
can
▁Broadway
though
▁*)
▁dan
▁Say
Formatter
fb
▁shy
ition
мо
йо
▁Gy
▁img
▁fixture
iveau
Progress
▁relations
Zone
▁threat
rons
annte
▁snap
memset
▁Party
▁dur
▁behave
学
▁registr
fy
ib
▁Rain
тин
▁extraordinary
цы
▁vertex
Container
ɲ
▁employed
IGH
▁cancelled
▁Cyr
geometry
ické
▁applied
HL
DataSource
▁Antonio
mor
asters
参
▁Jahrhund
▁approximate
▁Abd
▁Paul
<0x72>
Def
▁bottom
▁nodded
▁Ministry
ば
lying
fm
▁debris
done
obby
▁Islands
▁strange
With
position
ним
▁truly
▁econom
▁role
▁Musik
borough
rivate
Set
▁Every
▁linear
phase
roduction
Nav
▁implicit
лта
▁Header
▁сп
elli
▁kr
optional
ěl
<0x93>
register
▁strongly
/\
iler
mr
equiv
xB
▁posting
▁nob
▁arrangements
▁financing
Sec
▁minority
▁chang
▁fle
iek
uchar
anc
▁supports
mouse
iller
tp
▁sensitive
落
▁Ma
▁visiting
▁entert
▁git
ić
tip
▁Question
ญ
耗
company
▁weeks
▁sys
ześ
料
ining
▁races
ними
xFE
序
▁stab
▁denoted
VIDEO
運
*.
๏
▁Baby
roups
GBT
search
▁Null
▁unfortunately
ant
▁exactly
diff
▁disk
▁imported
▁Date
▁raz
stroke
▁Украї
▁tropical
OPER
▁specialists
▁Web
IT
▁Bill
lish
bild
▁TO
agra
вых
Device
▁\]
▁Germans
▁awesome

ulative
▁threatening
▁бу
\_
▁presentation
▁col
▁horn
black
▁Reset
ependant
SU
t
ו
acions
▁partner
▁shops
▁boyfriend
▁mole
TCP
▁hunt
▁дан
ḥ
▁ongoing
频
oya
<0x9A>
chair
▁Crown
印
▁April
▁IS
▁или
▁analysis
rible
▁cooked
▁Colomb
览
យ
<0x6A>
▁Tor
▁database
("/
▁Sou
fect
▁över
rp
speed
Jan
▁previously
▁rc
nesday
▁accidents
▁Ron
▁questioned
andid
mond
^+
ifting
▁det
▁schema
▁measured
sk
▁Ruth
▁°
лю
壁
▁XML
▁tradition
▁disable
션
▁described
park
struct
BS
▁writing
<0xF0>
TL
nas
gnu
▁PHP
岩
Razor
▁Jahr
URE
KEN
▁Andrew
rizona
zo
▁rob
►
Person
empor
심
▁bar
▁dropping
▁worlds
▁classic
▁quelques
▁Restaur
▁bicy
▁elbow
▁march
DE
ites
={
▁invented
▁Questions
ieb
bet
SUCCESS
▁categor
▁Airport
elle
syn
▁complexity
ö
norm
СР
yman
andidate
shots
▁affordable
VERY
枚
▁ker
дя
емы
Ray
▁More
▁cent
fol
catch
ijn
TIM
▁colonial
▁strain
ỹ
')
CHANNEL
ach
▁letter
pte
▁cousin
▁Air
洞
▁pronounced
[:,
▁bike
aters
▁positions
PE
▁administrative
▁earliest
は
Operand
▁Gand
▁Length
▁gas
▁we
▁Spect
▁instrumental
▁surfaces
light
弃
▁sever
▁région
Tab
▁thinks
matic
hib
▁thick
ENTRY
▁когда
▁quasi
resp
▁examine
scribe
▁intern
acts
limp
叫
▁compare
▁deutschen
oplus
▁sotto
dir
▁managers
▁growth
▁pe
ACHE
▁horm
Mask
по
ighth
imet
ال
DS
seg
▁videos
Claim
ailed
tests
▁sug
▁Stanley
▁ку
▁galax
ára
Ρ
того
券
▁AD
eless
Red
티
unning
▁Romans
▁peer
itate
lig
▁gap
▁вой
▁pipeline
▁clubs
▁cr
▁infinite
prototype
▁evaluate
::~
▁operator
坐
<0x8B>
周
摩
▁III
▁Ari
▁Hel
▁supporting
ualmente
▁USE
▁philosophy
CACHE
ipa
▁NV
ното
른
Popup
Fe
▁Dob
gorithms
Bill
hest
LETE
ˆ
ните
depth
▁за
议
moz
ebug
▁render
▁dynamic
▁Earl
▁domestic
▁Dear
Username
ened
Kernel
权
च
ordered
▁drugs
room
rated
▁Hamiltonian
▁enterprise
▁unlike
授
RV
▁saves
▁sustainable
▁living
asing
▁Wikipedia
▁mental
▁train
▁mb
▁entrepreneur
▁coming
▁covers
▁vacc
▁kids
va
писа
Browser
inas
Tele
predict
▁apost
▁ten
▁А
▁Internal
igue
endif
Imp
▁UN
arr
pires
anca
asis
_->
▁cyber
ய
▁beauty
<0x21>
▁date
▁Kamp
Gen
anqu
)$-
▁профе
MT
iper
▁personas
eed
abl
HT
▁symmet
▁entr
▁Import
eward
ண
▁lift
}[
ู
rect
▁bullshit
})}
▁skip
▁camp
▁podcast
outh
ound
unate
ék
η
nergy
▁Baker
ology
▁TF
aqu
profile
pawn
ace
omitempty
長
▁anxious
begin
▁compile
渡
ENV
▁transaction
▁Бо
вя
wer
▁destroy
isy
umerate
nim
▁mid
第
кро
wl
▁key
▁Bureau
▁Bh
Branch
▁hanging
▁invasion
ジ
▁imports
▁Sn
▁Equip
▁sauce
▁Meeting
▁energet
错
▁thoughts
▁electron
тів
:{
▁popularity
▁warnings
chr
ם
umble
lace
parser
▁animals
😩
has
oret
▁abuse
▁через
▁Talk
▁championship
oba
Table
finite
pat
▁Tre
▁faint
市
难
▁gender
elseif
original
▁particularly
▁cette
▁scattered
ර
<0x56>
kg
▁Villa
PD
▁valor
èmes
▁flight
▁AWS
▁ISO
फ
ov
Ch
▁die
▁perhaps
▁рай
uber
▁Luc
▁pří
Deleted
条
ד
}'
ремен
深
rency
索
▁Edwards
olut
▁álbum
▁Ü
rcu
▁closed
not
author
})$
▁Industry
▁incent
▁Gebiet
▁met
Depend
▁Group
▁explaining
viously
▁altogether
intern
gie
म
ң
мб
▁assertTrue
▁ru
▁AUT
To
Props
am
▁auf
lers
▁mapped
▁anyone
OutputStream
▁Chrome
▁SR
▁bedroom
wand
('
▁Rand
顶
DN
▁осо
▁asleep
ei
mare
insky
符
उ
▁unused
▁desires
за
encias
문
▁Util
="${
▁sculpt
▁understood
typename
▁prep
just
▁unlikely
▁printer
<0x53>
▁Bren
▁Чи
▁cares
AR
ived
▁II
ura
川
="+
▁four
Current
▁Tro
▁fashion
cdots
̇
▁salary
▁kill
垂
abama
Player
LES
unched
▁governed
са
Thanks
orough
▁Wh
isle
▁pecul
aza
▁mill
▁lake
▁Anc
ICT
능
acyj
▁sigu
▁votes
▁marry
Collect
▁Apache
▁Federal
▁Auch
▁время
Some
rd
ASE
▁trips
喜
Unlock
▁Mode
RX
memcpy
▁Health
▁lane
▁(!$
▁bureau
caption
▁numerical
reen
▁fra
stats
▁Pierre
▁Referee
linear
вета
▁Universidad
pw
▁yesterday
▁installed
uration
▁arrangement
Fun
cluded
ǀ
▁eller
▁sold
▁Right
订
cí
entry
員
▁Ч
är
▁scientific
<0xAB>
lick
▁calls
▁goto
▁addressing
o
▁ange
Ц
;;
▁order
▁fulfill
▁Sebastian
▁scrap
erra
<0x4C>
▁celle
แ
processor
extension
bss
▁BS
év
}\,
bed
▁back
ุ
▁mother
sort
isEmpty
贴
stru
▁opp
▁variety
▁Nothing
▁past
texture
▁jokes
▁Cel
йн
渲
AST
▁Pel
▁dash
▁strlen
▁varying
▁Aber
gui
Fragment
STREAM
▁bearing
▁Aires
▁Yet
▁Studies
▁які
habil
åg
ɪ
遗
結
▁Liv
nen
uerte
);
▁br
▁anyway
Depth
格
event
Unknown
hö
▁soit
ssl
<0x47>
erman
dimensional
▁Hey
spring
success
runtime
维
construct
ebook
▁identify
▁hard
ained
▁requ
UN
├
▁ran
▁drawn
vider
wt
/**
▁&=
▁dust
▁Nob
Context
▁named
▁oh
▁VER
策
▁persu
▁Abb
▁cracked
χ
▁factors
▁Gallery
phys
▁Gu
▁America
tid
OPEN
▁ép
вана
BUILD
▁Economic
▁pil
▁borrow
eries
▁toss
EOF
▁Polit
▁continually
▁needing
\\
none
Ú
▁chunks
ride
▁series
▁rt
▁acquis
û
<0x13>
▁AC
PH
TAG
▁ip
кла
▁probe
riterion
▁моло
matches
▁re
▁Pf
▁island
▁mo
▁maintenance
govern
▁portfolio
ʾ
▁Baron
CD
▁level
▁coupled
▁przez
rien
Alt
filename
▁diab
▁року
timer
▁belief
▁previous
рії
▁one
UA
▁MON
Received
Pol
▁Weight
<0x8D>
▁поль
▁Publish
loyd
▁ли
uns
▁Intel
align
▁processed
▁Heaven
ʻ
▁Nak
▁banking
find
▁ultra
и
̯
▁Television
istes
▁ranking
▁sitting
▁fmt
="../../
🟡
▁aff
▁let
What
Iterator
fortun
igration
▁warned
▁maar
▁Massachusetts
▁plus
isecond
▁Bul
▁${
igate
▁Dol
ATURE
ität
unn
Hen
▁Match
pha
Enc
▁Yale
anden
▁invoked
writer
picker
▁Daddy
▁donc
▁most
▁surveys
十
▁stret
oping
Children
▁SPI
утбо
▁players
vote
▁prints
she
▁pump
▁squ
Would
▁predicted
▁reli
▁PROVID
▁Ind
▁(-
UnityEngine
ii
▁sol
▁secure
頭
uter
nico
gomery
ensch
▁Sales
두
▁gibt
<0x3C>
የ
üt
def
▁lors
▁assumptions
ков
▁HO
▁loader
Helpers
▁Clin
▁hang
Writ
Screen
▁MAC
aki
▁bol
త
▁seu
ustom
▁zo
▁während
▁Titel
▁cancellation
zerw
tcp
settings
ǎ
▁tension
▁perd
▁reactions
▁resent
uto
▁Wayne
▁exposed
probe
▁viagra
LAY
▁fought
éral
ícul
▁relatively
▁Slov
▁legacy
▁decid
▁Emer
▁parliament
▁bool
▁hace
▁incor
▁sung
▁histor
scr
Take
alt
▁regulatory
igger
白
."]
▁vote
руд
ヘ
▁Score
Price
☃
Call
<0x20>
▁Book
oux
tik
icios
ı
环
轩
uch
▁nicely
▁crazy
xtures
liament
**:
ove
▁HR
!!!
返
王
slice
▁evolution
ieux
LOB
▁church
CONF
奈
▁Interior
▁world
▁rounds
bund
【
▁Kaz
丢
当
▁Luck
▁flash
▁&
<0xBE>
handler
▁Eld
ado
ock
▁publicly
pix
删
매
▁tiempo
World
át
units
▁district
▁astronom
▁overhead
graded
циона
teen
▁frightened
▁Harbor
▁Dur
▁wand
▁Mask
Cache
😏
▁película
actor
aur
azioni
▁appar
▁giving
▁durable
▁been
ptember
ientos
ced
▁kind
pton
▁unter
▁largest
MIN
▁Grab
▁Ill
▁Os
▁drums
ała
▁evac
▁holder
getContext
bi
▁prefer
▁leg
<0xA6>
▁chose
값
ancial
▁да
▁flush
▁meth
inton
<0x90>
▁→
▁право
AME
▁Исто
▁Nu
SEE
▁stores
处
▁Baltimore
zb
uf
▁embargo
%)
basic
▁showed
్
▁ca
emon
▁wealth
serv
刪
<0x99>
oire
minister
▁Пра
FileName
▁neu
▁village
▁brit
▁different
sol
=_
▁electro
▁Seit
ран
▁strings
值
ished
igung
位
where
xml
▁promoted
▁possibility
▁armed
encial
ros
Holder
vir
MA
orte
<0xC6>
<0x61>
iami
ält
▁principal
mode
WD
ld
ydro
oming
嘉
光
版
▁Tur
▁posto
▁von
▁**(
MON
▁profiles
▁financial
assembly
▁roll
▁suspect
▁Royal
▁destin
▁natural
拒
▁colleagues
▁nerves
ва
▁Rep
▁È
▁sometimes
▁Tree
▁invite
▁speaks
LP
obre
▁traits
▁apt
▁må
▁FIFA
рі
▁Terry
▁K
▁fu
▁excluded
▁Are
▁environ
oked
']
▁gouver
▁vet
▁$_
▁Juan
▁socks
Picker
Assignment
mi
Lookup
▁rhs
Place
START
▁Joel
war
▁prevent
apan
▁ruin
Tell
▁lit
orry

cs
GF
MB
▁Sin
Compiler
▁surviving
only
uba
äck
接
▁straight
▁fen
眼
手
$).
グ
▁rend
▁useful
chs
▁seek
概
▁Cut
▁Pent
▁en
▁Rem
oint
des
▁unsafe
ค
▁Pictures
▁geometric
vr
ξ
atically
▁availability
▁balanced
治
ссо
onel
MAG
ahren
▁être
род
Match
▁toes
▁occupied
▁defaults
▁Veter
▁features
enti
▁expressed
▁últ
outing
▁homosexual
CURRENT
▁lect
 
appa
▁grand
ulle
▁då
▁Bright
▁Kunst
▁Ont
ỉ
▁location
Codec
▁коли
▁mentre
zer
▁Walk
irical
rifice
issa
▁Jama
▁noviembre
eness
▁citiz
▁capacity
Μ
▁conve
бі
▁penalty
same
▁Clay
";
▁Big
承
Rec
▁Rug
Exception
▁thanks
inger
▁Х
▁consists
équ
▁Wright
検
▁often
Need
藤
▁Walt
cpu
▁Tob
디
▁Tool
▁Eight
TI
▁HT
ED
▁argc
bread
====
▁recib
▁anos
▁face
▁partial
ha
high
Ω
▁outlined
iaz
▁Building
▁Eve
Assembly
▁indicated
▁$\{
цен
WL
途
▁boards
▁questions
▁sal
Emit
ril
▁communes
Separator
▁Nice
크
▁Sy
▁gang
▁Brand
Conn
ierra
得
▁hal
▁prepar
boot
离
asse
neath
▁sounded
Pat
▁refused
ׁ
▁acknowledge
SQL
%%
▁equality
▁Before
▁aument
apore
覆
Byte
▁demands
olutely
▁farms
channel
▁ast
▁feeding
▁Lex
ט
Sm
Health
taient
PCI
▁tenant
▁Å
▁graphics
DOT
▁Sal
摄
elihood
наль
olent
ɡ
▁Services
き
izing
▁ink
mund
folio
▁sway
pose
SEC
▁zaw
▁full
▁чер
亚
▁meetings
bootstrap
medium
心
је
▁cold
百
▁showing
▁loans
▁balcon
▁minor
_+
cov
▁Bernie
kem
comments
Mvc
onym
▁versch
滤
▁Scre
▁shiny
▁"*
rangle
ゴ
yrics
Interval
asm
▁cave
ַ
STATE
▁probability
kb
▁'</
▁Budapest
istr
abilities
Too
vf
▁difference
ţ
▁runtime
notification
▁questioning
rer
▁founding
▁piece
acle
▁humanity
operations
▁Sets
Λ
widget
▁vida
base
ná
commands
套
fan
▁agricultural
';
ក
iot
▁territor
ious
shadow
▁it
▁curriculum
▁DNA
***
▁simplicity
▁clearly
esi
,*
Ne
▁distinguish
Mer
▁viewing
they
▁shoot
▁Info
arily
▁definitions
enza
▁shouldn
▁hotels
ipper
APTER
work
▁elem
nail
ũ
achment
▁See
anted
▁ocean
dtype
+-
▁Liver
▁Lew
patch
DEF
Gener
OK
ART
▁При
:
compile
rä
▁exceptions
Lambda
▁ax
zn
▁коми
Ge
▁component
▁improved
▁hits
THOD
▁comerc
Condition
▁extract
ペ
遠
▁från
▁italiano
▁(_
▁Com
▁Ни
▁especially
ência
▁surely
Arr
▁think
rift
件
ну
⚠
▁moved
▁groups
▁coun
bin
▁dressing
itect
sterdam
▁wake
им
▁experienced
',
▁background
leaf
unts

▁dro
▁première
▁Cop
▁Water
▁decades
▁resting
unc
▁nas
▁sticking
▁dump
esty
▁населения
▁Deal
▁resp
💰
▁heav
▁elev
capacity
Inst
▁Nel
ea
thrift
('#
▁sizes
▁ost
완
");
房
ployee
▁kon
iliation
ken
▁cow
散
Linq
▁Miami
酒
son
regation
▁Fish
image
▁Mam
▁Though
className
▁ven
▁audiences
▁lid
▁gown
▁sectors
isz
외
▁Low
ată
▁speaker
▁luxury
eing
▁presence
<0x3E>
<0xDE>
▁productivity
▁а
▁arbitrary
▁delight
worker
め
.$
ŋ
▁thing
▁questa
▁barrier
Valid
度

份
찾
▁Zeit
▁none
▁amateur
ạ
▁smile
тали
ὐ
▁favourite
▁Dog
>(
▁Bal
lands
BER
cert
ē
▁thy
▁XX
▁Program
Observer
▁styles
兵
ilis
니
▁ic
▁dismissed
ith
র
messages
园
▁diese
▁guerra
▁Assistant
eria
▁VI
bbra
▁accompanying
hom
▁Parent
▁fair
▁muttered
UID
Pos
▁че
É
▁layer
Cent
ded
▁Perry
essed
▁Probably
▁Children
▁mét
Ms
▁olymp
▁hur
▁spare
ions
▁Zel
нок
▁Васи
validation
▁temps
▁Warner
cod
高
▁explains
º
ds
▁decomposition
stellung
▁New
jquery
▁Bog
hal
їв
▁Remove
▁Mey
▁relativ
▁Hillary
ře
hba
lings
▁junto
▁Syn
▁min
▁Jam
▁Colorado
ribu
answer
▁juni
▁symbol
▁Altern
Safe
▁Hu
▁engines
ACH
рая
née
워
History
片
唐
邀
ре
ceed
CAM
rian
zem
▁Kön
iejsc
▁threshold
vey
ribe
elt
мі
▁Light
freq
more
lint
▁Luther
.'
Dr
共
▁Catal
()->
OG
▁Joy
lichen
▁Bart
▁Res
verse
▁emerge
▁Earth
ain
AP
▁mainly
нин
clude
▁obligation
▁ins
▁Bast
Multi
ashes
▁Erik
▁combining
▁compan
ambers
ста
licht
criptors
▁thorough
▁Caroline
email
▁Reddit
aging
nership
ifying
▁use
NF
▁Mé
ropri
Icon
▁h
▁flag
▁involvement
▁stain
Val
▁statistical
▁november
werp
后
▁éc
✓
rides
level
unct
ynamics
▁History
encoded
▁lazy
▁gemeente
錄
▁fais
▁Bra
coin
Հ
▁Seg
▁Stock
дин
▁privile
▁iOS
ц
▁typeof
API
̣
iego
▁Gian
▁Hence
('/
ashing
▁Detect
etric
owany
さ
▁grateful
▁Fox
▁authorities
▁bolt
ugno
径
artment
gel
▁ske
▁wrapped
IGHT
github
▁ones
/**
▁bundle
▁ло
▁Eu
▁priest
f
ď
▁título
좌
▁Att
▁academ
▁wis
comp
▁roughly
▁stabil
gmail
▁Way
▁directed
ḩ
▁conflict
▁She
▁assert
▁Act
▁sche
▁comprom
▁KIND
infl
▁febr
▁está
▁config
逆
▁revenue
empty
ublice
▁tasks
////////////////
▁contributor
ang
▁exchange
▁Bod
▁gun
▁prospect
▁Cl
ogene
▁book
▁nearest
▁Motor
Tor
▁approaching
▁Evans
花
▁fees
▁Shakespeare
▁otra
▁compris
icating

▁escort
▁house
^\
▁trained
▁anche
▁recognised
Б
▁Miles
▁faces
lyph
▁agrees
▁полу
▁ao
ull
▁facial
▁Viv
▁Les
printf
wright
▁dress
<0x1D>
ahan
fix
middle
status
б
ipart
▁bunk
▁x
▁Press
▁Robin
▁negoti
▁Kill
▁NBC
▁bones
ซ
弟
▁prom
sets
▁ade
have
atched
▁zip
iy
▁Ther
ready
▁fin
▁фа
ArrayList
■
sect
▁Dav
asi
j
kow
keeping
ject
ammed
plicit
Make
▁/***/
чки
座
riage
▁purpose
▁Int
▁gall
ą
▁exhibition
▁abc
ree
▁DMA
▁lasting
frame
pes
kil
￼
вър
▁In
Ñ
▁chosen
toolbar
▁були
'),
駅
▁або
▁alter
omes
▁Mar
ynom
▁carriage
▁weitere
換
ське
▁From
▁timing
agog
▁Hills
aland
モ
软
▁FUN
▁Dan
▁suscept
so
WORK
▁ul
▁railway
▁ä
season
ixels
Cont
alling
▁тран
▁gained
▁miem
▁window
High
▁Further
▁modification
▁memorable
▁uso
Series
oned
▁Pav
aude
▁main
▁Send
`
▁sink
▁confused
▁agencies
WIN
▁ers
ronic
orio
▁laund
▁solve
between
▁regime
-,
▁forests
▁international
ahu
▁function
)-
ât
ressed
ching
rier
nick
conn
ಾ
式
▁casino
aal
Os
La
Dict
▁lock
uilder
▁Serv
▁promoting
▁newsp
▁predictions
▁generated
bud
asz
؟
▁située
iasm
须
gu
▁dynam
Η
▁Again
▁a
lement
зон
framework
vier
▁était
Environment
▁Changes
▁cous
from
▁"${
▁hadn
chant
▁Pal
ese
oard
typeof
▁shorter
conde
⠀
ought
▁Rodr
▁abril
▁*,
▁threats
▁pray
互
▁punk
<0x34>
▁ritual
rite
ni
лий
hci
▁къ
▁налази
▁Early
▁citizen
▁Ž
xture
nov
▁patent
сия
ст
xf
Elem
dig
▁$
ются
▁touchdown
▁obtain
ries
▁ordered
▁XI
✨
▁Leon
ML
ocial
abel
▁respons
▁tur
anta
▁options
ashboard
▁matters
▁Cameron
<0x60>
scale
▁ignor
▁Campbell
▁imprison
支
Si
numer
idence
▁redd
xxx
GE
▁Reading
fc
▁template
▁Senator
ulated
argc
ises
icl
▁AB
getProperty
▁precise
▁hub
▁being
▁истори
othes
▁eggs
▁сем
千
▁pok
UNIT
▁Dick
▁care
▁Muslim
▁lovers
▁Bahn
削
yes
▁Nov
▁superior
區
▁balance
▁"../
▁Ми
ist
▁Gust
▁Tips

ichte
총
▁fire
▁Wil
▁Hockey
fer
agh
respect
窗
▁isset
▁creativity
▁neuro
▁staat
using
▁Prec
▁literature
▁Dead
帖
▁rode
▁formed
▁show
rq
▁diesem
▁Total
ipp
Commit
▁scal
}-
gow
GA
imb
▁Ра
▁nau
▁sensible
aph
ertain
▁музы
phrase
▁cheese
友
社
ち
処
▁lack
hythm
msg
HECK
▁entitled
▁tel
zm
▁деятель
▁blow
generate
ි
園
URCE
▁Iv
▁Sub
Book
▁sing
Equ
▁wooden
▁font
np
▁süd
圈
▁Nobody
▁employees
categories
wn
雨
▁java
▁op
▁memcpy
sd
attachment
halten
<0xF4>
enez
▁resistance
▁peers
▁Bulgar
([]
기
ISO
▁conserv
lesh
py
▁press
▁desperately
ání
Battle
▁Cath
▁kann
▁fancy
▁sc
hash
▁ng
▁next
]/
production
ុ
▁Prom
we
CONFIG
▁Package
service
.]
▁wiped
▁Popular
▁série
Connect
rim
▁invån
bolds
ices
▁Spain
▁discret
少
rs
row
▁visit
▁beer
▁gift
CESS
tail
▁chin
▁ref
asy
abi
▁période
closure
ს
く
皮
▁discovery
dap
▁practically
▁known
▁statist
▁Boot
▁Exception
▁Groß
▁wheels
▁actions
▁Oct
▁inflation
▁EV
нове
▁Dum
ķ
connection
ʼ
pattern
TION
borne
▁consequ
▁satell
ց
world
▁routine
▁Tag
geq
urable
▁Jose
▁Saint
Channel
▁merged
세
▁ASSERT
)/
netic
▁Advanced
_{\
tools
DAY
▁fifteen
endance
IM
дей
▁Sean
▁households
▁town
reated
Loader
▁equ
▁cared
▁discussed
▁hiring
gio
мати
▁nl
ODO
▁footage
~~
Fat
CRE
▁apple
▁др
▁preferences
▁droit
anco
▁matching
▁restoration
cel
▁singing
▁"{
▁station
▁";
育
汉
▁proposal
▁Ah
▁Mand
pectives
inely
Get
▁murmured
▁Eug
ider
▁Fin
azione
▁год
▁slept
ड
府
▁Company
gh
▁mehr
arden
idents
}=\
été
об
interrupt
▁españ
step
▁removal
rol
Exists
▁tö
▁Sale
istration
ной
onom
▁Medal
pathetic
ructions
▁IMP
nodes
최
ღ
Destroy
fection
rika
äch
▁ahead
TestCase
▁▁▁▁▁▁▁▁▁▁▁▁▁▁
First
ních
pent
▁Pir
色
▁addition
UR
▁art
callback
▁HTML
°
ONG
▁Dev
amm
vue
І
ulp
▁prospects
▁Ste
ql
▁heard
▁Media
▁Harry
{}
▁artic
Journal
az
▁present
된
▁RES
FOR
_
▁sequ
urn
ested
▁playing
lined
Schema
ver
▁indust
▁Nav
enties
▁dl
▁encontr
▁helper
фі
▁preval
▁Rice
▁Mama
Object
▁reviews
LIN
\,\
▁host
▁valley
▁cri
istribution
▁humans
▁move
}\
iom
nullable
▁pp
Conf
brid
coord
▁parking
▁managing
▁correspon
▁invol
▁headed
ieder
▁Über
▁hide
▁Delta
inos
▁CHAPTER
ire
cq
▁Size
lica
▁traveling
rib
▁Lip
▁oscill
▁representation
▁exhib
Angle
▁furn
fried
DOUBLE
ト
ก
▁Google
▁him
▁jar
iously
▁ante
▁element
▁sensor
emplates
cached
触
▁голо
▁default
▁seemingly
ེ
itis
▁volta
그
aturday
▁partners
▁quotes
▁Gilbert
ting
▁brick
▁library
▁Wang
TS
Notification
ев
illo
▁famille
▁ser
secondary
̃
▁integrate
护
▁inspire
▁*)&
UL
▁average
▁generate
bsite
ញ
сли
zeta
akh
▁находи
дат
😍
▁View
iz
▁literal
idelines
There
杨
etime
SESSION
▁commod
▁creat
imary
adget
uary
▁retval
▁withd
▁others
▁Certain
гар
urope
▁precious
▁Suppose
▁blast
iste
呼
▁fame
▁closest
▁ду
▁temperature
userId
▁puzz
母
Flag
arrow
▁Item
က
Sche
ITION
alg
▁bob
itional
Good
'_
▁founder
▁kall
HH
icle
▁auction
DOM
▁rational
▁theatre
▁transl
▁Nord
▁shout
▁mechanical
balance
Inputs
opts
教
anguages
▁Iron
sty
бра
▁pass
▁mining
marker
▁termin
▁Open
NG
idity
estival
imation
Long
▁ell
solid
Eng
PF
▁dip
▁believing
준
ansion
▁Portland
fff
▁mult
stant
▁power
ATTR
ik
▁Ren
य
Handle
▁dans
plications
пад
▁mothers
,\
<0x0E>
▁*«
▁Large
▁implement
群
▁whilst
ALLOC
вся
▁Andr
awk
▁ж
▁Target
rena
▁hotel
▁together
현
-\
▁offense
▁оста
▁imagined
▁if
ціональ
▁broker
▁reported
frak
Argument
San
▁invas
▁executed
encia
▁Alpha
SOC
▁difer
ᴏ
▁{},
bitmap
<0x65>
lished
▁мет
aten
▁placed
▁к
ogs
ached
▁Writer
▁grain
▁nerve
▁rect
Tip
Timer
▁año
▁Great
▁hierarchy
▁został
iente
▁lan
itten
▁Theme
▁expecting
▁Nieder
visit
ielen
▁point
▁qual
▁betray
regon
album
FL
▁AT
íl
↵
▁moder
connect
istribute
▁Bangl
resentation
ね
opsis
quiry
▁realized
cret
▁Greg
amps
doors
▁wall
▁Franç
▁interaction
▁rifle
▁blob
▁colon
▁Ru
稱
cccc
ե
db
▁DC
aughter
ellers
reement
sted
▁Dit
▁vertices
▁Gener
▁therefore
▁evil
অ
▁wide
锁
<0x02>
▁day
▁liqu
▁population
▁pres
▁maximal
Alias
prit
nings
▁related
▁Listen
▁capital
erson
▁regards
Å
Mem
Non
прави
▁smoothly
▁animal
De
▁thigh
▁stars
▁acted
▁Alber
chema
▁Gaz
lock
reate
▁environmental
getInstance
stad
▁Julie
phy
▁victim
担
Con
ayer
uper
▁leads
reci
oop
[(
▁Eddie
}_\
▁alternate
########
▁shine
▁Chart
▁travel
▁""
▁weak
련
▁dict
▁nar
pgfscope
新
素
med
확
▁astr
<0x05>
偏
Pair
EFF
환
▁adult
enty
since
