{
    "▁fb": 57920,
    "▁unpaid": 49847,
    "▁amount": 2860,
    "▁}{": 20396,
    "▁heels": 25219,
    "▁soundtrack": 27696,
    "Proposition": 37824,
    "▁aide": 48979,
    "CONFIG": 38668,
    "宽敞": 57825,
    "浓": 61043,
    "nusing": 7256,
    "nprint": 14100,
    "纽约": 18870,
    "▁innovation": 12801,
    "▁TC": 37282,
    "的情況": 56497,
    "Balance": 57717,
    "形的": 21446,
    "准备了": 48225,
    "IRC": 46294,
    "自此": 51308,
    "ía": 38977,
    "=[": 21981,
    "▁feeds": 27231,
    "motor": 58728,
    "▁Parts": 39654,
    "酶": 62354,
    "▁Ign": 30613,
    "▁signatures": 23209,
    "举行的": 38868,
    "▁Willow": 57061,
    "赛后": 47078,
    "▁filaments": 56108,
    "▁operational": 18275,
    "wind": 18351,
    "沙漠": 30895,
    "期": 59804,
    "▁cache": 14838,
    "▁kg": 28758,
    "年限": 37011,
    "semb": 5926,
    "▁Fourth": 31838,
    "▁cosine": 48338,
    "sequ": 3630,
    "行业": 3262,
    "::": 1553,
    "喜欢": 3186,
    "蚕": 63368,
    "VAL": 17741,
    "▁stint": 46724,
    "▁exquisite": 43255,
    "孜": 63143,
    "\\\\+": 6676,
    "consumer": 52389,
    "▁debris": 25884,
    "思维": 8714,
    "Azure": 41711,
    "▁semic": 51600,
    "nAb": 5688,
    "吃亏": 56392,
    "▁Republic": 4754,
    "ë": 62991,
    "▁reply": 12425,
    "会议精神": 44786,
    "sci": 47463,
    "电路": 12366,
    "▁Customer": 20390,
    "+\\": 10836,
    "▁be": 629,
    "nRec": 19422,
    "▁Treaty": 43304,
    "[…": 46839,
    "IME": 13862,
    "涨价": 38053,
    "▁GA": 22139,
    "▁Reach": 54104,
    "▁widely": 9701,
    "就不会": 23125,
    "▁Designer": 37164,
    "感情": 6820,
    "实现了": 15042,
    "▁unpack": 52701,
    "审批": 15171,
    "BR": 8836,
    "▁Overview": 34178,
    "▁discrepancies": 53443,
    "<0x2E>": 351,
    "▁relation": 6729,
    "▁tilt": 27584,
    "贤": 61721,
    "Ц": 62534,
    "▁felt": 4107,
    "rc": 3792,
    "▁riding": 13355,
    "races": 27689,
    "nObviously": 33785,
    "▁coefficients": 10929,
    "▁zero": 4728,
    "無論": 52607,
    "▁counters": 35724,
    "LOC": 42146,
    "被": 59777,
    "▁lob": 43165,
    "▁Ap": 24938,
    "▁commod": 21361,
    "tabs": 51431,
    "为他": 30978,
    "utton": 33798,
    "nShort": 36946,
    "ge": 671,
    "的魅力": 50493,
    "好玩": 51253,
    "渠": 61391,
    "rew": 3019,
    "▁responded": 13952,
    "▁contextual": 33637,
    "▁norm": 6110,
    "густ": 45936,
    "额头": 56459,
    "azer": 36135,
    "▁Gel": 49095,
    "inking": 10968,
    "交付": 18098,
    "\":\"(": 50123,
    "～\\": 49153,
    "subset": 6516,
    "进驻": 52267,
    "▁host": 3298,
    "地把": 41692,
    "▁Ravens": 36011,
    "的证据": 26612,
    "的人都": 36802,
    "[](": 58516,
    "isites": 46985,
    "Bio": 59460,
    "▁laptop": 11293,
    "▁све": 23816,
    "▁('": 23905,
    "把": 59937,
    "ncase": 30909,
    "▁Sebast": 43613,
    "畴": 63009,
    "<|unused106|>": 251,
    "iotics": 28613,
    "奥巴马": 53030,
    "▁Duck": 45029,
    "▁judgment": 14862,
    "elsius": 58822,
    "▁exhibits": 21779,
    "▁availability": 13657,
    "▁pleasures": 55279,
    "▁fantasy": 13659,
    "lucky": 48138,
    "▁hydrodynamic": 47773,
    "迫害": 40528,
    "▁Portal": 41380,
    "alloc": 19932,
    "▁localization": 24449,
    "明确": 5966,
    "thanks": 38387,
    "▁applicability": 52807,
    "": 62506,
    "示范": 9065,
    "裁决": 42587,
    "▁exercises": 17518,
    "▁Employee": 46322,
    "▁div": 4369,
    "鸡汤": 46963,
    "盛世": 47479,
    "药物": 9373,
    "▁ps": 29566,
    "▁directs": 56256,
    "<|unused086|>": 231,
    "Customer": 39959,
    "疤": 63401,
    "|^": 8307,
    "Content": 10069,
    "修理": 41414,
    "jour": 31266,
    "▁Elect": 10014,
    "phony": 47749,
    "▁transcripts": 56603,
    "大户": 58740,
    "忽略": 20550,
    "中等": 28702,
    "▁halt": 26073,
    "▁GHz": 25194,
    "▁Murphy": 26363,
    "▁ace": 47198,
    "agnet": 33378,
    "国债": 44749,
    "▁neighbors": 13091,
    "睦": 63305,
    "=%": 34228,
    "▁lately": 15422,
    "证据证明": 42220,
    "Encoder": 47107,
    "成像": 41599,
    "諸": 63226,
    "seen": 19580,
    "主持": 9194,
    "nAdvertisement": 24674,
    "Axis": 41295,
    "nJesus": 48357,
    "▁synchronized": 48786,
    "▁undercover": 56940,
    "▁ABC": 18089,
    "▁net": 1978,
    "▁Merr": 38371,
    "nRepublic": 52331,
    "如何": 3152,
    "▁Beyond": 25645,
    "出自": 32774,
    "▁application": 3688,
    "zt": 41245,
    "nfound": 42709,
    "下肢": 53550,
    "机关": 6375,
    "▁kick": 6706,
    "▁>>\\": 50073,
    "开盘": 33577,
    "▁industry": 3503,
    "充电桩": 58229,
    "伴随": 34421,
    "ток": 42890,
    "▁forever": 10038,
    "▁stakes": 35716,
    "上是": 39092,
    "▁memories": 12041,
    "inki": 55940,
    "衛": 62609,
    "▁combinatorial": 45145,
    "播": 60556,
    "爱的人": 43916,
    "▁remedies": 39779,
    "资助": 22289,
    "自愿": 23623,
    "nflu": 56464,
    "TEXT": 28713,
    "▁insulation": 37460,
    "▁varieties": 22706,
    "▁Todd": 25752,
    "受理后": 37271,
    "这个故事": 53830,
    "▁Victoria": 19454,
    "Ent": 6617,
    "归属": 36535,
    "DR": 8832,
    "^*\\\\": 24815,
    "战": 60031,
    "▁Brow": 16104,
    "▁amenities": 24228,
    "qn": 48180,
    "ey": 2705,
    "赞扬": 54150,
    "▁Reagan": 26822,
    "▁infected": 20564,
    "▁oh": 14437,
    "▁offices": 13922,
    "眉头": 53710,
    "▁sum": 2382,
    "OD": 3045,
    "▁lineback": 31983,
    "▁bore": 31746,
    "满足了": 51056,
    "有意": 29559,
    "在工作中": 50199,
    "▁footing": 53396,
    "聂": 63091,
    "▁luxurious": 32112,
    "▁organized": 10113,
    "▁gross": 17155,
    "▁confidential": 24477,
    "企业和": 30005,
    "看一下": 46691,
    "立法": 20447,
    "▁commend": 49673,
    "////////": 5889,
    "完": 59955,
    "接收": 13035,
    "▁aroma": 38544,
    "▁equilibrium": 13692,
    "akov": 38320,
    "帮助我们": 58674,
    "h": 59578,
    "▁rocked": 56658,
    "出具": 15328,
    "经济的": 26901,
    "光芒": 40314,
    "黎明": 49856,
    "▁enough": 2076,
    " –": 8628,
    "▁finale": 30609,
    "irl": 2298,
    "Failure": 45046,
    "▁answers": 8476,
    "倡": 61744,
    "闻名": 43438,
    "iction": 3112,
    "Occ": 46088,
    "science": 28107,
    "▁Laura": 25533,
    "七八": 31037,
    "IFT": 35675,
    "▁Region": 23515,
    "▁IPS": 54158,
    "伍": 61048,
    "▁Holder": 51446,
    "▁Juan": 29896,
    "▁volumes": 18685,
    "逝世": 50511,
    "▁Battle": 16647,
    "phanie": 34493,
    "▁bishop": 44080,
    "一整": 59315,
    "国外": 14498,
    "▁attitude": 12187,
    "留学生": 32153,
    "▁begin": 2895,
    "響": 62159,
    "▁creative": 7406,
    "▁Rect": 49796,
    "▁Caval": 46450,
    "▁atop": 37398,
    "▁scalar": 10798,
    "RAM": 43040,
    "dule": 6721,
    "▁at": 702,
    "ille": 3429,
    "▁trav": 12923,
    "▁Comedy": 42517,
    "企图": 44457,
    "▁downtown": 13057,
    "怎样的": 21332,
    "**": 902,
    "▁Occ": 20104,
    "follow": 32799,
    "▁Bj": 57981,
    "诊所": 49086,
    "▁Church": 6885,
    "▁wonderfully": 36771,
    "▁Bon": 13504,
    "詞": 63063,
    "衡量": 29560,
    "▁Lamb": 32261,
    "Ma": 24201,
    "两名": 29530,
    "▁Planned": 50727,
    "▁domest": 52017,
    "▁brand": 3978,
    "sf": 7161,
    "Reset": 40664,
    "Font": 22343,
    "Direction": 38070,
    "\\\"];\\": 52016,
    "孩子的": 7467,
    "ulously": 25064,
    "▁Tibetan": 54110,
    "avis": 34168,
    "cribed": 14095,
    "Execute": 42594,
    "▁rotated": 41648,
    "▁depleted": 53632,
    "cohol": 8698,
    "nPerson": 23304,
    "▁Smart": 15464,
    "MHz": 26697,
    "Split": 34450,
    "nthan": 23876,
    "▁Creek": 17972,
    "棋": 61915,
    "▁kidnapping": 54694,
    "▁Bir": 37771,
    "支部": 10149,
    "羯": 63322,
    "層": 62505,
    "隊": 61791,
    "日内": 12570,
    "嗜": 63800,
    "▁crafting": 34555,
    "ISC": 39218,
    "toutiao": 5736,
    "藏着": 48419,
    "较强": 43470,
    "▁exits": 51195,
    "願": 62675,
    "产品的": 14051,
    "ENS": 27707,
    "▁silver": 11946,
    "▁ambassador": 35141,
    "准备的": 49931,
    ")\"}": 48952,
    "努力": 3976,
    "▁Defense": 16668,
    "nWarning": 43491,
    "▁excerpt": 38375,
    "▁SOL": 50173,
    "地带": 40637,
    "勃勃": 44248,
    "dict": 10372,
    "西班": 20308,
    "chell": 21060,
    "▁Ca": 12297,
    "▁turns": 6970,
    "县级": 28437,
    "妖": 62174,
    "▁mattress": 23956,
    "lyss": 53797,
    "杂志": 17805,
    "▁bonded": 49844,
    "went": 35897,
    "一遍": 21363,
    "▁requiring": 15428,
    "数码": 42436,
    "界": 60075,
    "萍": 62233,
    "陣": 63598,
    "▁toddler": 36270,
    "恪": 63935,
    "athetic": 35465,
    "中场": 54598,
    "fif": 56584,
    "▁Maple": 43178,
    "nFurther": 13479,
    "icts": 17325,
    "▁wholesale": 32739,
    "▁suburban": 36259,
    "▁silk": 31779,
    "▁Columbia": 16421,
    "翘": 63005,
    "has": 9326,
    "runt": 23980,
    "▁disproportion": 42885,
    "可能会有": 59194,
    "叶子": 30765,
    "南": 59998,
    "▁CMB": 36236,
    "▁interrog": 35037,
    "方方面": 54635,
    "Feb": 49731,
    "窗": 60971,
    "洋洋": 53886,
    "Blue": 26638,
    "外汇": 32070,
    "▁screens": 12919,
    "强调了": 53280,
    "改造": 9200,
    "ostream": 47383,
    "县公安局": 24389,
    "▁revision": 27665,
    "私自": 57346,
    "车展": 51329,
    "Â": 62038,
    "▁é": 26285,
    "cont": 3304,
    "无限的": 58328,
    "的社会": 19921,
    "的战略": 47944,
    "uren": 49985,
    "口气": 27820,
    "局限": 34040,
    "一如既往": 44101,
    "自然资源": 31971,
    "CTYPE": 44404,
    "▁spinal": 40191,
    "满意": 11427,
    "ugin": 21131,
    "▁stringent": 42862,
    "报告": 4971,
    "GH": 18427,
    "价格上涨": 49769,
    "拒": 61167,
    "恕": 63739,
    "::$": 46389,
    "nstructure": 42433,
    "饿": 62212,
    "政府的": 21802,
    "内饰": 42841,
    "▁Economy": 39588,
    "撩": 63506,
    "autions": 45958,
    "▁Like": 6951,
    "通俗": 36913,
    "气和": 53174,
    "老板": 10735,
    "▁CO": 10026,
    "金牛座": 49525,
    "reliminary": 51890,
    "▁perfume": 50052,
    "这对于": 39581,
    "▁cancel": 13559,
    "▁Ahmad": 46272,
    "PC": 5554,
    "錄": 62469,
    "成龙": 50146,
    "▁是": 38248,
    "禽": 62568,
    "▁dtype": 57532,
    "arf": 56092,
    "在网上": 30142,
    "▁olig": 52109,
    "▁arrived": 8572,
    "中年": 24502,
    "tB": 46159,
    "加入了": 34440,
    "▁tribute": 24823,
    "引发的": 55558,
    "顷": 63069,
    "▁landlord": 41034,
    "对于": 2480,
    "拐": 62456,
    "就这样": 17602,
    "幻": 61423,
    "йто": 20775,
    "▁Often": 25007,
    "▁journal": 6827,
    "▁welfare": 17245,
    "ynn": 25782,
    "▁wasn": 3613,
    "ference": 6933,
    "empl": 52437,
    "▁pervasive": 58970,
    "ME": 10057,
    "▁aggregate": 25392,
    "▁Surv": 29845,
    "▁agility": 55980,
    "▁Character": 31696,
    "▁tapping": 41636,
    "认购": 54118,
    "eward": 27485,
    "▁waiting": 6118,
    "unity": 11672,
    "critical": 28084,
    "大衣": 53734,
    "顶部": 33278,
    "▁newborn": 39372,
    "呼唤": 59276,
    "▁Residents": 57649,
    "▁happen": 2398,
    "▁startling": 54659,
    "▁citrus": 44016,
    "自闭": 57856,
    "▁informed": 11166,
    "飞": 60452,
    "供需": 35750,
    "▁decade": 9659,
    "新模式": 49595,
    "▁Copy": 29463,
    "粗糙": 44976,
    "▁OT": 36155,
    "▁frightened": 49872,
    "内在": 24363,
    "▁concerts": 32194,
    "理解": 5181,
    "适当": 12582,
    "▁governmental": 42601,
    "shock": 44344,
    "取决于": 25801,
    "▁jacket": 19916,
    "亲身": 45852,
    "填": 61229,
    "oon": 4099,
    "▁unstable": 19748,
    "orean": 53209,
    "▁proble": 1531,
    "▁available": 2025,
    "机制": 6781,
    "流转": 35949,
    "ao": 8390,
    "▁manufacturer": 14321,
    "外语": 40495,
    "▁Info": 23322,
    "▁blend": 16289,
    "QUE": 24849,
    "usal": 11907,
    "匹配": 17784,
    "▁Login": 37577,
    "地进行": 46637,
    "▁Jersey": 12916,
    "十九": 14073,
    "▁employs": 30999,
    "▁lifespan": 53837,
    "Cas": 46351,
    "总理": 23629,
    "▁Cit": 32227,
    "ROW": 48791,
    "gal": 7034,
    "▁Pap": 24188,
    "▁BU": 28648,
    "nonumber": 4760,
    "▁Wesley": 51741,
    "BO": 11109,
    "лко": 30612,
    "▁DAM": 40419,
    "Destroy": 59435,
    "kan": 32258,
    "这一个": 53353,
    "nUnited": 35279,
    "▁mood": 12692,
    "bye": 21410,
    "▁profits": 16590,
    "舉辦": 38425,
    "赢得": 23573,
    "nAnd": 3232,
    "成交": 11562,
    "▁impacted": 29686,
    "我省": 28935,
    "▁wins": 11685,
    "▁lawn": 23621,
    "▁autobi": 51915,
    "▁okay": 11253,
    "超過": 31515,
    "▁god": 7934,
    "▁||": 6997,
    "基础设施建设": 45182,
    "汽车的": 50962,
    "<0xFB>": 556,
    "terms": 37544,
    "专门": 11515,
    "Msg": 24329,
    "▁spiritually": 55952,
    "快速增长": 54780,
    "▁buff": 9172,
    "▁Support": 11964,
    "美团": 41523,
    "andro": 45457,
    "▁Publisher": 59230,
    "▁rules": 4776,
    "ek": 1419,
    "▁nations": 13025,
    "▁detector": 13219,
    "▁endeav": 30760,
    "ب": 63744,
    "xxxx": 21299,
    "密封": 22082,
    "金华": 43931,
    "▁mandate": 26115,
    "长沙市": 57836,
    "建設": 32538,
    "▁Been": 42649,
    "流水": 23481,
    "类": 60042,
    "的前提下": 31511,
    "反响": 55059,
    "nother": 22428,
    "▁yo": 36720,
    "▁gains": 14588,
    "▁deliber": 16570,
    "lan": 16799,
    "nmult": 35384,
    "支柱": 40137,
    "▁Parameters": 44052,
    "组织": 2724,
    "来了": 5713,
    "再用": 41946,
    "在我看来": 47199,
    "▁Георги": 56931,
    "figs": 29260,
    "▁wakes": 47467,
    "浪费": 16657,
    "ipsch": 40774,
    "歌词": 44094,
    "fts": 42401,
    "折扣": 40612,
    "好奇心": 54426,
    "北海": 37408,
    "tight": 36627,
    "▁Math": 15109,
    "nIng": 47636,
    "椒": 61601,
    "Acknowledgements": 35477,
    "abcd": 53456,
    "▁Soviet": 17552,
    "企业发展": 41128,
    "▁volunteered": 54451,
    "▁nor": 6607,
    "▁addressed": 13090,
    "紧紧": 21943,
    "听话": 56061,
    "饮": 60757,
    "返回": 15718,
    "good": 12654,
    "返还": 24206,
    "▁Sites": 37516,
    "▁details": 3632,
    "▁Out": 5968,
    "名校": 32709,
    "STATUS": 34550,
    "筷": 62981,
    "▁df": 22503,
    "▁август": 51196,
    "▁Zip": 53109,
    "▁dwell": 29847,
    "My": 6056,
    "reen": 1992,
    "负责人": 7612,
    "法国": 11588,
    "▁Hass": 40101,
    "▁specialists": 25292,
    "巧克力": 43112,
    "▁rapper": 43779,
    "▁dumping": 48124,
    "IMO": 43840,
    "garia": 52059,
    "▁brink": 52731,
    "▁poorer": 50885,
    "▁interfere": 31973,
    "▁MIN": 35034,
    "▁productive": 17210,
    "iam": 4714,
    "戒": 61526,
    "Go": 10098,
    "ximity": 22712,
    "新颖": 43451,
    "▁extraord": 49080,
    "▁courtyard": 53579,
    "我来": 38789,
    "▁adulthood": 51199,
    "工厂": 13796,
    "搭": 60747,
    "国有": 17892,
    "可用于": 50685,
    "ngra": 47835,
    "▁only": 1035,
    "方案": 4736,
    "oko": 31960,
    "然后就": 56528,
    "我做": 58409,
    "▁Hilton": 41408,
    "协同": 16853,
    "推荐": 7539,
    "nc": 1541,
    "tThe": 25261,
    "完美的": 25556,
    "▁epidemic": 28701,
    "ensitivity": 35086,
    "▁decreases": 14677,
    "器和": 43949,
    "四大": 18855,
    "天然气": 22881,
    "▁opposed": 11173,
    "ble": 1143,
    "ublin": 26169,
    "▁dst": 56002,
    "▁genuine": 15469,
    "制订": 46212,
    "▁alien": 17332,
    "▁operate": 11305,
    "marks": 20790,
    "▁Caesar": 44731,
    "prehensive": 43965,
    "分布在": 55133,
    "дер": 49266,
    "iw": 21230,
    "四五": 58704,
    "优良": 24521,
    "verting": 40937,
    "nNEW": 30300,
    "厦门": 19813,
    "otional": 31886,
    "▁cocktail": 30353,
    "人民陪审员": 37718,
    "▁Rele": 34170,
    "▁-\\": 10355,
    "umeric": 31647,
    "&=&\\\\": 17853,
    "nFig": 16034,
    "▁Drake": 39967,
    "是无法": 52653,
    "工作和": 38057,
    "▁kingdom": 20505,
    "重温": 44413,
    "又一": 35762,
    "NI": 26164,
    "▁aster": 31578,
    "held": 19369,
    "▁than": 989,
    "otics": 27276,
    "▁TT": 38665,
    "RB": 41059,
    "▁amusing": 37882,
    "辨认": 40575,
    "胱": 63745,
    "▁Oregon": 15705,
    "▁commissioner": 35818,
    "新建": 19904,
    "判决": 5630,
    "学员": 15266,
    "的一系列": 47348,
    "▁clock": 9809,
    "Elements": 33970,
    "总决赛": 36109,
    "elfare": 15079,
    "▁statewide": 41860,
    "重度": 52493,
    "▁SEO": 15482,
    "▁entry": 6637,
    "▁unlocked": 41566,
    "一言": 48233,
    "月二十": 30654,
    "一号": 34926,
    "nres": 14584,
    "▁assortment": 40993,
    "但没有": 43811,
    "▁phenomena": 20583,
    "一点都不": 51876,
    "▁children": 2435,
    "IO": 9702,
    "的衣服": 43214,
    "▁Ferguson": 35878,
    "也逐渐": 58353,
    "Char": 14427,
    "五": 60098,
    "▁Pilot": 50003,
    "astrous": 40355,
    "createElement": 50618,
    "坚固": 53733,
    "▁Associates": 30324,
    "▁calculate": 10082,
    "▁*/": 23184,
    "▁PURPOSE": 45760,
    "stab": 45429,
    "▁Hannah": 37595,
    "▁Tes": 25141,
    "])$": 54097,
    "choose": 27651,
    "▁dreaming": 35959,
    "colon": 18161,
    "調查": 32713,
    "就用": 47124,
    "<|unused062|>": 207,
    "风波": 59213,
    "▁investigations": 20974,
    "nMem": 27620,
    "nQuestions": 58248,
    "不是一个": 39854,
    "bod": 48558,
    "还将": 20651,
    "▁chooses": 27188,
    "毁": 61572,
    "▁accident": 8469,
    "Ill": 28599,
    "▁closing": 12656,
    "ope": 1906,
    "望着": 28590,
    "▁Jacobs": 43890,
    "▁Smash": 58454,
    "▁LICENSE": 47660,
    "imen": 27531,
    "▁event": 2291,
    "战役": 27173,
    "后半": 54327,
    "Status": 9178,
    "有助于": 19137,
    "father": 16368,
    "必要的": 19476,
    "就知道": 35247,
    "▁arous": 47003,
    "▁prayed": 43503,
    "▁wrink": 39166,
    "诞": 61615,
    "▁strengthe": 21144,
    ")}}{": 48632,
    "▁shadows": 27180,
    "程序员": 53942,
    "▁invent": 6114,
    "条约": 44338,
    "不需要": 13733,
    "risy": 51265,
    "▁有": 48845,
    "pawn": 56410,
    "▁grep": 42613,
    "跟她": 48990,
    "ovy": 42455,
    "厉害": 17603,
    "课题": 16450,
    "▁pills": 25050,
    "▁override": 18273,
    "涂抹": 47972,
    "▁remote": 9595,
    "▁Lind": 15940,
    "留意": 30519,
    "nSome": 7324,
    "▁hadrons": 56232,
    "esus": 27130,
    "去": 59793,
    "▁lust": 33320,
    "▁Tre": 8998,
    "▁comprises": 21364,
    "▁Appendix": 16745,
    "差的": 36391,
    "▁Azer": 48042,
    "nTony": 53624,
    "▁Rooms": 54079,
    "▁proprietary": 27684,
    "prob": 1842,
    "答应": 23087,
    "vdots": 25466,
    "▁supervisor": 31957,
    "遴": 63970,
    "美观": 33353,
    "Inf": 5746,
    "怎么可能": 50878,
    "nGeneral": 27265,
    "不多": 11645,
    "fro": 39680,
    "Imm": 42813,
    "ген": 44369,
    "▁telling": 7408,
    "旁边的": 47763,
    "冷战": 52861,
    "▁mater": 28917,
    "tail": 15555,
    "大楼": 32627,
    "其中": 2898,
    "已经被": 27346,
    "nproblem": 46513,
    "tget": 54860,
    "每": 59921,
    "变成": 9708,
    "中的": 2403,
    "十四条": 22558,
    "▁beaten": 22715,
    "▁CB": 23811,
    "fair": 29503,
    "▁train": 1916,
    "盖上": 51927,
    "都不": 6159,
    "nMus": 59069,
    "verty": 13902,
    "}$&": 38201,
    "▁Unable": 58368,
    "loads": 17838,
    "ribe": 36095,
    "漫": 60951,
    "▁Agu": 58815,
    "有效地": 26909,
    "出国": 26852,
    ")$$\\": 48933,
    "ident": 1311,
    "cu": 22256,
    "南京市": 50984,
    "能够在": 27033,
    "格的": 51688,
    "▁instabilities": 58906,
    "爸妈": 26871,
    "▁Pant": 20634,
    "aution": 54728,
    "DA": 6424,
    "▁Shaw": 29557,
    "asons": 3916,
    "殖民": 38043,
    "depend": 24658,
    "▁Risk": 32372,
    "▁presented": 4998,
    "raphic": 36629,
    "刷牙": 47408,
    "▁URL": 11512,
    "▁imposes": 54503,
    "巴菲特": 57709,
    "▁OPT": 56590,
    "nNote": 8150,
    "▁refers": 14090,
    "同比": 7607,
    "ята": 17875,
    "忘记了": 43843,
    "小区的": 56182,
    "镀": 62855,
    "没错": 31399,
    "▁washing": 21328,
    "規定": 36833,
    "mage": 43608,
    "▁wides": 18425,
    "nOr": 12331,
    "nome": 23499,
    "▁PL": 14226,
    "除此": 21047,
    "▁lakes": 31579,
    "▁susp": 7385,
    "储": 60782,
    "▁imagine": 7482,
    "详细": 9094,
    "▁proto": 28654,
    "▁rack": 19705,
    "▁bullshit": 29023,
    "nApplying": 58463,
    "運": 61592,
    "梅西": 43624,
    "enry": 45591,
    "▁actress": 17597,
    "三名": 50913,
    "▁Woods": 28888,
    "有许多": 32549,
    "中国的": 9826,
    "▁Jimmy": 22321,
    "中途": 44632,
    "▁evolutionary": 23969,
    "▁Edition": 17515,
    "外壳": 42198,
    "▁connection": 5320,
    "▁DT": 32815,
    "NU": 58604,
    "一二": 37680,
    "梳": 62033,
    "▁throw": 5892,
    "▁pi": 25806,
    "▁dataset": 6695,
    "RedPajama": 5340,
    "▁Coul": 24209,
    "▁Islam": 8194,
    "▁nights": 13087,
    "▁pedal": 36305,
    "俊": 61545,
    "▁Ralph": 34678,
    "重庆市": 29113,
    "犯罪事实": 41074,
    "絕": 62635,
    "就没有": 16812,
    "ELL": 47079,
    "的大门": 55161,
    "▁isotropic": 28649,
    "bigr": 24022,
    "гла": 43455,
    "▁incub": 41800,
    "▁Finish": 51366,
    "Result": 9161,
    "▁exist": 2651,
    "▁Hogan": 57670,
    "pressure": 33481,
    "强迫": 33662,
    "洋": 60827,
    "胸怀": 58743,
    "残酷": 32157,
    ")^{-\\\\": 59512,
    "▁INFORMATION": 51280,
    "情感": 10223,
    "▁Coca": 58553,
    "existence": 41734,
    "▁skept": 27154,
    "胰岛": 42522,
    "ctions": 1654,
    "细微": 51949,
    "oupon": 58856,
    "nFinally": 10172,
    "▁came": 2514,
    "▁relate": 16213,
    "▁orthogonal": 21705,
    "▁Brend": 36417,
    "耘": 63804,
    "有异议": 51262,
    "压": 60254,
    "乖": 62421,
    "▁MAX": 30151,
    "▁transforming": 31650,
    "Der": 41014,
    "▁booze": 56567,
    "activation": 49129,
    "▁Simon": 18864,
    "▁kale": 58757,
    "▁Hamilton": 8243,
    "▁Ray": 11961,
    "啪": 63261,
    "中秋": 28670,
    "▁breeding": 29925,
    "环比": 21964,
    "▁combination": 6461,
    "▁specialize": 39039,
    "bind": 16336,
    "▁Bike": 39907,
    "▁isnt": 42828,
    "都对": 58714,
    "rial": 6408,
    "天蝎座": 51825,
    "收拾": 25230,
    "公共卫生": 38227,
    "iring": 4437,
    "▁articles": 7341,
    "浓郁": 35727,
    "<0x72>": 419,
    "+=": 54532,
    "厚度": 28640,
    "▁melody": 44203,
    "Ber": 38634,
    "用药": 23132,
    "▁noun": 46872,
    "imum": 2949,
    "amel": 22979,
    "horizontal": 50445,
    "生产": 3058,
    "經過": 42033,
    "reasonable": 33262,
    "良心": 42466,
    "idable": 38123,
    "五四": 50929,
    "中国家": 55264,
    "翡": 63045,
    "▁ham": 12741,
    "ppling": 37358,
    "OLD": 19433,
    "▁sparse": 21499,
    "Pri": 44689,
    "▁Nex": 27786,
    "reatment": 30736,
    "▁clut": 48702,
    "抵达": 25848,
    "一般来说": 28735,
    "▁become": 2447,
    "畔": 62914,
    "休": 60699,
    "厉": 61560,
    "科协": 57548,
    "▁hybrid": 12717,
    "侵害": 27483,
    "▁Lead": 9906,
    "oya": 44233,
    "任務": 58606,
    "▁rel": 1173,
    "UB": 20200,
    "▁граф": 54521,
    "▁cigar": 51083,
    "blr": 32170,
    "奶茶": 44791,
    "▁sky": 8697,
    "迹象": 32086,
    "配角": 54741,
    "KD": 33896,
    "开幕式": 39047,
    "▁relocate": 57033,
    "▁Cer": 39156,
    "tint": 14031,
    "▁rail": 10860,
    "▁culmin": 32141,
    "lookup": 43546,
    "抗": 60513,
    "灾区": 54359,
    "~~~~~~~~~~~~~~~~": 29934,
    "nMike": 31127,
    "culture": 44676,
    "谁": 60638,
    "薄": 61203,
    "abama": 16526,
    "archives": 38955,
    "貴": 63053,
    "nf": 1707,
    "▁shot": 4709,
    "集中在": 29246,
    "▁pledge": 32375,
    "资产": 7043,
    "醫生": 57387,
    "▁Wire": 22119,
    "运送": 48790,
    "减半收取": 58852,
    "销量": 13384,
    "▁Early": 20416,
    "umer": 3667,
    "▁complete": 3334,
    "FLO": 51077,
    "ountain": 26121,
    "夏日": 42489,
    "的发展": 6829,
    "▁Jones": 9713,
    "spy": 57708,
    "▁Travis": 35946,
    "▁BTW": 54186,
    "()));\\": 30454,
    "arty": 55802,
    "▁healthcare": 12170,
    "▁equally": 11656,
    "时代的": 21570,
    "猴子": 47999,
    "最早的": 55068,
    "aspberry": 32735,
    "巧": 61003,
    "glas": 21946,
    "iggle": 36882,
    "分行": 32522,
    "点和": 44471,
    "owned": 19792,
    "写得": 56167,
    "▁groove": 38649,
    "бер": 41833,
    "nipeg": 43222,
    "ols": 11385,
    "的出": 45555,
    "离去": 44185,
    "上山": 55224,
    "▁gadget": 44498,
    "▁Rash": 47784,
    "looking": 14257,
    "Special": 32326,
    "防晒": 35674,
    "▁smok": 31668,
    "Anchor": 56081,
    "湖": 60468,
    "▁charges": 7710,
    "將": 60995,
    "refore": 4696,
    "centering": 4308,
    "▁simulations": 8772,
    "违法行为": 22419,
    "▁prizes": 25739,
    "Begin": 38405,
    "▁swallowed": 54270,
    "/{": 27073,
    "去过": 45006,
    "oured": 11829,
    "▁touched": 19333,
    "趟": 62698,
    "tv": 15296,
    "▁lure": 43018,
    "▁Teams": 41441,
    "▁unfinished": 52529,
    "住院伙食补助费": 55251,
    "▁redist": 26040,
    "学子": 25643,
    "知己": 57547,
    "\\\\%)": 31065,
    "▁AFTER": 49911,
    "ur": 634,
    "Should": 25524,
    "efined": 13768,
    "▁За": 20514,
    "▁optically": 46259,
    "▁Under": 8207,
    "▁само": 29185,
    "总面积": 46353,
    "▁titanium": 55791,
    "▁lag": 20803,
    "vl": 33223,
    "▁linewidth": 57034,
    "NBA": 22298,
    "▁ie": 35461,
    "eval": 16442,
    "zip": 19147,
    "Second": 23347,
    "▁Kurdish": 56013,
    "▁logos": 38100,
    "cid": 46007,
    "資": 61141,
    "专班": 55180,
    "▁nearby": 10059,
    "人大常委会": 26140,
    "▁comics": 19810,
    "连日": 58545,
    "▁icy": 52754,
    "CAN": 56460,
    "成功": 3935,
    "▁compound": 18189,
    "typed": 33229,
    "未有": 57217,
    "issue": 10933,
    "▁flight": 8858,
    "URN": 28893,
    "▁cafe": 33846,
    "ivated": 29282,
    "insula": 30378,
    "蛛": 62958,
    "▁issue": 2845,
    "▁glyph": 49691,
    "nced": 4339,
    "▁explore": 7351,
    "▁mercury": 53271,
    "▁FITNESS": 50459,
    "▁дей": 34718,
    "▁battles": 20324,
    "▁astrophysical": 50890,
    "<commit_before>": 28,
    "Cl": 2777,
    "▁celebrating": 21423,
    "▁Tim": 8502,
    "▁randomly": 13188,
    "ア": 63437,
    "▁remainder": 19505,
    "▁metals": 26079,
    "▁assum": 3698,
    "char": 7768,
    "▁gauge": 9272,
    "Example": 22275,
    "▁Du": 19191,
    "▁ecosystem": 20454,
    "TeV": 41707,
    "▁laying": 24105,
    "orig": 12157,
    "▁module": 7620,
    "秋冬": 47413,
    "▁Pastor": 44256,
    "Lock": 23513,
    "视为": 17978,
    "▁surgery": 9492,
    "hbox": 15287,
    "supervised": 20459,
    "will": 14599,
    "illes": 37822,
    "情况的": 39309,
    "▁irrelevant": 22599,
    "▁PA": 13598,
    "殖": 61308,
    "▁exceptionally": 33422,
    "中新": 38465,
    "▁symp": 18307,
    "▁attendance": 21735,
    "日的": 12344,
    "uran": 32910,
    "▁lament": 45306,
    "jam": 54281,
    "這次": 46762,
    "▁verbose": 52391,
    "▁Pak": 57631,
    "hat": 1098,
    "▁occasionally": 15075,
    "ucas": 38028,
    "CDM": 45947,
    "▁abdomen": 54081,
    "nCreating": 54348,
    "})+": 38079,
    "▁electroly": 45420,
    "输入端": 56214,
    "configure": 25834,
    "▁Lynch": 32365,
    "▁Harbour": 58625,
    "ODI": 33434,
    "▁seekers": 47583,
    "信访": 28329,
    "▁together": 2391,
    "havior": 19878,
    "rob": 22623,
    "Sep": 30796,
    "▁Satan": 32080,
    "采摘": 35024,
    "启": 60644,
    "生命": 4614,
    "污": 60930,
    "▁kept": 5607,
    "▁Mock": 37263,
    "initial": 16867,
    "▁whim": 43902,
    "所长": 31911,
    "▁heights": 29284,
    "<0x2F>": 352,
    "▁Autumn": 52551,
    "▁document": 4082,
    "▁arguing": 22121,
    "拥有了": 54395,
    "nBrand": 42292,
    "▁neighbouring": 45524,
    "гани": 32485,
    "▁Grade": 31444,
    "▁assuming": 10859,
    "кон": 46520,
    "港股": 48440,
    "花生": 29467,
    "而又": 26032,
    "▁Jane": 17966,
    "止损": 38655,
    "家人": 7966,
    "elike": 54471,
    "CSS": 39466,
    "▁Parent": 18859,
    "▁blur": 20874,
    "邪恶": 48421,
    "經驗": 36074,
    "报酬": 35015,
    "价钱": 51073,
    "▁cohesive": 58218,
    "诊断": 13783,
    "▁importing": 54737,
    "▁Male": 36793,
    "▁Dun": 16901,
    "意外": 11916,
    "▁HIGH": 58212,
    "▁CW": 37210,
    "target": 8228,
    "矩": 61801,
    "▁diet": 7327,
    "▁sustained": 22662,
    "下來": 54354,
    "▁discovery": 13181,
    "Ra": 29355,
    "(`": 25520,
    "BM": 9264,
    "▁SM": 12888,
    "▁limb": 36552,
    "▁programmes": 29124,
    "▁husbands": 44513,
    "▁undertaking": 39423,
    "▁Sie": 36413,
    "▁buf": 34055,
    "ularity": 30479,
    "<0xF0>": 545,
    "▁facilitating": 49198,
    "▁mammals": 49867,
    "的形成": 51495,
    "降": 60317,
    "ви": 4236,
    "irement": 31375,
    "哥伦": 56023,
    "icted": 8705,
    "零件": 39334,
    "往下": 36041,
    "▁mile": 12319,
    "程度的": 30441,
    "imps": 49526,
    "盘点": 47392,
    "▁broad": 4469,
    "meal": 38745,
    "▁cellul": 54108,
    "积蓄": 51639,
    "▁Darkness": 58097,
    "资": 59852,
    "卑": 62209,
    "▁accurately": 16559,
    "▁BT": 30521,
    "水上": 40223,
    "hydr": 41067,
    "▁{}": 19683,
    "慰问": 19659,
    "文献": 22066,
    "▁down": 1310,
    "▁messy": 31467,
    "▁Compute": 50695,
    "▁Clos": 56223,
    "walker": 56314,
    "该项目": 30116,
    "nem": 16939,
    "▁removal": 13760,
    "ert": 1135,
    "ymbol": 4434,
    "执行官": 49575,
    "p": 59584,
    "▁mimic": 37765,
    "通透": 59063,
    "愿你": 54276,
    "liography": 18473,
    "жки": 35501,
    "▁mim": 23986,
    "}}=": 17408,
    "▁Present": 31658,
    "▁disciplines": 32342,
    "▁provides": 3643,
    "开心": 10609,
    "▁delicious": 11388,
    "▁actor": 12130,
    "▁configured": 19303,
    "波动": 17496,
    "oward": 43990,
    "▁bipartisan": 46404,
    "oute": 9441,
    "优质的": 48909,
    "▁broke": 10003,
    "招募": 39922,
    "mutation": 58064,
    "认真学习": 47849,
    "▁Dim": 58721,
    "RET": 26866,
    "▁firmly": 23014,
    "原创": 17948,
    "▁Pill": 41728,
    "annels": 7468,
    "storm": 19744,
    "herence": 17482,
    "▁brainstorm": 56870,
    "××": 7723,
    "婴": 61690,
    "▁messages": 7280,
    "ulsa": 57130,
    "有人说": 24699,
    "erest": 9273,
    "▁tissue": 14590,
    "市场需求": 41702,
    "▁antique": 40244,
    "▁progresses": 46086,
    "消费品": 53059,
    "▁indirect": 20071,
    "ently": 3028,
    "▁nano": 37312,
    "axial": 42896,
    "alk": 1440,
    "厘": 62112,
    "沿途": 44768,
    "▁Subst": 54499,
    "nLearning": 58279,
    "asion": 15473,
    "▁Eddie": 32998,
    "就行了": 40051,
    "▁Hansen": 54241,
    "相当": 8298,
    "窒": 63936,
    "句子": 24969,
    "rail": 43259,
    "听得": 47812,
    "▁Committee": 8805,
    "▁mas": 9974,
    "▁rear": 10613,
    "▁indicators": 25941,
    "試": 62171,
    "紧密": 20482,
    "experienced": 49214,
    "果园": 53199,
    "TN": 55631,
    "▁Any": 5097,
    "厌": 61812,
    "token": 11921,
    "byter": 51911,
    "而已": 13335,
    "▁pilots": 29750,
    "ski": 12606,
    "是基于": 54774,
    "quir": 12388,
    "嚴重": 44054,
    "▁плани": 48389,
    "选取": 35908,
    "ul": 652,
    "学前教育": 59326,
    "心病": 49706,
    "▁corrupted": 39212,
    "▁decided": 3902,
    "▁Mart": 6946,
    "commend": 26336,
    "▁billionaire": 50142,
    "▁SGD": 53356,
    "baum": 40604,
    "▁NB": 55885,
    "▁influenced": 17819,
    "秘诀": 58710,
    "▁explored": 18452,
    "▁officer": 8877,
    "salm": 48815,
    "▁concessions": 54789,
    "行为": 3597,
    "牡": 62846,
    "▁Thomas": 9495,
    "▁unw": 11655,
    "绸": 62932,
    "脱离": 25000,
    "▁strand": 24513,
    "▁Literature": 42463,
    "▁Mad": 8233,
    "listed": 25320,
    "▁connect": 2674,
    "nAt": 4941,
    "nFacebook": 33420,
    "禁忌": 43952,
    "纪念": 12539,
    "痕迹": 28900,
    "▁coconut": 23043,
    "▁warranted": 54995,
    "進": 61008,
    "宝马": 30167,
    "Quality": 57601,
    "海军": 18432,
    "▁pp": 24842,
    "▁Cand": 34656,
    "▁Conference": 11470,
    "activ": 16185,
    "造成的": 17133,
    "▁bru": 30448,
    "▁−": 58538,
    "aken": 2498,
    "韶": 63121,
    "▁neck": 9884,
    ")=-": 44635,
    "肢": 62032,
    "就好": 21319,
    "位居": 33723,
    "默默地": 55345,
    "▁AFM": 59364,
    "发力": 26365,
    "通路": 56120,
    "▁smashed": 49624,
    "Mil": 55798,
    "ynch": 13868,
    "ructions": 7675,
    "▁tangent": 30680,
    "▁startups": 37067,
    "▁Е": 12903,
    "▁“[": 55703,
    "棚": 62073,
    "▁latex": 54105,
    "具体": 4693,
    "LE": 2450,
    "不在": 10972,
    "meaning": 33192,
    "affected": 40766,
    "nsim": 19743,
    "▁Au": 37972,
    "表达了": 41742,
    "starc": 3314,
    "▁psychiatric": 44428,
    "搭配": 10375,
    "▁Shape": 45671,
    "寓": 61822,
    "rust": 17577,
    "ders": 17094,
    "▁roster": 17666,
    "▁kicked": 19591,
    "参加诉讼": 27143,
    "ndistribution": 34916,
    "最长": 48417,
    "▁installer": 33737,
    "display": 6792,
    "▁Roman": 11033,
    "▁transform": 5375,
    ")}{\\\\": 13147,
    "derabad": 51243,
    "▁racing": 14572,
    "▁eu": 55495,
    "▁bre": 1840,
    "anging": 5940,
    "▁notes": 7460,
    "▁captain": 17437,
    "房地产市场": 52474,
    "vest": 5853,
    "UES": 26548,
    "我们将": 21425,
    "成型": 31281,
    "ρ": 62987,
    "iking": 14122,
    "▁Sco": 57133,
    "ormal": 2536,
    "▁pap": 28339,
    "▁Owen": 41888,
    "作了": 22351,
    "你就": 16111,
    "演讲": 16095,
    "▁Funeral": 49470,
    "耸": 63550,
    "克拉": 45505,
    "▁robbed": 48519,
    "cfg": 25239,
    "▁recovered": 18313,
    "▁Gul": 50876,
    "beam": 35624,
    "/$": 29656,
    "llll": 40063,
    "懵": 63086,
    "臀": 63186,
    "▁run": 1482,
    "回答": 8992,
    "▁Use": 7234,
    "支付的": 41226,
    "▁Р": 9206,
    "方可": 47536,
    "hetics": 34451,
    "朋友们": 25127,
    "▁witnessing": 51200,
    "之分": 55286,
    "resents": 6698,
    "▁VIDEO": 46578,
    "门": 59948,
    "的女孩": 51405,
    "▁tan": 28149,
    "eration": 6291,
    "▁vegetables": 15970,
    "飞行员": 51978,
    "▁rationale": 41942,
    "八": 60430,
    "像我": 53985,
    "▁highlighting": 28886,
    "堡": 61713,
    "▁addiction": 18825,
    "Pa": 4821,
    "来到": 8099,
    "▁Andrew": 12320,
    "▁polling": 34404,
    "▁tasked": 45804,
    "▁notorious": 36809,
    "▁reuse": 37191,
    "▁ph": 1152,
    "▁based": 2084,
    "▁Bangkok": 45870,
    "oded": 9132,
    "SSL": 38994,
    "底部": 21537,
    "▁anisotropic": 34911,
    "冲刺": 37875,
    "▁Lap": 56624,
    "nY": 1931,
    "oT": 19084,
    "packed": 35807,
    "usty": 36873,
    "mathsf": 13073,
    "要把": 21320,
    "一堂": 47475,
    "丞": 63448,
    "▁hides": 51768,
    "▁Europe": 3508,
    "▁durability": 32189,
    "的情况": 5442,
    "▁Deal": 23191,
    "简易程序": 49380,
    "的经济": 24638,
    "▁voltages": 52350,
    "高速公路": 23289,
    "стру": 53798,
    "一九": 48107,
    "家里的": 28740,
    "从我": 50114,
    "Ptr": 17274,
    "▁maintained": 14057,
    "tim": 6113,
    "▁portrayed": 32644,
    "eties": 13260,
    "▁do": 771,
    "▁physic": 37287,
    "扒": 63142,
    "▁living": 3391,
    "Layout": 13514,
    "▁dispose": 52646,
    "恨": 61636,
    "▁coin": 19280,
    "▁Muslim": 8849,
    "igned": 4585,
    "伙伴": 10748,
    "▁graphs": 12855,
    "▁Race": 23123,
    "研究员": 32764,
    "▁gained": 13049,
    "▁artif": 20335,
    "▁battlefield": 40619,
    "dn": 26343,
    "Expression": 26727,
    "opacity": 54476,
    "早晚": 41653,
    "▁counseling": 28492,
    "▁nationals": 53425,
    "▁Slot": 57327,
    "pir": 49089,
    "摔": 62186,
    "ebruary": 21473,
    "rank": 12411,
    "高昂": 57007,
    "uchar": 52974,
    "７": 94,
    "▁glor": 42694,
    "че": 4527,
    "Art": 14496,
    "▁deserv": 12755,
    "牺牲": 19606,
    "response": 9306,
    "\\\\\\\\\\\\\\\\": 51772,
    "不算": 26805,
    "铭记": 48737,
    "sensor": 58270,
    "慢": 60478,
    "小龙虾": 58144,
    "到我": 40994,
    "▁vaccine": 26354,
    "▁Lu": 12078,
    "▁cornerback": 59450,
    "sv": 12009,
    "▁iOS": 11347,
    "需要在": 39180,
    "广东": 8778,
    "环境的": 31951,
    "icion": 23665,
    "玻璃": 11341,
    "习俗": 34027,
    "市场竞争": 55867,
    "▁tro": 8449,
    "▁Spark": 31532,
    "▁trajectories": 19846,
    "等同": 49631,
    "▁salty": 50834,
    "兼具": 57788,
    "ALL": 7503,
    "兹": 62321,
    "▁fixing": 20843,
    "except": 13702,
    "ommod": 44625,
    "▁MC": 15547,
    "工作效率": 47893,
    "人到": 53148,
    "▁<<": 7488,
    "velope": 53263,
    "品": 59832,
    "狂": 61265,
    "畅销": 54224,
    "▁DNN": 49964,
    "Directory": 26020,
    "▁ancest": 17585,
    "nCRE": 50520,
    "▁Prepare": 54347,
    "▁snake": 27943,
    "颠": 62401,
    "降雨": 34631,
    "사": 63747,
    "▁Nelson": 22774,
    "neven": 34068,
    "维": 60221,
    "resses": 33237,
    "▁Bench": 42853,
    "近距离": 46194,
    "逝": 62018,
    "▁Marie": 28577,
    "▁oblig": 14406,
    "lightly": 42989,
    "——\\": 28924,
    "▁rebuilt": 46878,
    "XT": 36301,
    "撑": 61087,
    "suc": 53082,
    "▁accret": 18391,
    "▁disparate": 59486,
    "▁proving": 22819,
    "▁seized": 31324,
    "Abb": 58886,
    "涂": 61334,
    "机组": 45553,
    "▁repeatedly": 16448,
    "assertEqual": 30555,
    "▁Edgar": 52476,
    "▁Creates": 53168,
    "通用": 17308,
    "haps": 3848,
    "▁fairy": 30530,
    "▁concentration": 13070,
    "时常": 27026,
    "通行": 21478,
    "▁righteous": 28696,
    "graduate": 20633,
    "▁corpse": 55720,
    "线性": 38957,
    "nLe": 14062,
    "sun": 16961,
    "顺应": 45340,
    "▁tri": 1758,
    "▁darn": 41610,
    "();\\": 2071,
    "▁modulation": 27239,
    "－－": 56032,
    "▁Pier": 18813,
    "不放": 57488,
    "▁ske": 10711,
    "连接到": 57686,
    "举行": 7549,
    "一人": 15450,
    "▁Rocket": 44896,
    "階": 62979,
    "▁vagina": 44744,
    "▁rewards": 18008,
    "回忆": 12794,
    "▁Nikon": 39063,
    "pmod": 43405,
    "其一": 47120,
    "▁glad": 8737,
    "站长": 57147,
    "▁carbohydrates": 52485,
    "▁battled": 57082,
    "万元": 4161,
    "▁problematic": 26371,
    "▁ran": 7368,
    "▁invented": 25794,
    "葱": 61859,
    "vm": 14755,
    "▁motherboard": 49406,
    "▁specially": 24333,
    "▁Richards": 46898,
    "eks": 3341,
    "▁lots": 5762,
    "▁disturb": 13788,
    "AMD": 46067,
    "新能源": 12250,
    "余人": 20496,
    "▁connectivity": 20996,
    "▁NL": 29501,
    "▁кла": 36389,
    "▁faults": 43266,
    "▁Contemporary": 49009,
    "鲜明的": 52181,
    "▁dear": 18481,
    "领导": 3960,
    "落到": 32115,
    "不愿": 26316,
    "嘴里": 32185,
    "▁Loop": 41078,
    "▁Battery": 45240,
    "▁STM": 56735,
    "▁cartridges": 58099,
    "▁Gonz": 28260,
    "价的": 34781,
    "ван": 24888,
    "落户": 30119,
    "agar": 57295,
    "家电": 30948,
    "县政府": 31235,
    "挖": 61382,
    "nullable": 53492,
    "▁fortun": 20249,
    "民众": 17280,
    "緊": 62860,
    "▁Pakistan": 11436,
    "Component": 10889,
    "([\\": 32983,
    "▁eg": 33014,
    "scalebox": 45308,
    "▁Campbell": 24324,
    "例外": 30413,
    "俱": 61622,
    "▁Mexico": 9797,
    "cccccccc": 51653,
    "相聚": 53322,
    "▁Sag": 44922,
    "对称": 35498,
    "▁Dw": 37317,
    "叠": 61694,
    "▁ASP": 39382,
    "▁martial": 29577,
    "fre": 36732,
    "刷": 61041,
    "加强了": 59102,
    "世界上": 12201,
    "▁Sons": 55272,
    "_": 59593,
    "细胞": 7019,
    "进步": 9960,
    "nFederal": 58600,
    "rangian": 19485,
    "ilt": 3024,
    "eal": 4259,
    "▁complained": 28603,
    "rors": 19977,
    "一些": 2598,
    "全部": 5672,
    "▁temple": 21386,
    "会长": 16648,
    "▁debug": 18850,
    "▁Immigration": 41580,
    "▁situ": 44330,
    "去年的": 45041,
    "俄罗斯的": 54953,
    "树": 60479,
    "▁revers": 14438,
    "緣": 63461,
    "▁surrounded": 16101,
    "媛": 63161,
    "▁Extension": 36245,
    "棵树": 50351,
    "<|unused153|>": 298,
    "更为": 13569,
    "毛泽东": 23924,
    "停下": 50914,
    "找了": 53320,
    "INGTON": 30866,
    "▁exams": 28791,
    "potent": 43080,
    "▁dans": 39450,
    "uminosity": 51068,
    "▁Ви": 25905,
    "▁ins": 1465,
    "patch": 16584,
    "富有": 23405,
    "坟": 63059,
    "治理": 8364,
    "ross": 1652,
    "▁biod": 38059,
    "约合": 57251,
    "尴尬": 19446,
    "的味道": 28534,
    "gnu": 42419,
    "▁upwards": 35936,
    "▁Inf": 9410,
    "▁categ": 4755,
    "Mapping": 29966,
    "看了看": 47260,
    "odic": 28794,
    "▁seeds": 14765,
    "开来": 46020,
    "▁Trek": 23284,
    "公平": 13944,
    "major": 33761,
    "▁remem": 13824,
    "▁lowered": 28943,
    "云南省": 33079,
    "都": 59711,
    "STAR": 44401,
    "▁migrate": 41989,
    "▁seriously": 8515,
    "▁evenly": 29799,
    "getString": 34924,
    "▁Ebola": 56225,
    "▁representation": 6982,
    "▁doorstep": 54527,
    "MSG": 52154,
    "sts": 8929,
    "▁polymers": 56484,
    "▁nursing": 18511,
    "▁reversible": 58282,
    "▁ns": 34457,
    "岗位": 8666,
    "考察": 13426,
    "cur": 2196,
    "▁bra": 7334,
    "想来": 49519,
    "▁Hop": 11269,
    "ell": 781,
    "加拿大": 17299,
    "熊猫": 36144,
    "▁hinted": 56803,
    "▁adiabatic": 41203,
    "▁resemblance": 51891,
    "▁RET": 57132,
    "▁Nixon": 38781,
    "▁diffraction": 40373,
    "▁embed": 12505,
    "jecture": 19849,
    "▁spokesperson": 30817,
    "innie": 58855,
    "▁ground": 3241,
    "▁Fat": 24120,
    "该公司": 17404,
    "园长": 57142,
    "▁Patriots": 27911,
    "▁devi": 10347,
    "▁Larry": 22801,
    "▁Git": 21800,
    "\\\\{": 6823,
    "网络安全": 30257,
    "▁annotation": 30664,
    "▁mistaken": 26661,
    "New": 7089,
    "小朋友们": 41030,
    "▁dra": 7672,
    "计划": 4038,
    "的东西": 10192,
    "ei": 41235,
    "▁cheer": 19110,
    "▁inter": 1144,
    "▁WAR": 16070,
    "nBut": 3272,
    "取得": 5524,
    "▁brands": 11527,
    "Station": 24903,
    "▁RB": 31332,
    "▁realizations": 48053,
    "arnings": 33513,
    "希望能": 27425,
    "▁Egyptian": 27297,
    "NR": 20625,
    "▁strain": 11839,
    "▁saw": 3634,
    "永不": 45190,
    "sizeof": 43283,
    "救助": 20115,
    "告诉她": 55774,
    "蓝图": 55993,
    "药店": 47077,
    "rands": 56412,
    "京": 60297,
    "寬": 63657,
    "Python": 29338,
    "MDI": 34030,
    "直流": 43788,
    "▁Instant": 41070,
    "覺得": 29859,
    "借款人": 46229,
    "▁surprising": 9766,
    "joy": 2499,
    "▁Available": 21465,
    "工伤": 26521,
    "羁": 62756,
    "留言": 18585,
    "USA": 28733,
    "接受": 4796,
    "▁pier": 26831,
    "Flow": 23106,
    "▁thrown": 14181,
    "стоя": 33475,
    "註": 63816,
    "重點": 50408,
    "▁Apparently": 23295,
    "▁acting": 9791,
    "▁attribute": 14863,
    "勘": 62486,
    "怎么": 2930,
    "贪": 61912,
    "昆虫": 53475,
    "▁wide": 4705,
    "的精神": 14245,
    "▁floating": 19103,
    "▁transf": 20265,
    "也有很多": 48916,
    "非常好": 33047,
    "▁Waste": 48744,
    "▁Plate": 45045,
    "丸": 62278,
    "▁permutation": 29675,
    "▁indeed": 7434,
    "]\\\\\\\\\\": 53089,
    "▁shields": 55567,
    "道具": 43587,
    "tself": 36466,
    "StackTrace": 49493,
    "德國": 57460,
    "▁dirty": 15011,
    "节前": 58512,
    "itu": 39649,
    "reduced": 57168,
    "▁developer": 12259,
    "▁becom": 3427,
    "▁Buddha": 33074,
    "毛孔": 52536,
    "虽然没有": 45326,
    "▁salts": 58760,
    "bea": 41493,
    "▁holid": 6581,
    "electron": 33621,
    "仪表": 37722,
    "▁burgl": 48334,
    "贸": 60933,
    "▁contemplate": 57676,
    "▁associ": 3180,
    "放到": 25664,
    "陌生人": 36976,
    "▁psychiatrist": 55258,
    "镇政府": 54020,
    "xchange": 4320,
    "<|unused052|>": 197,
    "usc": 39025,
    "▁air": 2752,
    "夷": 62660,
    "▁Stew": 20403,
    "▁starters": 28571,
    "▁Sheriff": 24588,
    "▁Fund": 10733,
    "工匠": 40098,
    "炳": 63432,
    "办学": 21146,
    "▁PROVID": 58494,
    "▁Studies": 16209,
    "OWN": 19263,
    "领导者": 47866,
    "batch": 18338,
    "▁exposes": 55112,
    "▁rewarding": 26198,
    "▁accept": 3332,
    "奥林": 58977,
    "▁another": 1716,
    "hedral": 22453,
    "▁Brownian": 48051,
    "nBar": 31936,
    "水库": 28691,
    "nWH": 27429,
    "▁Rays": 49556,
    "place": 2867,
    "tuce": 46675,
    "anka": 26513,
    "▁NET": 52136,
    "nwe": 6809,
    "▁pie": 3120,
    "格拉": 57854,
    "▁Homes": 33388,
    "老化": 40127,
    "▁linebacker": 37780,
    "AQ": 50600,
    "▁DEBUG": 53141,
    "удо": 49375,
    "▁visually": 26836,
    "死刑": 41678,
    "不起": 11265,
    "▁Ruby": 28731,
    "重量": 17192,
    "▁reputation": 12516,
    "ref": 959,
    "▁defect": 12866,
    "nge": 25942,
    "▁Possible": 50310,
    "毒品": 17749,
    "▁villains": 51395,
    "克莱": 52964,
    "活动中": 17559,
    "drawn": 33675,
    "活泼": 29572,
    "▁finite": 6178,
    "▁pump": 8720,
    "▁algebras": 30751,
    "▁drained": 48281,
    "▁Combine": 55726,
    "第一款": 20662,
    "▁ETF": 45206,
    "机身": 59281,
    "Boot": 35327,
    "▁firms": 13538,
    "▁household": 11242,
    "▁comfy": 42152,
    "▁ones": 3577,
    "▁Мо": 35163,
    "▁Follow": 18215,
    "▁banning": 42595,
    "langle": 4499,
    "▁Better": 19723,
    "▁passwords": 30820,
    "▁dimin": 19241,
    "▁staircase": 53495,
    "<commit_after>": 30,
    "endif": 12738,
    "▁bargaining": 44348,
    "oline": 20669,
    "complete": 14311,
    "都非常": 29437,
    "▁Receipt": 44017,
    "保护和": 57292,
    "直播": 14912,
    "omo": 27858,
    "INTER": 42631,
    "腊": 62158,
    "二级": 19605,
    "的理念": 35300,
    "▁Nap": 24725,
    "дат": 47209,
    "▁diver": 13431,
    "出生的": 42149,
    "他是": 13492,
    "nCons": 10964,
    "▁survive": 12435,
    "▁vector": 5277,
    "▁pregnancy": 14771,
    "bm": 4183,
    "问题的": 9767,
    "▁athletic": 20163,
    "順": 62812,
    "数据分析": 48514,
    "▁Patricia": 56482,
    "来的": 2791,
    "▁IX": 43590,
    "▁pandemic": 37332,
    "妄": 62538,
    "▁outweigh": 53838,
    "plugins": 24626,
    "老伴": 58610,
    "лата": 31226,
    "▁equality": 14538,
    "reon": 49598,
    "▁epoch": 17010,
    "张某某": 46931,
    "山河": 55123,
    "上诉": 5932,
    "udic": 57423,
    "巷": 62083,
    "力争": 28872,
    "玫瑰": 24274,
    "▁However": 2458,
    "母亲": 6753,
    "^*_": 28802,
    "间隔": 28519,
    "会员": 13684,
    "谁的": 54823,
    "intensity": 57818,
    "▁cre": 1526,
    "▁indexed": 41033,
    "aurants": 53464,
    "出乎": 59274,
    "▁sequential": 29715,
    "▁shift": 6175,
    "▁advis": 12086,
    "robust": 47180,
    "▁Topic": 55312,
    "码": 60631,
    "▁indent": 54139,
    "兑现": 43106,
    "raco": 52562,
    "▁chocolate": 11557,
    "给你们": 49549,
    "▁automatic": 13719,
    "pdf": 5462,
    "Se": 5220,
    "▁Front": 17519,
    "损": 60487,
    "▁plt": 33006,
    "▁curb": 34020,
    "要不要": 38331,
    "▁;)\\": 37856,
    "▁bombs": 27090,
    "蔬菜": 12558,
    "草坪": 49924,
    "Martin": 56472,
    "▁costing": 39501,
    "ute": 1602,
    "成人": 19489,
    "原来的": 27517,
    "▁sensational": 51303,
    "毫": 60961,
    "▁satisfaction": 16498,
    "▁nuts": 18472,
    "nhow": 25543,
    "cf": 6247,
    "心里": 7527,
    "▁assign": 7696,
    "商标": 21163,
    "▁quarterbacks": 57695,
    "▁repent": 44065,
    "▁sacrifice": 19537,
    "eyed": 39291,
    "虽然说": 58383,
    "惨": 61832,
    "agine": 17102,
    "沛": 63043,
    "▁denote": 8408,
    "belie": 20267,
    "▁Fish": 24245,
    "amental": 35238,
    "мо": 8908,
    "颜": 60922,
    "研究院": 16535,
    "▁angel": 28048,
    "▁Ethics": 47266,
    "▁VMware": 53004,
    "▁squad": 14177,
    "▁hardest": 23820,
    "的两个": 42039,
    "支出": 15352,
    "urpose": 43262,
    "▁lifetime": 12360,
    "的要": 53100,
    "versation": 39531,
    "辅": 61036,
    "▁перио": 44316,
    "Pt": 45718,
    "▁Kitty": 53037,
    "react": 16286,
    "Her": 30019,
    "isk": 2854,
    "GM": 14729,
    "▁persu": 19257,
    "▁days": 2043,
    "kp": 53196,
    "▁proteins": 20129,
    "▁meet": 2426,
    "фи": 10071,
    "▁guidance": 12925,
    "做出的": 42844,
    "敌": 61254,
    "acl": 47902,
    "建": 59791,
    "▁handed": 16183,
    "的人民": 39475,
    "▁progress": 4615,
    "oit": 41883,
    "智能": 4740,
    "▁H": 715,
    "Ins": 15429,
    "▁crowds": 24629,
    "▁Mach": 20218,
    "花钱": 25966,
    "▁dilemma": 37930,
    "▁sh": 741,
    "精品": 22499,
    "增强": 6938,
    "YS": 25595,
    "多数": 16688,
    "cium": 26167,
    "幸": 60569,
    "并未": 16112,
    "被动": 26088,
    "chini": 53035,
    "ourtes": 52520,
    "\\\"\\": 1350,
    "巾": 61935,
    "▁coordinate": 13131,
    "▁Cream": 29539,
    "一面": 25061,
    "▁Univers": 32041,
    "▁relig": 4680,
    "极": 60141,
    "▁beyond": 4954,
    "unctions": 11599,
    "▁Context": 34233,
    "保存": 16091,
    "打响": 46902,
    "▁mining": 14463,
    "▁mant": 25120,
    "我当时": 38709,
    "PL": 5958,
    "▁Seahawks": 39942,
    "<0x86>": 439,
    "捐": 61461,
    "toos": 33611,
    "<li/>": 60,
    "issan": 36626,
    "▁Sources": 46619,
    "要进一步": 51364,
    "animate": 57509,
    "▁yeah": 13487,
    "的人们": 25988,
    "etting": 45634,
    "▁fight": 3381,
    "▁rests": 43099,
    "通常": 8224,
    "GAN": 20849,
    "nLoc": 33823,
    "會": 60418,
    "一款": 22893,
    "害": 60323,
    "配合": 7784,
    "ounce": 12352,
    "▁meas": 5542,
    "esis": 15485,
    "直面": 52741,
    "▁modulo": 47246,
    "交界": 58134,
    "践": 60841,
    "rium": 9850,
    "▁dict": 12371,
    "ing": 583,
    "▁preparation": 13535,
    "▁shadow": 14950,
    "viation": 18003,
    "合一": 30674,
    "▁vinegar": 31841,
    "────": 34067,
    "▁sne": 15148,
    "唯有": 28873,
    "missible": 29519,
    "ardless": 19300,
    "热搜": 40727,
    "ν": 62838,
    "▁parser": 33083,
    "踩": 62130,
    "環境": 25321,
    "cold": 47016,
    "城市": 2991,
    "方面的": 9159,
    "▁ank": 22761,
    "fee": 43879,
    "移交": 43716,
    "▁Teach": 55081,
    "▁fruits": 18970,
    "▁schema": 25685,
    "▁spa": 4104,
    "▁horny": 41464,
    "ritish": 34106,
    "脆弱": 27416,
    "赶上": 49897,
    "▁Hands": 42912,
    "过后": 21418,
    "▁modes": 8751,
    "grey": 46442,
    "ounced": 14376,
    "轮回": 40673,
    "▁akin": 36815,
    "▁receives": 16576,
    "▁embracing": 41996,
    "▁analyzed": 16429,
    "格局": 14215,
    "说的是": 39594,
    "WRITE": 48117,
    "▁Nets": 58895,
    "▁expecting": 15326,
    "▁speculative": 54062,
    "▁FALSE": 48359,
    "▁installs": 55596,
    "其它": 12488,
    "失败的": 57834,
    "engineering": 50256,
    "▁Communication": 30286,
    "▁printed": 12897,
    "商業": 50869,
    "▁manipulated": 42113,
    "▁CRE": 34586,
    "▁Ан": 32302,
    "▁inspector": 50801,
    "▁sql": 33162,
    "人体": 11417,
    "bery": 24050,
    "向你": 57088,
    "册": 61152,
    "呼叫": 59275,
    "锥": 63204,
    "拥": 60678,
    "净土": 52486,
    "疏忽": 57579,
    "火": 60232,
    "▁Technology": 11037,
    "这名": 36623,
    "private": 4780,
    "perp": 12500,
    "▁PB": 33651,
    "基礎": 37656,
    "Hash": 17407,
    "民主": 11487,
    "▁spouse": 24197,
    "includes": 25642,
    "经济学": 28171,
    "nfor": 4164,
    "▁observations": 7212,
    "calib": 31815,
    "胺": 62226,
    "残联": 57119,
    "▁Trip": 20402,
    "不爱": 30829,
    "asuring": 58929,
    "深圳": 8148,
    "▁slipp": 43303,
    "福德": 53252,
    "▁board": 4165,
    "▁Sustainable": 49725,
    "召开": 6899,
    "▁Doc": 20359,
    "越多": 25405,
    "inar": 17370,
    "范围的": 54182,
    "game": 9416,
    "aints": 10678,
    "尋": 63082,
    "▁glasses": 19349,
    "▁slaught": 58462,
    "plug": 11221,
    "坑": 61769,
    "▁flex": 7115,
    "的风": 19926,
    "reject": 59368,
    "▁corner": 6924,
    "出游": 59316,
    "Net": 5521,
    "спа": 50580,
    "▁precious": 16759,
    "▁consultant": 21998,
    "▁progressed": 45081,
    "一点的": 45661,
    "任": 59889,
    "▁Well": 5239,
    "理由": 9387,
    "沈": 61342,
    "ба": 14175,
    "▁Suz": 30741,
    "很多人都": 33416,
    "▁terrifying": 35050,
    "小事": 27763,
    "▁Constitution": 15253,
    "▁ign": 5032,
    "▁celeb": 12266,
    "))^": 43339,
    "▁twice": 7755,
    "hedron": 50361,
    "几年的": 52868,
    "吸取": 46162,
    "ω": 63695,
    "缴": 61354,
    "光伏": 21963,
    "бра": 31700,
    "alon": 53507,
    "▁upd": 4193,
    "▁Parad": 30771,
    "▁our": 915,
    "驶": 60780,
    "▁Angular": 56448,
    "alities": 14829,
    "emma": 8164,
    "▁submitting": 23076,
    "icone": 38841,
    "▁Silva": 49231,
    "技术的": 16265,
    "nsm": 52009,
    "equiv": 7094,
    "import": 8962,
    "汇报": 14199,
    "▁assume": 5159,
    "人大": 11224,
    "▁tech": 10652,
    "▁thresh": 34497,
    "VALID": 39261,
    "qq": 2220,
    "马": 60157,
    "仍是": 30525,
    "▁loud": 11638,
    "同居": 53678,
    "\\\"]\\": 21050,
    "▁foe": 53828,
    "中国在": 57661,
    "feel": 39927,
    "找回": 52400,
    "oys": 20211,
    "▁totals": 53006,
    "新手": 37505,
    "竞价": 59318,
    "itutional": 10524,
    "▁NS": 13275,
    "мент": 49903,
    "都没有": 10222,
    "”[": 44737,
    "▁gest": 19068,
    "七年": 27501,
    "▁adopt": 5891,
    "帐篷": 50871,
    "▁install": 2657,
    "CA": 8710,
    "▁dynamical": 15899,
    "Nothing": 40723,
    "也會": 46019,
    "▁Audit": 56745,
    "ART": 8745,
    "▁Progress": 23604,
    "面条": 51488,
    "▁tissues": 30372,
    "area": 16713,
    "案": 59987,
    "▁Cod": 37171,
    "▁RH": 35115,
    "Ah": 26750,
    "▁Pennsylvania": 16134,
    "虚拟": 17317,
    "▁Help": 15065,
    "络": 60536,
    "<|unused079|>": 224,
    "roscopic": 34060,
    "▁walking": 7399,
    "适用": 10914,
    "▁lions": 59226,
    "nOffic": 42431,
    "▁sm": 1232,
    "ril": 31813,
    "modified": 36395,
    "傲": 61863,
    "另一个": 12996,
    "一度": 17659,
    "电梯": 21444,
    "和我们": 42693,
    "airy": 18379,
    "{|\\\\": 40449,
    "▁dusty": 47992,
    "革新": 52076,
    "▁undersc": 56782,
    "▁Willie": 50252,
    "京津冀": 53590,
    "writers": 44063,
    "保湿": 49107,
    "深刻的": 25735,
    "蕉": 63001,
    "▁Ko": 27322,
    "upstream": 52368,
    "riculum": 17363,
    "马丁": 55064,
    "▁numbered": 40552,
    "MzIz": 23963,
    "▁downstream": 28020,
    "体检": 19618,
    "▁honey": 17776,
    "▁conclusions": 16471,
    "alez": 34376,
    "报表": 43450,
    "便秘": 32183,
    "記": 61641,
    "upload": 28373,
    "Lay": 9933,
    "jen": 44041,
    "by": 1898,
    "unci": 37624,
    "▁gamb": 47504,
    "▁clown": 57907,
    "if": 655,
    "▁Tuesday": 6055,
    "▁valid": 4513,
    "Cat": 26565,
    "是自己": 34418,
    "npl": 38511,
    "▁intervention": 16973,
    "酸性": 57386,
    "hammer": 49301,
    "权重": 36729,
    "工作": 1234,
    "▁Ukraine": 19852,
    "看重": 40391,
    "}}\\\\\\\\\\": 36896,
    "roduct": 10792,
    "▁Organization": 22204,
    "吵架": 32608,
    "option": 10945,
    "▁Ми": 24906,
    "IAN": 38919,
    "NA": 4346,
    "▁Quad": 40029,
    "▁fals": 33299,
    "append": 8146,
    "▁pitch": 10147,
    "▁equivalence": 24667,
    "nab": 9945,
    "▁performances": 13962,
    "携带": 18606,
    "appings": 35560,
    "▁utilized": 19132,
    "GPS": 44879,
    "Diff": 28881,
    "ethe": 13003,
    "师生": 13166,
    "驳回": 19209,
    "nPosts": 42119,
    "就在于": 44477,
    "不顾": 29126,
    "tSystem": 54440,
    "并列": 57413,
    "▁flap": 58424,
    "陳": 62136,
    "▁Cron": 57779,
    "状况": 9282,
    "▁continued": 6512,
    "男女": 16829,
    "▁Firefox": 21635,
    "▁opera": 29151,
    "▁Tact": 54495,
    "一身": 28697,
    "layout": 17554,
    "逮捕": 31100,
    "truth": 29516,
    "法律服务": 43343,
    "开支": 37755,
    "在最": 52192,
    "▁Martin": 10112,
    "▁probable": 29028,
    "订阅": 36903,
    "研究会": 47975,
    "当日": 25364,
    "▁shades": 27057,
    "ху": 45134,
    "白衣": 56613,
    "nGra": 54399,
    "▁distortion": 25789,
    "▁Tol": 32756,
    "▁Phys": 14539,
    "▁been": 961,
    "▁optics": 38861,
    "▁Letters": 45390,
    "nonymous": 23423,
    "教会": 24184,
    "▁piles": 46360,
    "SH": 9498,
    "缩影": 58257,
    "依据": 8734,
    "考证": 38877,
    "cfc": 56985,
    "IN": 1625,
    "iles": 5082,
    "<0xFD>": 558,
    "平方公里": 33880,
    "▁Canyon": 32188,
    "▁de": 716,
    "▁PCA": 48795,
    "▁wealthy": 21643,
    "▁minority": 17703,
    "ednes": 4868,
    "send": 12826,
    "吧": 60392,
    "▁demonstrations": 31862,
    "反正": 21087,
    "▁Olive": 51297,
    "▁hang": 9759,
    "迷茫": 29356,
    "least": 46982,
    "▁fav": 2679,
    "▁mouse": 12669,
    "的一位": 35831,
    "布拉": 43212,
    "IDIA": 33154,
    "死": 60311,
    "▁heavenly": 51039,
    "tu": 26190,
    "删": 61910,
    "姆": 61321,
    "半年": 8933,
    "扑": 61967,
    "▁positive": 3674,
    "Rot": 35847,
    "▁Bottom": 35686,
    "區": 61202,
    "▁evapor": 41007,
    "▁Cran": 59074,
    "aturing": 35569,
    "人道": 57514,
    "▁ale": 42083,
    "cdot": 3453,
    "经历了": 21324,
    "isheries": 47580,
    "▁curly": 58057,
    "bert": 6800,
    "天气": 9468,
    "lor": 6954,
    "wegian": 34269,
    "茄子": 57253,
    "差": 60370,
    "nGreat": 16107,
    "这个名字": 51214,
    "rinsic": 56379,
    "▁caramel": 40953,
    "▁decl": 4479,
    "搭档": 45175,
    "▁md": 45263,
    "火花": 45862,
    "多云": 47277,
    "是对": 13069,
    "▁dolls": 39733,
    "elman": 53510,
    "▁pecul": 28278,
    "▁initial": 3654,
    "对证据": 54231,
    "Neill": 49620,
    "舉": 61966,
    "辩护人": 48778,
    "无不": 45423,
    "▁eV": 22596,
    "▁thesis": 23613,
    "bles": 8914,
    "variant": 15275,
    "▁richness": 54620,
    "▁indicate": 8715,
    "▁usability": 44817,
    "自主": 10262,
    "enment": 40776,
    "▁dd": 51708,
    "Chat": 27342,
    "nBrian": 45515,
    "于所述": 57260,
    "針": 62999,
    "conv": 16367,
    "▁Musical": 53269,
    "知名": 13627,
    "也没": 11300,
    "▁consisted": 31060,
    "Interval": 35826,
    "鄙": 63400,
    "毫不犹豫": 56040,
    "ound": 974,
    "request": 7332,
    "▁nil": 8357,
    "▁ranch": 37966,
    "Offset": 21365,
    "tresult": 56381,
    "▁subscriptions": 48435,
    "了一场": 27185,
    "▁reef": 38281,
    "▁souven": 59342,
    "▁composing": 54060,
    "ę": 63620,
    "▁Global": 11492,
    "实践活动": 34834,
    "現代": 47803,
    "▁империя": 56997,
    "▁Otherwise": 18378,
    "▁bacteria": 18184,
    "笑着": 24149,
    "制成": 30934,
    "Party": 53111,
    "坚持": 4650,
    "otic": 5860,
    "backed": 41366,
    "你在": 17056,
    "▁defaults": 34534,
    "复试": 35316,
    "Iref": 57421,
    "▁guests": 9529,
    "▁controllers": 31608,
    "▁Corpor": 11636,
    "间接": 32087,
    "▁Spe": 5473,
    "▁Sou": 48741,
    "off": 2869,
    "▁regener": 29848,
    "污染": 9372,
    "了一": 2244,
    "拓展": 14876,
    "▁Arms": 46835,
    "回": 59890,
    "壇": 63692,
    "▁Add": 4647,
    "production": 24811,
    "▁fuels": 31438,
    "从这个": 44601,
    "痰": 62554,
    "OTO": 32583,
    "oking": 8314,
    "ds": 1994,
    "▁messing": 47445,
    "将与": 50539,
    "▁dominance": 32035,
    "'})": 52219,
    "▁supplying": 37641,
    "▁arr": 12716,
    "▁files": 4229,
    "装置": 6376,
    "▁Corporation": 15092,
    "lod": 56432,
    "rs": 3662,
    "textrm": 8890,
    "▁Ob": 3397,
    "▁rolling": 14967,
    "▁benchmarks": 35513,
    "▁свър": 53922,
    "deg": 9494,
    "▁tick": 5658,
    "▁activism": 44802,
    "▁weed": 25568,
    "boys": 22696,
    "NDY": 35146,
    "耕地": 37941,
    "党风廉政": 44711,
    "stated": 45348,
    "调节": 12243,
    "movie": 42221,
    "诉请": 51382,
    "实地": 15896,
    "▁specify": 16226,
    "大陸": 31601,
    "Buy": 39564,
    "▁Private": 20771,
    "作案": 42886,
    "▁programming": 10217,
    "<|unused065|>": 210,
    "可以做": 57497,
    "心中有": 59104,
    "▁unity": 17368,
    "意大利": 16740,
    "reed": 3193,
    "human": 18969,
    "▁Built": 38068,
    "▁ideological": 38834,
    "本质上": 45320,
    "」（": 46879,
    "imate": 2609,
    "▁traction": 34248,
    "zschild": 46452,
    "▁Social": 8684,
    "死者": 40084,
    "执行": 4321,
    "pool": 10909,
    "红十字": 48975,
    "▁variants": 23266,
    "窗帘": 52608,
    "▁Orleans": 19093,
    "GY": 43183,
    "▁endorsement": 32771,
    "量和": 51519,
    "inates": 7306,
    "▁url": 13167,
    "commits": 20947,
    "▁ransom": 52524,
    "nolimits": 33449,
    "rapper": 16071,
    "证实": 13361,
    "▁murders": 37860,
    "generated": 24645,
    "AN": 2055,
    "nTest": 32927,
    "▁NH": 33604,
    "▁linked": 9880,
    "▁Lan": 31806,
    "▁Soon": 24819,
    "road": 8090,
    "醫學": 56582,
    "傷": 62559,
    "▁Edd": 23845,
    "nMusic": 47874,
    "队": 60010,
    "▁few": 1573,
    "▁bloody": 26070,
    "nLike": 10653,
    "备考": 29304,
    "▁Unlike": 19453,
    "▁renovation": 35450,
    "Apply": 56467,
    "柜": 61649,
    "ico": 5950,
    "rador": 58857,
    "无限": 16436,
    "ILS": 52405,
    "Month": 29563,
    "▁surgeon": 31827,
    "adam": 44979,
    "▁与": 48475,
    "读": 60284,
    "▁plurality": 30594,
    "的过程": 14380,
    "eps": 1991,
    "入境": 36985,
    "▁fain": 52159,
    "▁hurting": 29679,
    "hop": 11727,
    "▁ment": 2500,
    "▁slab": 41730,
    "ays": 954,
    "▁contains": 5007,
    "▁Fah": 54802,
    "WH": 14822,
    "函": 61599,
    "okemon": 25001,
    "▁Rare": 55617,
    "这些问题": 34811,
    "icult": 3050,
    "▁wear": 6635,
    "▁scient": 5355,
    "▁Rich": 6912,
    "MU": 48169,
    "襄": 62878,
    "▁person": 1514,
    "校": 59951,
    "ainted": 23791,
    "▁whoever": 26479,
    "溯": 62570,
    "▁puzzle": 22276,
    "ma": 1004,
    "▁Redd": 55835,
    "通知": 6835,
    "▁goalie": 51719,
    "较多的": 53414,
    "nsic": 35059,
    "請": 61919,
    "▁attracted": 18201,
    "▁Stockholm": 54715,
    "nQu": 8555,
    "▁load": 3963,
    "▁consequences": 11337,
    "坪": 62219,
    "▁ml": 37002,
    "本的": 45643,
    "恭": 62530,
    "Uns": 55909,
    "▁Taliban": 29084,
    "▁tonnes": 43369,
    "▁Alert": 42409,
    "▁aged": 16328,
    "的办法": 52155,
    "▁bent": 25886,
    "这部分": 41049,
    "Cam": 21640,
    "▁wom": 1909,
    "▁torture": 23817,
    "成一": 42983,
    "变得更": 47540,
    "地球": 12308,
    "后又": 48013,
    "低": 60127,
    "Sensor": 55946,
    "蓮": 63866,
    "up": 674,
    "телите": 57275,
    "四肢": 45394,
    "高分": 44039,
    "大面积": 42846,
    "错的": 37699,
    "▁Jessica": 28014,
    "几何": 41783,
    "▁ringing": 49168,
    "▁unpleasant": 35977,
    "本公司": 57553,
    "我这个": 57982,
    "mann": 10974,
    "▁canonical": 19208,
    "▁collector": 32552,
    ":#": 42870,
    "bnb": 49290,
    "２": 89,
    "抢救": 29006,
    "▁(~": 53130,
    "▁indu": 7290,
    "▁counterparts": 24468,
    "manager": 19372,
    "▁dont": 11196,
    "琦": 62939,
    "five": 23241,
    "▁Ctrl": 48274,
    "▁cul": 15132,
    "▁Effects": 41302,
    "▁artificially": 51967,
    "▁Burn": 20938,
    "ket": 8900,
    "omore": 27144,
    "izontal": 28965,
    "▁Matrix": 27605,
    "<|unused154|>": 299,
    "▁pra": 18061,
    "▁guards": 23345,
    "uddle": 36845,
    "▁aver": 10092,
    "select": 6968,
    "▁finger": 10955,
    "OW": 4710,
    "▁earlier": 4811,
    "IFAR": 35435,
    "webkit": 47505,
    "檀": 63748,
    "))$": 13048,
    "ntitle": 29198,
    "匆": 62086,
    "商铺": 38424,
    "▁hone": 35855,
    "▁recursive": 41396,
    "lfloor": 28498,
    "gging": 11806,
    "▁passage": 15072,
    "colors": 34035,
    "▁Lanka": 37533,
    "的对": 28657,
    "AUT": 40172,
    "一字": 45277,
    "▁годи": 10145,
    "estamp": 7647,
    "gi": 12990,
    "imbabwe": 39167,
    "▁feature": 1856,
    "季后": 38161,
    "法则": 35122,
    "▁reacted": 48166,
    "Gal": 35517,
    "rations": 15748,
    "category": 15045,
    "▁lips": 17695,
    "淋巴": 35123,
    "fg": 21741,
    "<|unused060|>": 205,
    "Pajama": 5339,
    "maps": 27525,
    "razil": 11985,
    "<0x71>": 418,
    "$}": 11543,
    "另一种": 27827,
    "▁confinement": 36118,
    "▁fireworks": 36507,
    "充当": 57068,
    "树木": 29822,
    "盆": 61594,
    "▁intersect": 26728,
    "▁Berry": 30047,
    "▁sliced": 37490,
    "▁restraint": 53097,
    "坏的": 56491,
    "Hide": 56128,
    "指出": 6944,
    "▁Just": 3494,
    "▁ove": 36464,
    "icative": 37455,
    "noper": 45732,
    "自动驾驶": 29801,
    "▁Krist": 24834,
    "有一": 4225,
    "创始人": 22225,
    "▁Gi": 14736,
    "▁interstellar": 44411,
    "▁Ricci": 45349,
    "▁bans": 45957,
    "uted": 7535,
    "▁endured": 44680,
    "▁dial": 16802,
    "文化": 2446,
    "顶": 60705,
    "▁millenn": 31046,
    "dev": 5987,
    "▁Rey": 48700,
    "抗氧化": 53105,
    "▁Guarantee": 54658,
    "astro": 27988,
    "依法组成合议庭": 56012,
    "▁Error": 14387,
    "打败": 41337,
    "▁trunk": 29723,
    "实效": 31556,
    "atches": 47873,
    "▁flaw": 17258,
    "▁tale": 17911,
    "uggestions": 46060,
    "▁rooms": 9037,
    "▁allegations": 19930,
    "nABOUT": 56651,
    "了一把": 56707,
    "▁parad": 14228,
    "使用的": 15413,
    "▁rede": 27045,
    "▁piano": 18988,
    "compet": 25098,
    "▁rou": 27552,
    "converted": 49868,
    "▁demolition": 54324,
    "感慨": 26178,
    "methods": 37414,
    "我们必须": 45163,
    "Stream": 10459,
    "▁haunting": 57820,
    "钻石": 38467,
    "专场": 53910,
    "▁disclose": 29804,
    "客服": 32218,
    "▁bullying": 32986,
    "专用": 19827,
    "判断": 8882,
    "固然": 37580,
    "▁photographers": 29354,
    "芬芳": 58437,
    "▁broadcasts": 51137,
    "nCompared": 57030,
    "殷": 62627,
    "挤压": 38571,
    "long": 6236,
    "▁Obama": 4986,
    "科长": 42177,
    "▁Mill": 14592,
    "nAll": 5286,
    "祀": 63264,
    "▁celebrate": 12087,
    "▁Minor": 41487,
    "磷酸": 36252,
    "▁measurements": 7813,
    "rwx": 56150,
    "▁NI": 31906,
    "▁\\\\&": 13397,
    "escape": 49077,
    "turb": 7391,
    "video": 14910,
    "化妆": 21151,
    "▁finance": 13416,
    "▁BEST": 39368,
    "是他们": 47325,
    "嚴": 62450,
    "vepfs": 1062,
    "Call": 10329,
    "▁sanctions": 24959,
    "Proto": 53919,
    "注明": 32762,
    "ect": 708,
    "▁determ": 2683,
    "rock": 20433,
    "▁rept": 54583,
    "起來": 34304,
    "以身": 58007,
    "褐色": 57621,
    "Param": 16495,
    "▁phot": 2096,
    "nMost": 10290,
    "ръц": 45065,
    "名气": 46384,
    "▁tired": 11148,
    "}=\\": 47193,
    "prove": 17448,
    "最大限度": 38639,
    "▁Т": 7841,
    "NG": 11882,
    "下半年": 24728,
    "中有": 13900,
    "▁Neo": 39954,
    "尹": 62634,
    "不听": 41862,
    "▁Indigenous": 53045,
    "沟": 60900,
    "nyder": 41938,
    "▁patent": 17494,
    "▁Det": 6644,
    "星的": 45154,
    "speed": 15481,
    "▁clinics": 34287,
    "AT": 1765,
    "广大群众": 51522,
    "▁Send": 23713,
    "▁Jo": 10695,
    "庄园": 59527,
    "▁solidarity": 36960,
    "绩效": 24525,
    "кември": 51440,
    "▁affiliate": 16733,
    "这项": 20411,
    "▁Experience": 19774,
    "▁airing": 57062,
    "^{+": 12058,
    "▁immediate": 10630,
    "▁plat": 41365,
    "燃料电池": 44142,
    "▁French": 6593,
    "edges": 25277,
    "诉至": 49243,
    "读取": 38656,
    "▁Hawaii": 21631,
    "prem": 42879,
    "医疗费": 23026,
    "estern": 5653,
    "▁excessive": 19627,
    "kn": 23165,
    "Config": 6713,
    "filling": 55047,
    "双": 60248,
    "▁APIs": 36767,
    "▁Ре": 37817,
    "Suite": 48187,
    "thren": 54921,
    "不仅仅是": 26024,
    "▁fragment": 29821,
    "$^+$": 47164,
    "▁coord": 5498,
    "▁Grill": 46916,
    "▁Liberals": 54935,
    "▁Arthur": 24799,
    "right": 1188,
    "atinum": 28942,
    "打拼": 56849,
    "相关": 2804,
    "观": 60060,
    "的最": 20389,
    "LES": 35865,
    "不平": 45147,
    "▁ruth": 45497,
    "在内": 34414,
    "TC": 7415,
    "logging": 25042,
    "的一半": 50170,
    "▁stage": 4826,
    "这么多年": 43241,
    "佩戴口罩": 56625,
    "午餐": 38786,
    "))=": 37087,
    "芬兰": 50488,
    "▁B": 690,
    "何况": 27235,
    "标志着": 36648,
    "▁акт": 45535,
    "▁VB": 57257,
    "▁personally": 9363,
    "▁allocate": 40910,
    "▁/\\": 41311,
    "▁rooft": 45461,
    "▁thats": 21182,
    "▁jurisdictions": 44215,
    "▁hangs": 42617,
    "當中": 58664,
    "lass": 15472,
    "▁fact": 1502,
    "}}{": 5359,
    "Loading": 34567,
    "替补": 46747,
    "▁rarely": 12535,
    "▁bott": 3442,
    "Ign": 33696,
    "相对": 6620,
    "allocate": 55394,
    "que": 5085,
    "▁Aid": 31805,
    "▁artifact": 45170,
    "nsmall": 32315,
    "nanother": 50006,
    "锻": 61620,
    "hong": 54232,
    "也有": 4715,
    "党": 60097,
    "▁Knight": 22931,
    "▁WA": 28464,
    "Saturday": 30891,
    "nterms": 53334,
    "▁opioid": 57644,
    "▁Sessions": 44359,
    "▁concent": 6814,
    "日": 59720,
    "Created": 32688,
    "▁transmissions": 56975,
    "▁overwhelmingly": 48397,
    "官": 60396,
    "▁variety": 5039,
    "关键词": 32996,
    "ricket": 40951,
    "障": 60529,
    "始皇": 57700,
    "▁suprem": 31693,
    "udge": 16982,
    "solete": 40215,
    "GN": 24210,
    "▁Fran": 37532,
    "▁prose": 43612,
    "ogenesis": 44084,
    "给孩子": 20010,
    "▁unavoid": 52831,
    "▁analytical": 18097,
    "椅": 61890,
    "重视": 8134,
    "erve": 4723,
    "▁Stir": 48743,
    "▁nu": 24912,
    "PARAM": 44755,
    "ste": 7318,
    "▁matt": 21686,
    "打动": 45062,
    "Control": 13715,
    "▁Danny": 26458,
    "▁infrastructure": 10105,
    "DIT": 13092,
    "美丽的": 21374,
    "native": 25935,
    "懦": 63972,
    "▁Cre": 19669,
    "采访时": 29323,
    "ky": 4557,
    "▁weddings": 38272,
    "']": 3452,
    "▁BF": 41723,
    "▁aug": 14368,
    "regions": 57111,
    "逃跑": 50708,
    "潜力": 21167,
    "▁thoughtful": 26618,
    "▁Saw": 35601,
    "着我": 26485,
    "年全国": 52689,
    "▁rs": 46441,
    "▁Benjamin": 29634,
    "他们": 1575,
    "▁senators": 36807,
    "实施的": 53303,
    "gk": 57245,
    "▁inevitable": 21043,
    "业有限公司": 37152,
    "：": 106,
    "forest": 41874,
    "Foundation": 54449,
    "▁torrent": 35966,
    "档次": 48348,
    "假": 60471,
    "▁earned": 10989,
    "精度": 29717,
    "DAT": 53791,
    "▁audit": 20417,
    "叨": 63079,
    "tical": 6596,
    "通的": 39244,
    "▁Access": 13287,
    "▁kink": 50399,
    "present": 20547,
    "▁lock": 6105,
    "▁OK": 10819,
    "▁gathered": 15185,
    "▁trou": 5552,
    "▁joke": 15233,
    "▁euro": 17327,
    "▁coats": 37060,
    "▁Stuart": 37220,
    "情商": 42783,
    "<|unused031|>": 176,
    "erer": 13517,
    "出租": 16172,
    "谈判": 22628,
    "都会": 5173,
    "nFollowing": 18278,
    "orders": 10002,
    "人死亡": 52221,
    "▁legisl": 11675,
    "▁Vancouver": 20721,
    "▁Maur": 35684,
    "▁skipped": 40253,
    "ylvan": 14189,
    "重回": 49834,
    "进一步完善": 54782,
    "cheduled": 48315,
    "占总": 52429,
    "process": 1066,
    "汉语": 34912,
    "▁NEW": 17826,
    "农田": 37184,
    "mitting": 13945,
    "米饭": 46655,
    "DNS": 56728,
    "bed": 6167,
    "mg": 12072,
    "东西": 4298,
    "酌": 62871,
    "多彩": 24944,
    "▁Perl": 42290,
    "alo": 8724,
    "nTeam": 47148,
    "▁Baptist": 27547,
    "roduce": 46359,
    "▁lump": 45867,
    "▁Hawk": 52700,
    "▁Academy": 11967,
    "EU": 38884,
    "外科": 26754,
    "氨基": 27156,
    "总裁": 18863,
    "这支": 44057,
    "▁seams": 53264,
    "▁commanding": 58836,
    "oshop": 27850,
    "nHost": 58211,
    "})}{": 40108,
    "urned": 57803,
    "硕士": 16813,
    "▁Hz": 30121,
    "пен": 42320,
    "▁finances": 28686,
    "▁училище": 58695,
    "试": 60128,
    "shield": 43134,
    "Search": 12678,
    "istical": 9390,
    "▁expansions": 44410,
    "最佳": 10140,
    "定": 59723,
    "▁rev": 4822,
    "▁quoting": 49802,
    "▁caves": 51599,
    "chnology": 20648,
    "▁positional": 50141,
    "eter": 3437,
    "▁Pr": 3279,
    "ucking": 31222,
    "一样": 3196,
    "▁Rap": 19790,
    "nPhone": 46915,
    "义诊": 52630,
    "接触到": 56586,
    "蹦": 63227,
    "▁Oscar": 21743,
    "mv": 30666,
    "▁Plaza": 34194,
    "▁avocado": 54559,
    "市场监督管理局": 56318,
    "▁outskirts": 56663,
    "▁PVC": 58848,
    "HO": 21406,
    "▁occurrence": 24998,
    "▁examines": 34971,
    "▁MacBook": 26215,
    "office": 33049,
    "對於": 22894,
    "柠檬": 39034,
    "▁abstraction": 48195,
    "nSh": 5978,
    "sales": 49771,
    "elves": 55897,
    "▁luggage": 36818,
    "▁abroad": 17128,
    "Alt": 39191,
    "▁exhausting": 55202,
    "inger": 5376,
    "ly": 627,
    "nNumber": 35170,
    "Optim": 42766,
    "联邦": 24482,
    "nDetails": 38818,
    "联网": 6489,
    "普及": 16917,
    "▁Rice": 24315,
    "rague": 47301,
    "▁amplitude": 11597,
    "veh": 37758,
    "schema": 20453,
    "臺灣": 35883,
    "▁collapsed": 29714,
    "▁clin": 7071,
    "▁beads": 34578,
    "▁поли": 29371,
    "第三个": 35779,
    "▁hurry": 33540,
    "节目的": 53412,
    "动的": 15295,
    "▁capt": 4783,
    "▁circles": 14888,
    "▁adjacent": 15376,
    "delta": 2646,
    "recipe": 54134,
    "▁theme": 8117,
    "acco": 41018,
    "▁when": 950,
    "▁lady": 12845,
    "来临": 25605,
    "osex": 16256,
    "▁striving": 48102,
    "▁Fed": 10417,
    "▁Hudson": 28375,
    "By": 4932,
    "▁imagery": 28562,
    "▁reversed": 28921,
    "▁steals": 43504,
    "▁colors": 7590,
    "▁brew": 16933,
    "过去": 5035,
    "ads": 6328,
    "Smart": 40100,
    "fav": 47481,
    "采用了": 23803,
    "▁eggs": 12771,
    "江市": 38890,
    "▁Precision": 55569,
    "<|unused004|>": 149,
    "嘲笑": 43108,
    "orman": 46801,
    "▁fluctuations": 14362,
    "▁opportunities": 6772,
    "▁Documents": 52278,
    "ale": 1591,
    "▁mapped": 26688,
    "▁hunger": 26395,
    "▁profit": 10083,
    "drop": 12278,
    "agues": 10648,
    "在一起": 7193,
    "matical": 48723,
    "在哪里": 24249,
    "”—": 40313,
    "<|unused141|>": 286,
    "nV": 3254,
    "特的": 35516,
    "▁tee": 36617,
    "▁funds": 7823,
    "▁Cats": 44729,
    "课堂上": 41251,
    "入": 59800,
    "恤": 63293,
    "炙": 63654,
    "▁concluded": 16114,
    "weixin": 2307,
    "\\\"/": 12839,
    "ICAL": 28882,
    "usterity": 49048,
    "▁Matters": 51085,
    "▁ergon": 56316,
    "婦": 63203,
    "elif": 21974,
    "张": 60054,
    "wyn": 50169,
    "可以被": 51801,
    "shot": 10963,
    "烟": 60749,
    "▁Cities": 37405,
    "▁electro": 10921,
    "箭": 61696,
    "感的": 22367,
    "functions": 20858,
    "▁Bash": 38166,
    "Wed": 46068,
    "陸": 62355,
    "ttp": 2779,
    "生源": 57314,
    "▁limit": 3555,
    "工作任务": 50640,
    "进行了审理": 33216,
    "▁tremend": 15823,
    "stellar": 31416,
    "▁Eat": 35994,
    "qp": 40195,
    "sur": 12746,
    "语气": 35894,
    "大家好": 42068,
    "▁SVM": 56370,
    "择": 60325,
    "者们": 59457,
    "▁licensing": 27162,
    "▁Education": 9191,
    "▁congregation": 37253,
    "▁voting": 12474,
    "▁unsuccessful": 40058,
    "▁resultant": 51345,
    "▁blogger": 22618,
    "▁Soft": 9636,
    "nPass": 36278,
    "Eu": 54533,
    "▁Atl": 8872,
    "®": 61324,
    "▁Interface": 37558,
    "ocytes": 53090,
    "拆卸": 57313,
    "文件的": 59141,
    ")\\": 847,
    "leigh": 38312,
    "非常大": 48309,
    "container": 13579,
    "▁disabling": 56057,
    "atisfied": 40425,
    "营养": 7816,
    "▁Emb": 19789,
    "▁blunt": 38483,
    "义务教育": 38894,
    "风吹": 32777,
    "氟": 62938,
    "▁websites": 9249,
    "combination": 39213,
    "kappa": 5211,
    "条第一款": 35781,
    "▁excited": 6422,
    "▁trimmed": 49698,
    "姚": 62071,
    "▁goat": 41486,
    "▁opening": 6204,
    "就业": 7967,
    "那时的": 54397,
    "Jeff": 57502,
    "月至": 27648,
    "）”": 38849,
    "▁Viv": 46764,
    "教研": 21264,
    "呵呵": 30069,
    "▁Last": 8722,
    "▁synd": 18137,
    "實": 61044,
    "▁PCs": 33243,
    "以防": 47292,
    "资金": 4931,
    "破": 60381,
    "相思": 57416,
    "nCall": 29281,
    "生死": 27213,
    "未成年": 49308,
    "▁ру": 40652,
    "vskip": 23278,
    "▁Me": 3418,
    "标配": 54388,
    "op": 698,
    "rowth": 17752,
    "▁blood": 4824,
    "▁Academ": 10250,
    "▁priceless": 57571,
    "▁thriller": 37627,
    "▁renting": 37686,
    "▁overall": 5043,
    "▁assistants": 46731,
    "▁params": 20264,
    "▁atten": 47424,
    "tb": 12912,
    "▁Johns": 43332,
    "有你": 52402,
    "意见和建议": 57163,
    "等症状": 40482,
    "▁ans": 11517,
    "凸": 61855,
    "▁Ads": 44638,
    "▁whales": 47153,
    "wo": 1014,
    "▁eligible": 14299,
    "讲座": 15361,
    "erick": 30959,
    "random": 13344,
    "▁authorized": 20785,
    "的角度": 21212,
    "军工": 46479,
    "回避": 40928,
    "▁Commerce": 24138,
    "ристо": 46802,
    "大象": 54874,
    "照亮": 48862,
    "▁cocaine": 37679,
    "仅为": 35768,
    "比我": 40247,
    "essing": 57164,
    "▁>=": 14370,
    "通信": 11733,
    "到达": 13151,
    "▁screen": 3809,
    "严重的": 18229,
    "程度": 5876,
    "arxiv": 5900,
    "sight": 20355,
    "被告刘": 54749,
    "采购": 12408,
    "▁powder": 14258,
    "艰辛": 35079,
    "▁swarm": 54925,
    "客戶": 55154,
    "Posted": 37957,
    "▁accomplishments": 35706,
    "ailure": 20713,
    "accessible": 50233,
    "▁therapy": 11314,
    "]$": 5285,
    "▁Flore": 36901,
    "▁Specialist": 42901,
    "寥": 63220,
    "▁cart": 7793,
    "▁裁": 58041,
    "袋子": 57290,
    "▁Alternatively": 31958,
    "无私": 33443,
    "澳": 61210,
    "▁torus": 34213,
    "好看的": 59217,
    "营业执照": 44388,
    "Windows": 14504,
    "▁openly": 23622,
    "绝不": 46927,
    "▁Graphic": 57536,
    "低调": 30956,
    "抓紧": 34252,
    "▁alert": 13550,
    "▁mus": 2172,
    "bike": 40771,
    "▁Postal": 57280,
    "Child": 18243,
    "亮度": 55370,
    "DIR": 20654,
    "亂": 63288,
    "rg": 34739,
    "▁easy": 2616,
    "义务": 8520,
    "▁Banks": 31382,
    "вни": 39084,
    "黏": 62582,
    "▁adventures": 20847,
    "政法委": 47691,
    "▁surprises": 30744,
    "出版社": 21169,
    "也无法": 32259,
    ")$)": 36274,
    "从中": 23218,
    "ít": 37793,
    "二百": 52985,
    "aji": 53025,
    "均为": 23541,
    "台的": 49304,
    "适合": 6923,
    "社区居民": 43701,
    "▁architectural": 28609,
    "ема": 35133,
    "▁estimation": 12523,
    "ibernate": 49738,
    "▁Naval": 46526,
    "苯": 62205,
    "武术": 39361,
    "▁liberation": 47736,
    "nBel": 43328,
    "开玩笑": 40276,
    "橄": 63552,
    "▁types": 4210,
    "▁deduced": 53070,
    "extension": 23703,
    "▁ted": 35382,
    "▁narratives": 46585,
    "▁alleged": 10039,
    "▁html": 22136,
    "电动汽车": 35351,
    "传出": 46160,
    "經常": 57316,
    "▁полу": 29269,
    "▁obligated": 53840,
    "澡": 62498,
    "▁film": 3295,
    "嘴唇": 47157,
    "▁greatly": 11673,
    "▁logically": 54350,
    "设置有": 26233,
    "么": 59774,
    "她就": 32852,
    "CEO": 26089,
    "nvery": 35636,
    "▁disposable": 45443,
    "▁already": 2143,
    "科学技术": 32477,
    "▁invoice": 40439,
    "▁Conf": 14895,
    "▁resist": 6251,
    "ynam": 3286,
    "tically": 17543,
    "<|unused145|>": 290,
    "▁accom": 4063,
    "还没有": 12234,
    "ndis": 19203,
    "▁dil": 13248,
    "arge": 1776,
    "▁delivery": 7492,
    "sequence": 22378,
    "ogens": 50306,
    "вър": 15161,
    "sterdam": 30815,
    "▁catast": 26444,
    "应当依照": 46423,
    "却": 60228,
    "дове": 39791,
    "ivate": 31103,
    "fish": 16984,
    "▁instincts": 47030,
    "发生的": 20252,
    "頓": 63693,
    "├──": 50809,
    "ACE": 14044,
    "很高": 20079,
    "doch": 59393,
    "入党": 32638,
    "▁DON": 38726,
    "UC": 11700,
    "▁settled": 15953,
    "▁LSTM": 32466,
    "previous": 39406,
    "▁YE": 33935,
    "因为是": 54203,
    "甚至在": 50431,
    "BB": 11528,
    "aco": 21799,
    "Apple": 25512,
    "bid": 29468,
    "浏览器": 45111,
    "Bul": 49816,
    "經": 60854,
    "大量的": 14041,
    "树叶": 43715,
    "<|unused067|>": 212,
    "▁rout": 4325,
    "▁SHOULD": 52939,
    "规": 59940,
    "▁dupl": 20525,
    "▁digging": 29098,
    "健身": 15119,
    "nBeing": 26112,
    "用户的": 28830,
    "kip": 28818,
    "dump": 31221,
    "▁Remark": 36084,
    "廢": 63844,
    "▁vortex": 25339,
    "▁Ideal": 56714,
    "▁historical": 9652,
    "}({\\\\": 16963,
    "▁illustrated": 15146,
    "缔约": 58711,
    "crets": 15514,
    "▁preventing": 19634,
    "▁Head": 10774,
    "у": 60007,
    "与众": 46779,
    "科创": 29391,
    "itance": 25724,
    "xrightarrow": 49405,
    "妒": 63174,
    "▁series": 2896,
    "ief": 4090,
    "report": 19786,
    "▁reusable": 56324,
    "diff": 13158,
    "工作情况": 54707,
    "icker": 17324,
    "学习贯彻": 58618,
    "▁troubled": 31909,
    "县人民法院": 34676,
    "▁inde": 56924,
    "情的": 19402,
    "讲课": 49222,
    "yp": 1718,
    "号": 60100,
    "▁spawn": 28390,
    "开着": 44699,
    "rage": 10106,
    "各类": 9660,
    "cosystem": 19216,
    "nprocess": 32384,
    "烙": 63848,
    "洗衣机": 54546,
    "require": 13713,
    "ният": 25837,
    "字符串": 49397,
    "组成合议庭": 38972,
    "后卫": 40414,
    "▁impression": 14410,
    "▁bell": 23291,
    "也有一些": 55583,
    "”……": 56095,
    "▁stalk": 54553,
    "多": 59691,
    "ega": 3340,
    "皆": 61474,
    "pH": 45606,
    "▁pt": 39877,
    "实验": 6805,
    "▁creatures": 17879,
    "OC": 5008,
    "izz": 10521,
    "▁individually": 20877,
    "▁club": 5187,
    "▁crude": 26968,
    "Mill": 31164,
    "上前": 35563,
    "缓": 60828,
    "▁expressive": 51346,
    "/**\\": 4551,
    "uesday": 4840,
    "nMan": 17780,
    "▁imagined": 24611,
    "pop": 10462,
    "▁Forever": 50138,
    "▁Hunter": 21045,
    "▁morale": 55622,
    "▁Haley": 51410,
    "▁entanglement": 21119,
    "習慣": 54117,
    "edit": 13476,
    "▁placement": 19508,
    "hash": 14529,
    "research": 34714,
    "paths": 37310,
    "建设项目": 33905,
    "入住": 29346,
    "钱的": 34358,
    "patial": 57530,
    "▁ss": 53255,
    "bursts": 57476,
    "▁Bh": 31108,
    "逍": 63933,
    "▁publish": 15440,
    "▁incom": 34381,
    "薇": 62412,
    "strom": 29948,
    "一词": 49948,
    "迎来了": 30101,
    "▁Gaussian": 11299,
    "Place": 33280,
    "▁versus": 10847,
    "逊": 62020,
    "参加会议": 34573,
    "nwas": 14679,
    "▁lod": 31952,
    "▁'%": 41867,
    "HE": 2834,
    "吃了": 18747,
    "▁sche": 3721,
    "▁tweeted": 33507,
    "▁reconstructed": 26749,
    "phas": 8144,
    "人们的": 22635,
    "▁Officials": 56383,
    "▁`${": 59325,
    "扩张": 21183,
    "娶": 62584,
    "▁elongated": 55625,
    "▁categorical": 53294,
    "的特殊": 58018,
    "▁cellphone": 52234,
    "第二百": 20009,
    "urb": 3219,
    "▁Dh": 41182,
    "▁night": 2237,
    "笑道": 42673,
    "adem": 5024,
    "▁illuminated": 51966,
    "▁Basin": 54009,
    "▁coils": 54500,
    "喜欢的人": 52564,
    "剪纸": 44808,
    "▁LC": 40086,
    "▁HTC": 30428,
    "▁campuses": 43907,
    "可以在": 12639,
    "色素": 56265,
    "積": 62290,
    "的手机": 51544,
    "的用户": 43973,
    "取出": 33095,
    "OVED": 54751,
    "周一": 28474,
    "较好的": 33892,
    "胸": 61378,
    "时节": 32723,
    "QS": 40286,
    "稣": 62629,
    "隶": 62742,
    "丰富多彩": 37531,
    "▁ecc": 24753,
    "▁modifier": 54321,
    "▁architect": 6041,
    "something": 24965,
    "▁synchron": 18054,
    "кръ": 42023,
    "▁ang": 3444,
    "ANU": 58077,
    "nLead": 39956,
    "views": 4219,
    "出轨": 29776,
    "oad": 4197,
    "▁exception": 7120,
    "▁practition": 20281,
    "▁When": 2364,
    "区": 59782,
    "本书": 12628,
    "将是": 26372,
    "QUEST": 36311,
    "Rv": 57487,
    "▁USS": 57987,
    "venient": 50526,
    "▁objections": 44747,
    "▁nerves": 33860,
    "血栓": 48349,
    "▁Excel": 27410,
    "教的": 37483,
    "花卉": 35404,
    "笑": 60436,
    "▁този": 39225,
    "▁hurts": 26288,
    "isi": 29943,
    "▁creates": 10626,
    "ī": 63300,
    "▁analysed": 42110,
    "erville": 47838,
    "GEN": 48907,
    "▁Viagra": 43389,
    "逆行": 52291,
    "▁Iraq": 8518,
    "▁message": 3842,
    "转账": 24355,
    "ipple": 37660,
    "inally": 3515,
    "肥胖": 27645,
    "everse": 43578,
    "aturated": 47005,
    "文科": 43912,
    "▁Customs": 51604,
    "▁Plains": 53118,
    "的情况下": 9545,
    "多了": 9501,
    "大學": 16618,
    "тел": 8019,
    "neut": 21671,
    "Proxy": 30477,
    "▁knows": 5449,
    "▁also": 962,
    "不懂": 16633,
    "极大地": 49548,
    "Car": 16300,
    "▁intrinsic": 19576,
    "▁subgraph": 39796,
    "动机": 34583,
    "▁stimulate": 36396,
    "资质": 22390,
    "▁Fre": 14479,
    "Benz": 57013,
    "ullen": 55783,
    "ieces": 59301,
    "WA": 13810,
    "▁relevant": 5878,
    "分期": 43394,
    "医用": 47720,
    "霆": 62994,
    "▁emission": 7904,
    "▁versatile": 23484,
    "起来": 3194,
    "ania": 28789,
    "▁attained": 39287,
    "▁smooth": 5972,
    "不予支持": 30420,
    "irically": 42049,
    "Sub": 8272,
    "團體": 52147,
    "он": 8229,
    "更重要的是": 30371,
    "osexual": 43689,
    "▁Recent": 31928,
    "▁Palm": 25911,
    "▁ju": 9168,
    "过期": 55184,
    "▁deficits": 48844,
    "▁Lou": 7103,
    "特点": 7753,
    "nlog": 59148,
    "它在": 40429,
    "▁maybe": 4049,
    "沿着": 25182,
    "炖": 62867,
    "常用": 30271,
    "▁Materials": 33755,
    "期满": 52055,
    "▁buy": 2525,
    "▁undefined": 20091,
    "规范": 6537,
    "▁scientist": 21829,
    "CB": 24253,
    "▁Starting": 27012,
    "电流": 21196,
    "▁presumably": 25946,
    "▁HOME": 53115,
    "▁pivot": 42667,
    "晨": 61140,
    "ر": 63212,
    "uzz": 7522,
    "▁pitching": 28524,
    "愉悦": 33067,
    "pulse": 54806,
    "暖暖": 55374,
    "○": 63489,
    "\\\"\\\"\\\"": 15910,
    "▁NGC": 22608,
    "Co": 10558,
    "ability": 1883,
    "▁Venezuela": 35704,
    "大有": 42415,
    "amus": 50633,
    "▁balcony": 32289,
    "върш": 37854,
    "的感受": 53893,
    "▁fractions": 32811,
    "▁American": 2689,
    "▁trading": 9204,
    "▁Dal": 22955,
    "ificantly": 53071,
    "Packet": 45043,
    "辖": 61387,
    "OR": 2091,
    "万人": 12414,
    "esides": 8577,
    "田": 60666,
    "▁prophe": 30034,
    "▁contested": 50533,
    "boards": 17116,
    "nTr": 14843,
    "OQ": 11760,
    "违": 60623,
    "eng": 1576,
    "娄": 63732,
    "妳": 63944,
    "▁coinc": 11877,
    "skin": 41483,
    "圆": 60811,
    "reens": 9429,
    "潜能": 51579,
    "谅": 62350,
    "▁осно": 27831,
    "以及": 2396,
    "generator": 36216,
    "鏈": 63912,
    "ulate": 5656,
    "auf": 47495,
    "师的": 53078,
    "△": 63602,
    "▁Prem": 11926,
    "▁dilig": 27977,
    "pple": 31737,
    "▁GOD": 40795,
    "▁Clark": 17449,
    "看过": 23686,
    "▁culture": 5543,
    "石化": 34743,
    "widget": 21663,
    ")-": 6696,
    "不安": 22750,
    "▁本发明": 15524,
    "everything": 53839,
    "吃的": 15741,
    "▁Clerk": 58683,
    "率为": 24543,
    "但": 59784,
    "过来的": 41419,
    "▁initiated": 24574,
    "安德": 50619,
    "▁Ken": 10005,
    "和安全": 50985,
    "embed": 30350,
    "▁Maxim": 48254,
    "▁upscale": 55790,
    "止": 60364,
    "升至": 49108,
    "增加": 3810,
    "▁Medicaid": 26937,
    "▁departure": 20763,
    "That": 7546,
    "讲的": 36283,
    "报到": 37098,
    "experiment": 49008,
    "▁utilizes": 35298,
    "放射": 36691,
    "▁date": 3817,
    "也比较": 30255,
    "▁Cel": 33581,
    "▁congreg": 46178,
    "漂亮": 13217,
    "▁supervised": 25068,
    "成都市": 40958,
    "股权": 14069,
    "被他": 51486,
    "▁eyebrows": 49869,
    "出任": 47759,
    "▁blades": 33337,
    "▁lame": 38114,
    "lete": 5774,
    "▁bask": 37036,
    "STEM": 32788,
    "column": 15793,
    "decl": 48112,
    "香菇": 50017,
    "侦": 62036,
    "▁penetration": 33195,
    "反过来": 55340,
    "闹": 61322,
    "你的人": 58582,
    "▁Muslims": 16659,
    "▁indust": 2874,
    "▁logarithmic": 30500,
    "缝隙": 52781,
    "震惊": 30906,
    "Matrix": 20751,
    "福音": 35178,
    "▁Greg": 15386,
    "交道": 56390,
    "喊": 61558,
    "′": 62647,
    "remember": 48826,
    "故意": 17194,
    "mmmm": 48079,
    "咧": 63546,
    "肴": 63716,
    "给人": 19379,
    "姐姐": 13018,
    "▁Islanders": 58249,
    "<|unused107|>": 252,
    "nSep": 40418,
    "李某": 21504,
    "散文": 29900,
    "▁Principles": 57285,
    "皱": 62482,
    "▁McCain": 23767,
    "▁deliveries": 44290,
    "铜": 61562,
    "revers": 31742,
    "▁Sue": 36096,
    "ildo": 59222,
    "▁ll": 41905,
    "▁Lab": 12140,
    "nden": 43001,
    "▁BEFORE": 51886,
    "▁Ста": 40577,
    "▁Tibet": 31709,
    "▁contain": 4753,
    "▁Google": 4406,
    "这对": 22976,
    "协调": 9833,
    "航母": 29148,
    "慎重": 49893,
    "▁tip": 10475,
    "均衡": 22430,
    "▁springs": 31903,
    "▁winding": 32098,
    "▁Collect": 25425,
    ")|^": 29963,
    "▁louder": 44442,
    "▁Fuel": 45956,
    "Img": 46848,
    "速": 60165,
    "或在": 51006,
    "竟": 60626,
    "▁converting": 28859,
    "▁dying": 15961,
    "的两": 18572,
    "First": 12969,
    "绯": 63959,
    "▁experiment": 4143,
    "ity": 724,
    "的一条": 47833,
    "极具": 37000,
    "讲述": 14265,
    "med": 1917,
    "▁symmetries": 32257,
    "对美国": 57835,
    "▁discharged": 46260,
    "▁gram": 13257,
    "▁outwe": 46218,
    "杜": 61247,
    "sqrt": 3169,
    "▁capture": 9032,
    "лите": 47673,
    "▁MPI": 57075,
    "▁emphasizes": 45444,
    "▁devised": 47205,
    "史上": 25229,
    "▁пред": 16225,
    "▁wouldn": 4781,
    "地的": 10114,
    "▁bure": 25306,
    "▁presidency": 31845,
    "鞋子": 33989,
    "turned": 37286,
    "愿意": 7556,
    "普惠": 49832,
    "faith": 49941,
    "售": 60451,
    "▁Linked": 24720,
    "遠": 62379,
    "市值": 24576,
    "socket": 26046,
    "healthy": 26615,
    "▁interpre": 6249,
    "▁Amen": 43166,
    "▁overwhel": 11622,
    "可以直接": 37879,
    "▁substrates": 54297,
    "bfs": 41917,
    "rican": 47731,
    "激素": 19050,
    "▁Think": 15513,
    "&&": 7923,
    "▁lasts": 27815,
    "▁Loss": 30080,
    "▁Dee": 40175,
    "突发事件": 47200,
    "视听": 50510,
    "显示屏": 45662,
    "nAugust": 27546,
    "▁Economic": 20088,
    "▁willingly": 53146,
    "能让": 31217,
    "normalized": 50799,
    "encing": 15660,
    "护理费": 37942,
    "舅舅": 58258,
    "▁powers": 10467,
    "相关部门": 20261,
    "вършва": 46292,
    "PRESS": 42235,
    "FROM": 51116,
    "eline": 4976,
    "海南省": 53851,
    "路易": 53431,
    "更大的": 19663,
    "DK": 29578,
    "ina": 2309,
    "▁^{": 15229,
    "▁magn": 6678,
    "▁Ara": 29431,
    "▁Lines": 42554,
    "反映了": 39401,
    "六大": 44090,
    "安区": 56024,
    "▁Activity": 33731,
    "被害人": 20630,
    "喜欢的": 16006,
    "▁JP": 48647,
    "nexpl": 38360,
    "登记表": 55610,
    "再一次": 32017,
    "ouring": 37880,
    "考生": 10150,
    "清楚地": 54576,
    "▁clue": 21202,
    "在工作": 32455,
    "nthesis": 37917,
    "▁transactions": 14686,
    "弥陀": 55516,
    "方程": 43679,
    "护栏": 58944,
    "放假": 36952,
    "▁repairs": 22097,
    "quarters": 17278,
    "Numerical": 48729,
    "高兴": 13802,
    "online": 16987,
    "▁Diversity": 57849,
    "▁channel": 5655,
    "爱吃": 53406,
    "容易": 3882,
    "▁verify": 12851,
    "▁inheritance": 41781,
    "Long": 17093,
    "▁font": 14693,
    "▁n": 609,
    "▁UR": 57891,
    "写字": 34463,
    "▁forward": 3431,
    "▁memoir": 37415,
    "▁dice": 33319,
    "▁normalized": 16136,
    "义乌": 53582,
    "him": 32323,
    "的变化": 18954,
    "▁ctx": 33551,
    "▁astron": 17802,
    "那天": 18653,
    "ustralian": 47488,
    "技": 59917,
    "的组织": 57391,
    "<0x9E>": 463,
    "ulas": 21379,
    "ère": 49091,
    "mail": 4368,
    "Chapter": 44345,
    "▁Springs": 23780,
    "排行": 29390,
    "海域": 41720,
    "High": 21187,
    "部长": 12805,
    "当选": 35363,
    "▁demol": 29171,
    "Comment": 25282,
    "▁verification": 22259,
    "埔": 62885,
    "<0x89>": 442,
    "物业": 11239,
    "▁seats": 12764,
    "facing": 47130,
    "流量": 13215,
    "▁freeze": 22763,
    "QA": 33331,
    "谷": 61026,
    "炫": 62741,
    "這一": 45396,
    "ights": 2937,
    "期间的": 22865,
    "phrase": 47201,
    "and": 743,
    "']\\": 17336,
    "多元": 14144,
    "▁romance": 19247,
    "Cart": 35217,
    "逆": 61331,
    "▁variation": 10996,
    "ender": 3537,
    "加密货币": 51119,
    "目录": 22945,
    "方法": 2893,
    "吃饱": 54792,
    "邦": 61389,
    "▁Liverpool": 23475,
    "▁Ord": 43823,
    "rones": 20913,
    "▁които": 21243,
    "是一家": 34267,
    "Which": 35916,
    "四级": 50349,
    "▁Pam": 36179,
    "挠": 63216,
    "区政府": 34015,
    "自首": 53023,
    "▁obey": 24873,
    "本身": 7668,
    "捡": 62489,
    "▁PO": 26900,
    "▁pride": 14636,
    "ometer": 16120,
    "钻": 61672,
    "▁psycho": 48339,
    "稠": 63301,
    "since": 21764,
    "▁gonna": 10895,
    "KN": 41234,
    "▁bonus": 11611,
    "▁worldwide": 11210,
    "cience": 12496,
    "▁site": 2340,
    "诉讼费": 43171,
    "={{": 47814,
    "proper": 48980,
    "外": 59820,
    "nExcellent": 39626,
    "matory": 27158,
    "▁版的赞赏功能": 46696,
    "nFor": 2472,
    "断": 60186,
    "jon": 53479,
    "owell": 55451,
    "下半": 28630,
    "▁salmon": 31901,
    "▁Whether": 11523,
    "){\\\\": 14703,
    "▁ge": 4256,
    "▁completely": 3841,
    "▁differences": 7541,
    "▁Personal": 20430,
    "Press": 13999,
    "▁FR": 11067,
    "雨水": 32037,
    "決定": 31006,
    "Enable": 38291,
    "您好": 48581,
    "格尔": 43809,
    "充斥": 50536,
    "摩羯座": 51930,
    "▁Gaia": 57022,
    "导向": 16930,
    "amation": 28665,
    "不移": 53518,
    "闲": 61199,
    "沽": 63892,
    "▁project": 1890,
    "<0xC1>": 498,
    "▁translate": 19293,
    "hma": 31581,
    "▁administered": 31206,
    "时会": 57853,
    "国际化": 33492,
    "所述的方法": 44059,
    "Delay": 50879,
    "人社": 31398,
    "▁Programs": 32394,
    "OTk": 54512,
    "▁kinematic": 42060,
    "Hub": 19197,
    "▁Based": 15349,
    "ppl": 1453,
    "▁gloss": 27567,
    "号民事": 32658,
    "tAssert": 47564,
    "虫害": 52403,
    "制成的": 58984,
    "inois": 13205,
    "esity": 23863,
    "nMore": 7349,
    "inky": 37003,
    "▁Х": 12775,
    "▁freak": 19738,
    "▁Reserve": 20194,
    "考查": 36349,
    "chat": 19572,
    "一侧": 43353,
    "JSON": 19506,
    "aci": 52950,
    "щите": 49296,
    "▁decorations": 39552,
    "把自己": 17846,
    "透過": 27472,
    "电机": 17144,
    "▁Montgomery": 36262,
    "牢记使命": 41608,
    "▁centralized": 41780,
    "powered": 25174,
    "惊喜": 20606,
    "及周边": 58638,
    "appoint": 8039,
    "亨": 62899,
    "▁Iter": 45403,
    "万余": 33944,
    "▁essential": 6672,
    "说说": 25360,
    "妹子": 36427,
    "ni": 5477,
    "值得一提的是": 29803,
    "▁fluids": 34069,
    "▁Rental": 43536,
    "xff": 25562,
    "birth": 32053,
    "Mix": 44522,
    "漆": 62142,
    "nSat": 49635,
    "▁endeavors": 53958,
    "▁file": 2597,
    "剩下": 25414,
    "然後": 39576,
    "\\\\|^": 28031,
    "好奇": 20331,
    "нска": 41088,
    "▁trig": 7543,
    "▁waveform": 53369,
    "Q": 59745,
    "▁Mor": 6196,
    "idered": 3567,
    "古人": 30697,
    "Language": 33745,
    "Bounds": 48176,
    "▁grasp": 21852,
    "警务": 46635,
    "▁cont": 914,
    "▁steroids": 49760,
    "油耗": 49358,
    "ot": 618,
    "日止": 27378,
    "▁consulting": 22382,
    "anchez": 35303,
    "一般都是": 48655,
    "▁skin": 4973,
    "▁passionate": 16578,
    "这套": 34139,
    "发挥": 5991,
    "▁backgrounds": 21417,
    "▁organisations": 21200,
    "Message": 7238,
    "amar": 53621,
    "衡": 60968,
    "auge": 8202,
    "某": 60080,
    "产物": 29922,
    "ust": 747,
    "之作": 47190,
    "▁adm": 8621,
    "nSur": 32441,
    "的一个": 7868,
    "▁affect": 5188,
    "昨日": 20754,
    "▁referring": 16165,
    "QCD": 39105,
    "тър": 24650,
    "我不会": 45972,
    "▁Unique": 47545,
    "…………": 21165,
    "wheel": 28586,
    "||": 9994,
    "做好": 4566,
    "▁ourselves": 7843,
    "rained": 13336,
    "排污": 56065,
    "盐": 61125,
    "▁ell": 16147,
    "oni": 20106,
    "▁REL": 43726,
    "矛": 61442,
    "实际上": 10416,
    "arli": 16677,
    "副总经理": 39547,
    "恋爱": 14594,
    "_{": 759,
    "bench": 27635,
    "而为": 53588,
    "ousands": 36468,
    "MDM": 49088,
    "有待": 54090,
    "柯": 62176,
    "AV": 7301,
    "▁neuron": 43805,
    "累积": 38572,
    "▁sem": 4076,
    "pected": 6112,
    "加大": 9793,
    "▁momenta": 31512,
    "vider": 11012,
    "汗水": 33411,
    "都可以": 11261,
    "oscope": 43019,
    "▁Anglo": 53664,
    "▁Slim": 54581,
    "▁reason": 2335,
    "应当按照": 44604,
    "翻译": 15480,
    "<|unused049|>": 194,
    "push": 11104,
    "ване": 10562,
    "开办": 47721,
    "……”\\": 24349,
    "知识的": 27302,
    "等活动": 40498,
    "▁Budget": 26362,
    "▁US": 2134,
    "ript": 3261,
    "▁kill": 5591,
    "▁Mall": 23678,
    "▁versa": 30219,
    "MASK": 52468,
    "步步": 52740,
    "超标": 51011,
    "激光": 20650,
    "Upsilon": 36113,
    "getInstance": 42335,
    "▁incarn": 41712,
    "中国人民": 18465,
    "地理位置": 55037,
    "证明了": 47779,
    "▁deliberate": 35861,
    "▁Movies": 38975,
    "omet": 2888,
    "▁Ру": 29196,
    "▁breathtaking": 38692,
    "▁Some": 3663,
    "哑": 63051,
    "的思想": 26367,
    "NDI": 28595,
    "men": 5964,
    "▁dogs": 8683,
    "▁tract": 27113,
    "生活垃圾": 54159,
    "绝大多数": 28406,
    "braska": 26639,
    "▁ui": 49684,
    "▁hostage": 49005,
    "茨": 62493,
    "▁tags": 15100,
    "nacc": 22891,
    "]}\\": 44117,
    "FTA": 50285,
    "▁lat": 3543,
    "<p/>": 54,
    "<0x31>": 354,
    "▁till": 11773,
    "[[": 25293,
    "▁Harper": 28327,
    "自媒体": 42053,
    "惊人的": 50491,
    "▁aura": 59331,
    "▁marking": 29482,
    "说是": 10326,
    "▁suited": 20440,
    "▁jungle": 36424,
    "生动的": 54042,
    "▁Celtics": 49067,
    "▁Hong": 17387,
    "的首": 23705,
    "着她": 48173,
    "▁squared": 28291,
    "▁hence": 8348,
    "<0x28>": 345,
    "wards": 2719,
    "套路": 29274,
    "诗意": 56176,
    "▁espresso": 57604,
    "▁cele": 4523,
    "认为是": 27101,
    "▁scam": 24595,
    "must": 33080,
    "▁Physical": 33221,
    "▁Bund": 38534,
    "▁accord": 12661,
    "illy": 10576,
    "组织的": 18944,
    "iev": 38130,
    "带走": 42339,
    "密": 60404,
    "▁movements": 15420,
    "▁jailed": 57363,
    "▁спо": 29901,
    "支公司": 32557,
    "extended": 56932,
    "在人": 50651,
    "要求": 2121,
    "不足以": 40009,
    "crease": 21872,
    "▁Techn": 6869,
    "哇": 62954,
    "▁supplier": 24941,
    "重要性": 50791,
    "称为": 9171,
    "▁deer": 23897,
    "λ": 63097,
    "▁Charlie": 20025,
    "▁measurement": 8942,
    "▁Eff": 49579,
    "▁everybody": 11091,
    "的项目": 28378,
    "сти": 7245,
    "':": 5280,
    "ankind": 57057,
    "Fr": 9156,
    "▁coherence": 28738,
    "<-": 39561,
    "▁holographic": 49701,
    "滋养": 48017,
    "▁Mc": 3532,
    "▁pushing": 12629,
    "灭亡": 57976,
    "▁allevi": 28522,
    "ith": 646,
    "为本": 42687,
    "网友们": 41851,
    "的条件": 43883,
    "bara": 20509,
    "MON": 38439,
    "不利于": 43497,
    "山路": 45678,
    "rivacy": 12931,
    "牲": 62129,
    "摸排": 52375,
    "nsaid": 34034,
    "ributing": 44925,
    "breaking": 18334,
    "▁Colors": 49065,
    "回應": 57141,
    "橋": 63500,
    "▁readings": 29713,
    "▁/*": 19540,
    "克力": 39275,
    "▁bash": 30181,
    "▁photographer": 18610,
    "kpc": 44820,
    "吏": 63523,
    "▁Rally": 52301,
    "▁whites": 26888,
    "应以": 55289,
    "轿车": 22320,
    "▁всички": 46400,
    "▁immersed": 46490,
    "does": 27573,
    "產品": 28666,
    "违背": 37903,
    "的音乐": 44844,
    "生肖": 22091,
    "▁Railway": 42532,
    "▁covering": 11321,
    "Ts": 42561,
    "ул": 19375,
    "▁Straight": 49605,
    "tuning": 33119,
    "LI": 19189,
    "loud": 59254,
    "ributable": 58464,
    "入手": 28129,
    "▁CM": 17808,
    "▁harassment": 26532,
    "Effect": 24778,
    "remely": 43489,
    "▁Aurora": 43777,
    "阳区": 54360,
    "Pres": 48853,
    "刘": 60456,
    "▁merits": 37871,
    "为进一步": 24787,
    "▁bolts": 41684,
    "▁EA": 34337,
    "非常高": 50358,
    "lr": 21666,
    "器材": 32850,
    "вро": 34655,
    "赘": 63697,
    "角落": 25231,
    "▁kings": 37400,
    "口号": 34594,
    "▁chicken": 11060,
    "聖": 62714,
    "jack": 22216,
    ";\\\">\\": 38914,
    "▁sec": 5066,
    "飲": 63105,
    "Form": 6574,
    "▁мест": 56134,
    "地块": 22061,
    "▁pursue": 15730,
    "▁sewing": 28353,
    "▁pref": 3553,
    "▁Glas": 38029,
    "ito": 13933,
    "▁MU": 31612,
    "▁stigma": 50906,
    "nJob": 46146,
    "юз": 57339,
    "▁cosmology": 40477,
    "▁'@": 24495,
    "是用": 28170,
    "面积": 6571,
    "▁Confeder": 38126,
    "▁pokemon": 48984,
    "业绩": 12117,
    "▁w": 572,
    "▁District": 8517,
    "nWebsite": 52277,
    "阿拉": 24134,
    "▁Arch": 7702,
    "思想和": 52033,
    "size": 3573,
    "vable": 14551,
    "}$}\\": 39915,
    "nSte": 9617,
    "▁understood": 9972,
    "ourses": 32294,
    "▁Annie": 40345,
    "▁Body": 18976,
    "▁Banking": 46430,
    "▁Direct": 6171,
    "与他人": 59288,
    "nSeriously": 47809,
    "▁Kentucky": 19460,
    "nant": 26939,
    "▁Rails": 53239,
    "cong": 16417,
    "張": 61897,
    "$^\\\\": 35713,
    "tel": 48956,
    "▁promising": 15519,
    "jobs": 38775,
    "|}{": 14405,
    "传染": 19693,
    "▁CAD": 40394,
    "▁holomorphic": 46365,
    "ntherefore": 57605,
    "'}(": 49223,
    "wu": 37173,
    "方式": 2665,
    "grpc": 45382,
    "uff": 2017,
    "▁bath": 6677,
    "捣": 63337,
    "▁Include": 37537,
    "交通运输": 25997,
    "▁Holocaust": 33655,
    "值班": 23329,
    "次的": 27743,
    "▁Something": 19270,
    "▁emotional": 9472,
    "新技术": 21868,
    "▁Torres": 54928,
    "的学生": 13927,
    "▁deceased": 36632,
    "口": 59925,
    "▁originate": 45441,
    "▁females": 17913,
    "分析和": 55912,
    "路口": 19658,
    "]": 59651,
    "▁towards": 4428,
    "▁grate": 12395,
    "正如": 19407,
    "▁somet": 3950,
    "ifer": 12089,
    "nucleon": 58931,
    "河南省": 21348,
    "▁seated": 35475,
    "▁pit": 11440,
    "社区的": 47670,
    "nCurrent": 20421,
    "▁Name": 10636,
    "实话": 29017,
    "quare": 8907,
    "▁seals": 45478,
    "HOST": 55102,
    "▁belong": 7032,
    "macro": 49400,
    "▁mystery": 15530,
    "中说": 47883,
    "帮扶": 15323,
    "▁nested": 36131,
    "▁shark": 40065,
    "我们已经": 40176,
    "▁honour": 28968,
    "']))": 58232,
    "敦煌": 53321,
    "▁search": 3039,
    "▁los": 18182,
    "新年": 27480,
    "nshe": 39804,
    "perf": 44980,
    "在做": 36281,
    "ODU": 17462,
    "▁head": 1806,
    "这样": 1977,
    "Qz": 34063,
    "理論": 58174,
    "▁conduction": 39161,
    "▁prag": 42207,
    "我县": 29056,
    "带领": 10399,
    "害人": 15411,
    "▁php": 41050,
    "▁whom": 7495,
    "parison": 14252,
    "温柔": 16847,
    "property": 12404,
    "心情": 12894,
    "▁unfortunate": 23776,
    "张家": 29456,
    "nSet": 20971,
    "通过了": 37135,
    "理解为": 52512,
    "view": 1705,
    "獲": 62012,
    "量化": 30107,
    "▁neglig": 16691,
    "▁brane": 50832,
    "交换": 18744,
    "▁Poly": 19630,
    "▁SNR": 24848,
    "▁BACK": 42961,
    "▁Channel": 16721,
    "表現": 33115,
    "▁curry": 45922,
    "优美": 32722,
    "▁Staff": 17041,
    "江区": 41894,
    "▁Regional": 21877,
    "加持": 42030,
    "они": 44573,
    "活": 59807,
    "▁marry": 23250,
    "▁Productions": 48667,
    "د": 63580,
    "erek": 29811,
    "课堂教学": 35963,
    "missive": 55684,
    "▁Eston": 51061,
    "▁CI": 25891,
    "nExample": 35416,
    "▁entertain": 6786,
    "getLogger": 52801,
    "j": 59617,
    "nDay": 25400,
    "ddots": 59300,
    "人在": 9006,
    "anch": 4194,
    "▁Secret": 9407,
    "▁tones": 31079,
    "ry": 851,
    "我家": 22684,
    "▁Chen": 25118,
    "▁E": 764,
    "ē": 63960,
    "海峡": 40574,
    "▁alkal": 57203,
    "▁promptly": 28915,
    "ram": 1190,
    "▁creek": 50833,
    "▁boils": 56965,
    "andom": 19157,
    "航行": 55638,
    "ели": 24341,
    "选择": 2701,
    "▁governed": 25777,
    "▁grind": 31508,
    "▁beauty": 8641,
    "始于": 48287,
    "▁Xia": 58992,
    "治国": 58411,
    "生理": 19960,
    "▁directed": 10076,
    "▁real": 1458,
    "文化和": 32231,
    "案的": 52927,
    "▁Skill": 57276,
    "biased": 29883,
    "▁Railroad": 55690,
    "寂寞": 29982,
    "连连": 46227,
    "nsolution": 50970,
    "他人": 10134,
    "▁awful": 17262,
    "居民": 5909,
    "▁acoustic": 22716,
    "▁varchar": 48193,
    "▁Chal": 58994,
    "用人": 22193,
    "▁expanded": 13883,
    "etics": 25113,
    "热烈": 28005,
    "稀": 61538,
    "▁advocated": 52805,
    "fill": 9451,
    "半个小时": 55676,
    "▁nausea": 51035,
    "运动的": 41919,
    "program": 19204,
    "人身": 24813,
    "▁inherently": 32544,
    "立的": 38551,
    "▁Ts": 31044,
    "ndf": 29322,
    "▁Breakfast": 35173,
    "▁NGOs": 55834,
    "<|unused064|>": 209,
    "所说": 30830,
    "有很大的": 41727,
    "安慰": 21561,
    "▁torsion": 38882,
    "为由": 29411,
    "▁Philippines": 22985,
    "降息": 54743,
    "一起来": 38995,
    "▁weren": 9889,
    "▁friction": 27559,
    "▁disruptive": 48829,
    "nBasically": 39987,
    "耻": 62740,
    "十九大": 29913,
    "▁Jr": 13858,
    "▁pray": 6747,
    "中小学": 27292,
    "▁previously": 6287,
    "高地": 50018,
    "衝": 63270,
    "▁recomm": 3255,
    "ври": 18478,
    "扰乱": 54301,
    "▁geographical": 37986,
    "▁Orig": 14861,
    "服务站": 57767,
    "Validate": 49848,
    "enable": 22688,
    "Self": 25269,
    "oscow": 21408,
    "scription": 11878,
    "Project": 14291,
    "▁grac": 31148,
    "▁Lego": 51032,
    "rizona": 12566,
    "想说": 47649,
    "Client": 8732,
    "alf": 2332,
    "生活习惯": 47215,
    "身份证": 17005,
    "▁thickness": 16613,
    "▁watched": 9868,
    "▁io": 20883,
    "rivial": 10354,
    "▁depiction": 56287,
    "▁Cyprus": 49584,
    "博弈": 36900,
    "网讯": 58475,
    "学生的": 10254,
    "▁turmoil": 47387,
    "▁corporations": 18437,
    "▁protects": 29345,
    "▁voyage": 53953,
    "劫": 62145,
    "▁institutional": 24252,
    "的你": 43819,
    "▁\\\"@": 49551,
    "▁battle": 6740,
    "nprot": 55352,
    "▁hours": 2993,
    "inte": 7711,
    "▁imaginary": 22080,
    "白云": 31372,
    "▁Fantasy": 25871,
    "兔子": 42981,
    "@\\": 56360,
    "忌": 61750,
    "arried": 27533,
    "的自然": 44843,
    "ra": 625,
    "嘿": 62947,
    "冒": 61290,
    "▁satisf": 3836,
    "▁HIV": 15122,
    "▁MN": 30307,
    "hetti": 44579,
    "▁flexible": 12630,
    "▁instanceof": 32027,
    "现有的": 28793,
    "}\\\\\\\\": 34082,
    "它是": 17739,
    "▁Blood": 20798,
    "▁braking": 49167,
    "▁Reuters": 26925,
    "▁Takes": 55755,
    "▁rock": 5387,
    "▁forthcoming": 30904,
    "▁instructor": 23795,
    "но": 2353,
    "▁хо": 36914,
    "alg": 11233,
    "jected": 29309,
    "接下来": 13059,
    "EVER": 54800,
    "照顾": 11999,
    "就好了": 31502,
    "哈尔滨": 27608,
    "▁resent": 34496,
    "集成电路": 52641,
    "现今": 59567,
    "ż": 63706,
    "Quick": 43176,
    "挖掘": 16625,
    "酮": 62818,
    "▁compares": 28058,
    "亚洲": 15934,
    "@": 59879,
    "▁sufficiently": 14471,
    "▁pipeline": 15570,
    "▁label": 4220,
    "▁cel": 29510,
    "村民们": 55936,
    "nReview": 22729,
    "▁dad": 10330,
    "中期": 28363,
    "▁Standard": 13698,
    "▁miracle": 29820,
    "▁cherished": 58603,
    "▁drunk": 15638,
    "▁teenagers": 27175,
    "▁▁▁▁▁▁": 137,
    "靴": 63553,
    "▁кул": 48654,
    "比较高": 45427,
    "▁recognition": 10970,
    "的艺术": 37610,
    "峪": 63834,
    "▁received": 3921,
    "pa": 780,
    "▁Tommy": 31599,
    "的公司": 27095,
    "▁Ire": 11820,
    "wenshu": 23153,
    "▁address": 2900,
    "Fn": 47553,
    "烷基": 42176,
    "▁subdivision": 54661,
    "过敏": 23805,
    "▁withdrawn": 44955,
    "局": 60035,
    "入侵": 35334,
    "urface": 20983,
    "的国": 54458,
    "是把": 50147,
    "征集": 32562,
    "▁sang": 31571,
    "勿": 62463,
    "▁awarded": 15068,
    "有些人": 19496,
    "▁Terror": 37947,
    "▁Dawson": 58787,
    "aghetti": 50422,
    "</p>": 55,
    "公元": 24452,
    "ocial": 19451,
    "ifts": 7055,
    "太太": 23733,
    "▁vendors": 18946,
    "▁doubled": 27776,
    "umble": 17516,
    "▁POST": 35181,
    "​": 61554,
    "${\\\\": 15625,
    "▁Wallace": 33157,
    "▁centr": 25863,
    "uz": 12675,
    "▁vodka": 55391,
    "▁reconciliation": 41718,
    "▁fe": 1033,
    "▁taxi": 27878,
    "驿": 63160,
    "ablish": 46576,
    "▁clinic": 21594,
    "創造": 50650,
    "误区": 40036,
    "纽带": 53056,
    "▁auto": 8131,
    "电源": 17114,
    "临时": 14925,
    "▁Bennett": 33746,
    "等功能": 50044,
    "显示器": 52434,
    "▁Justin": 20254,
    "ows": 6606,
    "aine": 13450,
    "实施了": 59321,
    "rupting": 42669,
    "▁gras": 39339,
    "复合": 15459,
    "heets": 52823,
    "▁desires": 21607,
    "融合": 9393,
    "▁stairs": 22912,
    "stub": 53205,
    "垃": 61200,
    "区域内": 44340,
    "撇": 63629,
    "secret": 26543,
    "▁sharks": 49165,
    "虐": 62571,
    "ventions": 18026,
    "证明": 4979,
    "▁activists": 19858,
    "MAN": 25689,
    "craft": 10696,
    "▁Sam": 7164,
    "▁moistur": 40990,
    "';\\": 5382,
    "▁coated": 35973,
    "深深的": 44100,
    "overed": 5378,
    "▁fantasies": 46325,
    "<|im_end|>": 7,
    "internal": 16792,
    "▁avatar": 46563,
    "▁Swan": 38715,
    "gz": 17524,
    "直径": 27108,
    "▁Camb": 16485,
    "长期": 6243,
    "budget": 49313,
    "gon": 14997,
    "流出": 36471,
    "▁Equal": 49841,
    "▁FIL": 58391,
    "class": 1211,
    "animation": 52771,
    "私立": 50191,
    "scriptsize": 19613,
    "urger": 43999,
    "顯": 62155,
    "▁Originally": 43665,
    "▁Ut": 17292,
    "▁Lore": 17319,
    "▁Indones": 20653,
    "湾": 60970,
    "Cre": 48532,
    "▁warned": 16679,
    "▁card": 3396,
    "▁Father": 13448,
    "市场中": 54464,
    "▁bird": 13359,
    "▁Train": 22462,
    "▁stitches": 49029,
    "从未": 18120,
    "quisite": 39133,
    "资金的": 52790,
    "▁spacecraft": 34049,
    "resolve": 26883,
    "chin": 31120,
    "▁blink": 39088,
    "而导致": 58481,
    "自己对": 51334,
    "▁Chapman": 54930,
    "煞": 63136,
    "▁implementations": 31390,
    "relevant": 19181,
    "病例": 13726,
    "金融机构": 26801,
    "▁figuring": 31129,
    "一间": 54353,
    "北约": 41628,
    "境内": 23753,
    "粹": 62391,
    "▁praised": 31940,
    "后面": 12788,
    "玮": 63978,
    "▁fashion": 7232,
    "▁ongoing": 11083,
    "▁bay": 20927,
    "执法": 9285,
    "▁signal": 5152,
    "▁leaking": 43306,
    "按钮": 28463,
    "▁defend": 8661,
    "重复": 14511,
    "nLength": 56778,
    "olved": 7411,
    "传媒": 24087,
    "▁''\\": 43609,
    "ney": 2580,
    "▁tuning": 22188,
    "民族": 6518,
    "棒的": 59011,
    "部的": 11315,
    "提拔": 56025,
    "阴性": 48498,
    "▁merchand": 26006,
    "AIDS": 46850,
    "▁cuts": 10042,
    "▁transient": 30410,
    "maven": 55271,
    "地方": 3583,
    "村村民": 52435,
    "annie": 53357,
    "isle": 29182,
    "结": 59888,
    "停留": 34851,
    "新春": 43072,
    "▁reminis": 30311,
    "nCON": 35913,
    "▁extend": 10054,
    "荔枝": 47311,
    "▁mem": 1580,
    "▁photoc": 57307,
    "体重": 19972,
    "好在": 30586,
    "▁values": 2758,
    "▁projects": 4994,
    "athan": 11696,
    "给的": 55127,
    "ocumented": 48750,
    "interpre": 44357,
    "惯": 60885,
    "▁merc": 30522,
    "ping": 3843,
    "▁studied": 7945,
    "ritical": 15150,
    "代替": 24037,
    "▁Vista": 28592,
    "对新": 53473,
    "<|unused035|>": 180,
    "▁quo": 34976,
    "MDc": 51357,
    "classified": 54591,
    "必要时": 56915,
    "▁grids": 47754,
    "▁Functions": 45908,
    "▁incur": 57166,
    "點": 61282,
    "技术": 2038,
    "∶": 63483,
    "就不": 9807,
    "▁comparing": 14193,
    "坚守": 18374,
    "▁fill": 6630,
    "▁Rank": 25492,
    "▁aided": 48464,
    "延伸": 15717,
    "保驾护航": 48997,
    "▁vision": 7630,
    "nSure": 32866,
    "REAM": 44909,
    "▁airplane": 34437,
    "uru": 20667,
    "eight": 38121,
    "▁heavily": 12262,
    "的确": 17635,
    "earth": 42767,
    "<0x6D>": 414,
    "<0x59>": 394,
    "▁tribal": 31657,
    "coupling": 45960,
    "▁validation": 14983,
    "受害": 26419,
    "▁inclusive": 24911,
    "这种方式": 46078,
    "▁handlers": 54144,
    "omical": 40745,
    "iba": 45227,
    "▁wanna": 20999,
    "▁lux": 11058,
    "hm": 28966,
    "aily": 3936,
    "key": 2798,
    "▁Har": 4015,
    "座的": 28970,
    "▁Aside": 41031,
    "nDeb": 52817,
    "▁prepared": 7267,
    "最新的": 29970,
    "▁accidental": 42283,
    "npoint": 28553,
    "▁den": 3011,
    "▁incor": 6465,
    "▁lacks": 25959,
    "的新": 6527,
    "iq": 25584,
    "▁or": 705,
    "阱": 63269,
    "▁better": 1665,
    "▁iteration": 17384,
    "DATA": 28931,
    "没有了": 28998,
    "▁Lower": 26946,
    "上半年": 17207,
    "周围": 11780,
    "追捧": 53103,
    "itten": 3127,
    "<0x1E>": 335,
    "族的": 57144,
    "▁intend": 20128,
    "▁have": 726,
    "蓝牙": 55879,
    "rez": 36503,
    "个性": 15882,
    "说实话": 36110,
    "▁averaging": 22755,
    "玉米": 15932,
    "MzAx": 19695,
    "的女": 20676,
    "▁Ambassador": 38582,
    "你就会": 44234,
    "辅警": 45316,
    "QN": 55543,
    "可谓": 18957,
    "▁create": 2529,
    "▁stable": 7899,
    "大家在": 38903,
    "▁favorite": 4572,
    "bugs": 48354,
    "▁Invalid": 49960,
    "▁Zar": 54803,
    "▁inevitably": 27135,
    "▁VI": 24371,
    "▁indicating": 15250,
    "▁Tuc": 48443,
    "▁sluts": 56102,
    "誓言": 51051,
    "▁PROP": 58995,
    "ss": 1277,
    "listen": 48939,
    "ships": 15732,
    "▁neglected": 23653,
    "▁Ever": 16177,
    "上传": 28152,
    "▁ejected": 58096,
    "athing": 39451,
    "cap": 5273,
    "▁toilets": 50384,
    "讲": 60257,
    "▁fears": 18484,
    "Sent": 48958,
    "▁Un": 1449,
    "华侨": 43227,
    "排": 60164,
    "却被": 34272,
    "arcraft": 41442,
    "现代农业": 56564,
    "爬": 61695,
    "▁Pacific": 12878,
    "▁Sau": 37964,
    "不论是": 43296,
    "抑郁症": 37364,
    "基准": 28610,
    "的人生": 12823,
    "▁DH": 28977,
    "▁lined": 23601,
    "weed": 38066,
    "出局": 57179,
    "zes": 15190,
    "ces": 1072,
    "ков": 23556,
    "xm": 58473,
    "并非": 12139,
    "Bra": 45425,
    "▁archaeological": 59408,
    "lar": 29190,
    "▁sections": 9771,
    "▁Results": 16560,
    "undo": 48562,
    "▁unatt": 51791,
    "戚": 62246,
    "▁Ellen": 40382,
    "press": 2608,
    "cule": 19588,
    "matics": 44935,
    "渔": 62023,
    "regon": 14534,
    "▁shar": 18775,
    "▁coe": 7146,
    "quot": 13478,
    "科学的": 37050,
    "▁stitching": 52734,
    "震撼": 27557,
    "▁Mining": 41899,
    "▁registered": 9386,
    "就要": 8411,
    "▁cell": 3205,
    "▁z": 1896,
    "▁HUGE": 45754,
    "眼看": 48182,
    "hers": 3181,
    "不满": 24048,
    "enario": 30351,
    "nMade": 52249,
    "art": 692,
    "clud": 1037,
    "bab": 39121,
    "mathfrak": 7363,
    "▁OEM": 39842,
    "▁se": 720,
    "usetts": 16047,
    "▁Nad": 30293,
    "▁advant": 4883,
    "▁AL": 11181,
    "烟草": 40126,
    "▁Temperature": 46956,
    "▁volume": 6035,
    "Jesus": 51241,
    "▁sphere": 17480,
    "季": 60371,
    "不過": 21825,
    "▁impurity": 38819,
    "接口": 17553,
    "maker": 20646,
    "三次": 22075,
    "臨": 62703,
    "elling": 3296,
    "interface": 20674,
    "struct": 8939,
    "reated": 14074,
    "希": 60349,
    "rout": 25451,
    "ould": 751,
    "▁Session": 29302,
    "asive": 25681,
    "宛": 62903,
    "sensitive": 36888,
    "▁sparked": 35888,
    "▁scroll": 16703,
    "「": 60352,
    "highlight": 31118,
    "最近的": 42490,
    "▁webcam": 45374,
    "Str": 13222,
    "Handler": 11063,
    "国务": 14991,
    "creational": 27013,
    "Scope": 29757,
    "▁Adult": 34949,
    "rices": 10734,
    "南非": 44038,
    "crop": 53531,
    "arrier": 26335,
    "ife": 1296,
    "▁Tra": 5129,
    "Hard": 34747,
    "报": 59949,
    "q": 59619,
    "遗址": 29508,
    "▁secured": 20487,
    "车辆": 6281,
    "getElement": 26564,
    "▁Grande": 52979,
    "▁Request": 23645,
    "▁HEAD": 55244,
    "we": 963,
    "correlation": 32830,
    "▁haunted": 44019,
    "bart": 53204,
    "▁stall": 34865,
    "▁photographs": 16665,
    "▁afore": 21890,
    "标题": 23545,
    "▁Stri": 24161,
    "前的": 12012,
    "atest": 27745,
    "这张": 27530,
    "ancial": 3590,
    "diagram": 36979,
    "hed": 1134,
    "听说": 20288,
    "日凌晨": 37202,
    "▁Lam": 19911,
    "因果": 32594,
    "▁constituted": 56021,
    "▁mansion": 46081,
    "生意": 16148,
    "手续": 14732,
    "▁repository": 18172,
    "▁December": 5224,
    "▁Ach": 52135,
    "BI": 8452,
    "gap": 24706,
    "数量的": 48677,
    "▁Domestic": 53397,
    "▁superstar": 45986,
    "班子": 19205,
    "建国": 33790,
    "asta": 55238,
    "xxx": 30440,
    "▁informational": 35919,
    "nAv": 28865,
    "▁quint": 41022,
    "▁receptors": 42209,
    "Kw": 48319,
    "▁superhero": 31421,
    "▁Fight": 19154,
    "possible": 7170,
    "▁Act": 4275,
    "▁payment": 8132,
    "等地": 20805,
    "照明": 25464,
    "kr": 38128,
    "cluding": 31860,
    "▁Christ": 2508,
    "▁locking": 30497,
    "anche": 10887,
    "智能化": 25908,
    "之下": 11880,
    "nDepending": 52422,
    "▁bastard": 52305,
    "▁Worker": 54262,
    "зи": 6314,
    "细化": 23354,
    "TH": 6237,
    "▁agents": 8959,
    "▁Study": 18603,
    "▁Co": 3352,
    "alion": 47656,
    "'=": 31172,
    "▁passion": 7569,
    "▁experimentation": 45197,
    "赔": 60864,
    "尚": 60761,
    "一段": 8754,
    "mounted": 50135,
    "▁counselor": 41962,
    "集聚": 32197,
    "▁$+": 52745,
    "의": 63223,
    "▁manager": 6442,
    "▁locus": 48761,
    "储存": 25577,
    "Summary": 24436,
    "▁mind": 2515,
    "▁assertions": 54844,
    "▁души": 42695,
    "冤": 62930,
    "事先": 33975,
    "▁shave": 53040,
    "heres": 22016,
    "ndirect": 39460,
    "verbatim": 45291,
    "nNovember": 28131,
    "Tuesday": 28694,
    "▁outs": 17473,
    "山县": 32329,
    "▁tac": 46641,
    "▁препратки": 27852,
    "'));\\": 27681,
    "积累": 13417,
    "▁Tehran": 49402,
    "stra": 11971,
    "==&": 2316,
    "伊斯兰": 40760,
    "朵": 61555,
    "OCK": 16210,
    "Dialog": 20371,
    "{$\\\\": 13984,
    "▁ye": 16323,
    "▁Kan": 28979,
    "▁trash": 17285,
    "nDep": 21572,
    "穿梭": 43199,
    "▁latitude": 39943,
    "▁balcon": 28155,
    "て": 62649,
    "<|unused128|>": 273,
    "种": 59792,
    "平台": 3665,
    "▁Bal": 13530,
    "▁NC": 11775,
    "▁flowing": 23383,
    "▁ethanol": 48216,
    "nto": 3919,
    "})/": 51585,
    "▁respectable": 45893,
    "一角": 54597,
    "①": 62188,
    "フ": 63966,
    "咏": 63190,
    "▁directions": 11106,
    "▁stands": 8954,
    "▁template": 12215,
    "OUR": 16255,
    "нение": 34888,
    "▁distracting": 55795,
    "selector": 43764,
    "uous": 9637,
    "▁hab": 7906,
    "▁merch": 14334,
    "禁止": 14439,
    "热的": 25790,
    "▁GitHub": 33883,
    "Sel": 54096,
    "▁Magazine": 17156,
    "field": 3505,
    "nPaul": 26851,
    "执行人": 21919,
    "▁Erd": 49666,
    "▁declined": 17571,
    "包容": 24598,
    "▁Spr": 18072,
    "ieves": 32965,
    "▁counts": 13034,
    "▁killings": 44289,
    "▁reve": 4534,
    "о": 59667,
    "锣": 63667,
    "▁Paris": 11080,
    "▁piled": 57456,
    "举": 60316,
    "▁coming": 3214,
    "战斗": 11121,
    "▁psych": 7553,
    "▁KB": 40967,
    "▁rash": 43920,
    "▁emergencies": 51940,
    "▁Parenthood": 53674,
    "畏": 62027,
    "клю": 25563,
    "▁Leave": 29343,
    "综合素质": 46373,
    "с": 59716,
    "WN": 31095,
    "▁Cord": 35424,
    "▁Photography": 36027,
    "的人": 1702,
    "lip": 38165,
    "名家": 45765,
    "▁Task": 17539,
    "膳": 62912,
    "Bigg": 27118,
    "▁commodities": 42836,
    "▁Philadelphia": 16257,
    "separ": 23249,
    "▁Because": 6023,
    "天真": 43877,
    "报名": 10619,
    "▁Tunis": 51126,
    "▁tsp": 39905,
    "▁Rural": 56348,
    "FLAG": 27744,
    "▁sab": 29526,
    "刀具": 48555,
    "()[": 43995,
    "线": 59946,
    "▁log": 3482,
    "▁emphasizing": 58039,
    "Part": 11796,
    "廊": 62064,
    "ilant": 57924,
    "▁Chef": 34588,
    "maz": 3001,
    "ractive": 25759,
    "Fill": 39728,
    "▁cherish": 58277,
    "dest": 13451,
    "▁frustrating": 21294,
    "▁raft": 55309,
    "之王": 50059,
    "“\\": 23168,
    "▁век": 29581,
    "奸": 62683,
    "绑架": 41238,
    "address": 12967,
    "cha": 13966,
    "▁manners": 50051,
    "س": 63927,
    "鹅": 62329,
    "景象": 31274,
    "▁Hann": 44546,
    ")*": 10424,
    "▁gear": 9829,
    "▁waters": 15855,
    "免疫力": 32726,
    "某一": 36090,
    "升值": 51004,
    "<|unused102|>": 247,
    "▁posts": 5901,
    "▁Porn": 45013,
    "▁Lil": 43791,
    "▁exam": 5109,
    "悬挂": 32438,
    "▁Commercial": 29770,
    "isans": 58449,
    "▁tong": 15398,
    "includ": 2049,
    "都在": 6967,
    "配备": 18802,
    "▁disappears": 37843,
    "xim": 3683,
    "▁buttons": 15371,
    "▁Motor": 17954,
    "▁approved": 9534,
    "植树": 43859,
    "罪": 60576,
    "排列": 28247,
    "▁toes": 29133,
    "чев": 51079,
    "▁Insp": 26462,
    "的儿子": 38949,
    "今年": 3830,
    "甘肃省": 42878,
    "▁Griffin": 34171,
    "▁Half": 24373,
    "▁gown": 48892,
    "wrong": 46983,
    "▁controll": 5345,
    "▁pile": 20123,
    "idency": 24862,
    "墙上": 39242,
    "筋": 62025,
    "▁experience": 2157,
    "papers": 32818,
    "▁acclaimed": 34641,
    "变速箱": 41495,
    "▁Stark": 43976,
    "规划": 5338,
    "▁Eagle": 30162,
    "obil": 55744,
    "▁architects": 38275,
    "各班": 49500,
    "▁Cind": 38084,
    "nAlways": 46426,
    "鼎": 62054,
    "扔": 62220,
    "Tw": 23219,
    "玩游戏": 46231,
    "▁Carrie": 48825,
    "ative": 1303,
    "▁ant": 2574,
    "弟弟": 16840,
    "纪委": 19218,
    "▁suicidal": 54114,
    "▁owning": 32468,
    "seller": 58863,
    "Corollary": 56449,
    "维护": 8418,
    "nAlong": 37788,
    "▁securities": 25835,
    "▁franch": 13105,
    "壮": 61293,
    "▁traveling": 13338,
    "▁displays": 13777,
    "種": 61299,
    "▁pend": 51471,
    "綜": 63453,
    "▁authors": 7294,
    "passed": 57926,
    "viron": 2563,
    "▁Antar": 38002,
    "planation": 49759,
    "▁Nation": 16244,
    "▁gra": 1708,
    "▁Reviews": 20156,
    "email": 10832,
    "▁guidelines": 12790,
    "angle": 2004,
    "▁donate": 22768,
    "站着": 50786,
    "stead": 36030,
    "square": 17720,
    ")_": 14464,
    "积极参加": 55039,
    "Des": 7028,
    "揭示": 37890,
    "引擎": 23954,
    "▁k": 789,
    "▁actually": 2226,
    "▁writ": 2342,
    "争夺": 30417,
    "Ops": 40415,
    "jer": 54672,
    "_{+": 21716,
    "▁micro": 5523,
    "coloneqq": 53466,
    "跟": 60289,
    "鼻": 61358,
    "relationship": 50465,
    "病情": 18211,
    "BU": 12207,
    "▁displaced": 34828,
    "Vertical": 56138,
    "pad": 15111,
    "▁cropped": 58278,
    "Debug": 23185,
    "▁Electronics": 40610,
    "做法": 10828,
    "▁bankers": 46647,
    "▁Libert": 56416,
    "▁coerc": 49253,
    "▁ignition": 47251,
    "▁dependent": 11466,
    "进攻": 16701,
    "最": 59754,
    "加速": 12273,
    "和朋友": 46832,
    "▁gatherings": 51861,
    "<|unused113|>": 258,
    "▁Евро": 50202,
    "总经理": 14058,
    "▁sites": 4752,
    "▁reli": 15276,
    "▁Hon": 12985,
    "othes": 6032,
    "risk": 26037,
    "pling": 4729,
    "OOK": 21025,
    "▁administr": 10318,
    "湖区": 50738,
    "各级": 15543,
    "Exception": 5580,
    "Callback": 21844,
    "▁scent": 28664,
    "把这些": 45993,
    "▁Boston": 10171,
    "总监": 26864,
    "▁burger": 36563,
    "▁proliferation": 45295,
    "▁drill": 25308,
    "anco": 38267,
    "氨": 61833,
    "▁IN": 5373,
    "站立": 46845,
    "▁embarrass": 15673,
    "初级": 35745,
    "bers": 1822,
    "_*$": 42826,
    "一提": 24899,
    "▁relieved": 37597,
    "▁Benedict": 42927,
    "▁AD": 8924,
    "▁conced": 34022,
    "required": 15778,
    "▁reaches": 15372,
    "▁Owens": 54078,
    "iness": 1495,
    "▁highly": 4686,
    "▁offering": 7050,
    "▁Someone": 23559,
    "Run": 14256,
    "门槛": 25606,
    "▁induce": 28108,
    "docs": 14335,
    "->_": 31943,
    "▁partial": 11674,
    "未经": 24422,
    "{[": 25785,
    "▁Coin": 36048,
    "cation": 5417,
    "澎湃": 44919,
    "▁workout": 17730,
    "▁SV": 31518,
    "▁Barber": 59021,
    "▁Rhodes": 51990,
    "▁Leader": 22421,
    "▁throne": 34766,
    "▁prints": 22568,
    "原始": 18977,
    "MOD": 33640,
    "治療": 38279,
    "<|unused085|>": 230,
    "被告": 2402,
    "Master": 27126,
    "▁insightful": 37550,
    "南阳": 59093,
    "FN": 45817,
    "John": 18648,
    "▁btn": 20725,
    "）（": 50654,
    "▁prices": 5635,
    "▁monitored": 29132,
    "日后": 32484,
    "▁Eisen": 55717,
    "*}\\\\": 53385,
    "rath": 43216,
    "▁lig": 36137,
    "这": 59657,
    "▁tossed": 32767,
    "告诫": 54942,
    "▁ought": 16394,
    "发生过": 56434,
    "▁vigil": 34605,
    "▁ком": 28011,
    "論": 61611,
    "特性": 18363,
    "chanical": 28807,
    "}\\\\": 957,
    "▁aff": 2118,
    "数据库": 20932,
    "ares": 5440,
    "vitational": 53343,
    "一切都是": 58673,
    "积极性": 26756,
    "▁cannot": 2978,
    "Comp": 7909,
    "nPh": 9000,
    "▁casualties": 43818,
    "私下": 52075,
    "▁interiors": 52424,
    "神圣": 41387,
    "rometer": 48428,
    "李嘉": 57145,
    "植入": 45176,
    "▁folded": 32802,
    "hes": 1357,
    "莫名": 35162,
    "生怕": 50895,
    "▁Mathemat": 33212,
    "▁compatible": 12821,
    "动物园": 56181,
    "hosted": 52325,
    "▁Tournament": 30752,
    "要想": 20592,
    "脑": 60548,
    "墩": 63420,
    "▁contour": 29891,
    "▁rescued": 35653,
    "变了": 36014,
    "maha": 54045,
    "ermanent": 55978,
    "报道称": 42128,
    "比亚": 19769,
    "Manager": 8674,
    "ographically": 50888,
    "▁climbing": 20405,
    "urt": 4627,
    "▁Houston": 13734,
    "▁Jobs": 24448,
    "的速度": 28488,
    "要注意": 17835,
    "igg": 13942,
    "▁Claire": 39394,
    "iability": 51393,
    "Drive": 36197,
    "ming": 3621,
    "撰写": 40149,
    "▁crim": 7471,
    "本发明的": 34543,
    "ynamical": 43505,
    "不绝": 36126,
    "ense": 1644,
    "宣讲": 20342,
    "▁terminate": 40114,
    "ichuan": 45459,
    "adeon": 55241,
    "▁nostalgia": 49317,
    "内容": 3188,
    "▁transl": 7724,
    "▁motto": 46396,
    "pleasant": 33559,
    "火灾": 19860,
    "leq": 2959,
    "身体的": 28775,
    "Pod": 37169,
    "omes": 23139,
    "▁profoundly": 51452,
    "清洁": 13404,
    "▁Tu": 35612,
    "转变": 13693,
    "sector": 51082,
    "▁Election": 32290,
    "▁framed": 35048,
    "▁grown": 9599,
    "▁wheat": 23590,
    "第三季度": 57953,
    "consin": 15860,
    "allow": 9364,
    "就连": 23902,
    "▁termed": 39881,
    "▁Abbott": 47852,
    "▁Certain": 50568,
    "ство": 9261,
    "▁spac": 18680,
    "▁rein": 11620,
    "马拉松": 38816,
    "▁Malaysian": 49172,
    "斗争": 18294,
    "还要": 7530,
    "Init": 23697,
    "▁Corinthians": 57934,
    "不耐": 58006,
    "Х": 61559,
    "▁eliminating": 27266,
    "▁processes": 6589,
    "禁区": 46671,
    "▁Armed": 39435,
    "async": 20414,
    "▁Ann": 8539,
    "ONT": 23425,
    "芙": 63015,
    "aze": 11953,
    "▁reven": 15102,
    "▁Ninja": 48598,
    "▁heartbeat": 52049,
    "▁crews": 35157,
    "▁web": 3447,
    "Mer": 26110,
    "▁Others": 21859,
    "▁stre": 2351,
    "VERT": 37973,
    "浙江省": 21016,
    "blog": 4847,
    "▁flirt": 52501,
    "arXiv": 52909,
    "▁terrible": 11697,
    "相机": 26355,
    "obia": 33565,
    "▁infinites": 56973,
    "医生": 6848,
    "over": 1512,
    "};\\\\": 39964,
    "verted": 15782,
    "▁storing": 26086,
    "ascade": 26514,
    "▁Ки": 38512,
    "陷阱": 40674,
    "produ": 6821,
    "红豆": 58578,
    "转会": 50393,
    "▁readiness": 54269,
    "▁Growth": 31711,
    "并与": 29187,
    "质量": 3726,
    "▁basement": 22517,
    "所学": 49054,
    "绿地": 42602,
    "▁standards": 7374,
    "▁ejac": 58623,
    "nYeah": 21430,
    "▁Updated": 41927,
    "agus": 46503,
    "ret": 4221,
    "cond": 1443,
    "的头": 47831,
    "▁points": 2607,
    "▁troops": 13798,
    "钢筋": 41831,
    "hz": 41060,
    "――": 27603,
    "▁бъ": 35533,
    "<0x70>": 417,
    "olver": 16942,
    "**(-": 40228,
    "▁hosts": 15193,
    "之情": 29910,
    "一日": 16851,
    "开的": 28241,
    "▁singular": 11460,
    "folio": 11912,
    "▁myth": 13190,
    "itzer": 15735,
    "}=-\\\\": 37452,
    "的钱": 26609,
    "quantum": 27069,
    "认识": 5690,
    "形容": 20680,
    "▁stop": 2421,
    "启蒙": 44487,
    "▁plants": 8457,
    "道路交通": 55713,
    "▁sket": 32968,
    "iblings": 26068,
    "▁Stores": 53669,
    "▁Lion": 24694,
    "▁processors": 29603,
    "▁causal": 29779,
    "▁unambig": 55319,
    "的地步": 57151,
    "▁intentions": 24430,
    "nCheck": 17344,
    "gerald": 50795,
    "崇尚": 55229,
    "nAdding": 52644,
    "债券": 22006,
    "▁bol": 17276,
    "在心里": 50917,
    "Post": 10468,
    "肇事": 39057,
    "▁Naz": 16753,
    "itsub": 53459,
    "times": 2617,
    "日常生活中": 32919,
    "▁areas": 3838,
    "网上": 9610,
    "▁garage": 15334,
    "较少": 34744,
    "疫苗接种": 38733,
    "brand": 22658,
    "astery": 48061,
    "▁accomplish": 13602,
    "缪": 63903,
    "▁Administrator": 39885,
    "More": 11785,
    "%%%%%%%%": 13240,
    "liferation": 40383,
    "乐趣": 25511,
    "掩": 61990,
    "引导学生": 45810,
    "▁earrings": 51745,
    "▁greatness": 45131,
    "▁capacity": 7143,
    "小学生": 40360,
    "▁Brid": 28742,
    "▁preservation": 31036,
    "▁isolation": 23734,
    "origin": 31041,
    "ddot": 34230,
    "▁sugars": 55111,
    "▁holes": 10754,
    "ASC": 37229,
    "solid": 23428,
    "检察": 8866,
    "秩序": 14037,
    "增添": 27358,
    "▁shells": 30998,
    "▁бро": 54636,
    "rab": 6277,
    "電子": 37911,
    "aaS": 38063,
    "内存": 25145,
    "built": 24504,
    "▁bon": 7946,
    "neck": 38951,
    "Connell": 40102,
    "ament": 3257,
    "不明白": 45557,
    "▁melee": 49560,
    "▁pers": 3851,
    "▁excellent": 5848,
    "▁nanop": 52367,
    "alter": 33964,
    "second": 9876,
    "▁highs": 38829,
    "```": 114,
    "ENT": 4512,
    "五年": 15388,
    "姥姥": 46960,
    "otypes": 21588,
    "▁VT": 50516,
    "▁scholar": 14165,
    "Wrap": 43607,
    "接下来的": 29206,
    "过硬": 55002,
    "的人格": 56560,
    "▁wearing": 8606,
    "▁sugar": 8961,
    "了大量": 58299,
    "戏曲": 43155,
    "factor": 22659,
    "工地": 26595,
    "▁junction": 31965,
    "▁Bast": 44913,
    "症状": 8871,
    "theless": 11862,
    "仅次于": 48908,
    "奥斯卡": 56075,
    "落": 60176,
    "霍": 61800,
    "匈": 63248,
    "▁realizing": 26961,
    "沉重的": 58640,
    "▁AJ": 39579,
    "财政部": 44478,
    "▁claimed": 10004,
    "▁Shadow": 28342,
    "okia": 29214,
    "Op": 19942,
    "ATION": 8015,
    "inning": 36907,
    "▁hel": 1210,
    "LD": 11361,
    "转入": 46761,
    "dl": 15196,
    "anye": 44708,
    "历史的": 28711,
    "国人": 36831,
    "歌曲": 17256,
    "PREFIX": 54522,
    "写道": 34132,
    "Mg": 10552,
    "▁internationally": 26469,
    "鳞": 63495,
    "不合理": 49226,
    "usepackage": 31203,
    "▁Twins": 42651,
    "▁bos": 14274,
    "▁exch": 14528,
    "▁discouraged": 46650,
    "▁beds": 20165,
    "▁Tul": 55073,
    "▁X": 1903,
    "beq": 40834,
    "▁An": 1766,
    "▁carriers": 21543,
    "大专": 49875,
    "载": 60564,
    "▁showers": 31004,
    "健康发展": 42754,
    "乳腺": 25536,
    "Implementation": 54196,
    "▁peaceful": 18696,
    "чава": 30292,
    "calar": 39937,
    "ates": 1055,
    "▁organizations": 7520,
    "pie": 25497,
    "▁contributes": 24749,
    "工程的": 53651,
    "大使": 29218,
    "珀": 63572,
    "nForm": 21724,
    "▁China": 4952,
    "屎": 63231,
    "和美国": 47061,
    "€™": 24634,
    "ord": 941,
    "情景": 31628,
    "herty": 50438,
    "▁Stre": 33619,
    "▁Games": 11339,
    "▁bracket": 25630,
    "难以": 9316,
    "how": 4849,
    "▁Lewis": 16582,
    "宁德": 50405,
    "<0xB6>": 487,
    "▁cozy": 31741,
    "足以": 18566,
    "жава": 54206,
    "而不": 11691,
    "扩散": 27958,
    "身體": 35460,
    "性与": 45448,
    "plic": 30508,
    "的文化": 24805,
    "erton": 41076,
    "▁Venice": 43662,
    "▁stabilization": 48067,
    "in": 563,
    "▁massless": 37670,
    "拿了": 48438,
    "斋": 63238,
    "只是": 3331,
    "走近": 51257,
    "快乐": 7642,
    "教育厅": 49059,
    "▁interpolation": 30123,
    "只有一个": 32817,
    "\\\"></": 7132,
    "▁propos": 7133,
    "yd": 13542,
    "▁benchmark": 13967,
    "▁economics": 19806,
    "still": 32107,
    "▁Schwarzschild": 52579,
    "钧": 63362,
    "▁obesity": 27077,
    "▁daytime": 47644,
    "utors": 23417,
    "灯火": 59566,
    "▁spont": 21385,
    "拥有": 5797,
    "cé": 51942,
    "▁\\\"%": 31824,
    "詳": 63856,
    "▁impose": 21769,
    "▁Accept": 35925,
    "▁umbrella": 36506,
    "Z": 59840,
    "▁SPEC": 48020,
    "处方": 46862,
    "▁retirement": 14061,
    "▁Hillary": 19534,
    "Aud": 39813,
    "ht": 667,
    "假装": 44306,
    "▁encount": 8159,
    "▁determined": 5861,
    "▁FPS": 46910,
    "升": 60120,
    "但这": 24000,
    "▁Illinois": 14247,
    "热线": 36821,
    "▁somebody": 12563,
    "Sty": 12586,
    "▁flour": 14023,
    "兵力": 52924,
    "▁lifestyles": 53547,
    "给他们": 27597,
    "正处于": 47818,
    "不用担心": 50988,
    "▁nearly": 4735,
    "不可或缺": 46786,
    "▁Daniel": 12279,
    "NjE": 46864,
    "进修": 49412,
    "花费": 22518,
    "本实用新型": 17774,
    "引起了": 29007,
    "或者其他": 46446,
    "跌停": 49544,
    "发自": 53220,
    "唯": 60952,
    "digital": 39600,
    "▁Tax": 14219,
    "▁cares": 20471,
    "▁Blues": 28347,
    "apiro": 58621,
    "火力": 47410,
    "我是": 8536,
    "▁doubles": 30020,
    "▁remarkable": 15086,
    "▁exterior": 21229,
    "▁exhibitions": 44470,
    "▁Па": 27594,
    "itute": 5214,
    "▁Lopez": 38388,
    "inc": 3202,
    "▁Real": 9425,
    "▁aware": 5107,
    "一道": 20619,
    "items": 14356,
    "theo": 49094,
    "▁evaluations": 34172,
    "一看": 16250,
    "ollary": 12547,
    "▁potatoes": 22440,
    "▁surprisingly": 18675,
    "如果在": 34105,
    "▁Messenger": 47717,
    "▁Progressive": 48771,
    "▁supersymmetry": 49808,
    "▁danced": 55841,
    "because": 18234,
    "用在": 46387,
    "algebras": 57603,
    "▁aging": 20833,
    "也希望": 42233,
    "硅谷": 59383,
    "古镇": 38886,
    "▁dermat": 55459,
    "垦": 63476,
    "咱们": 15943,
    "ograp": 8963,
    "严格按照": 33070,
    "思考": 7348,
    "enko": 49417,
    "▁obs": 16207,
    "▁Markov": 25711,
    "夫妇": 26217,
    "tag": 6789,
    "▁nature": 4494,
    "▁influential": 23909,
    "央视": 27345,
    "Cross": 32874,
    "检修": 38356,
    "副本": 23551,
    "▁Forex": 52643,
    "▁complain": 17906,
    "<0x29>": 346,
    "发出": 12390,
    "搜狐": 44593,
    "▁pools": 28480,
    "▁formulations": 54594,
    "管道": 16285,
    "▁properly": 7262,
    "Parser": 21706,
    "就这么": 35993,
    "▁Merry": 58453,
    "gettable": 39286,
    "ó": 61295,
    "inder": 8036,
    "▁Sleep": 27720,
    "囤": 63985,
    "▁facilitates": 47793,
    "机构": 3899,
    "溢": 61908,
    "首发": 31354,
    "首先": 5452,
    "xp": 40555,
    "▁splits": 32827,
    "▁PayPal": 34759,
    "▁News": 5205,
    "自己的": 2045,
    "于是": 6219,
    "▁’": 15353,
    "norgan": 56313,
    "Draw": 17698,
    "日均": 55853,
    "People": 20842,
    "榜首": 49458,
    "微笑": 17040,
    "其他人": 25450,
    "同伴": 43636,
    "玻": 61527,
    "wire": 21832,
    "▁guessing": 24528,
    "APP": 14307,
    "润": 60863,
    "面粉": 37710,
    "▁inhabitants": 33231,
    "\\": 59580,
    "▁Whe": 7560,
    "VIS": 30935,
    "提交": 9666,
    "▁Presbyter": 57967,
    "flight": 38646,
    "nCom": 5048,
    "＂": 63595,
    "'''\\": 36649,
    "▁slack": 39479,
    "▁Rup": 45534,
    "齡": 63577,
    "▁revolutionary": 26342,
    "▁esp": 32757,
    "▁improper": 33261,
    "▁LI": 19895,
    "▁rug": 15976,
    "▁lemma": 20329,
    "▁St": 1016,
    "▁MS": 10074,
    "▁Byz": 54681,
    "我会": 14107,
    "这两种": 40183,
    "和田": 58171,
    "▁Brew": 19185,
    "orient": 15922,
    "▁For": 1516,
    "▁adult": 9142,
    "▁supplements": 23862,
    "▁showed": 5617,
    "▁ducks": 53361,
    "转子": 53888,
    "建档立卡": 57952,
    "phantom": 22269,
    "卒": 62803,
    "▁cease": 27183,
    "ustom": 1872,
    "nAppro": 52300,
    "取胜": 56948,
    "内部": 8105,
    "绿豆": 57384,
    "的认识": 35885,
    "▁pertaining": 36086,
    "▁Journal": 10710,
    "打磨": 45467,
    "还不": 17118,
    "▁boast": 43179,
    "icken": 8436,
    "nU": 2445,
    "的无": 29756,
    "敢于": 26251,
    "ellery": 39488,
    "泾": 63981,
    "izar": 19946,
    "▁experiments": 7059,
    "成績": 52649,
    "▁много": 29344,
    "▁Kh": 18501,
    "▁workplace": 20499,
    "<0x20>": 337,
    "同事": 11991,
    "formance": 13441,
    "▁cutting": 10101,
    "gins": 45266,
    "▁sexuality": 28583,
    "得的": 39216,
    "▁Rac": 46287,
    "形成": 3752,
    "诗人": 22873,
    "做一个": 20749,
    "家协会": 39994,
    "eking": 26860,
    "'\\\"\\": 46907,
    "########": 6363,
    "表彰": 24240,
    "联想": 33234,
    "本报": 51898,
    "学士": 48031,
    "司机": 13914,
    "▁STAT": 35010,
    "ewish": 49420,
    "▁cinematic": 49995,
    "▁Fruit": 51339,
    "iddle": 3684,
    "▁means": 2296,
    "也不能": 17899,
    "联储": 20282,
    "▁Bill": 7367,
    "oj": 25026,
    "▁leaning": 34241,
    "▁sympathetic": 40693,
    "向我们": 53410,
    "▁Aval": 55751,
    "Native": 36835,
    "军民": 57214,
    "nObs": 59323,
    "教室": 16996,
    "▁guy": 4089,
    "can": 6420,
    "▁br": 2471,
    "ensure": 6679,
    "nFast": 42407,
    "▁exting": 54992,
    "▁autonomy": 44987,
    "基金经理": 58210,
    "aterials": 48143,
    "▁persons": 12070,
    "▁translates": 30426,
    "冷藏": 56875,
    "alert": 22634,
    "NQ": 11659,
    "▁Bridge": 15966,
    "偷": 61316,
    "erably": 54686,
    "宠物": 27289,
    "=(": 8931,
    "曾經": 51779,
    "▁(/": 55131,
    "行業": 48584,
    "things": 47002,
    "▁immature": 58967,
    "▁chip": 14085,
    "▁WI": 40982,
    "▁asymmetric": 32104,
    "有时间": 50242,
    "引起": 6619,
    "▁propagate": 44334,
    "omaly": 26072,
    "我国的": 34160,
    "▁th": 601,
    "▁old": 1851,
    "▁others": 2501,
    "queue": 20262,
    "Doc": 21005,
    "nLittle": 51445,
    "常有": 59030,
    "au": 2159,
    "的信号": 59361,
    "宽度": 29494,
    "也比": 54662,
    "▁scoring": 13789,
    "rans": 9427,
    "▁numer": 4470,
    "\\\\|_": 30929,
    "▁polls": 20467,
    "▁cultiv": 20398,
    "合资": 34898,
    "▁Paul": 5614,
    "▁sitting": 7297,
    "▁breast": 12309,
    "▁outlets": 23487,
    "▁pursuant": 38928,
    "▁Вели": 52618,
    "▁tours": 22018,
    "ци": 3602,
    "plies": 38576,
    "▁Wa": 25963,
    "tenant": 59333,
    "在上述": 56336,
    "宋代": 50737,
    "上半": 31639,
    "深化": 14285,
    "▁descendants": 45523,
    "▁magnificent": 28428,
    "冲洗": 41881,
    "都将": 32523,
    "▁Else": 49189,
    "are": 871,
    "'$": 7181,
    "凤": 61377,
    "▁theaters": 35628,
    "sha": 23077,
    "▁FI": 26044,
    "▁cited": 17881,
    "ervice": 3561,
    "nDon": 10983,
    "突出问题": 55677,
    "机": 59768,
    "rit": 1245,
    "集结": 45796,
    "ões": 47098,
    "upted": 41923,
    "Lib": 16375,
    "容器": 23979,
    "▁gamer": 47442,
    "▁handset": 54618,
    "订": 60779,
    "}$": 938,
    "<|unused150|>": 295,
    "nPol": 17915,
    "▁Mix": 23754,
    "▁разви": 49485,
    "▁tut": 10308,
    "▁KIND": 31521,
    "合成": 20859,
    "尸": 62126,
    "umerate": 8488,
    "▁California": 5551,
    "▁Hat": 24556,
    "▁Arctic": 34659,
    "有这么": 48650,
    "reak": 4102,
    "ubuntu": 7085,
    "吃不": 57376,
    "選舉": 50709,
    "unts": 33198,
    "医疗卫生": 45801,
    "关节": 16392,
    "▁insensitive": 48711,
    "用的": 7686,
    "▁erect": 27918,
    "▁Tennis": 48429,
    "ymmet": 7615,
    "▁absorption": 14773,
    "▁som": 1353,
    "搬到": 58136,
    "就會": 39886,
    "▁Cut": 18408,
    "nused": 33797,
    "": 63568,
    "高度": 8688,
    "刹车": 35629,
    "侧重": 49475,
    "近乎": 49288,
    "God": 22062,
    "▁products": 3062,
    "一趟": 54087,
    "精致": 20473,
    "▁supporters": 14614,
    "▁cardiovascular": 36477,
    "▁iff": 52012,
    "技能": 7390,
    "nMad": 55348,
    "bio": 53478,
    "▁bakery": 52209,
    "表现的": 59294,
    "▁horn": 23447,
    "▁keeping": 6457,
    "▁Associated": 25530,
    "江西省": 35248,
    "时分": 42822,
    "nGot": 51387,
    "ummy": 14389,
    "ylan": 31916,
    "▁EP": 20758,
    "tal": 30388,
    "▁anest": 47202,
    "▁Isaiah": 56446,
    "肉类": 47480,
    "堆": 61399,
    "File": 5148,
    "独特的": 19541,
    "▁APP": 45619,
    "части": 34675,
    "isha": 31803,
    "▁cyclic": 33440,
    "fc": 9790,
    "▁renewal": 32565,
    "вест": 40075,
    "mabaochang": 32010,
    "uss": 1511,
    "市场监管局": 50588,
    "园林": 25393,
    "vr": 40082,
    "不妨": 25631,
    "▁Manual": 33920,
    "▁misery": 44898,
    "▁Days": 20399,
    "在一次": 51709,
    "webpack": 57279,
    "▁cush": 25573,
    "▁Dum": 50125,
    "nLatest": 43940,
    "追踪": 34417,
    "▁mechanisms": 14756,
    "lake": 45747,
    "和服务": 26846,
    "密码": 23606,
    "ncomment": 2682,
    ")/": 6459,
    "▁Travel": 15402,
    "▁ор": 28076,
    "console": 14099,
    "▁Pale": 41620,
    "bos": 40529,
    "▁hamm": 38828,
    "▁blatant": 52601,
    "pression": 9840,
    "艾": 61353,
    "▁pretend": 23646,
    "▁liner": 43762,
    "nomial": 8889,
    "$\\\\%$": 58677,
    "▁elsewhere": 12718,
    "手工": 26865,
    "▁consistency": 15881,
    "▁aggressively": 41352,
    "zu": 36577,
    "iding": 4542,
    "parametric": 48553,
    "▁joyful": 53465,
    "▁legs": 9992,
    "});\\": 5434,
    "加油": 15346,
    "shake": 52499,
    "annah": 21360,
    "献血": 35773,
    "▁Jud": 8972,
    "Ur": 55206,
    "}/{": 47631,
    "三方": 55954,
    "留下": 13165,
    "})}$": 55530,
    "▁lazy": 18571,
    "希望能够": 48680,
    "volent": 59480,
    "纲要": 55291,
    "将有": 44071,
    "认识到": 24678,
    "支教": 53758,
    "▁trusts": 55430,
    "▁SK": 25352,
    "▁shipping": 10300,
    "爱国": 18282,
    "xin": 38562,
    "ди": 3728,
    "▁multin": 50327,
    "riteria": 23251,
    "from": 5512,
    "小红": 43154,
    "▁lim": 2032,
    "▁рабо": 28896,
    "▁computing": 11936,
    "整體": 52947,
    "▁conclusion": 10144,
    "▁Ian": 25296,
    "time": 2627,
    "标": 59979,
    "tis": 38708,
    "iques": 5775,
    "▁freely": 18728,
    "▁Analyst": 58830,
    "▁empowered": 47029,
    "▁quoted": 18213,
    "▁brick": 22349,
    "▁Methodist": 48316,
    "OTM": 49748,
    "▁Sunset": 55143,
    "ancy": 6048,
    "再审": 45187,
    "▁IG": 52610,
    "▁Charity": 59343,
    "原文": 32236,
    "▁dictated": 54813,
    "没有办法": 41040,
    "就被": 17323,
    "树脂": 25995,
    "▁tribes": 32330,
    "phants": 46053,
    "uristic": 27736,
    "但随着": 58260,
    "▁boo": 32118,
    "郡": 62598,
    "▁clearly": 5396,
    "长久": 30711,
    "▁protected": 9946,
    "副市长": 38491,
    "inks": 14790,
    "关乎": 55988,
    "▁transmitter": 40913,
    "▁intuitive": 24325,
    "▁Essex": 55652,
    "▁Ald": 29357,
    "▁emp": 8563,
    "iovascular": 32571,
    "ARC": 37770,
    "可以使": 52270,
    "addClass": 54616,
    "▁Adventure": 31770,
    "nsh": 11262,
    "▁newsletter": 19577,
    "trial": 58422,
    "且": 60079,
    "▁ignorance": 26015,
    "交互": 26533,
    "Invalid": 23748,
    "NL": 23040,
    "裙子": 40614,
    "▁horizontally": 51999,
    "dummy": 59072,
    "ool": 1370,
    "避开": 40359,
    "▁societal": 42780,
    "nThomas": 45256,
    "criptions": 35263,
    "▁dye": 37214,
    "▁innocent": 17195,
    "music": 33742,
    "<|unused005|>": 150,
    "▁ft": 21522,
    "adow": 8503,
    "▁maximizing": 40692,
    "nWithout": 29705,
    "<|unused121|>": 266,
    "貼": 63353,
    "▁cd": 27773,
    "引进": 17512,
    "周年": 14942,
    "WAYS": 45265,
    "wood": 5080,
    "过往": 26834,
    "用到": 40557,
    "领导和": 42513,
    "▁legends": 42638,
    "额外的": 55938,
    "晏": 63619,
    "ensitive": 19711,
    "arts": 8694,
    "jing": 51908,
    "顾": 60604,
    "щи": 11838,
    "客户": 5906,
    "ampling": 54758,
    "文學": 59239,
    "ancell": 21339,
    "▁HQ": 42148,
    "长大后": 56407,
    "村委会": 31084,
    "▁Sal": 8404,
    "战场": 24972,
    "发展战略": 52014,
    "▁dinosaur": 56840,
    "▁server": 5160,
    "rarily": 31196,
    "Selected": 25850,
    "grounds": 54688,
    "▁pave": 34239,
    "▁XV": 56642,
    "▁DEF": 24810,
    "rele": 13020,
    "▁axes": 30592,
    "▁impatient": 57675,
    "石头": 21694,
    "十三": 12512,
    "ulty": 11702,
    "▁Palestin": 14564,
    "▁Portug": 20409,
    "▁gears": 43428,
    "comings": 45812,
    "▁Improve": 32526,
    "▁Township": 31890,
    "CE": 6108,
    ":%": 40034,
    "ahaw": 33956,
    "Original": 38989,
    "▁Nexus": 33268,
    "相较": 36501,
    "合适": 12035,
    "在世界": 42730,
    "▁secretary": 18694,
    "▁talked": 9575,
    "iratory": 28889,
    "明月": 42704,
    "nIndeed": 25545,
    "专业的": 16333,
    "▁state": 1622,
    "▁torque": 26848,
    "▁successive": 32156,
    "牛逼": 58511,
    "▁semester": 21687,
    "不仅能": 49997,
    "▁McG": 18132,
    "配套": 13830,
    "职务": 20018,
    "roots": 29162,
    "ottle": 37273,
    "DoxyCodeLine": 45121,
    "高标准": 40824,
    "простра": 44833,
    "▁elo": 50689,
    "▁Town": 10799,
    "▁seven": 5807,
    "▁Sant": 20982,
    "业态": 35480,
    "орги": 48003,
    "olt": 11667,
    "地对": 53705,
    "▁Ivy": 46948,
    "也不会": 13104,
    "▁wage": 16215,
    "▁robustness": 27921,
    "▁Infinity": 54934,
    "<0x1F>": 336,
    "▁Fut": 45687,
    "RETURN": 52729,
    "悟": 61371,
    "▁Pl": 2141,
    "风机": 43090,
    "其实是": 24757,
    "▁Draw": 26226,
    "nLeg": 45917,
    "老了": 39505,
    "衣服": 9414,
    "前者": 32940,
    "frame": 9848,
    "Gra": 37711,
    "消費": 32029,
    "▁национа": 50462,
    "<0x2A>": 347,
    "Ren": 45723,
    "​​": 42507,
    "igious": 16617,
    "成员": 7674,
    "也可能": 31915,
    "▁obscene": 56086,
    "灾": 61032,
    "nate": 36229,
    ";": 59631,
    "▁trademark": 25818,
    "夫妻关系": 51547,
    "两个孩子": 57054,
    "小腿": 59413,
    "真实性": 23355,
    "李白": 50934,
    "▁posting": 10099,
    "因为这个": 52137,
    "▁appreci": 5388,
    "▁len": 11797,
    "izard": 17667,
    "semin": 31632,
    "▁Baseball": 23479,
    "可怜": 27495,
    "微量": 43733,
    "▁descriptors": 58767,
    "▁Cluster": 46056,
    "極": 62194,
    "位的": 22026,
    "▁dynamics": 7912,
    "AS": 2303,
    "窜": 63576,
    "本职": 48224,
    "▁heavier": 26835,
    "加倍": 31154,
    "▁substantive": 56385,
    "挑战": 9207,
    "Has": 22160,
    "YPE": 25084,
    "看的": 23636,
    "▁typeof": 37276,
    "▁suck": 11151,
    "hw": 35256,
    "quarter": 36514,
    "▁prosecutors": 31637,
    "▁Console": 41892,
    "▁coalition": 21761,
    "▁Mono": 56309,
    "▁apology": 36454,
    "低点": 58284,
    "н": 59675,
    "药业": 50622,
    "pg": 6638,
    "▁dealership": 36459,
    "pton": 11190,
    "▁ви": 14878,
    "▁chin": 35397,
    "От": 59006,
    "▁Ox": 18080,
    "<|unused032|>": 177,
    "男子": 10886,
    "▁pads": 27001,
    "▁trigger": 12396,
    "运行": 7252,
    "▁mechanics": 17286,
    "河流": 29092,
    "arker": 33138,
    "▁acquired": 14024,
    "avascript": 9814,
    "糖尿病": 19399,
    "价": 59958,
    "三星": 21130,
    "ocular": 40848,
    "frequency": 23894,
    "▁пре": 4881,
    "▁gall": 9418,
    "任何": 3944,
    "▁majority": 6124,
    "gments": 10166,
    "▁$|\\\\": 15298,
    "▁slightest": 43749,
    "nChapter": 44776,
    "▁управ": 47918,
    "ς": 63356,
    "▁maneu": 31184,
    "联动": 19807,
    "顺": 60510,
    "这将": 46688,
    "▁existential": 55512,
    "ducation": 33240,
    "经济增长": 31970,
    "▁predictable": 29855,
    "nWow": 29504,
    "alpha": 1619,
    "▁Jeremy": 26574,
    "리": 63886,
    "下车": 27593,
    "▁poetic": 51676,
    "umber": 2647,
    "这里是": 42387,
    "犹豫": 23350,
    "～": 61105,
    "商务": 11485,
    "蹄": 63135,
    "▁abdominal": 48433,
    "东路": 53753,
    "▁{{\\\\": 35954,
    "情绪": 6751,
    "传输": 18192,
    "▁assist": 4366,
    "奇妙": 50761,
    "状": 60238,
    "小时": 4937,
    "▁illumination": 38756,
    "▁Victorian": 34768,
    "▁QA": 42970,
    "▁bible": 34452,
    "▁SAP": 41607,
    "initialize": 44051,
    "数据中心": 56372,
    "heavy": 37025,
    "▁excel": 37776,
    "▁sensors": 17830,
    "市政": 32196,
    "лни": 30504,
    "▁peer": 17487,
    "nPros": 41115,
    "ogle": 3131,
    "MP": 8610,
    "▁disable": 20048,
    "▁EF": 51642,
    "▁Lutheran": 55433,
    "Clear": 37116,
    "予以": 8170,
    "▁policing": 57334,
    "脖": 62612,
    "nbut": 13186,
    "orange": 37140,
    "nJeff": 39612,
    "▁compare": 7271,
    "▁Hiro": 54050,
    "滴": 61285,
    "▁tim": 5153,
    "▁Behavior": 40895,
    "▁elites": 52064,
    "zel": 29381,
    "国家安全": 39653,
    "价格的": 50960,
    "▁briefly": 15551,
    "▁Ро": 33090,
    "▁threads": 17270,
    "的就": 49743,
    "援助": 21088,
    "<h5/>": 45,
    "拉开": 27324,
    "外来": 36928,
    "▁impaired": 43118,
    "TOP": 34819,
    "▁AR": 9290,
    "物种": 37198,
    "▁Barn": 19779,
    "▁Category": 33784,
    "eon": 51707,
    "▁examining": 28616,
    "ack": 804,
    "chet": 26725,
    "ulsion": 22926,
    "放在": 7752,
    ")}_": 21700,
    "hook": 22418,
    "▁dire": 3622,
    "▁imagining": 50846,
    "貨": 62791,
    "▁writer": 7564,
    "▁solver": 38373,
    "庆幸": 46186,
    "县人民政府": 54889,
    "制的": 17485,
    "▁key": 2433,
    "properties": 21760,
    "党组": 24011,
    "▁mil": 2670,
    "猪肉": 23341,
    "▁github": 50207,
    "Fi": 11074,
    ")}=": 30503,
    "ms": 1457,
    "▁Wow": 30089,
    "iro": 14238,
    "Colum": 35730,
    "▁digestive": 43462,
    "立场": 26003,
    "理想信念": 56770,
    "篇": 60801,
    "cast": 3764,
    "▁inflat": 44108,
    "records": 54689,
    "learning": 15578,
    "彈": 63230,
    "NjY": 36154,
    "灯光": 25828,
    "聚合": 38758,
    "峰会": 35240,
    "inition": 8087,
    "nWant": 31104,
    "▁Shepherd": 50463,
    "▁microscope": 48690,
    "▁pizz": 54212,
    "镑": 63253,
    "▁live": 2605,
    "▁Prior": 24237,
    "❤": 63741,
    "预报": 38044,
    "YY": 24961,
    "媒体报道": 36933,
    "medium": 27545,
    "BE": 10470,
    "凡事": 43800,
    "/}": 57610,
    "SSM": 42022,
    "<0xC5>": 502,
    "▁investigative": 46418,
    "▁Messiah": 56749,
    "学校": 2703,
    "熟悉的": 29314,
    "▁bounds": 14518,
    "驾驭": 49360,
    "▁bands": 10238,
    "▁provin": 21811,
    "▁boundary": 7302,
    "案例": 10985,
    "cyclop": 35661,
    "or": 576,
    "明": 59789,
    "nevery": 32911,
    "▁bottlene": 39396,
    "지": 63408,
    "▁result": 1338,
    "Series": 31481,
    "ns": 1177,
    "▁tattoos": 39211,
    "停电": 58800,
    "tem": 6467,
    "▁forbidden": 30836,
    "利用": 4211,
    "Be": 6423,
    "forms": 21148,
    "yalty": 19168,
    "against": 57240,
    "▁singers": 43035,
    "▁Afghanistan": 14992,
    "▁gotten": 10103,
    "▁certainty": 32223,
    "▁convince": 17989,
    "▁Stanford": 25403,
    "enc": 3200,
    "invariant": 27678,
    "希望在": 52590,
    "а": 59643,
    "祝贺": 39441,
    "▁sigma": 48517,
    "neach": 31670,
    "▁Carnegie": 56804,
    "▁criteria": 11606,
    "UV": 20781,
    "▁nation": 5124,
    "▁ring": 6715,
    "烟火": 52313,
    "提起诉讼": 52907,
    "▁bomb": 11202,
    "▁accessing": 27329,
    "▁Securities": 36634,
    "▁respecting": 54218,
    "▁Cycl": 57529,
    "杭": 61439,
    "▁stair": 31369,
    "chy": 37648,
    "▁extended": 7289,
    "▁ty": 19731,
    "▁worst": 7812,
    "▁gases": 31718,
    "▁Fields": 38254,
    "▁Leh": 46195,
    "会增加": 58948,
    "是指": 12355,
    "": 62737,
    "▁elaborate": 24950,
    "邊": 62295,
    "'')": 33412,
    "▁beans": 18837,
    "▁followers": 17032,
    "pod": 34646,
    "▁Orlando": 26053,
    "riters": 23207,
    "复苏": 25592,
    "▁hearing": 7646,
    "▁diversity": 13435,
    "▁energetic": 26833,
    "肉的": 58542,
    "▁Н": 8070,
    "通孔": 46829,
    "在全": 52777,
    "▁shrimp": 41476,
    "▁catastrophic": 42425,
    "▁misguided": 53703,
    "▁Foot": 14046,
    "▁recover": 10574,
    "审": 60217,
    "昆": 61674,
    "交易": 4730,
    "Field": 7780,
    "lear": 21532,
    "mcitedefault": 41277,
    "千米": 47307,
    "工具": 7905,
    "▁standard": 3344,
    "<0xB3>": 484,
    "▁priv": 5744,
    "莱坞": 48614,
    "▁Sat": 12343,
    "姿势": 27647,
    "▁Dixon": 54987,
    "Xml": 30493,
    "▁township": 38020,
    "`)": 33361,
    "Njc": 50679,
    "使用": 2253,
    "护航": 33153,
    "▁Institution": 56234,
    "深情": 35052,
    "▁Agg": 36295,
    "它的": 7265,
    ">'": 26076,
    "▁screened": 38220,
    "四年": 20064,
    "nIdent": 54755,
    "▁Geographic": 55402,
    "▁slipped": 31326,
    "▁near": 2947,
    "话剧": 58744,
    "Phone": 6147,
    "工委": 21415,
    "minent": 39314,
    "▁volatility": 34702,
    "consider": 22679,
    "Both": 39365,
    "Such": 41852,
    "回应": 14348,
    "▁coworkers": 54904,
    "科普": 18359,
    "▁Newcastle": 35967,
    "pq": 36440,
    "▁RE": 6361,
    "ngood": 42443,
    "▁photography": 14314,
    "▁Nak": 44313,
    "addresses": 50908,
    "cht": 31028,
    "ws": 12715,
    "cean": 8651,
    "▁bred": 54518,
    "煌": 62157,
    "美学": 39714,
    "丈夫": 11650,
    "▁following": 1926,
    "转移": 12436,
    "nRound": 48491,
    "▁bedroom": 11571,
    "nAd": 8271,
    "ceptive": 34837,
    "▁Fox": 11433,
    "▁ey": 2828,
    "饰演的": 48247,
    "uminate": 27281,
    "表决": 49766,
    "位": 59817,
    "▁BET": 47417,
    "培养": 5704,
    "战士": 21780,
    "版的": 22164,
    "Dr": 22848,
    "atories": 28308,
    "▁packed": 14578,
    "人选": 51456,
    "▁VALUES": 37981,
    "的功效": 39864,
    "nWell": 9055,
    "▁Football": 17998,
    "不强": 55369,
    "挂": 60911,
    "ncl": 26500,
    "ND": 3052,
    "さ": 63396,
    "焕": 62727,
    "▁plunge": 46990,
    "▁Ger": 23851,
    "顾虑": 54331,
    "▁clich": 56443,
    "式": 59886,
    "▁exposed": 11747,
    "systems": 45481,
    "rar": 32545,
    "結": 61563,
    "服务和": 54919,
    "▁territories": 32754,
    "riend": 1574,
    "利率": 9763,
    "春": 60333,
    "們": 60776,
    "▁Star": 6988,
    "全区": 21762,
    "sers": 42015,
    "▁pat": 2448,
    "ngiven": 30945,
    "Dep": 18900,
    "▁BH": 22247,
    "}}\\\"": 58751,
    "振": 60940,
    "▁Chron": 24410,
    "▁sore": 24271,
    "▁republic": 27340,
    "▁obsess": 38538,
    "均价": 32237,
    "的照片": 29678,
    "国家和地区": 56742,
    "选拔": 28833,
    "▁asserted": 46515,
    "▁buoy": 53771,
    "utable": 23530,
    "地产": 8306,
    "▁arrival": 13930,
    "nAnaly": 59161,
    "Bo": 13123,
    "想到": 7137,
    "mlin": 49634,
    "ustralia": 32939,
    "离子": 18984,
    "公园": 9463,
    "▁Sterling": 43226,
    "妊": 63221,
    "hab": 11243,
    "Lower": 32953,
    "▁obstruction": 50649,
    "sal": 20189,
    "wich": 15615,
    "']['": 26259,
    "▁hated": 24208,
    "▁LOC": 47285,
    "▁construed": 54903,
    "救护": 40782,
    "fam": 54574,
    "菇": 62417,
    "多媒体": 46090,
    "▁suff": 4415,
    "LINK": 39142,
    "use": 987,
    "统治": 22264,
    "assumption": 57065,
    "</tbody>": 67,
    "setminus": 13531,
    "▁Democr": 6034,
    "年初": 17413,
    "MzIy": 24562,
    "西班牙": 20356,
    "utils": 14554,
    "})+\\\\": 50830,
    "▁purpos": 59439,
    "ridge": 4592,
    "极其": 21462,
    "发了": 20931,
    "pper": 6081,
    "；（": 31090,
    "bane": 32165,
    "conn": 26991,
    "告诉大家": 58892,
    "▁mushroom": 50571,
    "和家人": 59140,
    "▁Ran": 41241,
    "▁Sa": 16872,
    "中全会": 45491,
    "panel": 21053,
    "$_\\\\": 37562,
    "wald": 51468,
    "▁basics": 21390,
    "▁same": 1368,
    "EY": 26589,
    "Generic": 24296,
    "pill": 37074,
    "ussed": 32108,
    "▁verte": 50229,
    "克": 60214,
    "features": 23901,
    "earning": 25484,
    "▁violates": 38008,
    "agg": 16634,
    "extract": 46987,
    "孤": 61294,
    "▁activate": 25332,
    "▁dinosaurs": 52087,
    "▁plain": 11917,
    "几十年": 42589,
    "▁Tail": 53116,
    "finish": 55454,
    "儀": 63478,
    "ics": 1120,
    "▁philosophy": 13705,
    "讲解了": 49185,
    "音频": 30779,
    "涝": 63769,
    "▁conven": 6955,
    "best": 14322,
    "ritic": 30996,
    "▁arrange": 9371,
    "▁Ryan": 11909,
    "幅度": 21776,
    "不懈": 31691,
    "▁UC": 28641,
    "但是": 1959,
    "$~\\\\": 32078,
    "▁unt": 1987,
    "▁Grants": 54711,
    "教育和": 39651,
    "钢铁": 21177,
    "▁scandals": 57113,
    "▁surv": 5404,
    "essed": 18497,
    "▁superintendent": 56387,
    "▁featuring": 12169,
    "展开": 10894,
    "▁Detective": 52454,
    "Whether": 54808,
    "ges": 3035,
    "事业单位": 23112,
    "▁psychologist": 42368,
    "sus": 46810,
    "顶级": 29340,
    "ades": 4548,
    "挂牌": 26388,
    "isal": 37529,
    "新村": 56394,
    "▁insulting": 48625,
    "treturn": 4390,
    "Mar": 15736,
    "perate": 46755,
    "▁Lions": 25767,
    "μ": 62334,
    "详细了解": 48742,
    "无愧": 51897,
    "克林": 59381,
    "▁richer": 38194,
    "褐": 63124,
    "谱": 61516,
    "found": 13573,
    "周刊": 48951,
    "▁mascul": 37258,
    "二楼": 43751,
    "${": 8886,
    "рез": 13192,
    "irror": 53563,
    "半径": 54386,
    "ac": 840,
    "Holder": 38777,
    "▁Num": 57840,
    "nOff": 26017,
    "<0x7E>": 431,
    "phan": 17610,
    "岔": 63810,
    "申请人": 21422,
    "▁Schwartz": 51720,
    "OOD": 55292,
    "▁enable": 8528,
    "Pin": 38319,
    "▁bottleneck": 48105,
    "Ctrl": 36446,
    "使人": 29942,
    "endix": 12024,
    "管理和": 30970,
    "庞大的": 39245,
    "ikers": 56962,
    "互联网": 7403,
    "▁accretion": 20318,
    "Num": 15774,
    "▁predators": 46381,
    "▁awaiting": 34885,
    "▁advertisements": 29164,
    "June": 35095,
    "▁reliably": 37165,
    "(<": 52000,
    "▁Kitchen": 24822,
    "消费者": 9291,
    "▁mountain": 11205,
    "头痛": 31349,
    "即使在": 48838,
    "photo": 23023,
    "和生活": 27640,
    "abolic": 35595,
    "交叉": 20369,
    "▁Length": 42093,
    "精彩": 10717,
    "bered": 12545,
    "▁THIS": 14907,
    "▁unrest": 46918,
    "▁wrench": 56967,
    "省长": 58633,
    "gets": 11692,
    "纪检": 29513,
    "感兴趣": 20463,
    "▁antioxid": 38642,
    "板和": 50281,
    "nb": 2771,
    "▁Greene": 48966,
    "▁improves": 17791,
    "更": 59812,
    "Chinese": 56281,
    "лин": 45769,
    "▁има": 19113,
    "▁Quin": 55917,
    "什么都不": 54287,
    "▁Dat": 15541,
    "▁Fried": 24214,
    "▁Providence": 51553,
    "▁Asian": 12358,
    "故": 60194,
    "须": 60489,
    "▁Dallas": 15498,
    "▁hyper": 7291,
    "between": 24802,
    "跨界": 45246,
    "▁outfield": 40819,
    "annotation": 23468,
    "canonical": 43794,
    "opoulos": 56748,
    "warm": 48617,
    "▁Fo": 34754,
    "phi": 1970,
    "▁Tweet": 48333,
    "只要": 5045,
    "麦克": 36399,
    "▁miss": 2917,
    "▁nominated": 25132,
    "▁impending": 47718,
    "爆竹": 58173,
    "{\\\\": 814,
    "▁warehouse": 29052,
    "▁Strong": 26647,
    "plant": 19198,
    "还不是": 47102,
    "出台": 15573,
    "fraid": 10163,
    "▁paying": 7932,
    "nThey": 6918,
    "▁happily": 23113,
    "▁Finder": 44715,
    "'+": 29992,
    "▁书": 22495,
    "Frame": 14133,
    "的费用": 45369,
    "了一家": 58747,
    "nof": 3218,
    "是谁": 20948,
    "▁neon": 41231,
    "了一件": 53795,
    "lstlisting": 56453,
    "은": 63862,
    "▁fallout": 56163,
    "centered": 34792,
    "▁processor": 15315,
    "多大的": 56337,
    "▁Legend": 27204,
    "受访": 48234,
    "落实好": 58415,
    "▁Valid": 27221,
    "override": 42377,
    "▁Yang": 30194,
    "忧": 61370,
    "▁statistical": 11564,
    "▁vanilla": 22669,
    "inear": 27811,
    "nWorking": 40323,
    "▁APR": 51498,
    "roid": 4051,
    "▁Psych": 22150,
    "プ": 63660,
    "▁Building": 15972,
    "▁jobs": 5652,
    "▁Tyr": 52038,
    "aws": 11605,
    "▁Theory": 26348,
    "▁Myanmar": 54443,
    "▁organizational": 30432,
    "等信息": 50581,
    "hoff": 46763,
    "▁keep": 1727,
    "iter": 2967,
    "倒闭": 59236,
    "欧洲": 9088,
    "生活的": 10830,
    "▁overhead": 19918,
    "▁breed": 21647,
    "另有": 35285,
    "马拉": 27424,
    "▁agricultural": 21246,
    "STRING": 42726,
    "▁Denote": 59120,
    "<0xA3>": 468,
    "▁afternoon": 8709,
    "几句": 44644,
    "weak": 21657,
    "▁justified": 24106,
    "▁waving": 49959,
    "▁strike": 11078,
    "时间去": 55344,
    "验证": 17254,
    "▁ascending": 48554,
    "▁DW": 53158,
    "▁alley": 42090,
    "在上海": 33474,
    "本科生": 46315,
    "<|unused157|>": 302,
    "▁Gardner": 44985,
    "е": 59669,
    "▁simmer": 43139,
    "▁hed": 25142,
    "▁stemming": 56868,
    "关口": 49012,
    "▁Bernard": 32625,
    "▁shoes": 10021,
    "本身的": 35912,
    "organization": 39895,
    "▁Memory": 26238,
    "ibal": 52199,
    "信息网": 56792,
    "▁Columb": 12066,
    "都要": 8969,
    "福利": 19294,
    "▁fat": 5700,
    "▁Sudan": 32969,
    "▁goalkeeper": 53401,
    "魁": 63171,
    "<0xA1>": 466,
    "MjE": 47040,
    "}}^{(": 36513,
    "▁bar": 3716,
    "予": 60492,
    "ensing": 15614,
    "Working": 54260,
    "处理好": 56764,
    "▁filtering": 23159,
    "就": 59674,
    "ospin": 42550,
    ")\\\\;": 53108,
    "▁Action": 13776,
    "▁being": 1325,
    "anyahu": 43096,
    "Interface": 16906,
    "Keep": 33728,
    "hend": 23346,
    "▁helping": 6657,
    "劳动关系": 43988,
    "▁recorder": 54868,
    "Plan": 21483,
    "ate": 687,
    "▁Alex": 7704,
    "阻击": 48290,
    "Mat": 16555,
    "▁所述": 28661,
    "相连": 25289,
    "dee": 54608,
    "河长": 55958,
    "但因为": 57796,
    "▁persistent": 23208,
    "care": 7163,
    "经销商": 34210,
    "管理体系": 52591,
    "分钟": 5238,
    "▁supers": 18370,
    "办理": 7599,
    "INESS": 50290,
    "▁Cover": 20900,
    "igen": 5995,
    "▁poorly": 18529,
    "mir": 22543,
    "тъ": 33649,
    "}}+": 34712,
    "产生的": 14785,
    "▁Kur": 37762,
    "来实现": 43864,
    "截": 60931,
    "▁occ": 2319,
    "▁extension": 8302,
    "▁к": 5676,
    "className": 34062,
    "nImage": 23448,
    "汉": 60527,
    "▁Friends": 19411,
    "当时": 4326,
    "▁ounces": 44582,
    "\\\\(": 49898,
    "万多": 45487,
    "description": 10275,
    "▁sie": 39126,
    "▁unravel": 49675,
    "我看到": 43162,
    "▁evening": 7360,
    "▁Kai": 58991,
    "robe": 27034,
    "隧道": 25366,
    "▁hurt": 8192,
    "喜剧": 32913,
    "cription": 3034,
    "\t\t\t": 124,
    "correlated": 44468,
    "▁polyester": 51043,
    "▁repe": 5295,
    "犯罪": 7532,
    "▁NAS": 12490,
    "▁Sky": 13169,
    "▁:-": 22890,
    "社": 59930,
    "靠": 60571,
    "}&=": 55642,
    "兴趣": 8356,
    "▁Curt": 33781,
    "▁OFF": 23839,
    "▁beast": 26803,
    "▁AW": 27502,
    "abb": 35057,
    "<0x82>": 435,
    "▁fidelity": 31964,
    "狗": 60929,
    "equation": 1355,
    "饮食": 10957,
    "开门": 27984,
    "vik": 56706,
    "这是个": 55890,
    "价值的": 28533,
    "必须要": 21996,
    "▁internal": 6669,
    "▁Twitter": 6877,
    "防火": 21848,
    "Frank": 40721,
    "▁eighth": 24982,
    "▁arcs": 41069,
    "subtitle": 42835,
    "的一端": 52180,
    "ron": 1729,
    "▁equity": 18244,
    "坐": 60598,
    "ypse": 42664,
    "▁faculty": 14683,
    "▁buddies": 39407,
    "pattern": 27812,
    "▁holog": 37275,
    "anya": 45473,
    "息息": 50118,
    "fact": 20929,
    "▁vehicles": 8853,
    "▁subsidies": 33508,
    "iko": 31137,
    "▁sep": 37403,
    "▁roast": 41140,
    "}^+": 47042,
    "秉": 62490,
    "说法": 13877,
    "『": 112,
    "wives": 49381,
    "▁ч": 18925,
    "▁tests": 6843,
    "▁Lev": 49122,
    "在公司": 51782,
    "具": 60001,
    "▁fif": 8424,
    "▁cultural": 9190,
    "▁": 55150,
    "▁keen": 19159,
    "并及时": 59496,
    "▁feeding": 17126,
    "eclipse": 35253,
    "▁Migration": 55324,
    "‚": 63254,
    "增持": 51946,
    "onent": 3059,
    "ć": 63455,
    "工作站": 51386,
    "实行": 11770,
    "是一名": 29378,
    "义": 60160,
    "▁bothered": 27365,
    "▁polish": 30228,
    "巴士": 43480,
    "ITY": 10387,
    "resistant": 41384,
    "▁pic": 15322,
    "有无": 38490,
    "▁WHAT": 32954,
    "深知": 49055,
    "vx": 52334,
    "栏": 61535,
    "前面的": 45684,
    "▁че": 11970,
    "▁Charleston": 46326,
    "▁Craft": 25882,
    "地说": 13162,
    "quit": 35765,
    "咕": 63450,
    "的事件": 35832,
    "ucky": 11731,
    "▁swings": 41687,
    "olas": 25633,
    "eem": 26629,
    "行政审批": 58676,
    "身子": 40358,
    "nVis": 24469,
    "<|unused029|>": 174,
    "▁Lenovo": 55621,
    "多久": 19455,
    "大约": 14543,
    "▁misogyn": 58936,
    "▁memory": 4891,
    "▁Development": 9298,
    "ican": 9681,
    "others": 12289,
    "▁lacking": 21027,
    "的字": 44723,
    "▁viable": 19237,
    "黑色": 15080,
    "账户": 17786,
    "ines": 1489,
    "▁congratulations": 59090,
    "危险": 9823,
    "房地产开发": 42867,
    "▁religious": 7486,
    "设备": 4312,
    "▁Rio": 26492,
    "backslash": 26396,
    "姓名": 27025,
    "jiang": 48377,
    "但他": 18652,
    "元年": 50468,
    "nOne": 4766,
    "城管": 30439,
    "▁Protection": 17896,
    "enz": 19096,
    "ogo": 41073,
    "▁hubby": 44851,
    "▁crib": 55011,
    "▁suffices": 38864,
    "▁devoid": 55360,
    "▁traditionally": 24919,
    "▁hit": 3510,
    "INK": 20661,
    "fall": 11661,
    "peer": 37954,
    "挽救": 50763,
    "plings": 18327,
    "▁resisted": 58653,
    "wt": 21181,
    "▁poet": 13571,
    "ument": 2028,
    "老大": 30870,
    "通过此次": 58024,
    "▁heated": 21253,
    "stad": 41169,
    "一堆": 50035,
    "真好": 48989,
    "智力": 30601,
    "一定要注意": 50249,
    "ansen": 57158,
    "▁ар": 26045,
    "▁cheap": 7346,
    "根據": 29630,
    "Appro": 40578,
    "▁escort": 31106,
    "绕": 60977,
    "Sum": 15605,
    "nJohn": 15444,
    "▁obstacles": 23809,
    "▁Crystal": 29834,
    "jo": 9522,
    "▁cues": 37508,
    "▁merger": 24774,
    "calls": 53236,
    "体会到": 39363,
    "沸腾": 53446,
    "宝宝的": 38792,
    "iesta": 57159,
    "->": 1598,
    "▁vs": 6354,
    "盎": 63320,
    "▁&=": 6803,
    "▁Many": 6359,
    "porary": 7190,
    "终极": 43058,
    "contain": 8294,
    "金刚": 33910,
    "升降": 43039,
    "▁refund": 16143,
    "▁Account": 14110,
    "共鸣": 37672,
    "▁mark": 1606,
    "主的": 31431,
    "naround": 46599,
    "都知道": 18456,
    "所属": 31794,
    "bef": 39059,
    "▁desp": 42236,
    "▁Chern": 42965,
    "犯规": 57183,
    "│": 62743,
    "▁Chain": 37915,
    "▁facts": 9112,
    "网约": 53614,
    "bas": 11846,
    "▁upgrading": 30517,
    "▁==": 3051,
    "assertThat": 39760,
    "▁lensing": 37538,
    "▁WORK": 42632,
    "▁predictor": 47719,
    "在于": 5505,
    "沿": 61000,
    "議": 61506,
    "▁attain": 24705,
    "▁учи": 34771,
    "▁invariably": 55365,
    "<0xCE>": 511,
    "日报": 16261,
    "研究": 2262,
    "▁mix": 3839,
    "▁ori": 8663,
    "▁decades": 8155,
    "文档": 33543,
    "▁discern": 35808,
    "nHead": 33835,
    "▁entitled": 14691,
    "irling": 36416,
    "惫": 62992,
    "陰": 63504,
    "ilingual": 33808,
    "▁Gods": 39338,
    "/": 59598,
    "降水": 38330,
    "个股": 19244,
    "founded": 57059,
    "▁couple": 3354,
    "ninto": 25797,
    "桂花": 54666,
    "那个人": 43974,
    "▁True": 11279,
    "▁Rou": 29653,
    "驾驶": 6333,
    "知晓": 33821,
    "▁professionally": 30326,
    "▁Kar": 15779,
    "乙肝": 48971,
    "kt": 16667,
    "▁augmented": 33053,
    "▁recommended": 9060,
    "▁peers": 20042,
    "▁marker": 24189,
    "▁VS": 33024,
    "冬季": 17840,
    "辖区": 12542,
    "Another": 36112,
    "GDP": 20518,
    "▁rust": 20825,
    "造价": 42342,
    "解锁": 48836,
    "飾": 63473,
    "老师和": 36522,
    "▁shipment": 43206,
    "餐": 60659,
    "交通": 3743,
    "没了": 26470,
    "▁bias": 10844,
    "▁Corollary": 29216,
    "舒": 61035,
    "▁organization": 5492,
    "你这": 54695,
    "偏低": 57613,
    "<0x87>": 440,
    "Float": 21939,
    "likes": 48999,
    "凰": 62516,
    "warning": 33219,
    "us": 633,
    "▁leak": 17335,
    "▁д": 2661,
    "▁psychic": 43007,
    "聘用": 48183,
    "▁dispos": 17578,
    "▁chess": 31920,
    "举例": 42751,
    "▁];": 55556,
    "在医院": 57050,
    "▁retain": 9683,
    "flip": 46072,
    "Collection": 18332,
    "▁currents": 26218,
    "运河": 39058,
    "驗": 62088,
    "就更": 40222,
    "▁spontaneously": 51072,
    "冶": 62678,
    "▁Hire": 52365,
    "artha": 30952,
    "▁volleyball": 51025,
    "▁elegance": 46323,
    "fficients": 10197,
    "我們": 8506,
    "▁Franc": 7656,
    "▁reproduce": 18752,
    "穴": 62114,
    ")-\\\\": 15685,
    "黄昏": 54607,
    "扰": 61402,
    "▁wildly": 35965,
    "▁consume": 21642,
    "应用": 4383,
    "▁cooler": 23305,
    "nFeatured": 50111,
    "▁Chief": 11763,
    "▁hook": 9691,
    "Case": 13645,
    "▁renders": 46709,
    "nRemove": 56349,
    "則是": 54940,
    "▁Collections": 54907,
    "你好": 25902,
    "worm": 41954,
    "为了": 2914,
    "▁space": 2176,
    "巴马": 45188,
    "▁yourselves": 37753,
    "荐": 61110,
    "bottom": 10811,
    "ulated": 5055,
    "钠": 62739,
    "▁nonprofit": 24649,
    "十八条": 58583,
    "perm": 25958,
    "то": 1760,
    "的高度": 23338,
    "document": 10960,
    "▁teams": 5155,
    "▁sys": 25233,
    "大多数人": 36753,
    "▁Motors": 33170,
    "▁femin": 14857,
    "壳体": 36849,
    "▁myster": 15407,
    "▁hugely": 36142,
    "▁AU": 36537,
    "▁threatens": 40057,
    "然后将": 56823,
    "▁Training": 14891,
    "mo": 8689,
    "▁subspaces": 56841,
    "▁bookings": 56140,
    "▁Owner": 39746,
    ":'": 21225,
    "emer": 55035,
    "专项行动": 38349,
    "一直都是": 47261,
    "手腕": 54387,
    "▁tab": 10369,
    "昨晚": 32807,
    ":`": 34251,
    "▁vocabulary": 27014,
    "str": 2413,
    "▁Higgs": 15827,
    "四位": 51844,
    "▁Ru": 29562,
    "瑞典": 37445,
    "Pool": 24075,
    "一笑": 28286,
    "▁wors": 47359,
    "锅中": 35793,
    "灯": 60794,
    "前进": 19952,
    "▁spray": 14718,
    "報告": 35212,
    "iber": 4660,
    "AZ": 39639,
    "nError": 51081,
    "禁令": 55211,
    "也一样": 55608,
    "繁华": 34928,
    "▁和": 21162,
    "足球": 16599,
    "nThese": 6519,
    "elines": 17154,
    "▁culprit": 41971,
    "▁hopping": 32865,
    "▁Ultimate": 28385,
    "▁approve": 24291,
    "▁Pros": 39684,
    "▁desert": 18236,
    "纳税": 22001,
    "嚼": 63128,
    "▁periods": 12330,
    "外包": 58068,
    "▁dragged": 33679,
    "▁imperfect": 30640,
    "這麼": 48775,
    "▁storyt": 26155,
    "▁northeast": 39389,
    "Ey": 33668,
    "家的": 7144,
    ":]": 37182,
    "▁Women": 10481,
    "文案": 50785,
    "範": 62898,
    "▁sug": 2304,
    "kowski": 54646,
    "▁nails": 27616,
    "▁Oper": 10091,
    "▁Dav": 4345,
    "DL": 20202,
    "▁Foster": 32305,
    "的五": 48715,
    "hib": 4042,
    "minus": 11706,
    "拆": 61209,
    "▁dynasty": 51197,
    "▁influences": 22005,
    "▁Wear": 43619,
    "Health": 28412,
    "▁}}": 11332,
    "而这种": 58019,
    "▁taxpayer": 31458,
    "goal": 39766,
    "ceans": 33992,
    "有任何": 49933,
    "一片": 12458,
    "都已": 56955,
    "员的": 31681,
    "pable": 47086,
    "风": 59943,
    "bright": 37476,
    "研学": 50333,
    "年起": 33242,
    "偿还": 19367,
    "▁MM": 30427,
    "中南": 55091,
    "机器": 8638,
    "在此之前": 57525,
    "reement": 15195,
    "▁malls": 59201,
    "▁pur": 1820,
    "▁occasion": 9126,
    "破坏": 13038,
    "▁hatch": 43098,
    "▁identifier": 29523,
    "瓷": 61757,
    "Bu": 58837,
    "在前": 23259,
    "付出了": 46589,
    "可笑": 59175,
    "▁couns": 45597,
    "▁Works": 14625,
    "起诉": 14824,
    "resh": 3071,
    "▁dehyd": 53627,
    "▁orders": 8478,
    "北京": 3690,
    "wing": 12048,
    "▁myst": 39273,
    "严格遵守": 58993,
    "plex": 11507,
    "砥": 63537,
    "渠道": 11100,
    "Show": 18735,
    "比亚迪": 34886,
    "default": 7417,
    "tset": 37463,
    "nPer": 12083,
    "和个人": 37551,
    "▁percept": 45847,
    "▁protective": 22610,
    "统筹": 17661,
    "ighty": 28874,
    "纳税人": 41197,
    "▁aggrav": 41393,
    "▁Simulation": 56487,
    "之前": 4000,
    "选手": 13365,
    "eling": 13513,
    "保养": 24119,
    "PIO": 40944,
    "▁Psychology": 38968,
    "▁rice": 14229,
    "▁Ruth": 34929,
    "▁Mood": 42130,
    "▁Neb": 58418,
    "Copyright": 36231,
    "▁lattices": 36603,
    "ags": 4093,
    "uation": 2739,
    "改变": 5454,
    "jb": 58738,
    "celain": 57691,
    "redirect": 31186,
    "▁Needs": 47964,
    "arma": 19025,
    "▁masters": 28904,
    "刘海": 47490,
    "▁blending": 42156,
    "clusters": 55787,
    "▁gal": 18218,
    "▁ammunition": 39010,
    "尽全力": 47144,
    "▁Pearson": 48047,
    "解釋": 55233,
    "▁punk": 31117,
    "▁McK": 20338,
    "▁Dinner": 41898,
    "helm": 57504,
    "欧阳": 35752,
    "等级": 15712,
    "一": 59625,
    "nWait": 49464,
    "▁binaries": 30799,
    "▁Digital": 13214,
    "费用": 6655,
    "各": 59904,
    "子上": 20099,
    "去找": 26435,
    "RP": 28961,
    "Is": 5784,
    "的人工": 53892,
    "▁Argentina": 30354,
    "clair": 52849,
    "▁modern": 4846,
    "etary": 12053,
    "▁compilation": 31086,
    "▁([": 31145,
    "▁ads": 10645,
    "▁events": 3435,
    "▁complementary": 28799,
    "urer": 19156,
    "▁reservations": 32328,
    "你是否": 42526,
    "Cap": 19231,
    "个": 59650,
    "ccer": 13410,
    "theta": 2427,
    "▁attributed": 20347,
    "貿易": 46715,
    "▁geometry": 12677,
    "欧冠": 43123,
    "▁nort": 28558,
    "illac": 50338,
    "nMc": 25361,
    "▁empowerment": 58940,
    "▁Chairman": 21128,
    "▁designer": 12843,
    "▁overse": 15416,
    "▁uncovered": 34951,
    "▁Birds": 49229,
    "▁Font": 38628,
    "▁rim": 31738,
    "▁Tamil": 45140,
    "<|unused021|>": 166,
    "Secret": 38167,
    "▁Cookie": 41913,
    "Science": 46098,
    "部分地区": 56373,
    "让你": 9778,
    "强大的": 17092,
    "ipolar": 32993,
    "▁consec": 14848,
    "impl": 17152,
    "亮的": 27537,
    "就很": 28809,
    "联盟": 11895,
    "▁eaves": 59513,
    "ensen": 29940,
    "ward": 1351,
    "▁earning": 20789,
    "twhile": 46804,
    "<<<<": 57228,
    "▁earthquake": 29217,
    "多年来": 26814,
    "某个": 18393,
    "赤": 61795,
    "Phi": 5193,
    "▁imported": 25602,
    "入伍": 58506,
    "slant": 21166,
    "[]{\\\\": 47419,
    "落后": 22416,
    "布尔": 53077,
    "愚蠢": 53222,
    "▁tempor": 11135,
    "ropri": 52364,
    "化的": 7105,
    "我已经": 28264,
    "▁hunter": 35341,
    "模样": 25614,
    "▁priest": 20429,
    "amins": 26347,
    "▁provide": 2274,
    "icky": 25481,
    "站的": 37992,
    "▁enduring": 42157,
    "nGl": 51465,
    "nest": 15755,
    "eny": 53966,
    "▁shrink": 29584,
    "从": 59823,
    "保证金": 43592,
    "rose": 18892,
    "▁etc": 3136,
    "和孩子": 32909,
    "plements": 12342,
    "NS": 7178,
    "xd": 29005,
    "Mel": 44521,
    "icester": 48141,
    "人民币": 8768,
    "LEFT": 52035,
    "▁Islamic": 14286,
    "tR": 55090,
    "▁suit": 8679,
    "racies": 28972,
    "含有": 12793,
    "▁Everything": 15117,
    "就会": 4309,
    "▁province": 17973,
    "asi": 20105,
    "治愈": 25348,
    "▁craving": 42296,
    "▁authored": 54657,
    "▁Tue": 55942,
    "U": 59639,
    "▁fuck": 6104,
    "▁blessings": 37539,
    "▁Б": 6553,
    "卫生院": 43789,
    "的意思": 20978,
    "还是有": 35869,
    "▁deformations": 56290,
    "▁bug": 7805,
    "辛": 61084,
    "fit": 6097,
    ")^{-": 14138,
    "▁Jack": 5994,
    "制裁": 27791,
    "全国各地": 45774,
    "uya": 54391,
    "▁dominant": 13486,
    "▁trail": 11099,
    "▁learned": 5337,
    "\\\\/": 9817,
    "▁flesh": 20760,
    "mie": 56334,
    "主题": 5648,
    "积极响应": 48998,
    "同时还": 44842,
    "▁mor": 2882,
    "nSign": 22432,
    "▁park": 4357,
    "ел": 20435,
    "▁Interactive": 41084,
    "▁Bengal": 48824,
    "▁@": 2343,
    "▁Weekend": 41756,
    "男方": 49592,
    "苹": 61415,
    "\\\"\"": 11583,
    "▁looking": 2234,
    "职称": 30757,
    "▁parametriz": 31617,
    ")}+\\\\": 54003,
    "HF": 27381,
    "bad": 13420,
    "}\\\"\\": 41214,
    "Class": 6398,
    "▁ambitions": 44277,
    "复杂": 8588,
    "▁Interstate": 49829,
    "贞": 62915,
    "复发": 40123,
    "▁single": 2376,
    "Mo": 22665,
    "▁Sound": 16944,
    "算了": 43379,
    "全家": 33206,
    "цата": 47654,
    "本网": 38598,
    "▁influ": 4454,
    "▁Box": 13207,
    "+\\\\_\\\\": 18479,
    "▁ша": 49818,
    "wordpress": 26625,
    "▁OUT": 20016,
    "Export": 45690,
    "军": 60123,
    "boldmath": 21865,
    "▁Clemson": 59443,
    "蛇": 61991,
    "育人": 31471,
    "▁weighted": 18740,
    "宝": 60259,
    "▁DRM": 46356,
    "▁Meanwhile": 18541,
    "可谓是": 39259,
    "重磅": 46438,
    "▁Partnership": 39973,
    "MTA": 40871,
    "▁rac": 4858,
    "煮": 61582,
    "全长": 45550,
    "澄清": 44877,
    "新一代": 34513,
    "athi": 59503,
    "活的": 36880,
    "Title": 10127,
    "履职": 32598,
    "▁technologies": 9803,
    "資料": 28892,
    "IJ": 37600,
    "管理部门": 42325,
    "bolic": 30078,
    "▁Cameron": 23376,
    "▁rewritten": 33598,
    "尘": 61350,
    "掐": 63648,
    "▁Moses": 30455,
    "▁played": 4173,
    "可能有": 43639,
    "创新发展": 46934,
    "▁Clarke": 38004,
    "學院": 38560,
    "▁bc": 46168,
    "ib": 891,
    "Multi": 25079,
    "云端": 50187,
    "▁cataly": 24790,
    "▁_\\\\": 58849,
    "age": 807,
    "}{*}{": 23581,
    "田野": 52632,
    "}:": 9574,
    "▁CV": 24460,
    "▁Other": 5812,
    "▁exchanged": 34590,
    "电影节": 57798,
    "▁haz": 16684,
    "▁trained": 7325,
    "▁unexpected": 13466,
    "vals": 13972,
    "financial": 53342,
    "value": 3592,
    "▁lingerie": 58602,
    "▁Comp": 5317,
    "▁relentless": 47155,
    "▁hidden": 8127,
    "均线": 34456,
    "▁misdem": 52883,
    "mentioned": 18118,
    "nRo": 42626,
    "▁Area": 13686,
    "▁glance": 25201,
    "disable": 31161,
    "▁ND": 45631,
    "ductor": 14627,
    "maid": 40561,
    "▁Base": 11903,
    "尽头": 49810,
    "▁BI": 24034,
    "奇迹": 28103,
    "▁Salt": 26572,
    "纷纷表示": 32124,
    "都被": 18766,
    "震动": 54701,
    "委托": 8642,
    "▁Senior": 17372,
    "due": 30199,
    "horse": 45303,
    "vy": 9971,
    "匆匆": 28988,
    "适应": 10502,
    "上方": 25596,
    "church": 44030,
    "▁objection": 36189,
    "前置": 52426,
    "▁distract": 41650,
    "DOS": 54094,
    "hock": 41811,
    "呀": 61459,
    "cm": 2926,
    "▁perception": 17466,
    "▁Georg": 11182,
    "众": 60133,
    "▁forces": 6779,
    "illet": 42024,
    "不容": 26383,
    "сна": 50261,
    "▁logs": 21889,
    "仓": 61205,
    "FILE": 21547,
    "▁MLS": 34394,
    "▁Boy": 13132,
    "▁alphabet": 30240,
    "indle": 54861,
    "▁Hartford": 59083,
    "漾": 63908,
    "▁PARTICULAR": 48751,
    "▁хи": 49225,
    "▁Astronomy": 56233,
    "回家": 8631,
    "液体": 26602,
    "干扰": 22586,
    "上线": 21244,
    "▁storms": 32399,
    "加盟": 28706,
    "▁contours": 33554,
    "▁chaotic": 30010,
    "专业化": 43683,
    "tWe": 45971,
    "哈": 60625,
    "):=": 47568,
    "DI": 15752,
    "▁Allan": 51987,
    "門": 61656,
    "反对": 15175,
    "pered": 21214,
    "α": 61950,
    "BLOCK": 51434,
    "▁crossover": 30710,
    "nScience": 58161,
    "dom": 3795,
    "▁western": 14121,
    "chie": 3064,
    "ouver": 18394,
    "▁stroke": 18482,
    "▁desirable": 20180,
    "是个": 8023,
    "▁Tomorrow": 42942,
    "重启": 44265,
    "cci": 44459,
    "▁spins": 21327,
    "▁Avoid": 33292,
    "tale": 52563,
    "員": 61137,
    "bia": 39678,
    "лекс": 46217,
    "Finally": 39845,
    "▁Caf": 46050,
    "願意": 57857,
    "▁linearly": 23981,
    "▁Yoga": 32304,
    "▁Fac": 17347,
    "development": 28511,
    "▁continu": 4257,
    "讀": 62283,
    "EMENT": 26182,
    "dra": 17369,
    "信用卡": 26671,
    "过度": 17871,
    "liness": 28304,
    "而这些": 41152,
    "greg": 7994,
    "▁Shane": 42329,
    "▁Limited": 20311,
    "acs": 27524,
    "一点也不": 53972,
    "紫色": 45610,
    "Own": 29985,
    "caption": 2941,
    "▁observable": 25356,
    "▁Ker": 33904,
    "袁": 61876,
    "向上的": 36595,
    "賴": 63503,
    "艺": 60330,
    "前辈": 39700,
    "▁heaven": 14965,
    "▁separable": 45310,
    "nEX": 44042,
    "▁extracted": 14777,
    "带有": 18861,
    "站点": 33599,
    "影像": 21312,
    "▁Sere": 50225,
    "irtual": 10241,
    "船": 60873,
    "涨": 60594,
    "颓": 63961,
    "是最": 12128,
    "西": 59931,
    "tdef": 38516,
    "胖": 61575,
    "▁THERE": 52302,
    "▁publishes": 53192,
    "▁offending": 56575,
    "▁vel": 32432,
    "都喜欢": 59467,
    "▁synchrotron": 50734,
    "▁invariance": 29962,
    "▁Medal": 46661,
    "ong": 848,
    "▁instance": 4726,
    "í": 61156,
    "硫": 62288,
    "DateTime": 30514,
    "▁rotor": 50458,
    "▁residency": 40911,
    "▁jeopard": 42279,
    "▁Ice": 18726,
    "8": 85,
    "▁quarterly": 37028,
    "▁Neck": 57954,
    "▁Gra": 8095,
    "具体情况": 52439,
    "孙女": 59351,
    "ecause": 3880,
    "▁MP": 13617,
    "together": 17642,
    "因而": 18688,
    "神仙": 41449,
    "literal": 38749,
    "▁murd": 39146,
    "igrations": 56573,
    "▁scrut": 24963,
    "move": 17163,
    "硬化": 29710,
    "▁luminous": 50081,
    "▁kits": 25875,
    "▁conc": 2671,
    "icked": 14489,
    "▁Aer": 57096,
    "playing": 27335,
    "▁Gregory": 41842,
    "▁investigated": 14315,
    "将对": 34500,
    "剧中": 30968,
    "ADA": 42745,
    "indsight": 56054,
    "asper": 33404,
    "年后": 24123,
    "urns": 10580,
    "▁Rab": 18701,
    "喜欢吃": 49882,
    "▁Py": 17399,
    "▁nodes": 8273,
    "▁Lomb": 50546,
    "<|unused132|>": 277,
    "▁NRA": 51266,
    "备课": 47121,
    "▁Pey": 58523,
    "effects": 49693,
    "Software": 41512,
    "遗忘": 43994,
    "▁registering": 39254,
    "▁cou": 1855,
    "业余": 36984,
    "兰": 60512,
    "▁virtually": 14998,
    "▁suspects": 26811,
    "Available": 40134,
    "题主": 50394,
    "▁Concord": 51656,
    "后就": 44337,
    "constructor": 30595,
    "▁stumbled": 32482,
    "是这样": 34774,
    "安定": 48235,
    "▁virt": 5502,
    "年级": 12961,
    "▁overwhelming": 15901,
    "casting": 36485,
    "禅": 62216,
    "▁servant": 34778,
    "伤亡": 38091,
    "▁Builder": 40569,
    "REL": 57584,
    "▁Chall": 15624,
    "中国": 1456,
    "inter": 3818,
    "onz": 19509,
    "岁月": 17018,
    "}}_{\\\\": 21548,
    "▁Vern": 41791,
    "置换": 46567,
    "▁Browser": 50295,
    "▁prominence": 55055,
    "▁poem": 22028,
    "与此": 17903,
    "enne": 41935,
    "▁hall": 11277,
    "严肃": 21921,
    "▁affine": 34165,
    "重症": 32548,
    "▁impressions": 36796,
    "▁wagon": 47733,
    "▁Ethiopia": 48508,
    "所作": 54277,
    "号民事判决": 54891,
    "▁Ke": 5830,
    "гата": 55966,
    "后被": 54627,
    "ô": 63119,
    "在这种": 25473,
    "▁Pauli": 45002,
    "uc": 1677,
    "ess": 675,
    "抄": 62128,
    "▁patrons": 39006,
    "<0x56>": 391,
    "醉": 61607,
    "▁Type": 10058,
    "▁rand": 3741,
    "var": 2146,
    "▁entropy": 13235,
    "▁drug": 6324,
    ")))\\": 20806,
    "压抑": 34509,
    "工人": 14116,
    "Though": 55219,
    "怎能": 55850,
    "▁villagers": 55325,
    "直觉": 59356,
    "无法": 4214,
    "γ": 63073,
    "connection": 17109,
    "▁announcements": 34760,
    "杖": 63367,
    "宝宝": 7078,
    "▁adrenal": 47026,
    "▁Clin": 19123,
    "▁Comparison": 46306,
    "▁additional": 3722,
    "▁constitutes": 29043,
    "rams": 33387,
    "▁won": 2552,
    "▁resil": 26424,
    "车载": 50540,
    "October": 41457,
    "懂得": 13288,
    "▁customers": 4277,
    "山上": 33885,
    "▁Wall": 9201,
    "▁correction": 13031,
    "▁ballot": 22377,
    "▁subtraction": 45217,
    "重点": 4044,
    "停产": 50348,
    "和使用": 47666,
    "了不少": 22557,
    "finished": 49943,
    "История": 47768,
    "▁fib": 12428,
    "=\\\"{{": 20278,
    "▁Button": 29736,
    "▁occur": 4522,
    "安检": 55990,
    "brace": 18878,
    "之人": 25024,
    "nBas": 26389,
    "过高": 31433,
    "▁гру": 28302,
    "▁indefinitely": 46923,
    "$)\\": 37187,
    "向大家": 54154,
    "▁indicator": 18555,
    "cmidrule": 47053,
    "框架": 15312,
    "models": 12864,
    "筹码": 44074,
    "optical": 44982,
    "▁Disc": 12803,
    "能使": 54822,
    "form": 920,
    "戴上": 52171,
    "▁burden": 17263,
    "ronic": 8887,
    "arnish": 42151,
    "下乡": 47172,
    "▁Meeting": 26960,
    "disabled": 31908,
    "Constant": 38394,
    "▁Atlanta": 15417,
    "maxim": 59259,
    "){$": 42984,
    "▁fate": 17987,
    "pecifically": 15665,
    "ciplinary": 31279,
    "mins": 44462,
    "读懂": 56954,
    "▁започва": 41649,
    "alp": 49154,
    "自强": 42246,
    "▁Touch": 22333,
    "微博上": 55497,
    "zos": 55739,
    "特地": 54175,
    "我说": 10395,
    "▁Try": 11631,
    "▁Improvement": 54529,
    "▁damages": 21190,
    "▁rushed": 25928,
    "轨迹": 32073,
    "万元的": 32445,
    "networks": 47071,
    "瞪": 63298,
    "nEl": 24102,
    "下游": 24605,
    "▁against": 1877,
    "date": 2490,
    "人生": 6733,
    "▁ritual": 22087,
    "strict": 39704,
    "issy": 51361,
    "earn": 19764,
    "干活": 40929,
    "▁Brent": 38973,
    "nails": 59399,
    "▁enclosed": 35648,
    "党性": 58169,
    "▁Single": 23127,
    "Attr": 37472,
    "guided": 35988,
    "得到": 4279,
    "贵": 60607,
    "身边": 7524,
    "templates": 42136,
    "▁Repeat": 45092,
    "Distance": 41688,
    "利益": 7996,
    "евру": 58052,
    "▁Fifth": 38803,
    "蓬勃": 33314,
    "▁provocative": 53370,
    "气管": 30794,
    "之多": 56757,
    "不忍": 47794,
    "▁converts": 37080,
    "▁cy": 3776,
    "輪": 62848,
    "梓": 63275,
    "手柄": 52172,
    "▁appe": 6831,
    "▁baked": 27864,
    "ructor": 33735,
    "恒": 61235,
    "Have": 24843,
    "iPad": 49247,
    "Queen": 54708,
    "acial": 33805,
    "▁LONG": 58365,
    "大量": 8262,
    "▁IND": 38982,
    "敬老": 46281,
    "▁Ana": 30669,
    "朝廷": 40444,
    "倫": 63215,
    "戰": 61689,
    "▁affidav": 54690,
    "但实际上": 46075,
    "无人": 11722,
    "定位": 9587,
    "来之": 50620,
    "分层": 54999,
    "▁generalize": 33932,
    "▁exponent": 15095,
    "的作品": 24250,
    "▁crystal": 14964,
    "▁belt": 15664,
    "▁describing": 15049,
    "▁amph": 55245,
    "▁af": 23756,
    "▁perpetual": 52857,
    "倍的": 53173,
    "▁Collective": 58281,
    "深入开展": 38095,
    "▁gives": 3641,
    "▁scared": 15967,
    "Claim": 48701,
    "Converter": 40961,
    "kon": 44864,
    "▁safest": 51742,
    "▁colonial": 31409,
    "▁Dub": 19554,
    "umers": 43384,
    "▁describe": 6818,
    "Links": 50584,
    "▁pund": 48543,
    "▁the": 567,
    "▁Historic": 34961,
    "▁tomato": 29819,
    "哥": 60647,
    "陕": 61737,
    "▁centered": 18316,
    "▁confusing": 20177,
    "水务": 55699,
    "▁Deep": 17762,
    "▁Mayor": 17719,
    "特朗普": 15433,
    "非常有": 31362,
    "▁Script": 20150,
    "烟花": 38900,
    "Tasks": 37178,
    "▁readable": 39883,
    "摆脱": 25286,
    "▁pairs": 9369,
    "osaic": 40811,
    "mut": 10035,
    "cgi": 41211,
    "eslint": 52763,
    "▁christmas": 54564,
    "▁skirts": 56103,
    "▁legally": 20207,
    "▁anthrop": 32895,
    "剥夺": 51161,
    "民政局": 56730,
    "上下游": 58668,
    "▁alt": 10248,
    "研究者": 53916,
    "igslist": 46319,
    "*{-": 30002,
    "▁Sherlock": 56323,
    "▁strive": 23766,
    "面貌": 31968,
    "▁tank": 10131,
    "static": 7439,
    "的时间内": 56274,
    "星辰": 52780,
    "自身": 6312,
    "泻": 62470,
    "ank": 1445,
    "▁overlapping": 33531,
    "德华": 41808,
    "\\\\+\\\\_\\\\+": 26510,
    "书本": 48260,
    "捏": 62625,
    "外国语": 49119,
    "▁dinner": 8157,
    "▁monthly": 11065,
    "erranean": 28973,
    "lords": 51314,
    "▁poorest": 56544,
    "▁prote": 7683,
    "▁Walking": 37778,
    "麓": 63792,
    "装箱": 42076,
    "raditional": 30409,
    "了解一下": 39353,
    "中标": 43582,
    "视角": 22631,
    "▁nuclear": 7605,
    "mate": 13580,
    "▁reforms": 24560,
    "集体": 9698,
    "▁progressively": 46158,
    "▁Maver": 47876,
    "Cod": 50825,
    "хи": 23964,
    "瀑": 62921,
    "▁amongst": 15798,
    "・": 62656,
    "▁polyg": 44882,
    "二被告": 47847,
    "▁Outdoor": 47966,
    "乌鲁木齐": 53162,
    "▁Pioneer": 58459,
    "▁Boss": 34920,
    "▁Shot": 38193,
    "▁prostate": 37333,
    "ext": 2393,
    "习惯了": 39693,
    "▁Galile": 46273,
    "imb": 7214,
    "▁mid": 4461,
    "饭": 60695,
    "▁Alf": 21880,
    "▁reader": 8827,
    "▁sponsor": 24839,
    "烧烤": 37909,
    "大卫": 52534,
    "▁mesmer": 58562,
    "▁consistently": 13268,
    "▁Remember": 14659,
    "是": 59626,
    "▁Wind": 21948,
    "总分": 57974,
    "▁dwelling": 44548,
    "講": 62364,
    "▁discriminator": 45465,
    "potential": 33430,
    "手掌": 58802,
    "fib": 51287,
    "▁PH": 19599,
    "硕士学位": 58725,
    "лександ": 57813,
    "▁Harm": 33813,
    "nKey": 28336,
    "INA": 45317,
    "ped": 3794,
    "tes": 6382,
    "这在": 40248,
    "比较": 3027,
    "▁agenda": 14218,
    "▁palette": 33158,
    "nMuch": 36883,
    "▁Er": 13625,
    "EMA": 13565,
    "▁Tracking": 49677,
    "▁Christopher": 23968,
    "▁toilet": 18625,
    "▁voluntarily": 46668,
    "角的": 41722,
    "CAC": 49790,
    "词": 60651,
    "ANA": 45645,
    "\\\\;\\\\": 39805,
    "▁silhou": 40120,
    "signal": 32460,
    "▁sets": 5203,
    "▁erupt": 42446,
    "▁playlist": 38197,
    "你可能": 44507,
    "▁strained": 55021,
    "▁summation": 39115,
    "头晕": 44918,
    "business": 19269,
    "▁Kenneth": 46413,
    "hyper": 15678,
    "年来": 6469,
    "叔": 61482,
    "▁Milton": 49913,
    "▁Amber": 46660,
    "▁GH": 40291,
    "▁processing": 7364,
    "thick": 27187,
    "UTH": 27446,
    "▁obser": 7413,
    "GPT": 58111,
    "rapeutic": 26025,
    "职业技能": 56006,
    "pache": 16162,
    "▁innoc": 13352,
    "所以他": 48864,
    "Stack": 16909,
    "ength": 2375,
    "日活动": 40999,
    "▁biological": 16810,
    "▁kindergarten": 45873,
    "事项": 11742,
    "▁graduates": 26581,
    "山镇": 52194,
    "藤": 62369,
    "▁Flyers": 58789,
    "会说": 44111,
    "▁Sanders": 29131,
    "ruction": 3252,
    "incinn": 26696,
    "▁unanimous": 53546,
    "▁visualize": 38229,
    "有几个": 50151,
    "▁distribution": 3458,
    "itt": 1073,
    "湖人": 29333,
    "▁bluetooth": 52920,
    "蟹": 62249,
    "姻": 61303,
    "▁Sprint": 40092,
    "国旗": 40711,
    "▁predicting": 27273,
    "郝": 63035,
    "▁syll": 44197,
    "花草": 50577,
    "asse": 39122,
    "$\\\\{": 44371,
    "iley": 15101,
    "aned": 42479,
    "流通": 19707,
    "▁transformed": 17621,
    "新材料": 38505,
    "▁registry": 28309,
    "▁flagged": 58651,
    "living": 42089,
    "车子": 33354,
    "readonly": 42185,
    "Can": 11858,
    "女性的": 31335,
    "▁Vic": 38746,
    "▁realm": 22314,
    "nspe": 39381,
    "届": 60729,
    "TT": 15046,
    "▁Station": 16492,
    "没啥": 50978,
    "▁ecosystems": 50010,
    "Sql": 35524,
    "不适": 23480,
    "▁stealth": 43411,
    "▁tower": 18608,
    "▁Abu": 31622,
    "▁Cul": 47948,
    "什么呢": 40918,
    "▁environments": 13112,
    "atz": 18515,
    "gebra": 7286,
    "法的": 22525,
    "探讨": 17476,
    "稳固": 50979,
    "German": 58681,
    "▁adrenaline": 58872,
    "House": 36097,
    "▁vit": 11568,
    "пе": 10499,
    "不甘": 48878,
    "肇": 62632,
    "ж": 60367,
    "▁inclined": 27528,
    "%\\\"": 42216,
    "▁Ticket": 40736,
    "illiant": 11740,
    "▁Gard": 18450,
    "ipping": 5537,
    "uller": 52614,
    "Bucket": 55785,
    "triangle": 23609,
    "▁story": 2368,
    "副主任": 14795,
    "▁Eng": 2862,
    "▁substit": 22604,
    "▁Indonesia": 25791,
    "设计和": 47081,
    "springframework": 23267,
    "余额": 32841,
    "▁mutation": 35184,
    "ategory": 8496,
    "Some": 14984,
    "<|unused142|>": 287,
    "atsu": 40154,
    "▁Evidence": 49586,
    "ASY": 58225,
    "▁happiness": 14901,
    "请大家": 55998,
    "▁unpredictable": 36611,
    "▁folders": 27354,
    "▁legend": 13332,
    "▁Adams": 20907,
    "身心": 21071,
    "curl": 46968,
    "▁Nav": 9921,
    "▁guided": 21447,
    "奋进": 33901,
    "▁Rew": 36388,
    "纪念馆": 42847,
    "▁Med": 3565,
    "tswitch": 44628,
    "三维": 45312,
    "▁semantic": 19238,
    "\\\\+\\\\_\\\\": 19111,
    "▁Delivery": 31874,
    "▁Tier": 43245,
    "其间": 46827,
    "莱": 61404,
    "▁Streets": 53836,
    "▁Jes": 5540,
    "地板": 30918,
    "▁stimulation": 36866,
    "社區": 39199,
    "▁metro": 32551,
    "粒子": 43435,
    "▁liquid": 9348,
    "released": 42392,
    "▁disputes": 34234,
    "draft": 50941,
    "schedule": 45290,
    "就算": 11364,
    "转化": 13157,
    "▁Eastern": 14303,
    "最后的": 24285,
    "办": 60039,
    "▁profiles": 12225,
    "老家": 25027,
    "带": 59974,
    "▁MHz": 29589,
    "▁twisted": 24317,
    "上场": 53098,
    "▁deadlines": 38449,
    "CL": 5741,
    "▁Server": 12849,
    "▁sheer": 22702,
    "▁Equipment": 36157,
    "▁ф": 7808,
    "▁lef": 30509,
    "▁trump": 31490,
    "▁propagator": 40047,
    "出水": 51633,
    "征求": 29764,
    "eta": 1466,
    "▁SMS": 32266,
    "▁Cons": 5221,
    "Each": 17630,
    "▁warmed": 56255,
    "壶": 62488,
    "﻿\\": 51092,
    "▁receivers": 30191,
    "▁refusing": 31866,
    "基本上": 13264,
    "▁alleg": 15282,
    "支架": 25035,
    "州": 60161,
    "lessness": 31938,
    "plications": 56020,
    "性价比": 28293,
    "寺": 61470,
    "不想": 11285,
    "▁Review": 10344,
    "相當": 36787,
    "particle": 20400,
    "晚了": 50894,
    "渴": 61864,
    "closures": 38589,
    "Rules": 45536,
    "<0x41>": 370,
    "▁whichever": 42701,
    "▁reciprocal": 49978,
    "讨好": 58883,
    "▁listed": 6980,
    "▁STR": 36711,
    "nbased": 46561,
    "白": 60056,
    "period": 16480,
    "▁swallow": 32492,
    "‎": 63758,
    "红利": 38329,
    "▁produces": 12652,
    "itivity": 10123,
    "▁arose": 41283,
    "▁simulator": 40000,
    "insider": 44830,
    "IGO": 58579,
    "已于": 44974,
    "vation": 16411,
    "▁ironic": 39513,
    "▁constants": 16293,
    "▁Carlo": 22241,
    "▁hotter": 49275,
    "='": 5266,
    "▁Att": 7425,
    "理事会": 39903,
    "很是": 31178,
    "ising": 2365,
    "▁октомври": 50865,
    "间隙": 37726,
    "std": 6850,
    "▁Robinson": 22705,
    "食品": 6340,
    "▁Strateg": 27386,
    "▁Heart": 15751,
    "▁ablation": 49699,
    "天秤": 44590,
    "стъп": 53561,
    "市": 59737,
    "▁hold": 2395,
    "orate": 24794,
    "argon": 57506,
    "dist": 7210,
    "▁Canada": 6158,
    "▁Hol": 6453,
    "伤口": 31967,
    "百姓": 10657,
    "主帅": 50275,
    "tchar": 56308,
    "ashed": 6136,
    "pic": 17227,
    "SU": 5716,
    "▁Bud": 29184,
    "整整": 36089,
    "▁{{": 17909,
    "▁passive": 20589,
    "▁Show": 8758,
    "典范": 47796,
    "肥料": 47899,
    "Pair": 37396,
    "▁generating": 13345,
    "▁ed": 1596,
    "家庭": 3946,
    "▁alle": 7352,
    "▁Environment": 13758,
    "▁MAC": 29617,
    "▁NHS": 32471,
    "uations": 6263,
    "near": 31337,
    "執": 62445,
    "会发现": 50474,
    "▁NW": 38265,
    "arak": 44693,
    "▁Ag": 4126,
    "青少年": 14436,
    "suits": 31753,
    "▁forecasts": 34622,
    "aylor": 11010,
    "了起来": 20095,
    "转化为": 28206,
    "▁merchants": 36939,
    "moil": 45428,
    "iah": 14166,
    "merge": 27813,
    "碎片": 36788,
    "AML": 45469,
    "▁Fridays": 57647,
    "之意": 36898,
    "▁calories": 18086,
    "▁primes": 49799,
    "▁knots": 36621,
    "quis": 34666,
    "▁ages": 11179,
    "综艺": 25996,
    "各种": 4207,
    "paper": 14847,
    "▁soldiers": 12882,
    "行为的": 32488,
    "····": 38711,
    "▁Highland": 53785,
    "意想不到": 56305,
    "板材": 56611,
    "保罗": 33114,
    "替换": 40301,
    "▁nutrit": 53572,
    "金钱": 17253,
    "大家庭": 47374,
    "nJanuary": 26849,
    "將軍": 58978,
    "▁platform": 4743,
    "节目": 8952,
    "CV": 18695,
    "party": 15619,
    "一想": 43581,
    "−": 62138,
    "▁ample": 27814,
    "世界": 2349,
    "tos": 50070,
    "受到影响": 51240,
    "ceedings": 37556,
    "▁appra": 41367,
    "}{$": 37525,
    "▁WHERE": 31686,
    "议会": 45542,
    "需求的": 35148,
    "商业": 6311,
    "▁[…]\\": 11333,
    "aming": 6054,
    "▁flooded": 40164,
    "▁staggering": 43966,
    "地震": 20244,
    "INS": 24151,
    "ittens": 44420,
    "厂家": 28299,
    "▁transported": 30374,
    ")]\\": 14641,
    "nUnlike": 31370,
    "敏锐": 50160,
    "▁wages": 21268,
    "nCal": 18309,
    "▁Language": 19315,
    "▁Basically": 25472,
    "▁critique": 33914,
    "▁songs": 8003,
    "▁Gone": 48960,
    "ZZ": 24494,
    "洪水": 39802,
    "是否能": 52542,
    "io": 1425,
    "▁directories": 32976,
    "▁masturb": 32679,
    "center": 3701,
    "irst": 1015,
    "itched": 31918,
    "lood": 42722,
    "喜好": 39574,
    "▁extr": 29358,
    "▁Nick": 12705,
    "gue": 28350,
    "EF": 7331,
    "连续": 7860,
    "工作者": 19644,
    "▁ben": 2469,
    "▁Yahoo": 24406,
    "▁Си": 32855,
    "endid": 46376,
    "▁lining": 28038,
    "publisher": 55981,
    "担": 60318,
    "стро": 20344,
    "汉族": 15714,
    "全文": 41035,
    "cir": 44475,
    "▁jaw": 28937,
    "▁criticize": 44760,
    "毫无": 13916,
    "plet": 11800,
    "谢谢": 15816,
    "長期": 47394,
    "耕耘": 55603,
    "供应": 7896,
    "exact": 43441,
    "▁charged": 7636,
    "actively": 51918,
    "和所述": 56708,
    "▁entirety": 36488,
    "依次": 24071,
    "▁attendant": 53727,
    "▁extensive": 10795,
    "▁sharply": 34242,
    "从来": 11639,
    "izophren": 43599,
    "джи": 44599,
    "畅": 61323,
    "踊": 63709,
    "眼神": 20188,
    "中考": 25852,
    "搏": 62099,
    "▁incentive": 25131,
    "信仰": 17457,
    "▁Twilight": 43893,
    "疗法": 27857,
    "▁rang": 48213,
    "▁punch": 17273,
    "leader": 41985,
    "▁Rosa": 49840,
    "▁Dor": 20004,
    "route": 22406,
    "▁Former": 34637,
    "赖": 61395,
    "▁man": 929,
    "cipl": 9413,
    "▁Kaw": 46444,
    "▁auf": 50323,
    "和非": 53500,
    "带上": 33252,
    "▁absence": 11690,
    "▁Phil": 6042,
    "▁Imaging": 54346,
    "师兄": 47743,
    "观众": 8771,
    "▁Fun": 15441,
    "排放": 16706,
    "EQ": 22457,
    "nEp": 48992,
    "浮现": 57382,
    "sp": 1793,
    "听取": 19623,
    "更应该": 59220,
    "Inst": 7491,
    "的整体": 39934,
    "叛": 62214,
    "erity": 59196,
    "tails": 33502,
    "主管部门": 26318,
    "▁contag": 53394,
    "▁Phase": 28024,
    "lo": 808,
    "▁Bush": 9751,
    "▁Begin": 24538,
    "帖子": 44888,
    "仅供参考": 59193,
    "uffed": 34259,
    "▁EN": 23746,
    "嫉妒": 41846,
    "зова": 51564,
    "nAcc": 28948,
    "▁enhances": 36023,
    "yset": 21403,
    "锁定": 31663,
    "minded": 22784,
    "ving": 1556,
    "▁stimuli": 50862,
    "水县": 57380,
    "▁redu": 2399,
    "▁Rem": 6093,
    "▁Congressman": 50732,
    "电池": 8739,
    "caster": 34651,
    "枫": 62560,
    "fileName": 55507,
    "concat": 32749,
    "▁deemed": 19983,
    "▁IE": 29700,
    "▁translation": 12722,
    "接种": 15009,
    "▁legitim": 41174,
    "核准": 51485,
    "ustomed": 37126,
    "▁Beijing": 23193,
    "押": 61433,
    "odot": 11628,
    "病症": 50674,
    "▁prevents": 22035,
    "这类": 16432,
    "▁dozens": 17969,
    "▁ri": 5479,
    "▁CAR": 32531,
    "Src": 49522,
    "run": 5357,
    "滚滚": 50739,
    "▁Letter": 27282,
    "▁shame": 14701,
    "onts": 17492,
    "扭转": 45152,
    "MTE": 46023,
    "▁Kondo": 55220,
    "权利要求": 7910,
    "finite": 29327,
    "December": 44406,
    "深耕": 52681,
    "原": 59858,
    "==": 1076,
    "▁talking": 4449,
    "▁Sense": 39732,
    "▁cotton": 19507,
    "智能制造": 44253,
    "只看": 58771,
    "textsf": 27832,
    "帮助下": 41048,
    "uclidean": 22860,
    "generate": 31649,
    "从业": 21590,
    "cup": 8896,
    "nOrig": 14665,
    "啥": 61475,
    "城市的": 19416,
    "▁discourse": 31996,
    "回事": 20886,
    "机遇": 17312,
    "npar": 57555,
    "baike": 3759,
    "道路": 6186,
    "ikh": 25821,
    "恐龙": 58878,
    "▁Featuring": 50800,
    "饿了": 51821,
    "Menu": 15021,
    "▁definitive": 34144,
    "▁Cube": 57876,
    "show": 8060,
    "▁plugins": 30715,
    "必定": 29626,
    "tingham": 57743,
    "▁Hart": 17360,
    "已经在": 24353,
    "▁embraced": 34166,
    "伤害": 9189,
    "▁expanding": 14871,
    "border": 15987,
    "▁Jere": 21688,
    "nSE": 42066,
    "compact": 34568,
    "多样性": 43201,
    "▁pane": 50130,
    "▁fm": 49016,
    "屁": 62439,
    "▁neighbours": 32420,
    "树林": 44383,
    "▁attentive": 49279,
    "▁closes": 31223,
    "▁clothes": 9981,
    "Njg": 56763,
    "▁sudden": 7769,
    "不够": 10585,
    "ordon": 16673,
    "但仍": 52558,
    "我们有": 37212,
    "MzE": 49506,
    "▁rank": 5463,
    "▁commission": 9735,
    "▁strongly": 8474,
    "适用于": 20478,
    "抵抗": 24072,
    "ork": 1292,
    "MM": 9616,
    "早点": 40526,
    "nint": 12978,
    "▁baseline": 13201,
    "欢乐": 24599,
    "compat": 21542,
    "在和": 57342,
    "▁focus": 2562,
    "▁packages": 11267,
    "市委": 11850,
    "▁metadata": 22468,
    "作战": 16804,
    "▁quarter": 5702,
    "▁covenant": 52918,
    "吃什么": 45454,
    "atars": 57450,
    "▁successful": 5309,
    "每一": 10764,
    "阳光": 9328,
    "▁houses": 11055,
    "▁dense": 14802,
    "Stats": 31980,
    "晋级": 37988,
    "党工委": 40073,
    "▁war": 3104,
    "▁infrared": 26776,
    "▁bliss": 39341,
    "补助费": 44667,
    "▁Central": 8719,
    "▁intermit": 46120,
    "Ip": 53428,
    "怀": 60628,
    "浪": 60857,
    "滨": 61619,
    "▁slippery": 49081,
    "": 62432,
    "▁Newsletter": 40992,
    "美味": 32982,
    "<|unused025|>": 170,
    "▁calibration": 21901,
    "Am": 14287,
    "▁sw": 2215,
    "▁Cache": 51103,
    "<0x94>": 453,
    "▁Water": 9939,
    "空气": 8811,
    "▁stimulus": 29061,
    "沉积": 39923,
    "▁profiling": 52142,
    "我很": 18071,
    "人事": 23594,
    "//\\": 8911,
    "开通": 22270,
    ">;\\": 33663,
    "▁cricket": 28371,
    "▁ka": 38345,
    "▁pathways": 36877,
    "rared": 21073,
    "边缘": 19889,
    "DT": 13931,
    "Law": 39200,
    "▁accelerated": 29312,
    "警戒": 54016,
    "价格为": 55643,
    "等内容": 39620,
    "hold": 4692,
    "▁thanked": 42736,
    "▁Lawyers": 55687,
    "▁listened": 22078,
    "▁raced": 50777,
    "域": 60263,
    "▁weekend": 5419,
    "志愿者们": 37308,
    "▁Instagram": 14870,
    "▁BlackBerry": 44683,
    "▁ours": 20349,
    "办公厅": 40885,
    "攀升": 42010,
    "▁memor": 25670,
    "▁Managing": 41972,
    "美国人": 34797,
    "engu": 24003,
    "▁through": 1228,
    "nEd": 19949,
    "▁Lastly": 45959,
    "▁navy": 42390,
    "helial": 56775,
    "▁Durham": 49970,
    "信息技术": 34384,
    "▁Milwaukee": 31972,
    "你看": 20964,
    "過": 60799,
    "ENV": 46656,
    "那份": 46498,
    "▁upgraded": 22365,
    "离合": 51518,
    "К": 60758,
    "\\\"]": 7278,
    "ме": 5627,
    "nie": 16825,
    "Enumerable": 51042,
    "fb": 10220,
    "▁donors": 27968,
    "▁breasts": 27969,
    "▁excurs": 40765,
    "  ": 7027,
    "▁bro": 2109,
    "▁brothers": 14706,
    "就必须": 40792,
    "nTaking": 30013,
    "榜": 61260,
    "mat": 3278,
    "▁acknowledged": 21097,
    "有色": 38414,
    "他没有": 42257,
    "images": 8765,
    "电气": 24627,
    "Ast": 54671,
    "走走": 52404,
    "获得感": 53413,
    "滋": 61468,
    "易": 60081,
    "esse": 45413,
    "热量": 31795,
    "十七条": 45647,
    "不忘": 18595,
    "浙江": 9287,
    "()\\": 3005,
    "▁Lup": 50583,
    "Archive": 43490,
    "Qual": 47729,
    "礁": 63733,
    "orry": 5965,
    "orgeous": 13707,
    "ford": 5714,
    "▁partisan": 42252,
    "遭遇": 15994,
    "▁workaround": 50665,
    "▁Westminster": 43120,
    "▁serum": 43250,
    "▁XL": 34310,
    "ца": 11856,
    "variable": 28992,
    "▁dr": 2537,
    "搜索": 14225,
    "轮的": 54199,
    "▁OD": 44600,
    "protect": 24233,
    "▁converted": 15509,
    "func": 15769,
    "告訴": 47884,
    "路": 59884,
    "▁electromagnetic": 22214,
    "▁Stay": 20867,
    "▁Entity": 39197,
    "▁Artificial": 59025,
    "令人": 8692,
    "▁announces": 42122,
    "MB": 9812,
    "小雨": 59176,
    "<0x43>": 372,
    "FER": 43915,
    "▁taxes": 9391,
    "nda": 55702,
    "发起": 19843,
    "动车": 9293,
    "热爱": 15307,
    "陷入": 15650,
    "延续": 17705,
    "▁waterfront": 54567,
    "耽": 62956,
    "▁performer": 36517,
    "▁Amendment": 19680,
    "variance": 43547,
    "Process": 14742,
    "ndata": 21924,
    "▁Crew": 38682,
    "选项": 23869,
    "年了": 42934,
    "ION": 3348,
    "是可以": 20540,
    "一处": 30068,
    "▁pred": 2691,
    "\\\"}": 15720,
    "第一步": 34789,
    "▁sometime": 21581,
    "▁pronounce": 50345,
    "orthy": 27210,
    "▁obliv": 44743,
    "▁“…": 56883,
    "elve": 17405,
    "▁draw": 3990,
    "▁Settings": 24312,
    "▁Mozilla": 48802,
    "style": 4464,
    "▁english": 36610,
    "▁invasion": 24800,
    "▁normalize": 45440,
    "▁rates": 5053,
    "自考": 45794,
    "▁spend": 5003,
    "<0x1B>": 332,
    "arliament": 16985,
    "Less": 39841,
    "▁Survival": 57242,
    "claims": 56046,
    "▁eBay": 29370,
    "Miss": 30874,
    "年夜": 50406,
    "matht": 32966,
    "▁examined": 18216,
    "▁minute": 6998,
    "EA": 27199,
    "aft": 19894,
    "▁март": 51766,
    "▁Legal": 26432,
    "▁hammer": 26299,
    "▁embarrassment": 45736,
    "交织": 53583,
    "atham": 57558,
    "▁doubt": 6521,
    "黑色的": 41699,
    "aeda": 30451,
    "轼": 63868,
    "文旅": 28989,
    "▁如果": 50430,
    "不合": 37183,
    "提供了": 11235,
    "nhand": 43918,
    "ARY": 15914,
    "要": 59662,
    "▁inbox": 28348,
    "▁indication": 19666,
    "▁caut": 25636,
    "▁unin": 30834,
    "島": 62847,
    "ndef": 6895,
    "点赞": 26333,
    "天线": 48476,
    "▁advertisement": 32361,
    "▁unified": 29680,
    "▁Ath": 22268,
    "nE": 1557,
    "ogether": 17213,
    "▁Ethiop": 34856,
    "▁preserves": 37698,
    "▁paints": 39871,
    "mite": 46523,
    "inding": 6870,
    "$('#": 32324,
    "佈": 63303,
    "▁Baltimore": 20491,
    "vice": 25915,
    "▁hesitant": 49422,
    "沂": 62917,
    "design": 19864,
    "ollar": 22640,
    "韧性": 54151,
    "默": 60867,
    "▁guilt": 22809,
    "医护": 24817,
    "▁severity": 33058,
    "▁socialist": 36499,
    "上去": 12008,
    "How": 6546,
    "▁stability": 10118,
    "岁以上": 51733,
    "itzerland": 24069,
    "西湖": 38382,
    "increasing": 51069,
    "▁Executive": 14414,
    "的过程中": 14900,
    "▁tells": 7424,
    "▁Rodriguez": 34981,
    "▁temporary": 13553,
    "▁roots": 13440,
    "元的": 16397,
    ":**": 26554,
    "▁undesirable": 50274,
    "upid": 8487,
    "▁GNU": 26384,
    "apest": 49019,
    "▁Catch": 51569,
    "python": 11157,
    "▁slogan": 46529,
    "百分": 13044,
    "▁artistic": 19763,
    "orrow": 5560,
    "▁Cas": 12703,
    "乱的": 56721,
    "requently": 40283,
    "吐": 61414,
    "十几年": 56853,
    "▁Humans": 58599,
    "▁Shop": 14969,
    "▁las": 23497,
    "▁Batman": 23098,
    "▁Measure": 31816,
    "绝对": 9471,
    "下方": 21637,
    "医护人员": 30545,
    "自己所": 55071,
    "ildren": 7328,
    "▁wait": 3164,
    "▁across": 2656,
    "▁popularity": 16558,
    "▁costumes": 30365,
    "礼仪": 31342,
    "pain": 41168,
    "項": 61906,
    "▁iconic": 21249,
    "Studio": 51150,
    "▁so": 810,
    "熟悉": 10386,
    "erals": 24054,
    "NO": 13743,
    "笔录": 26932,
    "模具": 29511,
    "▁Pun": 30261,
    "小人": 49831,
    "▁smoothness": 57338,
    "▁coined": 59122,
    "▁Yankees": 25373,
    "▁action": 2915,
    "nPro": 6628,
    "▁Function": 19342,
    "▁Len": 18200,
    "信托": 25668,
    "早日": 30230,
    "▁Maya": 42389,
    "▁son": 4818,
    "牛奶": 21438,
    "]^{\\\\": 45474,
    "ulatory": 30213,
    "大学的": 21736,
    "dialog": 30598,
    "门前": 33391,
    "nProperty": 43052,
    "很高兴": 50519,
    "▁considers": 19963,
    "▁frightening": 40033,
    "▁AUTO": 58552,
    "oration": 7855,
    "▁schedule": 8193,
    "▁since": 1634,
    "遭受": 22461,
    "遗嘱": 53914,
    "▁Es": 11774,
    "▁stove": 30922,
    "子公司": 30402,
    "的管理": 24348,
    "目光": 18219,
    "iving": 2293,
    "CHANT": 47616,
    "zig": 53157,
    "▁Eye": 26429,
    "▁baryons": 51394,
    "但是却": 49184,
    "▁Belfast": 58095,
    "政策": 3757,
    "perfect": 33328,
    "精英": 24345,
    "▁earns": 55109,
    "球员": 11127,
    "asures": 19464,
    "捞出": 55230,
    "▁Brady": 28380,
    "察觉": 45466,
    "界限": 43753,
    "ryn": 51189,
    "▁symptom": 39846,
    "▁Mess": 16534,
    "紧缺": 56881,
    "▁regime": 8874,
    "Christian": 36243,
    "▁organizing": 25363,
    "nett": 23750,
[...]
