▁refriger
▁张
免
▁Exped
ibu
书中
裹
nKim
ł
▁Castro
agent
params
▁Lol
▁confidential
第三者
▁crawl
▁nip
谛
曾经的
▁София
mo
▁†
拿到了
fin
norig
时就
调
▁dividends
▁Milton
audi
▁scent
leans
供暖
▁growing
▁screaming
构思
宝贵
爱好
披
▁want
▁asset
嘴里
▁Cable
Nodes
approx
不到
▁populations
▁arrived
坚强
▁expertise
新股
▁deficits
建议
柏
经典
▁class
节约
subfigure
廉政
\\%$
BOX
可通过
nSep
▁tackled
▁demos
IOR
▁widths
住了
nAbout
▁Packages
▁Calendar
千万别
Template
)_{
渗透
▁estim
-\\
▁slots
这样做
技
一次次
dots
▁Fair
也不会
▁couples
▁Month
▁Herm
▁WAY
aw
拿着
▁Further
略有
了吗
nte
▁appetite
相比之下
UTH
的东西
▁allegations
atri
其间
▁caregivers
▁rug
▁enorm
▁planes
副部长
八
开源
hack
▁HIM
抓住
上传
乾
和大
Market
▁inactive
信徒
roph
了的
MenuItem
利物浦
对上述
stderr
▁points
对自己的
care
▁genre
▁nicely
OULD
敗
传达
差别
чен
半
▁Nikon
UCK
▁largely
imated
Sports
▁geomet
按钮
▁Burn
橱
店铺
▁Wik
贞
gor
nModern
▁Scotland
左右的
ене
lets
▁Orlando
($\\
光辉
▁TYPE
consider
▁therm
▁instanceof
▁basin
▁past
▁polynomial
的生命
学习成绩
制动
▁constructions
▁ce
▁troubling
▁Mac
填充
市民
柠檬
▁hydraulic
堂
▁mergers
口罩
nPersonal
响
▁backdrop
▁nit
海口
▁issued
▁HOME
▁ugly
▁Channel
等人
лед
▁Iranian
rang
▁deduct
解決
▁Palestine
医护人员
一日
Styles
target
rne
uts
▁braking
▁enterprise
▁pathway
只剩下
日消息
OTAL
▁ladies
加
名额
标的
有那么
一句
嘻
▁larger
▁Fields
▁declared
MIN
▁farm
除此
德
草地
大学毕业
▁formations
▁Stewart
▁buckets
哪怕是
▁bishop
走出
是一家
路灯
心跳
pc
要看
迅速
STRU
von
nSuch
在这方面
▁връ
循
▁smoke
URE
而过
事物的
▁Strength
土豆
nMult
方法是
▁clos
▁intolerance
离去
ULT
nshows
▁cousins
▁phil
▁cancell
▁predators
ourced
整
cost
的形成
技艺
▁rapidly
▁WR
▁Caf
主体的
▁Morocco
▁perenn
nOrgan
Match
树木
▁oct
为由
nDownload
OVER
咒
独具
抓
<0xE9>
▁cush
▁Balt
▁Mut
WriteLine
她的
愧
▁overflow
▁civic
拇指
▁tentative
复旦
惬意
让他
志愿服务
istory
阵阵
上证
▁nicer
ctica
把她
購
的主题
Bits
毅
▁already
OMA
怖
杀死
mits
▁па
▁gad
rich
Wait
Total
▁Display
▁Comput
▁js
ort
ndel
REM
▁Domestic
ittings
usr
▁televised
nqu
已完成
▁symmet
▁duo
小时的
▁lim
Exists
▁Quite
ebra
▁Tina
▁lik
十年
的各种
导致的
▁toes
ollow
REAM
▁raining
护理费
分钟的
▁Bry
phot
▁avoiding
▁eliminating
ocation
▁Hopefully
ition
智能化
恒大
▁patio
完工
entials
definition
买卖合同
ITT
制剂
优异
ffiti
人寿
least
得多
解决
的作用
同行
竟
陌
umerical
联系
工程的
有毒
ivalence
▁operator
▁Worcester
发文
▁escorts
▁appealed
val
▁Blizzard
▁surfing
apply
▁Between
▁intentions
搭载
也算
nAm
▁discrimination
比喻
▁Wester
恶魔
综合征
▁execute
ply
▁expands
思
▁towers
Des
▁waterproof
莅
妆
▁realizes
▁Somehow
重复
ARK
鉴
上面的
▁bending
▁expiration
羯
▁integrating
idelity
▁Issues
opping
ceq
▁biomass
孕期
▁Eagle
▁incidence
为什么会
▁lun
▁Probably
▁revival
nTake
▁select
▁Girls
南阳
告诉记者
好吧
联网
▁Luxury
▁studying
▁collecting
former
表白
模范
▁Pale
个国家
nNot
nCut
▁batteries
选拔
▁locker
▁priced
pril
Opt
我们没有
▁Lov
▁orientation
Drag
专题
并不是
▁picking
▁Koch
▁dip
▁cities
leted
颗粒
nIm
躁
TABLE
全局
nDoes
Ti
努力学习
▁cre
oly
)}(
竟然
命令
▁von
▁fracture
所需要的
▁stick
▁insult
▁competitiveness
▁threat
nSp
subsection
▁Since
▁lightest
▁Sacramento
nCond
首席执行官
横
鐵
在地
酸
事故发生
▁stuffed
▁ease
robe
elo
▁unused
nTag
颤
俺
ivities
ami
党组织
XL
▁incor
污染
▁regular
alk
▁inflat
DEF
separator
”:
得知
南京
nterm
▁Minister
▁DJ
ikh
▁Knight
▁overhead
▁Wire
▁Tests
▁blessings
▁sensory
姨
experiments
sk
ī
\">{{
nUser
\\{\\
▁disks
▁vice
▁burning
MW
enne
蓋
▁tape
▁subsystem
宝贝
之所以
观看
▁cheer
组建
<0x75>
电极
inning
▁Amaz
▁feathers
▁vaginal
nedit
uisine
▁competence
期限内
▁lookout
▁Functions
▁leisure
▁systematically
▁propriet
arri
▁squad
▁personalized
▁curtains
▁mult
变速箱
▁AFM
挚
nLevel
nThink
说
pay
▁z
nmethod
%;
孕妇
▁ops
合规
以南
有几
缓慢
▁quantization
▁projective
▁bikes
ode
▁url
部和
也都是
准
▁Turk
死者
▁tomat
|=
▁cutoff
▁advance
nbetween
鼓励
信访
<0x57>
▁AS
isi
▁Cats
殴
▁weren
▁Done
正能量
期间履行
志愿者们
▁compound
nCredit
▁Kardash
equivalent
▁analysis
▁save
▁Shakespeare
反弹
▁COUNT
▁clue
educated
▁ste
▁relocated
<0xC9>
Search
NTA
▁Gat
有力的
长春
structured
▁Northwest
kara
政治
▁Print
生命中
nesota
nNice
抚慰金
▁Int
九十
仑
▁wealthy
▁Bun
ensable
ntypedef
制冷
▁Fans
▁resume
封锁
▁Heath
额
青春
就连
▁editor
沂
RA
▁vac
fficient
城乡
arning
高温
стори
▁Eh
損
▁sharpen
▁infringement
forms
水库
ON
▁anger
states
一顿
震
<|unused106|>
日产
▁necessarily
nKing
▁education
▁Netflix
东南
袋子
▁Tyson
▁via
▁Tall
▁sn
billion
cean
▁multin
▁FO
▁funeral
;/
aur
▁everyone
▁Delhi
orated
学业
conom
▁credited
困难
盖上
▁Biology
refore
无人
open
▁diamonds
▁aggrav
placian
乳腺癌
伦理
proving
膝盖
向本院提起
▁language
两市
▁mentors
饭
Anchor
у
ingly
▁iron
实务
湖北
iu
▁Goodman
▁forgetting
民营企业
凛
tfrac
否则
▁window
圆柱
▁timest
Username
按下
满是
在国内
此类
▁prestige
▁Rapt
ached
front
▁Logo
umers
▁Killing
磅
Layout
ocks
▁less
▁accounting
▁elephant
Lead
DoxyCodeLine
pler
▁Noah
问题是
▁minorities
▁cul
upy
Their
吗
瞪
▁Chad
▁Quant
增高
eness
▁Personal
▁move
的功效
▁raising
▁Link
depend
否
憾
▁handed
isen
▁Feature
▁-
prus
ousing
ties
▁Campaign
▁Design
alling
上诉于
▁poorest
▁Following
▁return
▁civilization
的女性
CAP
▁beam
nlocal
的重要
▁fabricated
Team
▁Doesn
利率
迷茫
入职
▁decaying
btn
▁nominees
▁secret
wise
形式
▁preceded
克力
状元
▁Salmon
▁Alliance
▁readonly
ailing
制订
糕
Med
风格
▁remed
客栈
宏
nBeautiful
gradient
▁advances
▁rejection
美國
中最
renewcommand
▁washing
又将
▁Comb
compressed
eld
▁reversed
▁smoot
世界上最
Seg
▁Oz
东亚
▁Plain
ct
干旱
timately
alax
▁differentiable
▁excurs
DR
▁Moses
恶心
▁Peter
▁NHL
纪念
都被
闲
oval
扩
Aff
水温
▁NET
umbing
orks
buff
市场的
清澈
近年
▁freaking
▁boards
物价
▁deferred
▁cruising
规范化
正确
座谈会
ock
▁indicating
少许
bibliography
wx
стър
digital
▁rhet
▁Morris
cosity
и
怨
cline
的区域
oni
区内
▁Prison
小镇
▁baptism
▁fundament
▁knock
▁Andy
▁destroying
ref
▁partner
年以来
战役
▁unlikely
▁Stone
▁hid
Р
ь
▁Grill
乙肝
LECT
oupon
▁gambling
▁Growing
)**
有许多
▁video
▁investigated
多岁的
▁inad
农牧
▁abilities
▁Curtis
元
怎么了
安装
的根本
▁hail
▁Roy
▁principle
胡子
▁rumors
▁prospects
▁wouldn
▁anecd
▁betrayal
▁Nev
▁lined
▁minute
▁movement
/**\
▁sip
在家中
equ
close
办公室
窃
crew
▁themed
乙
注意到
▁Fighter
秉承
▁事
▁Nash
▁Sprint
法学
▁Sure
emptyset
▁wakes
印花
赠
▁victims
带的
▁flare
就会
头皮
▁Knowledge
▁murder
芒
▁editions
▁color
服務
terminal
Factory
\\\"
▁плани
fashion
广电
告知
ulture
▁Agric
▁received
_+$
…
后期
研究和
▁ep
风口
ppers
演出
Bigg
▁columns
processing
慈
▁instructions
▁transgender
感慨
新生儿
▁Evan
▁bud
▁navigation
合
て
uitively
▁Creat
nIsrael
回收
▁irres
出
xml
▁vacancy
raits
▁receptors
大家可以
▁integers
組
Trans
Run
就医
荧光
FA
因素
▁producing
▁Clay
hpp
▁infiltr
▁volumes
平均
▁unnatural
▁cra
▁governor
▁Psychology
现将
斯
间的
▁zeros
▁Owens
た
components
</h4>
实施方式
透过
我不能
ookie
ivist
▁hinder
▁represent
▁stories
▁tested
二十大
▁MED
egie
▁tipping
тели
▁List
location
ields
社工
▁Van
知情
讽刺
▁substituting
cf
▁YORK
钱财
乘
湖人
▁queer
nmodel
ocative
害羞
曙
将于
▁Emma
▁terrace
▁customary
▁cohomology
成立的
<0x45>
cam
▁dresses
NzU
哎
▁ruth
ascade
onday
▁handy
病患者
许可证
▁Washington
各种各
▁interconnected
站着
辦理
▁tyres
▁willingly
很不
保证
开学
\"/>
▁AUTO
老伴
举办的
挫
萎缩
彬
副秘书长
▁fret
valueOf
▁Bullet
nMany
▁Richardson
▁nonnegative
▁warranty
nWatch
phi
bcb
ict
fra
硝
<|unused114|>
hom
职业技能
▁Stew
:\\
▁Galactic
anta
赎
▁incorpor
▁Hunter
▁learned
重點
▁Евро
▁accum
ecd
nU
▁bunch
Sp
余万元
▁Celeb
▁compan
peak
旺
ounds
▁caramel
▁contracts
xa
▁retros
▁Pizza
ack
▁Lor
▁decisions
日夜
Parse
▁feature
▁paperwork
(\"[
▁annotated
));\
在本
▁crafts
▁toss
火车
鲸
▁Marine
▁reform
▁subsection
▁regener
认知
▁occl
vantage
nstat
▁superiority
rival
▁adulthood
странен
cee
▁cam
大部分人
▁DO
▁bonded
乘坐
接入
屏蔽
nyear
火箭
外包
Items
同学们的
他们
可选
nGo
▁vendor
都已
而非
neach
ORD
▁Agg
really
▁Raman
势力
长寿
är
转化
Debug
icative
▁prohibit
▁proud
检
正是
ignon
▁Comes
钳
▁leveraging
进场
▁vegetables
▁Parker
лко
他用
yrus
swap
▁porn
▁plugin
ospit
weak
▁LOC
ving
viron
cut
▁lace
ATING
嗽
▁outflow
▁guild
▁forwards
海
钩
干警
Cou
要提高
phy
强制
LEY
啪
cdots
恶
▁outstanding
▁fade
▁PST
参加会议
See
▁Marines
ERT
nwho
▁geometries
半个
疫情
▁meson
Code
▁attacker
關於
▁oat
心生
▁exceeds
高达
▁duct
▁Creative
▁currencies
姓
▁Hamiltonian
朦
\\\\\\
apt
的门
最大的
▁ultimate
▁Jacobs
▁endeavors
▁pole
ул
\\[\\
withstanding
願意
▁adore
physical
▁Hutch
ivier
▁Stop
▁Harbor
▁reput
新能源
▁III
FW
три
▁doses
▁vess
▁politicians
idade
走过
▁Run
但这些
▁Ins
▁allows
current
▁Brid
icing
汇聚
证言
▁Aviation
▁няко
▁ace
▁calendar
▁presenting
OPLE
▁wholesale
ъм
▁km
VE
arta
▁punching
根本没有
paring
辛勤
acc
phon
▁Kur
电视
▁wherein
nPerhaps
heses
さ
▁(#
▁SQL
▁INC
挣钱
级别
身穿
深知
▁revis
▁Indian
配合
▁век
▁guessed
共产主义
▁healing
<0xE6>
▁blades
方的
国家标准
兼职
IONS
mun
▁overd
▁filler
<0xDF>
琦
▁process
approved
▁una
orange
▁afforded
простра
天堂
自动化
其次是
去过
▁unexpl
mrrooter
▁charities
▁slows
▁Anything
动脉
▁shore
bigcap
etic
Row
教學
SA
\":\"
冷冻
兔子
询
薄
实现了
aji
溫
盔
最小的
黑龙江
⑤
env
venting
认为
▁fain
OTk
是从
贬值
▁Tuesday
▁drives
uten
Cas
nStar
▁styles
▁Rainbow
沮丧
电磁
工作进行
––
结构的
Memory
▁departments
又会
](
无可
中毒
要做好
▁Patient
▁encountered
▁expose
▁Awareness
节目的
▁Enjoy
Criteria
locations
▁mortgage
▁опреде
抽
Step
▁YES
▁barred
上榜
亦
瘤
▁believer
胶
▁answer
▁evolutionary
▁curious
更为
据了解
身份证
▁Orthodox
▁bosons
▁tolerate
取向
▁LEGO
nEric
▁form
水平和
nRep
mercial
oup
iverse
▁noisy
guard
*\"
izophren
▁binary
rieve
ulous
▁depleted
虔
ninterest
而至
essica
▁styled
Wi
RB
▁фа
▁Neal
▁entitlement
▁BAS
Audio
▁along
nTur
dee
娘家
▁variable
保险
熠
▁archive
auer
▁unitary
тура
tom
缆
▁skinny
purpose
威
它们的
<0x89>
▁nonlinear
fork
需要在
XM
confirm
á
的神
安保
Ce
▁wh
ARP
▁toug
National
maxim
外汇
rescent
nINSERT
issan
▁alk
▁develops
▁gut
ospice
▁Gets
报案
专栏
tikzpicture
实体经济
事業
▁truck
还将
Version
▁Switch
})^{-
Mom
偏见
菩萨
embedded
infty
▁hd
quis
▁deductible
饿
国足
<|unused037|>
restrial
容器
eless
▁Summer
▁norm
cone
width
昨日
打破了
ands
职工
EN
Black
)]\
categories
▁Solomon
nFurthermore
▁formal
nMs
▁Lu
晋级
▁dedicated
▁contributions
▁resorts
▁Initially
虫
▁miracle
憶
pajama
казва
腹部
上百
▁goog
窟
全覆盖
全身
Big
▁if
高新区
▁ka
LIST
developer
ogether
上了
▁oun
▁Valentine
▁fix
转子
▁whether
其特征
▁say
▁Bomb
)^
eful
▁ranking
能够
的前
▁enz
毛利率
▁biggest
apping
▁Kom
fib
浇水
▁bits
nOK
▁Ros
▁UT
唉
军工
迫
▁visiting
研究报告
样式
经费
克莱
▁concer
cale
货车
福音
領域
▁disguise
cli
①
▁->
景点
nGod
gy
letes
ocular
raint
走在
主体责任
▁Mar
下一个
Isl
▁values
意想不到
insula
▁Cube
-
▁Indust
opard
▁Rosen
▁Changes
threads
急剧
TEM
劳
拌
全面推进
▁Jenn
发展
▁High
GUI
看起来
▁pass
une
▁drugs
▁barely
珍珠
idge
五年
▁corrupted
一種
押
入选
▁secondary
的技术方案
展出
▁neatly
anned
Й
▁algorithm
成功
▁ignores
evaluate
forced
▁gum
Structure
壓力
ьор
\"/>\
▁todd
atisf
▁~\\
Facebook
▁apps
▁model
微信群
威廉
▁angels
▁Beverly
整个人
判令
赶紧
一小
监督检查
▁pepp
▁cryptocur
异的
高速
▁Avengers
uties
思维
Sa
▁paints
little
▁cruel
玫瑰
計畫
Es
▁dd
▁Essentially
▁ROM
▁str
▁ended
JM
拾
就是说
杠
▁quarterback
个月
earchers
▁eater
汹
Flags
▁Giving
adays
▁Vi
chester
nGe
▁lectures
Original
▁tempor
▁consciousness
虚弱
avor
preview
▁La
ск
▁purple
iden
▁gas
把自己
natt
▁sellers
rax
▁gate
▁OPT
▁Lect
▁accuse
▁Jennings
▁belie
eri
土
▁$>
▁bladder
狄
镇
送到
▁Sciences
lease
ву
届全国
▁Funny
高铁
▁Laura
的大门
user
▁appearance
腦
$-
前面
▁t
ches
秘
Yes
劳动力
▁hello
▁hemisphere
调整为
rizona
乐观
group
rowing
▁detrimental
默默地
▁Dana
说明了
離開
RU
nX
你已经
▁HAS
▁superv
IBM
▁deficit
对应
防晒
Route
小哥
楷
CSS
哈哈哈哈
▁relativity
民進黨
▁delivered
▁$<$
茅台
积累
精神
bsite
▁ng
花朵
▁Catherine
ensions
卡拉
▁purpos
colors
▁header
co
raction
▁acceptance
▁violating
▁Knox
说话
COUNT
▁NOT
▁Def
▁Tehran
▁dwind
歡
=\"
nLe
▁slap
▁ignor
泸
ardi
碳排放
截至
长长的
▁Dem
nbefore
igner
▁RB
下部
olated
prototype
▁ablation
nChristian
▁prec
>\"
ructures
▁Corpor
bris
▁beyond
▁Bears
分歧
＂
aption
▁painful
▁populate
▁seizure
投诉
▁stirring
说到
▁Occupy
人身
}:\
▁Boulder
ti
Bytes
▁damn
iency
了两
ota
nto
▁favour
▁decrease
不但
▁rant
▁rightly
赚钱
字号
▁activ
有必要
的房子
▁love
挑战
roe
▁tribes
+=
取暖
ocalyptic
mass
▁dating
本周
▁Henderson
ugar
▁dominate
驭
▁Mor
▁contem
▁bands
Boolean
断了
Conv
ges
其他的
▁Adams
戒指
▁broccoli
弹
wal
李
▁drink
在他的
Ol
▁Computing
▁spice
▁curated
的本
atic
▁imprint
▁Virginia
少儿
长大了
奥巴马
して
iling
▁Neo
▁celebrations
nRecent
寄托
enable
▁maxima
据此
上报
efit
贪
▁edge
▁up
Diff
是一件
▁earlier
▁telecom
▁flor
名义
▁bikini
▁Day
▁Idaho
微量元素
▁criminals
nE
▁fauc
ass
待遇
▁beforehand
▁Alabama
▁Matthews
詩
正常的
沽
ncil
▁stocks
CHECK
vature
▁Hawai
▁subscrib
▁hatch
▁come
Figure
мерикански
nTwitter
blocks
▁Pup
也可能
▁satellites
▁broth
QS
▁includ
我们先
简介
▁screws
售卖
Tem
是与
tale
地质
▁occasionally
nmult
造成的
三项
witz
pi
hyper
▁miserable
班
▁symbolic
现任
▁reli
▁applying
分公司
branes
\"{
散户
Fair
▁Republican
一类
German
▁exploitation
▁sleep
地段
岔
为人
VAR
瀚
Uri
inspect
▁traject
地方
该国
▁Simmons
上的
两个人的
中长期
手掌
out
▁Pont
ortunate
▁softer
▁plastics
有
▁stamps
……
ei
不可
周围
▁dock
core
▁reservation
▁discrimin
▁Powell
老师的
either
▁Mong
istor
世界上
▁shortly
густ
Read
将在
和朋友
爷爷奶奶
神奇
biased
▁electronically
背景技术
入门
▁inacc
;;
▁doctr
yles
▁uncovered
packages
警官
burg
▁blend
缺
UE
▁strips
▁Articles
严格落实
rp
ymatrix
▁commit
▁snapped
锋
岐
\\+::\\+
卿
▁ionization
椅
bling
ochang
▁Forward
▁donating
▁downs
OTHER
rained
的业务
▁queen
>'
佛法
▁dazz
osi
:"
dan
一家人
▁Murder
第七
视线
oder
regulation
▁outlet
▁зе
QU
的最佳
▁municip
bly
▁shines
▁vodka
▁pivot
▁Abb
▁&&
export
▁error
心得
▁ку
▁regex
Sys
感
泄
实际的
ISTER
▁fiscal
▁Hod
▁resemb
地址
▁olds
ő
辐射
▁arrangement
▁Monster
pect
▁Jama
ithic
採
▁Limited
▁distracted
▁Include
在国家
Could
的原
▁corps
▁regularly
▁matches
艺人
醫生
设想
存在的问题
管理局
************
沸
美容
▁stocked
caling
▁er
的女人
▁които
▁managers
取决于
▁christ
▁Bat
▁amazon
classified
цията
zeta
有任何
▁gigs
聘
因此
arcs
甫
nShow
CONFIG
▁telesc
▁event
板
▁planning
房间
▁edited
转向
起点
遇到了
已经成为
的特征
耐
Token
▁gotta
▁adul
▁Hear
目标是
歐
▁volunteers
nAverage
▁initialize
娥
▁prom
orship
▁approaches
ELD
▁Experimental
ASH
▁homicide
先生
cence
acs
▁Sol
▁maintenance
动人
▁Kash
▁ringing
还真
▁jeopard
银河
的了
▁Structure
地对
星座
▁kill
可疑
参谋
需要注意
三级
十几年
泥土
美国政府
mazing
▁usable
全日制
Ill
美丽乡村
▁за
▁pom
人事
中医药
▁soda
▁inn
最新
▁increments
ure
經過
ellation
▁election
▁Raid
賓
rav
领导人
▁SW
locks
首位
失控
▁hates
▁desired
~$
积极参加
半岛
cribe
nWhich
▁Kend
女人
匀
周年
▁•
▁aiming
他想
正式
局部
▁Tip
ringe
医科
吸烟
前
子弟
分裂
▁dissemin
捞
sis
▁attractive
▁bre
▁batch
男女
住建
Nothing
日晚上
ま
▁Besides
▁exped
▁degree
▁offense
▁multimedia
eal
绽
elist
儿的
▁Obama
▁staged
uchi
▁Wo
rarily
▁Oprah
▁Mot
农业
▁implementation
ictory
nproduct
背上
清华大学
▁vol
准确的
olen
他会
▁playground
nCons
RESULT
▁nu
▁Uncle
ONG
分层
▁ubiquitous
▁Tot
Altern
▁cooker
那些
因而
供述
抗菌
以此
</tr>
主要是
赶到
▁Associate
对方当事人
▁reminds
▁darn
▁stripping
择
▁nations
▁Attack
▁Next
gate
▁begun
<0xCE>
eller
▁configured
▁sewing
▁—\
wing
Discussion
▁Motion
}$;
Public
▁thrilled
}{\
的歌
▁Take
对我们的
\";
<|unused102|>
沙龙
格林
下列
▁Terms
\\#
傅
痹
▁substrate
▁floats
cycles
离婚
▁prototypes
处理器
大量
▁dimensions
争执
飞扬
底
▁turbulent
andidates
▁execution
上任
培训班
▁pending
写字
时间和
▁Perform
逐渐
accessible
的可能性
▁dolls
▁gren
▁spacetime
Dot
▁decimal
千人
就可以了
德国
<0x23>
profile
▁Congress
▁docs
哼
▁escape
▁haunt
▁е
▁fu
短
Външни
uled
gc
чение
气质
▁Captain
▁Optim
了吧
Present
▁sending
思想的
的有效
finder
▁diversity
▁belong
类型的
▁Catch
至于
nEach
该如何
龍
TION
Compat
性别
▁PG
和安全
期刊
ál
xrightarrow
▁scale
世上
▁swo
\":[
hbox
恨
▁livestock
bra
iness
▁trips
▁Future
我心里
功效
▁picnic
是无
主
<0x49>
▁glaring
▁thereby
写了
▁trunk
▁cloth
悲观
他没有
▁aperture
▁heroin
▁Rab
Perm
▁explosions
▁supermarkets
▁IT
▁rockets
▁converse
peat
▁provin
▁Heavy
▁generation
<|unused159|>
ney
宁静
会不会
▁publishing
mounted
nmark
翔
Loc
倾向
anguard
lace
<0xE3>
缴费
文献
新中国
ntheory
▁How
▁stre
▁intertw
oso
▁island
侵犯
ific
▁exceptional
别说
nProb
▁dynamically
▁Analyst
inar
新华社
▁unstable
▁quantity
愣
又一次
遷
ica
▁macroscopic
▁bring
感兴趣
不仅可以
祭祀
▁name
媚
分的
禁止
NER
▁parole
咸
我还是
嘉兴
▁Treat
创业者
▁tag
私
icial
▁supply
Navigation
▁else
Loaded
)))\
在他
▁NS
rued
▁Brend
扑
▁[
▁phosph
▁infectious
哥
Exec
公用
renal
慢性病
▁ty
实用的
惊人的
玛丽
严格
所产生的
c
▁Featuring
▁expans
做的
inn
▁listened
▁Snyder
各村
劝导
▁Munich
▁Watson
rared
ms
失业
▁wedding
▁Nut
▁token
iph
▁sovereign
波动
xious
<0x81>
的效果
▁humid
▁lesions
▁Gaz
vas
leftarrow
他要
▁exercised
Latest
谭
▁adjusted
▁Р
弹性
▁с
ment
~{\\
▁Spike
阳气
ordinates
▁extending
ATS
ested
▁Industry
diff
展示了
KU
▁screenshot
▁emergency
▁upset
<|unused123|>
方向
▁induction
▁patter
▁Studio
However
▁Ivan
ontal
助攻
PCR
▁provided
渲
();
肪
▁toll
她和
▁circuit
▁understood
nAb
generic
▁breathe
oku
▁Pink
▁forecasts
▁>=
缩短
▁Ri
▁silicone
▁slut
▁CALL
pitch
mysql
▁recogn
provide
我喜欢
论
▁sta
▁САЩ
▁harmful
those
▁considerably
▁cf
lex
▁muscular
▁appropriate
▁Lorentz
编织
▁Shirley
拥
oud
排除
▁RIS
回来了
▁creation
▁replace
直
▁scream
pable
悉
▁Tas
成员
躲避
▁gl
設
候选人
obar
Former
her
▁where
ping
的开
▁counter
▁Clem
▁Newcastle
<0xE2>
Wid
▁CAM
▁Tue
Lay
我又
▁Despite
大大的
▁profoundly
▁Seth
那种
▁job
進
▁warmth
arcraft
issy
▁embodied
阈
CON
▁Cleveland
但我们
緩
▁classifier
▁Interestingly
crease
▁lighting
▁cries
坏事
行为
▁readily
▁excel
nMeet
nobserv
▁connects
▁Keen
熄
colm
▁imply
看向
akistan
umper
也会有
▁policym
icated
好友
relim
posted
走着
▁Hungarian
▁Jar
Pod
▁market
▁upper
零售
▁Dur
▁trained
▁cylindrical
▁shields
▁§
▁Rw
▁disruption
▁newcom
深入
京津冀
▁manages
ikes
▁It
蒙古
▁изпол
▁Units
Coll
▁problematic
▁Additionally
ishing
kg
▁Chip
后市
订
cin
▁Kol
contain
签订的
脆
么
到目前为止
碎片
▁Bush
▁hamm
▁disclosure
ndiff
不可以
dom
讲解
▁durable
line
肽
which
交响
Bind
mons
成绩
▁optimistic
动的
酌情
Fast
教室
tang
▁PAR
helial
侍
▁valve
orsion
金银
▁Ground
▁PDF
▁eat
XY
▁blood
說
Mag
热衷
相对来说
▁mono
不了解
關係
▁Warrior
▁playing
▁appreci
▁relic
поред
凝
更多的人
▁rename
▁Fen
▁characters
iguous
罐
方向的
责令
的真实性
create
interfaces
▁script
▁breeze
物的
▁irreducible
NTc
别墅
▁AM
尽力
▁Philosophy
▁общи
_{(\\
▁proficiency
rgb
hetic
▁Jacob
跃
▁sunrise
▁awareness
▁Licensed
▁Thomas
▁Tar
▁added
事务所
advant
夜晚
▁accidental
材料
aus
▁topics
内地
▁grind
▁Haven
上帝
预订
▁stray
▁Joan
oters
practice
劳动合同
理解的
▁bounds
▁cigarette
utz
▁mushrooms
彻
本案
▁rides
乃是
▁Wel
commend
ributing
Cam
当庭
只要是
▁Young
plist
holder
▁indoor
▁myth
<0x66>
▁Hampton
ochond
inery
叫做
文物
▁Creator
▁'<
▁respecting
ual
污染物
[/
▁campaign
教会
看着
nCL
签字
COVID
全区
bulk
无聊
也只是
▁гра
▁climbed
避开
事业发展
赛区
eral
▁Program
▁incentives
七年
azar
uper
ber
▁identifiable
addEventListener
▁Must
碗
icans
收藏
慑
▁memory
inates
▁Carrie
resident
最高的
ected
▁twist
所述第一
▁fl
▁district
known
▁tensor
管理学院
temporal
verbs
д
olation
nFood
越来越大
营地
▁vagina
TC
嫉妒
rowave
夯
▁Bonus
nsaid
重生
残疾
增设
浑身
ernels
写的
resses
▁oh
－－
▁amateur
抓好
▁goodness
ます
石墨烯
тъ
▁vendors
▁Zip
昆虫
▁facilitating
西班牙
▁chip
phys
期权
槟
▁welcomes
igans
投保
须
▁aisle
▁Reds
医学院
弱点
▁onboard
省政府
Kh
▁art
时装
疱
事實
ness
货币
▁mattress
▁hometown
中国传统
encil
Parent
灯
<|unused078|>
▁editing
▁pumps
Gate
會議
▁purge
▁Person
也有很多
Completed
干预
ми
▁converting
▁Employment
▁Factor
ussell
紧紧
article
很好的
▁Anna
▁Li
▁descriptions
▁thereafter
▁constructing
之间的关系
thinking
DEVICE
▁Australia
nCor
辦法
hurst
区间
资本
上门
***\
逐一
Appendix
裤
▁EP
中之重
▁multiplayer
▁peanut
会把
▁um
ouncing
共同
▁predecessor
Spect
非常高
▁lemon
▁viruses
нт
▁Brazilian
▁Ку
nExamples
▁calculation
Pages
激烈的
口水
ouis
擇
一架
се
green
正确的
▁dragging
很多人
▁flat
▁experts
++++++++
灭
▁anonymous
参与了
ablation
经查
五个
▁neighborhood
第三次
▁scope
不止
▁flavor
▁cram
玻
CMD
部电影
亲友
plt
占用
ublished
▁universities
restrict
▁showing
▁national
ippy
▁Sean
佔
▁submission
photo
預
投
▁Quantum
microsoft
系统中
condition
塘
nWow
多彩
▁Agricultural
三条
▁exhausted
▁stretched
你的
▁boosts
额度
四是
崛
False
▁grandchildren
强力
▁Essay
град
itored
月子
▁GI
notations
▁feeding
在路上
▁nons
▁Lah
琢
农产品
撰写
mel
DOS
苗
震荡
ynolds
yer
▁restoration
最容易
fact
vect
企
▁amusing
ps
▁circulating
Anyone
裁判
十大
ги
为核心
ils
▁constructor
出汗
field
▁pack
▁examples
dest
▁Perm
ENTER
etti
较多
揭示
▁terminal
▁bicycles
▁ransom
psfrag
TPS
ncont
应注意
▁defenses
的小说
▁witnessing
mit
科研
▁disappointing
▁compat
ndet
强势
▁separating
omorphisms
ς
出差
▁channels
annon
籌
▁jet
例
汇集
▁Stones
迪士
军
GV
▁Moscow
▁squeezed
▁Crawford
一行
#:
内分泌
支
nJoin
一来
▁mild
▁thrive
▁labeling
nalong
审判
▁Estate
浏览器
▁Street
▁sale
▁opts
司法
院长
racted
▁magnification
nBel
▁inclined
委员会委员
不幸
▁DX
不乏
▁drought
▁travelers
开工
ask
最早
▁Nintendo
▁Panama
▁пол
▁militia
▁embod
心脏
还需要
为了
olph
su
▁crafting
▁tel
logged
ech
业主
有的是
··
}_
切的
holm
结节
▁cocktails
native
minute
认购
▁Favorite
填写
其中包括
建立在
▁throw
▁explos
▁coordinate
▁subsets
的发生
挥
好运
医院
▁ctx
</h5>
不可能
notes
aten
都无法
▁NLO
数十
dog
▁occupation
▁metast
▁insufficient
调料
idu
任意
▁lengths
▁reusable
▁tire
▁duel
涛
▁Train
深入推进
追随
灌
imag
▁adjustable
中心主任
▁divide
▁constrain
机动车
带走
▁Quick
West
的首
你去
│
準備
者的
吉林省
▁undercover
尔斯
肢
▁polyg
老大
鼓勵
___
shine
将成为
Analysis
momentum
辈
▁ID
▁Dod
lif
一个人的
现代
内核
多
▁here
山水
▁gaps
电影
也曾
▁covered
氢
▁Once
的孩子
山上
泄露
]->
orations
uced
oyer
roleum
▁SIM
大家好
拖延
▁enumer
▁greatness
▁Taliban
grat
tuned
omorphism
状况
▁Colorado
▁Project
uer
▁Pri
▁Anonymous
保持着
许多人
inaries
少数民族
筷子
酸性
forward
孔雀
дени
▁crus
▁heights
onies
收费站
巴黎
▁indo
关节
天才
со
▁laugh
▁affili
▁sake
▁Lie
阻碍
▁hurricane
ounty
plitude
▁Benedict
▁summoned
咐
▁Elect
▁员
bea
ega
▁chest
function
freq
▁regularity
nThanks
ior
▁Sky
▁pool
scripts
窗户
呼吁
▁depicted
亲人
ucing
▁uter
жно
▁ol
尼尔
▁forty
少
那时
▁ex
建筑
▁handlers
勝
▁corpus
生怕
就不
cury
引发
makebox
Even
支持的
ampoo
<0x55>
麻痹
▁upstairs
▁Dialog
▁heater
犀
迷失
abi
▁Chick
rupting
▁Forrest
发光
η
HB
发射
▁▁▁
MBA
▁noticeable
▁PARTICULAR
learn
▁desks
ension
▁mode
▁src
变得更加
Lib
垃圾分类
Ball
▁company
▁link
aras
Throw
▁emulate
▁regression
strength
蓝图
件事
提倡
▁Би
因此在
学堂
elesc
'}(
nyes
參
css
▁ability
nEver
相关
▁Saudi
▁STE
▁epic
的热情
人道
▁rods
▁Min
所有人
▁Sho
junit
觸
手臂
amburg
教学中
▁head
的力量
▁email
福田
太平洋
脑
▁collect
漂
▁Из
nCommon
▁planetary
needed
▁soph
iners
rup
▁shooter
▁grouped
天内
▁Rachel
▁he
不如
前辈
▁sites
coupling
▁flaw
▁nodded
▁shuff
▁onc
leftrightarrow
Dev
怎样的
_{[
萨克
▁BU
▁adventurous
东北
▁leg
$=
▁map
所学校
▁unchanged
▁sanct
▁BTW
cite
喜欢的
▁unwanted
▁popularity
僵
▁instinct
▁Moder
▁anatomy
狂欢
▁Allow
ernet
和高
转身
▁Steve
用地
公子
▁vomiting
▁John
▁Berlin
SW
▁Pl
notification
蠕
入市
一会儿
的时间内
▁Smart
xi
▁wash
▁bilateral
▁denomin
也就是说
▁aimed
ъ
▁Hart
肯定是
emi
Email
▁per
▁sc
▁Cornell
dict
▁gimm
的国家
▁profound
▁pizz
yes
▁Citizens
▁realize
▁recombination
▁trademark
<0x60>
街道
▁$<
<|unused129|>
▁Cock
▁traders
嘱
返回
Topic
冲动
亮相
花费
▁worry
喜欢
▁thereof
кола
▁stripe
▁Ж
▁scan
督查
▁Worlds
squared
就是我们
柬埔寨
潍
nMaking
▁founder
▁\\%
▁Linux
▁higher
▁Col
▁superior
DEV
▁Film
丙烯
operative
國民黨
▁lifespan
illas
▁initiatives
就让
這裡
▁Senior
▁TS
▁distances
▁Chris
▁community
▁patrol
▁aggregation
的人来说
是什么意思
比例
▁paid
▁opponents
聚会
▁POS
nails
啟
▁fo
足够
NTE
▁Pull
▁feelings
会议由
初衷
▁destro
管理工作
之前
签名
败
▁Coal
▁forged
硒
ucas
<0x1E>
厦门
长远
▁mod
<0xD4>
chief
玩具
since
▁ALS
<0x42>
nadd
▁Furthermore
<0x7F>
▁Schneider
▁ripped
剩下的
▁oversight
LOC
▁adap
ncap
体内
▁Assistant
叨
好看
aran
姐姐
格尔
染色
These
羞
买单
▁https
abc
大概是
linear
Mi
▁Boh
▁toy
▁foresee
一笔
ългарски
▁rm
妄
▁Custom
телно
▁Hol
式的
野
见证了
複
合议
Dig
folder
水晶
▁preferable
comma
nOne
▁computing
葡萄酒
▁Benjamin
实际行动
nIS
▁yoga
Adapter
其他国家
密
▁Doug
lecting
▁ton
real
圣诞
Objects
▁tow
距离
▁worn
衅
软件
明显的
小子
▁relevant
尊
visor
▁Fun
▁porous
nAnyone
Val
神话
clean
多月
▁indexed
▁caf
▁bills
otherwise
詞
人們
oh
▁giveaways
▁interference
妹妹
美元
olas
▁uranium
而在
击败
▁giant
▁blah
比较好
做得
▁im
笑脸
▁Quart
▁slopes
級
▁research
▁fined
rens
休
白茶
绿色发展
震动
▁stopped
ар
沙漠
▁Palestin
qa
证券
ructor
而上
系統
▁breasts
奶
▁🙂
▁Or
仔细
brain
▁artificially
▁Cong
▁lamps
Machine
编写
山药
技術
经济的
暴
▁teaching
▁cleaning
拓展
成為
▁HV
▁indef
如实
第一批
culus
uma
▁liv
▁Oct
\"\"
Button
big
▁broadband
▁[]
iq
带动
如意
elligence
▁Many
▁toilet
gravity
clk
反抗
▁vicious
换
鲍
▁scheduled
提速
向往
phen
的生活方式
shots
▁tre
年上半年
▁Unc
苛
▁Inn
▁advises
nPH
想起
keep
▁closet
研发
电商
对这个
物理
金牌
▁activity
)}+
▁wallets
评审
跟鞋
充电桩
伤口
▁admissible
\\(
▁Inner
metadata
Stage
▁ener
生命的
izzy
brew
的人
▁assisting
▁colors
▁cracking
▁ports
菜单
▁corporations
▁Steam
六年
▁leaders
的时间里
JJ
集资
Contains
之多
误解
▁testament
大片
▁punk
ру
对我
▁MS
▁commut
▁dull
媒體
cret
#
▁coronavirus
ncl
▁misunder
▁discontin
日起
▁ore
以下
▁Authority
寿
▁ceramic
▁unsett
这是因为
nHol
核酸检测
▁kidn
▁Ve
▁layout
种
▁fail
ulia
hythm
▁conceptual
立志
can
翟
CH
日立案
一向
Appl
又说
文旅
ън
▁commend
dit
afka
X
▁Prin
atan
▁segmentation
▁representatives
定点
包
▁measurement
▁Brew
▁Beyond
头脑
不准
▁baselines
mins
又开始
期
入睡
bered
^{-\\
nFortunately
将其
ews
▁chap
ually
受限
Info
▁Docker
▁beta
▁pid
▁Pastor
论文
畸形
apture
栖
▁Фран
▁efforts
▁FOX
环境和
Well
nPal
▁Drug
▁pun
obi
使用者
▁Dew
▁progressing
▁disbelief
肯定
RIGHT
duino
这一天
▁Join
弹簧
▁Nonetheless
▁INT
▁declares
管家
csv
颤抖
ential
位的
wheel
自身
eware
fulness
▁light
▁soon
zu
各项工作
Url
小腿
孤儿
▁math
▁eight
uv
letter
▁pipe
textstyle
nequation
▁preserv
▁NPC
;\\;\\;\\;\\
})}{
绘
▁thing
▁accents
发表了
vention
▁drip
滨
▁robbed
izers
Actor
出色
чно
共赢
▁Sim
生动的
您
培训
正当
玉
▁colle
balanced
ellington
▁Recognition
形体
}/
▁belonging
多方
隐蔽
▁Olympic
▁Glory
Из
bai
▁McCain
urb
銷售
饮用
敛
▁letter
▁Walker
小学
▁feas
▁transmit
以前的
市
▁folks
eling
XP
▁consulted
paper
▁fashioned
▁Gar
ayette
情趣
供热
▁Luther
▁reciprocal
ugust
▁doc
舉行
▁programs
heid
TF
你可能
▁Morrison
▁Valid
pip
▁wag
▁Surely
ndifferent
ourse
▁humidity
▁coding
appings
▁troubles
▁estimating
=\"\">\
▁Christ
身
Port
▁pressing
萨
ogy
▁European
▁should
▁Builder
▁SMB
对的
▁Eug
▁dire
▁bathing
people
▁protecting
▁arena
gae
mony
无奈
▁€
▁Belle
▁manageable
▁Advis
想办法
▁opponent
销
笋
^-
收取
ooo
ftime
▁fare
NING
▁Ready
道路
▁maps
可再生能源
ado
不限
医药
nWhat
othy
面临着
▁brokerage
▁emit
nWed
传染病
▁enables
json
anchez
▁Nixon
still
xd
本着
▁Serbia
多功能
▁Arctic
nRelated
pun
万科
▁newer
▁Fle
可能的
▁applicants
▁vampires
▁disagree
izes
承诺书
季后赛
书画
▁solar
▁Unified
▁PE
請
织
唐山
▁psychology
▁tore
▁invited
▁charter
不仅仅
▁Sandra
奶茶
▁properties
}{(\\
▁Gomez
▁casc
▁platinum
▁helicopters
▁Suddenly
▁invisible
磨损
较量
▁walked
▁indications
nEducation
▁рай
给你们
▁turt
脚本
▁mining
用人单位
▁rebel
▁specially
nthey
▁中国
快速
非物质
油画
远了
▁notifications
▁forbidden
duty
sic
▁HH
Azure
▁tracing
意识形态
bre
▁overt
▁shadow
▁Cruise
court
▁freely
自愿
▁wonders
Af
的动力
兑换
nWood
停
onda
neighbor
▁environments
再说
纯粹
▁injected
listing
承接
全都
的交流
nOtherwise
纺织
drew
ierre
nthis
▁gluten
▁trek
▁mostly
▁Avenue
<0xE7>
假期
▁Just
▁Melissa
▁apparently
boldmath
训
ified
货
pat
▁Delivery
YA
▁dead
▁Zar
▁shar
吃药
▁fraudulent
▁GH
▁irrit
chain
▁prose
海报
▁swipe
祷告
▁);\
双方的
yrs
Tables
=>
▁popcorn
fine
ocaly
创
)--(
▁logging
周末
▁Ronald
合的
▁KL
▁Hiro
ASP
悄
ustomed
▁cured
▁Atl
▁exacerb
懂的
########
值得一提
说得
本判决生效
▁index
沙
聪明
anie
associated
▁His
}}^
▁IF
nir
政委
perhaps
tap
▁gently
凶
RF
BLIC
'])
▁Given
heading
▁flyer
仅仅
BU
factory
{"
▁Mat
放大
倒
nvalue
架上
Sequence
\\\\\\\\
sell
▁presents
炒
▁pillow
<!--
blob
▁brutal
一线城市
nmet
基层
弟子
\\\
的学校
password
的存在
学习的
▁nephew
▁dent
рал
的三
▁Json
▁PhD
athi
forces
▁expl
▁(/
▁Tales
CF
▁prevalence
nTra
emp
objective
engine
垂直
▁nineteenth
▁temp
▁hon
▁hers
▁nice
▁Freud
▁occas
Dele
daq
骂
aders
aning
Need
▁Jesus
度
核桃
接着
一道
▁Dow
}&=
歷
称号
may
isdom
▁longevity
杰
多多
金价
浩特
▁dollars
好自己的
▁comprise
▁desperately
EventHandler
idential
arters
扫码
棉
▁accomplishment
▁ext
出货
▁CI
湿
▁nitrogen
Soft
▁Woods
抵抗力
o
eger
▁myriad
▁WordPress
▁Lit
▁GUI
▁Kumar
▁cuz
quest
▁domin
如
GER
顺利完成
批准
Du
金融危机
▁LOL
▁extension
▁gene
▁mov
扰
nnew
失眠
▁snippets
')\\
▁linux
若
Picker
議員
垢
lessly
xxxxxxxx
▁idol
相应的
躺
clear
worked
并处罚金
▁unleashed
▁corporation
っ
▁sacrificing
奏
iob
我们将
头的
▁Ches
▁comp
iro
肘
形成
Word
健脾
▁angular
ible
IND
rele
nDescription
raced
感染的
Hence
▁Mississippi
和文化
▁replacement
▁ю
women
▁timescale
培
不已
宝玉
going
啦
inging
经历的
▁Match
▁considerable
▁touched
Smith
tself
▁galactic
▁$\\|\\
人们对
道教
普遍
лан
nphase
Ign
▁intensity
皇后
▁gadget
连胜
▁century
用人
▁indisp
▁pissed
▁abandoned
▁mini
街头
utm
不求
▁diabetic
nAmong
解析
selection
oulder
navailable
stud
▁Systems
道
嘿
ITCH
enter
屏
aaa
Reddit
▁Serve
浴
Arr
LC
<0xDA>
ormal
enh
▁pros
Chris
过的
MON
▁Mist
▁sexual
▁finances
和大家
▁Leafs
▁Ana
一遍
服务的
▁Louise
lie
后又
▁Forest
深厚
风扇
idth
▁concaten
▁bom
▁merchand
nClearly
多元化
itute
的处理
耕耘
nSam
考核
▁Lucas
cou
▁Levy
应当依照
残酷
ystem
chart
*{\\
▁shy
<0xB9>
▁paw
独特
友善
<0x6B>
▁kept
john
在当时
病理
reprene
growing
pattern
植入
PK
或者其他
．
~~
▁GOP
kas
▁mud
我现在
▁forefront
特别是
熟练
最近的
▁groom
▁literature
▁Sci
▁entries
▁이
hent
▁cooperate
▁brunch
chan
进一步
▁Feb
▁acknowledged
边境
▁Om
Compact
▁correspond
海军
▁fearful
爸妈
每年的
紙
(\"%
____
vx
ering
▁learn
▁containing
中发现
erville
ye
▁enhancement
iced
▁tanks
器的
会议上
购置
向本院递交上诉状
顯示
总局
▁twisted
ICATION
beb
同样是
泥
urg
了呢
▁alleges
Give
刷
Е
大火
tcp
▁bowls
决策部署
Activity
▁bottled
Enabled
タ
cfg
ulin
▁unfinished
▁torch
VER
hadoop
asion
▁halt
▁Korea
砺
enny
折磨
MzIy
nCreat
▁cables
魔术
atching
▁Liberals
▁politely
返乡
ONT
ici
这也
iron
unky
тира
吃起来
▁clinics
}/\\
自然资源
▁Indonesia
irms
▁sunset
样本
▁Warm
听
颇有
ahawks
和要求
序
恐惧
▁October
▁guess
▁NZ
▁FULL
歉
▁padding
▁sensitive
▁association
annah
Imm
are
ктор
幼儿园
自我的
现金流
▁guideline
olds
露
贼
产业
▁catalogue
▁college
▁mountain
ioni
胸怀
促
生活中的
数字货币
自闭
▁installer
▁ecology
▁approximate
▁metaphor
▁tile
脆弱
assoc
ributors
画卷
Arc
▁Braves
▁surgeons
Fig
▁cortex
月饼
供应商
生產
VG
转弯
▁Windsor
铝
▁Round
订立
▁floating
▁False
▁registry
ime
▁rede
夫妻感情
▁refusing
P
譽
nTex
饭后
▁divorced
ifer
索引
▁rhetoric
▁books
▁Positive
classes
дия
扔
▁drastic
和无
为主
assium
▁Lud
磋
徒刑
▁nesting
▁produce
imensions
蕾
▁Planet
▁lumber
选举
iki
的心理
theorem
rather
熱
▁alleg
▁invasion
▁yummy
▁Vin
&#
▁Camb
proved
▁ineffective
citet
姿势
▁devi
准备好
▁PC
▁gluon
orney
村落
Fed
▁PURPOSE
▁partition
▁Brandon
什么事
煎
前景
cyl
war
lm
▁trigger
制品
lis
理解为
请你
驳回上诉
runs
▁engagement
рабо
取消
▁reacting
修建
高新
阿里巴巴
▁group
对付
nT
▁responsive
jin
店的
▁teas
▁venue
儒家
之势
tg
罪行
optim
-\"
谢
weekly
▁acquire
违规
▁bou
▁hp
哀
診
适用
▁seconds
风光
▁idiots
尼克
▁juice
Iss
▁seg
他所
rig
nNor
▁Colomb
白羊
季
▁buy
ores
▁savings
▁Branch
▁Sacram
▁considers
▁imminent
周恩
▁lines
创作
acre
htb
他們
基亚
圓
▁contin
随即
原因是
迎来了
▁more
▁vortex
)<
界限
scenes
两周
DH
▁discs
constraints
olog
▁rele
普通的
会比较
各种各样的
连接到
系
algo
▁$|\\
▁keV
吃完
crets
irmed
物业管理
Източници
迄今
▁cafes
▁crossover
斤
邊
栅
prehensive
Manager
database
ía
社区卫生
真挚
▁Rays
nThursday
展厅
NEW
▁though
<|unused142|>
的经验
▁Dw
ogram
rologer
foreign
▁heading
门
到医院
科长
▁lack
▁supporting
▁offensive
▁disaster
▁pitcher
▁Moon
▁conversations
▁&
▁Lim
契合
nOld
ency
▁cod
▁disjoint
园区
招聘
nSource
其中所述
量的
tour
<|unused054|>
FILE
▁Release
特別
INTER
Ren
▁Sz
在我看来
cels
非常大
▁BCS
进行检查
谨
有可能
nDepending
更高的
半个月
▁les
steps
▁recovers
hm
固化
▁primaries
排行
nTe
▁config
▁holy
ters
▁defeated
LICENSE
▁glam
征求意见
十七
追寻
Lett
burner
黨
sime
udge
▁ul
ieval
angel
▁authority
vidia
▁pitchers
建成后
玫
紧缺
厄
game
▁moist
andal
▁ignoring
是谁
кедо
rum
▁predictable
▁smoked
▁puzzles
增效
▁mos
▁Arms
产业结构
▁Fred
perm
nMet
▁predictive
麦克
体能
▁provocative
▁triangular
▁Revolutionary
▁torso
这也是
日本人
来往
前进
比我
venture
theless
卻
氧气
▁multinational
料理
<0x8E>
▁described
▁symmetry
成立
ENS
nQuick
▁woman
nom
客服
▁township
nStop
国防
承受
u
<|Human|>
组成部分
遭受
司令
INESS
nsupport
гия
▁fear
ighbor
可想
Top
Validation
support
客户
rimp
high
▁Elm
▁erad
▁measuring
网约车
軍
▁teac
堰
▁Chapman
▁legislation
顾
▁assertions
▁sch
▁genu
▁gaming
职业生涯
▁undergraduate
'^
伤心
▁lake
▁parse
▁raid
▁futures
▁involve
▁mis
开展
哪里
赶快
▁tonight
飾
▁component
▁coincidence
nCommun
滴
行业发展
金融机构
▁Lagrangian
▁bread
为什么要
autiful
有限的
▁peace
存在的
quist
hover
mach
ander
的危险
▁extracts
Agent
的服务
▁prep
纽约
▁ui
▁av
▁pitched
并对
▁eating
▁Cover
reg
press
ilated
DIS
了自己的
nSub
▁Huffington
▁consider
▁PPC
WT
▁Diane
▁intriguing
ODQ
品的
UTC
杭州市
acle
长城
▁idle
iast
itement
光荣
统
itter
储
▁Agriculture
▁Lib
▁adorable
▁loft
without
information
积极探索
▁OTHER
spark
▁shouldn
▁disappears
▁Delaware
固然
hardt
发热
nPosts
▁::
米的
灯火
▁Is
▁remot
play
▁chall
已经有
初中
▁Weber
送
雇
集团
ronic
▁cit
nStr
▁weakened
Server
▁deprecated
▁neutral
kj
((
日正式
作
nInst
▁Edition
家人的
▁За
▁realised
六月
▁golden
▁satisfaction
▁Raspberry
负面影响
▁slight
algebras
比亚迪
揣
秆
street
▁Know
公务
责任感
asha
▁dubious
妃
#[
唐
▁Dolphins
▁Oxford
static
HT
ether
▁S
虐待
▁Clint
三国
建议大家
千里
新建
见面
ibility
▁foul
nMore
道的
Love
男
▁dryer
bx
▁solving
van
花样
输入端
'''
▁decoding
▁hops
选择的
▁rotations
▁manual
▁Spot
▁depos
)-(
▁Brighton
V
愛
Ã
没事
▁IDs
oir
AC
这就
▁haz
▁surviv
ety
etric
壓
ealous
processed
▁намира
▁sequ
lections
不得
寻求
▁aboard
▁orphan
nWashington
稿
fest
ión
▁excellent
▁walker
纸质
▁charcoal
inois
▁Free
▁motorcycle
▁/
靠着
liness
▁navigating
Return
▁scout
▁entrepreneurial
▁immature
<0xC2>
食材
CLUD
梦中
深度融合
▁uh
tables
▁freel
▁quietly
Bool
▁freezer
▁bullshit
舒
uthors
▁pricey
布拉
▁famed
issippi
isely
ral
▁Formula
在外面
chemical
如何在
▁cfg
危害
▁bron
vie
▁objectives
▁Bacon
▁Brendan
▁hyp
▁deeply
影響
最佳
▁partitioning
RX
电路
▁suggest
也许
émon
▁ambassador
▁renting
调度
▁surface
▁Jagu
坦然
▁crew
介绍了
多半
三方
▁Blogger
認為
és
海外
▁pian
▁imperfect
作出的
▁journalism
▁destroys
无疑是
▁Regulations
推动
出台
umped
roud
▁safer
包装
终端
人和
▁cb
<0x2E>
ternal
predict
▁Employees
筋
ß
而下
就容易
▁PHP
▁Within
▁Silk
揉
▁seemed
paragraph
站的
DataFrame
MEM
<|unused026|>
▁intric
▁mas
▁partially
””
▁libert
列出
ACTION
当前的
出生
师兄
school
资料显示
nr
ASS
▁sentenced
人力资源
▁commodities
▁Libraries
有三
▁lamp
佈
uran
▁firearm
设有
chers
▁investigators
▁Ticket
名利
▁Both
stringify
了很多
▁hadrons
▁pedestrian
ular
▁characteristics
▁harvested
▁coaches
olis
Binding
>(\"
▁premise
纵观
rien
儘
igen
西哥
▁когато
▁clauses
вява
▁antibiotic
▁locks
ern
▁Brooklyn
цион
▁LIKE
▁featuring
▁Convention
▁aeros
▁Tes
二胎
装载
▁grate
通车
所带来的
年年
建军
▁couldn
ETS
▁Classic
歌曲
▁covet
也
版
forall
批评
cast
▁rally
JECT
性
▁mysteries
把手
PT
▁marvel
购物
ържа
StackTrace
▁cascade
进去
▁POL
▁runway
▁Horse
▁quadratic
滔
搏
▁Triangle
▁such
рите
商业模式
)));\
<0x84>
omi
三层
况且
▁sun
▁hold
▁Park
▁petrol
Fox
▁wa
@@
▁Diet
病例
马斯
万平方米
非常好的
▁unlocked
Ms
ght
老党员
itched
▁CC
▁chees
itance
Pop
è
yl
向本院
交往
▁undergone
剔
幸福感
▁delivering
ublisher
iances
races
研究员
anti
▁Desert
▁generations
vec
nPoint
研究表明
antasy
闫
ко
▁EC
▁deviation
▁outbreak
crit
FUN
Heart
只在
水流
上进
integral
publish
▁shares
案发
reedom
▁comprehensive
chem
pline
▁cooked
NON
霸气
宪
▁Pix
▁merch
miss
召唤
nFast
▁inner
then
▁exhibit
不受
▁cement
inski
金额为
将该
危险
摧毁
患儿
npres
radius
urities
▁unit
ngoing
▁dys
▁deposited
完
▁squared
▁Interesting
流向
十五条
▁recreational
ESCO
ction
▁interest
▁recommendations
usted
Overview
▁sedu
树叶
package
▁Putin
teacher
ор
asures
▁pra
在北京
orgetown
▁aged
▁exercises
中国人民银行
支付
▁spark
定时
牙齿
На
lene
▁weekly
vious
颜色的
队在
▁confusion
找了
第三方
)|\\
▁design
男人的
天天
差点
轰炸
▁stirred
▁BB
▁affine
HER
▁Mant
增持
闪光
强制性
详细了解
mble
▁hears
障碍
大数据
匈
AR
額
难以
orted
华东
我们有
本报
slider
养老服务
$/
anol
斜
▁dz
兰
▁thin
不知不觉
▁Gather
ensuremath
}}}}
多点
▁randomized
▁Plenty
▁Keep
spectrum
芒果
折射
月球
今后
▁replen
nG
▁pushes
急
完好
ivered
▁overview
nad
授课
正视
要把
▁Fisher
address
▁(=
▁firmware
也好
content
删除
ulatory
word
▁Unit
清扫
▁stranded
付
▁modeled
blr
指定
nhow
▁openness
支柱
重建
lap
nduring
nTo
ipp
iny
Posted
因地制宜
fony
ometers
并不代表
inton
发声
ours
film
▁excer
Hook
衍
▁article
▁qualitative
上级
点燃
▁paying
usalem
nUpon
Constraints
升学
字的
皆
启示
落地
atory
也不用
▁predecessors
vered
童年
体检
IS
投稿
▁Bowie
oretical
▁insert
▁dedication
|{\\
▁след
inject
▁generalize
我以为
kr
该剧
▁Mol
oro
isor
nsmall
nFeatures
▁refinement
▁portion
▁hose
相爱
▁masculine
raints
▁educator
<0x33>
队伍
goo
gay
▁greenhouse
▁witch
▁Gardens
▁phases
bout
▁EST
cept
DE
▁sensible
的成功
▁Teen
At
▁MVP
upon
Back
norgan
▁remem
padding
县人民法院
敬老
%%%%%%%%%%%%%%%%
'=>$
NR
▁Rob
urry
call
▁perc
geq
▁clips
们都
眉
每个月
<0xB8>
вите
empt
orrow
▁meV
▁Groups
igan
▁are
PLI
▁touring
papers
▁stumbled
及周边
我没
▁economies
一天的
▁Caval
zilla
▁stomach
tha
mall
dense
同学的
每
▁boil
▁ind
摄像
气氛
icators
Object
股
▁Depression
ions
的时候
蕴含
望去
▁Villa
▁endured
▁preventive
cross
茅
cient
fitted
但这
▁engineers
▁grammar
▁g
inding
▁dish
<0xF0>
wife
▁landmark
粮食
atics
nSocial
itching
▁flavors
组织部
best
变更
还需
你們
ypical
▁Doors
▁dial
nOverall
▁rejects
▁sign
▁Alfred
▁attr
▁reconcile
模式的
▁part
estial
▁Rent
就是在
Kit
秉
提起
▁longe
▁tragedy
▁bow
▁Repair
▁ninet
电网
Map
Offset
税率
▁expressive
oll
uniform
nHas
▁destroyed
▁Singapore
跟随
武装
的爱情
aki
▁citations
男方
▁revised
▁integration
uncan
▁Petersburg
;<
甲醛
▁peaceful
▁strat
gow
良心
水管
▁synt
液化
▁sweater
chr
▁laptop
▁Training
▁lyrics
有了
日在
类似于
▁Regional
模特
▁circle
▁DUI
▁Sit
前述
▁pdf
▁LD
家的
港澳
NDU
魯
▁frequent
最美
▁Clear
拼多多
wers
▁Chaos
参加
可是
婦
keras
NN
isset
要从
结合起来
]^{\\
▁rod
there
无论
狠
▁scient
▁SAM
「
NjU
nMessage
:///
微博上
ductor
Train
▁Pu
同时也是
取了
没有了
▁qualifications
nElect
▁waterfront
BC
粤
▁retain
所以在
▁propri
Bigr
▁commentary
iscovery
▁sour
级别的
教育
▁ridge
nHave
▁CV
▁Dining
ni
保留
icides
单价
▁holog
param
不是说
illery
是其
懂事
SERVER
▁debate
▁Editor
▁cave
▁KIND
▁Outdoor
▁Bake
认为是
nStephen
坞
司机
▁[\\
▁Est
▁Origin
着头
icking
流域
▁profession
▁smiled
aca
咖
launch
▁degeneracy
诊疗
▁subt
▁subscribers
pard
也就是
NBA
produ
的标准
tlog
▁Bened
ano
理想
mos
▁EE
▁свър
anch
商务
<|unused001|>
▁documented
哪个
的自然
**(
▁discretion
™
▁lawyers
▁ordered
empty
多云
▁grabs
▁Lady
▁Кар
▁Hip
onents
▁FI
church
▁inducing
road
events
aughter
▁capsules
Stream
地方的
六十
▁Polish
触发
Sql
po
▁Crystal
pper
brace
为目标
holds
小雨
▁whopping
发挥了
qi
从业
utes
nSup
▁signs
▁q
渍
▁innovation
▁presumed
▁baryon
蛋白
无缘
ronting
吴某
▁Greg
将是
总值
赚
▁nurt
一定程度上
同时在
胜利
▁Character
phone
▁tails
={\\
吳
本案中
初次
arter
ignore
備
的美好
名
怀
▁constitutional
第一时间
▁Ideal
▁symbols
纪律
▁Pressure
訓練
dv
clock
氛
▁UN
刮
acebook
▁entitled
getId
▁postings
nwww
国民
▁platforms
{\
▁HashMap
ASK
cke
————————
▁scint
BBC
橡
▁Justice
会出现
三点
Hg
氯
身上
▁Edd
tout
send
▁ord
▁Gates
ural
名气
ura
plants
{%\
▁което
居家
癌
▁diets
这么多年
▁progressively
▁raise
}|
▁grandmother
nwithout
▁meters
nst
椅子
审查
asia
给人
Graphics
齐心协力
▁referendum
▁losers
复活
水稻
nFeatured
停下
tabular
青春期
根本上
nm
玩法
스
▁Arm
uary
▁hairst
▁Microsoft
дно
▁evenings
▁electrical
iota
UC
ICK
▁boobs
▁Four
的联系
▁vision
简要
药的
nSome
政务服务
MT
▁borne
專家
▁graph
▁пред
贩
sided
▁wings
▁politics
购买的
放心
чва
▁rel
方案
的应用
▁hazardous
awi
otor
主板
风力
吼
▁ment
▁likewise
nLive
▁dangerous
但也
一心
elve
物质
exico
ognitive
▁ideal
▁Help
automatic
õ
万吨
更大的
▁collapsed
sts
ubble
对你的
▁stole
▁Lan
时报
nmany
飙升
GM
deep
▁excitement
的治疗
衰竭
â
惊艳
▁village
用
consuming
▁THEY
▁namespace
onom
▁背景技术
▁discouraged
ehicles
havior
Ang
发起
▁red
icates
章程
找一个
缓缓
Brown
摩
渔
roid
oring
通胀
ż
气势
ospital
▁legalization
下一步
<|unused081|>
▁Cardiff
▁King
▁Call
▁syrup
acted
▁Tel
随身
▁hate
atrix
▁Blvd
nun
洛
<0xBC>
▁hotel
nOn
人民医院
詹姆斯
KM
▁Head
▁Teach
▁receipt
▁cure
▁respectful
安市
Wow
还会有
▁Ultimate
▁estimate
larg
江
书房
一个个
nSc
▁cube
▁discounted
▁specializing
骄
layout
▁▁▁▁▁▁▁▁▁▁▁▁▁▁
听证
▁TIM
▁prohibition
▁chance
▁fet
▁curb
▁Mitch
oil
▁fifteen
mapping
AG
▁Shift
ivalent
的内
服用
他自己
塞尔
▁dispute
▁break
▁bore
▁sculptures
Extension
破碎
ependence
嘛
▁thermostat
▁bis
▁admit
相助
一樣
密封
何必
榴
cox
▁congrat
呀
▁Vu
▁Tibet
▁Muslims
smallskip
download
▁ethn
▁Newport
uo
▁troop
quantum
▁bang
造纸
一款
捆
长期以来
虐
如下
▁earning
▁warmer
来临
▁youth
DES
▁Minkowski
誤
▁task
▁buddy
▁crate
万达
▁Giants
ceedings
▁Hardware
▁submitting
ttry
▁saving
uish
ikipedia
面包
appiness
bounded
元钱
▁please
盛
微笑
▁disappoint
commands
ността
EB
▁reass
课堂教学
▁Values
too
heet
red
▁Bie
罕
交强险
amps
▁marching
Course
系列的
▁Care
fn
)</
幕
▁Yanke
▁Caucas
▁IRA
▁Pb
nex
▁Charl
equilibrium
(__
othesis
decay
▁top
協助
饮食
</img>
kee
▁homot
▁repairing
预测
▁aims
▁Archae
▁type
gic
cul
▁consideration
▁waved
属于自己的
出现了
▁user
expected
Up
至上
Local
智慧
▁Token
oves
My
第一位
ncomput
晶
只会
ng
▁Austria
nYour
安装有
▁Jesse
拎
▁joints
▁conducts
胺
薇
lock
Mobile
akin
训练
▁Labs
alp
▁watch
ун
▁They
像个
▁新
▁professionally
FK
▁quality
irc
信誉
代表
Series
▁communicated
▁flames
▁Detective
▁county
新鲜的
了对
Print
第二款
▁careful
amon
▁counts
akis
▁Thailand
Margin
▁skies
▁unint
Ut
Phi
范围内
电子
▁Bing
枸
尽全力
无线
然
▁Holmes
Sym
北宋
▁Soon
▁pan
ragma
resp
▁Paul
Handler
nered
▁Bay
▁delays
les
▁delivers
▁consumer
る
党课
真切
▁du
▁ya
▁conjugate
▁fights
▁depicts
錯
嫁
恪
▁notations
oser
▁assembly
后人
▁Dat
`
迟迟
▁alive
▁pencil
凭什么
QM
的新型
renched
戶
))
▁граф
http
\\
▁quantitative
▁redundancy
更重要的是
的老师
▁hadn
凑
charge
余名
工作岗位
好像
<img/>
<0xCC>
subseteq
<|unused060|>
邀请了
电脑
▁ammon
毫升
▁soldier
▁Polar
▁tiles
<0x08>
份额
布尔
▁requests
威力
▁shooting
▁tutorials
typically
重症
GO
▁optimizing
▁[$
▁castle
好消息
bows
车企
占据
No
=['
▁Claus
дер
bies
育儿
▁Thor
水瓶座
>>
▁tok
政策
▁obtains
test
▁Soft
类的
abul
allel
loom
Plot
▁worldwide
妮
▁BP
四
▁replied
ichlet
趁着
▁януари
cele
▁exploiting
ratic
▁Gh
▁Michelle
▁flaws
mag
火花
已在
积分
panies
转账
oslav
▁neg
▁Queens
之规定
ivity
▁Rates
Project
<|reserved004|>
▁brighter
ndefined
化了
▁Honor
▁още
▁prove
Rot
在人
腌制
影院
最难
hole
结构和
^*(\\
▁first
反而
▁favor
▁裁
mathrm
▁Aub
subsec
兄弟
▁coronary
▁cond
nLarge
▁submissions
威尔
▁offending
村里
▁Officers
sem
▁democracy
景象
冲刺
赃
投资的
▁children
Auto
Camera
▁surreal
mort
出战
nCare
钾
nFor
▁mine
Del
▁vehicle
歇
▁recording
appropri
▁escapes
sb
Rem
Timestamp
个
会有
Emb
▁maximizing
▁fleeing
rors
case
UA
▁disposable
гата
<|unused022|>
原材料
▁ratt
'_
▁Ellen
吉
duction
的最
節
做好了
两千
Unfortunately
▁universe
square
▁formidable
▁sufficiently
▁applaud
汽车
报送
gall
▁Highlights
夏令
SP
▁engra
sudo
dynamic
}~\\
hetics
容易被
▁pix
房源
▁coalition
老子
▁fractions
疾控
物体
nEX
Oh
▁penis
▁domination
nee
率和
主要负责人
$^\\
oes
▁shareholders
▁lingerie
体力
▁heir
才发现
兵团
社会保障
▁pillar
nAmerican
返
▁wireless
蝉
дри
▁learners
非要
▁amplifier
扬州
▁McM
售价
旗下的
▁Coleman
▁Guidelines
备课
lords
押金
越来越
保
▁develop
lift
ingers
深入了解
ffe
roots
▁ob
若干问题的解释
意識
stone
Connell
▁Girl
Newton
▁Arts
▁Shin
▁but
▁epit
Account
ublish
▁trim
▁oblig
死于
heets
ades
追
竿
▁explosive
▁deduced
▁df
Engine
▁composite
链条
td
管道
▁Keeping
▁fold
的主要
▁Ess
▁Cu
崖
▁strands
citep
越
▁outer
▁exploration
▁authentication
▁Cisco
▁homepage
▁endure
听完
义工
▁hang
似的
businessinsider
上山
輕
▁gesture
▁lakh
边缘
▁Messiah
atisfied
▁Hav
▁Figs
▁Maybe
窒
▁flexible
▁Learn
顿时
▁lush
冷
▁enh
碘
}}}\\
▁filmed
将他
費
▁choosing
▁unnamed
▁Emp
▁Celt
nsame
党中央
▁confuse
全国
wood
接近
延续
义务教育
ennial
plus
▁paragraphs
▁Strategic
竣
路人
我們
▁exponents
大妈
reet
第八
nToday
一身
▁interpret
▁decoration
市場
▁renamed
missing
▁Bar
记者从
鱼
带头
▁newest
argo
▁relations
▁bon
语文
是最好的
▁credential
……\
▁aband
▁fre
放在
▁evaluations
服从
打的
猫咪
考察
leton
aut
▁DP
很多时候
▁Shopping
ndate
▁Dum
的患者
只得
正处于
养猪
anely
▁simultane
▁Traffic
主打
▁stub
人到
ного
MDU
▁temples
<0xFA>
第二个
镇长
开拓
加以
tration
时而
▁Although
▁Austrian
мор
燒
▁ballots
封装
▁Hurricane
女孩
▁incl
anical
pretrain
積
`:
▁transient
<>();\
менти
晚会
了一个
▁Kn
河西
样的
▁Chow
▁condemned
▁Eston
▁rails
▁suicide
最後
”“
▁nature
WM
▁Zimmer
▁Demo
踪
▁pages
▁Blo
塑造
▁mosquito
雄
npro
呵
群体的
以为
▁sells
▁deliberately
bigoplus
▁efficacy
旗舰
texttt
底盘
这场比赛
▁Collins
而这种
▁fundra
手持
frame
▁phot
Way
▁loved
悼
之际
arab
▁Oil
▁reaff
▁Ster
春晚
▁Had
▁trade
▁COL
hb
前任
▁beams
我不想
空气质量
▁JSON
▁flashes
冷的
▁FALSE
鸡蛋
两人的
▁consciously
▁Brom
劝
▁treats
促进了
ndescribed
ucking
IP
的感觉
再加上
▁handsome
▁BEL
妳
念念
到自己
努
结束了
复工复产
Renderer
▁energ
▁го
Phys
脏
arah
空间的
忙碌
▁dess
er
▁wounds
ween
关心
著名
▁acceleration
Fit
▁Lt
的风险
selling
一听
uffle
▁unrelated
matht
▁Cann
教育和
▁holid
ly
alter
四周
Install
htaking
▁пъ
▁medications
fitting
年的时间
^\
▁=>\
▁instructed
▁Bristol
▁Out
站立
nComb
东坡
bility
)~\\
▁hopeless
误区
难过
每逢
▁strain
老爸
年度
})/
畅
wi
祂
▁Corporation
undefined
楚
出局
▁recalled
▁SHOW
inky
▁gradu
▁burned
scaling
Digital
()\
本实用新型的
清净
neffective
essed
▁illegal
他不
辣椒
▁Always
較
▁Cow
▁fantasies
▁Turkish
每周
再到
▁Sm
ativity
▁copyrighted
贩卖
fraid
▁politician
ENGTH
<|unused003|>
}}=
▁mortar
▁clinical
stock
▁sy
▁infin
落后
这样的话
▁estimates
面对
吃的
▁boasts
nx
▁minded
]{@{}
Thus
▁TV
▁ii
Further
舞台上
▁consec
hp
内科
umerous
樱桃
精细化
没人
但是他
▁fut
anked
▁Od
dead
食用
}''
信托
otron
▁Films
廳
▁lenses
二季度
▁Yuk
ulated
▁veloc
ushima
Har
領導
莫名
▁puff
▁ax
▁ceiling
▁Lex
itates
照料
~$\\
▁taking
▁tells
groups
ksw
之乡
即时
▁circulation
▁belly
大师
相反
驴
Attr
▁salon
nView
▁utilities
▁toile
各单位
▁dispens
老干部
▁Pond
ncd
ouring
酵
▁Holy
小微
Bigl
avan
▁Jane
▁radiation
▁assigns
晋
”；
▁север
ския
▁Material
▁hy
Men
aries
▁\"<
MD
不应
方针
af
Sound
▁Eugene
<0xEF>
▁nation
▁heterogeneous
цата
▁axe
tin
吃什么
態
guns
▁losses
eenth
多样性
▁ро
玩
rading
▁Mag
wm
▁tests
▁screenshots
▁list
美食
▁saint
▁recur
丰
고
▁walking
▁practice
fileName
到
HashMap
▁supplied
各方
▁colleague
▁diseases
中
nPublished
α
hammad
朋友们
▁req
▁attraction
▁sadness
▁repent
nUnited
зар
▁disorder
▁sap
院
が
改革
▁immedi
orget
热水器
▁Complex
形成一个
Martin
于是
和方法
组织和
▁б
在全球
从头
ancouver
三分
MI
ustralian
▁blinds
Mjk
▁Calvin
容积
成型
▁recommendation
▁д
▁sulfur
erman
撤销
隐瞒
▁treating
nUs
iforn
接种
他们将
▁National
赛事
认罪
▁promo
齊
|}{
lab
开车
覆盖
cw
▁interacts
oles
House
▁Swe
▁metaph
四年
薄弱
▁chains
大學
膀胱
maid
▁wording
vep
佼
白酒
'];\
Gaussian
▁prot
▁following
村民
orously
弓
cales
所谓
perties
commun
RW
▁Spons
在日常
require
vation
develop
▁Azure
Aw
运送
医疗
干涉
▁predefined
▁UPS
年均
一般都是
ë
Na
pack
想念
▁analyst
酒后
ás
有兴趣
杯
PCA
▁ACC
nneed
▁horizontally
▁numbered
▁replication
都是有
▁marine
▁MT
阴影
▁habits
nlight
告
上车
▁cash
▁MOS
反感
Que
these
▁PUR
▁initiation
ols
▁rebell
BEGIN
真的是
做题
here
▁babies
▁perceived
▁RNA
店
ISM
学了
闽
▁East
▁Ga
isation
▁Mari
Place
ito
▁Gordon
▁focus
▁Sunset
Executor
▁record
了我
所以我
anke
得到了
交警
か
message
nim
▁clicking
▁Elementary
▁dest
▁outlets
nKnow
石榴
▁coded
▁suggestions
▁suggests
VP
标语
▁entails
▁exploded
▁junction
就读
关键时刻
推出了
▁Rooms
▁pubs
媳
烏
點
污
lesh
ето
oz
see
▁preparations
▁alcoholic
衔接
▁Julia
彩虹
▁priors
▁cabin
nunder
▁accur
▁$(\\
▁MX
呜
自立
Float
Spec
惬
▁flood
▁този
▁cider
单调
▁treatments
市场主体
不良
▁damages
▁relates
dia
▁Commun
▁credits
通用领域
副主任
pact
腐败
查明
损伤
激动
是多么
Decimal
▁downloaded
原则上
▁opio
ο
<0x5D>
来自于
▁Wallace
求职
ferm
园
聖
乐队
法
}=(\\
紫
GG
Equal
提及
备受
▁Theresa
毋
▁plenty
就是个
▁minors
design
体制改革
▁sometimes
bear
nNEW
▁clock
斯顿
盏
人大代表
膨胀
▁Pocket
量
▁HERE
不出
主演的
essel
尴
eloc
▁leaves
函数
\"'
于心
<0xB3>
主任
nDef
脖
甚至
eria
orial
▁Roger
▁Autumn
我也不
房地产市场
allah
ources
compl
一味
成績
制定的
▁oscillation
▁Roche
▁husband
小龙
易于
▁з
ин
主义
▁directory
▁exhibits
▁Extreme
步行
我都
▁amenities
的用户
▁density
……”\
alli
武
流产
▁Theme
▁dile
▁sharp
▁overse
我们把
不是
rex
完成了
社会治理
轿
ients
▁Though
生存
▁Write
anted
▁vibration
COL
nwhich
▁Lisa
OTE
泡
PDATE
战略合作
atra
▁bosses
的政策
established
▁sentiments
▁decays
nCo
成为一名
▁Viol
▁VPN
▁predetermined
▁deception
Identity
▁Alexa
col
zer
(['
▁vin
▁spiders
▁Tiffany
会选择
pers
rel
grant
全线
ensities
▁VIII
something
▁vicinity
▁read
nAf
港口
▁Escape
▁redes
特性
atern
▁unhappy
刊登
Ж
raising
aughs
nSince
ctober
▁fixing
USPTO
▁Housing
direction
der
处理
Band
逃跑
▁Suites
草莓
▁Fear
▁Hansen
▁Mozilla
▁nephe
雷达
tWe
实名
uction
骨
▁commercial
代表的
db
▁chapters
和
隨
KO
▁mus
▁bit
▁Province
▁inclusion
禮
棒
档次
专项斗争
▁[-
nPress
lew
osing
feel
▁fascination
由中国
nLoad
中美
小朋友们
$(
atile
远处
都不敢
▁Hil
较为
有没有
▁settlement
▁Cory
兴
▁IG
focused
▁Whilst
▁Registration
省长
Optional
▁Porsche
▁minimally
闻名
▁intimacy
消耗
ane
每位
▁superficial
▁spare
<0xEA>
▁shared
От
簇
▁intrig
tos
pf
要想
之事
zel
默
▁Theatre
<0xBE>
ET
大多
вете
bn
phantom
amel
▁admits
装置的
](#
草坪
看了
nstrong
警示教育
▁canon
▁onwards
▁invalid
相信
是我国
LOAD
▁transcripts
矛
▁dermat
ritish
▁Talent
▁completion
▁proliferation
道路交通安全
進入
▁buf
翻
▁occurrence
海关
陈
)$\
▁achieves
终结
▁Martin
exual
bringing
mite
nCategories
网络的
翠
生了
学院的
协调
▁Trin
充分利用
DAT
替补
<0xBF>
的过程
▁Dollar
▁requirements
▁eth
切片
▁decree
Robert
▁outrageous
▁Topic
</tbody>
▁north
ا
▁questionnaire
占据了
帅
erial
战斗
▁一种
▁extraordinarily
贯
征求
atte
▁stra
廷
▁Pour
物料
リ
Far
綠
▁\");\
athan
nIll
▁Jump
}(
world
排队
妇联
淀
痞
animation
▁pc
年末
▁live
底座
近期
奶粉
extended
▁Katie
▁squares
村镇
ervice
▁cooks
这两天
▁Grant
nThose
won
GDP
▁Sheriff
▁Ferrari
▁Sr
网络上
▁dich
dic
察
［
社会实践
▁Te
辅导
▁your
是的
пъл
ushing
ean
▁organizing
实地
die
部分
四处
ve
hes
Sc
▁pri
Cho
紀
着眼
公开
很大
fe
芬兰
ществу
SON
擁有
▁swamp
ECTION
会上
缓刑
priced
<|unused112|>
▁oral
▁Thought
应用的
▁query
尽
osen
会让
rying
Date
▁fra
▁Competition
▁formulae
▁pepper
重组
筛
的去
▁gift
▁reaches
就好像
注
modules
buck
idad
▁cohesive
nGreg
ilibrium
换了
ledgments
prints
Inst
▁Fuck
岳
Bay
的视频
口的
overnment
ics
研究人员
▁sans
ronics
工作领导小组
因为它
▁Myanmar
▁resembling
▁cleansing
▁Derby
▁Volunteer
▁Youtube
▁cumbers
bob
科学院
煤
▁owing
▁mothers
▁bracelet
将对
endor
▁П
平静
washer
▁streamlined
▁advertise
宣传部
上也
粉色
wo
各班
ernand
ка
▁Pho
▁transition
船舶
可视
▁Grow
nImagine
总有
EM
垣
惰
▁evidence
长安
▁delta
community
▁contacts
日渐
▁clone
遍布
▁става
▁bench
▁India
▁traveler
呼唤
女子
▁yours
bes

aug
▁Few
呈
如愿
东路
▁unpack
说是
arse
ermanent
獻
手段
term
Fall
▁Emmy
qquad
惠州
▁stool
▁Parad
牙
▁messenger
隐患
owered
▁elongated
avax
毫无疑问
nPerson
一九
二十
▁Ful
稍
Pool
ndid
綜
▁retained
▁veterans
货物
目的地
▁Old
提炼
ulus
Alt
▁Joint
▁radial
▁unexpected
mails
▁creditors
▁leftovers
impl
最优
tered
▁joining
▁comm
▁vaccines
▁scalar
④
坐落
fm
酬
opened
赤
不过是
▁Increase
▁skills
oded
高血压
IFIED
▁esp
累积
aan
确定
Inv
绿的
创办
息
▁radiative
那麼
footnote
▁Visa
essions
壮族
危
nCompany
▁Tree
cl
▁adj
regon
▁flav
▁decorate
▁Pepper
Entries
▁Essays
ل
▁undergoing
▁Universities
第一条
леми
vertising
rast
衫
▁Volunt
▁Charlie
▁shake
achment
racell
▁staple
cell
▁fools
▁transferring
疯
一本书
团结
满分
市场规模
节前
▁голя
於
▁influenced
▁maximum
▁Ta
劳动者
▁TripAdvisor
▁Viv
▁Esp
民主
▁Veterans
有多少
▁sing
&=&\\
▁lunar
肯定会
▁attent
▁young
wered
热门
▁Па
▁detention
相识
打磨
idery
loc
▁Harold
▁lessen
umen
ranking
信息
▁Com
▁drainage
▁aforementioned
忘记了
安娜
欠条
向下
堅持
ammed
flash
意义的
电动车
宁县
▁rat
的危害
越是
航母
Lemma
▁pretty
路的
▁Teh
▁(“
▁Craw
reduc
▁ref
▁Mann
缓解
▁coloring
计生
---
客戶
开着
reciation
▁encourage
强国
▁overwhelmed
场馆
轮流
wn
任职
焙
ol
localhost
▁eas
▁anticipation
▁*
曾任
p
▁Dub
▁Invest
可持续
api
/-
你可以
▁pad
进程
cov
我们一起
▁purity
气场
馨
▁Your
内存
=|
reen
iri
华盛顿
anyahu
▁revise
▁recovery
想要
FM
uclidean
▁fright
▁Payne
清晰
nMus
牵头
heres
观音
▁албу
ката
agra
Qw
▁Taste
胃
落实
真心
▁ath
session
新
arus
STD
长期的
itively
▁Mormon
ordering
uty
▁appra
Mapping
▁term
▁Wild
▁Gear
兩個
Pa
▁guns
回去
amer
离开
重大
▁overlooking
沙滩
▁Provide
▁currents
標準
▁Power
leep
Author
▁Vincent
轩
lx
▁they
收敛
Hot
過去
лна
▁travels
病
▁commissioner
结婚了
▁tum
投入
Metric
▁decided
发生了
<|unused030|>
拉开
▁Kar
itutions
思念
▁documentation
nUsers
拿下
排查
深圳市
又称
antom
▁lock
lies
)/\\
新风
▁utilize
CHAR
INE
▁plausible
resource
mercially
现有
▁portfolios
▁Се
会很
抄袭
连通
▁belt
▁covers
这件事
▁Experiment
田间
東
▁pressure
нал
nUS
▁expert
nSha
利益
价位
▁Z
严厉
▁Dixon
时间
nsc
kHz
ger
小于
Njk
▁meant
醒来
甄
预算
▁notification
本草
迷信
▁revenues
受人
不只
▁до
▁sunshine
isers
})_{
▁highest
inj
▁rot
iology
▁Coffee
▁ware
▁upright
▁lect
▁和
心理咨询
▁fingerprint
两口
巅
Women
▁lb
虽然是
大选
无所谓
桂
▁phonon
▁Rangers
▁Armstrong
Finally
▁omega
获
▁Away
conditioned
▁philosophy
有能力
▁battery
▁inadequate
▁printers
排名第
情的
листи
▁According
盘
athing
几分
肉的
旨
Science
字符串
饰演的
▁gray
II
▁Holland
组成的
▁Jun
的事业
▁shaded
▁sequencing
nH
▁fails
она
地狱
；
希
的个人
预设
▁singers
CPU
大桥
万元
▁showed
静脉
残留
▁apology
acity
▁Rally
hg
ooks
effects
商场
琉
quer
▁rivals
ه
▁Ranch
▁prosper
nmass
Windows
▁sur
▁positive
▁UINT
马来西亚
▁drug
nBuild
endid
可见
肩膀
进食
▁pioneering
在最
一名
參與
着一
▁remarked
聘用
crack
▁pedal
▁frightening
gered
Failed
▁roughly
▁Canad
▁pointer
▁purchases
▁detract
长江
稣
back

udent
▁mirac
户外
▁OP
掌握
tri
▁Cr
▁Jackson
▁spokesman
▁sen
▁Eqs
乔治
求是
一月
▁peacefully
consciously
quee
党校
▁ejected
▁adopted
<|unused149|>
▁comparatively
实物
金融市场
▁immoral
回家
▁necklace
‚
▁RPM
忘
▁terrorists
▁oppos
▁prophets
▁unsupported
演
oston
WORK
做好
Fe
▁anthology
出不
▁We
职
应
▁Romance
▁precautions
過
Mpc
市场竞争
▁postp
visual
为本
▁Bowl
▁ample
▁Pop
增长了
▁melted
横向
▁Exper
科院
'(
▁hue
raw
是通过
跨越
▁NATO
▁Finder
麗
直言
安排
appy
▁Mand
▁embarrassment
▁scenarios
▁precisely
同情
▁accomplish
▁freshly
slash
▁Surv
悔
igm
专用
bu
折扣
造
ira
▁tad
Looking
▁well
▁Cathedral
▁Tut
▁misdem
▁certainty
▁Prom
就行
银行
體
重返
结束
UD
▁lawsuit
bedroom
申请书
slant
▁someday
圆
▁volatility
nAs
coma
▁travellers
tR
LES
▁internally
crum
▁fem
exact
数额
▁Stein
▁embarrassed
▁routine
▁charging
▁gentleman
pull
他已经
络
loader
▁enriched
▁amazing
▁Audit
一季度
▁Ox
▁patrons
avascript
/}
▁Azer
隧
enses
当下
ppling
soon
store
▁Literature
account
它是
▁scram
Spot
一对一
汉族
▁motive
yon
▁tendencies
▁река
一脚
▁Cas
aint
based
欢呼
bor
▁Residents
▁Hang
▁Apple
②
▁sid
▁barbec
▁posted
▁Sports
我当时
▁goals
关闭
▁hum
▁Location
▁Movies
▁pursuit
▁orig
Ng
▁hunt
▁orchestra
▁Statistical
$_{
▁Simply
生猪
▁knit
我局
NTI
nIT
▁mad
二十年
▁empowerment
▁photographers
光阴
之作
维奇
▁annot
通知书
▁columnist
CMS
▁heuristic
行人
▁nebula
то
鄭
机器
突发事件
▁wavelengths
Grant
▁intern
▁nucleon
▁movies
iche
해
▁worries
▁inaug
nAvailable
ção
electric
反转
傲
竞
<0xDC>
构成的
给出了
rish
▁controversy
▁voluntary
retch
▁oscillator
▁emphasized
犯了
▁obstruction
end
scriptions
Request
▁Kaw
新产品
▁residuals
TCP
▁M
rath
▁situ
隔
▁proposal
未来的
理财
Rest
display
必将
cheduled
▁presidential
行业
nSpring
▁dramatic
弱势
▁Early
KL
隐隐
▁consequence
▁Gil
▁RSS
▁crawling
']))
族的
▁CJ
▁waiver
续航
通俗
nprocess
会同
教科
用电
▁со
▁revive
▁Museum
^
▁knowing
每到
▁uncertainties
nwhat
proc
▁collaborating
▁Cheese
ipation
Star
▁Chain
螺旋
检疫
羽毛球
▁behalf
▁vital
▁Dogs
igned
公立
eas
大学
角度
▁caller
时机
typename
▁year
algia
片中
([]
)}-
秸
得住
▁starring
▁Extended
plic
他說
▁Mons
豐
formula
▁thickness
▁Watts
遮挡
摸
orption
▁argv
vskip
▁predomin
▁Meet
不平
<0x86>
asts
▁moms
▁compensated
ower
▁complement
▁Priest
▁thread
▁filmm
▁page
▁Reb
▁%}\
▁Faculty
房贷
shield
柳
▁types
bro
命名为
▁Bren
▁own
党组
正值
Z
▁Manufacturing
这只
▁об
othetical
图书
▁universal
▁skipped
essential
附加
旅行社
rage
▁\\(
Wall
买
舅
公益
能的
阶
▁weighing
一直在
bq
拷
▁lon
Are
=~
环境保护
className
ITLE
};
巴基斯坦
透露
自称
酰
馏
▁Sport
▁substit
ln
▁remnant
▁Foreign
overrightarrow
pal
阿根廷
▁Interv
认
溶
▁stain
nMean
при
cess
▁medicine
▁Volume
▁dumb
平台上
aspoon
▁mediated
▁Gel
黔
大会上
gres
戎
nEqu
downs
包含了
▁boring
nPhoto
▁hing
▁Appeals
Red
▁pals
道德
诡
今天是
订单
推开
端午节
corresponding
遭到
▁pair
類
属于
▁gle
一侧
打败
grade
ogn
▁cardiovascular
▁marriage
nTrans
▁Load
▁geek
icrosoft
▁Nob
行李
▁crushed
▁rehe
▁sworn
齿
四川
▁sloppy
視
▁авто
▁intro
一号
檬
ICA
READ
E
剥
Mo
精神和
util
▁marijuana
▁frontier
▁(@
舒服
下一代
▁detections
唯有
▁Wag
▁must
augh
我却
▁extr
用户
nKeep
▁litter
	
上前
staff
▁incorrectly
▁Leslie
urer
Tracker
胡萝卜
AreEqual
▁missions
窑
▁Qu
一枚
▁lean
最具
nAlternatively
▁lifted
衛
瞎
▁Paris
yx
▁vertices
晚年
法庭
▁dens
▁kink
▁somewhere
nSomething
競爭
▁rapid
倡议
▁Victor
▁Israeli
napp
骼
不予
▁teach
▁HT
▁vou
MjI
电容
ricket
動物
划
见了
▁Spart
▁junk
下令
驱
姆
<0x44>
▁послед
▁bab
▁interactive
nEn
还款
▁molecules
▁Modi
浸泡
▁airlines
ду
nlast
▁necess
隔离
▁abnormal
▁Kerr
▁Hag
葡萄糖
流转
▁View
东盟
amo
▁hopping
bb
▁issuing
对手
<0x19>
}]
▁Cambodia
▁invention
达人
我们的生活
这话
/\
警报
▁Indonesian
服
enzie
静静
▁Partners
inki
nder
▁WoW
Policy
▁toggle
igroup
岂
甲状
▁през
▁intake
})
▁approaching
呈现出
洁
铸造
▁NSW
▁recipro
敞
▁converter
hy
不确定性
▁crypt
▁Daniel
Reuters
▁fighters
brance
▁Arnold
当事
▁Schwar
▁maze
职务
外卖
nsudo
的所有
▁Duck
炼
▁parenting
":"<
▁upgrad
zzle
摩擦
力的
▁Enterprise
▁wob
永久
▁Search
就可
AB
builder
质量和
带队
henever
▁ent
▁fork
▁Ast
总计
hi
<0x05>
ashi
background
inel
accept
▁STAR
▁sequential
▁Second
钛
elements
▁chasing
▁)\\
創造
▁orient
▁Air
立方米
arity
▁Pv
▁Reporter
文体
盆
Focus
▁Pak
Cluster
nmoment
▁minor
edges
▁Expo
宿舍
▁nostalgia
chy
▁foil
研
▁awaken
nWorld
南市
stra
atinum
▁Accuracy
淄
▁will
clusions
nav
<|unused067|>
▁cough
▁Rockets
有机
▁vast
▁[[
ivation
代替
▁neighbors
inters
ain
▁professionalism
▁belongings
国王
武汉
▁smarter
创新创业
价值观
▁possesses
独一无
nBar
▁especially
▁swing
深入开展
拉克
▁thinks
教师
shirt
▁FUN
职责
换句话说
\\|_{\\
▁cheated
nmem
休息
Const
冲击
elocity
Obama
彤
▁marri
上来看
▁military
▁Rele
▁broadcasting
▁unite
▁Mets
▁formally
韭菜
▁Homes
Sh
Ко
▁arose
▁lifestyles
▁only
▁български
粗糙
▁way
haviour
nSH
▁unravel
▁electorate
nTom
虛
edit
▁transmissions
▁setting
▁Farms
дъл
规模的
工作上
nTry
ilings
吴
▁Nurs
▁IMF
▁Claim
▁surrogate
clair
▁cannot
onso
作品中
重任
nspace
酿
漱
▁locking
nmatrix
莫
远
nonymous
SY
哈登
祈祷
au
▁ethics
的信息
say
▁crucial
▁comput
舌头
▁定
▁imprison
▁Kyle
}[
exist
orts
що
总会
▁adrenaline
反
Rules
nRecommended
pite
兼具
购买了
侈
CPI
****
▁bizarre
▁Sonic
千万
▁singlet
波兰
出品
产后
ab
因为她
nbased
无愧
就把
▁battlefield
人性的
▁excerpts
treturn
}}(\\
这是个
▁без
▁Sat
▁Latino
horizontal
ranty
▁intentionally
教程
▁victory
肌肤
朝
":"
感觉
襄
热爱
▁halves
nwhile
她说
▁aff
hetically
无形
eyer
▁chefs
测评
ewater
来访
peated
▁occurrences
▁Planck
澳洲
▁assessed
歌声
ching
随意
千克
▁network
▁Participants
ract
▁codes
立马
pond
空心
oubt
rat
▁Champion
得的
在南
nDave
normalized
▁Theod
婚礼
nEven
▁Troy
辅
▁Nevertheless
眼中
▁stairs
截图
▁readable
中有
▁squat
料
morph
▁instrumental
公安部
子
▁fry
仪器
第二季
▁prohibited
Wang
▁perme
credit
▁Jason
瑞士
黑人
报销
泼
rib
▁case
HS
射
€
▁II
<|unused035|>
▁Pitt
的多
传说
交流
不得不
▁hast
▁Pokemon
jupyter
報告
访问
▁Eth
▁styling
▁spreads
ostream
Req
oura
▁posture
activ
almost
ionization
▁directs
▁edit
出一个
风水
回头看
孔
缉
被评为
▁sheep
tai
▁complex
癌症
▁Christopher
yers
▁bankruptcy
▁UFC
thro
穩
▁slowdown
名声
▁Sav
▁Pant
React
Solution
伟
▁Ont
垃圾
征
▁warehouse
sea
▁sail
▁brings
提拔
today
▁by
▁D
基督
reading
应用于
的感受
随
▁neighbours
依次
ples
▁discrim
alf
买了
rainian
>/
快捷
доб
是
葩
舜
▁notorious
▁Porter
▁plans
经典的
valid
▁Teresa
跟
抗
解释
血栓
▁publicly
ulations
lesssim
David
G
听了
про
logger
illions
▁unfor
尼奥
テ
▁Raymond
不再是
▁Ir
place
苯基
atorial
和张
hab
▁dimensionless
标识
▁intest
same
有这样
▁notion
师生的
September
车位
▁deployed
蝴
▁directions
nHis
▁mighty
▁ears
runner
笔者
▁computations
▁Wave
上岗
▁Hernandez
▁possessed
偏差
does
ignant
error
勇气
▁Input
一般在
Parameters
▁volunteering
▁annotation
心愿
ninst
Have
▁pot
iber
每一次
fficial
interpre
VO
▁thrill
各项
▁homage
rae
不知所
Fr
▁viable
共识
nGuest
服装
薦
名家
都用
越大
nresult
▁fruit
OX
route
▁vote
生生
比对
▁constitu
TEXT
▁thresh
看不
▁variations
验证
▁Reply
十一条
▁Pos
微软
期盼
▁Haz
▁Communities
种子
首先要
citealt
文物保护
▁uncover
▁due
▁shock
▁apples
▁Cold
麻木
▁cusp
乔
nVideo
高涨
嘉宾
Copy
免疫力
addy
yan
▁tam
keys
▁category
Jesus
▁Cry
nik
nCam
validator
lk
starcoder
▁housing
month
>>>>>>>>
何况
▁manic
Domain
紧迫
▁condoms
境
encing
mathscr
▁lightning
差的
▁:=
▁implying
passed
Cloud
simple
就像
▁▁▁▁▁▁▁▁▁▁▁▁▁
ouched
年轻人的
▁alumin
承办
zz
首页
立法
▁Email
▁Secretary
新疆
▁activate
▁decades
为确保
最大化
米饭
integer
▁Golf
quiet
Var
▁Charleston
fail
▁Madrid
ложе
mid
京
▁intimidating
▁wee
fac
▁Ice
废
verely
预告
調查
includ
eches
▁absor
▁Record
质量的
▁interfere
是她
独特的
bottom
法定代表人
▁Beck
心中的
陈代谢
▁记
秒钟
的原则
▁theorem
柴油
学前教育
▁Winnipeg
▁Lawrence
▁attracting
BACK
star
▁proving
▁furnishings
<|unused128|>
爆炸
▁musician
ster
▁Nearly
DD
敬畏
得起
щ
▁America
▁Boss
IDTH
脑血管
Disk
▁enterprises
▁Kub
usic
▁Naz
突变
arten
纵横
▁Begin
Found
existent
党组成员
INVALID
寫
eds
瞬
绝大多数
▁hurdles
▁autobi
潜在
лище
Final
UUID
▁--
毫不
▁Palest
▁cocaine
稀土
▁revisit
▁bundle
储备
这篇
held
▁evolve
▁medicines
ono
脫
uge
Om
acency
▁TI
▁president
▁constructed
纤维
▁MU
▁MTV
例子
导致了
▁Recently
nHello
nStudents
一大
comput
体积
茸
▁traits
<0x68>
▁Dragon
outside
興
ule
computer
▁prevention
nDe
当我们
птември
深受
▁announcing
Benz
ities
▁Walter
nGold
后在
▁anomalous
心
暂行
价格为
碳
的全部
量产
自己的
starter
永不
笑道
▁Prospect
▁likelihood
▁Accordingly
rotation
曲线
Functions
Body
false
irie
▁contests
Wild
enabled
▁Particularly
▁vibrations
为
▁incapable
极高
纯洁
未來
的路
▁participated
▁BO
为民
▁Leonard
▁Pandora
▁rates
▁CLASS
▁Thoughts
▁{<
融
icke
oha
focus
▁appre
bl
▁producers
▁crying
搬迁
jama
▁Entrepreneur
会谈
▁bru
▁ra
抢险
▁holders
▁Rodgers
)}_
▁cloud
改正
▁Comfort
处女座
fas
打法
▁Greek
блика
▁Facility
以确保
自古
博士学位
nGot
▁team
Made
▁soak
Lag
ans
▁anticip
▁intact
/_
▁observer
rets
▁Voice
学生的
▁Reserved
▁implant
▁olig
orthy
▁procure
nTest
▁striving
allic
Community
▁Wet
▁Welsh
向
▁Toyota
ter
▁magic
agus
是用
狐
ilight
▁bulge
更多信息
旋
ation
语言
▁expend
大专
uble
Dto
:
千
▁influ
董事长
标准化
End
tery
大會
▁Greens
▁staying
倒入
▁so
▁rules
补偿
的想法
▁aggregated
监理
战略性
▁sexy
调配
虚构
壞
什么的
▁throwing
华
▁Gan
American
want
▁shortcomings
被骗
[][
团圆
▁twins
的水
<0xD2>
ela
:%
蜜蜂
▁Friedman
凸
董事
nJuly
▁\"\
▁Ambassador
▁mixed
THER
▁sentences
oscope
anya
▁XI
盟友
河长
▁brands
省
活的
▁ate
▁pervasive
▁peripheral
ully
having
▁expense
明珠
何以
Merge
snap
▁murd
du
起诉
▁Anthony
▁cool
考慮
ja
endant
▁sequentially
)&=&\\
▁laboratory
对他们
▁Syl
▁theories
▁hitch
ampling
▁Function
▁Jewish
$_{\\
religious
\\\":\\\"
▁;)
▁synchronized
透
Dat
▁correctly
Air
▁analytical
男主
кономи
是无法
▁vine
derabad
▁Kuwait
中东
▁Jal
ipple
▁Passion
▁appeared
▁Vancouver
▁glob
CRIPTION
二维
▁CLI
Tr
ITH
▁assess
▁село
才有
▁Current
▁lands
sunami
俊
_{
▁Population
造成了
Canvas
maz
看出来
跑步
arli
erval
落的
积极开展
爱吃
▁Swan
▁underwater
▁Above
艺术的
萌芽
霸
▁practitioners
▁thro
▁eccentricity
▁stress
два
重庆
▁Up
rie
Po
进口
▁complicated
}^{\\
▁downhill
上演
以上
▁tendency
nIdent
▁stuck
▁Brooks
▁Eagles
▁installation
▁spell
Such
step
笑着
之王
dashboard
ны
};\
痘
▁kindness
]^{
▁LinkedIn
ayan
▁rall
orsche
减少了
终
水平的
nflu
▁falls
▁altered
led
ichi
燃料电池
巡航
▁Sect
EW
均匀
Conclusion
untu
▁economy
▁####
▁Gall
▁gamb
学生在
猎
iang
▁Android
▁cancelled
<0xC0>
▁Reporting
osition
▁least
同时
任何一个
▁logo
indle
Space
板的
argv
crecy
－
boolean
ske
▁macro
户籍
▁pain
▁Hein
▁Depending
▁Н
nQuestions
om
';
常
▁Listing
▁treasures
▁кръ
▁carbs
▁percol
▁dragons
▁salt
aser
腰部
▁Pent
▁trait
▁Sue
coe
Americ
督导
▁psych
丽的
▁law
itiveness
和时间
voc
коло
violent
建立了
全景
owers
疏忽
芳
▁ir
勺
纸
的重大
ript
▁Ideas
▁audit
▁perimeter
▁hur
Base
所需
价比
▁Guy
本次活动
Б
▁involved
校区
▁feasible
各行各
驾驶机动车
句
敢
ras
松
umblr
▁logs
Green
nInternet
有钱
<|unused127|>
MK
▁joint
现在的
guided
这是我
gre
▁SL
▁luxury
花瓣
伊拉克
JSON
下的
▁inde
▁interfer
他曾
的和
nUpdate
reaching
隱
罚
▁Tonight
未有
SL
的天空
▁facto
有其
一片
▁Snow
注意的是
不应该
▁enlightened
▁avail
爱情
eered
安检
▁concludes
warf
ulously
▁History
奖学金
ott
aturated
forcing
det
身體
nBorn
ned
LR
dc
▁succeeded
▁materials
erably
▁opposition
群的
趟
▁trailer
▁hope
担当
▁shortcut
这名
美女
▁pretending
▁masterpiece
helpers
得上
gging
LG
▁sir
▁与
crop
股票
有多大
▁founding
▁Cert
▁FIRST
悲剧
我自己
itu
▁Excel
▁theatre
▁alloc
▁emotional
osed
構
ximity
言之
ifact
上岸
尝
ropri
▁bushes
▁\\}
经本院
脾胃
确定了
▁Studies
▁variational
▁ра
▁exquisite
▁media
狗狗
Complete
▁functional
sterdam
３
▁Dell
▁villain
▁gives
▁cardio
▁Vol
债务
風
aturdays
将有
▁summers
dbcbb
烟
<0x18>
▁elevated
蒲
目前
ddd
nVol
▁icy
irable
▁Measure
▁claimed
as
▁relatively
ít
▁sandwiches
<0x9A>
▁officer
受理后
▁rebuilt
▁testimon
ickness
▁REG
kw
▁unlock
好不好
▁kil
爆料
▁deput
硫酸
▁GC
朋友圈
▁silver
发现问题
LAB
erialize
▁Warren
▁panic
总决赛
如期
midrule
Blocks
海淀
▁KB
▁asthma
▁examined
▁Turner
▁clan
的信号
身影
▁kills
普惠
▁proceeds
positive
伪造
Messages
综上
▁monitors
prime
处于
opathic
子女
nimportant
爱你
能否
就算
Chinese
thin
lier
事情的
瑕疵
▁necessity
▁onto
引擎
▁Lemon
佛
血液
DS
▁compress
答复
证据
过着
喂
Left
▁полу
nPrice
▁convert
亚马
$$\
worth
▁creamy
Prefix
▁authorization
wu
便可
寡
▁experiments
▁ally
速度
▁stealth
▁Canyon
▁Hawks
IVER
▁scared
▁impecc
湯
旅途
蓝天
icode
有种
实用新型内容
▁comforting
BOOL
▁Ger
计量
▁Gut
不曾
和支持
全长
fmt
收盘
分校
Create
无数
有益
▁dice
els
TX
insider
游记
vironments
strument
这笔
伤
▁speaking
澈
▁Pac
浑
▁modelling
匪
berries
▁spicy
动车
輔
▁resources
怕
racuse
消防安全
▁Tips
scope
商品房
▁a
股权转让
兑
噬
onder
ermany
▁mur
使我们
沼
第九
▁reputable
attributes
哪些
▁ammunition
繁殖
[{
▁ramp
ANS
▁whining
estions
вър
▁enlarge
▁hallway
期的
▁Prosec
imes
▁prescription
▁fly
Go
情怀
raged
搅拌
▁interviews
出一
搭档
Angle
痕
笑话
▁NEVER
ailand
nLocation
养老
▁Lock
 
▁rewarded
▁whales
odic
演绎
是不是
▁Pack
▁Arlington
▁Nov
多吃
KY
▁DIRECT
▁Dr
nJim
▁onion
住所地
博物馆
viewer
载体
▁HIV
▁MD
有期徒刑
▁Martha
urf
ariant
自杀
无意
▁Operations
ските
kl
▁pistol
上是
新西兰
▁Norton
▁Kingston
您可以
挡
一直到
▁artist
riters
▁accordance
嘟
▁BUT
高地
地带
萱
cool
去
ceptions
进攻
;\
咳
▁serv
提到
Group
oric
公务员
▁Liverpool
around
нти
▁knocked
▁Lily
Pin
劳动关系
▁conventions
室内
interface
中共中央
▁Victorian
不安
▁Rem
cdf
\\]
▁Comparison
酒精
$^{
dag
stract
▁seiz
護
百分之
人民
是可以
丹麦
▁Usually
以及在
Ro
以及
creasing
fix
cu
▁rushed
Signature
内的
事项
▁testing
FIG
▁prelim
tick
twhere
▁Awesome
▁heightened
受了
爽
▁together
报纸
Draw
▁Administrator
▁capturing
▁decidedly
专业的
等我
公诉
流行
testing
▁където
▁Katrina
牢记
▁invol
theme
财政部
orting
▁crim
不全
我们去
▁resize
nsystems
政法
获取
ielsen
for
▁assignment
<0x85>
市委
渠道
new
▁showcase
山河
▁dictator
▁happening
一个新的
gtk
▁regrets
焰
▁Dry
▁info
洱
▁tighter
▁sand
GEN
ACK
ANCE
_*$
▁detectable
▁perspectives
州的
全日
▁Acc
元左右
asons
▁warrants
▁vict
▁finally
的一声
▁Government
枕
zschild
▁reducing
有心
<li/>
▁Imp
老师在
▁referrals
NO
Night
▁Observatory
mrroot
▁Using
▁trolls
亟
▁Three
你就
铭记
▁indexing
网址
<0x79>
的问题
如果
▁padd
明白
▁Tennis
达不到
upta
uckily
裁
ulsa
ESS
nbool
(\"#
rk
▁influential
\\\"{
标杆
让其
▁diploma
怎能
mp
▁interaction
储蓄
▁faces
工伤
~\\
ric
三是
正当理由
▁Comm
Counter
▁fixtures
▁incarn
▁affected
数据库
TIME
▁comply
ството
▁right
完整性
框
Constants
▁acquaint
▁Abs
▁sel
nfollow
报告
珀
vard
EF
▁Account
卸
▁mental
▁generality
▁offenders
▁confirmed
▁DON
我们所
Dash
虑
coll
▁favourites
信息网
住院治疗
ago
▁dwarf
每天
UL
GN
ochem
nenergy
孔子
族自治
抚养
oxide
本性
▁CHAR
和国际
▁между
人气
▁nickel
▁silently
▁sharing
xr
urdy
ury
运
▁Males
ggles
爱心
拆除
也是一种
▁License
▁horny
sentence
遂
十余
试
:#
irate
▁exclus
mber
学会了
iders
\"><
党的二十大
白马
▁angle
过户
thood
▁tweaks
▁limiting
▁commitments
np
▁pregnancy
▁Lance
股份有限公司
arest
earth
点赞
nuse
十八
<|unused147|>
▁Lower
▁Designer
▁utf
▁invites
lessness
▁there
�
transition
见
▁historian
本期
▁acknowledge
asket
束
离子
的特点
Generator
pecified
的声音
摄入
Admin
pause
itsub
][\"
seen
▁Summary
不确定
OPE
USINESS
暮
▁athletic
▁Types
紫外线
已然
开水
ngeneral
属实
熔
不适
ossible
微
凰
即为
美术馆
災
▁Nvidia
▁classified
现今
nIt
appe
强调了
▁calming
孩
nequ
WEB
}^\\
▁nat
▁con
▁TOD
▁windshield
ships
园长
▁TC
▁cong
平庸
units
聞
existence
atherine
resizebox
皮的
▁cultivate
▁atheist
作出
的相关
适合自己的
▁Merc
▁prevents
Depend
更应该
ff
itation
惩罚
self
为群众办实事
科學
ril
▁sink
▁Testing
▁Details
▁deletion
▁courts
nTime
fox
▁taken
▁sick
▁sees
▁theme
Ptr
erated
ttd
ac
今晚
▁ke
推进
atest
赞同
infect
准时
▁capitalize
▁tame
▁stimulus
不忍
▁params
▁quint
izer
也是有
▁rational
oltzmann
是人
▁protests
开启
▁definition
ля
签署
dual
▁Romania
▁Season
LAST
bench
▁monotonically
▁selves
ographic
的真实
繁忙
▁piano
外界
温和
最小
▁Pharmaceutical
Wrap
成員
nSer
▁narrator
津贴
UTF
uracies
▁Practices
汀
iPad
•\
▁Respond
三个方面
nFil
ader
极
female
▁Gaming
活血
有这样的
妻
<0xE0>
▁Confeder
▁Loop
骗取
Platform
了许多
大衣
▁amended
HA
扩散
保温
▁spacing
在全
侦察
分流
为实现
北方
▁talked
pt
▁coffee
是国家
▁iTunes
ctory
便民
管线
oler
遥控
▁heated
耦
nette
Anim
卡的
busters
▁velocity
estic
CHA
ributed
▁blockchain
▁prophe
cars
▁tournament
名牌
blue
▁rep
nFollowing
ritis
asci
Filter
组合
Custom
cord
更何况
syn
文人
滥用
agnostics
禽
后续
gender
каза
▁Enforcement
brief
打底裤
<|unused090|>
盾
Phones
颂
各種
家公司
论坛
▁Bates
▁soaked
fbox
▁cycling
抗拒
吃亏
矫正
▁KK
nHost
使得
经理
狂
▁Mayor
▁promotion
无私奉献
▁bent
等领域
\")\
▁cub
</li>
nNorth
基督教
新增
▁manners
rance
的高度
nnamespace
安县
pare
li
▁Army
造就
▁Short
cdot
▁чрез
很好
▁fib
fax
▁mosque
Bur
涟
craft
igious
▁judgments
capital
▁Sloven
▁Nep
幼
▁catcher
▁sort
▁predicting
▁etern
▁Weather
▁nud
▁Circuit
ership
▁meas
▁mim
ishable
在她
慮
总统
▁intends
▁Nu
ciples
▁tablespoon
▁decreases
州市
▁lodge
违纪
和经济
▁against
+'
随后
▁Manual
宣传资料
sys
雾
很长时间
ndf
TY
▁Experts
+-
antastic
▁binding
▁settlers
绷
▁priest
▁assure
erals
▁happily
▁condensate
维亚
自定义
辜
▁trib
▁inherited
▁packed
连
眼镜
淨
▁Sweet
fps
情况的
mr
▁gust
明月
▁Garcia
▁rule
▁Angular
战线
▁Chicago
▁compensate
▁seat
figs
始皇
▁modest
Border
macro
▁earned
nPlay
▁California
▁Appro
eff
▁USC
▁proclaimed
▁packs
Own
ants
▁Yankees
入了
nUp
▁exile
很有
学的
的努力
▁ме
AML
今日
▁Neb
芙蓉
▁trust
几年前
▁burden
工業
▁sire
▁atheism
long
andidate
▁anyone
▁bin
法制
中对
υ
gettable
nTele
▁psychiatrist
临
▁exploits
ODI
overed
▁Former
glob
▁possess
且有
羡慕
▁desires
佛教
▁obs
na
▁trustworthy
虽然没有
兢
▁maximally
▁hook
▁protects
研究成果
▁giveaway
▁WARRANT
▁gameplay
吹
nBreak
▁Sau
明亮
而言
▁hire
断裂
▁title
▁justification
▁charged
▁Maker
къ
上方
▁insight
减弱
的单
不懈
▁scientist
夺得
▁turns
▁lyric
▁cri
當地
▁finale
nea
▁revenue
▁Sections
mega
ansen
<|reserved005|>
transaction
要用
`);\
乙方
▁expressions
▁fading
调解
▁който
▁transportation
▁mixer
提名
erb
但没有
大多是
▁booth
nUltimately
▁Sale
满足
▁Geographic
▁crank
数字经济
▁светов
▁uphold
深化
reverse
衣物
▁gener
有趣
的基础
▁SMT
OVED
豆
主题活动
gang
▁External
obic
▁Change
与人
nGen
公斤
activity
dispatch
▁wifi
▁RGB
绚
▁Johann
▁spherical
avin
药材
paced
在大
▁don
bis
rogate
▁HS
专业技术
▁gravit
nLooking
▁Econom
详细的
的网络
前瞻
▁phrases
MTQ
▁extremist
外交
related
▁raft
▁Coke
udget
▁voting
EG
和所述
DN
▁indie
called
▁ret
▁AE
▁под
幻想
爵士
▁eco
这种方式
ican
▁decorated
▁Cult
▁+
伴侣
▁merit
▁nylon
▁restrict
▁naive
▁inquire
▁start
▁blowing
Ext
uis
▁scissors
Ni
▁sedan
这部电影
锂电池
mate
保定
global
lost
▁patiently
▁Fa
isy
ntz
▁reps
餐厅
nBest
为单位
▁Civic
▁sent
<0x1B>
万里
▁Rs
盈利
评论
During
下课
不顺
偷
辑
ната
▁analys
两者
arlic
section
who
进而
▁daylight
nBre
Linked
▁Clar
iple
wan
▁shop
▁ups
执着
规章
raham
icants
然后就
播
舟
oulos
中等
nY
▁j
▁kidding
夷
▁constitutes
▁陈
挺好
itating
不禁
Office
▁rs
年全国
花开
分
▁angles
谈及
旁边
第一步
▁clarification
短板
ppl
▁Technical
LENGTH
不仅如此
夫
▁Deck
nEditor
$\\%
▁IPS
论证
ellar
Attributes
library
▁dependence
▁expecting
内饰
▁valence
殿
arts
出口
▁prediction
▁prohib
AA
老龄
▁compre
gi
oubtedly
▁neighborhoods
▁landscaping
▁mortality
nmagnetic
男士
其一
风的
vider
三板
是多少
拳头
▁kernel
▁complications
OB
▁slide
斌
▁Economic
typedef
}-
▁Certain
低位
▁histories
前段时间
▁muscle
▁dismant
▁metall
了一声
▁arg
▁Tour
观念
▁tablespoons
他
▁PROVID
batch
▁damage
▁methods
▁marsh
初心
跟上
inson
▁Medal
聚力
阳光
nAdvertisement
▁physiological
plectic
deg
▁projections
parquet
一波

nThree
ased
nBegin
▁greeted
weets
<|unused097|>
Canada
▁”
Github
randa
尿
烛
要先
▁justice
▁shade
▁LAN
很高
内有
akra
▁Shut
▁litigation
anton
nAw
outputs
▁fetish
▁covari
<|unused098|>
▁project
▁eu
靠近
风貌
▁implications
▁strongest
▁shortest
村的
▁investigate
呗
PORT
▁война
maps
▁Premier
池塘
得很
▁intox
与时
knowledge
etween
▁refractive
▁providers
Est
▁AC
<0x8C>
▁garbage
terrorism
<0xD8>
要在
业的
og
execute
split
NONE
<li>
▁fraction
posing
▁interacting
▁fle
vic
▁Well
ification
▁maintained
▁Ab
分析师
这件事情
财产安全
大盘
▁Improve
矿物质
侣
引起了
熟悉
▁reply
ě
▁\\}$
恋人
週
▁Pradesh
给予了
衣服
▁Winston
▁intr
important
SIM
arrow
zan
▁valley
▁LSTM
证据证明
▁leaf
uing
▁dinos
▁Prem
▁haha
Columns
rak
臺灣
轻松
fen
▁Lev
▁parish
棍
旋转
ername
现身
向着
▁Nort
nRest
藻
然大
汝
破坏
▁http
控制
▁Ian
▁doubts
Nz
▁kidney
ie
的支持
<h1/>
▁registering
▁affair
擬
▁слу
資產
aporation
nparameter
報導
plets
¬
挂钩
▁Histor
▁plunge
▁affection
licates
北市
▁intermittent
▁boundaries
▁facilitate
蒸汽
▁migration
wic
这句
▁получава
▁gourmet
▁Income
班会
▁nationwide
vet
▁fucking
}^{-\\
▁vertically
捣
▁grocery
▁mist
▁peek
脉冲
所要
源头
▁Healthcare
▁specifies
pared
保罗
iance
nDespite
右
nvalues
▁Comics
同胞
▁ring
▁census
出资
▁axes
了解一下
▁ISBN
迷人
地看着
信
优秀
undle
fb
▁му
▁Unless
水务
▁omit
司法鉴定
▁blog
xz
▁sq
盘的
巍
▁Shaw
chool
nTHE
▁WW
nYesterday
arry
公益活动
perate
▁Uni
▁attracted
曝
<|unused091|>
aints
▁seen
)^\\
▁suppression
▁Pul
总觉得
elia
▁stressed
治
光照
iences
▁paradigm
每天都
SET
▁telescope
回想
早晨
病人
strip
▁habitats
甜
▁departure
而对于
▁cl
▁encouraged
我省
Donnell
运会
终极
Method
nKey
▁supers
▁gays
党政
製造
elihood
ricanes
▁apparatus
台的
渡
rivacy
比特
▁stars
粥
依据
Shared
医疗费
▁apartments
ã
▁doctor
title
avy
’’
▁Ment
巴巴
esus
桌上
了我的
ographs
▁Gandhi
▁tightening
引进
▁snacks
短短
▁dysfunction
百家
calar
▁emer
icity
當
▁terms
▁▁▁▁▁▁▁▁▁▁▁
是否
药业
▁discontinued
腑
装置
张家
▁acquiring
▁win
旁的
few
说道
修剪
▁refin
越高
pool
▁o
xp
新区
Services
的問題
логи
我用
▁proverb
▁coming
бург
▁difficult
xm
ncould
运势
comfort
是国内
旁
活力
沿线
Html
▁dataset
▁mouse
▁cannab
▁stations
▁тях
▁panel
我爱
▁GPUs
▁expressing
的主人
▁embodiment
matter
超声
planes
▁Tier
卓
INK
起來
▁paraly
准则
典礼
特朗
经开
荣誉
wrapper
nSubscribe
▁discarded
acy
from
()))\
▁mol
▁Dunn
▁Space
▁keyboard
福建
▁mall
ildren
之类的
▁configurations
▁--\
▁persist
esome
▁proportions
▁saying
Ро
流畅
restricted
张贴
励
诸如
▁said
▁mapping
binom
规划建设
为首
太少
**（
预售
▁econom
二十四
莹
领袖
大有
是一部
维
枢
▁get
锡
▁wel
pid
莎
列入
▁Fitness
麼
使用的
▁muscles
邮
grey
熙
▁horiz
▁Consider
▁economist
矛盾纠纷
EU
台词
镇政府
全会
▁pub
▁originate
好好的
utting
attribute
導
时节
周转
正面
nect
▁contenders
两种
诸葛亮
▁determin
▁astron
风暴
点滴
efe
▁Gr
▁representations
▁cherished
ritional
房屋
车子
▁background
家居
如果说
кар
▁filename
▁cancer
▁docker
▁XX
▁computes
法律援助
▁analytically
▁fam
犹如
▁parent
▁default
▁survey
▁Bruno
\"}\
▁celebrating
▁securities
nAnal
纷
肺癌
シ
▁И
▁Catal
关门
Fore
▁在
nFinding
▁above
od
boundary
但是如果
▁specialized
▁Thu
▁McD
那段
$}\
▁Qual
这位
▁undert
▁funded
▁Coach
▁regul
习惯
▁BBC
▁ignition
将军
nUpdated
▁anti
恶劣
lor
接纳
▁illumination
▁encryption
ariat
刺
Experimental
Sen
conclusion
丁
打架
Nzk
驱逐
FN
比較
uart
mates
句话
▁Chair
▁violation
▁photometry
▁visuals
▁procedure
下周
ninformation
定量
集
早期的
睫
家门口
▁numerous
upstream
很强
usty
這種
▁bake
▁Spurs
没多久
uya
harm
氧化物
▁overcome
aligned
Cart
▁climax
▁wearing
▁dispatch
釜
pH
周一
人類
▁therapist
禁令
释
亩
管理的
回到了
<0xB5>
价格上涨
▁susp
共和国
Processor
/"
小姐姐
让人们
nVery
吵架
和李
р
润滑
cred
▁textbook
▁refurb
▁adapter
▁bronze
首相
converted
BUG
▁Hispanic
plementation
屋顶
这对于
▁complaining
等等
▁prefers
▁Market
花椒
奉
▁wives
role
WISE
▁(\\
metal
人民检察院
▁Reagan
▁mats
▁traged
▁cows
▁Va
▁Psy
‘
emetery
▁delightful
▁Fish
▁liquids
antic
法师
▁resign
nOpen
Num
▁Stick
▁fertilizer
强度
ecess
Apple
摔
国家和
weight
感染
lined
▁Ultra
]/
状态的
▁В
▁hardware
▁specify
立刻
▁mortal
扣
obj
大众
trend
调研组
你还
▁Thanks
▁fellow
基础设施
师资
watch
мат
Queue
屯
nCl
拼命
▁diffe
▁empowered
▁Lat
▁soft
国有
▁Lup
nGrant
核酸
▁corrections
罕见
更多
強調
▁enhancements
▁rejected
和他的
م
nthesis
▁vitamin
▁Buddy
▁eligibility
▁NF
▁employers
▁enable
作为一名
的一些
isors
▁Clare
agu
的中
rome
negative
MX
说明
商城
angan
▁systems
▁_
ims
dr
ologist
kok
明媚
Secret
vid
这是一个
'}$
就会有
▁boss
１
架
▁Georg
副作用
GF
▁processor
▁Either
馈
后天
▁priorit
知乎
uid
ANT
鏡
ub
阿里
庭审中
aple
uite
▁targets
光伏
▁Simpson
▁without
▁scratch
ＸＸ
▁&=&
赞赏功能
心想
sound
▁imagining
▁encomp
▁Additional
抵达
沿途
给我们
Shell
没过
▁Pros
▁wax
Exp
▁»\
一的
bucks
▁$[\\
nspect
▁resource
▁Nevada
▁church
我的心
facing
▁related
▁preliminary
城区
не
▁Fermi
墙
牵挂
▁ethical
宠物
fields
▁multivariate
市场监管局
olyn
游泳
nusername
vt
rought
▁Rec
▁surrounding
驾驶人
▁guitars
▁craftsm
狼
▁Warriors
助
▁recommend
▁innov
▁corrid
<0xA0>
ama
高价
外贸
▁Evolution
变形
ream
五官
我们可以
▁uneven
чка
部队
▁Shock
ę
型
卤
寅
▁mum
▁хи
本院不予
暑期
▁gather
彼此
入侵
{}\
▁Grim
之星
vit
routine
蚂蚁
▁Kobe
走
百分点
access
тив
▁def
动静
][]{
▁rms
▁pou
▁Bag
▁finishes
穿透
▁Veg
▁Dragons
forth
▁meet
和不
▁Со
cn
replace
▁Orth
=\"_
haps
Mapper
统筹
▁Nicholas
iolet
$\\{
内置
振奋
transform
▁Qaeda
××××
蝎
十月
委员会
強
要以
boss
▁purchase
▁tree
low
收费
nIN
stown
@{}}
看病
#####
录制
冶
▁keywords
嘲笑
梢
án
▁Executive
▁benign
多么
审批
<0xA5>
iquette
▁gard
products
消失了
认真学习
▁Property
<0x72>
}`
tpublic
浦东
pic
▁feminist
▁urges
ophy
ymptotic
广阔
Wednesday
年中
人的
如下图
▁publishers
|_
记
ba
▁Clean
外套
▁daddy
дова
▁troubleshooting
▁remainder
newline
医疗器械
▁congestion
ndeterm
魄
}_\\
莅临
▁apologies
inary
▁supreme
reviews
侥
记忆
社会保险
▁granite
warm
Host
踝
▁Audio
移送
rika
而对
聂
▁downright

▁Fine
▁retrieval
▁confront
azed
▁//
秘书长
nCost
fam
▁symptoms
agger
▁happened
▁gradients
洗澡
▁frig
日均
▁DEBUG
▁Whis
chnical
▁pudd
nBelow
rolog
群里
现行
▁hadronic
▁AFP
▁readout
unsafe
▁срещу
八个
▁Deep
RAW
▁vag
Statement
人是
众多的
/*
▁Browser
压
出席
▁stereotypes
▁empire
▁entertaining
实际情况
四位
clips
▁adjust
政治站位
▁short
▁je
▁steal
dff
其实就是
里有
▁Dick
逛街
▁jo
▁Cancer
▁resumes
▁bos
但他们
曰
冕
▁Tech
放过
棉花
М
Small
Ray
▁perks
没有一个
▁gy
▁dist
▁Allison
“‘
安全感
government
▁Crypt
▁Ez
eled
▁\"
能量
▁timber
uilt
('/
▁told
▁Rolling
▁relativistic
▁'
nFire
}{*}{\\
入户
房东
aphor
▁held
孩子在
满
Kind
▁wholes
电视剧
▁somebody
小吃
的整体
zbollah
▁compatibility
负责人
▁torsion
澡
起身
▁shooters
▁sound
▁longitudinal
神仙
gage
▁distinguish
nFriday
什么东西
内向
斯的
篮球
啤
▁Gard
▁marvelous
烂
▁numer
▁Camp
敌人
▁hairs
wrong
点火
<0x97>
ват
ntheir
牟
umeric
ocracy
▁domestic
后者
jury
堡
准备
<0x3D>
理念
ressing
<|unused048|>
inars
()
一件
▁monitor
)&
plugin
下游
▁гру
着
▁advis
▁pitches
nhand
ulance
▁torture
LEVEL
▁indicator
▁triggers
mutation
▁point
fts
▁Especially
draulic
经贸
▁ag
患上
梧
▁submit
丢了
▁Red
▁Merry
鹰
▁arrow
▁sensing
▁октомври
▁TEXT
分局
将被
▁manifold
▁motiv
一旦
▁Ages
▁fug
▁Di
▁d
▁Trad
中国人
▁listings
markdown
掉的
抑
▁Георги
▁Carol
夕
optical
lit
九龙
了解到
▁Richards
▁Al
▁Bert
不了
▁PDFs
▁piracy
▁REL
▁Ло
ablish
▁ts
放到
▁overtime
刚才
▁euros
▁tally
PREFIX
▁cycl
▁对
▁Leading
财物
tile
▁Syracuse
▁goof
▁linear
学会
▁uniforms
机动
▁pump
▁virt
▁Rather
▁each
的高
cycle
ourable
▁stat
vi
▁skilled
▁shocked
觉得很
nSorry
node
▁Compare
nIng
筹码
▁pestic
▁Somalia
▁'\"
劃
xt
▁illustrate
▁Fraser
Ш
识
▁champions
▁displaying
ood
vb
mmet
这片
奥运会
工程项目
秉持
民间
\\_
体系建设
斯克
回报
conj
▁radically
▁continue
是人类
选秀
vey
▁requires
▁accumulation
uxe
▁When
一如既往
组织实施
▁Manhattan
tik
▁immediately
▁sword
exception
▁Christine
减少
parison
▁reflects
atars
os
们在
Nzc
\"<
沿
租赁
崔
▁reside
门窗
偷偷
也有
就成了
ayne
ISTR
▁averaging
▁contempl
骨折
MAP
ractical
fluid
▁Neut
)|
▁GS
▁Latin
▁irritation
nRated
▁asses
▁arts
其余
不過
为自己
▁Productions
`)\
linewidth
=\"@
matic
影片
▁identities
▁Turn
▁appliances
▁Peak
▁stocking
riz
nWho
错过
兒
▁anime
▁fused
▁nem
▁allegedly
再把
<0x53>
roll
▁tsunami
▁scra
▁residential
▁FREE
ingham
▁increased
}<
地在
▁Even
Environment
ッ
▁monsters
那个人
▁Tag
▁GTX
而
肉
▁hacked
▁contrary
低保
▁credibility
氨酸
%%%%
▁his
ypes
宋
民政
▁о
nsatisf
estry
▁dread
jiang
采样
ymph
▁Economics
▁Adding
▁armed
▁chalk
球迷
fragment
▁Keller
应力
valuation
▁Rib
垄断
父親
▁responsibility
精细
Transform
▁gripping
▁Mine
▁Asset
▁dat
▁reflection
▁Gaza
ruent
▁places
WORD
▁dependency
设在
nsum
shaped
▁massively
抢
▁challeng
▁Himal
ipher
极易
饥
躯
▁hurts
超高
姻
缔
Mj
领军
eton
ught
ynamics
▁harbour
▁murdered
▁Overall
▁flies
SO
胡
ross
▁displ
媒体
伽
▁check
aturday
▁decisive
力争
施行
▁вой
之下
izability
▁Nak
aved
▁worker
acious
▁Mae
发放
物质的
OTc
僚
▁institutions
beg
\\+\\_\\+
引发的
▁Ladies
▁placebo
▁SV
冠
汕
▁Ка
▁detained
)&=&
σ
ring
▁CP
计算
▁wellness
卓越
牌
▁houses
▁evolved
借贷
▁fuse
自尊
起源
▁До
的趋势
conut
在我
期待
债权
▁cleared
錄
▁attractions
硬化
▁toured
▁mk
涯
Added
选取
阔
▁sorts
▁real
▁conclusion
▁cooperation
margin
▁robbery
▁signal
)=\
高龄
Children
就开始
▁interests
▁reimb
▁outlaw
idences
▁suburban
▁Mickey
轰
安抚
пе
的城市
▁използва
owner
十六
ergarten
▁CIA
▁gem
▁Gren
▁advantageous
一一
Builder
▁Wolver
专利
aptop
听话
▁deterior
bsites
pron
▁lot
▁Visual
▁Powers
aments
тру
量子
作为
慈善
<0x3B>
平等
[]{
▁Bench
leveland
▁Farmer
嘴唇
primary
▁miles
▁ft
▁dar
▁frameworks
▁poles
▁combustion
▁Hug
argon
▁fibers
://
▁invest
default
Low
mult
tabl
优
▁container
Buy
fp
▁dairy
▁Hon
▁comparisons
▁Import
▁–\
加分
唐代
▁blaze
表面的
▁Time
▁listen
▁decom
being
▁embarrass
泉水
▁Safari
地区
▁poultry
бор
哲
orientation
▁Dreams
是大
▁Newman
描写
nEdit
高位
lake
▁Gust
▁rejuven
▁infamous
▁northeast
▁NOR
▁embeddings
邑
▁veteran
▁Medicine
害人
▁Palin
▁tri
▁bookmark
▁transistor
▁Lowe
▁referee
▁programmer
途中
wr
向外
▁instrument
▁Gay
di
说实话
iani
itting
病历
名词
▁utilizes
ALL
Chat
▁със
▁english
nDevelop
▁Phys
▁didn
<0x9B>
manifold
openh
他也
▁poster
resent
isode
раз
和小
▁interrupt
▁ос
配上
ureth
bara
▁WHERE
白宫
▁buses
精通
rangle
▁relay
▁cryptocurrency
准备了
公积
사
fav
ice
hk
▁Platform
大王
▁българ
证监会
asive
▁peaked
verbose
nMen
鹏
扒
遗嘱
mie
觉醒
Array
Think
▁licenses
nMember
就在
▁yards
陪同
网友们
冷水
▁Ар
▁Instead
bands
▁lonely
hism
▁fulfilling
ifax
浴室
▁GR
▁Manchester
lc
好评
▁flipping
▁Vietnamese
▁Vick
▁prostitution
Met
▁tractor
racle
inspace
nf
开工建设
▁plaint
▁ballot
ArrayList
年是
证明原告
英勇
П
▁resist
▁estimation
▁Brotherhood
地向
▁\"${
unted
▁Ging
的女孩
мира
▁signaling
魔法
胜
主演
▁heavy
▁summarized
▁Adult
nhim
<0xCB>
带来
ell
提醒
爱上
此刻
▁behaviors
ength
上
▁steep
▁sticking
单词
▁theaters
▁Constitutional
人民法院
晚饭
▁approached
illo
款项
▁experimentally
休假
稀释
就该
绳
▁filesystem
toprule
▁phenomenal
icism
EEP
▁Industrial
Virtual
风
ission
▁tale
▁paste
ѝ
▁describe
找个
理性
饺子
▁|=
ме
地说
▁Nets
泛
的平台
▁humanity
▁reactor
护栏
缪
▁sport
▁discovering
知识和
▁Cross
tadd
more
▁Mob
Title
▁exhibiting
ises
berry
Framework
▁firewall
из
▁chemistry
进一步加强
Func
▁пр
)\\;
即
▁response
nnumber
鹤
crete
▁Kra
н
▁guitarist
ird
Vector
▁След
传言
▁camping
参与到
▁TEST
▁Govern
nPay
phonon
{(\\
温
loss
▁engaging
▁Sta
持股
ско
allas
意大利
anne
相机
▁LL
IEEE
▁Enable
準
draw
▁delivery
▁tissues
你所
精湛
号的
▁awards
nform
starts
express
}}+\\
▁obsess
▁Woman
▁Satellite
进入到
万多
医保
Property
豆瓣
▁behold
▁Ivy
饲料
{[
)+(
calc
優
▁chilled
ussia
坷
ighty
▁shutter
混
▁Info
主管
arming
欧美
▁complete
▁place
Program
bil
缤
一切都是
▁neuron
Data
▁assim
亿的
▁Communication
▁:-
▁uk
那位
▁plight
<0x39>
ido
起来了
谊
upper
▁bl
▁roof
▁notebooks
https
气候
}=
▁Fav
iva
nIndeed
▁nano
联
深夜
Privacy
环绕
走向
供给侧
黑夜
帮你
优秀的
上图
▁DDR
美白
等信息
heit
▁Promise
▁Broadway
)|^
▁judge
uerto
▁projector
▁normalized
nother
▁mint
▁linking
ew
价格的
리
▁ultra
▁desktop
stuff
▁Sc
用工
比如
Ubuntu
▁workaround
扰乱
apped
城市
能看到
'=
vepfs
▁shelter
EL
信息公开
▁Drama
▁conditional
不合
▁plate
亲朋
博会
称赞
势必
▁astroph
▁digestion
י
▁Pres
饮
▁tribe
▁killer
ogenic
resh
周四
奋斗
角度来看
agh
▁mistakes
指数
▁appearing
降解
对方的
剂的
▁speed
借助
乞
umb
▁Isa
anel
限于
虽然说
FG
ensure
的外观
▁minimizes
▁seats
▁Rad
▁simpler
内涵
在被
▁Elite
▁ghost
足迹
▁你
▁branded
在那
▁Magic
参与
端口
TRA
▁Hartford
▁django
二被告
United
necess
▁ranging
zza
这里
▁monthly
▁Straight
henomen
▁speculate
走近
Position
经济学
▁Kay
▁conclud
IES
▁lame
urance
▁budgets
axter
▁correlated
▁Jeff
▁suffer
▁Task
USE
高峰
Stack
abases
主义者
人脸
公共场所
妍
可惜
牵引
阳台
<|unused013|>
▁proportional
▁'-
业
iot
▁Lew
▁Egg
并向
年第
车载
▁harbor
Animation
▁Pentagon
▁tele
化解
ncom
理事
(
▁optional
讨论
DP
人与
绯
LEX
著
年仅
▁fisher
▁virtual
arial
所说
Ev
▁practicing
▁immun
▁meds
▁Africans
innerHTML
工程
▁surpassed
▁inertial
电缆
powers
第一百
▁Ref
▁ranch
南瓜
别人
较大的
aft
▁Merr
нове
▁copied
后的
ourses
致的
▁inherently
jee
▁Cub
▁spons
▁Baby
▁tourist
▁Cam
▁rainfall
▁recipes
▁BJP
<0x69>
有时间
▁enum
▁Welcome
精致
▁nearly
棱
海绵
▁jailed
weixin
只需要
在其
crafted
HTTP
▁batter
▁Moore
▁theore
ълга
cover
▁susceptibility
hthal
▁vec
▁Granted
潜水
只是在
orean
选
ramework
unday
▁metallic
这将
teness
▁swim
▁vill
▁stripes
缅甸
辩论
水源
▁lawn
▁consent
▁pleaded
当地的
▁Louis
卦
▁sweat
pets
▁haird
leaf
hydrate
了大
checkbox
▁empower
▁spl
民进
冉
▁sweeping
车内
胖子
hetti
撤
▁proposes
伪装
▁reach
壮大
ToString
胰岛素
璀
▁darkest
names
▁Impact
▁monol
aware
拓
▁enrich
▁skull
▁dance
出血
ucker
▁launches
▁hunters
▁dissolved
甘
送上
▁keep
▁completed
交谈
▁investment
▁chord
摆放
▁consequently
▁Fore
▁arranged
assin
找回
烫
▁Birthday
metric
伸
喵
餘
▁encoder
pmatrix
UAL
▁defended
告诉她
人心
odinger
▁Sax
▁Pan
收购
▁compromising
▁SED
ocrat
▁Timber
yam
nInformation
ncirc
▁afterward
的基础上
▁constituents
部长
▁CPU
▁founded
ci
流通
▁dod
actor
▁ju
▁different
▁continuum
Fragment
station
安全
受伤
感觉到
Graph
▁Simple
贫困户
买的
Hub
基础上
formed
幅
▁yielding
nLess
▁environmental
在这个
ian
▁Ba
通過
setcounter
▁lipstick
是为
▁pist
▁desp
^+$
精品
Groups
▁LSU
▁Speedway
Tip
▁rese
除
奥
▁Tours
hbar
▁theor
爪
坦克
▁enjo
▁天
~~~\
▁Pittsburgh
Scope
’)
热火
肿
诺
本人
▁symb
▁very
▁Find
OG
▁warn
▁propagator
Since
▁confidence
overset
racting
▁dancers
品德
pots
▁MERCHANTABILITY
颖
▁bait
长发
碟
▁sodium
夺
▁Fame
wegian
条例
whe
journal
看他
众人
愤
nlow
鉴定意见
最早的
读
▁spot
▁listens
nWASHINGTON
▁superstar
▁engineer
eward
叙
▁trauma
▁hostel
▁flag
评为
▁Bruce
▁emphasis
merge
ombre
▁fairy
▁Discover
▁brains
感激
otomy
妈妈的
晏
▁hygiene
针
urop
▁contemplating
=&
npoint
▁suspend
岁月
是由于
RD
arrior
女儿
login
▁standings
中去
▁covenant
讲解了
▁Sets
▁Fargo
麓
▁elements
bourg
▁spirit
▁En
亮
斷
说的
ISE
平米
经过
uther
低下
▁iOS
imal
Ar
sein
▁renown
▁tapes
pha
抵抗
▁Khal
倡
PHP
▁$\\|
螺丝
头晕
)_{\\
▁paranoid
▁surve
▁selfish
hel
nJeff
▁Newsletter
fa
对象
区政府
goal
psych
边际
葡
见证
广西
▁formerly
▁fluorescent
新鲜
▁WARRANTIES
格栅
万个
▁going
зи
tm
▁Object
▁directing
▁чи
ONE
▁Contest
▁relating
激光
heast
每个人
ADD
ymes
▁scanned
ец
▁revealing
稳定性
基础设施建设
manual
utical
溶液
tre
能力和
▁strokes
▁ethanol
widehat
bay
▁grams
itsubishi
ancies
▁Larry
镇的
zh
▁legacy
优越
大规模
arcode
复查
衰退
中信
▁Cricket
運
)]{
▁climbing
▁propose
建模
杂
closing
余年
kel
rod
)^{-
apers
主机
▁threatened
nFri
▁directional
▁goddess
▁composing
蔓
肇
▁discrete
▁mund
~\
_{(
妥
保护
▁Steps
▁helicopter
班主任
▁Annie
对未来
▁reproductive
inus
▁Everything
北美
▁Vict
从小就
伊斯兰
起飞
untime
▁Bull
蜜
▁mig
comed
▁proced
地
Modified
ymoon
plane
▁evangel
▁ticket
▁dripping
得名
諸
的学生
▁cartoons
减肥
Prob
▁fission
烹饪
▁manifest
▁concentrations
nAre
nrec
▁flats
uration
▁discount
借
▁ner
▁esc
▁al
支架
修身
igation
淳
澳大利
▁conditioner
高高
▁snapshot
means
▁tomatoes
▁Fiction
淇
bbed
版本
教育教学
添加剂
cz
▁fool
▁fifth
大事
pick
nspec
geon
\":\
▁repay
非凡
恳
partition
烦恼
幫
Car
▁tires
▁bik
陕
▁Bella
剪纸
▁tra
▁stair
▁Edgar
的男人
▁haul
疫情的
comings
à
这三
▁breaking
▁down
▁illum
决心
王某
状态下
▁invariably
):\
logging
搓
▁associations
科技有限公司
▁Partner
映
argument
▁cocoa
▁virtue
要让
Lab
indent
萨斯
他在
深情
▁optimal
▁administr
INT
养殖
Bbb
视
对标
▁Automatic
\\&
cup
ridden
▁Warning
intern
▁knots
的一般
unity
USY
機會
detect
▁‘
▁baryons
▁shocks
Sync
舶
ifice
▁academics
nOh
物业服务
lington
wine
不用
nJohn
礼拜
达到
传输
再者
wide
憨
nNever
在中
instance
父亲的
than
不起来
丙
这篇文章
TON
ese
Sy
eking
支配
/(-
笑着说
但是对于
一家
我认为
yy
atoes
▁specified
nCent
穩定
<|reserved007|>
▁Mead
不合理
Id
▁receives
▁blamed
穴
ubernet
whel
无法
蚁
ighest
rencies
overlay
nProperty
WS
接地
▁Stamp
▁gardens
''$
SSM
extra
captions
Theorem
follow
狸
ufficient
▁Adm
天主
▁bil
发布公告
▁repair
▁rope
vue
semb
▁semant
▁Launch
加强与
意
杭
我们
ц
民国
顺便
▁Kos
[
▁annou
男的
blank
▁neighb
欢迎
销售额
宣传工作
化合物
лни
▁scoring
oral
▁vessels
伊
themes
nNet
▁coping
▁dom
▁Williams
sal
▁maximal
▁Han
▁Ap
▁uniqueness
Changes
▁degenerate
▁streets
ocy
▁cancellation
▁complaints
▁impe
nRoom
With
quel
莫斯科
口头
第五
▁Normal
▁inverted
▁recol
连连
辩护人
aught
▁home
cientists
also
gent
竞选
▁creat
<strong/>
▁makes
nAside
▁cylinders
▁po
侵权
derr
etry
临床
tM
凡
的外
夹
}$&
**
▁Written
▁actions
▁evident
independent
希望能
伟大的
灿烂
切割
北海
ла
请大家
格局
▁wat
▁concise
linger
抬
abis
郎
▁seam
三角
Full
前来
网的
Its
▁roast
行驶
成员国
▁multitude
品格
South
名誉
plements
]{\
ilde
我们来
▁e
▁COM
▁Agency
anth
▁rolled
▁shear
uces
性情
屬於
▁oversee
▁replacing
▁vanity
借款合同
他能
live
▁Touch
▁translate
▁illustrated
stant
这里的
emin
聋
▁craft
铺
▁jewel
▁interviewing
日本
▁allowing
DIGITS
确定性
criptions
一代
Eu
ednesday
规律
▁temple
ousel
渐渐
▁Select
过多的
▁Pre
▁smash
灶
给宝宝
▁Tampa
的光
antry
接收
▁solids
periodic
inx
▁surveyed
▁youngest
的人工
▁Blues
▁camps
松弛
纱
▁translations
▁elo
等情况
▁Steven
acey
博弈
民初
馒头
传感器
河南
国际
▁impressed
持有的
目标的
▁Architect
ollen
自查
▁MC
▁Arsenal
本田
side
nome
▁FTP
丰富多彩
考虑
▁Chance
amus
雇主
▁proxy
首家
▁transl
农村
▁LONG
▁stunt
▁IMO
▁insure
owitz
的家
▁Banks
颁发
ouses
▁invitations
▁Icon
▁relation
▁entreprene
inf
太极
NDk
▁okay
▁😉
主义的
▁Mug
▁garlic
价的
inology
▁affirm
tur
▁occurred
▁emperor
液
▁St
ilar
满怀
看了看
示例
郡
▁disappear
itutes
▁Truth
▁lib
▁MN
▁loops
▁Main
▁halo
纲
NF
期間
▁Austin
▁forests
紧接着
不一样的
<fim_prefix>
着他
▁Initialize
clamation
現場
甲基
▁Only
事情
▁Kel
berg
组成
▁German
▁strap
刷新
nLeave
轻重
▁grip
▁unpopular
我希望
价款
淋漓
▁wraps
nwill
▁Guess
▁enabling
▁Cour
healthy
ncomp
tat
▁accompanied
itorium
▁heels
):=
严重影响
勒
opath
ODU
▁Returns
民
▁businessman
连忙
Room
▁trials
HD
unn
▁satisfy
霉素
楼上
▁kitten
顺势
以
±
▁libraries
兴奋
材料的
Limit
grad
▁Floor
▁filament
▁Urban
phants
通孔
▁Titan
▁locate
動作
秦
茶
调查
df
脑袋
override
ahn
quad
▁radical
十一
▁batches
▁McL
rvert
▁MMA
▁opportun
cat
▁sacrific
魅力
nrequire
bullet
▁reproduced
▁scam
然后在
▁Arabs
longrightarrow
▁Chemical
nSummary
istics
By
績
是好
=}
汇总
▁CM
igr
在城市
适应
apolis
Try
▁benefited
该村
OR
岩
問題
分手
▁nowhere
▁beers
肖战
伞
▁Sus
表达
nDid
nYoung
宣称
▁boutique
言论
你不是
宽
uler
npublic
灰
administ
<|unused052|>
▁Marshall
▁forth
umbo
▁indent
USTOM
▁contradictory
▁grac
▁spat
▁Berkeley
眼里
▁modulus
教會
aurant
已经
▁Replace
教育厅
▁Mechan
Evaluation
▁researc
nRobert
▁Molly
两轮
nlong
而是
▁Effective
监
指责
▁impacted
雍
consin
laus
成熟
AU
抛
▁hostage
起初
MDc
▁partial
还得
▁Bo
经历
▁origin
▁alternatives
▁sty
下沉
」\
▁contrad
▁元
▁Les
Grad
rapped
adoop
▁essence
vae
aker
▁obtain
▁dive
setState
将会
Know
▁Stars
组装
尾
何处
▁demons
▁stimulate
eanor
fle
牵
工程建设
▁visually
▁skeleton
leader
正是因为
▁beaut
▁alphabet
ificial
▁ss
昂
信号的
▁gradual
▁microscopic
大楼
值的
exe
为群众
▁stating
▁Template
Failure
氯化
魚
▁é
▁Centre
▁arrested
AYS
月
nArm
▁engages
▁instance
▁Squad
▁packaging
▁Trinity
▁knitting
$}}
▁using
▁courtroom
▁Wouldn
▁}$
reads
女性的
▁Obamacare
全新的
nuts
▁sh
syntax
nObviously
▁cross
▁causing
白血
防止
Sl
nAge
噪声
mentioned
活动的
▁loos
草
▁broker
]{
▁jacket
▁terminate
▁Numbers
▁photography
较好的
NOW
心力
▁exhaust
▁ж
▁Heights
)`
▁pneum
箭
NET
扳
吏
ال
▁cropped
这样可以
▁Phill
▁спо
▁Obs
瑾
接到
▁plea
吟
▁dict
▁difficulties
▁wx
▁conven
▁Singh
你
嫣
▁squeezing
▁balancing
最多
▁mama
教练
不想
▁moisture
cr
acl
product
器具
消除
pq
SQ
▁
、
▁Doppler
▁redund
念
两端
]-
腥
警
▁culture
▁DRM
▁LE
nvari
很简单
enium
ME
ould
>$
▁endpoint
<|unused141|>
传出
umping
QR
还在
▁villages
中全会
atism
aml
▁apolog
的做法
nSimply
效力
▁Da
andid
事件
水分
男子
▁Assessment
cently
顾问
▁contributes
之类
钱
▁sinking
Single
闪
andard
辩称
▁puls
▁Wildlife
此项
▁assortment
▁electrically
nLogged
tdefault
突出的
<!DOCTYPE>
供货
▁developments
}}^{
▁Spect
▁Allied
nconditions
简洁
▁фи
▁foremost
▁–
urbs
adjust
lovakia
臺
▁ones
▁other
解说
的艺术
Segment
ownt
▁voice
asing
▁isolate
点亮
▁imped
uition
stdout
峻
的食物
\\%)
UU
epsilon
▁AIR
▁cease
ACH
▁lol
▁Priority
zzi
穿上
▁CNN
▁sting
▁set
▁Ward
符号
▁Prize
no
▁possibilities
好久
Bs
▁bucks
山县
不同
▁grin
Mer
Ke
过去
▁inherent
▁Bab
▁Cafe
▁require
nres
IK
▁expects
▁ut
快点
▁ICE
我去
▁outgoing
▁AUT
老人家
normal
Jack
▁distillation
acknow
暧昧
▁electronics
菇
Http
ACT
竞争力
ivor
(){
▁poly
▁DC
▁wandered
有效
▁Hz
▁bans
▁Waiting
▁cosmetic
▁lattices
济
炉
辜负
\":[\"
▁altogether
▁'_
评级
alan
▁името
人员的
▁danger
ethical
nwere
shift
宝宝的
▁unbounded
篷
声中
ocytes
▁sec
▁Spanish
▁size
立案
两手
花生
街上
':\
▁MEM
▁manually
kip
izards
▁Seoul
都非常
▁nick
phabet
风筝
子公司
▁months
▁rival
STR
▁shots
失调
流程
▁convictions
▁originated
▁invented
hare
深思
蔬
culture
▁reactive
▁Ol
▁Ways
_
▁anticipated
nhere
▁mesons
商
仲裁
posable
高的
▁ва
▁Mur
archar
▁Individual
▁Citiz
<issue_comment>
整理
unwrap
▁Zeal
不小的
outed
存
il
arcia
电梯
UF
ept
continue
nick
中的一
ructive
sparse
乏力
)\\\\\
Ю
检察
▁Webster
语
▁Plains
两位
▁Pine
nPost
席
nInternational
▁McC
曼联
▁contentious
落到
▁Belt
▁acting
ulative
channel
▁hitting
Did
工作任务
▁anthem
解釋
subfloat
▁$(
▁manuscripts
帝国
^-\\
不会再
▁Ma
随手
华南
沃
註
Ind
nMor
2
加強
▁surfaced
差不
▁league
▁Inst
founded
则是
号召
越来越高
reports
▁adverse
BT
对待
年间
▁Electronic
nVal
看法
扮
▁investor
▁hip
明星
班子
▁Aunt
为主要
▁Trial
▁philosophers
下去
焦点
谜
庞
push
案的
抽烟
▁juris
			
▁silence
大幅
我们也
day
▁прави
enguin
森林
▁Dale
厨房
▁~
鏈
VAL
router
▁github
================
``
孩子的
▁Cher
listed
ITIES
▁northern
▁homeland
▁reader
▁Blow
ula
▁efficiency
选项
▁Thread
tret
谢谢
▁commerce
|}\\
difference
▁brush
stab
ancellation
▁Argument
▁prize
++++
▁Baptist
com
▁reached
▁HR
消灭
的设计
nRem
有问题
▁perturbations
▁milk
<0x5B>
ntil
incipal
▁SN
上午
CTION
▁Reuters
▁Speaking
整齐
性价比
goto
▁approximation
跟着
▁luxurious
填报
▁wellbeing
▁never
NB
▁reject
▁radar
▁features
▁police
经销商
活动
▁wors
▁tuna
ichigan
享
苑
urers
*}[
的大小
DOWN
退役
)}}
行為
好转
▁Dav
▁CG
module
such
▁analysed
储能
▁exploring
▁lurking
bits
▁Wii
上部
nHot
Argument
▁Piano
尉
▁chicks
▁Context
▁Five
缝隙
捏
fl
▁Compared
nwall
让
cash
▁coil
OWER
之物
▁ROS
▁Tweet
灼
nBrad
Ка
▁rabbits
▁habit
▁Links
▁fruits
▁Portland
▁bones
▁educate
aly
▁drafted
妇
▁tensions
▁statutory
▁annually
nChrist
有限责任公司
▁aspects
▁squ
▁verdict
▁LR
之外的
▁Split
为代表的
Logger
遊
对我们
對
Queen
Par
▁cooling
▁expectations
orp
一条
▁inflict
▁correctness
▁Logger
Special
additional
低
信号
時代
though
▁Web
Rob
析
分享
<0x5C>
nSeriously
▁borders
▁defe
▁Yose
▁covering
期限
▁tied
重新
养成
gw
▁viagra
▁meter
quisite
▁Maximum
erences
璀璨
generate
▁pleasures
垂
污水处理
galactic
wenshu
人际
来看
}>
抬起
不代表
orer
▁casino
ose
一共
暫
置疑
基本上
audio
Vari
recated
kwargs
▁DSL
RECT
▁graft
▁whatever
CRE
▁creepy
▁FF
▁commissioners
血的
表演
▁awkward
尼亚
▁categ
▁finite
的我
▁converges
在家
opol
bio
▁fell
▁})
▁simulate
環
Pane
但不能
今年
▁familiarity
nth
看不到
▁attach
的人才
▁Jets
▁Entry
危机
托
霉
nOr
kT
▁SOFTWARE
▁Pole
家庭的
总能
赦
▁assessing
批次
平凡
广大市民
▁Get
▁tobacco
外地
▁unders
tbool
▁big
nref
▁гене
}=\\
▁Build
▁plaintiffs
HY
▁Ge
▁retro
boarding
▁unconst
RS
}\\\\\
ा
悬浮
igators
▁Leicester
▁weave
igers
勃
strong
▁ре
校
服务员
uffy
де
圣灵
▁Fib
▁proactive
淡淡的
ximately
ured
▁consult
▁发明
疾病的
搬运
雕刻
▁assured
▁Emily
▁Swedish
▁PBS
▁aston
Amazon
usetts
倘若
――
nEmail
▁behavioral
骗
平民
▁championship
▁stead
▁standalone
▁struggling
还是比较
iko
▁crap
▁ib
▁Sugar
▁handheld
现实生活中
▁utils
▁Play
▁grid
fried
优惠
把孩子
颜
舍
▁dialect
蛋白质
▁id
nWould
▁imaginary
▁eclipse
▁kidnapped
зова
uesday
▁helps
YS
▁Late
ression
ncount
▁epile
▁CONDITIONS
uries
▁operational
太空
▁Shen
nPlus
▁biodiversity
碼
▁changing
形成了
▁aver
*/\
背叛
▁downstream
疲惫
▁spots
▁dst
▁blame
▁Reviews
报告中
▁Beijing
大局
き
▁reservations
sum
的因素
ae
▁bridges
单独
▁bus
▁antib
▁gradually
linux
应有的
ISC
логия
煲
firm
担
het
庆祝
tmov
司马
▁sentencing
compact
▁sleeping
华尔
▁forwarded
▁clarified
欺负
▁notice
▁outline
▁Kas
▁chewing
角色的
▁cow
▁Click
▁albeit
容
<|unused039|>
oman
zhang
▁input
评论区
uns
▁Carey
▁pivotal
稱
Number
clip
ishops
▁Muk
volatile
PUT
寞
微信公众号
▁Friends
PRO
债务人
▁boot
▁Natal
▁supporters
连接
chant
平县
八年
▁joking
creative
calendar
▁enlarg
物种
而不
▁Prayer
general
完美的
积极配合
▁chat
双子
没那么
市中级人民法院
奢侈
img
园林
▁destructive
祖国
职权
恐慌
nsh
▁launching
▁membrane
жава
可靠
▁neither
怎
family
保卫
和家长
qu
FONT
▁issue
立的
&
▁angry
Def
国庆
变了
shal
▁plays
看好
▁Gran
股份
脂
渴
nShould
ario
nAdditionally
▁indeed
**(-
▁multiplication
thren
ely
也没什么
完善的
明了
信用卡
nCook
鞭
WH
▁proceeding
▁ruby
▁vein
目前已
▁NOW
单位
}}{(
每股
被困
刻意
▁Static
supset
nWindows
百度
▁prompted
房地产开发
clone
▁continu
aaaa
▁addition
▁implementing
水和
▁pink
▁operation
著作
cember
trace
▁Und
冬至
Ф
▁Economy
晤
我知道
▁August
MzAx
▁Ara
▁fe
▁downt
▁lesbian
社区的
国家
shot
▁Netanyahu
▁Testament
▁bog
蕊
▁све
REG
文化建设
▁Legisl
售
lower
节能
▁sidelines
一流
▁Ec
vert
▁bidding
▁insist
潘
狮
���
护
▁digest
伍
▁lose
行长
栽
▁creative
bin
沸腾
▁difficulty
През
忧伤
▁is
ursor
創作
▁forg
Address
股指
▁lives
▁fals
вия
缠
е
▁Glenn
封信
外科
▁agency
▁Stephanie
女友
集團
实验
患者
接触
▁sad
▁constructive
防火
放进
erred
▁objection
assign
▁cho
▁bluetooth
$\\%$
▁outlined
失去
Pan
客户端
那就是
遗憾的是
的前提下
▁Brun
付清
▁daemon
江山
notice
▁Lots
▁philosopher
opoly
春秋
▁AI
▁ignore
▁caliber
▁specialty
的气
▁teasing
南方
亦有
)=
▁woes
▁Act
家协会
自贸
渺
鄂
▁paras
房地产
▁preferably
▁technically
提琴
lain
▁Tok
硅
單位
▁Agu
▁Flat
传播
澳门
▁Theory
orescence
experience
▁Index
uba
▁hearings
保健
研判
是一名
hydro
forEach
增强
▁pref
▁opting
▁results
圆满
元的
va
▁importantly
environment
Threading
追加
tswitch
▁amplitudes
urred
Pos
feedback
missive
oooo
▁Song
▁respected
▁search
▁kernels
iers
лото
▁Isle
某的
tB
zhou
▁Dental
四川省
▁tabs
参加活动
bean
▁doubling
主人公
▁GPL
掌握了
▁enthusiastic
▁Ле
▁vest
拉的
基数
▁shell
缺席
▁physician
做出了
齐全
▁persistent
部的
换成
UTE
交通事故
▁acne
▁Peters
▁\"\"\
▁Architecture
▁Rica
nCome
▁Mom
▁login
▁Coin
flower
rague
las
elyn
▁lang
测量
ysical
全年
▁Chamber
个子
Ew
Process
▁persists
YE
}$}
本身
▁circus
不仅要
最近
▁speeding
▁legislators
除了
▁clarity
<0x70>
人类
▁Miami
抗战
iour
turned
<|unused101|>
都是在
ssl
▁ready
▁advisory
▁shelf
amma
▁Nigeria
<<<<
而这
Package
▁games
各自的
Bounds
▁slippery
合理
控
Relations
▁communications
child
▁pause
显著
▁orb
▁seafood
更好
▁TABLE
当地
国际化
的時候
改变
▁pa
▁screamed
algic
結合
▁modular
racks
▁Йо
通常
发现了
iseconds
London
关心的
ndev
▁Bad
nalso
智能
nDown
▁Rest
nCustom
dotted
▁accommodating
rus
defined
▁opted
人工智能
qp
▁behave
writer
▁visible
▁maxim
▁scr
▁uncommon
▁pupils
▁Developers
姥
<0x9C>
▁doll
▁ANY
rolling
筑
bool
尿酸
鸭
izabeth
算了
suit
pret
医学
播放
▁jest
原谅
▁employed
▁joins
▁illegally
发生在
ncing
特别是在
当初
古今
愿望
出炉
测绘
嫉
萬
博览
算
nProfessional
▁scaling
对外
▁maternity
年纪
zoom
last
▁when
▁Wesley
<0x22>
干了
▁inventory
Consumer
▁Conversely
tained
▁Garden
▁snapshots
▁LGBTQ
郊
▁sqrt
▁Olivia
市场需求
▁palate
▁G
美国总统
不爱
▁negatives
▁regulators
▁judgment
限额内
啸
▁Members
▁Bro
缓
▁cro
<0x38>
▁parks
regions
都不是
▁Going
▁glue
▁см
的政治
▁Cand
▁Amb
▁issu
▁brackets
▁loan
nExper
MOD
<0xB6>
▁Decision
咨询
▁Tem
不小
▁mechan
▁varying
nBl
ypse
指定的
▁wrinkles
▁really
ium
她们
利亚
ssh
available
▁longest
结尾
推测
nAd
乖乖
▁facing
▁Agreement
arb
ASON
nBrand
TR
▁diagram
▁Standards
▁cran
▁Nike
患有
▁main
冒着
attack
冰糖
▁accounted
▁Jersey
Picture
认同
▁също
▁paintings
▁worthwhile
OutputStream
oked
不在乎
拳
紫外
下來
的大力
搞好
▁citiz
etsy
▁river
tint
your
▁refresh
世代
Max
瓦
芯片
▁rage
ATES
怀疑
较少
<reponame>
▁quotes
解答
分会
到最后
NTY
拼音
公司在
nLib
▁attended
op
之战
▁selling
▁SUV
方式的
<|unused107|>
▁Jordan
▁statistically
▁stride
▁Garage
▁allergies
棵树
▁improves
uno
стру
咋
概率
nsel
▁biod
▁prisons
▁Sch
刚好
疚
品质
之中的
可谓
iracles
▁STATE
zeros
▁exclude
斯科
就很
放入
教育基地
▁treasure
▁corrupt
hock
聯盟
新三板
▁^{
[\"
異
▁Richard
heimer
副校长
▁explan
▁crushing
ndra
倫
▁rebound
▁Guide
▁vide
▁pavement
背诵
负责
一步
▁RV
adows
警务
▁JO
|>
▁latest
▁Benefit
tor
教研
县公安局
unts
▁Wednesday
▁continued
▁nickname
相较
▁voices
▁goat
NBC
▁swallowed
▁vulgar
纠纷
”——
▁discret
▁recovered
▁rental
▁Highway
為什麼
▁skim
CONN
民族团结
▁gadgets
▁barri
▁speech
稱為
导体
▁occur
-%
▁advisors
▁本发明
柴
解锁
极大的
场景
赛
几乎是
就是这个
Brien
扇
▁acknowledging
榆林
单品
本质上
canonical
▁assay
▁tower
這個
uni
==\
maven
咬
党工委
ettes
中国人的
lovak
住房
▁spoken
TW
▁destination
毒素
]\\
▁Mexican
▁Claud
▁think
UST
▁Federation
之旅
▁Egyptian
biggr
▁contam
▁looming
高层次
▁increase
nInter
\\;\\
gments
'])\
atch
▁catastrophic
Field
联系方式
▁Unf
▁Sag
走出去
第六
▁keynote
istine
▁remove
▁deg
艳
▁slogan
万亿
建设工作
▁Noble
文书
精灵
▁loosely
▁enjoyable
▁Bronx
退休
▁Antonio
比方
想象的
textsubscript
▁chose
商用
hskip
▁Activity
一般是
appoint
▁Ginger
asm
IR
出门
公里
Header
貿
▁jerseys
▁Methods
asets
seeing
我想
iner
▁discusses
▁traditionally
LIN
▁Native
▁Looking
▁blade
▁Finger
▁frustration
sequently
▁localhost
▁Double
▁край
的电话
家族
设计师
▁Hamburg
▁FPS
▁opinion
抑郁
newpage
▁meme
都市
分泌
悄悄
▁resulting
▁Pier
▁lady
errick
▁Foster
河边
▁scene
manif
rysler
▁Wife
▁lobby
▁Stress
骨骼
▁careers
在这场
Enumerable
▁adopts
biz
▁recept
▁composer
nChoose
ilk
挣扎
或多或
▁jerk
倾斜
▁paragraph
▁flex
nMin
马拉
incinn
解除
我们已经
kins
kW
▁presently
▁center
比亚
使用了
禁忌
outs
▁anth
Click
值得注意的是
▁op
hd
季节
美洲
老板
▁abs
分期
isted
因为我们
▁dances
▁Debbie
安东
▁Wonder
▁Wealth
▁Lap
ingale
nself
这是什么
nFe
用品
的重
▁existential
nJun
vised
Rock
现有技术
epsfig
在工作
屡
在校
counter
广州市
潮
ina
▁civilians
oding
ATED
▁incentive
sina
裡
Operator
▁Ok
IFAR
▁Pay
水上
举办
▁м
▁Vers
ext
aler
▁mob
Advanced
实效
▁следва
}(\\
顶级
盛宴
Literal
晶体
▁Cyrus
未成年人
必須
▁Mink
▁Opin
▁Don
智
ERN
不像
监控
▁Reed
▁hypotheses
▁Har
圾
collections
Phone
和完善
election
▁Figures
但还是
ater
钥匙
公路
▁physical
▁forgotten
▁connectors
真相
▁missiles
▁fire
不愿意
▁wafer
宴
proto
▁refers
▁stronger
▁история
ursday
amic
thereum
standard
}}{{\\
成的
▁sits
▁uncon
▁necessary
盛世
▁critically
▁posters
▁non
itals
等地
Example
▁inhabit
▁disgust
imb
▁dou
▁statewide
nSpecifically
戰
ben
▁soldiers
▁expanded
City
imon
otically
▁locus
MjQ
▁Upload
奇葩
番
cular
过敏
臣
▁brow
Psi
▁coe
▁elimination
▁Cards
▁householder
iet
щи
居民
ност
面對
▁verge
▁casually
体验
▁appar
乘车
▁sunglasses
▁repeatedly
''\
處理
持久
▁Ал
▁impending
转换
▁policing
▁Embassy
不来
▁components
▁Vegas
队友
▁gatherings
血
小时内
▁Gen
喜庆
▁Down
▁Networks
▁brushed
booking
▁whereby
▁perceptions
▁escal
Res
onderful
ILD
▁vault
▁bedding
锈
Min
▁dos
TeV
attach
在不同
不建议
irteen
自从
遣
older
▁Raj
▁concrete
完成后
▁DAY
▁Davies
▁needs
▁Center
▁substitute
чки
urved
终于
▁Fruit
原告
“)
巩
翩
▁hacks
德斯
▁paths
理解
stru
▁Johnson
▁evac
岁
热点
薯
hfill
▁Config
":"/
经济发展
▁copper
inction
责任人
▁GL
无关
nMenu
可能在
eros
▁uphill
特别
vertex
▁planting
▁tournaments
会更
的
dimensional
感受到了
▁flour
▁Science
sin
▁specialists
▁persona
前往
▁regularization
应当
小米
▁executives
▁stand
lyss
▁storage
▁Sherman
▁keyword
tah
脚踏
▁thoroughly
birth
很喜欢
pure
oleon
weed
诸
想法
下了
▁promoter
noff
▁SSD
Sure
▁Specifically
全场
▁Davis
__\
普查
giene
高度的
所述的一种
▁hugely
宗旨
資
昊
▁trunc
隆
▁Balance
痛苦
▁connect
▁differently
年后
ulsion
wau
})\\
附近
▁Adam
▁cargo
与会
▁blu
▁Rule
▁themes
判决书送达之日起十五日内
ify
增收
颜值
▁helmet
ooth
他人的
球场
▁Travel
ampions
tj
len
ze
和其他
nFore
ricular
uture
▁everybody
卜
▁There
切换
帼
安装在
<0x77>
▁glimpse
壁垒
enger
吨
▁weapons
良
ア
▁wanting
blind
▁resol
和自己
erity
build
▁Pand
▁remind
▁Scientific
rain
具备
▁monetary
多人
▁stacked
▁disappointed
▁emergence
▁techn
▁sizeof
▁Crit
▁stom
nSpeaking
para
思考
▁Ron
entropy
ś
▁upside
▁flagship
▁Deer
局限
ibus
istration
▁congressional
▁fermion
▁perturb
在国外
对自己
▁Tr
▁disparate
▁erase
▁Blog
opia
Би
▁Mason
ries
attering
識
▁Our
特意
nfind
工作报告
▁Compliance
aks
元素
afety
青少年
itous
▁launcher
▁Dear
磕
gov
▁parliament
▁Biblical
技能
▁tyranny
Span
腔
▁bottom
png
老头
chanical
▁Mc
某一
▁bios
丢
▁bounce
Surface
▁recoil
镶
<|unused044|>
打招呼
uls
pless
当了
▁relig
美满
▁northwest
清楚
器械
cb
committee
jective
上世纪
▁Waste
习
专业人士
▁Net
pher
▁CAT
▁dumping
rol
静
мо
▁limb
▁narratives
newcommand
edding
▁lingering
▁regarding
針對
▁Savannah
锚
nAv
▁HDMI
意见
▁Monica
▁assembled
传
▁messages
nRock
记者
如是
▁uncomfort
就是我
▁Words
tune
▁discussing
不再
delay
能在
公元前
pod
▁doubles
市政协
国
about
▁uploading
sers
前夕
Head
nTh
人说
doi
amen
pec
选择
▁adjustments
▁implemented
▁Alt
FORMATION
▁superm
特产
▁UL
eez
比率
掀起
usually
料酒
<0x29>
核
雞
▁Evangel
头部
▁pet
▁incap
▁oversized
徘徊
会影响
▁supplement
proposition
▁SEC
▁NP
▁TN
院子
▁Am
判决书
巨蟹座
▁Script
nrange
辣
nProv
断
及以上
该院
▁February
oop
amoto
▁bots
寓
咪
主办
frequency
害怕
十几
保暖
▁Elder
▁magical
Value
oby
▁forces
▁Irving
审核
▁revenge
▁juices
▁Git
了一批
reviewed
▁tuning
късно
ро
▁EFI
▁tenure
髮
▁counselor
臭
▁subscription
▁Craft
可以选择
▁playable
omics
▁deposits
有关的
pairs
涵
出来了
дът
最爱
h
两项
▁broadcaster
dq
viation
cellence
-\
人际关系
▁Corollary
一角
嚴
deleg
去年同期
多重
▁void
nWhen
车道
开放
出众
▁Blind
ж
丧
xf
赛季
转到
ozy
徒
最初的
创新
之外
拍的
▁Hearts
出水
手機
▁TRAN
往下
▁awe
▁Gone
变迁
<=
▁verify
民用
六
ncoe
理由
是一项
疾控中心
production
▁knowledge
▁mills
▁Deputy
功德
PA
扩大
<0x0F>
▁recall
自行
中心
共享
Div
▁Malcolm
cos
▁Legislature
感受到
Send
nRichard
<0x73>
Qual
▁rinse
strate
▁welcoming
urope
厉
对于
_{\\
▁Show
▁nil
▁Membership
管制
▁Hell
▁address
▁разпо
▁Reading
▁review
德的
▁press
aways
▁charts
▁depth
的小孩
\"\"\"
魂
ober
权利
沧
土耳其
血管
▁quantitatively
сна
涤
▁cream
icals
学者
硕士
数字
neural
▁Issue
▁facial
得到的
Pipeline
或者
▁crib
▁bureau
▁Coy
▁Nope
ndes
此次
quez
ntable
钓鱼
▁turf
罢
Media
▁unseen
▁BI
高频
就得
▁sacrifices
金刚
Age
▁yeast
idence
▁жи
市的
▁endangered
▁Atlas
▁indirect
System
自由
▁contour
经济学家
aton
▁coales
洪水
流泪
Mini
heard
▁HVAC
▁basically
hooting
Sep
YES
容纳
▁participate
▁Abd
бра
▁Kath
prob
▁fonts
难
<0x94>
otion
▁perpet
nax
▁cens
ren
這樣的
▁▁▁▁▁▁▁▁▁▁▁▁▁▁▁▁
▁events
▁Wat
▁MAY
硝酸
рия
IT
athe
▁consolid
▁observation
▁entering
nfl
▁soci
anto
▁Studios
▁allocation
同時
▁Wy
Colors
▁cultures
KR
防线
iratory
▁neck
MDE
心灵
票房
学区
▁filthy
殖民
少不了
▁bed
梁
oliday
rary
engu
▁marketed
▁bamboo
▁Vladimir
▁diplomacy
▁upgrading
▁nationally
自然而
▁philos
▁Jamaica
仓位
nRunning
▁workers
慢性
阶段的
nabout
仙女
起步
较强
▁А
лу
我已经
由于
▁validated
▁whiskey
生
塑
▁nerd
lon
▁:-)\
▁improvements
医师
nyou
uckle
检验
▁Fit
▁tier
overs
onge
ITEM
清代
▁clin
▁popular
▁Jer
加强对
才是
情景
记载
▁Patent
▁provinces
▁fm
▁aim
kim
▁ne
超过
▁faction
WR
报废
assertTrue
突发
atti
cery
▁enhances
▁skelet
▁recruits
Ｘ
▁improvement
▁balance
星
organ
iterator
主要原因
stein
祝
▁transcript
可行
▁struck
▁PM
▁turn
elson
灯光
▁bookstore
ashion
现阶段
叙述
取得了
ETHOD
君
前几天
挽回
shtml
复印
邀
穿梭
▁Mal
Profile
一审法院
▁prohibits
中南
▁dont
▁Wil
完全是
握手
减持
梓
格的
refresh
Multi
▁Whereas
▁Lav
家庭教育
▁cardboard
▁linen
滋
▁allow
肝癌
必
第十九
ample
execution
▁encoded
钢
Eq
后
决定的
▁NAS
video
Frank
领略
php
▁Height
帽子
Sent
县级
尤为
▁plugs
饮用水
▁denim
工业
▁screening
第二百五
篮
▁ри
▁Мо
▁figure
对我说
▁flee
▁cones
巫
▁Lanc
ategor
psy
ss
▁Such
凯
ISSION
ictures
市场监管
▁scrolling
自然科学
公民
是什么呢
概况
▁unparalleled
单单
讀
睁
化名
▁crude
▁Berry
▁mythology
▁Develop
▁authent
▁accom
上看
▁constraints
香味
▁biblical
Bra
nNeed
nobserved
▁outweigh
她就
▁distance
痛风
▁cervical
不断增强
serving
mock
':
Proc
ace
恶性
▁Pub
用作
<0x2B>
▁listed
virtual
不能
block
▁billion
战机
acee
充斥
富士
retched
看待
▁protons
▁clear
Continue
▁Demon
飘
ners
▁cosm
末端
▁chang
谦
区分
签证
局的
万人次
not
▁Band
通货
avez
送达之日起
妊娠
▁hom
〈
▁pull
▁cast
▁Commission
▁demonstrates
幽默
安全性
eworthy
baby
plug
与自己
模仿
▁length
▁Pol
引领
▁supervisor
rocket
ledon
▁checking
▁twists
▁Except
▁appet
ти
▁spinach
▁procurement
ias
非常的
illi
ert
cience
BER
影像
▁interpretations
▁Invoice
dad
▁Bangkok
▁Бо
▁pronounce
informed
rene
▁К
▁shady
▁symbol
早就
前所未有的
ca
pred
▁fitting
▁foam
geo
八月
▁Goals
ibo
off
继续
▁County
rem
▁preferred
▁reacted
水资源
orns
可再生
对新
多为
号码
▁reconnect
▁mag
haven
▁boat
▁songs
▁everytime
▁Super
percent
Native
钢琴
▁Sales
▁runtime
召开的
▁delegation
美
▁Designs
▁traveling
克斯
board
creens
▁Turbo
charging
▁cele
判处有期徒刑
▁hatred
nInterest
nThe
nem
▁Belg
可以达到
▁isomorphism
基督徒
▁makeup
▁accurate
abe
持平
desktop
资本主义
病原
偶尔
兼顾
抗生素
deb
大方
调试
organization
也是一个
▁mathematical
資金
▁Threat
装的
对原告
AW
下班
parent
▁subl
▁gifts
▁dispatched
▁flatt
▁formulations
▁classical
fram
▁gri
用戶
社交
tle
▁Rockies
resolution
走访
▁important
弱
覺得
▁thousand
▁ensure
;}\
esc
了一把
▁filters
▁blast
▁incompetent
M
楼梯
▁mixtures
▁continuously
;\"><
software
▁analog
问他
告诉你
▁exponential
culate
亲身
oning
▁H
▁regulate
党员
avers
灵魂
▁tolerated
▁Vir
事儿
▁puts
▁dig
伯
<0x9F>
yeah
▁Sleep
annotation
▁assort
经济效益
▁UP
zo
qua
▁malware
abama
的观点
azi
'{
骨干
处理的
▁succeed
▁AZ
浇
十三五
设施
绝不
chie
的小伙伴
华的
▁gig
喃
▁sliced
vari
电子商务
▁thoughtful
▁Prevention
是自己
▁Hyderabad
▁insurance
▁shoulders
晗
▁builds
简易程序
▁Milan
▁Gram
规划
水中
期间
rophic
culpt
More
▁redd
洒
▁schooling
▁кул
生效
▁Hyp
▁neutrino
▁mainstream
教育整顿
▁polished
▁blocked
stackrel
▁hi
▁Benefits
都有一个
萌
又在
安卓
▁Cha
▁Island
▁Integ
▁cone
▁mism
沃尔
▁({
孤立
向上的
▁enthus
领先
▁Regulation
araoh
seek
導致
inth
ну
▁vengeance
pany
比
門
屬
orman
Ds
nlib
nPh
忽略了
shire
观摩
▁CCD
▁models
▁Golden
程序员
工程学院
▁intercourse
动能
▁nomine
▁така
zen
万股
){\\
▁softly
逝世
▁UK
企图
▁similarly
▁msg
江区
▁congratulations
▁visit
\"`\
起来的
▁weddings
anka
投身
花香
▁Interstate
nProcess
▁Rush
▁Du
▁yields
bourne
音乐会
技术与
▁block
posal
$}\\
向大家
不以
nVis
apter
▁nullptr
thought
<0xB0>
翼
弛
进一步完善
中共
戏曲
▁Independence
▁integrity
公章
不远
▁Hunger
itial
清热
腿部
▁ml
讲的
调侃
olate
nMary
后方
▁samples
osex
▁coastal
▁algorithms
▁hostile
的要
服饰
去了
▁Celtic
atable
和她
▁hardly
lob
有趣的
的自
组件
的了解
▁уби
icine
与你
蘑
▁el
WARE
Thursday
▁artifacts
▁compelling
▁NL
▁inserted
nargument
▁
<0x52>
ilo
growth
tq
News
Paper
從
红的
▁converts
▁Lawyers
asketball
▁Boeing
▁flowers
▁IC
suc
拼
厂商
为主的
unched
neffect
▁electroweak
ICAL
▁completeness
pillar
嚣
一个月
▁thermodynamic
你自己
(\\
▁aerial
▁Baseball
邀请
▁notions
▁methodologies
▁particles
非法
清朝
原因
nActually
nfortunately
flow
▁Nokia
左手
从
nP
統
▁\"_
阿
建设的
vio
儿子
^{\\
tar
nals
▁quitting
nAnyway
ighed
tings
▁greatly
▁descend
的小
严峻
source
民初字第
徐
▁ritual
▁Americans
▁congress
▁Sere
线
▁prop
陷入
кти
▁waste
nLife
▁bald
早上
采访时
▁ago
或是
▁parked
时会
漏
samples
之情
舉辦
DER
辈子
inant
uling
▁Philipp
拖拉
▁transport
茬
▁Zimbabwe
People
emen
▁examines
▁strategic
ocrats
火了
▁dismissal
▁drive
純
▁graphs
▁flair
<|unused076|>
▁PA
ahead
▁analogue
揮
你就是
nworld
▁tet
umption
▁bets
年少
▁Pon
ators
bled
▁Common
▁Heisenberg
章节
虚
基础
plied
原有
▁Yard
阐
\\%
▁engineered
wb
东区
▁cricket
消毒
来做
切断
▁Lead
适量的
MDg
ITS
▁Edward
nCr
空调
▁Become
▁crown
▁significance
攀
不甘
半夜
组委会
nit
acher
▁saddle
▁дъщер
▁posts
skip
grass
Contents
一下
▁alleged
▁grounds
厚度
▁Mostly
▁listing
▁tighten
相关的
导轨
▁Incorpor
iant
Mc
小姐
▁suc
想说
停留在
▁hips
本月
但又
else
▁Progressive
图
这个人
▁stake
▁toe
来得
}$}\
▁remote
发芽
交集
树
▁verified
▁както
动荡
nAnswer
Pr
书本
▁positively
}^{*
▁три
协议
▁wishes
机构的
▁res
▁regain
的一大
vag
更新的
騎
在医院
▁Last
AGE
凶手
Level
在那个
▁appears
广泛
▁Plaint
▁scalable
課程
珊
<|unused126|>
牢
患者的
olidays
level
反而是
Spring
指向
▁resent
▁warm
remember
Writer
released
▁fundamental
flies
▁sailing
Mzc
定向
pak
是不
venth
were
▁tops
▁energies
玩游戏
▁formats
▁NY
ellow
▁global
▁Auburn
积
rin
oultry
▁Good
▁in
▁surfaces
tein
做强
▁있
▁unanimous
akespe
nNovember
▁Work
flight
学习贯彻
usage
矿
一台
对此
▁rifle
opes
Hs
诸侯
▁pictures
▁suppor
要不
feeding
闹
签订
daily
▁Disney
▁pride
账户
再多
九
口碑
▁hobby
抓获
增加值
理事长
停车位
逸
SZ
escape
蛛
graph
ustin
pa
风格的
▁suscept
▁bringing
℃
beam
▁spoilers
​
天花
idy
▁catchy
Named
▁m
▁defective
社会各界
nWednesday
println
)\"\
▁creators
▁institutional
gences
▁SU
原告的
我记得
▁Action
足协
cious
原则
рта
報
▁Browns
nJ
来解决
ت
aron
▁tough
▁Educational
CCESS
胁
дена
▁monopoly
▁Vampire
tube
▁tornado
▁extended
▁Sant
aste
馆
Turn
需
nbeen
的一种
研究的
▁aspiring
▁Shows
▁RES
▁uploaded
▁Tribune
暴跌
▁just
俱乐部
重伤
▁baff
加点
膀
operations
▁sizing
▁relieved
gain
▁bright
▁file
▁spit
▁player
溅
▁Relations
未知
酒
三亚
別人
▁marks
较多的
▁instantaneous
▁challenging
resa
ruff
▁Fill
印章
'})
制度改革
途
Ask
▁utterances
▁α
inston
ro
▁trump
▁Vince
▁Dob
每每
ad
aurants
bit
割
复产
▁popped
重的
γ
▁Clin
fr
▁ESP
chunk
йки
诚实
▁playful
红
▁Works
这是一种
▁THAN
俗称
组
usb
beq
Ex
nostic
陌生的
Icon
▁Tele
歌唱
▁took
▁Absolutely
▁conservation
增长率
▁accepting
家企业
高通
治疗的
与我
▁Norfolk
▁HELP
▁Desk
deal
投降
SELECT
券商
▁ensured
▁Ole
rived
\\+
graphs
ia
ouds
▁largest
党委委员
▁contamination
以致
bsolute
hart
▁props
公办
ortion
▁aspect
去找
老鼠
▁Parts
▁ROI
▁As
而来的
')\
▁typ
▁sinks
▁font
▁son
сия
分开
太大的
aled
▁tried
▁convey
檢
aph
▁Hockey
涉及一种
▁obsession
▁agent
▁Lightning
小孩
държа
generator
мей
▁:)\
▁nutshell
▁transforming
▁internet
cmd
时要
▁booked
▁ICC
resis
breaking
▁hott
dou
▁Ethiopia
贸易
仪
▁besides
税务局
▁attempts
曾在
<|unused075|>
相比
▁Asian
▁maintains
Checked
遗留
扯
▁stunned
录入
遴
真好
人行
▁mesmer
▁trailers
▁Exchange
你觉得
apon
▁Abraham
felt
imgur
病毒的
▁contract
制造商
青年
▁Walt
mq
废物
見
的游戏
行事
▁Miller
交通安全
▁TODAY
▁Ali
▁Lion
卫生
到庭参加诉讼
▁Kir
排序
<jupyter_output>
庫
▁Meh
prite
无锡
主导
rest
▁dehyd
▁propos
▁give
▁persu
▁Yoga
脐
MET
范围的
类型
icon
▁CIFAR
研修
实施的
}}
不是一个
寂寞
结
▁cir
▁intra
路径
▁cite
Em
▁preview
▁earthquake
▁gases
主持会议
DEs
▁dressed
需要的
形
如此
在公司
▁gym
傳
nWebsite
服务平台
很难
▁conqu
叮嘱
发展的
▁Interface
▁Preferences
高昂
▁glow
项目建设
▁accent
就是这样
▁lawful
功耗
倒是
▁bond
拜
蓮
两天
▁prayer
情侣
стъп
oke
焦虑
在于
fer
▁Silva
涂抹
科创板
芳香
】
▁advice
anger
大批
價
invariant
▁teaches
会议室
▁depend
▁Rabbi
依旧
▁commitment
▁scal
nMag
nprodu
胀
播出
▁border
enn
▁errors
直到
筛选
人了
▁recharge
tell
锐
▁人
撕
▁users
nHop
most
template
黄山
dip
<tbody/>
整顿
nshow
營
▁deadlines
▁Corps
▁wallpaper
一门
▁DAC
篇
▁asc
▁massless
▁HTML
Rod
在乎
空间
忽
▁foot
keeper
pecific
诉讼代理人
培养学生
業務
▁bullets
一会
惑
▁unemployed
有人说
Mike
掉了
煤炭
rology
AI
▁identified
ngiven
dding
资本市场
坛
▁accident
rose
fol
结婚
从业人员
ops
▁switched
▁meetings
必须要
Sha
节目中
辛
vent
▁THE
orient
button
nsection
▁healthy
养老金
间接
系列活动
▁decorations
▁abusing
Mx
高尔夫
rev
▁Review
▁winds
ixtures
▁Je
▁minerals
Logic
yset
▁deaths
/)
oshi
bearing
jecture
lip
▁earth
任命
blogger
的情绪
现代化
定金
▁Sacred
该车
<0x10>
Query
▁quotient
destroy
▁polit
ANG
用水
委員
笔试
报到
市人民政府
光盘
王某某
书的
▁premature
dyn
ken
sr
③
ui
▁NULL
▁chrome
▁exemplary
▁Posts
打扮
助推
recurs
IRST
▁imaging
攝
萝卜
▁dorm
rio
left
▁withdrawn
▁Shanghai
▁premises
rad
显示器
▁philosoph
▁operate
电动自行车
娘
atur
▁Average
▁categorized
实业
ница
下定
▁Mongo
Rank
▁Blade
torch
EXT
norm
▁Mystery
/{\\
▁wrongly
ory
ourage
*)
贬
｜
▁scarce
▁powder
▁Aber
主帅
将与
中医院
optic
;\">
▁Publ
▁retirement
▁-=
inarily
qed
工伤保险
百货
不复
▁Ре
浙江省
Sets
不同的是
:/
是最
prises
cube
▁compelled
Sm
ncheck
新年
efficient
▁ginger
▁Pierre
▁tort
相关负责人
▁phys
▁keyp
那边
注重
elected
有望
▁Form
ILY
闭
憂
andum
下来
arsity
nde
▁ironic
▁islands
Power
kz
dash
▁unve
Jul
少吃
++)
法则
▁mystical
▁download
▁achieving
手机
Review
新材料
combination
▁Usage
动摇
▁Atom
走到
▁idi
▁dimension
camp
佛山市
大家
▁trophy
nThird
▁BSD
▁virgin
plementary
响起
ar
太平
ortun
▁Sup
来袭
irts
▁patri
巨额
农机
可用于
▁Football
伴有
nWithin
▁repeats
经纪
教师的
▁regulations
<|unused071|>
atal
▁possibility
▁checked
▁director
▁cookbook
当她
▁cars
灸
▁Renew
注意事项
▁lithium
▁
illing
authors
梦
以便
▁LC
cock
▁Andre
▁coats
▁liquidity
▁Ish
▁approx
▁Noise
nYear
▁Unable
绩
▁banks
▁reckless
PS
ornings
▁rip
▁Rick
血脂
▁Upon
▁ps
不愿
ief
▁queries
另一
▁productive
在全国
发表
▁standpoint
▁logically
北京
Mg
个体
▁individually
河北省
后勤
相伴
▁#{
Len
青铜
use
▁refreshing
▁(
百年
▁fil
odynam
▁$-\\
luent
陪你
tstruct
}$-
▁Wald
ashington
▁summary
西装
▁Gain
收缩
▁leverage
饲
的价格
机和
ortex
▁prostate
她是
sac
的形式
▁−
▁fantastic
大概
}\\;
alert
йто
极为
日内
▁inter
笼罩
纪检
網
▁Declaration
▁encouragement
道路交通事故
采
备用
apps
UG
Fab
▁Wal
ank
气息
amed
amas
▁disappearance
ten
怀念
itations
nName
Gar
Details
▁Tickets
▁toddler
內容
OOK
▁reinforce
唯一的
▁taps
▁My
▁Con
▁Die
▁power
\\|\\
▁classic
▁Observer
▁desperation
udo
otimes
熏
▁tr
影子
数控
lll
▁plotting
員
aylor
▁closures
ivo
▁positioning
▁Evaluation
▁Resources
关注的
▁Credit
半天
aleb
▁begin
▁Ann
▁quota
都不
▁PSP
сто
有时候
▁Ya
▁Face
诉
ribution
长时间
归还
窗口
介入
pv
bour
High
旭
▁cupcakes
振
▁tho
▁Attorney
Ha
eca
雪山
黄色
▁inning
▁assistance
▁ein
▁solved
▁Compact
要加强
amm
▁structures
gauge
变得更
▁persuaded
死亡的
菲律
Net
▁Customers
hold
次的
MS
ulsive
▁definitive
的语言
economic
asma
上衣
EVER
jac
▁THEIR
▁converge
战争
▁disciples
Expected
余人
失败
▁alignment
ucus
svg
January
penter
un
▁decent
的部分
介绍说
▁oversees
CP
об
▁Walking
睡着
公元
▁ambulance
olics
HO
orst
▁spoke
的行为
你和
新型冠状病毒
▁bite
具
▁assurance
后代
én
▁attempted
优选
大了
業
乍
nSur
风气
提供了
▁Moto
overn
说出来
\\|_
▁autumn
▁Janet
▁spends
目前的
founder
Ann
rb
▁style
▁Recent
▁Ро
▁exemption
所謂
邀請
▁Syrian
贯彻落实
遏
<|unused143|>
票
▁Orche
▁varies
npart
十分
match
五千
方
▁Real
uber
听力
▁ion
▁Hans
▁socially
敌
▁attain
▁cups
scriber
演唱会
▁operating
红线
热血
通则
▁storm
▁solutions
▁SPE
▁lifestyle
АЩ
▁collaborate
愚
nValue
kb
步入
▁shortcuts
nNews
眼科
▁intelligent
ALE
观测
三月
nsw
锈钢
▁Annual
怀孕
排气
imonials
▁controll
▁administrators
spin
▁unbelie
▁Nether
import
answer
上次
这与
狠狠
unning
▁PropTypes
~*
增量
没啥
▁smug
ports
WE
▁subspace
WRITE
▁straight
用了
在职
▁greens
利用率
科技大学
itors
nRecall
也是很
▁older
▁merits
%%%%%%%%
▁masters
▁violations
隔壁
的解释
▁workouts
▁homeschool
▁sophomore
app
nut
▁extreme
Select
东方
nreg
看得
grav
早年
村村民
▁gin
寺
afer
anna
写入
▁ow
phe
患
▁exposure
▁renormal
某乙
▁reference
▁adop
FER
血流
利好
籽
}})
коно
MzAw
bath
▁favorite
大三
▁explosion
▁Grass
▁Catholics
TA
▁analytics
▁exponent
保驾
▁frustrated
支部
▁hey
▁Stack
开除
▁signatures
▁joyful
DAY
研究者
▁Phillies
▁noticing
esty
疫情期间
ODY
▁differs
▁ripe
▁executing
子上
nthe
▁Cham
▁council
硬
畫
国有企业
aba
攻坚
▁discovery
相见
ason
▁Wis
姓名
造假
potential
▁fuss
▁Introduction
倾听
▁KS
落实到
<0x34>
▁Finland
nour
▁sac
ata
▁preference
更改
▁GeV
来说
都有
noper
不及
▁assumptions
贺
▁exported
▁depressed
吾
Cost
inee
HOST
予以支持
砖
擦拭
=-=-
rans
并按对方当事人的人数
区长
协作
^-$
nDay
橄榄
ordan
▁invoked
团长
範
▁VERY
稀缺
agnostic
input
PASSWORD
andy
带来了
▁Bor
▁towels
了好
▁fru
budget
主权
▁religions
号民事
下来了
▁selected
家
▁mile
▁placed
▁informal
idis
咏
▁writ
约束
atomic
▁Hudson
▁fireplace
肾脏
▁То
ices
nms
▁Christmas
结核
受苹果公司
hor
ammatory
▁confinement
▁foods
是这样
▁'$
▁tart
▁idea
▁java
NTg
yond
以外
迹象
▁including
外婆
rep
▁combine
依靠
▁astonishing
准确性
今年的
我不知道
▁cyn
▁breadth
nDan
▁survive
公平
Files
入境
▁ensuing
▁superintendent
献
EFORE
James
nthony
ortunately
▁urge
▁Fighting
▁Expression
▁LS
公里的
▁representing
itecture
很小
▁darkness
▁Crown
major
▁Peru
最少
訊
名为
sam
terday
▁inf
体制
▁fastest
platform
部署
奉献
div
▁function
不合格
income
Resolver
▁DM
▁hes
▁For
▁към
▁dime
▁Све
nRon
钦
olid
▁Price
ienna
启
Coin
▁inelastic
▁Year
▁bid
党的
)/(-
孙
举证
ците
ardon
enna
做着
燃
Order
▁God
normals
呐
事了
pad
akov
nTony
工作机制
至
inned
胎儿
uron
LL
▁driv
杨某
▁Meyer
香蕉
▁consumers
▁gestures
倍的
rapeut
阀门
Ant
nlog
▁nutrients
西南
▁'@
特殊的
子里
在不
▁residency
墙上
▁verification
▁unm
决赛
了你
rwx
覺
▁traveled
▁restaurant
很快
透明的
▁inflammatory
主要由
發現
$(\"
▁evenly
不胜
得以
▁commanded
一些
藝
Android
朱
▁motherboard
▁stared
obody
▁infection
▁supersymmetric
瓶颈
particle
副总裁
▁inquiries
nGood
Di
▁abdom
▁resid
rules
網路
bd
QUAL
▁executable
▁patient
性能
рез
人社局
▁Sony
Problem
▁militants
云
接
▁observations
学习和
歌手
pollo
nJason
忍耐
▁по
丛
elastic
▁fore
prot
扭转
▁scams
▁quasars
功夫
ppled
背包
▁pile
when
维尔
▁was
'+
大湾区
▁feminine
款式
▁simplicity
步
陷
OND
so
slot
▁simplification
和一个
▁benchmark
的价值
能源
▁flown
▁fees
▁Masters
▁Johannes
▁bypass
��
▁USDA
电站
nSw
等相关
来之
ative
▁Secrets
医护
ously
▁K
▁datas
娱乐圈
tString
劫
身边
coholic
▁panc
scriptstyle
ouble
▁scratching
pez
▁done
电解
▁gre
onded
strings
▁ecological
▁found
isitions
由被告
安徽省
Δ
我对
Interest
▁quiz
▁width
进出
▁poker
红军
个别
ي
▁Devils
▁switching
说明书
▁Hotels
厉害
实用
▁Illegal
焦
以往
arma
重要
撤回
英语
▁Раз
▁discretization
ocoa
queue
合同法
▁darker
▁dotted
▁executive
mf
操作系统
▁Redskins
广大群众
energies
▁detox
入
刻画
靡
nclass
kov
pled
experiment
禅
approxim
手机的
大笑
▁перио
▁outperforms
人
落到实处
基
▁Schr
neg
通透
Active
▁subgraph
加入了
不忘
经常
品尝
tf
▁North
岛上
Please
▁Funding
山东
涝
lete
▁corresponds
▁retreat
▁ice
学姐
▁surveys
jam
▁neurons
nUnlike
buntu
▁deduce
shore
助学
▁Off
匿
▁vaccine
nOk
我们就
紧密
▁num
▁members
▁currently
有多
较好
▁identify
▁prote
买卖
▁Pod
naissance
路
▁mantra
ctx
▁PLEASE
▁depths
▁Oak
gages
▁amplification
atar
董
意向
践
nofollow
▁deeper
aws
只好
arlier
业界
▁tun
看你
秒
nArticle
things
▁ordinance
▁currency
费用
nsecond
Drive
病症
erts
▁През
獲得
AGES
▁Rio
▁subscriber
▁retaliation
自动驾驶
▁identity
应予
帽
likelihood
▁manage
▁commodity
▁City
▁aggress
关节炎
osis
osc
DK
iston
反省
▁DIS
到底
ang
▁Про
Two
downarrow
尽头
背后
summary
▁backing
▁landsc
aby
)_
▁explores
ruce
▁millions
▁wedge
niest
▁designing
ovan
asper
的父亲
▁NSF
YPE
▁OR
nstructure
▁horizontal
邢
了一场
▁Roof
事宜
榨
▁descended
Щ
▁slipp
▁Winter
▁Ass
plier
景气
pert
▁Pic
▁Pavilion
nShare
祝贺
▁normalize
▁Crist
▁Coll
▁п
▁ends
▁remarks
呼和
酒吧
▁continuing
▁wishing
▁Defense
▁apparel
▁semif
probability
▁champagne
▁ballet
信心
監
▁brief
▁seamlessly
nIf
▁boost
▁vit
▁convers
▁Bruins
▁destiny
▁positivity
会比
的产品
连日
▁Rocky
▁This
哑
▁advertising
重要作用
▁Alexand
▁managed
raine
▁smell
潇洒
▁treadmill
▁Tucson
mapsto
Signal
▁trees
漫步
▁rotation
全民
resolve
▁Public
▁recycl
▁libertarian
▁lately
npol
▁horsepower
发泄
ر
ب
▁patients
▁Speaker
之年
▁drift
承认
▁aspirations
▁Else
enary
▁products
got
aj
▁Liter
▁then
▁referenced
Mock
▁Beautiful
lander
dal
стри
Thu
nMat
nBed
▁parameter
nate
▁Outside
▁Brent
▁bucket
imps
和学生
攒
lege
dim
▁pam
了一套
把
<|unused040|>
Sil
怪物
睦
ths
优先
▁repaired
围
▁Angela
謂
▁Hilbert
iox
銀行
Int
企业家
帮助他们
▁AF
▁cref
nin
▁alarms
gateway
挺
$_\\
贮
happy
▁situated
▁）
贷款利率
摆
携手
antly
那时候
nAtt
ures
hon
mith
复苏
▁Hus
▁entrepreneurs
▁Cyber
onlinecite
让它
员的
配置
ish
▁indoors
▁inequality
學院
clusive
protocol
ju
ifdef
及利息
▁ug
女生
▁shadows
azure
救治
umin
▁Near
▁acts
uity
OTA
▁ambition
▁gamble
▁Nights
▁which
▁Isaac
她会
▁designs
probably
▁bounded
▁oval
▁logarithmic
戊
▁Draft
接受了
Nature
▁Mesa
par
的结果
neys
▁slam
会是
▁balloon
氧化
▁cover
欺骗
MDk
ankind
▁Eq
Note
▁Kick
la
▁strides
aac
轴
治療
▁boolean
长度
▁Response
:)\
▁Cluster
▁knees
▁Fried
绿灯
ather
▁away
Display
_-
▁meaningless
▁fertility
▁TW
▁тре
健全
构建
▁mar
▁portrayed
nMicrosoft
青睐
▁REST
资金
▁Ruth
▁Е
nMake
usters
ender
而且还
▁hesitant
谁
▁scar
▁Jeffrey
N
но
vehicle
▁Pride
▁Highland
▁fat
勤
绣
eur
▁peers
▁directly
FileName
Att
▁generative
全国各地
指着
Lie
枫
fast
▁difference
▁Sisters
购
美金
Called
▁entertain
▁deleting
nMod
外部
▁…
▁employer
▁friendship
▁Oliver
multiple
最好是
▁intent
Library
千米
敲
<0xE5>
之間
使之
▁permitted
jamin
bee
门的
着一个
尽可能
▁professor
▁garment
▁lymph
city
nullable
Trigger
▁airplane
Annotation
▁Capitol
主要
▁spiritual
▁micro
因为他们
▁international
uzzle
					
wens
韧性
▁threats
▁ali
Street
▁PUBLIC
patch
nRequ
alon
▁Junior
▁friend
▁Document
:`
文明实践
造血
▁Armen
„
eworks
▁Euler
转折
itious
季度
▁fabrication
▁servants
灰色
▁invariants
的企业
▁ma
)$\\
思想政治
['
▁tended
很快就
▁spirits
▁exterior
短信
atisfaction
▁Materials
沉积
abetic
ход
▁boundary
irmingham
▁Movement
▁Buffer
氛围
▁legis
省委
▁Nelson
(-\\
children
补贴
▁owes
Sur
words
▁Prad
▁generating
职业教育
▁tick
无效
▁classification
strap
tocol
剖析
多万
tget
▁asympt
▁floors
jquery
▁ever
▁Mumbai
▁pruning
然后再
查
广
▁argues
是不可
▁eh
但要
▁markets
公司
流感
瑶
Country
nfour
▁best
▁conflict
▁biography
timeout
ра
不绝
失误
Rate
義
reci
分化
den
智能家居
身边的人
▁Produ
▁pricing
收到了
艾滋病
砥
▁grave
其次
olded
楼房
▁delayed
▁surprises
不对
▁Southeast
要求被告
明确
nUsually
▁Palestinian
▁contradicts
几十年
结局
▁Initiative
▁shining
审视
▁Pr
▁Packers
分布式
超标
全心全
nThough
爱护
項目
形成的
▁tumor
員工
会导致
▁Combat
館
oa
▁Л
葡萄
可以是
▁Soul
MzUx
▁Episode
制备
comment
家用
obia
约翰
endar
▁sche
死亡
售后
来到了
均
大纲
▁Castle
模样
的四
nApart
nAround
fty
▁runs
错误的
▁framework
改善
▁monot
NTk
▁$^{
奥迪
▁Slow
▁vacancies
青岛
攀升
▁miniature
nsolution
重塑
♥
▁wavelength
▁plurality
▁constraint
远远
▁candidates
供
azers
剧组
wikipedia
acts
丹
San
Upload
▁Loans
月的
▁cook
▁ministry
Per
nW
▁Legend
еле
TT
幸运
▁neutron
▁liter
的父母
惯
▁clash
▁Coulomb
▁retrie
防御
ogan
▁Partial
就在于
Generate
▁Tournament
gence
▁pledge
增至
▁Node
▁negotiations
恶意
ev
赵
国会
preserving
▁Nicol
巨星
wall
娴
▁Fe
实在
关税
南宋
ovie
▁epidem
痒
蹲
▁System
高等教育
quin
并无
urn
一分
Math
▁attacks
▁competent
▁fled
ancy
▁dispersion
▁card
▁Arch
▁Duke
▁ле
的优势
专业知识
童话
▁award
▁underneath
<0xFB>
wolf
VM
fruit
Bi
auc
▁rogue
▁anxious
▁trig
事业的
细则
Et
帮
uddle
终止
进了
埃及
▁accessibility
防腐
▁defined
中所
牛仔裤
的道路
火
机
化管理
结合
estead
做什么
nWhatever
Bro
可观
精子
▁solidarity
ania
▁burdens
手中的
▁offspring
▁afraid
▁Variable
ologically
▁LG
ctors
認識
塌
▁iPhone
常委
keepers
▁tx
▁remake
Organ
▁others
▁ult
不会
particularly
▁Deg
▁Minutes
▁Bulgaria
▁comparison
帐
operation
▁overseas
副本
但如果
神秘
▁shapes
▁birthday
▁winner
▁Pas
in
条件
nSan
集聚
<0x80>
itical
acion
▁classics
▁embar
});\
▁Scale
构筑
▁fict
▁outing
就不是
敏
▁counties
年到
OUND
＝
▁Come
▁energy
平衡
的方法
astery
ore
▁frequ
ranked
Building
做起
▁Button
底气
ptic
疑问
▁Aven
▁Zamb
supp
▁profiling
▁Inspect
▁seminal
和华
▁agreed
imming
办公
美人
PE
▁coated
▁freelance
▁Foundation
机票
▁rang
▁UR
zier
国资
灾
▁ideas
лаго
脱贫攻坚
idel
▁homemade
编
大臣
讲述了
의
ros
用力
获胜
老
▁Inf
较小
测试
third
务实
▁Synd
▁Lange
▁EV
▁CD
类似
留下
ign
cpp
草木
民國
cad
<filename>
Posts
iar
前的
▁Base
Empty
▁calculating
▁respect
人体的
持
ernal
▁LHC
▁happens
▁favored
▁Name
红包
bus
▁franchise
▁inject
轿车
有一位
▁trusting
当地时间
mentation
Pres
宠
▁gave
arcel
nlp
突如其
周日
相连
份
准入
figure
▁mention
奇怪
彼得
▁FL
▁html
anz
▁Schol
bsp
有一个
▁USE
座
▁Graham
nLow
flict
▁Guinea
▁thief
rollers
分发
蔚来
全过程
违法
▁Guard
解决的问题
弥
▁oy
ande
太过
elt
▁Built
▁worse
​​
▁pas
折叠
headed
▁failing
▁Catalog
▁coating
▁little
▁tasks
slug
Editor
這是
▁Finnish
勞
▁talk
尺度
▁Celtics
▁Fix
照样
▁base
adapter
running
▁depicting
▁bears
<|unused156|>
眾
留学生
反映出
nhas
cend
胱
▁finance
irlines
Pri
屋里
多地
mathop
▁pastor
▁abst
rx
▁outdoor
▁Answers
▁constantly
記
▁impatient
▁dancing
星期
靠谱
比较多
▁bump
渐
桃
Delegate
otta
▁tonnes
results
▁thirteen
▁instincts
▁protect
新闻发布会
насти
dale
▁devoid
▁Todd
二手
复工
uche
杂志
学习教育
▁bifur
分析和
riteria
^@
mur
sweet
补助
▁unrealistic
spect
▁)$
▁visibility
频频
铁
仰
台账
车辆
至少一个
扶持
▁nvidia
的人格
十字
▁cohort
伤害
▁product
▁medals
▁Connection
▁demonstration
kernels
▁phantom
本院于
推荐
stem
anting
osevelt
と
▁Transportation
ет
权力
AND
▁gallon
ika
Software
拉伸
▁Scheme
了一名
并结合
传统
▁Position
▁walls
▁quadr
▁versus
的生产
投资人
扎实推进
▁awful
midt
▁Tory
Mjc
款的
此前
▁Scan
示范区
usa
чина
Comp
▁Baldwin
▁Christianity
存储器
йския
王小
十个
▁radii
▁XD
互补
討論
▁daughter
▁therap
xn
uct
▁Kurd
▁him
新人
gd
▁boosted
▁mutant
<0xED>
hdad
quartered
就不要
之后
▁VAT
加快推进
谣
Desc
lectic
虞
vm
▁Sandy
逍
指导下
壹
溢
nSe
рий
FLO
▁Cros
ouch
有的时候
喜迎
iti
家庄
它们
榕
我们都知道
nRe
▁chaos
Geometry
应急处置
谎言
▁gallons
▁$
明知
SER
<|unused051|>
▁betting
gery
▁couns
Store
▁Investigation
mor
在今年
records
葵
aro
二等奖
at
▁eject
charges
ull
▁unatt
▁ing
▁hefty
侧的
▁monk
顺利
From
被执行人
rip
▁Mathemat
▁functor
anguages
▁['
IDENT
Pad
全天
不可思
▁Wheeler
證
印
▁Ash
▁Sketch
]^
白衣
▁Activities
底部
heck
这部分
acco
ROOT
▁vocabulary
▁Poin
顽强
特尔
math
保鲜
ulation
手感
▁narrow
▁infections
ihad
大陸
nio
▁Yeah
UID
▁photograph
▁exempt
▁Rico
金字
nPosted
▁ARE
工
▁trac
Remark
quare
你好
▁ech
▁Bard
考
allocate
声明
Statistics
▁overs
▁Railroad
ilant
密码
▁annoy
▁Maryland
溪
意的
▁builders
▁Container
▁killing
▁common
▁circles
欲
ís
穴位
을
随着
置
不宜
懵
鸡肉
派出
sters
Lo
▁cleanup
教育部
nCommunity
']['
▁Northwestern
(%
帮助孩子
臨
时期的
电动汽车
泵
▁sock
Network
▁Raiders
▁orthogonal
畅通
▁spontaneous
拉萨
▁orientations
我就是
diction
▁Kickstarter
Bus
▁dy
模糊
就没
SYS
▁resistant
bian
▁spotted
жда
ē
巨头
次会议
發生
▁dealers
多是
色列
▁Katherine
▁Little
nFive
▁capital
contr
▁Wikipedia
竣工
南路
原审被告
▁learns
讲师
▁therein
牛市
▁hit
▁Ell
增生
▁leave
学术
▁bg
three
▁Palace
▁comprehension
▁bestselling
▁stripped
损害赔偿
嗨
而有
纠缠
▁Tab
atche
SE
▁technicians
odb
▁compounds
ieve
▁Processing
續
的性格
▁shred
创始
内容
amping
UTION
arded
ère
riting
ntax
▁Silver
由此可见
Wood
▁Access
后来
▁INS
▁bankrupt
等于
centric
宣言
varrho
▁unanim
老人
▁subscribe
撒
▁cracked
▁underwear
warn
护航
ting
▁accommodate
依然
}_{-
▁conject
<issue_closed>
▁POST
▁African
heat
atial
▁Nos
utenant
脈
▁Viet
优势
▁Som
…)
▁pets
▁Athens
▁envelope
posit
▁Martinez
硬盘
Verify
提到的
▁specifications
日期
transfer
▁heck
▁Under
▁horr
▁ast
都要
▁FIL
是要
诱惑
向其
途径
北大
▁Tre
初三
pine
主观
吉利
▁accus
ade
<|unused158|>
的历史
庙
应变
涉案
must
▁coordinating
▁mammals
章
耘
▁being
▁Be
▁tutor
土木
那你
社会的
▁polic
laim
▁Â
▁interview
▁den
▁bugs
▁therapy
▁princess
新兴产业
▁aftermath
谁的
的概念
钥
__(
▁disappro
▁stitch
oron
▁foc
密集
▁Reform
▁Tou
ATION
▁Component
唯独
界定
▁dictated
▁drinking
ел
领导者
▁derive
ê
▁tossing
▁letters
Box
nPut
Year
As
秘密
▁hosts
▁coinc
▁bary
▁mentioning
可能导致
▁antennas
已被
acles
西北
worm
枸杞
arms
▁Baker
烈的
商贸
紧凑
▁sermon
▁бро
禧
▁her
▁consume
▁Edmonton
友谊
▁Continue
▁purs
▁hence
nReal
友们
▁beauty
▁christian
вя
强
pill
ayout
骆
破产
具体的
峡谷
精英
nUl
▁crore
▁gathering
是有
守护
oct
row
命中
▁acid
IDE
脾气
▁hemp
▁libr
答疑
▁Fort
专场
美观
▁Cul
不必要的
▁optimized
▁trains
▁carb
▁Element
福州
should
ntotal
有一条
惜
▁bloss
▁Names
▁womb
一见
▁Verizon
irically
mind
▁quasi
SCI
▁Adelaide
薄的
el
溉
nStandard
在下
▁condo
留下了
账
▁monet
▁voyage
▁Attribute
":{"
▁railway
STAR
▁Reich
典范
▁adm
breaker
▁intermit
empl
牺牲
始于
▁redshifts
alaxy
nStay
▁telling
▁Drop
是很
liography
▁divor
▁taste
外来
▁lemma
关怀
也正是
▁failure
▁seriousness
▁resembles
采取了
▁traces
的法律
life
上海市
要求
configure
▁Preview
干部
▁Wid
permission
▁cru
▁enroll
平板
▁Billion
并将
▁owning
hw
完善
小区的
indows
▁protective
寻找
角的
▁Chairman
措
▁Gods
还有一个
繁琐
改造
李某
▁claw
▁item
▁Date
Hy
大家一起
▁Animals
矿石
上半年
br
'-
▁Township
电竞
▁Queen
▁room
}}[
棺
马克思主义
▁Remove
▁unpredictable
▁\";\
fore
▁reap
课本
▁countryside
▁nailed
▁Sept
因为
与其他
▁Mercedes
均已
throws
problems
▁Disk
燃料
▁volunteered
functional
apple
▁astounding
yme
▁cruelty
间
▁Hebrew
▁comment
捆绑
分数线
贿
threat
通讯员
clusion
мъ
人意
toBe
nPeter
▁CAR
AZ
▁lust
Paths
些
▁Afghan
卫星
▁AWS
世界的
▁roads
经营
tw
▁trailing
threshold
▁aid
一般的
婷
例如
▁sporting
就像是
明代
▁combined
▁IDE
▁partnering
sites
ncross
▁replicate
Bucket
粉
进球
▁Gilbert
▁slit
也叫
▁foli
擔
枝
▁Shane
nBrian
=\"<
▁Pill
▁commence
▁hypothesis
低头
协议书
izza
北路
$\\
igslist
tN
解
ic
C
▁shoe
全程
nBoth
合肥
dens
nForm
▁immense
逮
港
線
▁участ
匪浅
pub
▁COR
amba
▁digit
▁anything
################
eval
▁exercise
▁ка
一座
▁returning
ortions
凉
Range
能让
绿豆
▁Hi
▁Parks
▁embark
糖尿病
▁pouring
textsuperscript
美学
Phil
stead
▁adversarial
▁contractors
▁colleagues
aber
这些问题
▁Emirates
▁etc
宽松
一下子
relativistic
▁dru
▁reflected
▁pat
补助费
混乱
nEither
▁det
损失的
二审
*{
日讯
早盘
▁reconstruct
▁filing
loop
特朗普
encils
美化
▁pace
PN
完美
imbabwe
▁Department
抗疫
▁grown
pag
nSm
任何
▁lamb
▁Counsel
受害人
faith
急救
▁compare
ig
▁became
▁Truck
▁typical
个小时
中国特色社会主义
▁aligned
还说
护照
cuts
的大量
魁
pol
icus
exists
镜子
小龙虾
▁bird
▁decre
STE
stroke
sock
▁REM
Lem
▁Calif
的很
▁traff
畅销
context
Edit
涅
crow
▁mounting
▁willing
疼痛
ritic
引发了
([\
▁Diamond
ixt
▁inset
-{\\
Fact
extends
三
繼續
▁adapted
▁strengthen
▁reboot
▁friendships
activation
不见了
▁hypnot
伊始
▁belts
领域
的意义
▁ink
Ts
nHel
特别的
▁pilgr
▁El
▁Farmers
antes
ateg
▁различни
▁pertinent
я
nonumber
requency
打造的
HOME
▁bone
固体
▁naval
ById
▁револю
▁leasing
oma
▁subtracted
▁PCA
提交了
▁casting
abit
pected
#\
rera
拆迁
梗
▁kinematic
▁Mary
▁bath
<|unused008|>
一体化
到一个
}{-
omo
到时候
睐
ри
▁message
rief
Configure
哩
flix
的手段
反倒
▁Dun
晓明
端正
贴心
已经开始
apest
在当地
mul
▁Neumann
LO
关系的
哥们
Deep
斑
idency
INST
▁venge
▁automorphism
愿意
亚马逊
▁guy
▁lungs
nDirect
▁future
笑声
▁conj
▁Ev
努力的
办公厅
▁remains
优美的
境界
▁Carbon
args
吵
▁Flynn
conn
＋
▁faculty
▁Sold
▁ruthless
▁warmed
生活中
ulent
Va
▁l
Resource
кон
有一种
守法
nmeans
<|unused028|>
▁regulated
cry
▁expensive
▁subtle
▁solely
▁→\
▁pill
▁altitude
阅读
{-\\
基礎
▁spr
▁如果
rrrr
夢
cribing
淋
▁blues
▁\"^
KK
指纹
ългар
▁readers
reve
在三
綜合
||
印记
fold
<|unused085|>
▁generously
▁Naturally
▁nutrient
毕业生
第十五
▁stuff
▁scaled
第一季度
convolution
phant
喜欢吃
单车
▁logos
iatric
各种
casters
▁fiance
-->
还要
▁dirt
有自己的
romy
▁frequencies
特的
▁exclusion
油腻
▁Patients
这部
identity
Ka
茶的
napproach
datasets
否定
ushes
▁Cast
poons
令我
XX
当当
▁Daniels
OUT
的过程中
▁cause
ocr
serial
▁American
abin
务
不出来
▁Harris
委托代理人
{\\
▁perpetual
Ak
▁Dallas
Guid
药
抱歉
超出
胚胎
slice
CREATE
身份
▁figures
▁watched
Help
▁LEDs
▁SATA
发展到
▁beaches
▁fossil
ncol
▁bee
微型
过期
▁priceless
▁Bark
▁image
erton
▁Thunder
工地
貴
▁since
风湿
time
穆斯
breed
茎
▁Effects
▁Explorer
▁тери
roles
mmas
▁reflect
▁mines
pecifically
芝麻
的角色
▁maximize
▁Crash
岭
▁ser
sent
▁Romney
▁Sierra
▁Insurance
nFirstly
▁feet
▁revisions
▁slash
要走
体现在
grounds
▁sliding
ituted
▁follow
emia
Null
差异
jx
▁Bast
▁cheese
▁modification
BR
國民
本院依法
吃饱
^*}
▁N
▁brokers
人与人
ppe
▁wooden
依法组成合议庭
▁correlate
▁fif
projects
值得
长期
调理
满满
▁ether
掀
的成绩
abase
nIs
▁GA
▁Argentina
▁china
▁masks
imi
alysis
ismic
nJoe
▁poised
仿佛
他表示
▁prospective
ates
▁nurturing
▁</
▁NEW
因为你
淘宝
otine
窗外
我曾
▁waving
▁Trees
▁^
<0xAA>
赢
却在
▁Cuban
拉动
辊
poll
中队
overline
杰出
▁pulses
动画
inating
尽量
财运
应及时
▁chore
▁disposal
cier
▁manner
orating
铬
▁manifolds
的健康
走的
▁confronted
legend
▁patented
惫
everything
▁bo
了一位
▁Ralph
▁Affairs
▁burg
}"
Ops
▁exting
酪
冬季
货币政策
▁vig
适用于
▁folded
▁abuse
▁Republic
<0xAE>
聚焦
moment
颈
▁expenditure
考查
▁paraphr
gment
▁rubber
gap
▁disreg
在整个
教授
▁semiconductor
▁fundamentally
蓝
cosystem
师大
iated
FIL
cart
制
corn
▁testosterone
▁Ru
PLAY
▁enhance
assets
▁treatment
队长
<0x63>
亚洲
▁deny
▁Sense
filling
▁member
▁efficiencies
可以被
Bit
▁Doing
▁attribute
▁und
盎
▁Auss
極
▁eBook
产能
length
train
重点
cccc
键
馬
福建省
turb
ICH
▁reality
▁spectacular
因为这
辉
nLiving
汉
　
債
▁countless
的情形
水果
产品的
出具
星空
▁mosquit
朵
暖心
常用
‍
厢
站位
▁reinforced
Son
知己
LV
心脏病
▁bur
nNational
▁Sam
▁Alert
▁passengers
ells
need
资
nTaking
驼
fy
▁plag
的文化
罩
已有
▁wra
偏向
▁prefer
运河
▁bland
齐聚
新村
▁commute
▁tackle
▁seams
nthanks
都是一个
▁description
幻
▁Ав
收益率
isson
放置
omy
▁Integrated
_(
▁elig
▁finger
户口
世间
ivil
▁abstract
▁AR
hill
▁Incred
▁fasc
Rend
匹
刘
▁multi
勇士
二次
▁Boeh
▁liability
需要
imet
▁Pap
gorithm
▁inadver
▁Infinity
▁Compet
▁righteousness
▁notify
CG
学士
gie
幸好
▁occupancy
filled
Snap
该校
▁Valve
CLUDE
isc
限制
nLeg
▁departed
▁grades
OK
療
▁[]\
▁equip
▁chief
nucle
rr
譯
▁lawy
奖项
而导致
ificially
▁\\)
ckets
给我的
▁distortions
vspace
▁huh
haw
wat
▁Dart
▁hunter
靜
▁tolerance
欧
醒
▁Skill
▁Panel
ulpt
▁choir
▁audiences
▁x
qual
ployees
▁Б
ETER
}_+
反之
▁their
誉为
辅导员
▁existing
▁endurance
:)
nBo
▁removable
作曲
loads
▁FBI
我这
▁импе
裝
菲律宾
穿越
置身
▁comedian
terror
雲
给学生
▁baking
▁optics
暨
▁screens
医疗机构
▁effects
▁smoothed
NDQ
启动
lo
▁sector
杀人
耳边
有限
Jy
▁guard
▁Cad
▁sentence
▁smaller
消息
agement
细致
号民事判决
isman
▁conceded
祖
一切都
▁DATA
事后
▁Records
▁AJ
后台
▁Por
▁expanding
▁talking
图案
abling
选自
▁tasty
大力发展
咕
▁liber
监察
蒜
▁Census
tprotected
独自
恬
奈何
▁lab
▁congreg
恢复了
素
荒
▁crystall
▁sacrificed
欺诈
▁me
▁blogging
▁VAL
▁nest
流逝
积极参与
热
▁Far
alignment
饵
▁laughed
▁societal
融合发展
看重
arnings
▁Unique
技师
▁tutorial
nants
▁Xi
us
interacting
perturbative
micro
▁Aware
▁inspiration
▁REALLY
▁methodology
Browser
cas
▁lime
▁MySQL
带来的
▁investigator
\\%}
nMo
▁at
▁harass
醇
泪
谨慎
▁WORK
中国企业
kes
▁apt
ouns
▁cinnamon
nmade
▁lef
數據
▁firefight
▁Genesis
贪污
龙门
easy
箱
"
▁Max
用量
▁retailer
▁ted
▁Documents
每一个人
▁eliminate
umble
thick
个个
▁diet
gems
esp
▁conditioned
九月
▁reiter
riched
画的
不高
天空
▁performances
ivating
入伍
▁START
▁demolition
▁wire
flex
▁PD
roduced
vanced
▁upon
▁woke
said
有过
Private
腾
eea
▁automation
▁governance
▁bitter
▁contention
hide
rec
防水
▁dominance
▁baths
▁Liber
愿景
▁elected
<|unused083|>
EMENT
一头
执政
{{
▁Better
▁Pump
▁fmt
查阅
)}+\\
▁agnostic
商业
▁cache
▁pretend
가
▁MI
社会主义
家乡
▁DIY
▁fooled
讯
邮寄
olester
▁Hit
搜集
▁Ти
▁Living
展览
着急
▁дъл
▁parties
遵
▁reconsider
poser
▁networking
驰
女星
为您
ful
無
▁Lith
▁tolerant
zy
▁Resource
貿易
登记
没有那么
zb
的生长
▁advisor
Gal
FE
硅谷
▁Boot
一楼
enezuel
▁enchant
tset
7
opt
这些人
骗子
▁Tib
▁lens
提问
▁enjoy
<0x36>
▁stereotype
Dec
gel
▁sovere
▁SAS
插
portal
hip
sh
▁vs
你不
乡镇
Round
'''\
又一
用手
▁([
▁Ни
▁podcast
这一点
CALL
▁emphas
▁donor
absolute
进步
plify
循环
▁quantities
▁modified
撞击
一直都是
交通
▁far
给原告
лин
禁区
work
▁immers
nwith
nEnjoy
他们在
▁tickets
fan
racking
▁Orion
Sun
IGO
▁spoiler
}})$
▁{
jj
▁infants
ntherefore
deploy
orgia
▁Ree
斗
社会责任
Points
ymmetric
▁encounters
iams
的手机
тар
大气
}_{
owners
鸣
▁professionals
受理
odox
y
fif
Utils
▁Sri
▁Brazil
▁sevent
甚至还
了一下
'/
▁condensed
ке
痛
ita
minist
▁tempted
bursts
▁hollow
nFirst
▁rehabilitation
▁shield
▁Lakes
iggs
PL
###
▁placeholder
Check
dra
▁Progress
淫
▁independently
▁karma
桶
唤
▁iterations
▁emitting
▁Musical
▁Ethereum
plash
▁disciplinary
峭
娱
之后的
ocide
mage
TRUE
美丽的
微博
▁quantified
▁merc
线路
▁PayPal
▁governments
mon
nFrom
▁Alternative
刚
=<
special
农作物
▁Electrical
▁chilling
nHe
solution
▁reper
▁Requirements
绝望
=\
修行
▁все
尽的
区块
网吧
▁beach
nBr
▁Tuc
说她
轮回
▁Handbook
精益
▁Speed
▁Working
▁mosaic
adan
′
▁securing
驾车
▁downstairs
se
likely
预防和
RH
persistence
署
后卫
icop
年
座的
▁respectively
Support
▁loc
UX
ATTR
为了避免
监视
▁full
nint
SB
му
再来
urd
▁genuine
辽宁省
時期
噪
starting
▁burgl
▁rooms
领导干部
▁recordings
犹太
▁geometrical
кември
芹
▁marking
▁Recipe
▁fiber
苏宁
evil
▁Indians
聘请
矫
应急
▁Gab
▁sacks
職
▁granted
▁При
题主
=\"#
序列
R
小区
疫
▁quir
}+\\
▁perman
契
generated
Target
expl
blockquote
去做
omp
▁Jupiter
发自
we
▁nightly
ysis
开
桌
▁ш
▁accompany
OVID
iss
无限
則是
ynasty
错误
ressed
erve
elin
▁redemption
▁Voy
大大
tingham
▁amidst
陷入了
autoref
な
▁Festival
packed
素的
浓缩
▁gravity
▁refres
终点
▁anywhere
▁bounding
设计和
▁Verm
▁shaped
▁filmmaker
Algorithm
ht
aren
nDep
editor
▁Dong
▁furnished
▁brilliantly
党总支
口
hedral
椎
▁learner
▁clinically
▁stage
入场
胸部
}&=&
脾
▁inductive
xton
莱坞
diagram
Internet
▁VS
nChina
▁extensively
年起
▁contra
▁PTS
▁vector
▁sett
▁Thanksgiving
两地
render
喧
geries
▁Evening
民众
▁graduated
访
conditional
睹
r
也一样
福特
oulli
▁rocky
▁pollution
后就
▁Marx
▁sorted
▁Hyper
所学
lando
▁Tigers
'=>
克里斯
ристи
Choose
relu
▁bipolar
ennas
自主
▁anomaly
Cs
加强了
TP
迅
进行了审理
astrous
▁RH
▁Summit
培育
傳統
▁fed
民宿
nopen
新颖
▁CON
aret
帅气
▁gymn
opsy
ifest
vik
蜂
eman
urch
▁Ch
▁guarant
▁damping
▁standout
▁spectrosc
▁brake
ipers
挺好的
我真的
要将
▁STR
▁shortages
assy
usp
transport
合适
整整
黎
▁Sun
定价
预
ultan
oggle
▁spont
巧妙
oice
security
▁ampl
ality
反击
▁ec
▁Anglo
itted
abolic
▁click
洞
输了
ably
WO
▁Insert
▁for
切尔
特定的
▁incremental
工件
发布了
*\
nrem
伦
家长
▁Campus
▁stack
NI
ncurrent
QE
defaults
^{(
lead
给
▁incarc
EO
nHy
по
受众
▁overly
cerpt
減
环
晚期
泻
没了
▁synthesis
汽车的
转让
应付
▁called
不容
▁REAL
▁retrieved
']);\
设置为
白色
convex
▁excluded
respect
▁Healing
而来
Reg
response
▁Mis
vdots
大家对
▁weaving
▁bullying
的那种
nThere
▁translated
仓库
▁socio
★
ERS
efits
rations
夏
▁victim
二中
▁assumed
师德
▁заедно
诗歌
筆
▁plugins
▁stream
文件的
为何
侨
下手
▁име
▁goes
▁Sem
▁improve
email
▁epis
▁defeating
tenant
▁mathemat
我觉得
▁ambient
▁dual
领先的
说来
feat
▁Sudan
▁Bak
▁girlfriends
不去
∶
фа
gui
不大
▁grep
▁Bea
态势
推行
答案
陆续
gon
down
▁hikes
▁Mohammed
线性
iteration
▁Seahawks
balls
=\\{
况
▁testimony
▁marg
ivism
▁Innovation
ix
什麼
法律法规
ographical
▁Rat
▁Съ
▁upload
▁Cou
走得
Percent
nac
OCO
粒子
申請
▁quadrupole
▁Sic
師
交付
▁recognizable
▁forward
▁ambig
脱离
说了
投影
pl
▁Rou
▁accelerator
▁mean
inity
奖
aving
锣
外国人
mans
不同的
打击
寒
▁metric
▁Ade
▁pots
条件下
活在
resistant
ската
▁nude
乌鲁木齐
▁Lip
着力
权重
nl
Count
一部分
矩阵
▁usually
东风
救
进修
▁consecutive
给他
orbit
▁gravitational
▁graphic
文化遗产
▁chiral
人都
pe
nmost
里
主播
木材
▁seekers
人民网
BN
异味
▁chooses
一股
寂
vor
第二条
▁tangible
ined
ottage
▁hanging
▁~~
庐
热水
同伴
为人民
▁pandas
▁ISP
▁Expl
日常
▁messed
▁follows
学员
Serv
▁general
▁breakup
▁Stand
opal
REN
生姜
aine
▁questions
▁subscriptions
佩戴口罩
▁Loc
▁farms
▁Rav
chars
plit
过了
nfunc
判决
▁Represent
▁adaptive
▁bastard
俭
▁basis
зна
ipschitz
升温
很高的
▁culp
Drop
▁parody
甜甜
那样的
额外的
▁mechanisms
▁priority
▁log
▁България
思想
▁tyr
得益于
生活在
征集
回应
▁CU
纪元
則
▁piece
制定了
destination
维护
菁
▁believing
▁backbone
血液循环
强大
iff
ERO
▁Perl
轴线
ellen
全面发展
▁reuse
description
▁adequ
variant
▁hopeful
ustralia
▁Univers
发力
▁exception
▁pits
坑
最有
役
▁(((
▁lively
▁Shannon
acking
责
▁naming
▁column
热潮
Mor
角逐
<0xEE>
irect
▁tariffs
▁woo
ida
▁tweets
几个
▁deformed
也能
频
獨
油烟
巴
▁vulner
changing
哭了
在他们
ZING
m
votes
▁фор
osterone
oe
▁taxpay
谅解
merce
▁caus
▁noticed
文档
Core
▁inverse
车身
发现自己
▁upgrade
▁Cred
▁Riemannian
Appro
▁hints
▁course
鱼类
▁timer
enes
撑
pole
地方政府
▁remov
赛的
▁operators
SK
▁herd
▁vegan
played
}\\)
▁WHAT
▁Wyoming
loid
GRE
▁inability
▁“[
▁admission
转为
▁Tommy
泄漏
摧
的头
▁MAG
▁incoherent
会将
异常
反正
console
▁Every
榜首
▁Pam
▁can
ldots
感恩
▁bio
妥善
▁exagger
赋予
ec
nomial
和谐
Mat
getInstance
sequ
confirmed
勋
▁incom
▁%}
▁Chocolate
辗转
疗
UINT
lear
茵
Cookie
ml
但现在
nWhether
对照
▁fundamentals
▁Medical
一审判决
▁total
在你的
author
▁fluffy
▁Demand
結果
提供了一种
▁Smooth
廉
涉及到
Interval
走路
政务
▁cigar
▁praised
▁Mit
▁Wide
▁AD
▁tortured
▁unusual
称呼
tech
Tests
树林
键盘
辅警
antha
…\
>(
▁understandable
aying
▁ultrasound
iblings
忠诚
nReturn
light
▁encoding
▁Parade
▁accomplished
▁normal
pace
▁bound
LEFT
)}{
習
▁Я
met
relations
等级
重视
几年的
一套
▁ranc
率领
apparent
剂
▁striker
▁handling
其实是
▁surgeon
Game
顶部
▁strengthening
▁blended
$(\"#
▁headaches
▁Novel
Op
▁exceptions
ippi
▁old
▁brother
今后的
<0x37>
nWeb
▁attic
导向
▁B
苦难
▁Savage
生活垃圾
找我
特殊
▁existed
Touch
曝光
▁grace
^{(\\
▁underm
▁functions
▁definite
一律
运动的
nposted
nHer
▁({\\
▁Cav
▁offshore
urpose
iating
又是一
▁building
▁publisher
GIN
rational
高档
知识产权
香水
一个小时
公诉机关指控
от
出于
没有什么
科学
▁devoted
男人
▁AdS
▁forming
linked
▁systemic
▁volcan
aspect
▁both
大学校
瞧
▁spelling
▁charitable
▁intelligence
▁Cities
▁solicit
▁Life
座位
▁Poetry
▁Rect
amental
▁steel
▁weap
дмини
的情况
▁permissions
西红
look
nIndia
VIS
▁motorcycles
练
▁hay
去除
农场
▁redshift
ANK
errors
督
搭
供应
▁acquisition
abel
▁Virgin
ugg
她对
anchor
沾
普及
成都市
Pro
沪指
▁subdivision
大军
orth
▁Yellow
从而
oit
ization
▁recurrence
▁进一步
鼠标
empts
成立了
▁Monte
▁MW
不完全
应由
田园
迟到
将
HECK
▁cron
uf
▁Programs
ichever
nLength
ABILITY
<0x8A>
▁akin
航班
tdata
技术的
▁Ski
副总经理
部位
ideal
immune
Reader
utor
allowed
▁Expect
<|unused069|>
违章
一动
▁Terry
itled
▁disappointment
▁proficient
搞得
▁arte
社会组织
nJul
hyperlink
▁ня
▁Kard
▁encode
opyright
的情況
色彩
峰会
友好
▁spin
台风
endl
iencies
Hex
獎
Returns
ffff
hammer
正经
的成长
子和
▁pops
lated
保護
acing
▁shr
▁Russ
▁Rip
abcd
▁missing
▁advanced
的一条
▁Essential
▁neutr
▁Tools
nsuper
以下几个
ause
冬奥
▁person
▁obstacles
Photo
▁Speech
▁gradient
aterial
不是很
不相信
；“
▁Less
农历
uda
<|unused006|>
▁raced
▁proposing
冤
▁thunder
▁Natural
hua
owntown
癫
▁Ram
shell
着自己
▁groove
▁asteroid
locked
▁motivated
▁onions
nsm
▁studies
的未来
▁missile
▁assigning
生理
▁Campbell
咨
▁ал
不一致
ния
adal
all
快的
▁disorders
▁All
▁notified
▁Gov
})-(\\
Ret
变化
小伙
常年
pancies
▁identifying
nAmeric
增值税
requ
▁an
借着
这条路
Разпространение
險
俞
出庭
KF
▁partnerships
▁atmospheric
otherapy
▁jar
▁\"(
脑子
▁Subst
▁advertis
OV
▁intend
交所
第一个
▁wipe
数百
adv
▁unavoid
Scott
例外
过上
阿富汗
afari
▁aspir
▁created
▁intention
对面
年龄段
▁Rank
▁Those
给出
高兴
▁architecture
改成
}))
分量
必备
Cat
▁abide
French
可以考虑
▁Ме
ynman
十四
▁Florida
字节
▁Romans
▁Nigerian
erg
鉴定
nhttp
红外
时间是
▁showers
▁artif
址
終
▁Comedy
▁rooft
parable
▁orange
▁Bian
dataset
ines
▁Wrest
▁Regular
rows
▁Cro
uclear
nUn
▁volunt
回應
▁Budd
▁Platinum
uggested
mk
少数
耽误
規
居住
obert
ventional
정
▁Chemistry
ructions
elines
ixin
){\
▁Buff
aghetti
Fly
vertisement
▁тя
永
Applications
导致
Behavior
强烈的
▁fin
▁ge
▁Quarter
▁movie
侮
▁profile
▁disclose
减轻
市長
楼
chini
▁Suff
涵盖
有好
哟
▁requirement
tvar
不需要
坚实
quarter
▁With
▁appealing
清晰的
展现出
在实际
在没有
iqu
▁ON
▁technician
加固
▁thous
轨
▁seas
▁Charg
ALSE
唇
▁joined
按时
▁kitchens
▁Orioles
▁Jur
▁addiction
)$-
▁uns
▁Kenny
证人
衔
▁standards
▁obstruct
▁discuss
晚餐
没收
▁words
brand
此时的
当他们
▁electroly
造成
гле
artha
▁avoided
////////
▁Ubuntu
▁appointments
抉
▁suppress
ruck
▁kay
人生
数据中心
като
▁Santa
▁Broncos
照亮
nRed
三八
▁Tan
neven
▁Oklahoma
▁Sn
ý
▁NFL
pref
欢乐
▁detecting
nCompared
missible
igate
对本
commerce
閱讀
火的
Missing
<|unused118|>
▁Canon
▁Italy
我爸
中年
出版
song
▁richer
▁compulsory
eks
运作
也只有
})+\\
braket
▁purposes
▁IM
▁stadium
▁obey
▁fills
▁redundant
专业化
▁bloom
▁envelopes
▁undergoes
▁playback
▁depletion
acci
plex
ahu
LA
Njc
nCustomer
▁PI
▁Upper
▁Fall
generation
▁Dol
▁Pitts
ceans
▁student
▁tv
忘记
▁Block
getElement
scapes
rent
▁prevented
Party
thel
固
▁Belf
Co
▁Thank
œ
ember
三大
▁sam
rho
作案
习惯了
▁attend
也不知道
▁Thom
▁backup
▁retired
MHz
годи
威海
include
沙特
ститу
日报
▁surg
绅
▁Ecuador
分解
▁misf
Dis
▁HUGE
▁promoting
Chain
ashed
▁copyright
理解和
化石
尤其是在
xia
中介
养老保险
▁$\\{
看见了
家门
负有
群众
谍
▁Providence
Links
ncontin
不太
iding
spatial
清华
管理办法
▁Crazy
▁rulers
奴
▁authorities
▁spiral
炙
drag
▁Russell
ipolar
▁commun
▁Cincinnati
▁:)"
寺院
workers
ucc
patterns
urther
gene
▁Health
bish
NAME
地点
▁compromised
president
nShort
umatic
▁proceed
可能会有
tresult
▁Res
▁pinpoint
_)
ções
殊
pplication
▁competing
▁signing
演示
▁photoc
RGB
▁antifer
oT
主意
Some
终究
▁nights
工作了
旁边的
▁sudden
▁alias
objects
▁nuclear
急性
▁(†
咀
holders
▁rolls
▁и
▁bout
rians
▁incorrect
▁Lore
ixty
Ne
大豆
IPP
▁Notice
Gener
富贵
▁Bod
Vs
made
ifference
nUN
抛弃
▁wasted
▁Devon
Archive
▁assistants
▁greater
档案
CV
自豪
过节
ifug
▁graphics
工信部
▁dragged
erest
rass
▁hub
eqn
期内
▁Player
逐年
▁displacement
ланд
资源
▁moving
<0xE4>
▁trav
的一生
▁contend
▁pork
Wat
Uns
▁Rivera
▁(\
巨
讼
磷
▁unin
等多
eli
▁Mak
迎
liferation
▁associate
Registration
族
semi
▁inside
)}$
步骤
▁condition
▁[…]"
清香
秧
▁iter
件的
cp
▁cereal
的身份
▁troops
躺在
互通
asuring
你没有
▁rude
ux
乖
ANN
lla
nEv
行政
提供一个
上都
操
\"\"\"\
Lambda
prene
ence
工资
慰问
readable
reddit
▁identically
ъл
回来
判
散文
诉至
▁implementations
▁barriers
ron
athon
та
reflect
三年级
μ
▁minister
煮
▁slapped
▁corporate
形的
herical
▁booting
▁Ad
日下午
韓
▁Cec
aa
▁Fif
▁hypocrisy
nJosh
|
▁negotiate
处境
▁trusty
ded
▁within
naut
▁rock
所能
MjA
在海
接连
oriented
ради
▁Gregory
▁tide
▁injections
这其中
厕
▁Yan
苏州
▁cyclic
▁joked
决定了

集团有限公司
印尼
喝了
只看
idia
▁Sec
▁bes
装备
▁whole
圍
_\"
<0xEB>
▁arguing
▁bart
▁impairment
▁Named
民族
滿
多少钱
▁же
pling
组织的
▁tuned
jan
▁Gul
这道
▁arbitration
nJon
日凌晨
有人在
在一次
▁Burg
nDeep
▁monotone
▁great
欣慰
nDo
了一些
浦
▁Trust
▁Answer
老了
▁Register
▁ide
elfare
▁subgroup
vee
nodes
审美
Though
持仓
▁Cave
▁designation
▁push
())\
触碰
▁binge
▁cheapest
▁Iv
December
合法权益
素养
何种
无私
烟台
▁involving
▁alot
陀
Web
istered
eight
工序
Model
▁Group
党支部书记
cal
▁Rain
▁Radio
デ
▁Lab
Owner
quark
}}_{
nProject
▁rubbed
Bell
近年来
▁emotions
▁aliens
FIN
井
于
sociation
▁ceased
彭
伸缩
▁compile
▁padded
▁Terror
带你
pb
lover
住院伙食补助费
Notes
▁guards
▁monuments
激活
▁optical
}(-
gex
▁introduces
▁receivers
芥
Metrics
▁coup
▁occupying
nthose
什
Г
▁interpretation
▁maintain
拘留
劳累
▁lying
再加
经济社会发展
LP
▁beet
g
上海
潜
▁protocol
▁popul
作者
AMP
▁gloves
反馈
果实
спе
▁leaked
▁Photoshop
nail
点了
idae
▁expire
’
elle
Hide
ourt
悬
OLD
看完
▁Milky
中场
▁rewards
之为
設備
推进会
做自己
在上海
é
riger
▁rats
流失
科的
▁distinguishing
▁:(
罗斯
机的
category
▁Originally
日生
using
▁week
杰克
▁Chess
聯
We
一样的
▁Apart
nty
▁lifts
▁lid
<td/>
<fim_pad>
▁Po
parents
▁steam
/$
歲
Root
瑕
ONS
以下简称
attery
▁lieu
▁criticisms
▁root
($_
节目
▁chocolate
▁Settings
▁Mart
▁characteristic
偏好
adjoint
干扰
名叫
assertEqual
▁pony
bracket
整车
▁Greater
▁theft
要注意
▁advertisers
OH
史
igne
▁Ay
▁farther
Msg
放弃
▁dusty
产业的
▁Mod
▁Organ
terr
▁да
▁thats
本身的
}{*
Upper
ging
▁honesty
今天就
▁amount
▁bol
ude
Daily
::\
▁underestimate
▁adapt
nDon
▁Years
▁indictment
▁Solid
▁Bach
▁thank
nFour
ARS
strom
▁biological
的出
楼道
▁EDT
▁Law
说过
entially
考证
生长的
▁awhile
ser
rieved
Allow
▁elit
Whether
当晚
纪检监察
nEq
路口
▁Medicaid
atsu
mount
▁deployment
貧
▁Schools
nQu
▁dust
WI
除恶
▁PP
术语
▁benefit
▁goodies
{(
加密
usions
iving
OL
▁standardized
▁decorative
▁Sundays
▁Now
▁chances
templates
циона
▁pray
跟踪
第二
itian
醫院
nMr
▁Ship
ively
倾诉
Blog
▁decomposed
▁revital
share
▁seated
▁Shan
son
izable
iting
▁invitation
roscopic
管
▁manufact
▁\\;
毒性
主办的
的国际
▁easiest
ographics
▁frame
▁reg
小型
▁counterparts
▁IA
▁Mass
麻醉
▁\"/
▁distribution
OURCE
}):\
▁meta
xim
▁coach
城市的
iovascular
渔业
瞄准
电
大米
范围内的
哭泣
write
matics
BA
島
▁segregation
只想
▁sever
iew
▁salmon
▁pension
▁include
▁Raw
{}
▁denial
ervices
ometown
▁Bog
或
▁Lik
▁Skills
▁federal
太难
▁radius
USB
▁budd
▁fond
▁област
第一种
招牌
START
▁Himself
arthy
在对
▁anyways
过滤
▁le
OTH
›
▁indication
▁numpy
amboo
指挥部
▁migrants
申请
scar
aged
▁boosting
▁terrorism
▁almond
gencies
▁variability
派
ratio
驯
盲
nApp
Share
ive
▁anymore
碰到
阜
振荡
能夠
paces
▁Retail
ema
▁insurers
▁discharged
笑了
▁condom
辨
▁scarf
ener
▁suspended
▁Scar
四大
企业发展
党史学习教育
nZ
bold
而他
檀
▁shores
▁instantly
车轮
在地上
▁oracle
▁reminding
▁Loan
▁cubic
igator
▁Mort
▁regulating
名言
nGetting
▁ridiculous
▁Ста
过度
明清
▁texts
眸
的一个
包容
一所
展开
ractive
pending
▁b
▁Vikings
▁realities
Console
▁elementary
minim
nProt
▁Buddhism
收割
▁Own
▁Bureau
信仰
▁amazed
▁denying
▁CONT
▁units
▁Mix
▁Quinn
近乎
破损
ров
激发了
Girl
▁Money
榜样
崛起
flip
▁ub
▁sphere
降临
不停的
▁elusive
采集
▁DR
消費
好事
审判员
原料
▁validity
冲
链
chel
▁eats
▁Wisdom
跨界
▁outputs
安居
▁financial
Imp
审
也比较
Xml
▁reads
▁Cooper
▁Ret
▁Labor
之处
extension
杜绝
▁Rut
卖给
enix
▁grit
▁CMD
substring
▁expresses
▁puzzle
currency
oom
毫米
一举
▁Hann
дел
回忆
▁grandparents
▁periodicity
▁Bru
bbox
umes
▁judges
极限
▁mour
▁fi
▁PK
claimed
obo
inja
▁keeping
▁McKin
室外
▁Parenthood
隔着
▁metab
▁chromos
osaic
▁exam
▁DNA
nLink
成才
mary
▁numerical
▁bearing
▁constrained
▁degradation
我国的
bye
▁securely
充沛
▁iterate
▁iP
▁graduation
icons
▁път
▁Category
商店
秋冬
▁army
▁enforcing
过大
提早
鼓
区和
各类
▁Generation
领土
▁offering
▁blurred
纳税
ž
farm
▁ram
▁Photos
兼任
ERV
nSeveral
●
两边
▁Brian
投资者
yt
会成为
bral
aeda
▁suspected
翼翼
保护区
被关闭
了一大
督办
发动机
有效的
▁eventual
▁(``
▁retention
▁reprodu
egin
货运
later
▁actors
▁reconc
stim
维度
▁BH
求生
cker
akery
nYet
跳
▁Dor
лав
推向
▁Kit
被认为是
紧
mitting
如不服
展望
▁grow
ubernetes
崩溃
▁podcasts
▁regulation
将要
▁mercury
▁bodies
▁Fut
▁riding
▁Discount
▁smoking
slow
<0x99>
▁Ver
▁concepts
的照片
▁Objects
÷
没办法
钱的
▁cholesterol
▁toroidal
▁Moz
卯
▁Pipeline
另一种
品牌的
而言之
顺序
▁sofa
▁gaze
言行
▁NGOs
▁shown
flat
О
▁shift
преде
<|unused140|>
by
Was
▁religious
▁US
中国家
最高
agle
>=
▁Reset
不断地
▁HF
OTU
▁Isn
含有
出院
nLin
▁equal
▁pointed
技术人员
кре
nEarlier
▁Rol
者
ы
电量
▁awk
LED
rophe
▁Mad
▁volume
▁bike
▁splendid
▁Во
迭
culation
滚动
遵守
extend
短线
decl
▁Cannot
▁Marc
ullah
无不
Render
photos
▁mont
nabla
▁regarded
ificantly
▁example
因为他
▁Meeting
bridge
ini
▁benefits
▁honor
▁Color
▁laughter
▁equipment
▁Serv
▁path
Mr
你想
文创
▁sandbox
普京
▁indicate
▁inspire
uren
寇
伙
▁temps
仅
reducible
房企
▁atheists
coming
▁argu
irting
的认识
des
▁coils
kernelspec
▁secretary
▁wake
fel
▁Gender
了解了
iana
nWithout
▁NEED
▁yrs
▁Etsy
忽然
▁actual
▁projected
▁LLC
equiv
▁barbar
学生会
▁Kr
欠缺
uncture
▁poop
▁rom
▁herbal
▁appell
▁coral
宝石
▁evaporation
莓
Cur
科比
唱
翅
招商引资
▁distribute
▁MLS
占总
links
电池
私有
▁dense
全班
▁polynomials
中小学生
初恋
▁restore
arg
▁cares
ny
early
雕
京城
iano
▁standard
propto
▁Push
裁员
▁Dirty
<fim_suffix>
无忧
mlin
nShe
nLast
▁ans
知名的
▁conve
碰
陽
▁FC
Protocol
▁Brick
抗击
定为
树上
itate
▁solitary
jing
該
▁==
广播
▁about
▁Historical
▁Phase
▁Dro
annels
▁Zion
奕
六个月
▁Diabetes
▁administ
ele
▁happ
nToo
的妻子
究竟
aic
nMaybe
段子
nCategory
▁academic
对口
hest
▁run
▁scheme
▁communication
感悟
创新发展
CU
angle
стория
▁traffic
▁Calcul
▁Otherwise
▁BF
必然
考研
▁applicant
nthetic
完后
瞄
▁GPA
采访
▁tries
我校
▁privileges
itts
▁Pet
urst
▁TO
▁register
▁stacking
nDam
rity
▁trousers
▁exc
我们都
國際
▁practices
RANT
heta
▁planner
仗
lers
initialize
叹
统计局
amily
▁photometric
▁Haw
▁uniqu
ottle
ATCH
BH
ug
你能
▁reviewing
我最
光
<br/>
电机
愿你
▁application
编号
一滴
亲手
▁Syria
price
我们对
Stats
▁forgiven
他的
劲
制度
thouse
quantity
▁Contemporary
說明
▁party
ocese
创建工作
theo
uncher
▁Military
ahler
无视
阵
他们对
plates
▁Titans
<0xFE>
▁Кон
▁rearrange
los
▁exact
arx
河北
改良
udev
▁infinity
逆行
nSubject
中心的
FB
▁questionable
ington
▁fringe
▁Wendy
nPublic
死后
群体
rystall
anges
AM
敏捷
弊
▁Mini
▁utilization
什么是
ambda
erior
的呢
▁Carl
▁gaining
ttes
▁Sister
″
当作
▁normally
▁unfair
▁Instant
▁Jose
廠
飲
▁programmed
Time
+
目光
▁Yo
▁Village
爱尔兰
停电
▁tipped
▁accuracy
润
quit
So
日的
预备
caled
▁Mall
毒
▁comple
↑
EC
ava
队员们
▁Keyboard
提交的
▁Nad
tdef
▁luggage
▁positional
臀
ground
萄
测算
▁mentoring
轮
也只能
epoch
势
几
Hand
▁newsletter
enumerate
rack
发布的
帜
▁Counter
询问
蛮
oco
▁Partnership
▁FDA
初步
byter
▁vet
▁Utility
▁taxed
)-
▁dick
场
锅里
iffany
▁Mpc
合计
▁Several
umerable
▁guilt
募集
▁worms
▁pointing
▁answ
▁Homeland
總統
nV
舌
^{
▁buddies
Three
Abstract
▁Corporate
▁scrap
nby
令人
▁Grad
Length
运用
▁occupy
▁Bald
▁spook
手柄
冷战
当天
▁situation
星球
▁Wise
clud
cribed
▁nowadays
▁champion
▁feeds
▁regrett
Post
足够的
耕
▁ounces
▁Very
▁continuation
女王
animate
▁humble
则会
的人民
▁Ferr
辉煌
××
1
Source
拿来
nyour
RN
湃
▁Discussion
▁OL
uned
volume
ncorresponding
仇恨
▁Violence
▁Patterson
DB
aul
izarre
nwhen
股价
correct
▁averages
▁confirming
▁He
adium
▁participant
gies
▁payoff
bird
举措
catalog
近距离
印刷
RED
}\\\\
ierarchy
ribly
▁watering
uh
▁crispy
Cmd
Feed
▁invariant
▁cakes
▁footing
▁organisations
▁preparing
Commands
▁RI
琐事
锰
тур
被告张
▁tetra
▁User
發表
▁decomposition
避险
iku
可达
nstill
ATURE
org
▁carry
代表人
优于
eh
coat
setup
lyn
▁fibre
▁unjust
Vec
ptions
工具
浪费
jb
▁Dodgers
▁crazy
▁End
廖
辭
▁photographed
年内
贫血
战士
人生的
▁bas
▁deton
能力
▁ком
Friday
输
▁Zero
head
▁[];\
卫视
averaged
蓝牙
职业
<|unused139|>
upiter
ognition
{"__
▁Car
▁db
▁Stockholm
都以
清楚地
京剧
▁modality
对其进行
▁celebrated
▁presentations
影响力
▁Through
▁administered
CEPT
▁backed
▁vinyl
ncon
▁morals
并以
<|unused064|>
▁computers
也开始
▁Cond
▁fired
ek
ogenous
的工作人员
事实
mia
▁recursive
閱
MjE
▁oriented
▁storytelling
▁invasive
触
▁Check
▁lick
家风
▁domains
财政
Orig
▁beads
▁view
表面上
'}{
Q
辟
nOpt
▁arbit
主管部门
requently
▁prepa
主编
▁sympathy
天下
用在
nRom
ceive
ptr
故事的
year
局副局长
any
▁sectors
onent
aha
inker
航空公司
into
▁swelling
卫生院
充当
▁encoura
▁Ore
后被
雯
▁basket
沮
玩的
]}$
▁fewer
nAltern
nme
侠
▁rebuilding
\"))
▁CPS
▁outreach
ham
▁underlying
mented
已经被
持續
▁"__
▁conventional
мет
lose
▁Ele
▁debit
▁Ф
现金
文科
▁generalization
挤压
yards
▁Swed
住
迭代
itism
▁Pick
tuple
▁descendants
并发症
重
▁circ
indexOf
Chunk
五六
给你的
母亲的
孝顺
▁Wizard
▁Sur
线条
hus
powered
撩
制宜
宏伟
▁Browse
▁Shi
▁wary
Che
专项
期望
opp
▁nodes
tvolatile
敬
▁сте
▁tasked
mile
▁customer
▁Secret
点的
▁GE
中了
▁Lear
原先
▁Marsh
suff
Н
要
故事
▁saturated
Liter
▁awesome
▁st
▁baggage
大
▁shutting
ledgements
身上的
本息
好的
Sch
▁seize
nov
簽
omial
知名度
▁cigarettes
spec
with
▁physically
▁ordering
海底
nPhotos
▁Gib
▁knowledgeable
▁retarded
▁displace
▁verbal
他家
艾滋
▁forensic
巧
▁competitions
ación
▁Hawaii
▁witty
▁devote
孟
▁DH
兜
羡
白
▁AL
换届
▁smoothly
▁region
▁Feel
芦
承担连带
皱纹
▁Refuge
砂
▁subsequ
nsim
isk
javascript
▁organic
▁moderately
;->
-(
進行
▁Manning
В
评判
罗拉
反应
hift
endas
▁diluted
副
巴菲
率达到
ymmet
▁rush
质感
蔽
▁farmer
崩
▁followed
兆
颈部
▁Bou
创投
向你
亢
▁circumst
priv
快
Bre
roup
器件
ellect
▁copy
ngreat
Money
iami
▁happier
avour
诉请
tau
Dep
▁Pred
nLocated
▁Bengal
Ban
改
▁пу
IN
▁guidance
▁Cons
浓厚的
颅
▁avid
▁Myers
保持在
则为
▁revel
%-
▁extrap
▁Ш
着实
▁L
主张的
чна
▁illuminated
friend
ashing
▁day
<0x58>
▁Organization
▁SELECT
requests
iem
▁aka
有两种
Now
vectors
詢
億
violet
▁drap
riven
▁HP
nPhil
classical
EDIT
可行性
谅
要是
jp
▁Damage
绒
势头
中国科学院
(&
vel
▁sought
代谢
▁Bradley
Qaeda
ré
▁pel
Nav
▁пло
rill
仍旧
▁managing
▁brewery
▁NO
st
▁blender
)}^
本院
market
愈发
▁aggregate
iture
▁TE
▁venture
▁overweight
将持续
task
▁Intern
Prom
started
▁moderation
nMobile
褐色
唾
说他
nshown
raded
▁(-
cue
bserv
▁suppl
月以来
▁mid
▁deadly
▁Ethiop
重点关注
POSE
化工
▁misleading
▁Bund
ughter
▁The
▁demon
不方便
▁chatting
严
Clone
▁pick
▁endors
暗示
離
不了的
崇尚
gu
譬
▁prosecution
▁echoes
遗
(){\
▁dumped
▁Anch
执行
▁penetrate
▁Pearl
rupts
肢体
>)
▁Tri
▁succeeding
其實
▁itinerary
宜宾
Journal
联储
▁Bon
▁french
活性
茄
they
WB
Tunes
安排部署
😉
▁ending
▁blessing
/(
uously
为大
iOS
isot
▁Север
暇
▁propagating
▁ав
常规
流浪
刺激
temp
殴打
一层
网格员
▁craving
▁Ге
nTurn
▁Professional
Fac
guy
外星
▁axial
▁age
▁imagery
▁Vita
avity
酌
腌
▁questioning
▁collectively
▁lure
诠释
竭
▁tags
之于
▁Applications
工作的通知
▁pale
▁grabbed
散热
在家里
推广
▁lips
她还
诚意
梦里
题目
▁wait
$)
aud
预言
nMatthew
▁famously
▁Seg
揪
Ä
Language
▁staring
▁assign
等着
nWhenever
▁landmarks
=\"${
eople
contact
提示
ahah
建筑物
地區
▁Clinic
мини
▁unf
▁humans
Begin
▁triples
味
潇
爆发
泰国
▁helicity
FLAGS
nSoft
猪肉
发送
Pred
电流
ILE
奇妙
▁deserves
▁fault
▁OK
MH
三名
废弃
并
lobal
仪式
追赶
▁Att
个性
rfloor
一些人
菱
▁plain
未曾
▁USD
三个
▁friendly
▁hundred
山村
良好
止
▁tro
应有
女人的
丨
ierarch
▁youngsters
▁practically
▁eagerly
流动
▁Tracking
▁rescue
msg
tiny
▁demol
bum
▁transitions
▁Hat
▁Discovery
}|\\
fits
▁crossed
▁adventures
▁Де
婴幼儿
小花
▁ще
hint
螺
铜
除外
state
▁Sab
▁salvation
你有
类别
▁silicon
蒋
▁seasons
nSarah
▁dispar
▁poured
及其
progress
▁senator
▁Console
体贴
surface
从严治
^+
气候变化
▁Revenue
;&#
<0xAD>
每年
驻村
etal
shop
限
常有
困
irling
裁判文书
imit
得不
发售
▁arithmetic
▁complained
脊柱
▁devast
到来
trade
▁hair
▁deriving
▁ensembles
的工具
▁yourself
化学
中含有
杏
▁Cubs
▁Graphics
逐
載
外国
鳞
▁Jos
二〇一
▁Harvard
交通工具
▁passed
▁smelled
▁tender
two
▁illumin
▁GF
aceutical
昕
化的
▁Lam
的黑
osphere
干嘛
阿姨
纪念馆
跟她
▁Messages
语句
▁Interactive
orm
▁capable
His
欣
nassociated
Phase
▁rhythms
议论
▁NCAA
nwould
驾驶的
▁low
▁bacon
笨
typescript
▁Vert
菩
慢
nEnter
mask
▁gender
join
工委
▁Define
raining
▁Von
▁loneliness
пер
虹
▁NR
noperator
rote
March
▁Suzuki
▁deficiencies
▁illeg
并为
▁spo
ANGE
_{|
телите
水瓶
Byte
nany
nmin
UNE
▁essentially
Ass
▁cosmological
▁Ben
成语
▁john
腹
满满的
▁TH
起到了
龟
产品
▁Anderson
削弱
会展
itures
很有可能
▁coined
梵
nind
▁rainbow
elli
▁mish
遇
▁patents
isin
赵丽颖
举
ique
真的很
▁Higher
身的
▁origins
的話
汇报
nJo
的表情
pir
ynam
表扬
试卷
新一轮
<|unused099|>
▁stret
▁Hay
脚步
▁nont
▁allergic
▁Rod
▁google
igrant
otential
▁analyses
▁Bloom
ark
▁Tro
和孩子
▁laying
▁tank
please
开通
▁Luna
▁bakery
aram
讲究
★★
▁yogurt
的书
裏
▁curl
November
symmetric
internal
有这么
▁cardinality
▁Result
▁Rag
拓宽
apis
渗
牡丹
▁Ltd
▁March
多位
▁embrac
▁derives
前不久
'$
外出
ete
环节
Flex
▁characterized
新能源汽车
丽
▁sudo
сно
Plane
世人
▁Epic
Classes
立即
等
驗
jud
▁Explore
▁shallow
▁Social
nSuppose
▁lingu
▁encompasses
激烈
npl
sche
idden
康
▁activist
▁literacy
▁Educ
▁Mock
▁Alien
▁arcs
▁$_
ermed
dam
老师和
余
执照
▁baskets
sharing
▁Й
▁Choice
Struct
▁Elliott
▁detected
nEnd
peria
iable
nprivate
ccer
子孙
用来
▁Miss
看来
▁Pot
剧烈
nEffect
ATT
测
▁Ire
***
新高
▁Chev
清凉
▁cheerful
再生
atical
石
update
处女
职业技术
▁Markov
合伙人
▁procedures
的那样
Intel
essa
▁Hybrid
Release
Nat
VB
▁shitty
做生意
▁while
▁partnership
太多的
machine
▁Scha
饮料
不予支持
▁respective
▁paper
的长度
牌照
▁Ос
经济
▁Information
▁snack
▁sketch
meter
会议精神
Unknown
▁Message
绿色
汇率
话
以外的
ider
移动
▁precip
▁amaz
▁indic
AMES
▁Waters
▁whisper
▁AST
很多
isible
uzz
中说
他和
证明
бва
friendly
▁reactions
▁hole
▁philanth
我不会
▁curved
mol
%;\
光泽
洽谈
瓶
当年
组长
eb
▁tang
▁oath
▁recover
▁Stern
▁loser
▁Lego
华为
同日
DAQ
dependencies
▁val
大量的
aja
ovo
▁disappe
旋律
▁lowering
唤醒
帶來
离合
Родени
两大
支行
▁did
ificant
uw
{\"
▁PROC
≤
▁crafted
Obs
eterm
▁Wireless
bast
▁allowed
▁NYC
inte
▁endeavor
bbs
inal
CNN
nTen
▁Customs
感动
ucci
▁reinstall
money
KN
oria
七个
$\\\\\
▁Alex
;</
▁favourite
▁double
▁covariant
▁Num
▁duality
roduce
▁Strat
▁override
生抽
nthem
样
ree
其实
▁Sessions
▁funny
▁Това
Central
可以看到
德华
emale
utt
▁Marco
复发
▁conn
▁FWHM
亿元人民币
▁ERA
dB
insky
isal
▁extract
▁y
▁misguided
皂
我们是
“\
num
递交
▁passion
njust
防火墙
nAL
之内
erek
sid
▁nor
就去
saving
ados
侧面
拨款
▁COMM
•
icks
▁Rabbit
Ok
▁buyer
育
arent
▁aloud
scalar
还
ORE
▁dark
▁drama
深深
▁princ
常务
▁crush
ynchronous
荐
命中率
外面的
^{+
EFI
摄像头
abla
共用
kon
ffield
▁Source
▁clim
annie
领导下
ão
▁confessed
手工
ademic
咧
北极
actual
▁intrigued
zhu
治理
▁United
▁Alban
愈
函
关
Park
▁sway
▁xxx
矿产
还记得
ン
intent
attice
汽油
nTotal
养分
some
▁Choose
▁outdoors
ento
▁Texas
▁convergence
nItem
菲
OUNT
可不是
▁renewed
Aud
快速的
Jeff
DA
▁FR
nAbove
nSchool
▁artifact
玻璃
atta
▁优选
▁compete
或者说
▁Opportunity
男主角
▁Word
▁>>
值为
▁Vlad
▁propag
▁rooftop
Х
最后一
▁Middle
▁npm
▁cm
▁positives
_{\\{
▁lasts
▁debated
sticks
▁except
▁provider
尔德
谴
父母
textcolor
高原
▁pulls
ESE
▁fits
乃至
▁latitude
▁fier
曹操
▁Syd
▁Path
▁Des
POL
ame
叭
▁square
居然
▁attitudes
ichel
▁Sterling
民间借贷
▁ridic
chat
TS
uese
二维码转账
▁bases
摸索
▁flight
MASK
城里
这样
ρ
救援
▁PAC
▁}}\
<0x0C>
▁Bir
建立健全
▁gay
酱
股市
父
▁Einstein
▁ceremony
的张
▁becoming
▁Madd
写在
cedures
show
党委书记
是否存在
▁lettuce
▁pg
相思
▁sketches
exchange
依照
▁crime
break
▁rocket
pop
ято
生育
▁reloc
▁realistically
▁Breakfast
▁militant
AK
▁Unknown
Rep
▁flying
▁explains
exp
▁“…
▁cutting
▁dungeon
hal
并在
**“
一审
nEvent
百强
被
▁Ent
▁random
的分
ospin
试用
AMD
▁corrosion
ool
huang
服务站
▁Libya
male
$^{-
▁fractional
的一面
农家
评定
olia
–
usercontent
拔
▁generator
&$\\
fo
工作队
eme
ift
▁Boris
服务业
▁Amer
nrepresent
зват
▁wisely
▁Parking
▁hive
▁Sub
▁willingness
▁train
天秤座
开业
往事
hair
▁VM
▁Дж
监委
▁Carnegie
段
如果有
▁passing
▁Journal
▁advertisement
▁Coordinator
害
再去
短时间内
▁girl
参观
▁ey
非公
▁have
▁shed
▁Indiana
▁amendment
▁selectively
但是我们
伴随
▁footprint
smooth
越多
▁Wes
关键是
ATOR
nan
博士
callback
升高
JP
▁shave
xin
联盟
▁Lamb
gged
▁TRA
▁tid
▁presentation
工程师
▁comprised
通知
找出
在未来
cod
率为
▁force
ZA
<0xAC>
▁PU
质的
uci
▁Charity
▁genetic
▁много
▁equipped
▁Associates
minor
pressed
屋子
Models
掩饰
观
▁serial
Mix
bi
▁dipl
ninteg
体
覆
)>
icable
href
年轻人
亂
$}
▁Level
低价
他是
▁dressing
他们的
OUP
су
瑰
不少
来看看
▁Third
eline
业内
▁atmosp
▁pinch
▁automatically
宅
Visible
陪审员
消防救援
scatter
▁Length
我便
这个
▁ACL
▁Dh
mixed
August
▁learning
▁constant
▁smile
同居
becca
▁prince
nRec
▁abdominal
▁heav
都没有
党群
▁render
sets
gency
ette
▁enthusiasm
▁Plans
nCurrently
Rule
reedy
从未
分成
Д
TOP
struments
▁sports
▁Monthly
像我
▁rud
课堂
顾客
▁breakout
湘
味道
滕
頭
nfound
▁PTSD
之分
ст
▁privately
antan
这样才能
tcase
性命
points
处以
河道
PB
中来
Gu
nmake
ADC
▁#
▁hormones
вно
▁honour
Customer
OUR
nton
▁coached
▁direction
▁celebrate
▁Chen
体质
NotNull
▁George
这就是
▁dielectric
▁idx
▁invoice
▁Fleet
为什么不
▁protesting
▁unaware
▁persuade
造林
\\-
▁recycling
各县
重疾
▁changes
案件受理费
]=
▁terminology
Ty
▁Luis
)\\
▁decides
aman
更喜欢
帖
mitted
创伤
一生
▁regimes
之气
nJust
▁throughput
了中国
金星
▁SIG
激
enburg
▁restrictive
时间内
剪辑
nits
条第一款
没有任何
正式启动
beans
nod
Callback
毕业后
istance
誠
▁stigma
▁excav
nPlace
千古
OS
asp
▁stare
我是
可控
▁buoy
increasing
▁transverse
▁powerful
inition
不光
還是
ai
sl
ropolis
ulating
更多人
ittest
骑
冯
▁Alan
祷
克林
认定事实
▁shorter
安静
全
▁Mint
({\\
itzer
芭
select
拥抱
enu
Once
印象深刻
付出
▁summation
列为
归属
漏洞
▁DLC
▁wounded
自卑
event
rift
髦
cond
尽职
EA
型的
nHead
▁grab
<0x20>
▁CL
▁FIT
等重点
'][
OLS
摘
七十
Br
了一张
勉
▁schemes
▁most
擊
сле
▁Alpha
▁launch
building
▁neat
限定
▁annual
▁tired
可用
▁conting
Payment
▁decade
舊
▁insisting
▁massage
winter
‎
▁sprayed
marked
textsc
icating
▁wines
ough
▁GT
▁squir
慢慢
衰老
搅拌均匀
▁Gibson
мпи
付费
爆
DOM
▁PS
▁[…
▁reveals
Helper
anding
▁conf
复议
▁eV
▁simplifies
階段
发挥
▁hyd
arth
进来
CDM
谈话
的长
ail
▁stag
难受
▁rebellion
兴业
▁familiar
团的
符
[]
▁Wars
▁Wi
▁coveted
Cons
▁grav
▁pic
▁constitution
夯实
▁impro
regular
UMP
▁една
▁Raf
桩
<0xA2>
▁Bulldogs
ch
不要太
▁anchored
▁Abstract
筹
tName
ames
０
▁DNS
减半收取
混合物
▁dislike
ipe
▁appreciation
▁tandem
itle
▁curve
rands
edience
▁attendance
一辈
▁hypoc
NASA
Ord
地上
机制
▁Follow
▁redirect
resize
ermark
onium
几个人
▁setups
science
posts
▁prolonged
▁rallies
archive
纳米
▁casts
▁exem
的金
▁absol
}-{\\
nSU
▁wack
▁introduction
▁phenomena
$};\
Alignment
":"/*\
植树
虽
拟
瞩
harma
nAct
▁ket
SH
▁English
▁yes
注意力
▁pee
▁traced
过程中
Qu
▁speeds
愚蠢
▁chassis
▁refine
track
▁behav
▁perfection
增
姚
+{\\
Command
▁Full
▁advised
▁Sunday
▁drove
▁admittedly
中风
▁noble
ICO
▁Sah
周刊
飙
定制
▁Но
PES
煙
nsub
在线
▁Holl
洗净
▁nutrit
▁anne
这些东西
▁din
…”\
２
▁carbon
▁qubit
rite
避免
▁Brisbane
▁happiness
我所
▁Nest
化为
原来是
▁rested
▁dil
得太
<0x3E>
▁encounter
这么大
cd
▁find
的操作
▁wor
Ing
到处
▁Championships
絡
隐
▁recorded
所长
叠
ind
最初
^*\\
快乐的
)$
iso
无处
▁Ukrainian
▁{{\\
▁Thai
规格
nPar
undry
▁headed
▁backlash
复印件
quently
笑容
displaystyle
▁Plastic
▁adjusting
▁Karn
在面对
一部
▁defic
变量
也表示
▁sister
▁studio
▁nurs
第二百五十三条
▁optimizer
▁Dodge
寒冷
迎接
处在
▁писа
長
////
Student
Mil
▁bim
\":
▁flashing
prin
点缀
起了
▁political
nApplying
的症状
▁witness
rpm
陵
▁waiting
▁Teacher
▁tremendously
▁resident
▁bothered
冷空气
rapeutic
▁embro
raphic
▁percentages
▁Create
$-$
▁destined
ersen
тов
温情
itime
程式
▁Stri
▁integrate
中国的
自己的生活
的结构
arp
姐妹
▁lum
▁ус
▁battling
nDesign
▁Judge
▁computationally
Runner
▁Gray
diagonal
ilson
hematic
▁dozen
RAS
▁iterator
新品
不得不说
▁narc
聚集
为止
太好
▁deep
汽車
▁NA
缺陷
吃不
non
日常生活
散
王子
kswagen
玩意
IFT
一辆
▁embarrassing
▁document
▁kale
▁dies
▁visc
▁Flowers
橙
生的
恋情
无忌
▁Think
exc
MER
▁even
izard
rant
го
▁opportunity
不死
tlet
cpy
▁judicial
String
抽查
标志着
▁peg
make
一经
变成了
ittens
<|unused145|>
uparrow
▁architectures
辱
bind
领取
▁Rental
ndec
柑
▁personnel
eto
一瓶
借款
▁ph
▁scholarship
▁immensely
IPO
avatar
的是什么
▁third
▁amid
▁书
吧
鼻子
cot
世紀
▁des
螺栓
iefs
▁tweak
wl
wh
tree
▁Amendment
ulse
节省
scroll
oth
▁tricky
吸取
打进
还不如
peg
之
Tx
Analy
大哭
很低
▁acted
▁mission
寻常
try
油的
这几年
▁Town
▁полити
她也
皆是
aper
▁bun
▁smart
▁transform
產業
分明
itt
▁says
律师事务所
▁passions
asset
▁Frankfurt
坪
无缝
挂
学子
▁spokesperson
artments
變化
uc
▁Collection
lasses
▁alternate
abilities
缅怀
▁HIS
吓
cit
ansom
▁temper
▁Nursing
▁attire
nPart
▁parents
▁coordination
▁stemming
气和
▁Sov
compile
▁sovereignty
tool
▁risky
placeholder
月份的
是我
的重要组成部分
绸
▁Table
▁игра
<0xBB>
▁tee
▁Graphic
人民政府
▁или
▁careg
fh
版权
要坚持
毫不犹豫
▁irritating
nHey
本场比赛
漸
盈
▁gasoline
▁soap
世的
私下
▁cursor
xchange
▁appointed
▁voted
▁whe
▁implicit
ño
▁Baltimore
十
▁capitalist
▁ISO
▁climate
pragma
光芒
特
▁calculus
轴向
tIn
▁evil
att
▁stealing
相对
▁Disclosure
了一件
▁greedy
▁utter
▁ръко
那我
abouts
▁repetition
▁darling
▁Rom
▁minimalist
▁clients
java
加持
omer
▁medicinal
物联网
▁Slo
充足的
▁keys
▁Earlier
▁Treatment
ational
▁threw
活動
全域
误导
雅
有利
爸爸
床
大道
orkshire
Az
世界杯
▁coherence
ド
▁DA
фор
▁Zoo
▁Spark
坟
naround
不掉
ophone
係
▁annoying
gress
nFurther
▁clubs
▁narrowly
▁many
color
ooter
▁bar
有所
▁joke
都比较
▁Jessica
热线
▁releg
▁increases
nFollow
\\}\\
我
suite
posed
те
钧
▁faulty
组织
谈到
▁virtually
▁Mega
毛
PC
▁Gem
▁живо
finals
▁winding
Sort
▁enjoys
▁focuses
逼迫
▁birds
轨道
大都
亲
▁convective
▁derivation
机型
▁mimic
▁nuis
黑的
校内
▁Atomic
打扫
呼吸道
▁Century
锦
/>
vg
天子
▁Gardner
spy
何
▁Fed
mation
▁lover
ISS
▁minority
|_{
logo
$--
nAssuming
ivers
▁Haus
>"
ръ
远方
大哥
岁以上
▁intimid
VC
##
▁Trading
▁mb
▁Drake
呆
▁corruption
时刻
ilogy
bound
芋
htbp
▁Album
应用
▁ab
▁Apache
simpl
办事处
小红
nArch
醒了
orel
EEK
▁eligible
客车
▁photo
▁Ak
Dead
icide
<|unused119|>
过程
window
那个
▁Whatever
▁footwear
▁max
aci
▁Virt
▁celebrity
ouri
▁plane
銷
aching
世俗
▁slope
行程
▁hath
四月
我曾经
会增加
blems
▁Norway
Spe
▁wield
面向
也希望
avirus
▁William
积极的
came
Export
Visual
Te
音樂
▁SET
<|unused113|>
кс
气象
addr
▁Dropbox
扩张
▁pictured
Pattern
bfa
wagon
▁dign
二〇
▁quantum
我心
nso
▁drow
maximum
Ast
nPS
▁MP
▁perform
共和
▁т
▁invested
colored
基本都是
五十
ylene
时候
▁mistaken
淘汰
ngener
端
抹
▁Aqu
槐
|_{\\
▁ignored
▁whale
自考
多年的
捷
▁guarantee
黎明
番茄
后来的
經濟
乒
▁footage
▁ban
標
組織
agnitude
vitational
民眾
实践活动
rict
▁whit
二极管
cons
▁brass
▁illustrations
▁Clifford
oft
vr
捐
LY
纪委
▁Scandinav
pse
▁declining
nright
▁femin
jer
<0x7A>
撤离
▁billions
▁amen
cid
▁flop
▁mentions
假装
▁neglected
▁inlet
验
▁hosting
nOther
业余
▁entities
▁transformer
选择了
▁CH
复试
▁MLP
受贿
▁Package
舱
▁sect
patient
Shop
apiro
▁substituted
￥
▁hero
multi
▁extra
********
兄
ene
dle
會
▁mark
悟
出售
springframework
ndb
心病
太多
买到
plate
▁lubric
unciation
扼
▁eastern
▁risk
镀
接过
ventory
认证
的颜色
▁une
▁Danny
let
▁Data
▁formulated
▁profanity
物业公司
▁Understanding
nIns
▁Rugby
tgl
▁distressed
▁Registry
抗氧化
▁Ark
reon
贤
显得
RM
▁peculiar
dem
争议
的具体
▁protection
capt
▁aut
▁strengthe
刑罚
块钱
支付迟延
这一个
录
▁ducks
巷
数学
▁referr
南通
uploads
▁ho
楼盘
▁hitter
迄
阶段性
▁burnt
<0x43>
bolic
四五
第二百零
▁minim
<|unused019|>
atz
师傅
text
————————————————
▁environmentally
▁desk
肖
大家都
只能是
ут
▁Levi
teen
我看
的品牌
▁Illustr
身为
▁formulation
▁Evil
▁Academic
思维方式
ll
▁repertoire
退役军人
行政诉讼
览
ordable
卢
装
ن
▁insensitive
sep
nOper
▁Sophie
▁removing
粉末
人居
▁Lotus
新闻网
ountain
聆听
工作和
nBlog
切实
餐馆
▁jurisdiction
▁lets
海鲜
▁lex
▁upscale
对学生
硕士学位
▁heard
原
oscow
侄
的数据
▁有
▁Views
None
▁brisk
▁err
检察长
▁Collaboration
▁use
ont
widetext
▁tips
▁tracks
▁Devil
▁weigh
▁analogous
ho
volved
cook
▁Kentucky
▁labelled
FDA
CTYPE
burn
\\}
heel
></
ETH
▁innoc
▁theology
▁sci
山的
▁Chandler
▁pr
▁senses
在此之前
喝
▁Nex
▁hyperbolic
赢了
▁pave
碑
ocolate
人才
產生
▁ecc
痫
/>\
我先
耻
Global
▁Barnes
巧克力
到我
Candidate
rapper
▁Employ
▁usage
orses
▁feast
▁mug
▁IP
atron
称为
厘米
十日内
▁Boolean
olecular
▁recommends
impact
▁Polit
ftp
Cert
nConsequently
HR
ntime
▁sciences
▁Kent
▁reminis
为自己的
<|unused017|>
▁represents
liber
▁split
苯
Selection
人家
三种
突出
ns
▁spells
▁collection
▁centre
成交量
icas
规模化
enta
▁Located
显示
喝茶
mak
运动会
Attribute
tF
瘫
▁penalty
Player
Delete
iz
features
▁Crim
▁survivors
墩
面对面
rivia
▁Ear
ertainment
▁FY
疗法
▁banking
手的
蜘蛛
▁paradise
搬家
ensional
▁Needless
▁posting
▁envelop
れ
fade
;
決定
▁Ray
rino
hesive
▁Fee
▁Cla
askell
▁Kan
earning
▁mortgages
明的
<b/>
▁story
▁''\
▁Manager
軟
unknown
在意
▁Br
控制器
▁Donna
就算是
容忍
▁socket
و
▁zombies
▁assault
以来的
cho
鬼
iversity
distance
石化
rition
▁trajectory
▁Rock
Face
▁into
urface
过渡
后再
tuning
nRegardless
▁turnovers
nClose
服务和
癫痫
隶
▁Consequently
▁duty
catch
▁Lane
omal
▁current
▁contain
<0x25>
你现在
制度的
▁Accounts
▁Darkness
發展
拍了
切除
▁Jon
▁capacity
J
▁disputed
冬
▁everyday
剥夺
▁гла
▁Hugo
葬
ractable
不那么
▁gastro
}}^\\
\\[
的李
▁EF
▁monkeys
▁killed
▁partic
”\
▁government
iety
▁gear
云南
GeV
吃了
▁Leban
同一
做饭
▁soy
▁Cur
vare
▁resh
mother
▁decay
▁redistribute
poses
дра
▁dental
FT
吉祥
ラ
erick
昨晚
subject
雷霆
licenses
nLocal
示意
▁▁▁▁▁▁▁▁▁▁▁▁
极致
pas
值
人民共和国
bugs
▁GRB
▁hurt
▁mushroom
lantic
stood
▁electrodes
▁FIG
iere
在学校
才能够
Sect
布
ending
▁professors
finance
▁affidav
▁facility
Gui
▁daughters
走廊
▁astronomical
工作时
▁whenever
璃
次日
也很难
▁witnessed
报导
▁transformations
▁refrigerator
结构
		
▁areas
典
▁Apply
网约
▁Environmental
occupied
ENV
nTw
▁vapor
▁anytime
▁April
nFinal
卷
▁polls
干细胞
▁turbulence
▁automatic
Lines
▁Liquid
报酬
▁coven
nphot
▁articles
);
OWN
麻烦
嘲讽
▁Cos
수
▁She
处理好
▁waves
极大
我可以
▁React
▁conc
瑞典
慶
▁although
帮忙
直至
这只是
所作
高度重视
inished
▁shimmer
recipe
▁gown
лет
迷
electron
衡
▁kpc
▁remembers
oned
▁Understand
find
的两
ille
▁economical
物业
交际
倒了
▁Gulf
▁Tay
▁awaiting
napproxim
▁]\
ump
▁turnover
睡前
▁Scripture
▁Taylor
▁Sally
條件
▁valuable
GET
▁Shipping
cir
▁→
亿
▁Д
▁debates
ABC
信赖
栩
▁conferences
ill
▁ръ
母校
范冰冰
▁Gmail
▁Judy
一则
▁dishes
附属
▁makers
细菌
LB
考试
資料
▁mismatch
▁Associ
貌似
Widget
▁outfits
智力
▁Michael
了一
▁terrifying
▁_{\\
MDI
µ
這次
below
▁indu
▁beginners
震撼
anity
▁Sharon
▁Cabinet
▁exposures
▁bindings
mc
AP
▁Symphony
schedule
▁extremely
iframe
前行
Ad
osm
紅
REAL
▁chlor
说我
▁attachment
▁slavery
▁Prix
▁occurring
勇
寶
▁students
产地
ди
银
▁pulp
原来
▁voters
建国
mabaochang
nSign
熊猫
本地
▁Tamil
rightarrow
()`
岗位
深耕
轮胎
▁Crus
Bst
aty
领
▁twent
▁lunch
▁closure
▁relie
NDI
ik
Ep
▁wrink
吸引了
▁Salvador
fiction
▁maybe
▁Jonathan
▁won
come
▁triang
讶
gun
▁Whe
▁prompts
▁decorating
clerosis
▁tmp
▁pipelines
ерма
都得
心里的
Invoke
独
pup
▁Phone
▁defines
朗读
Done
rell
审议
▁Purpose
▁cp
▁contacting
etime
蚊子
▁Row
}{*}{
enza
▁increment
▁disag
clou
▁early
存放
然后将
也就
▁trap
nover
heter
▁moder
ndescription
▁typically
▁explain
uted
佩服
▁bouncing
的几
}}\\
orn
副书记
WF
▁pleased
icht
▁cafe
盤
▁assemble
▁significantly
▁pays
RL
counts
巾
pering
exit
▁cost
adian
)-\\
的音乐
▁caring
冷静
▁COP
▁finished
▁di
落叶
所得
▁所述的
包括
▁voy
▁blunt
▁Copenhagen
的比赛
▁congest
▁array
oli
得到
▁Book
▁Session
学年
POST
eating
廣
EPS
殷
▁bottle
workflow
ok
知道
nNext
▁Vill
支付宝
bang
▁halos
▁Read
▁Cleaning
Bank
▁cop
▁socialism
If
时间去
针灸
▁quite
▁southern
突击
▁Started
当前
串
一两
aire
▁developmental
avorite
▁Unt
你看
aya
romagnetic
结算
▁recurs
*[
▁gang
▁Missouri
公開
▁Grid
cknow
和技术
WC
numpy
▁trusted
nContact
▁baseman
部落
不通
三者
开了
▁CAD
憬
▁father
enum
▁Bos
Nzg
▁metals
▁***
pres
ohan
nAlmost
级
resolved
承担赔偿责任
磊
Product
典型的
clin
乙醇
ois
▁telescopes
▁VL
flush
你是
▁Lunch
faster
国企
参数
nOriginally
▁embell
荣获
nNote
▁defending
uddled
▁syntax
▁shells
想过
▁unanimously
滅
积蓄
▁\"'
install
▁relaxing
命
转移到
▁Marina
ERR
dec
▁prosecutor
聊天
不顾
nArt
android
^+\\
▁wardrobe
▁Prime
▁torque
zor
捡
mazon
ū
stackexchange
▁Ба
▁unlaw
▁subsidy
烃
时钟
致富
娩
▁ES
的她
碱
敦煌
▁challenge
中途
iability
respons
Event
设备的
皮肤
你对
ема
▁negativity
▁Croatia
向西
▁volunteer
▁surgeries
eland
吐槽
▁Chancellor
迟延
▁reviews
issa
破解
的意思
▁sculpture
written
’\
召集
▁scripts
▁breeding
subequations
Fire
茹
▁Trib
▁heart
fare
▁Thankfully
▁pursu
出乎
▁documents
▁west
那一
▁mock
往后
▁Auto
▁extremists
ulant
×××××
烤
▁training
▁philosophical
loud
School
衬
racing
狮子座
我会
raco
分钟后
▁definitions
合作协议
n
nget
▁Classes
type
四面
在
▁Equal
NzY
tek
▁tast
▁Salv
▁concept
▁Lil
▁Promotion
▁Whether
注射
▁NH
▁master
赖
▁position
▁Flo
▁upfront
欣喜
▁quests
lection
▁skiing
▁raped
▁bool
▁opposing
beit
候选
▁ghosts
想吃
▁Analy
▁metabolic
▁全球
医科大学
▁sharks
nblock
相互
真实的
abo
фе
分为
错过了
这一切
▁conveniently
olan
霖
▁subreddit
iesel
她又
<|unused144|>
▁Bed
thy
▁Boost
▁pristine
▁diligence
▁penny
将来
lp
▁laws
Locale
aku
▁England
▁Palestinians
▁add
这一
xl
▁nucle
Ap
▁TR
▁colleges
toEqual
История
▁coaching
▁Immigration
▁Unlimited
▁rul
克尔
布置
后面的
nrespect
▁effort
厕所
底线
sel
вод
▁campuses
nPerformance
簡單
无常
腕
困惑
cab
urger
芯
▁manif
▁Prim
mania
或将
殺
▁Buc
▁LF
访谈
ective
▁Around
▁Angeles
weg
▁pur
setText
secondary
评比
▁highways
MzU
bing
▁dro
す
▁Kin
▁score
nResearch
arn
<|unused027|>
Set
贫困
▁ejac
理想信念
深深地
Micro
▁Alice
▁technical
Init
sci
▁Bread
漾
孵化
!
珠海
rink
nMac
▁vigorous
宜
目的是
nMid
▁sky
▁caul
Jim
凋
▁equivalently
disable
ringing
Validator
▁Tomorrow
efully
邱
程度
扫描
的空
Dataset
▁transactions
ir
▁Services
▁taxpayer
秃
消费者的
▁arcade
缺点
▁automotive
化
▁Farm
▁vibrant
▁Writers
▁Procedure
渝
家庭
▁gor
aleigh
нес
▁cruise
▁permanently
警惕
▁theological
毅力
▁tas
民政局
▁вла
▁Eight
▁hassle
▁paved
endy
预计
商学院
}\\{
挑
▁Streets
Copyright
resents
======
networks
▁refrain
了一段
▁Distance
立卡
同时还
▁PRE
rase
nMad
unes
晨
有点
的双
RO
能耗
▁offsets
霆
neutral
п
▁internationally
▁Algorithm
wartz
assador
ride
▁gover
工业化
▁bubbles
headers
热闹
但因为
†
非常
nrel
观察
ent
▁DL
lord
Delay
▁challenges
buttons
▁safety
中超
▁continental
▁Laboratory
▁exploit
▁disasters
起来
当日
片段
Ga
堵
Trace
Connection
班子成员
薪资
umed
leges
昱
▁builder
ueless
▁Machine
ция
▁Commerce
万事
▁Engineer
draul
▁bleeding
lation
都不会
▁tor
”(
trained
老虎
实事
▁progressed
▁outfit
▁era

对应的
车队
串联
判决如下
▁caution
plots
他们也
blogs
人文
=\"\"
▁uncle
过硬
cyclic
Cl
骨头
关口
▁Tutorial
▁influx
尤
atsby
▁aquarium
JB
▁releases
輛
▁Count
▁Lad
▁▁▁▁▁
closed
▁AAA
▁simultaneously
icator
▁Phillips
逗
本体
内心的
teenth
▁torrent
alleled
column
▁categor
▁rabb
▁safeguard
▁pla
小孩子
种类
▁murderer
坦
细腻
▁cosmology
霄
redd
buster
告诉
▁dop
AJ
打底
)){\
体上
GD
参观了
▁“
▁isotropic
刚开始
<0x27>
▁Clinton
诗句
▁garner
▁uniform
萃
▁patterns
▁perpendicular
PLE
▁Colombia
▁dex
▁allocated
杀了
jack
medi
达到了
▁sav
▁място
▁introductory
▁Roman
修
眺
ergy
fee
▁earliest
▁Banking
▁prolong
identified
的重点
▁Pen
▁breakdown
▁dans
▁state
▁heroine
来形容
redirect
抗原
oting
udden
Autom
斩
▁stabil
听听
conf
East
▁excess
estion
▁cyl
负面
ATH
庞大
▁Major
围绕着
▁Cut
计算机
plication
fig
arty
▁thousands
捐款
常州
▁she
Tab
建筑工程
zar
注意
▁jokes
搬
▁sheets
▁neglecting
论述
MU
贵族
▁villa
itude
被捕
一辈子
酚
WL
▁despair
也是
在这种
Answer
▁booking
/~
对接
▁cherish
▁homeowners
▁cur
▁lad
initial
孤独
讲话
▁clause
▁terminals
▁Ра
isites
▁ebay
▁IPA
▁frequently
izon
引起
院校
▁Kind
De
结构性
这是
利益的
了他的
ersion
odor
▁preschool
▁Makes
▁Derek
▁workload
▁weaker
▁unforgettable
为此
▁ribs
▁Host
unit
延安
楠
▁adiab
剧中
Item
世界
预防
▁qualitatively
▁noodles
▁coins
▁enrolled
▁Kepler
磁
▁socialist
▁Byte
вер
py
▁Lee
▁green
活动中
▁Division
limit
君子
rator
Distance
▁territories
▁disput
檐
pass
▁Parkinson
▁Fly
otions
农业生产
▁ninth
examples
派驻
ubl
葛
▁downward
▁KC
expr
nConclusion
▁hass
被动
▁compiler
别
发病率
gro
一直以来
借条
nTue
▁explained
形态
感和
的脸
\"));\
条规定
▁extracting
▁antique
There
ception
汲取
在这些
峰值
anmar
已
ATIONAL
basis
}{\\
▁limbs
▁Kong
ds
复制
spa
▁endeav
▁Patriot
民办
isl
perform
俗话说
▁royalty
▁explode
▁limitations
rades
Img
bid
▁either
nO
nInteresting
雪
nAc
▁Marketplace
++\
Page
▁undoubtedly
關注
▁дру
<|unused070|>
nEss
不舍
FET
种族
▁puzz
花
剩
▁visitors
▁PR
▁excuse
kk
udging
▁erected
nMarch
▁maternal
剪刀
咳嗽
稻
▁shortage
▁Mo
meric
文件夹
BE
Vote
▁tin
campaign
优化
▁Eve
Creat
▁var
iga
▁reluct
其特征在于
今年以来
▁fant
鱼的
▁timestamp
▁vanish
▁scroll
庸
▁rugby
itty
▁hug
▁circum
藉
输入
▁med
反诉
丈夫
▁exercising
<0x5F>
ever
creen
zip
中西
▁matters
▁secrecy
庶
hence
owns
ima
▁podium
journals
▁predominantly
英雄
read
lim
自驾
▁quarks
▁este
▁petty
▁median
瑜
anan
Write
旧
▁Opening
▁complimentary
▁Sherlock
逆
THE
▁Daily
itudes
哲学
inner
appropriate
▁inmates
usion
▁intens
ib
PDF
indsight
菊花
很明显
人大常委会
机关
▁Beast
▁embassy
unicip
eng
▁tiger
<0xF4>
▁countries
全是
▁Friendly
▁Saddam
▁Bedroom
▁candles
Tue
色的
удо
所述的方法
▁hottest
▁grad
電子
▁keeps
复杂的
典型案例
MAKE
不被
▁detect
▁Houston
壶
▁Laure
永恒
▁FIFA
nHappy
办主任
▁Le
叮
ap
▁WH
时光
▁theorems
調整
油脂
hub
小小
手动
让孩子们
thumb
aza
▁diam
遭遇
T
▁brutally
▁monster
发展规划
祖父
ге
▁Gonzalez
▁trem
进展
lli
板材
▁troubled
整合
nFinally
meg
▁Cort
▁Delete
cellent
▁transformed
▁aer
▁WITH
dig
▁Luke
▁promotional
付出的
RY
陈列
Ell
▁eBay
urgical
sidered
悲哀
INA
疲劳
驾驶员
)$}
保护和
chapter
▁Nas
▁flooding
参加了
▁brut
视野
胳
▁routinely
ulu
sector
▁plent
高中
▁Letters
Frame
visit
MTA
的身体
又不
▁riot
▁scenic
FO
也得
台阶
nsince
EE
hard
弄
nReview
imental
Height
对我的
paid
adic
是一個
出生于
▁observe
就需要
至关重要
传感
INS
▁afternoon
▁spear
摩羯座
Sel
tot
化和
▁mana
God
▁abortions
partner
平面
▁polymer
给我
▁ur
тел
大厦
stituting
</td>
amilies
▁strangely
▁enduring
刷牙
▁Abe
▁periodically
▁Horizon
IO
安全教育
▁ell
mus
人民陪审员
raight
理
▁Tor
▁notably
NE
變
▁experiment
++
▁frost
水位
▁years
坊
eter
城市建设
rams
▁messy
On
hen
可以说是
uly
中被
▁options
渠
▁probable
▁refuse
secure
▁Trend
仪表
lette
▁AW
前端
▁protest
odd
中部
▁нача
▁RT
示
▁discreet
Having
///
表决
driver
功能
▁steer
徵
▁knot
lik
sg
▁blasted
反过来
▁Dual
讳
的同学
估
▁tent
人流
ructuring
▁sights
TERN
要有
epsi
很好地
▁grim
运维
isle
▁wild
女的
cing
Right
▁asking
▁Brussels
和王
艺
ierra
ambo
推理
▁wished
初始
~~~~~~~~~~~~~~~~
ctive
报表
Sal
含量
▁Available
▁Indianapolis
▁imposing
▁wrote
Pair
▁Diff
Tag
▁Harley
▁independence
▁interf
坚强的
▁analyse
▁ideals
▁ranked
nDear
ident
▁Wilson
▁diagrams
ман
▁infected
我们会
▁git
▁disk
▁Animal
FOR
划分
▁dress
▁das
Align
▁Crew
速
会产生
think
▁Ald
ildo
alsa
+}$
▁Holidays
▁suic
▁holes
结束后
▁Мар
opa
▁[`
earned
<0x90>
nN
▁liquid
东海
▁went
剧本
一般情况下
▁magnet
回国
plies
Screen
▁Blue
▁Wine
▁announcements
▁song
▁insignificant
▁университет
收拾
最重要
▁sprinkle
^+(
▁agility
状态
▁VIP
▁unavailable
▁await
▁speaks
▁McCarthy
▁gonna
敏锐
poon
▁accessible
▁supplier
▁cad
▁upcoming
▁delegate
▁Rhodes
\\{\
滋润
过错
igger
🙂
▁Lag
yang
所有人都
結
▁sense
大棚
疏散
▁Applying
凸显
▁mechanical
nThis
▁hands
ьо
于本判决生效
再次
伙食补助费
尾声
▁Jill
谁都
一边
做出的
改为
▁dough
minipage
continuous
对象的
Master
nHard
{$\\
fter
的日子
isional
libs
▁daytime
LS
▁signature
▁Opt
html
▁време
Would
▁livelihood
ski
▁lob
▁penetration
对他
就能
horn
▁scouts
apache
▁ost
▁matrices
зе
media
oton
▁arthritis
▁Known
▁Back
心态
点
▁favors
羟
军队
日本的
▁Draw
aniel
book
GGER
▁Mour
▁bitch
▁modes
仓储
Categories
路由
斯拉
▁satur
委員會
▁Identity
enment
▁Jays
▁connected
藏在
▁Finn
分别为
nDisc
▁breath
交纳
nAugust
故宫
▁descript
榆
▁staircase
面粉
慣
一场
办法
Pixel
精神的
奈
推崇
cellcolor
▁prone
check
▁Fully
▁Arduino
规定
▁links
)^{-\\
▁Chargers
而已
▁generalized
▁cogn
ца
noon
right
rites
nTH
abwe
仆
bag
▁Way
手脚
破裂
ена
▁option
瞭
<unk>
油气
还有就是
nAh
MAT
越南
▁priv
▁Rev
mes
不放
hma
<0x64>
WIN
▁като
▁к
▁Events
▁ези
半年
velt
bw
一站式
▁importing
残
盗
ero
▁sales
善良
cedure
▁Ruby
spot
▁blaming
▁assum
▁luc
朋友
下肢
▁Saturday
▁dynamic
▁Holocaust
▁simplest
▁hovering
捧
▁Bike
edo
芝加哥
▁theirs
▁workplace
书面
感叹
告诉大家
selector
uss
nwhere
nCon
▁famous
▁Hut
▁These
敏感
▁ward
标准
擅自
的公司
拿了
婚姻法
的电
js
集合
这在
Users
应以
▁dealer
$:\
前方
▁Reg
Look
年前的
▁LT
');
Pal
两
资料
▁cos
线上
▁Twilight
▁chunk
▁preceding
▁…"
▁comparative
▁BN
▁gamer
掌控
▁C
▁caching
ces
Hor
▁DVD
珍惜
说自己
▁Dennis
老人的
金融
▁$\
▁flap
▁motif
保持
▁masc
教師
described
深刻的
▁genus
▁nonsense
講
shirts
不仅有
nStep
subsubsection
▁Cell
▁birth
大型
Daniel
perfect
万亩
▁Concept
▁couplings
首款
变的
▁chunks
rington
地面
▁cattle
redited
▁shampoo
▁IO
与社会
▁skating
餐桌
ABS
▁Legal
▁inaugural
都没
上下游
明日
▁kick
诞
determ
法兰
▁hydro
▁consumption
▁diffuse
▁Printing
决定书
▁pp
一出
也有人
一新
▁Lifetime
wen
▁quest
▁differ
粉碎
pix
▁adolescent
iffe
▁Poland
ination
▁根据
▁reproduction
▁bothering
Mal
组织开展
umi
▁eventually
perature
▁fuck
▁havoc
慈悲
Ch
▁voiced
看点
基准
INC
▁scans
▁Southampton
sed
dw
▁fol
▁concurrent
万的
▁employing
▁Fla
riminal
services
问责
▁Premium
▁shifting
кра
ATIVE
ailability
aced
RESS
▁Nag
▁С
▁LeBron
▁collective
agar
假
党建引领
nmain
▁unacceptable
▁buying
▁Hers
▁lub
▁remained
▁TOP
▁Kenn
▁terrorist
▁seasonal
附近的
Live
▁sched
▁Death
cium
nParticip
聚合物
marker
▁Drag
upted
▁shrimp
根据
▁biting
lee
云南省
▁edits
會有
拦
祛
nEarly
onym
▁injuries
潍坊
GPT
▁denoted
rand
registration
▁vir
的一切
Lat
▁CB
▁cupc
宝妈
canvas
▁pores
▁finals
游击
ess
▁contribution
International
▁zoo
▁Reports
▁communicate
▁potato
仍然是
▁lore
Coord
▁ICT
estones
▁strawberry
▁isnt
▁featured
隐藏
▁nurses
提高
▁kind
BF
nEm
matory
班级
▁GRE
连接的
ees
到底是什么
▁cents
ismiss
ague
salm
▁closest
▁vanishing
同比下降
▁amph
丫
都在
Repository
▁refined
▁ammun
▁CT
▁spectacle
甘肃
▁totals
▁Researchers
▁Abbott
▁Guatem
▁два
粗
唯
榮
▁Put
▁NLP
edy
OST
▁reflecting
通告
▁Organic
nSend
天真
走了
车型
▁}}\"
▁leak
人来
浙江
▁>>\
▁arm
▁explosives
读取
▁{{
▁value
并且在
pu
bill
▁interpol
<0x1C>
紧盯
sp
agnetic
▁calculated
jia
十五日内
▁mysterious
▁Proposition
ghost
▁worm
Week
能做到
э
▁Superman
▁café
lad
▁pharmaceutical
墙壁
▁Have
能不能
▁induced
这座
▁tenth
nafter
▁sized
宽容
ingu
ublic
▁Adobe
▁exactly
模具
▁Cel
▁Creek
▁quick
想来
▁burgers
▁peppers
ishly
onts
LINE
▁Schedule
▁reasons
情况进行
ussels
senal
public
电气
面子
▁rifles
▁assassination
该方法
▁Panthers
▁architectural
construct
▁Political
NTM
▁Eventually
换个
help
搞笑
▁Holly
▁announces
此后
nGiven
合约
▁Kirk
▁tents
osity
等功能
拒绝
中和
MENTS
unsigned
我把
熊
)](
fly
八大
Trump
▁vehicles
▁Mirror
▁ti
▁thirty
▁serious
Dom
switch
天使
▁mods
$[
blogspot
above
▁Reynolds
曾是
▁himself
nAccording
▁agenda
=\\\"
▁carved
酒店
▁produced
面上
quick
但对
▁thumbs
}}}
之所
等症状
▁▁▁▁▁▁▁▁▁
burgh
骑行
bucket
nrespectively
分行
集中在
维生素
CAT
ruly
则
▁Repeat
ogeneity
会给
▁babe
▁Publishing
assed
nEnglish
晕
炳
ething
▁Kane
▁pop
▁Medium
羁
nDev
iterranean
▁Drive
▁Glass
费的
▁футбо
▁engines
庭院
▁OD
开出
想象力
SAT
▁cy
偿
unctions
▁Blair
以及对
笔墨
▁Challenge
固定资产
▁discounts
破了
鸽
▁Il
lint
▁favorable
胖
▁relate
ricane
▁cig
riculum
rators
ban
▁indexes
▁weaken
hhh
▁cynical
選舉
iver
▁orbital
▁две
出卖
▁statues
VI
Bot
angles
Then
況
▁Ricci
mv
thank
不惜
▁mechanic
▁profil
▁extends
提出的
▁viewing
让她
ruitment
促销
yss
▁Jung
慧
▁intrinsic
▁expected
亥
▁complet
▁Ke
足以
▁bank
hyp
搭乘
▁causal
▁integrated
Exception
只要
头像
▁wondered
▁companion
▁reacts
保费
▁texting
▁Dark
社區
น
▁Thrones
▁Filipino
▁Bel
评选
▁firm
巨人
▁folders
▁YA
hot
靓
▁sounded
▁recap
削减
unt
依赖于
nproblem
▁weird
scrib
▁adjoint
ules
妇科
}\
endants
<0x1A>
▁criterion
approach
Av
▁Floyd
妻子的
rodu
nMiss
陪
▁fund
出示
olerant
nbuild
▁prosperous
▁Download
itect
cription
▁Assume
一看
▁Vermont
稳定的
做个
有针对
▁Maintenance
▁finer
▁publishes
▁Penn
影视
wik
▁Student
Rad
▁disability
▁Assuming
ntake
robot
第一书记
▁detail
LLOW
▁invoke
诊所
▁flawed
asy
▁coron
以至于
保險
++;\
Pac
远的
少先
::$
包裹
▁Venezuel
justice
▁Related
▁zoning
nch
离不开
苦恼
sig
晒
▁Ravens
▁Test
娶
作了
▁rejecting
iversary
▁inserting
▁((
▁Sara
oust
漂浮
也成为
▁wish
强调
ят
datetime
這一
▁Open
▁Sha
字段
izational
Timer
nAnd
▁archives
Every
后面
done
老化
▁Slot
研究所
▁utterly
辩解
▁Sheet
helm
ACP
▁Tur
水电
▁hike
▁во
nThank
伦敦
▁Chang
▁Philip
恨不得
CEO
▁airport
▁introduce
科学技术
nQuant
▁Falcon
▁cyber
相对应
▁Police
夫妻
）\
▁detain
共有
rong
详情
▁NIC
聊聊
ATE
▁sang
ITE
象征
我只
▁elderly
Old
采纳
美联储
within
combined
nonym
▁certification
▁disclaimer
光是
isition
▁fictional
汶
建设和
imeters
▁char
▁inch
▁disturbed
不利
▁tougher
种的
財
▁purchasing
▁friends
▁molecular
▁homeless
我家
致力于
联合
MOS
▁Zhang
idding
文化和
升级
▁insults
oyal
CAN
▁Legacy
鸿
个小
堆积
▁silk
▁Later
instagram
技术和
▁{:
asonic
Prec
觅
开口
acknowledgments
aday
他指出
创建
就从
reload
▁Arena
▁animals
afe
vin
京东
桐
dependency
盘面
关于
比起
四种
写出
在经济
拒绝了
▁Yale
在孩子
是一种
▁Nationals
spe
值守
这两
▁museums
▁върху
效率
也许是
▁heroic
▁holographic
ush
点点
del
也更
支持下
*(
▁Deal
几千
行動
一直是
▁Rings
						
▁helped
▁skins
▁judging
iser
含义
▁SR
▁Lions
争做
nAsked
▁impedance
nTim
▁saints
arios
饭菜
▁exhaustive
cass
▁части
oons
worthy
▁Brit
岸
按规定
ceiver
小程序
sect
赛道
和社会保障
异议
ческата
应当在
views
▁cliff
ör
▁Gos
变
studio
<0x87>
廉价
rub
▁obsc
质疑
▁Mediterranean
常用的
eed
华中
妥协
敬请
最重要的是
▁strives
▁counc
▁kit
报考
▁diction
不论
▁Wheel
區
颁
minimum
survey
▁Vander
▁caused
▁Lynn
acks
▁dying
抵制
爵
▁sculpt
主场
当他
\">\
▁earns
从一开始
▁catches
▁endowed
ō
ru
▁internship
觉
▁jointly
▁wrap
▁instead
看见
月底
志
相關
清偿
▁lip
毒品
eyed
杨
nSen
都不能
胚
▁proposition
▁mut
犹豫
一番
▁само
▁Atlanta
_;\
▁comparing
OUGH
▁factor
▁mic
Cell
▁fluid
杀手
万年
环形
接触到
学家
硫
沦
▁Heat
组合物
▁erroneous
▁reel
▁mobile
▁Friday
对着
▁San
无力
试管
CUR
▁surrendered
Hello
▁thumb
等活动
gas
老太太
▁Sirius
溯
不能再
hire
Arm
▁autism
▁puppet
▁superb
▁loaf
REF
发烧
PEG
nHopefully
▁spelled
到大
▁javax
特斯拉
风情
▁bour
▁onsite
精神病
了一家
▁documenting
▁сто
一声
▁masturb
▁Cass
nBrown
▁experiencing
实的
interaction
打出
ма
高速公路
肺炎
▁accord
而你
ustainable
▁manufacturing
的行动
飛
刻苦
~~~~~~~~
▁cotton
依然是
Zone
{-}
&&
mu
卧室
▁Unlike
olve
黏膜
惠民
umar
▁Cardinals
▁Wear
▁therefore
bond
督察
重点项目
常住
▁Layer
notin
▁guide
▁loving
▁hype
atin
今天的
▁Cycle
召回
ellery
idget
ouin
he
вен
nRight
▁coincide
真诚
动了
死刑
失
所未
cible
}=-\\
inberg
fessional
blo
資訊
是一位
▁obese
nHence
Training
LOG
三等奖
nBob
▁wonderfully
gm
▁caves
要求的
ategories
noindent
对证据
乐团
mutex
多次
▁repeated
aky
外在
what
▁galaxies
电压
斗争
▁McG
parser
经由
恒
西路
退
matically
▁growth
▁unknown
▁promoted
这个世界
▁between
成年
团体
同心
弥陀
首选
STM
loving
温水
W
▁requ
Bean
这个是
FTWARE
phal
tern
至此
▁SPEC
▁ви
留住
isans
脱贫
mat
匆匆
▁another
▁NN
policy
火车站
▁tours
太高
Desktop
文化交流
rowned
光的
但是
▁horizon
导师
▁steroids
人士
▁\")
下单
actions
lig
▁chili
agn
穿搭
利息
rely
港元
英国
▁Dipl
bfseries
ffle
韧
▁companies
▁bowl
▁pics
法律的
▁forgiveness
绥
意味
▁algebras
▁industrial
▁para
▁wow
▁blink
▁Cape
▁parton
日報
▁factual
:$
被告李
etically
▁Dev
的计划
▁жители
做为
▁expansive
新政
巩固
eliness
▁sixth
▁transit
▁›
憧
&\\
nJesus
▁Americas
▁desert
▁shirts
▁Sens
▁exposes
▁Dock
ufact
othe
传奇
罪犯
▁martial
原创
▁boxing
Njg
▁rebo
cm
采取
▁lane
ikers
▁capacitor
▁Dawson
希望大家
ividually
ryn
和尚
ists
你了
ousy
analy
move
点头
ODk
混凝
▁lineback
ahl
▁Dirichlet
拒
coin
▁operated
▁elabor
ibl
nPaul
陈某
▁HU
▁Rand
二者
affected
▁SK
nparticular
航
▁Germ
▁Stra
的比例
▁emailed
process
Calendar
▁languages
▁}\\
▁XY
▁Poker
▁intervene
淤
芜
▁Ex
nReviews
vs
}=(
▁дви
裁定
的有
到家
▁mot
▁Kondo
中国在
Over
▁drowning
▁dimer
体系
寄
LI
elly
▁midfield
▁thermodynam
担心
還
▁CAL
nSelf
▁disabled
成为了
方法和
▁jQuery
旺盛
eqref
bred
}$
套路
finger
<0x48>
▁extremal
▁planned
▁sidew
源自
proof
iac
▁Continental
运气
▁legends
▁Ur
▁microbi
也比
unov
▁Bennett
俩
▁programme
北京的
went
▁Weekend
妻子
单纯
▁/><
▁uint
rf
▁si
长达
▁Brady
▁Reach
重叠
▁branding
▁commissioned
▁½
揚
AS
▁Det
anic
iful
那么
▁precious
nAnonymous
要点
▁Actor
▁revealed
▁weighting
▁paced
Gold
高级
gk
▁Sorry
号
十四条
▁astronaut
▁legend
▁testified
各行
相传
nOkay
zt
▁structural
▁troph
▁winter
planet
穿的
大户
▁compose
nthus
认识的
晚
配送
ophers
颈椎
▁SHE
画像
加水
▁isot
▁sque
nResearchers
nBeing
▁pers
▁Places
nshould
NzQ
▁doing
esy
▁Format
▁fusion
odes
▁CSS
ument
гани
Summary
ieved
ael
\"}
▁haunted
为宜
Just
历程
博士后
▁dreaded
写
<|unused055|>
verse
基建
▁distortion
从不
▁reviewer
般
rab
▁oxid
消炎
▁Getty
天蝎座
▁Accounting
如今
▁\"$
▁pm
nContent
}^{+
▁ruler
toutiao
▁san
为主题
频道
▁landlord
estim
有小
听课
▁Pin
▁similar
▁Af
▁muon
▁Ancient
▁knight
搅
不断提高
▁pept
imentary
准备的
4
▁supposed
▁induct
▁Chase
▁Battery
▁loads
▁factors
Feb
皱
ú
▁hooked
▁Factory
为啥
既
禾
▁Bishop
▁PET
ambig
然後
▁mp
场比赛
▁activation
尖
▁scripture
<0xB1>
中性
▁jurisdict
▁participation
▁Halo
ERROR
▁BD
▁reserves
▁epochs
▁removal
▁Goth
立体
▁Fashion
▁digestive
Timeout
▁engaged
▁ansatz
nAg
▁MOD
孙悟空
去看
彩
▁travelling
与被告
bright
火烧
写过
▁Pav
count
ninte
▁transmitting
▁synchrotron
tsy
▁kinematics
nGener
▁Chicken
弃
沐
▁noises
一提
aked
hew
▁crisis
▁RR
▁roll
asta
▁Institution
茄子
▁agric
王朝
的主要原因
长时间的
▁festive
kbd
共
▁veins
▁reign
应对
▁supported
▁crises
看一下
elescope
而且
一杯
▁beast
hots
返还
Fre
yn
▁Bear
工作
山林
arl
▁contexts
portation
建房
将领
过了一
▁Buddhist
▁lur
abb
▁lucky
▁най
得更
Bundle
早晚
犯罪
▁mess
▁frog
ViewModel
▁horns
itemize
▁trends
品位
azz
飞速
▁shark
▁cached
▁Jan
\\'
ieces
ube
策略
\\|_{
ousand
ennifer
▁game
stic
▁Caribbean
在这里
lem
贱
▁anch
=-\\
added
▁Das
▁resisted
▁dramatically
可以让
atched
asser
建材
晴天
只是一个
▁Dot
▁legally
orie
none
▁cred
▁Cloud
How
swing
▁LORD
接受的
▁SGD
▁foster
▁keen
nNotice
英寸
RNA
▁Contract
▁racks
征地
饱和
▁Tate
▁kings
▁EVENT
▁intuition
▁What
igations
rez
rsquo
邓小平
▁combat
受到影响
▁integ
▁oils
▁тур
property
ley
thing
▁eagle
cri
theta
…………
▁Hunt
▁ang
专项整治
要学会
erguson
▁em
决议
▁totally
Next
▁astrophysical
▁Harry
hea
▁archae
项目
emon
故
itutional
^{-
▁Disc
▁Conserv
▁±
▁Newark
▁Hash
+(\\
▁spike
present
▁Medicare
latex
▁attract
▁suffering
发达
▁Marketing
mad
fx
▁respects
▁snap
胃癌
戳
▁meditation
avier
▁wandering
▁Playing
看作
▁banners
▁imposed
听说
)—
erson
开展了
活塞
▁embed
ски
崭
▁charges
Thanks
nSum
▁windows
USD
▁pushing
▁Equation
▁Risk
没有
单元
膜
不成
▁unle
▁agreements
▁RO
па
的保护
▁ought
增值
flu
即使是
▁ache
▁approval
Proof
隆重
安徽
▁Ctrl
▁manager
开设
▁Profile
▁rape
>
迅猛
昧
▁stood
▁rethink
<commit_after>
『
改革开放
▁eval
director
堪
nQ
▁Hannah
olla
▁driving
▁Method
▁factions
相关规定
historic
▁cellul
营养费
▁strict
▁patent
iona
自然而然
▁Nazi
▁Hezbollah
▁misc
毛孔
▁Freddie
▁Tube
▁Copy
履职
elp
预定
<|unused151|>
网球
che
▁copying
ile
还未
想去
▁parameterized
▁matt
▁lethal
Kw
▁pron
▁public
▁some
▁drop
psilon
的对象
天涯
nwas
topic
▁Fourth
uplicate
停下来
▁riv
____________
▁ergon
layer
▁coordinates
▁pools
nINT
Price
due
This
▁widget
▁Barry
▁eggs
▁increasing
areth
asses
stream
遇到
Pre
Non
誰
马上
good
而从
toc
▁Argent
▁bif
erate
▁mechanism
反向
连续
igital
▁dealership
表彰
Marc
={{
销售
while
▁Pattern
eting
和田
▁costly
▁Roberts
否认
▁recalling
美的
their
Ent
▁PATH
amento
▁Norman
▁swiftly
▁около
有事
不清楚
plet
append
▁album
柔软
itic
▁Scot
▁Liv
不振
iliar
water
▁bot
▁seeing
▁Th
▁Filter
▁училище
tab
圣诞节
韩国
▁supplemental
▁lineage
向北
baij
nMatt
新媒体
▁strangers
▁checkpoint
体育
还可以
▁make
ucid
办好
适配
▁emot
▁indefinitely
▁dup
▁Opportun
▁jars
nRo
▁politically
far
▁protections
▁Tyler
▁mach
map
rotron
conference
和第二
▁straightforward
▁drummer
nRating
漫
学科
▁lux
▁examination
тни
rown
▁timely
▁FM
▁things
▁consultancy
关注
cnt
▁typing
我来
▁friction
▁TIME
lat
Ph
▁describes
▁headlines
谷
rint
▁chicken
始终
imposed
贵州
Cursor
nRecently
ployee
奥运
预期
isease
▁soaking
payment
MODE
▁ox
tconst
实践
宰
nimage
nosis
▁Ras
▁streaming
安全工作
▁Academ
osit
frak
▁Nothing
推動
朴实
▁uniformly
油菜
auge
iw
的不同
这么说
▁Pleasant
计较
阻
被打
undreds
的身影
视力
人格
过高
▁piles
ngroup
▁interesting
▁crews
Jon
Haw
付出了
财经
塔
=
▁insulating
一样
▁networks
▁churches
我们家
▁tempo
是如此
想把
HPV
▁bloggers
fair
▁furthermore
▁gains
夫妇
管理者
small
▁substantially
calls
▁die
▁integrates
▁blob
PO
ucky
▁ch
▁plagued
respond
▁painfully
列举
pons
ortal
难的
洗脸
者们
比重
nThey
自治
▁prescriptions
Double
刘海
▁нау
ubs
每当
市场上
adeon
的空间
▁wife
IDIA
▁sincere
年至
谴责
▁telephone
租房
亚
nInterestingly
'\"\
alian
治疗
ylum
Branch
刘邦
lectric
▁Idea
搬到
▁it
▁Mechanical
▁possible
精准
))=
▁Boat
约占
▁manufacturers
▁Felix
▁schizophren
▁citizens
▁vert
inds
enic
最新的
▁Talking
曲
占了
Craft
Asset
一个大
array
▁nuts
(()
他认为
一定是
gtr
▁authoritative
<h3>
承载
▁escaping
▁Bow
":
OTO
▁vertical
oper
西门
commutative
除去
▁Wind
奸
▁extensive
▁wage
nObs
apsed
保守
问题的
种种
▁Venice
▁arrays
胶囊
wave
клю
选民
▁looking
▁kits
▁modelled
▁Heaven
区
를
▁instabilities
iversal
也逐渐
▁Belgium
\\+\\_\\+\\+
&=\\
▁opin
▁matchup
<|unused062|>
orig
▁pour
▁had
▁WiFi
▁ultimately
动物园
意识
▁divides
繁华
▁imm
grpc
就会被
▁honeymoon
这一年
ugin
ampton
崇拜
上路
▁snow
即是
KB
▁votes
undo
▁NBA
▁FD
则在
罰
▁textbooks
▁naturally
columnwidth
ASY
greg
urdue
▁unavoidable
▁Psych
owell
atively
▁mail
ova
parametric
▁vers
▁hinge
仕
▁Stan
▁pigs
▁wander
▁figur
方方面
▁Memphis
▁Aut
rypto
▁calcium
成果
▁budget
熟的
MM
ското
seller
▁four
▁Step
▁stays
▁Were
▁Lloyd
就想
给别人
▁making
▁restaurants
ences
ENER
的条件
受害
设
看守
god
anny
荣誉称号
▁expect
法规
eties
hered
絮
Stars
▁SSL
▁degrees
YN
jk
分子
kn
立方
▁buffet
yet
大家庭
截止
')$
Import
▁behind
baichuan
推出的
机油
kid
不定
咯
har
ins
▁manuscript
▁frustrating
ewidth
nEx
凭证
▁slip
NC
阴谋
▁warned
umor
浓浓
ELL
YM
户型
方面的
號
▁widely
▁Representatives
▁arguably
}{
▁chickens
runt
宫颈
^{-(
▁bars
PhysRev
西瓜
▁DID
car
▁close
ERE
▁periods
faces
警方
▁Intelligence
ious
放假
▁Geneva
▁Taiwan
▁nausea
Record
梦境
涨
▁prompt
egree
▁seems
illion
并不意味着
▁Athletic
自
出来的
notation
▁enjoyment
璐
▁appe
▁recipe
erent
▁NGO
nComput
中断
▁bitcoin
arr
cats
akes
祖国的
隐私
nBlack
▁overl
stage
通过了
lux
▁inspir
模型
olphin
inos
<0x4D>
老年
篇文章
qualified
feed
▁XML
迫害
響
旷
▁leadership
▁swap
кри
牺
年来
郑
▁lumin
▁stained
▁checks
▁bolts
Lif
▁provides
压缩
▁malign
伟大
天生
▁reactors
▁easing
uawei
▁proposals
▁scattered
▁programmes
%=
可以直接
在做
▁TF
▁starred
▁Colin
higher
▁sens
商会
rected
За
滑动
▁swift
icious
▁Hamas
洛阳
▁boxes
情感
nprint
▁Why
istry
▁startling
往往是
盒子
Books
▁Nuclear
性格
▁Cal
**\
expensive
uum
理工
▁Payment
via
▁grilled
▁上
▁devastating
▁HEAD
▁villagers
\"\
▁Си
nIntroduction
evaluation
▁next
AD
consistent
nLet
▁град
FIX
▁these
同时也
dir
PPORT
呼叫
▁omn
atives
因为有
留在
oto
▁осно
%）
uding
▁lacks
▁Sep
▁air
极了
核实
其实在
植物
从根本上
▁faced
scars
ordon
fonts
得意
迎合
▁IBM
▁neighbourhood
Inf
▁ASP
内容的
osh
Previous
▁stated
如其
延迟
след
艰苦
▁groceries
▁sklearn
lattice
供需
阵容
▁snakes
侵
要知道
中期
▁Bot
AL
会发生
▁stable
▁named
bnb
cro
▁voucher
OY
nAfter
中海
▁conception
魔
敷
▁couple
肿瘤
▁Cultural
^*$
录音
Mid
▁luminosities
日活动
▁SEM
还是在
严格要求
herty
▁worthless
砥砺
▁Brain
▁volt
probe
如果我
炮
nline
nOctober
ital
器和
可使
到达
意识的
onia
OA
里面的
捕捉
▁finalists
慨
▁bottlene
为我
的国
ij
cor
屏幕
离家
我了
▁loading
Volume
npop
▁AU
▁Jobs
▁journeys
连衣裙
保险公司
anks
平常
经验的
Plugin
▁hyper
finite
▁hardcore
几何
一句话
▁wrong
▁UPDATE
▁Thing
警力
▁eyel
▁Glasgow
嘲
▁outputId
оне
细胞的
广告
Tensor
▁districts
像是
▁bs
▁lifetime
▁valued
去年
▁chopped
&(
颓
离心
抗日
isphere
▁dumpster
▁inval
▁Hungary
cession
nOffic
iliate
的还是
Snapshot
施工现场
▁lineup
▁therapeutic
▁writes
nCRE
▁fats
▁legal
解脱
▁sweating
ret
uce
金山
▁Interview
▁TM
值班
交易
NULL
ense
交通费
▁bride
失落
bundle
ocha
▁Neighborhood
使者
igration
▁awarded
▁cookie
的红
製
▁processed
可以帮助
检查
tz
▁quit
▁Worker
▁congregation
以为是
nagain
▁poses
▁Carm
▁Perfect
inals
▁Pinterest
▁viewpoint
▁aggression
▁Victoria
▁отно
concurrent
辽
萝
面试
▁obtained
罢了
▁constituted
во
са
舞蹈
棋
订阅
ilot
▁Македо
当时的
在我们的
有关部门
Views
Gra
anye
滤
等候
毅然
▁voc
指甲
▁Fr
filename
▁would
▁ST
tier
angling
Pick
▁Salem
nLearn
Os
▁Commander
▁版的赞赏功能
nStaff
▁stranger
▁deformations
shan
进行的
场合
▁Forums
igher
__":"
blem
多少
▁refused
Poly
▁collaboration
不喜欢
habil
新冠病毒
Take
Ey
FIELD
nAlways
▁Family
达成
▁obligated
Christ
要到
▁workforce
冀
▁годи
▁Hank
▁CLA
Mod
▁quote
▁Linda
ih
也无法
▁Jong
▁arrival
▁bir
轨道交通
▁Simon
▁overhaul
尾巴
▁wiki
磺
▁RE
找到了
ordinary
vc
solete
%\"
een
'))\
ians
查处
也是可以
补
嘿嘿
亲自
▁foreclosure
icycle
Bern
endpoint
ctic
里程碑
olk
▁Fry
planned
葱
▁exceeding
产值
悠悠
embed
aver
包子
writers
▁journalists
️
▁space
铮
бер
onz
bj
欺
畏
SDK
▁physicians
▁chaotic
协商
▁subsidies
bigr
plotlib
咱
▁mil
快递
▁disordered
▁absolute
▁repulsive
节日
▁miners
这款
▁disclosed
纯净
nCREATE
▁Along
▁motto
Replace
新娘
▁continually
ща
▁expansions
▁Dent
生气
ularity
amd
一手
派出所
▁canal
▁unable
▁ornament
安心
▁Suite
Online
上映
▁legendary
Buffer
▁meg
|-
▁unlike
▁wealth
角
涌
▁asks
每一天
替换
▁legislative
的理念
▁latex
缕
▁Scholar
楼的
▁becomes
釋
▁doubt
这么多
acters
▁walk
公交
贵州省
▁template
范畴
▁tailored
都能
▁asleep
建筑面积
:“
▁declaring
Human
hum
顺
南海
产业园
自然
▁gent
本赛季
▁Exam
▁experiences
▁volcanic
▁proceeded
▁same
annotations
安全隐患
所述
<tr>
▁Each
human
Namespace
<0x2C>
白天
ня
▁explicitly
▁malaria
▁destruction
<|unused065|>
nol
具体情况
▁excited
墓
▁beside
▁Tai
ounced
热心
▁descriptors
的通知
▁рабо
▁lav
▁Jensen
Qx
檔
为中国
▁parade
▁singular
rss
European
processor
部
明年
▁and
atus
odus
▁concern
敵
▁lift
▁tearing
Lim
▁screams
istas
陋
出锅
▁unfamiliar
▁RL
▁Valent
是我们
▁Kam
tfloat
▁Imm
inse
这
燃烧
▁ful
:**
製作
解放
rivate
周五
rosis
▁pret
▁Has
抑制
▁Dome
蒙
▁cable
▁воен
▁bell
出演
▁Blake
shields
▁fresh
▁alarm
痴
各
▁committee
▁alongside
prop
ervised
riv
atures
面前
signature
▁gladly
usive
imo
拉近
After
▁Jack
vergence
▁modifying
演艺
▁regimen
▁AMA
Metadata
判断
的爱
▁world
itness
lein
▁compensation
怎么做
▁House
致
▁definitely
真正
danger
招收
ipment
▁available
▁razor
五月
▁wheat
clave
Handle
是否有
▁Sadly
不当
minster
▁Zen
ray
治愈
▁pronounced
shoot
好吃
打工
▁Irish
▁rookie
营运
设置
▁$+
▁contemporary
▁dream
▁cord
athetic
没有办法
▁gi
=(
▁envisioned
昼
洗涤
▁mediocre
▁enc
GE
▁MY
▁hone
riel
月亮
▁Principles
▁/>\
▁resilience
▁表
图像
▁мо
ickets
霍
▁seized
▁cal
published
▁Trip
可能有
amazon
▁translates
▁Wade
▁turnout
能力的
▁remedy
si
接受
Pointer
实在是
▁Mess
immer
nfe
IDS
质证
Rect
亿元的
nEp
▁Lux
▁Edit
▁shedding
esters
▁liable
▁kg
▁vibe
专门
年开始
▁realizations
芬
本题
广东省
office
▁diver
蔬菜
▁Ха
▁AN
百万
)=(
青
▁camp
▁shredded
▁Michel
获得者
бу
▁bounty
的重要性
▁Pain
▁boyfriend
pri
视角
▁Sie
▁Queensland
▁destinations
Impl
▁relocate
how
▁reversible
}}+
ologists
衣
спа
烟草
▁ladder
nbel
aura
▁enforce
▁Aff
虚假
？
规避
▁withdrawal
▁kinds
车祸
孢
▁premiums
▁lung
▁SOME
tenance
公顷
▁traps
聪明的
遗忘
巅峰
即使在
医院的
讲授
母亲
螃蟹
整體
▁datasets
在一个
风雨
▁Burton
▁suspicious
▁Soccer
='
kill
▁protesters
产品质量
考生
Section
▁inspected
9
讲述
Center
▁kilometers
直达
earing
缺少
潭
pired
peer
条款
▁Alf
为一体的
餐饮
▁Rig
亲情
▁march
▁LIVE
鸡汤
▁Knowing
▁':
龄
点击
招待
▁schools
善意
▁skill
呵护
▁regards
▁smoother
真实性
▁rescued
▁fermionic
▁jew
公园
乌克兰
▁adrenal
miah
油
▁galax
藏
转变为
嗜
_{{
▁rivalry
层面的
平
▁electromagnetic
▁findings
▁chair
▁wisdom
万名
▁Trade
nGlobal
▁Caption
▁analogy
▁vivid
占领
▁mamm
楼主
▁Tennessee
Include
毕
▁Wins
▁Nav
和管理
自行车
▁pokemon
ратки
▁Pray
▁Terminal
tains
~~\
并不多
建議
转
我有
穆
成分
nSomeone
▁kinem
▁Patriots
名片
▁expressly
個
▁acceler
▁mathematics
荷花
鲁
调控
你怎么
▁arrogance
我这个
sensitive
▁Republicans
▁creature
рин
纪
▁Hind
▁Bart
▁civilian
iate
抢劫
一对
生活方式
▁Club
不仅
豪
未婚
▁draw
onse
▁hack
ó
▁ber
充
arrier
Window
pand
▁ot
▁Boston
igo
edar
哗
▁contracted
ването
adas
册
▁seal
庄园
only
ofer
})$\
Tell
▁carrier
trip
▁died
nag
比利
锅
$&
溶剂
进水
▁Consumer
▁Stall
es
上半
▁torus
Stub
▁sheer
无助
uli
▁hypers
▁Nations
size
;\"
▁Leh
弗
▁targeting
先锋
▁Pure
▁mountains
erv
▁本实用新型
都属于
▁Tam
▁converted
▁envision
為
▁poorly
▁Sto
坯
▁broke
helpful
iao
集群
Dr
就是因为
▁Rust
车牌
bolds
▁British
nSP
▁grandfather
uable
品类
icense
▁solver
Claim
闲置
只能在
▁万
▁connector
}^{
IMS
}]\\
death
▁christmas
rative
本站
iation
пу
▁plur
▁stimulation
学历
只知道
▁Torres
necessary
负载
▁recently
▁dried
imedia
的那些
nMar
▁Heather
▁Arthur
▁lists
)]
▁attendees
▁mem
▁lifelong
▁Getting
ите
身心健康
▁flower
你的人
▁employees
▁sure
合物
▁CITY
▁overcoming
时许
cra
FF
▁Bayes
asse
▁ins
但不
ty
▁mash
大叔
越来越好
▁Soph
▁nevertheless
▁skipping
▁hidden
arrison
下一
在过去
和新
nDetails
▁PL
给了我
oon
▁ont
源

nCharles
free
师的
智能手机
▁typeof
比的
▁immune
▁Cambod
Config
端午
可怜
_{*
料的
的责任
Parameter
清新
妒
[{\\
面条
皮
▁Ки
研究发现
tC
:\
bo
bar
▁microwave
Prop
<0x12>
///\
▁Aside
Insert
▁native
▁Hardy
▁Rare
▁wrench
igating
▁Tak
农业农村
▁Bra
▁rainy
▁Needs
▁owed
▁Southwest
lol
重重
]*
）；
▁всички
髓
▁mood
御
;&
части
大意
▁reconstructed
江县
wer
▁Finally
匮
遍
▁inflation
弘
▁disruptive
Quality
人才的
▁lag
本身就是
▁държа
中华人民共和国
笑
anes
▁milestone
▁advocates
授权
▁вре
也可
▁resides
地处
▁covert
▁Actual
有一些
▁singles
▁pollut
场面
至少
▁cozy
▁SOL
talk
汪
▁synchron
的理论
maj
盼
溜
一直没有
ogene
Without
烘干
)]\\
奋力
циал
BG
他把
▁（
年期
▁Ed
末
Boot
Git
ван
雁
浊
▁approximations
早起
▁developer
的五
绰
кт
▁NASCAR
定位
inear
大家都知道
▁assemb
▁Sequ
身材
优化营商环境
恕
лява
bial
▁teenagers
外援
FTA
▁io
According
б
————
encia
KEN
命运
▁Phot
农田
▁advocate
▁Metro
▁household
▁letting
▁outlook
▁whites
fired
▁▁
应承担
▁relent
weather
▁charger
▁experience
▁historically
▁gamma
▁blanket
阻塞
ORTS
▁Riley
树立
▁leash
鹊
▁men
▁victories
nel
esteem
▁Doom
styles
nQuestion
//\
extensions
▁morning
ку
reatment
▁Fol
一颗
▁Ninja
了一句
有不
▁solves
属性
河流
▁ov
實際
IST
nWrite
如果能
雷
▁expansion
aid
猪
пад
▁virtues
}\"
极大地
▁look
全县
▁По
▁hex
▁artificial
imals
語言
換
Abb
▁bacterial
心头
大城市
茂
株
▁Bolton
nore
▁associates
▁Boehner
textwidth
icy
▁authorized
nconstant
▁brown
▁Portuguese
法律责任
雜
▁bats
听见
等你
NOT
文
▁digits
▁Guru
涨幅
LU
启动仪式
人就
本案的
plications
ICENSE
的第二
▁ancest
▁hear
ilies
bane
走走
踊跃
▁compressor
嗓
OSE
▁relief
▁potential
的变化
▁Aviv
aux
hin
上台
agg
▁empirical
去年的
ulence
管理员
标签
古城
▁Athlet
▁icon
▁rectangular
him
一间
▁Bit
開放
之子
▁hilarious
grams
数据分析
mitter
久
圈
▁SH
▁xen
拥有
调味
▁Wol
▁bought
Aut
▁Figure
PGA
肯
带回
▁fathers
▁corn
▁Naval
▁:)
▁Quin
▁linguistic
▁induces
▁auto
跌停
iop
▁sie
本人的
既有
ache
▁Mex
gp
荼
▁wide
的经济
▁Maz
observed
olved
stated
▁backyard
▁surprise
辽宁
每月
▁sacrifice
▁clicks
▁Х
NESS
kt
^*
▁denote
gio
干
<0x24>
娅
Card
_\
凹槽
▁thrown
abetes
匠
月中旬
▁nurture
人员
艰难
▁fundraising
▁Essex
▁stains
很重要的
工作会议
▁parsing
資源
▁row
取得的
畜
▁Advisory
炸
nap
▁partners
FC
printf
冰
Block
▁dates
▁acqu
Disc
▁hipp
两年
军的
莫名其
рт
从严
▁stop
难道
▁Can
JC
▁ImageNet
▁Guatemala
了一条
DAR
▁searches
▁jer
寿命
▁Cliff
▁но
▁study
双重
etimes
drive
并要求
Both
стран
▁modal
▁perhaps
EXPECT
选购
oment
▁permits
▁Butler
QA
▁undo
▁Cars
llll
璋
集团公司
ajor
▁bracket
▁Moving
<|unused031|>
生殖
▁tedious
▁Ahmad
媳妇
alia
nincluding
总支
以下是
服务于
rivial
argin
液压
▁quotation
▁corridor
▁proc
nPro
▁MIL
▁ceremon
区块链
▁Anti
▁simulator
▁fatal
▁Cake
bibitem
▁национа
▁ga
孫
cation
精髓
向南
ensive
▁Made
▁broken
▁folder
▁journals
▁punct
引入
▁Spec
nCar
那句
▁command
tn
▁Er
ното
收益
▁Associated
表述
报
蹈
▁costume
uttering
plain
▁motivations
劣
};\\
▁greeting
▁rustic
FFFF
复
ativistic
ク
遇见
小的
equence
slide
就近
爆竹
李某某
Wed
▁fer
vine
▁Bills
最美的
▁artillery
▁inspect
HEAD
▁mir
向上
▁packet
不过
Env
雙方
nwell
▁glyph
capacity
dart
Accessor
<<\"
人群
nSame
тре
▁remain
▁ecosystems
omen
eway
威胁
▁Topics
▁migr
互联网
宣传活动
▁*/\
▁spacecraft
▁cane
▁undocumented
▁Dre
周
▁WAR
聯合
manage
滞
ers
▁Runtime
▁Mitt
hers
▁cup
桌子
▁smo
gard
▁states
防灾
hop
▁vanilla
精密
▁###
乙烯
▁inline
VIEW
▁URI
为导向
▁passionate
▁GHz
riving
▁Features
岛屿
她们的
Qt
作者的
▁account
▁concent
nRead
Prov
分布在
南非
ndeb
▁rever
▁achie
▁Soviet
▁Var
▁performing
▁Member
▁Rodrig
俯
ioxide
▁fronts
ari
▁Fund
就更
ando
▁commutative
▁beating
MzIw
Fs
jects
▁Furniture
能量的
事业
nrep
將
▁professions
豫
%^
nEvery
yped
rics
▁chores
alo
调和
Pat
就会出现
Suite
dev
Status
▁prominent
▁repository
▁Too
在进行
更多的是
▁precipitation
▁Boys
binary
意外
uario
colon
二手房
▁Lebanese
▁calm
▁Wor
的一端
▁Gamb
態度
io
range
чава
orgeous
▁onClick
esque
▁fidelity
检修
留
▁Pilot
<|unused058|>
▁arguments
适用法律
four
次数
rupted
Material
▁Private
Sk
hetamine
国道
oping
▁longer
許多
ncoll
差距
本职
▁bulbs
或多
为契机
上赛季
▁retailers
TV
{+
宵
柏林
红枣
▁Fridays
篇章
▁carpet
▁Toronto
▁bulb
attices
▁Denmark
步伐
这个词
电影节
监管
▁Prague
▁travel
房
▁prototype
▁Climate
▁~/
党建工作
Slot
▁sneak
▁mRNA
URL
白了
isecond
rers
的任务
怡
摘要
verages
->
你知道
合格的
лия
伴
El
歼
▁salty
्
▁alone
▁previously
位于
Cube
私家
▁glitch
公告
小心
ism
Observer
Push
▁impulse
]]>
慢慢的
noalign
oders
▁explicit
回顾
▁$\\{\\
VERTISEMENT
▁Kap
▁Login
▁relaxed
▁Flore
今生
EqualTo
▁supporter
锥
▁evaluated
Leg
▁tourists
▁Sites
npr
ninvest
гава
〔
不公平
▁moments
▁suspects
inator
AN
维修
这条
ques
几次
LEx
rc
減少
week
推销
)(
▁nerv
▁avoids
nTr
▁Amen
驻
▁typename
▁Also
同盟
运行
维持
▁Joel
倾向于
▁quantized
▁Dist
ary
avg
▁realism
▁studied
▁Appendix
挣
ening
▁RAID
开发
矿山
▁Arabia
甚至连
▁Address
▁Jimmy
▁bleak
取胜
之日
ks
秩序
工商
低调
nInvest
▁embry
▁mel
▁balanced
%
铭
▁establish
▁deleg
万美元
дат
却又
ера
▁object
essment
短期
一汽
▁Ph
omedical
Save
不断的
stan
的母亲
妞
orge
▁compa
Reilly
儿媳
因果
▁preserve
▁lefto
▁registration
靈
就必须
asters
▁rumored
ructure
nmodule
网民
assemb
發
▁inconven
▁Vit
很长
▁Russians
ishe
亡
▁associated
▁beds
inburgh
▁galaxy
一方
维权
▁scrub
▁themselves
Theta
▁orche
阿根
▁Led
温柔
老人们
дж
管辖
▁flick
▁retrospect
▁abused
ellent
荫
▁stabbed
▁become
▁Sox
▁dictates
看上去
传送
udi
ailure
mitt
▁advising
Get
Sunday
▁stalled
Fin
▁road
▁Bengals
iment
▁Spring
▁Dru
nstart
tif
等原因
催化剂
束缚
配
WW
ARC
~~~
▁atomic
回升
(\"\\
\\+\\_\\
▁stuffing
生鲜
npackage
OTQ
olphins
▁deputies
utils
天然
▁insisted
▁Majorana
▁autonomous
▁Saturn
▁sabot
买车
▁Tal
贯彻
ymmetries
洋
<|unused117|>
compress
▁util
▁Na
节奏
▁Fab
}}-\\
▁Yu
▁hots
▁spectroscopy
其在
▁factory
GI
levels
ulling
击
曼
▁Frame
nAff
觀眾
►
netic
heed
lvert
Hz
▁Then
▁requesting
olerance
▁Rescue
▁personal
日子
▁lear
]]\
的同
heads
getValue
Holder
hydr
约为
▁Screen
坏了
▁Items
Fn
來
▁Part
▁unless
uctions
舆
橘
撇
▁Women
▁hall
小编
▁kHz
友
к
考点
信任
orton
tb
<0x41>
houses
▁Saf
storage
▁weapon
更加的
棒的
这场
valued
袭击
previous
考验
▁Purch
相當
acerb
意見
文字
isons
没错
▁wonderful
oday
·
兢兢
宁
摇头
嫌弃
▁flakes
▁ки
Compile
▁lovely
rank
Where
disk
umber
IV
ault
▁hormone
漳
等待
▁daught
领悟
▁OF
要认真
醋
metics
鄉
▁accelerated
$~
标志
乱的
Put
ISTS
有序
▁slug
反思
Fi

▁provision
抗癌
▁discovers
▁crit
▁Amy
textbf
▁illustr
nPrior
▁tracking
跟我说
诀
老妈
iod
工会
naments
可知
溶解
设立了
将近
明细
▁fac
这样的
▁Solve
▁deal
до
的区别
▁Kirby
画
▁Exit
Major
▁banner
弥补
▁bunk
▁developed
uu
nThomas
▁prominently
夜
oya
▁touches
▁assertion
▁apost
лен
▁merger
▁erg
ilus
▁Taking
请求
詹
▁Kor
領
了这个
▁London
nSteve
▁gnome
▁Val
hline
maybe
nBusiness
));
我县
▁DE
▁swimming
LE
有余
传导
▁freedom
]\"
—\
水泥
nTeam
▁scanning
▁ге
▁dilig
一到
▁Advanced
random
▁Born
▁MBA
▁slid
决定
▁pharmacy
▁spectral
▁кра
▁inherit
留守儿童
▁theater
nDefine
于所述
LT
婚
▁Till
actually
第十
▁Starting
върш
TD
▁hours
Members
▁watching
nDec
▁IoT
乏
▁volleyball
▁Post
obby
贵人
十六条
不好
妨
<issue_start>
ropic
SIZE
▁aided
▁Venezuela
以后的
火热
薛
▁endorsed
arge
cur
▁Guest
▁diffusion
▁drawer
\"]
句话说
▁believe
▁helmets
品牌
留言
ocity
▁complexes
▁Directory
▁Rising
狱
り
▁sprink
Member
IMIT
Sheet
的吗
▁certain
▁writers
手中
worker
itable
▁conjunction
▁retrieve
华丽
▁detach
营
▁{\
孝
信念
tensor
vir
▁wins
finish
▁brushes
▁surf
▁Gree
▁tw
修复
病变
下雨
istinguishable
艾
▁guests
各级
▁modem
**:
降雨
literal
一路上
▁unfortunate
饱
fetch
&&\\
▁twitter
rw
▁privacy
赞助
heart
▁coordinated
▁nationals
ival
壤
峨
))^
eu
平平
ERC
▁rig
豐富
▁Clock
会长
vice
國內
▁compuls
otive
▁convicted
otiation
innie
▁MG
叔叔
seven
▁Trace
▁NAME
tV
▁Gun
一篇
完整
SSL
打了
vere
分支
▁purpose
顷
opez
▁mast
▁HST
uccess
在第
▁tox
rency
国人
▁relationships
pton
▁divorce
▁Lucy
▁trou
ongo
类似的
▁earthqu
ntwo
▁sum
求助
▁Flip
成立于
▁ours
层的
▁abundance
▁upwards
able
指引
brid
纠纷一案
▁incorporating
建立
▁witnesses
▁overlap
处处
rade
▁Vern
各地
dagger
也已
nBlue
▁strang
Used
skill
nApplication
▁mentioned
投票
ypically
rob
头
{{\\
到底是
所有
▁glorious
▁routers
▁disadvantages
racket
▁fixture
agues
asty
▁facts
一天
▁stamp
▁Sustainable
Simulation
▁overlook
▁Bri
德育
太大
▁nonprofit
Ratio
▁protected
读懂
▁giants
▁sticks
一起去
▁specific
▁wolves
获得感
毫
▁semantics
▁Engine
igenous
多头
▁ig
atural
would
mathbb
bk
named
▁deceased
▁classifiers
пен
▁staffing
▁Monday
▁Starbucks
励志
nSmall
rador
partial
hibit
▁District
▁girls
inated
=$
▁creator
有着
▁plasma
▁yell
范
▁inclination
出了
Sex
▁extremes
and
nUnfortunately
▁stark
驿
文学
▁SC
二
eries
])$
▁populated
评
Tele
▁Maria
Conn
公布
既然
▁brewing
▁probabilities
巾帼
极度
Grand
完整的
uffs
▁Flag
人次
▁Council
▁sensational
▁forced
口袋
化肥
uca
的土地
▁carri
<0x92>
▁Number
▁magnitude
&\
坚持
法的
遵循
▁injured
可以通过
纷纷表示
▁inhomogeneous
个股
面团
Mon
▁owner
▁placing
▁Facts
▁Ethics
nsee
std
▁RBI
azel
這樣
▁solution
根本
异性
▁Meta
▁boycott
inis
▁的
▁tidal
ignment
nPrim
执教
中的
стоя
午
mog
熬夜
▁strategy
upsilon
競
▁Leg
一度
▁nominations
▁Lauren
▁condemn
▁depression
▁Лу
严格执行
icol
均衡
屁股
hyth
▁Laur
interest
留念
aration
natural
▁human
<gh_stars>
ъз
广大
▁wreck
▁cohom
▁moderator
支付的
外壳
月开始
commons
渤海
▁Vac
生根
▁kissing
签约
的机会
不至于
]<
▁honors
▁tilted
▁int
OUSE
&&\
▁Clark
近百
Contact
甜蜜
▁Clement
Mouse
时间为
朝阳
nAt
▁aggressive
▁Pra
props
在我们
何时
▁betrayed
先
Research
▁declare
▁weight
▁exchange
IFY
▁wavefunction
被视为
▁interfering
是为了
%$
海水
▁agriculture
Tags
的名字
urus
SESSION
知识点
▁If
iton
会引起
想起了
▁paused
认可
工作效率
▁punishment
/{
進黨
▁coolest
再一次
▁breastfeeding
▁defend
hoot
▁newbie
▁criminal
MzUy
谈论
ndi
管理体系
挠
▁Med
vector
architecture
础
烹
▁ages
Convert
嘘
▁Actions
OC
paths
▁finitely
出击
▁fog
▁Tourism
nGreat
rn
▁reviewed
议题
▁\\{
▁contacted
study
▁sidewalk
shown
易懂
▁premiere
▁Cris
▁SB
▁contraction
温室
▁realise
战术
▁yourselves
书香
▁ML
国民党
▁finding
收紧
态度
为准
▁bully
實施
狐狸
疫苗
redit
▁VC
这样的人
摸排
NDY
issues
ager
reated
选址
在后
国产
▁endpoints
ledge
蘇
ASC
图书馆
▁avatar
演员
och
▁sou
酸奶
▁enthusi
人民的
▁uninstall
▁opposite
斋
▁profitability
ogle
corpor
▁rentals
ERA
nPort
婪
amins
nmsg
選擇
▁Rewards
▁scandals
的全
▁scrat
cester
哭
應該
▁talks
▁deserved
心动
▁bubble
ellite
▁convection
景
tuint
ль
Safe
未
Entity
▁Will
▁custody
▁emb
头盔
万元的
<0x4A>
▁happy
▁Windows
GP
稳步
▁filmmakers
ya
强大的
▁Ken
▁patience
也非常
衍生
教务
早点
▁Pun
▁fur
cref
lywood
中日
▁hungry
▁meaning
▁asymmetric
▁alterations
▁journey
▁dominated
▁track
▁drawn
ร
堡垒
▁piled
\">(
我也是
▁possessions
▁chronic
▁Griff
integr
更是
提升了
▁CRM
▁veterin
项规定
▁рез
直面
License
治安
▁flash
▁SY
AAA
fun
▁flagged
硬币
▁nom
把握
ек
arrings
不看
▁Optimization
▁Bean
▁delay
eeper
▁Dictionary
▁neutrons
getLogger
关切
確
story
把他
▁homelessness
飞的
到期
▁food
Cache
▁miss
f
▁weeks
婉
孙子
Doxy
▁^{\\
tS
的钱
當時
异地
tte
Board
输出端
▁CONTR
▁honored
«
管控
ollary
▁===
take
随时
README
之间
ivery
据悉
▁tit
園
累了
▁instructors
切成
▁wiped
▁Rouge
isan
fuel
▁negative
ED
directed
}:\\
<|unused045|>
▁им
▁organized
▁apprehens
▁capita
▁Memory
赞叹
糯
睡觉
ə
▁inst
▁'';\
的发
感知
ilt
owl
▁led
出租
釉
症状
nThen
▁Options
▁Support
Shot
绑定
▁
▁appreciated
锂
相结合
▁distorted
▁assaulted
ector
人工
▁година
▁Ball
▁Bee
膳
▁nomination
":"__
▁electro
▁fridge
阴性
▁equality
AVA
tup
立
▁families
Break
▁града
▁dealing
▁bags
▁plac
▁ip
▁Mer
▁семей
联席
直播
▁Log
举行了
音频
sn
▁questioned
convert
▁бо
▁Pelosi
nLaw
ften
都
▁soften
▁algebra
原来的
▁alliance
ere
ynote
чев
注释
没关系
▁neglect
▁authentic
纪录
In
▁смърт
老旧
rine
应该是
▁define
▁images
method
▁adam
▁Bio
在接受
Promise
忆
▁rust
大雨
asis
来讲
scription
▁Universe
防治
▁Airport
/\"
failure
億美元
融洽
▁accepts
ATER
▁comics
▁Visitors
理智
Obviously
定居
▁heroes
Mem
idx
▁Winner
▁Morgan
▁BMW
RAM
▁gran
高水平
家电
tl
nRegarding
ните
appear
难得
<|unused122|>
年的
药店
適
▁Knights
排水
掩盖
ograph
架构
website
▁Tea
喊
▁discourse
夏日
桃花
ване
亿美元的
/)\
▁substantive
bot
宪法
▁authored
情商
▁Roma
女士
可以为
告訴
▁Treasury
Args
▁disp
ylon
▁Brothers
▁един
▁inefficient
▁Ride
▁auf
get
赏
醉
▁Agile
我只是
quisition
IGHT
彰显
培养
▁Democr
ercise
▁forthcoming
扎根
▁fing
漫长
规
▁Redd
▁feels
▁monop
▁staggering
▁Financial
ibbean
▁Cat
▁coll
chall
跟进
trl
▁breaches
idering
▁forex
every
▁removed
▁boast
▁Son
看出
▁interface
积极推进
▁storms
免费
湾区
台上
小伙子
▁estimator
▁floods
難
▁not
▁gorgeous
%（
▁Skip
▁exhibition
▁accordingly
正在
▁documentaries
curity
般的
▁Collabor
可以根据
Standard
rising
ancing
nsl
urich
▁missed
通过对
ancial
又
▁cult
})=
▁Gi
▁truncation
▁beer
生物学
倩
kh
双向
▁minimal
多数
}]\
ende
等形式
▁Doc
▁WWE
▁Representative
▁devastated
▁empowering
也不是
\\\\
▁turtles
▁injection
racies
▁fiery
▁jump
▁wheel
▁incred
▁advent
▁fragr
nhowever
▁â
<commit_before>
职能
▁MORE
▁clearance
nass
雨水
Vertical
▁HREF
▁servicing
tention
given
nNe
把他们
变得
▁Unfortunately
▁stri
haust
▁entrance
▁група
stress
刘备
▁stupid
▁gigantic
▁lanes
▁burn
▁Harrison
译
▁request
▁warning
▁URLs
▁desire
PU
container
▁AG
sun
▁plots
▁grows
▁leader
▁GU
Strategy
卖了
curs
▁purported
呼和浩特
▁independent
▁E
西班
这样一个
研究中心
锤
▁Eat
nOver
▁ISS
orry
。
▁neighboring
图表
欣赏
Introduction
▁пи
刀
ensor
▁bacteria
football
▁distribut
总量
kind
脸上
▁Che
▁Almost
nDet
▁trio
vanishing
▁McConnell
母親
纹
▁incorporates
▁bod
田
<0xF8>
写着
blow
在外
<table/>
▁diagnostics
мя
▁Prec
ies
▁tribute
▁vo
预期的
▁inference
▁geometry
眼界
axes
▁Mask
▁production
▁dev
▁slee
▁brushing
清洁
ография
▁branch
半月
▁panels
▁mold
一面
WP
▁stretching
而又
Expression
赔偿金
爱尔
▁Nice
乳
river
pered
▁actively
回到
了多少
Encoding
▁primes
▁rank
一碗
▁python
▁convince
颠
home
▁insol
有利于
阶层
抓实
▁van
一定的
▁stamina
▁sandwic
起草
也知道
多种
}^{-
▁Фи
尼
词语
▁posed
▁kissed
办公室主任
▁Mu
礼仪
锅炉
的心灵
▁month
piece
▁dreamed
乐于
})}{\\
nSecurity
▁inexperienced
赣
bash
▁destroy
▁orthonormal
▁signed
▁poem
各式
KT
童
关系到
▁кни
PRESS
key
关键
tyard
Document
istries
tabs
▁intellect
▁practition
▁boots
▁Ike
▁statue
▁ACT
在上述
▁lawyer
▁Mama
urability
▁Tat
▁grey
▁colab
▁warming
▁garage
ume
第一百四
eeks
ircraft
auto
▁Bitcoin
清洗
▁comprehend
ederal
isheries
高了
nGreen
示威
美丽
regex
Shadow
Rub
忽视
nColor
separ
生活的
▁Congressman
法律文书
整治工作
正
踏上
下半
▁Erin
亏
所以他
康复
panic
这种
机电
日线
▁masking
洽
▁Laplacian
Develop
▁Before
Common
▁luminous
叛
nWas
邮件
▁mandated
▁semicon
志愿者
PAR
猛
▁Mig
▁Officials
耽
▁counseling
▁Wow
门店
▁filled
屏障
RG
▁Binary
▁Marion
едно
▁needle
可供
两人
MTI
太小
Ca
▁scholars
>)\
▁heavier
will
▁steward
交替
纬
camera
Another
提案
ophren
iparticle
▁Vamp
通常是
物品
nIts
gamma
leqslant
不相同
▁Neck
▁kidd
bul
VERT
▁ар
格
▁mens
说不
▁joy
▁admire
▁sincerely
utch
淄博
ocumented
Scroll
▁commands
mont
拧
▁Concord
▁committing
理工大学
▁erupt
nRyan
▁Healthy
寝
▁Vatican
ittle
▁prod
pos
▁Ot
▁Costa
cht
嘉
▁Capt
拯
opathy
▁RIGHT
疮
的速度
经审理
▁upstream
了不起
▁plateau
▁Us
▁developing
tically
▁slipped
▁como
▁decide
制服
宽敞
dependent
▁demonstr
Hu
▁luminosity
changed
▁rack
▁rarely
▁promotions
市场份额
数值
很强的
▁Vent
踩
▁DG
▁Wu
imension
▁WIN
中表示
▁enumerate
分工
ote
质地
透過
销售的
'}\\
quoted
▁epidemic
bilt
施加
▁adviser
▁horror
数千
gt
alg
应急预案
▁studios
▁ни
▁beginnings
▁Culture
▁salsa
Device
燈
瘀
▁combinator
ablished
ER
▁layouts
sizeof
osp
▁Jews
也不例外
nEnt
攻
▁deriv
外交部
cA
▁sk
▁delight
辞职
▁interrog
currently
▁symmetries
iane
塞
\""
ixon
▁hearing
能
▁mart
MNB
下降了
<|unused132|>
▁pointers
kv
▁antibody
海边
uds
▁allowance
舞
ilda
垫付
高手
offset
▁carn
▁iPod
对策
жду
▁Sar
nMart
开始的
有两个
▁polyt
▁Supreme
站长
ference
▁emails
▁occult
npub
▁Lodge
协
▁де
▁eager
Commit
晰
▁emp
▁``
饶
uring
▁Abu
▁Princ
▁Hem
核对
nexper
▁Physical
者和
实验小学
但却
▁appendix
▁hubs
留学
ayed
itution
nSure
phire
rys
▁impart
▁News
▁Blood
奋发
侵入
bacco
大佬
▁Din
▁booze
ране
▁Transit
时常
▁filed
▁BS
ée
Loading
▁loudly
oux
▁Knicks
▁flip
▁confirm
小说
违约金
颠覆
沙发
6
cedented
干货
functions
▁Neither
沿着
▁Bath
常委会
ige
▁financially
Yang
▁orbitals
奔波
更适合
ntype
激素
本的
comtag
void
前十
▁Pirates
转运
KEY
思想和
后半
▁because
▁changed
nk
OTY
欧冠
otted
<0xEC>
})^{
remark
村委会
▁locked
赴
▁Hall
хи
▁hesitation
▁Insider
bac
学生
▁Bridge
理事会
▁sensors
▁Austral
得分
变革
trial
▁trad
Primary
▁Charlotte
靠
AX
▁$|
▁arc
storm
入住
▁chi
▁simpl
dat
驿站
中学
▁shut
▁charact
▁moon
oxy
ature
▁»
毛泽东
▁gloss
▁Exp
贯穿
▁notices
▁meals
navbar
nins
▁freedoms
它能
屠
▁instructional
獲
▁dietary
▁Brownian
之路
浮
是需要
▁simple
觉得
局面
joint
irus
我们现在
arriage
▁precision
▁incre
行星
违法犯罪
▁assessment
▁salary
▁Profess
wed
诉讼费用
▁Scouts
经
Employee
▁bind
巡视
这家
▁glory
残忍
cultural
▁renders
▁barn
渊
汉语
oo
十五
▁listener
中级人民法院
▁heavily
▁Strateg
不用担心
▁nav
▁valuation
sports
ART
十足
:[
▁proclaim
inking
consum
<|unused005|>
Phot
▁modify
▁prost
软
ING
▁embedded
▁discern
▁cant
带给
until
寺庙
▁takes
主要的
▁SERV
▁Technology
gl
所用
▁celebrates
▁cinem
blown
▁multim
found
能把
劉
еди
illac
人们
lag
▁restricted
Bridge
bey
):=\\
政策和
确
右边
▁comedy
▁wi
▁through
NjQ
▁tropical
我的
ubes
▁isotopes
取出
▁Alberta
nEventually
▁records
▁colored
rect
必要
стро
Tri
China
倾
▁faults
▁variables
ilst
偶
承担
▁onset
▁mornings
▁various
▁murders
能有
▁ana
视听
都是
)+\\
ласт
原地
就和
buf
▁mon
在山
▁collabor
▁bedtime
默契
▁Takes
風險
的情
corr
满意的
[...]
